{
    "Ġtempted": 0,
    "Join": 1,
    "EP": 2,
    "Ġ107": 3,
    "Ġautomobile": 4,
    "adjusted": 5,
    "Follow": 6,
    "Ġoperation": 7,
    "osed": 8,
    "'.": 9,
    "Ġlisting": 10,
    "ĠCer": 11,
    "Ġterminology": 12,
    "usement": 13,
    "Ġexhibited": 14,
    "Ġcombustion": 15,
    "AU": 16,
    "Ġsanctuary": 17,
    "ĠAudi": 18,
    "ĠSugar": 19,
    "Ġnaive": 20,
    "Ġexem": 21,
    "Ġseverity": 22,
    "Ġcentury": 23,
    "Ġrein": 24,
    "Ġoutlined": 25,
    "Ġurgent": 26,
    "ĠÐ½": 27,
    "cyclop": 28,
    "ĠAssembly": 29,
    "ously": 30,
    "Ġappropri": 31,
    "Ġbed": 32,
    "Ĳ": 33,
    "ishable": 34,
    "Ġdivorced": 35,
    "Ġvendors": 36,
    "ĠRoth": 37,
    "Ġsupers": 38,
    "Picture": 39,
    "Ġleft": 40,
    "unless": 41,
    "uy": 42,
    "ĠHarold": 43,
    "ĠCreator": 44,
    "Pa": 45,
    "Ġpopulist": 46,
    "ĠStan": 47,
    "Ġresemble": 48,
    "ĠYaz": 49,
    "Ġcode": 50,
    "ft": 51,
    "Ġ1989": 52,
    "Ø±": 53,
    "Ġcharism": 54,
    "hp": 55,
    "Ġbots": 56,
    "gon": 57,
    "FK": 58,
    "Ġcircle": 59,
    "utation": 60,
    "Ġdead": 61,
    "ĠChrom": 62,
    "Ġtension": 63,
    "Ġconfrontation": 64,
    "Ġstumbled": 65,
    "gold": 66,
    "Ġpieces": 67,
    "Ġrecreate": 68,
    "ĠThan": 69,
    "Res": 70,
    "Ġlion": 71,
    "board": 72,
    "ĠGilles": 73,
    "Ġdevelops": 74,
    "ĠProject": 75,
    "ĠStart": 76,
    "Ġpossessions": 77,
    "ĠMoreover": 78,
    "ĠFashion": 79,
    "Co": 80,
    "Ġtrainer": 81,
    "Ġnode": 82,
    "ibal": 83,
    "Ġsciences": 84,
    "rule": 85,
    "Ġausterity": 86,
    "Ġcommunism": 87,
    "Ġassignments": 88,
    "gie": 89,
    "ĠKaw": 90,
    "Ġcasc": 91,
    "irlfriend": 92,
    "Ġoccas": 93,
    "Ġwages": 94,
    "ĠPush": 95,
    "Ġemerging": 96,
    "Ġactively": 97,
    "Ġestablishment": 98,
    "rapped": 99,
    "Ġdismissed": 100,
    "ĠThat": 101,
    "Ġcourse": 102,
    "Ġpasswords": 103,
    "ĠPist": 104,
    "Late": 105,
    "ĠWrestling": 106,
    "Ġpirates": 107,
    "Ġ1956": 108,
    "Ġ1918": 109,
    "Ġdeployment": 110,
    "ica": 111,
    "isted": 112,
    "ĠMult": 113,
    "ĠTheresa": 114,
    "Ġ2001": 115,
    "Ġlawsuit": 116,
    "Ġfocused": 117,
    "ĠLions": 118,
    "Ġprison": 119,
    "walks": 120,
    "represented": 121,
    "Ġsynt": 122,
    "Ġtasting": 123,
    "Ġairlines": 124,
    "Ġrud": 125,
    "Ban": 126,
    "Ġwestern": 127,
    "Ġfuneral": 128,
    "interested": 129,
    "Ġblur": 130,
    "rather": 131,
    "Ġstructure": 132,
    "IN": 133,
    "amo": 134,
    "...)": 135,
    "Ġfarming": 136,
    "ĠNRA": 137,
    "neapolis": 138,
    "ĠGrass": 139,
    "ĠRoyal": 140,
    "ucky": 141,
    "ĠFactory": 142,
    "ĠEveryone": 143,
    "ĠSP": 144,
    "Ġrecharge": 145,
    "Ġinformation": 146,
    "urchase": 147,
    "Ġgives": 148,
    "ĠOliver": 149,
    "Ġgreatness": 150,
    "ĠDetective": 151,
    "Ġapologize": 152,
    "urable": 153,
    "Ġmildly": 154,
    "Ġadds": 155,
    "toos": 156,
    "quez": 157,
    "ĠMillion": 158,
    "Ġautobiography": 159,
    "Ġillustrated": 160,
    "arency": 161,
    "ĠQuarter": 162,
    "Congress": 163,
    "ĠHurricanes": 164,
    "Ġlarge": 165,
    "ĠCorporation": 166,
    "ĠWilliam": 167,
    "mo": 168,
    "Ġconcealed": 169,
    "clock": 170,
    "ĠJal": 171,
    "Ġcolored": 172,
    "ĠTul": 173,
    "Ġnegotiation": 174,
    "ĠArmen": 175,
    "Ġembodied": 176,
    "Ġvoice": 177,
    "Ġdisease": 178,
    "Ġrecall": 179,
    "Ġpolicy": 180,
    "Ġsquads": 181,
    "Ġ]": 182,
    "Ġtim": 183,
    "Ġ40": 184,
    "Ġlaser": 185,
    "Ġrookie": 186,
    "poons": 187,
    "Ġproud": 188,
    "onomy": 189,
    "Ġrespect": 190,
    "Ġ>>>": 191,
    "ÐµÑĤ": 192,
    "initely": 193,
    "Ġcommunicate": 194,
    "43": 195,
    "ĠMail": 196,
    "Ġopio": 197,
    "Ġsideline": 198,
    "Mad": 199,
    "Ġjugg": 200,
    "ĠBol": 201,
    "Ġcelebrating": 202,
    "Ġrelent": 203,
    "Ġexhausted": 204,
    "Ġcompiling": 205,
    "Ang": 206,
    "Ġharvesting": 207,
    "Ġdecomp": 208,
    "Ġsuspicion": 209,
    "Ġrecipes": 210,
    "Ġfacilitate": 211,
    "common": 212,
    "Ġupro": 213,
    "Ġhemisphere": 214,
    "ocused": 215,
    "Ġambiguity": 216,
    "Ġpartisans": 217,
    "ns": 218,
    "Ġresigned": 219,
    "jury": 220,
    "Ġmisleading": 221,
    "Ġnude": 222,
    "Ġgoaltender": 223,
    "Ġdisputes": 224,
    "ICK": 225,
    "Ġluggage": 226,
    "Ġconstant": 227,
    "Ġinnate": 228,
    "Ġbenchmarks": 229,
    "Ġattackers": 230,
    "orns": 231,
    "Ġsodium": 232,
    "onial": 233,
    "Ġformal": 234,
    "ĠResidents": 235,
    "Ġspirit": 236,
    "SEC": 237,
    "icide": 238,
    "Ġjuice": 239,
    "ber": 240,
    "Ġcompr": 241,
    "Ġhamm": 242,
    "ages": 243,
    "Ġcruel": 244,
    "andum": 245,
    "Ġdiffer": 246,
    "Ġmir": 247,
    "Ġstriker": 248,
    "Dar": 249,
    "ĠVehicle": 250,
    "Ġburn": 251,
    "Ġhelmet": 252,
    "ĠMTV": 253,
    "Ġhiatus": 254,
    "ihad": 255,
    "Ġmotivated": 256,
    "ĠRapids": 257,
    "Ġprocessing": 258,
    "Ġstewards": 259,
    "Ġshattered": 260,
    "ĠAchie": 261,
    "ochem": 262,
    "Ġrain": 263,
    "ĠSyracuse": 264,
    "iw": 265,
    "veillance": 266,
    "HD": 267,
    "Ġfighters": 268,
    "Ġthrew": 269,
    "Rob": 270,
    "Ġcompared": 271,
    "Asked": 272,
    "ĠWarrior": 273,
    "ĠChronicles": 274,
    "Ġrust": 275,
    "ĠChem": 276,
    "ĠDE": 277,
    "Ġepidem": 278,
    "ĠSilk": 279,
    "ĠIns": 280,
    "Ġsie": 281,
    "Ġdaring": 282,
    "Ġincre": 283,
    "ĠConstruction": 284,
    "ĠXavier": 285,
    "Ġgrid": 286,
    "Ġpatterns": 287,
    "Ġwinning": 288,
    "Ġfounder": 289,
    "Ġhabit": 290,
    "depth": 291,
    "Ġmor": 292,
    "Ġexpensive": 293,
    "Ġspacecraft": 294,
    "Ġpartners": 295,
    "ĠTolkien": 296,
    "ĠMonst": 297,
    "Ten": 298,
    "ire": 299,
    "Ġincluded": 300,
    "Ġcooperate": 301,
    "Ġattempted": 302,
    "Ġpackage": 303,
    "ĠPearson": 304,
    "Ġpredec": 305,
    "ologists": 306,
    "Ġbeauty": 307,
    "Ġbrought": 308,
    "Ġbail": 309,
    "Ġhackers": 310,
    "job": 311,
    "Future": 312,
    "Ġheal": 313,
    "Ġinward": 314,
    "Ġtends": 315,
    "SON": 316,
    "ĠGri": 317,
    "Ġrequesting": 318,
    "ĠPin": 319,
    "Ġjurors": 320,
    "ĠBull": 321,
    "letcher": 322,
    "Ġcontacting": 323,
    "Ġpolymer": 324,
    "unt": 325,
    "Ĝ": 326,
    "Ġresilient": 327,
    "Ġdisplacement": 328,
    "maker": 329,
    "ospel": 330,
    "ĠNationals": 331,
    "ĠPerth": 332,
    "Ġmasturb": 333,
    "ique": 334,
    "Ġ113": 335,
    "Ġsports": 336,
    "Ġendanger": 337,
    "Ġentreprene": 338,
    "perial": 339,
    "ĠDuty": 340,
    "Ġswallow": 341,
    "Ġincidents": 342,
    "Ġfigure": 343,
    "Ġhood": 344,
    "ĠHy": 345,
    "Ġbon": 346,
    "OWN": 347,
    "Ġinsects": 348,
    "ining": 349,
    "Ġadvises": 350,
    "Ġrepealing": 351,
    "outine": 352,
    "Ġresponsibilities": 353,
    "100": 354,
    "angu": 355,
    "ĠCapt": 356,
    "ĠCro": 357,
    "Ġaliens": 358,
    "chell": 359,
    "Ġimpat": 360,
    "Ġcompatibility": 361,
    "Ġdevastated": 362,
    "Ġliter": 363,
    "Ġperpet": 364,
    "Ġhockey": 365,
    "data": 366,
    "Ġdishes": 367,
    "ide": 368,
    "Ġpen": 369,
    "ĠRestaur": 370,
    "market": 371,
    "ĠCU": 372,
    "ĠLost": 373,
    "OL": 374,
    "Ġtherapies": 375,
    "ĠFallon": 376,
    "Ġcharismatic": 377,
    "Ġenforced": 378,
    "Ġunchanged": 379,
    "Ġsevent": 380,
    "bu": 381,
    "Ġartistic": 382,
    "ided": 383,
    "Ġdiplomat": 384,
    "ward": 385,
    "iologist": 386,
    "ĠDO": 387,
    "Ġarsenal": 388,
    "conom": 389,
    "ĠMathem": 390,
    "ĠCustom": 391,
    "Ġtimed": 392,
    "Ġfur": 393,
    "ĠSchmidt": 394,
    "Ġpneumonia": 395,
    "ĠOrt": 396,
    "Ġboards": 397,
    "Ġviolent": 398,
    "Ðº": 399,
    "Ġhots": 400,
    "ĠHispan": 401,
    "Ġveh": 402,
    "Ġgrain": 403,
    "Ġwireless": 404,
    "Ġoperational": 405,
    "Ġcannabis": 406,
    "ĠHawaiian": 407,
    "Ġseriousness": 408,
    "version": 409,
    "BC": 410,
    "Ġcalib": 411,
    "Ġnond": 412,
    "Ġmother": 413,
    "gate": 414,
    "ĠDynam": 415,
    "Ġspokesperson": 416,
    "Ġfing": 417,
    "atorial": 418,
    "Ġuniversity": 419,
    "ĠBaldwin": 420,
    "ĠDav": 421,
    "á¹": 422,
    "Sy": 423,
    "ĠLat": 424,
    "ĠHunt": 425,
    "ination": 426,
    "Ġfamily": 427,
    "ĠZe": 428,
    "Ġjudgement": 429,
    "bike": 430,
    "Total": 431,
    "lish": 432,
    "Econom": 433,
    "ĠMSNBC": 434,
    "hensive": 435,
    "political": 436,
    "370": 437,
    "ua": 438,
    "ĠZoo": 439,
    "Sher": 440,
    "ĠJoshua": 441,
    "fan": 442,
    "arius": 443,
    "âķ": 444,
    "Ġundersc": 445,
    "Ġshowing": 446,
    "ĠCritics": 447,
    "Ġoxide": 448,
    "ĠMean": 449,
    "Ġgoat": 450,
    "aded": 451,
    "ĠBorn": 452,
    "Ġundermine": 453,
    "Ġcreators": 454,
    "Ġdisturbance": 455,
    "inity": 456,
    "Ġcolors": 457,
    "omach": 458,
    "ovember": 459,
    "ĠPunjab": 460,
    "Ġbases": 461,
    "ĠâĢĶ": 462,
    "epernick": 463,
    "Ġwelcomes": 464,
    "iggins": 465,
    "us": 466,
    "di": 467,
    "Ġgranted": 468,
    "ĠAngel": 469,
    "apes": 470,
    "Cost": 471,
    "Ġtorque": 472,
    "Ġlonely": 473,
    "Ġwaters": 474,
    "anium": 475,
    "Ġvillains": 476,
    "gar": 477,
    "ci": 478,
    "ussion": 479,
    "creat": 480,
    "Ball": 481,
    "itol": 482,
    "ĠâĢľ[": 483,
    "Ġsilicon": 484,
    "ĠLucas": 485,
    "ĠManafort": 486,
    "ĠMaya": 487,
    "Ġimplements": 488,
    "abilities": 489,
    "ĠAlbert": 490,
    "ĠPaula": 491,
    "oween": 492,
    "iated": 493,
    "ĠRupert": 494,
    "Ġ34": 495,
    "Ġavoided": 496,
    "court": 497,
    "Ġhappiness": 498,
    "ĠJorge": 499,
    "Ġcandy": 500,
    "Ġstake": 501,
    "ĠEnforcement": 502,
    "Ġsett": 503,
    "Ġgains": 504,
    "Ġopponent": 505,
    "Center": 506,
    "ĠSI": 507,
    "Ġbesides": 508,
    "Ġawesome": 509,
    "itute": 510,
    "ĠLinda": 511,
    "Ġclip": 512,
    "Ġshrugged": 513,
    "ĠPodesta": 514,
    "Ġbother": 515,
    "Ġsuspicions": 516,
    "Ġmanipulating": 517,
    "ĠLex": 518,
    "ĠSale": 519,
    "Ġadept": 520,
    "Ġfue": 521,
    "Ġriot": 522,
    "ĠSans": 523,
    "Ġrenegoti": 524,
    "abin": 525,
    "ĠTownship": 526,
    "Ġgases": 527,
    "amy": 528,
    "Ġsticks": 529,
    "LS": 530,
    "ĠOnt": 531,
    "fd": 532,
    "Ġeternity": 533,
    "older": 534,
    "Ġsearches": 535,
    "Ġaccountability": 536,
    "Ġvest": 537,
    "ĠChoose": 538,
    "Ġborder": 539,
    "Ġcoinc": 540,
    "GE": 541,
    "Ġsket": 542,
    "170": 543,
    "hani": 544,
    "ĠÐº": 545,
    "oret": 546,
    "azers": 547,
    "ĠFrankfurt": 548,
    "ĠArn": 549,
    "Ġpositioning": 550,
    "ĠÂ·": 551,
    "ĠPortug": 552,
    "ĠFriedman": 553,
    "ĠTao": 554,
    "manned": 555,
    "Ġtiss": 556,
    "Ġreinvent": 557,
    "video": 558,
    "Ġreference": 559,
    "Ġhospitals": 560,
    "Ġpiled": 561,
    "Ġbrothers": 562,
    "ĠMoz": 563,
    "Ġwarp": 564,
    "uart": 565,
    "Ġencounters": 566,
    "Ġalternatives": 567,
    "eur": 568,
    "Ġworsh": 569,
    "Ġmassacre": 570,
    "Ġpens": 571,
    "inance": 572,
    "ĠBarrett": 573,
    "Ġiterations": 574,
    "ĠHoll": 575,
    "Ġgain": 576,
    "Ġproced": 577,
    "Ġbarbecue": 578,
    "Ġconfidence": 579,
    "Ġweakness": 580,
    "Ġfake": 581,
    "Ġpione": 582,
    "ĠOften": 583,
    "ĠFederation": 584,
    "Ġlifting": 585,
    "among": 586,
    "Ġassignment": 587,
    "Ġmeltdown": 588,
    "ĠParticipants": 589,
    "Ġorchest": 590,
    "ĠEnvironmental": 591,
    "sequently": 592,
    "ĠOS": 593,
    "Ġsequence": 594,
    "ĠAtlant": 595,
    "Master": 596,
    "self": 597,
    "Ġubiquitous": 598,
    "Ġneighbouring": 599,
    "ured": 600,
    "ĠSection": 601,
    "Ġwrest": 602,
    "Ġrevered": 603,
    "Ġdivorce": 604,
    "available": 605,
    "ĠFloyd": 606,
    "erer": 607,
    "Ġsignificance": 608,
    "Ġaddressed": 609,
    "Ġreplica": 610,
    "ĠPokÃ©mon": 611,
    "uff": 612,
    "aney": 613,
    "-$": 614,
    "Ġworthwhile": 615,
    "APD": 616,
    "Ġperform": 617,
    "Ġfe": 618,
    "Ġinqu": 619,
    "ĠPole": 620,
    "ĠOffice": 621,
    "Ġdisappears": 622,
    "Ġhundred": 623,
    "sis": 624,
    "Israeli": 625,
    "Ġneat": 626,
    "Ġdrank": 627,
    "Ġplanners": 628,
    "Ġbroadband": 629,
    "ĠCapital": 630,
    "arily": 631,
    "Ġintrinsic": 632,
    "Ġcommunities": 633,
    "Ġsepar": 634,
    "aught": 635,
    "pract": 636,
    "Ġremoving": 637,
    "Whether": 638,
    "prising": 639,
    "Ġdeploying": 640,
    "Ġfalling": 641,
    "aine": 642,
    "Ġfloated": 643,
    "Ġsusp": 644,
    "Ġil": 645,
    "dragon": 646,
    "iller": 647,
    "Ġtub": 648,
    "ĠLew": 649,
    "ourced": 650,
    "Ġreceptor": 651,
    "Mill": 652,
    "Ġassure": 653,
    "ĠMali": 654,
    "Ġ1968": 655,
    "Ġturbine": 656,
    "ĠMol": 657,
    "former": 658,
    "tti": 659,
    "unicipal": 660,
    "iy": 661,
    "ĠOpt": 662,
    "Ġagent": 663,
    "guy": 664,
    "Ġhorizontal": 665,
    "ĠMod": 666,
    "Ġprover": 667,
    "2015": 668,
    "ĠBrazil": 669,
    "Ġdispatched": 670,
    "ĠDis": 671,
    "agent": 672,
    "Ġchalk": 673,
    "ĠBar": 674,
    "Ġexplore": 675,
    "Ġtrait": 676,
    "ĠJab": 677,
    "ĠII": 678,
    "ĠÐ½Ð°": 679,
    "Ġeve": 680,
    "54": 681,
    "Ġpenal": 682,
    "Think": 683,
    "Ġ1943": 684,
    "ĠGrid": 685,
    "ĠRocket": 686,
    "button": 687,
    "PH": 688,
    "auth": 689,
    "particularly": 690,
    "Ġtime": 691,
    "pa": 692,
    "Ġvillagers": 693,
    "Ġhail": 694,
    "Ġtasked": 695,
    "het": 696,
    "Ġbroad": 697,
    "Ġbeers": 698,
    "??": 699,
    "Rest": 700,
    "fare": 701,
    "ĠGods": 702,
    "German": 703,
    "Ġorbits": 704,
    "Ġobsessed": 705,
    "Ġ29": 706,
    "Ġspots": 707,
    "ĠLoren": 708,
    "Ġ1950": 709,
    "ĠCoin": 710,
    "ness": 711,
    "Ġterritories": 712,
    "Ġcontrace": 713,
    "Ġinflux": 714,
    "Ġforward": 715,
    "oline": 716,
    "Ġinhabitants": 717,
    "Ġox": 718,
    "odies": 719,
    "Ġmonsters": 720,
    "Ġelectorate": 721,
    "ĠBain": 722,
    "ĠTap": 723,
    "psons": 724,
    "pher": 725,
    "Ġadvocate": 726,
    "Ġbands": 727,
    "Ġelite": 728,
    "Ġpart": 729,
    "obo": 730,
    "alk": 731,
    "ĠRodriguez": 732,
    "Ġmassively": 733,
    "ĠTan": 734,
    "Comment": 735,
    "much": 736,
    "ĠHey": 737,
    "Ġoffices": 738,
    "ĠCNN": 739,
    "ĠCemetery": 740,
    "Ġob": 741,
    "Ġglobalization": 742,
    "Ġoptical": 743,
    "extreme": 744,
    "Ġpeninsula": 745,
    "atic": 746,
    "Ġculinary": 747,
    "ĠST": 748,
    "inter": 749,
    "Ġassigned": 750,
    "ĠOverwatch": 751,
    "Ac": 752,
    "lly": 753,
    "Ġbusinessmen": 754,
    "That": 755,
    "Ġterribly": 756,
    "WA": 757,
    "lay": 758,
    "126": 759,
    "Ġproducer": 760,
    "Ġchaos": 761,
    "Ġhapp": 762,
    "ĠChain": 763,
    "Putin": 764,
    "sted": 765,
    "Crit": 766,
    "Ġsoul": 767,
    "ansom": 768,
    "nesota": 769,
    "Ġvariable": 770,
    "ĠGand": 771,
    "gery": 772,
    "Ġrating": 773,
    "teen": 774,
    ")âĢĶ": 775,
    "ĠFellow": 776,
    "Ġinvolvement": 777,
    "ĠNode": 778,
    "content": 779,
    "Ġfantasy": 780,
    "Battle": 781,
    "Ġvaccines": 782,
    "ollywood": 783,
    "Ġalien": 784,
    "patient": 785,
    "Ġgene": 786,
    "Ġrice": 787,
    "Ġdistress": 788,
    "Ġbolt": 789,
    "iak": 790,
    "viously": 791,
    "Pinterest": 792,
    "ourse": 793,
    "Ġmultiplayer": 794,
    "Reilly": 795,
    "ĠPress": 796,
    "Ġsmoke": 797,
    "Sean": 798,
    "Ġrevis": 799,
    "uggish": 800,
    "Background": 801,
    "itud": 802,
    "Ġspontaneous": 803,
    "-,": 804,
    "Ġtriggers": 805,
    "Ġagreements": 806,
    "Sat": 807,
    "Ġprincip": 808,
    "Ġcomputer": 809,
    "END": 810,
    "Ã¤r": 811,
    "Ġpaths": 812,
    "Ġcase": 813,
    "ific": 814,
    "ĠRoberts": 815,
    "ĠPunk": 816,
    "Ġlibr": 817,
    "Former": 818,
    "Ġflooding": 819,
    "ĠPed": 820,
    "aders": 821,
    "Ġhope": 822,
    "Ġteaser": 823,
    "Ġspaces": 824,
    "assy": 825,
    "turned": 826,
    "Ġnoticed": 827,
    "Ġdistribut": 828,
    "Ġmanipulation": 829,
    "ĠFah": 830,
    "ĠGingrich": 831,
    "Park": 832,
    "Ġjoints": 833,
    "Ġ1973": 834,
    "sle": 835,
    "ĠDoe": 836,
    "Ġmentioning": 837,
    "ĠGE": 838,
    "ĠColonel": 839,
    "ĠAny": 840,
    "Ġcaffeine": 841,
    "Ġ1963": 842,
    "ĠPR": 843,
    "Code": 844,
    "Ġtotally": 845,
    "Ġ1919": 846,
    "fired": 847,
    "jav": 848,
    "WS": 849,
    "ĠFeinstein": 850,
    "Ġexercising": 851,
    "ificant": 852,
    "ĠChand": 853,
    "Ġprocedural": 854,
    "Ġtissues": 855,
    "Ġelectromagnetic": 856,
    "yd": 857,
    "ĠThomson": 858,
    "ĠNapoleon": 859,
    "Ġtar": 860,
    "girl": 861,
    "ĠChanges": 862,
    "ã": 863,
    "Ġconcentration": 864,
    "ĠBrett": 865,
    "Ġjudges": 866,
    "Ġeclipse": 867,
    "ĠComp": 868,
    "Ġlargely": 869,
    "ong": 870,
    "ĠAlexandria": 871,
    "its": 872,
    "Ġresignation": 873,
    "ĠBernie": 874,
    "ĠRam": 875,
    "Ġ190": 876,
    "Ġimpairment": 877,
    "ĠBronx": 878,
    "ĠMagic": 879,
    "ĠCav": 880,
    "ĠDro": 881,
    "Ġanswer": 882,
    "ĠDoyle": 883,
    "ĠSoviet": 884,
    "Create": 885,
    "=âĢĿ": 886,
    "adata": 887,
    "president": 888,
    "ĠMal": 889,
    "ars": 890,
    "ifts": 891,
    "ĠFran": 892,
    "ĠHigh": 893,
    "El": 894,
    "ĠMunich": 895,
    "ĠNO": 896,
    "Ġalignment": 897,
    "Ġherself": 898,
    "ĠHopkins": 899,
    "Ġgrowers": 900,
    "oked": 901,
    "ĠRS": 902,
    "Health": 903,
    "Ġevaluation": 904,
    "ĠGin": 905,
    "ĠSIM": 906,
    "wo": 907,
    "Ġobligated": 908,
    "Ġobviously": 909,
    "Another": 910,
    "Ġinflammatory": 911,
    "ĠRosen": 912,
    "âĢĻ)": 913,
    "lections": 914,
    "Ġoffense": 915,
    "far": 916,
    "Ġgenome": 917,
    "Works": 918,
    "ĠExperience": 919,
    "itals": 920,
    "ĠSims": 921,
    "ĠEstate": 922,
    "Ġfif": 923,
    "Ġapplause": 924,
    "Ġeject": 925,
    "Ġstar": 926,
    "Ġdevil": 927,
    "60": 928,
    "Ġdemonstrations": 929,
    "PD": 930,
    "ĠBullet": 931,
    "Ġastronauts": 932,
    "Disc": 933,
    "ĠCommunication": 934,
    "Ġpromises": 935,
    "ians": 936,
    "Ġi": 937,
    "Ġinnocence": 938,
    "Ġunintention": 939,
    "Ġattendance": 940,
    "burn": 941,
    "ĠAT": 942,
    "ĠHoover": 943,
    "iph": 944,
    "Ġphysicist": 945,
    "ITE": 946,
    "Ġking": 947,
    "itions": 948,
    "ĠBad": 949,
    "ĠArmor": 950,
    "TOR": 951,
    "ç": 952,
    "fort": 953,
    "Ġturnover": 954,
    "----------------------------------------------------------------": 955,
    "Ġplaying": 956,
    "Ġmedicine": 957,
    "NR": 958,
    "6": 959,
    "ĠCrist": 960,
    "san": 961,
    "Ġdial": 962,
    "Ġpredators": 963,
    "tml": 964,
    "geoning": 965,
    "Ġelectr": 966,
    "Ġloser": 967,
    "ĠOrgan": 968,
    "enta": 969,
    "laim": 970,
    "Ġhosted": 971,
    "Jim": 972,
    "Ġimperial": 973,
    "Ġreveals": 974,
    "ĠRegister": 975,
    "SO": 976,
    "mented": 977,
    "obil": 978,
    "Ġel": 979,
    "asper": 980,
    "Ġdare": 981,
    "Ġunrealistic": 982,
    "ĠTraditional": 983,
    "Ġsank": 984,
    "Ġpresses": 985,
    "Six": 986,
    "Ġdaughters": 987,
    "ouston": 988,
    "ĠBrexit": 989,
    "groups": 990,
    "riages": 991,
    "ritional": 992,
    "Ġregimes": 993,
    "sto": 994,
    "ĠValue": 995,
    "USE": 996,
    "Ġsaves": 997,
    "ĠKi": 998,
    "Ġprec": 999,
    "Ġintentions": 1000,
    "ĠRuth": 1001,
    "HT": 1002,
    "ĠMik": 1003,
    "erala": 1004,
    "Ġurgency": 1005,
    "Ġhonors": 1006,
    "Ġinert": 1007,
    "Ġwin": 1008,
    "Ġrelies": 1009,
    "ĠAbdul": 1010,
    "inent": 1011,
    "ĠSorry": 1012,
    "ĠHelen": 1013,
    "Ġdire": 1014,
    "Ġice": 1015,
    "ĠLeg": 1016,
    "Ġwhist": 1017,
    "ĠMurphy": 1018,
    "ĠSpirit": 1019,
    "Ġdividends": 1020,
    "Ġintroduction": 1021,
    "Ġnewest": 1022,
    "Ġtracker": 1023,
    "istic": 1024,
    "Was": 1025,
    "Ġdressing": 1026,
    "ĠHawk": 1027,
    "Ġwishes": 1028,
    "ĠEmpire": 1029,
    "ĠNut": 1030,
    "Ġhitters": 1031,
    "ff": 1032,
    "owd": 1033,
    "Ġtoured": 1034,
    "Ġwater": 1035,
    "Ġpervasive": 1036,
    "half": 1037,
    "Ġtraject": 1038,
    "ĠInitially": 1039,
    "orious": 1040,
    "iler": 1041,
    "zh": 1042,
    "ĠSunni": 1043,
    "ustainable": 1044,
    "ĠCarr": 1045,
    "Ġtransp": 1046,
    "arity": 1047,
    "Ġbleeding": 1048,
    "Ġobs": 1049,
    "AH": 1050,
    "indal": 1051,
    "ĠFer": 1052,
    "Ġtens": 1053,
    "ĠWay": 1054,
    "Ġdelight": 1055,
    "ĠSavage": 1056,
    "Ö": 1057,
    "Ġartific": 1058,
    "Ġoptimize": 1059,
    "ogether": 1060,
    "Figure": 1061,
    "Ġfishing": 1062,
    "Ġpermitted": 1063,
    "rep": 1064,
    "Ġoffensive": 1065,
    "ħ": 1066,
    "ĠAlaska": 1067,
    "igel": 1068,
    "Ġtherm": 1069,
    "Ġotherwise": 1070,
    "ervice": 1071,
    "ĠCharter": 1072,
    "Ġrefusing": 1073,
    "ĠKet": 1074,
    "Subscribe": 1075,
    "Ġreflective": 1076,
    "ims": 1077,
    "Ġneighboring": 1078,
    "mor": 1079,
    "ĠStop": 1080,
    "Ġbrain": 1081,
    "ĠReplay": 1082,
    "Ġplagued": 1083,
    "ĠMusk": 1084,
    "raft": 1085,
    "secutor": 1086,
    "ĠSession": 1087,
    "ĠLikewise": 1088,
    "manship": 1089,
    "Ġdisgr": 1090,
    "Pacific": 1091,
    "ĠGive": 1092,
    "Ġauction": 1093,
    "Ġsigh": 1094,
    "Ġordin": 1095,
    "Ġrespective": 1096,
    "Ġmilestone": 1097,
    "Ġanytime": 1098,
    "Uk": 1099,
    "izards": 1100,
    "Ġyour": 1101,
    "Ġboarded": 1102,
    "Ġdollars": 1103,
    "cil": 1104,
    "Ġdefines": 1105,
    "Ġelements": 1106,
    "Ġdeleted": 1107,
    "cann": 1108,
    "EG": 1109,
    "Ġrent": 1110,
    "Ġcompe": 1111,
    "Ġblat": 1112,
    "Ġpump": 1113,
    "Ġblows": 1114,
    "ĠSpecifically": 1115,
    "Ġpuzzles": 1116,
    "Ġdisqual": 1117,
    "Ġgeared": 1118,
    "Ġsandwiches": 1119,
    "asses": 1120,
    "ĠDarren": 1121,
    "Ġresolve": 1122,
    "Å": 1123,
    "Ġunlaw": 1124,
    "Ġnegative": 1125,
    "Ġauthoritative": 1126,
    "ĠChal": 1127,
    "yl": 1128,
    "Av": 1129,
    "Ġautobi": 1130,
    "uels": 1131,
    "liminary": 1132,
    "Anti": 1133,
    "isms": 1134,
    "ĠLooking": 1135,
    "ĠRaspberry": 1136,
    "Ġaugmented": 1137,
    "Ġoutsk": 1138,
    "Ġgenerator": 1139,
    "engine": 1140,
    "ĠLord": 1141,
    "Ġinvention": 1142,
    "Ġjumps": 1143,
    "ĠUtt": 1144,
    "Ġcust": 1145,
    "ĠOcc": 1146,
    "Ġreactions": 1147,
    "Ġmassage": 1148,
    "Ġreload": 1149,
    "Ġozone": 1150,
    "Ġannouncements": 1151,
    "Ġintrins": 1152,
    "Ġgentleman": 1153,
    "ĠSha": 1154,
    "ĠAnaly": 1155,
    "ĠInvestig": 1156,
    "Ġorganizer": 1157,
    "Ġpant": 1158,
    "Ġbelieves": 1159,
    "Ġanalyze": 1160,
    "Have": 1161,
    "Ġcameo": 1162,
    "SM": 1163,
    "prof": 1164,
    "ĠTell": 1165,
    "Ġbuilders": 1166,
    "ĠConnor": 1167,
    "ĠRoute": 1168,
    "ĠDeal": 1169,
    "Ġcups": 1170,
    "Ġspar": 1171,
    "ĠThankfully": 1172,
    "ĠLawson": 1173,
    "ĠBern": 1174,
    "Ġeditorial": 1175,
    "Ġenemy": 1176,
    "aria": 1177,
    "Ġ&": 1178,
    "ĠMell": 1179,
    "Contact": 1180,
    "ery": 1181,
    "acies": 1182,
    "Ġhunters": 1183,
    "Ġsubstitute": 1184,
    "Ġoperate": 1185,
    "ĠQuote": 1186,
    "Ġconsolidated": 1187,
    "berman": 1188,
    "ĠSoon": 1189,
    "Ġvoices": 1190,
    "Ġta": 1191,
    "ĠBoulder": 1192,
    "ĠMom": 1193,
    "change": 1194,
    "Ġtherape": 1195,
    "ality": 1196,
    "Ġrelated": 1197,
    "ĠLocal": 1198,
    "Ġattain": 1199,
    "ĠEri": 1200,
    "Ġperiod": 1201,
    "Ġenhancement": 1202,
    "ĠNumber": 1203,
    "ĠTribe": 1204,
    "immer": 1205,
    "Ġhardly": 1206,
    "ĠCompl": 1207,
    "online": 1208,
    "ĠBecause": 1209,
    "ĠRanch": 1210,
    "Ġconsequence": 1211,
    "ĠPetro": 1212,
    "ĠRare": 1213,
    "ĠCha": 1214,
    "Ġsober": 1215,
    "Ġsketch": 1216,
    "ĠAnton": 1217,
    "ĠBruce": 1218,
    "Ġtherapist": 1219,
    "Ġhates": 1220,
    "ĠResource": 1221,
    "Ġtide": 1222,
    "Ġprote": 1223,
    "ĠUt": 1224,
    "Ġorg": 1225,
    "Ġvictims": 1226,
    "ĠVo": 1227,
    "third": 1228,
    "ynam": 1229,
    "icon": 1230,
    "/-": 1231,
    "Ġhassle": 1232,
    "ĠKosovo": 1233,
    "Ġger": 1234,
    "Ġdiffers": 1235,
    "ĠâĢĺ": 1236,
    "co": 1237,
    "Ġtrap": 1238,
    "Ġbiodiversity": 1239,
    "ĠTut": 1240,
    "Ġloyal": 1241,
    "Ġconce": 1242,
    "ĠGDP": 1243,
    "Ġsurreal": 1244,
    "ĠOak": 1245,
    "ĠManz": 1246,
    "Ġblades": 1247,
    "ĠTimber": 1248,
    "Ġstress": 1249,
    "Ġquarter": 1250,
    "Ġyoga": 1251,
    "Ġsame": 1252,
    "ĠRun": 1253,
    "Ġ1962": 1254,
    "ĠScar": 1255,
    "Ġ109": 1256,
    "Ķ": 1257,
    "ĠShel": 1258,
    "Ġtempt": 1259,
    "ĠBal": 1260,
    "88": 1261,
    "Ġbreach": 1262,
    "ĠGender": 1263,
    "htaking": 1264,
    "ĠSecurity": 1265,
    "Ġcorner": 1266,
    "apolis": 1267,
    "Ġillegally": 1268,
    "igg": 1269,
    "Ġquicker": 1270,
    "lar": 1271,
    "Ġcaused": 1272,
    "Ġwarn": 1273,
    "minster": 1274,
    "Ġtournament": 1275,
    "OG": 1276,
    "ĠGrade": 1277,
    "ĠVolks": 1278,
    "ĠAbu": 1279,
    "ucc": 1280,
    "Ġsuspend": 1281,
    "ĠShir": 1282,
    "ĠDiego": 1283,
    "ĠCorpor": 1284,
    "Ġapology": 1285,
    "Ġcompact": 1286,
    "Ġlesson": 1287,
    "Ġhorror": 1288,
    "Ġintermedi": 1289,
    "saving": 1290,
    "itational": 1291,
    "erves": 1292,
    "ĠEastern": 1293,
    "Ġproposals": 1294,
    "ĠSerbia": 1295,
    "rodu": 1296,
    "NER": 1297,
    "Ġasym": 1298,
    "Ġreminds": 1299,
    "Ġdri": 1300,
    "Ġtwentieth": 1301,
    "ĠFebruary": 1302,
    "ares": 1303,
    "Ġbuyer": 1304,
    "ogene": 1305,
    "Tor": 1306,
    "Ġ155": 1307,
    "Ġnodes": 1308,
    "____": 1309,
    "ĠFrancis": 1310,
    "resa": 1311,
    "Ġpers": 1312,
    "Ġ07": 1313,
    "Ġspot": 1314,
    "Ġbranding": 1315,
    "ĠShadow": 1316,
    "ifiable": 1317,
    "Ġfans": 1318,
    "Ġfor": 1319,
    "Muslim": 1320,
    "ĠGreeks": 1321,
    "nedy": 1322,
    "uscript": 1323,
    "IST": 1324,
    "Ġyoungest": 1325,
    "negie": 1326,
    "Ġgym": 1327,
    "ĠSci": 1328,
    "Ġbalances": 1329,
    "Ġboxing": 1330,
    "ĠActive": 1331,
    "Ġdemo": 1332,
    "ĠMoody": 1333,
    "Ġlect": 1334,
    "ĠPv": 1335,
    "Ġreverse": 1336,
    "Ġcleric": 1337,
    "Ġalley": 1338,
    "Ġtrusting": 1339,
    "Ġliterary": 1340,
    "eps": 1341,
    "Ġdissemin": 1342,
    "ĠPublished": 1343,
    "Ġquasi": 1344,
    "Ġseiz": 1345,
    "ylan": 1346,
    "Ġerr": 1347,
    "shots": 1348,
    "ĠMillenn": 1349,
    "Ġaccessories": 1350,
    "Ġprofits": 1351,
    "ster": 1352,
    "Ġprimarily": 1353,
    "onents": 1354,
    "ĠCode": 1355,
    "Ġhovering": 1356,
    "oons": 1357,
    "Ġoperative": 1358,
    "ĠNazis": 1359,
    "Ġdiscrep": 1360,
    "indust": 1361,
    "Ġunderestimate": 1362,
    "urp": 1363,
    "Ġrole": 1364,
    "lection": 1365,
    "Ġcompetitive": 1366,
    "ĠGol": 1367,
    "IG": 1368,
    "Ġregul": 1369,
    "gs": 1370,
    "Ġinvitation": 1371,
    "Ġbillions": 1372,
    "called": 1373,
    "Ġconsidering": 1374,
    "bird": 1375,
    "Ġactivism": 1376,
    "Ġfilmmaker": 1377,
    "ĠAlger": 1378,
    "Ġlimbs": 1379,
    "103": 1380,
    "abil": 1381,
    "Ġplaces": 1382,
    "ĠDeutsche": 1383,
    "Ġprotections": 1384,
    "Ġvain": 1385,
    "eless": 1386,
    "Ġspikes": 1387,
    "Labour": 1388,
    "Ġarchaeological": 1389,
    "Size": 1390,
    "consuming": 1391,
    "ĠChern": 1392,
    "ĠLand": 1393,
    "Ġvon": 1394,
    "oon": 1395,
    "Ġconcludes": 1396,
    "mot": 1397,
    "Ġphotography": 1398,
    "ĠCron": 1399,
    "Äģ": 1400,
    "Ġdeclar": 1401,
    "ĠRussia": 1402,
    "ĠAid": 1403,
    "ĠTODAY": 1404,
    "brance": 1405,
    "ĠShip": 1406,
    "Ġconsult": 1407,
    "Ġcook": 1408,
    "Ġfel": 1409,
    "Ġspurred": 1410,
    "Ġmph": 1411,
    "ships": 1412,
    "Ġkits": 1413,
    "ĠHE": 1414,
    "Ġmosquito": 1415,
    "Ġsediment": 1416,
    "Ġalternate": 1417,
    "liter": 1418,
    "ithmetic": 1419,
    "Ġtribute": 1420,
    "ulled": 1421,
    "distance": 1422,
    "Ġaggressive": 1423,
    "black": 1424,
    "lement": 1425,
    "Ġextras": 1426,
    "PORT": 1427,
    "À": 1428,
    "ki": 1429,
    "ĠAzerbaijan": 1430,
    "ummer": 1431,
    "ĠMetropolitan": 1432,
    "ĠSometimes": 1433,
    "Ġdominance": 1434,
    "ĠUSD": 1435,
    "Ber": 1436,
    "loaded": 1437,
    "Ġscreening": 1438,
    "ARD": 1439,
    "Ġinduce": 1440,
    "ĠNumbers": 1441,
    "Ġcompass": 1442,
    "unks": 1443,
    "ĠJagu": 1444,
    "Ġcarriers": 1445,
    "Ġfoods": 1446,
    "ĠFinance": 1447,
    "Ġimpoverished": 1448,
    "Ġheld": 1449,
    "Ġants": 1450,
    "beat": 1451,
    "Ġsens": 1452,
    "Ġcopying": 1453,
    "Ġtossed": 1454,
    "Ġownership": 1455,
    "ĠFear": 1456,
    "Ġnomine": 1457,
    "Finally": 1458,
    "Ġcircuits": 1459,
    "ĠAlp": 1460,
    "ĠWitt": 1461,
    "Ġprodu": 1462,
    "not": 1463,
    "***": 1464,
    "333": 1465,
    "Ġbabies": 1466,
    "cript": 1467,
    "idad": 1468,
    "ĠBenn": 1469,
    "nar": 1470,
    "Ġshoulder": 1471,
    "Ġblues": 1472,
    "GET": 1473,
    "ĠSeg": 1474,
    "ĠAbove": 1475,
    "resistant": 1476,
    "inese": 1477,
    "Ġmysteries": 1478,
    ";[": 1479,
    "Deep": 1480,
    "Ġenvironmentalists": 1481,
    "sterdam": 1482,
    "ĠHood": 1483,
    "Ġnecess": 1484,
    "Ġcubic": 1485,
    "ĠMig": 1486,
    "NP": 1487,
    "fact": 1488,
    "Ġpronounce": 1489,
    "Id": 1490,
    "Ġbrutal": 1491,
    "Ġinc": 1492,
    "ront": 1493,
    "ĠSpr": 1494,
    "Ġproven": 1495,
    "ĠSeeing": 1496,
    "New": 1497,
    "Ġmodules": 1498,
    "Ġevangelical": 1499,
    "Ġrevel": 1500,
    "Ġconsulting": 1501,
    "illas": 1502,
    "ĠVenezuela": 1503,
    "ĠTelevision": 1504,
    "Ġfertile": 1505,
    "tech": 1506,
    "Ġoffensively": 1507,
    "Ġelementary": 1508,
    "Ġrogue": 1509,
    "ĠOrigin": 1510,
    "icially": 1511,
    "Ġsrc": 1512,
    "Ġset": 1513,
    "ĠHogan": 1514,
    "Ġrecycled": 1515,
    "Ġvul": 1516,
    "alking": 1517,
    "ĠHat": 1518,
    "ename": 1519,
    "iding": 1520,
    "iology": 1521,
    "360": 1522,
    "onde": 1523,
    "Ġmining": 1524,
    "izoph": 1525,
    "Ġprivileges": 1526,
    "Ġuphe": 1527,
    "Ġsources": 1528,
    "Ġresolutions": 1529,
    "Ġlol": 1530,
    "Rem": 1531,
    "Ġsoap": 1532,
    "Ġeleven": 1533,
    "twitter": 1534,
    "Ġnative": 1535,
    "ĠPrin": 1536,
    "Ġcommunications": 1537,
    "Ġdirective": 1538,
    "kee": 1539,
    "pread": 1540,
    "ettings": 1541,
    "ĠAges": 1542,
    "Ġmater": 1543,
    "Ġbarric": 1544,
    "PRE": 1545,
    "Ġsunshine": 1546,
    "ollen": 1547,
    "Ġflowers": 1548,
    "ussed": 1549,
    "ĠDemocratic": 1550,
    "Ġpersistent": 1551,
    "ĠFre": 1552,
    "Ġcourthouse": 1553,
    "ĠEVER": 1554,
    "Ġmarvel": 1555,
    "Ġdisagreement": 1556,
    "Ġtypes": 1557,
    "Ġimprovement": 1558,
    "Ġclock": 1559,
    "Ġpurchase": 1560,
    "ĠButton": 1561,
    "Ġthinner": 1562,
    "Ġnoble": 1563,
    "Ġstud": 1564,
    "Ġsimplify": 1565,
    "ĠLara": 1566,
    "Ġspecifications": 1567,
    "Ġpromotion": 1568,
    "rows": 1569,
    "ĠRes": 1570,
    "ĠValley": 1571,
    "ĠWol": 1572,
    "ĠGiul": 1573,
    "lon": 1574,
    "Ġhorse": 1575,
    "ICE": 1576,
    "Ġbleak": 1577,
    "ĠHod": 1578,
    "Ġresc": 1579,
    "ĠTol": 1580,
    "ĠVit": 1581,
    "rors": 1582,
    "Ġdemocracies": 1583,
    "Ġpreaching": 1584,
    "duct": 1585,
    "ĠMour": 1586,
    "0": 1587,
    "unity": 1588,
    "Ġdelays": 1589,
    "Ġstruck": 1590,
    "ĠQueensland": 1591,
    "ĠMIT": 1592,
    "Ġreserved": 1593,
    "Ġprejud": 1594,
    "Ġspecially": 1595,
    "Ġinsign": 1596,
    "alty": 1597,
    "ĠCand": 1598,
    "Ġspeedy": 1599,
    "Ġdrop": 1600,
    "Ġcop": 1601,
    "title": 1602,
    "visible": 1603,
    "ĠCarey": 1604,
    "Ġpie": 1605,
    "eks": 1606,
    "Ġimprov": 1607,
    "Ġrav": 1608,
    "Ġanticipate": 1609,
    "Ġimplement": 1610,
    "Ġnm": 1611,
    "Ġstring": 1612,
    "ĠYan": 1613,
    "Ġbrick": 1614,
    "hole": 1615,
    "oshop": 1616,
    "Ġouter": 1617,
    "Ġtoler": 1618,
    "Ġ58": 1619,
    "No": 1620,
    "Ñİ": 1621,
    "ĠClear": 1622,
    "ivated": 1623,
    "Ġmutually": 1624,
    "imet": 1625,
    "rd": 1626,
    "Ġcampaigned": 1627,
    "Ġcompares": 1628,
    "ĠKR": 1629,
    "azing": 1630,
    "Ġpsychologists": 1631,
    "Ġenvoy": 1632,
    "ĠEquality": 1633,
    "Ġrationale": 1634,
    "nsic": 1635,
    "Ġimperialism": 1636,
    "Ġhappening": 1637,
    "ĠInc": 1638,
    "Ġtaxed": 1639,
    "ĠKitchen": 1640,
    "Ġcollections": 1641,
    "locked": 1642,
    "Ġencro": 1643,
    "eno": 1644,
    "Ġqualification": 1645,
    "Ġemergency": 1646,
    "ĠTransportation": 1647,
    "Ġsoaring": 1648,
    "urer": 1649,
    "Ġsteals": 1650,
    "Ġindust": 1651,
    "Ġuncons": 1652,
    "Ġunbeliev": 1653,
    "erc": 1654,
    "Ġreprint": 1655,
    "ĠWork": 1656,
    "Ġ": 1657,
    "ĠLil": 1658,
    "Ġsurve": 1659,
    "Ġdownward": 1660,
    "Eff": 1661,
    "Ġfinale": 1662,
    "service": 1663,
    "Ġcertified": 1664,
    "appy": 1665,
    "atility": 1666,
    "nes": 1667,
    "Ġincident": 1668,
    "March": 1669,
    "Ġscream": 1670,
    "ĠRandom": 1671,
    "Ġsk": 1672,
    "Ð¸": 1673,
    "Ġsecuring": 1674,
    "Ġtheoret": 1675,
    "Ġrecept": 1676,
    "Sk": 1677,
    "ĠIV": 1678,
    "Ġinitiative": 1679,
    "Ġplural": 1680,
    "ĠImmigration": 1681,
    "endas": 1682,
    "Ġsent": 1683,
    "Ġunnoticed": 1684,
    "record": 1685,
    "ĠConnecticut": 1686,
    "Ġassign": 1687,
    "Ġgraffiti": 1688,
    "Ġdriveway": 1689,
    "Ġteac": 1690,
    "ĠCarter": 1691,
    "Ġmatters": 1692,
    "ĠSlow": 1693,
    "kef": 1694,
    "ĠHoff": 1695,
    "ck": 1696,
    "ified": 1697,
    "ĠTreatment": 1698,
    "Ġdates": 1699,
    "ĠJong": 1700,
    "ĠWhere": 1701,
    "Ġsubsidies": 1702,
    "Ġelectoral": 1703,
    "iami": 1704,
    "power": 1705,
    "ĠBrand": 1706,
    "band": 1707,
    "Ġdisbelief": 1708,
    "ĠTerms": 1709,
    "ĠTowers": 1710,
    "pless": 1711,
    "anding": 1712,
    "Ġphenomena": 1713,
    "57": 1714,
    "Ġunexpectedly": 1715,
    "arter": 1716,
    "Ġfootprint": 1717,
    "Let": 1718,
    "vest": 1719,
    "Ġinstant": 1720,
    "Ġusable": 1721,
    "Ġmortgages": 1722,
    "ĠThunder": 1723,
    "term": 1724,
    "Ġaccompany": 1725,
    "Ġneo": 1726,
    "rahim": 1727,
    "Ah": 1728,
    "Ġreturned": 1729,
    "Ġpit": 1730,
    "Ġsupreme": 1731,
    "ARC": 1732,
    "Ġlips": 1733,
    "Ġrising": 1734,
    "ĠOld": 1735,
    "Ġspec": 1736,
    "program": 1737,
    "Ġtown": 1738,
    "ĠBentley": 1739,
    "ĠBrother": 1740,
    "ĠTHC": 1741,
    "Ġtermed": 1742,
    "stakes": 1743,
    "Ġwart": 1744,
    "ston": 1745,
    "ĠRule": 1746,
    "orth": 1747,
    "Ġbriefed": 1748,
    "Ġrupe": 1749,
    "ĠBaghdad": 1750,
    "Ġprivate": 1751,
    "Ġhatch": 1752,
    "ĠNer": 1753,
    "iron": 1754,
    "GT": 1755,
    "profits": 1756,
    "ctic": 1757,
    "ĠViolence": 1758,
    "Ġguru": 1759,
    "ĠSoc": 1760,
    "Ġanalysts": 1761,
    "ĠBlockchain": 1762,
    "iting": 1763,
    "Ġbullets": 1764,
    "Ġbeet": 1765,
    "Ġbutton": 1766,
    "ĠAlexa": 1767,
    "Ġo": 1768,
    "Value": 1769,
    "Ġanticipated": 1770,
    "Jan": 1771,
    "ĠBuddhism": 1772,
    "orous": 1773,
    "hattan": 1774,
    "erving": 1775,
    "Ġbenefit": 1776,
    "ĠFla": 1777,
    "Ġeighth": 1778,
    "antly": 1779,
    "Ġedit": 1780,
    "Ġpresently": 1781,
    "Ġhandset": 1782,
    "tha": 1783,
    "ĠNI": 1784,
    "Gall": 1785,
    "ec": 1786,
    "Ġdefin": 1787,
    "Ġproclaim": 1788,
    "Ġgoats": 1789,
    "Ġweapon": 1790,
    "Ġmascul": 1791,
    "Ġavoid": 1792,
    "supported": 1793,
    "Ġrotate": 1794,
    "ĠExcept": 1795,
    "jud": 1796,
    "Ġmar": 1797,
    "Ġstap": 1798,
    "Ġwalks": 1799,
    "Ġslides": 1800,
    "Ġcorridor": 1801,
    "David": 1802,
    "Ġcharge": 1803,
    "Ġsells": 1804,
    "erent": 1805,
    "ĠBuddhist": 1806,
    "x": 1807,
    "Ġlines": 1808,
    "ĠKap": 1809,
    "ĠNike": 1810,
    "Ġscenery": 1811,
    "ĠPicks": 1812,
    "Ġtornado": 1813,
    "Ġhistorical": 1814,
    "Ġshotgun": 1815,
    "Ġtransfers": 1816,
    "ĠBrun": 1817,
    "Ġcamera": 1818,
    "mits": 1819,
    "Ġadvisory": 1820,
    "vote": 1821,
    "Ġadminister": 1822,
    "ako": 1823,
    "Ġfinishes": 1824,
    "Ġheights": 1825,
    "would": 1826,
    "Ġmedi": 1827,
    "se": 1828,
    "Ġpunishment": 1829,
    "prises": 1830,
    "Ġcats": 1831,
    "Ġket": 1832,
    "Ġhorrors": 1833,
    "Professor": 1834,
    "Ġbureaucrats": 1835,
    "ĠSamantha": 1836,
    "Ġbranches": 1837,
    "bps": 1838,
    "chet": 1839,
    "Ġwarranted": 1840,
    "final": 1841,
    "Ram": 1842,
    "acebook": 1843,
    "hift": 1844,
    "ĠCharlottesville": 1845,
    "cipl": 1846,
    "EY": 1847,
    "ties": 1848,
    "ĠRem": 1849,
    "Ġdeb": 1850,
    "umbo": 1851,
    "RL": 1852,
    "ĠBulls": 1853,
    "omas": 1854,
    "NASA": 1855,
    "eneration": 1856,
    "Ġhomeland": 1857,
    "Ġsalt": 1858,
    "Ġthou": 1859,
    "zo": 1860,
    "ĠTumblr": 1861,
    "ĠWorkers": 1862,
    "Ġstakeholders": 1863,
    "ĠEarly": 1864,
    "Ġinstitution": 1865,
    "Ġanother": 1866,
    "ĠCommercial": 1867,
    "Ġreflex": 1868,
    "Ġcakes": 1869,
    "Ġviruses": 1870,
    "ĠRap": 1871,
    "Ġ):": 1872,
    "kar": 1873,
    "Ġrandomly": 1874,
    "Ġreforms": 1875,
    "Ġclaim": 1876,
    "ĠJennifer": 1877,
    "Ġchords": 1878,
    "Ġcheckpoints": 1879,
    ".;": 1880,
    "oters": 1881,
    "ĠHigher": 1882,
    "ĠThursday": 1883,
    "ĠViet": 1884,
    "Ġranges": 1885,
    "Ġbarred": 1886,
    "ĠBon": 1887,
    "aze": 1888,
    "California": 1889,
    "law": 1890,
    "Ġsmartphones": 1891,
    "Ġturnout": 1892,
    "Ġdestruction": 1893,
    "Ġpreferences": 1894,
    "Ġscientifically": 1895,
    "Ġready": 1896,
    "Ġtradem": 1897,
    "lease": 1898,
    "Ġcriteria": 1899,
    "Ġwells": 1900,
    "Ġmechanic": 1901,
    "ĠMonetary": 1902,
    "Ġdisag": 1903,
    "ord": 1904,
    "ĠTrade": 1905,
    "Ġconting": 1906,
    ".''": 1907,
    "oyal": 1908,
    "Ġsample": 1909,
    "________________": 1910,
    "Ġsniper": 1911,
    "ĠTV": 1912,
    "Ġrepay": 1913,
    "being": 1914,
    "ĠManila": 1915,
    "Ġguerr": 1916,
    "ĠWireless": 1917,
    "ĠHello": 1918,
    "ateral": 1919,
    "Ġfl": 1920,
    "erie": 1921,
    "ĠHubbard": 1922,
    "Ġbidding": 1923,
    "Ġobject": 1924,
    "ĠExpl": 1925,
    "Ġfem": 1926,
    "Ġlicensing": 1927,
    "rod": 1928,
    "Ġday": 1929,
    "Ġprosper": 1930,
    "aed": 1931,
    "ĠFix": 1932,
    "ĠShow": 1933,
    "Ġreun": 1934,
    "Ast": 1935,
    "Ġinstruct": 1936,
    "Info": 1937,
    "Ġclosure": 1938,
    "agues": 1939,
    "bn": 1940,
    "Written": 1941,
    "Ġ2011": 1942,
    "uma": 1943,
    "Ġtreason": 1944,
    "Ġlandlords": 1945,
    "ĠPower": 1946,
    "DL": 1947,
    "ĠHP": 1948,
    "Ġein": 1949,
    "Ġevidence": 1950,
    "Ġtongue": 1951,
    "lag": 1952,
    "Ġcat": 1953,
    "Ġresponders": 1954,
    "Ġhun": 1955,
    "Ġauthorization": 1956,
    "Ġhesitation": 1957,
    "ock": 1958,
    "Ãº": 1959,
    "Ġdirection": 1960,
    "iams": 1961,
    "Ġagain": 1962,
    "Ġpumping": 1963,
    "Ġkidnapping": 1964,
    "ĠBerg": 1965,
    "Ġgenuine": 1966,
    "Ġmedication": 1967,
    "ruary": 1968,
    "Ġproclaimed": 1969,
    "ĠAsk": 1970,
    "Ġ81": 1971,
    "Ġremorse": 1972,
    "forest": 1973,
    "ĠRoom": 1974,
    "Stars": 1975,
    "Ġseamlessly": 1976,
    "Ġfitted": 1977,
    "Ġincent": 1978,
    "Ġdeadline": 1979,
    "Ġbreadth": 1980,
    "ĠIndependence": 1981,
    "omatic": 1982,
    "Ġincompetent": 1983,
    "Ġseeks": 1984,
    "Over": 1985,
    "andy": 1986,
    "Ġcommentator": 1987,
    "roph": 1988,
    "Ġresearcher": 1989,
    "orus": 1990,
    "Ġrare": 1991,
    "Ġoutput": 1992,
    "Ġfly": 1993,
    "NS": 1994,
    "Ġexert": 1995,
    "Ġsto": 1996,
    "Ġbeaches": 1997,
    "Ġcope": 1998,
    "ĠHodg": 1999,
    "ĠSpeaking": 2000,
    "ĠStark": 2001,
    "Ġpresenting": 2002,
    "Ġconflicting": 2003,
    "è": 2004,
    "Ġoverhaul": 2005,
    "Show": 2006,
    "Ġseparate": 2007,
    "Ġ3000": 2008,
    "Anth": 2009,
    "andi": 2010,
    "Ġ....": 2011,
    "emade": 2012,
    "Ġfusion": 2013,
    "Ġkeyboard": 2014,
    "Ġsplits": 2015,
    "Ġaver": 2016,
    "vez": 2017,
    "Ġfinan": 2018,
    "Ġsecurities": 2019,
    "Ġkinderg": 2020,
    "Ġadvisors": 2021,
    "ĠElizabeth": 2022,
    "ĠHaram": 2023,
    "ĠEarlier": 2024,
    "Ġhypoc": 2025,
    "tank": 2026,
    "ĠLife": 2027,
    "ġ": 2028,
    "Ġmorality": 2029,
    "Ġdirt": 2030,
    "Secretary": 2031,
    "Ġ(-": 2032,
    "Ġliterally": 2033,
    "+.": 2034,
    "linux": 2035,
    "rench": 2036,
    "Ġteacher": 2037,
    "Ġarguably": 2038,
    "business": 2039,
    "cast": 2040,
    "ĠSix": 2041,
    "Ġindex": 2042,
    "500": 2043,
    "Ġsavings": 2044,
    "Ġ22": 2045,
    "Ġconducted": 2046,
    "ateful": 2047,
    "Ġcalories": 2048,
    "ito": 2049,
    "Ġholders": 2050,
    "icidal": 2051,
    "ift": 2052,
    "arp": 2053,
    "limited": 2054,
    "ĠSummer": 2055,
    "ĠOsborne": 2056,
    "Ġtoilet": 2057,
    "build": 2058,
    "ĠBab": 2059,
    "Ġmedals": 2060,
    "Ġavo": 2061,
    "Off": 2062,
    "Ġrevenue": 2063,
    "ĠEuropean": 2064,
    "ĠHolt": 2065,
    "stem": 2066,
    "Ġreactors": 2067,
    "Ġsalute": 2068,
    "Ġstrongest": 2069,
    "mingham": 2070,
    "Ġqueen": 2071,
    "ron": 2072,
    "reens": 2073,
    "facing": 2074,
    "Ġsexism": 2075,
    "alities": 2076,
    "ĠDob": 2077,
    "Ġcables": 2078,
    "Ġmall": 2079,
    "bley": 2080,
    "ens": 2081,
    "Ġp": 2082,
    "light": 2083,
    "Ġsorted": 2084,
    "Ġrook": 2085,
    "ject": 2086,
    "Ġcommanding": 2087,
    "ĠSheikh": 2088,
    "DAY": 2089,
    "Ġlegal": 2090,
    "Ġaltern": 2091,
    "ĠAnyone": 2092,
    "deep": 2093,
    "realDonaldTrump": 2094,
    "ĠHispanic": 2095,
    "&": 2096,
    "ĠAlcohol": 2097,
    "Ġmounted": 2098,
    "abul": 2099,
    "ĠHollande": 2100,
    "Ġprecautions": 2101,
    "ox": 2102,
    "Ġdestroying": 2103,
    "Director": 2104,
    "Ġhid": 2105,
    "Someone": 2106,
    "Ġmin": 2107,
    "ĠAdvertisement": 2108,
    "ĠSpy": 2109,
    "Ġpainful": 2110,
    "Ġlinguistic": 2111,
    "ĠKeys": 2112,
    "Ġvigilant": 2113,
    "ĠPe": 2114,
    "Ġblink": 2115,
    "Ġbrings": 2116,
    "went": 2117,
    "mined": 2118,
    "ĠPack": 2119,
    "Ġbreeding": 2120,
    "Ġdisappointed": 2121,
    "Coin": 2122,
    "Ġansw": 2123,
    "Ġfrustrating": 2124,
    "Ġcorrobor": 2125,
    "Ġtablets": 2126,
    "Ġtwice": 2127,
    "Ġwindows": 2128,
    "Ġreproductive": 2129,
    "ĠBuchanan": 2130,
    "ĠInterestingly": 2131,
    "Ġ79": 2132,
    "........": 2133,
    "Ġhateful": 2134,
    "idate": 2135,
    "Ġchallenging": 2136,
    "Ġdry": 2137,
    "jet": 2138,
    "Ġscary": 2139,
    "Ġretains": 2140,
    "Ġbigot": 2141,
    "ĠVeterans": 2142,
    "bern": 2143,
    "Ġlandlord": 2144,
    "miss": 2145,
    "Ġcultures": 2146,
    "Ġprotocols": 2147,
    "ĠBolton": 2148,
    "Ġfortunate": 2149,
    "Ġhen": 2150,
    "Ġvotes": 2151,
    "Ġfreely": 2152,
    "Ġbeer": 2153,
    "Ġstumble": 2154,
    "Ġliability": 2155,
    "Ġarea": 2156,
    "ĠWeinstein": 2157,
    "alties": 2158,
    "ĠWWII": 2159,
    "Ġperks": 2160,
    "Ġdealings": 2161,
    "Ġmothers": 2162,
    "320": 2163,
    "Ġval": 2164,
    "hee": 2165,
    "Thirty": 2166,
    "Ġnuclear": 2167,
    ">": 2168,
    "Ġarticle": 2169,
    "Item": 2170,
    "Ġorgan": 2171,
    "ĠKentucky": 2172,
    "Ġbased": 2173,
    "ĠKa": 2174,
    "Ġgalaxy": 2175,
    "åı": 2176,
    "ounce": 2177,
    "ĠGordon": 2178,
    "mit": 2179,
    "Ġrestraining": 2180,
    "ĠCaribbean": 2181,
    "Ġlovers": 2182,
    "Ġvo": 2183,
    "Twitter": 2184,
    "isitions": 2185,
    "Ġlateral": 2186,
    "AMA": 2187,
    "iries": 2188,
    "Ġdoi": 2189,
    "linear": 2190,
    "Ġcomparison": 2191,
    "Ġconservatives": 2192,
    "ĠRavens": 2193,
    "Ġopens": 2194,
    "Ġroutes": 2195,
    "usch": 2196,
    "Ġcouldn": 2197,
    "Ġ122": 2198,
    "ĠAut": 2199,
    "Ġroaming": 2200,
    "pl": 2201,
    "ĠÙ": 2202,
    "Ġstartup": 2203,
    "Ġfan": 2204,
    "Gs": 2205,
    "ĠColin": 2206,
    "Ġseason": 2207,
    "ĠLegacy": 2208,
    "ĠLyon": 2209,
    "ampionship": 2210,
    "Ġauth": 2211,
    "2014": 2212,
    "ĠBel": 2213,
    "GB": 2214,
    "ãĢģ": 2215,
    "Ġpulse": 2216,
    "Ġtweet": 2217,
    "Ġpesticide": 2218,
    "Ġharmless": 2219,
    "message": 2220,
    "pit": 2221,
    "inis": 2222,
    "ĠTier": 2223,
    "ĠArbor": 2224,
    "reland": 2225,
    "ė": 2226,
    "Ġstudios": 2227,
    "Ġbasics": 2228,
    "Ġpricing": 2229,
    "Ġsegregated": 2230,
    "Ġonline": 2231,
    "ĠPolitical": 2232,
    "ĠMac": 2233,
    "Ġprisoners": 2234,
    "aber": 2235,
    "alf": 2236,
    "ĠEgg": 2237,
    "ĠGamer": 2238,
    "inho": 2239,
    "Ġanchor": 2240,
    "cin": 2241,
    "houses": 2242,
    "ĠBrend": 2243,
    "Ġall": 2244,
    "Ġcompar": 2245,
    "ufact": 2246,
    "Ġintegration": 2247,
    "arted": 2248,
    "aunch": 2249,
    "Ġasset": 2250,
    "Ġdevastation": 2251,
    "Ġcontributes": 2252,
    "Ġsocial": 2253,
    "vernment": 2254,
    "ĠISIS": 2255,
    "ĠLeo": 2256,
    "Ġfork": 2257,
    "Ġregistered": 2258,
    "ĠPhillips": 2259,
    "Ġcolleg": 2260,
    "Ġobstruct": 2261,
    "ne": 2262,
    "ĠOrthodox": 2263,
    "Ġgamble": 2264,
    "?âĢĿ": 2265,
    "Ġaggreg": 2266,
    "ĠSC": 2267,
    "ief": 2268,
    "Ġcomplementary": 2269,
    "Ġfunds": 2270,
    "Ġvariables": 2271,
    "Ġrobber": 2272,
    "Ġannouncing": 2273,
    "ĠPra": 2274,
    "Ġairst": 2275,
    "ĠInqu": 2276,
    "ĠFel": 2277,
    "ription": 2278,
    "Ġhandgun": 2279,
    "Ġaffect": 2280,
    "Ġprovoc": 2281,
    "ĠDollar": 2282,
    "ĠIranian": 2283,
    "Ġstocks": 2284,
    "ĠFrancois": 2285,
    "Ġprofitability": 2286,
    "Ġjeopard": 2287,
    "ĠMur": 2288,
    "Ġlibrary": 2289,
    "cies": 2290,
    "Ġfiction": 2291,
    "Ġbite": 2292,
    "Ġright": 2293,
    "Ġkilometers": 2294,
    "ĠPat": 2295,
    "Ġreb": 2296,
    "Ġaside": 2297,
    "respond": 2298,
    "sign": 2299,
    "ider": 2300,
    "furt": 2301,
    "onest": 2302,
    "Ġconfuse": 2303,
    "mine": 2304,
    "wife": 2305,
    "ounces": 2306,
    "ĠGos": 2307,
    "ipers": 2308,
    "Ġsliced": 2309,
    "ĠZelda": 2310,
    "Smart": 2311,
    "ĠReuters": 2312,
    "oration": 2313,
    "Ġcollaborated": 2314,
    "ugs": 2315,
    "Ġsmartphone": 2316,
    "Ġment": 2317,
    "Ġdestiny": 2318,
    "Ġabbre": 2319,
    "Ġsymbolic": 2320,
    "ĠKB": 2321,
    "Ġmig": 2322,
    "ute": 2323,
    ".*": 2324,
    "ton": 2325,
    "itness": 2326,
    "Interestingly": 2327,
    "Ġrefurb": 2328,
    "Ġoppose": 2329,
    "Ġdeeds": 2330,
    "paralle": 2331,
    "ronics": 2332,
    "ĠHash": 2333,
    "coh": 2334,
    "ĠIllust": 2335,
    ",,": 2336,
    "Ġaccurately": 2337,
    "ĠBlacks": 2338,
    "Ġdispat": 2339,
    "Ġarrested": 2340,
    "Dec": 2341,
    "Ġdeclarations": 2342,
    "ĠDR": 2343,
    "ĠWindows": 2344,
    "des": 2345,
    "Ġdeserve": 2346,
    "esis": 2347,
    "Ġcharities": 2348,
    "Ġcheck": 2349,
    "Ġextradition": 2350,
    "ĠUK": 2351,
    "rol": 2352,
    "witz": 2353,
    "ĠEssex": 2354,
    "Ġcriminals": 2355,
    "Ġakin": 2356,
    "Ġsocially": 2357,
    "aukee": 2358,
    "ans": 2359,
    "Ġcy": 2360,
    "employ": 2361,
    "±": 2362,
    "Ġcert": 2363,
    "Ġinteraction": 2364,
    "Ġproductions": 2365,
    "Ġdispens": 2366,
    "Ġ\"\"": 2367,
    "Ġjo": 2368,
    "etary": 2369,
    "Before": 2370,
    "Ġstunt": 2371,
    "Ġwonderfully": 2372,
    "ĠCherry": 2373,
    "Ġnegotiations": 2374,
    "Ġcovert": 2375,
    "Ġsemif": 2376,
    "Ġincomp": 2377,
    "can": 2378,
    "Ġpaying": 2379,
    "Ġcarved": 2380,
    "ĠPhysics": 2381,
    "books": 2382,
    "oice": 2383,
    "ĠTai": 2384,
    "Ġlicenses": 2385,
    "Ġquarterbacks": 2386,
    "Ġ1982": 2387,
    "Ġround": 2388,
    "Ġhit": 2389,
    "Ġleap": 2390,
    "Ġlanded": 2391,
    "City": 2392,
    "apse": 2393,
    "ULT": 2394,
    "Ġshook": 2395,
    "âĢ²": 2396,
    "rm": 2397,
    "gender": 2398,
    "edo": 2399,
    "zen": 2400,
    "sequ": 2401,
    "Ġunlawful": 2402,
    "Ġdownt": 2403,
    "Ġgrant": 2404,
    "ĠStrike": 2405,
    "ĠMarqu": 2406,
    "igma": 2407,
    "ĠStephens": 2408,
    "Ġexploitation": 2409,
    "Ġclothing": 2410,
    "Ġreasonable": 2411,
    "Things": 2412,
    "ocolate": 2413,
    "ĠPratt": 2414,
    "ĠKirby": 2415,
    "ocy": 2416,
    "raged": 2417,
    "Ġagriculture": 2418,
    "Ã¦": 2419,
    "cano": 2420,
    "gencies": 2421,
    "Ġmount": 2422,
    "ansas": 2423,
    "icken": 2424,
    "amic": 2425,
    "Ãł": 2426,
    "Ġolive": 2427,
    "ĠAbbas": 2428,
    "rav": 2429,
    "Ġmanifest": 2430,
    "Ġstare": 2431,
    "Ġimplant": 2432,
    "Ġdetr": 2433,
    "Ġcommented": 2434,
    "zan": 2435,
    "ĠIO": 2436,
    "Ġcertificates": 2437,
    "late": 2438,
    "ĠTou": 2439,
    "cliffe": 2440,
    "Ġmirror": 2441,
    "ĠMON": 2442,
    "Ġlinger": 2443,
    "Ġch": 2444,
    "Ġelement": 2445,
    "atel": 2446,
    "Ġtuning": 2447,
    "Ġmainland": 2448,
    "Ġubiqu": 2449,
    "ĠDocument": 2450,
    "Ġdist": 2451,
    "inj": 2452,
    "ĠOttawa": 2453,
    "sn": 2454,
    "keys": 2455,
    "oc": 2456,
    "Ġconvinced": 2457,
    "Ġcamp": 2458,
    "iously": 2459,
    "ĠLucy": 2460,
    "Ġcomple": 2461,
    "Ġindicator": 2462,
    "be": 2463,
    "Section": 2464,
    "y": 2465,
    "VI": 2466,
    "release": 2467,
    "Ġnavigating": 2468,
    "ocating": 2469,
    "ĠTheodore": 2470,
    "Far": 2471,
    "ĠSav": 2472,
    "ĠRav": 2473,
    "ĠNaj": 2474,
    "urations": 2475,
    "Ġvehement": 2476,
    "Ġfinances": 2477,
    "Ġunab": 2478,
    "eler": 2479,
    "hood": 2480,
    "iat": 2481,
    "Ġparam": 2482,
    "ĠCraft": 2483,
    "umped": 2484,
    "ĠMessage": 2485,
    "ĠBerkeley": 2486,
    "din": 2487,
    "Ġverb": 2488,
    "Ġfuels": 2489,
    "ville": 2490,
    "arently": 2491,
    "Ġplant": 2492,
    "ĠPros": 2493,
    "Ġmakeup": 2494,
    "Ġinstructed": 2495,
    "Ġheard": 2496,
    "ĠLebanese": 2497,
    "Ġ131": 2498,
    "enzie": 2499,
    "Ġhall": 2500,
    "Ġstrive": 2501,
    "Ġcontribution": 2502,
    "Ġcompetitor": 2503,
    "Ġpromin": 2504,
    "Ġdemolished": 2505,
    "Ġfaculty": 2506,
    "Ġmanufacture": 2507,
    "ĠTian": 2508,
    "Ġconsiders": 2509,
    "Ġherbs": 2510,
    "izes": 2511,
    "ĠLouisville": 2512,
    "Ġunrestricted": 2513,
    "Ġdispar": 2514,
    "engeance": 2515,
    "lant": 2516,
    "Ġsitcom": 2517,
    "Ġsmell": 2518,
    "Ġsouthern": 2519,
    "://": 2520,
    "Ġsalaries": 2521,
    "Ġiconic": 2522,
    "Ġalleg": 2523,
    "ĠKom": 2524,
    "Ġhears": 2525,
    "ĠBo": 2526,
    "fork": 2527,
    "ĠBureau": 2528,
    "lund": 2529,
    "Ġfilings": 2530,
    "Ġcases": 2531,
    "Ġcolonial": 2532,
    "Ġconstituency": 2533,
    "Ã£o": 2534,
    "road": 2535,
    "Ġprincipal": 2536,
    "Ġelected": 2537,
    "Home": 2538,
    "ĠRoy": 2539,
    "hold": 2540,
    "Ġswamp": 2541,
    "oul": 2542,
    "Ġmankind": 2543,
    "ĠCounter": 2544,
    "community": 2545,
    "ourgeois": 2546,
    "redits": 2547,
    "OPA": 2548,
    "intend": 2549,
    "Ġdistinctly": 2550,
    "Ġpasser": 2551,
    "Ġswath": 2552,
    "Ġarticles": 2553,
    "ĠISI": 2554,
    "Ġ35": 2555,
    "Ġinf": 2556,
    "atra": 2557,
    "ĠVers": 2558,
    "argo": 2559,
    "Ġoperator": 2560,
    "Ġdisplay": 2561,
    "ĠEth": 2562,
    "Ġmales": 2563,
    "Ġdisl": 2564,
    "Ġartists": 2565,
    "ĠSaddam": 2566,
    "Ġacids": 2567,
    "Ġdragons": 2568,
    "stack": 2569,
    "ampa": 2570,
    "Ġdetermin": 2571,
    "Ġnodd": 2572,
    "aconian": 2573,
    "Hell": 2574,
    "hash": 2575,
    "Ġweapons": 2576,
    "ĠSubject": 2577,
    "uster": 2578,
    "umbl": 2579,
    "Ġinterrog": 2580,
    "Ġboo": 2581,
    "ayette": 2582,
    "ryn": 2583,
    "Broad": 2584,
    "ĠTor": 2585,
    "Ġbounds": 2586,
    "Ġkilometres": 2587,
    "ĠPhiladelphia": 2588,
    "ourage": 2589,
    "Ġemphasis": 2590,
    "hol": 2591,
    "Ġgenocide": 2592,
    "Sal": 2593,
    "Anthony": 2594,
    "ĠViking": 2595,
    "eed": 2596,
    "Ġmes": 2597,
    "orough": 2598,
    "Ġdont": 2599,
    "Ġreplace": 2600,
    "Results": 2601,
    "Ġgenerators": 2602,
    "Ġdivert": 2603,
    "Fred": 2604,
    "crime": 2605,
    "ĠMelbourne": 2606,
    "ÃĥÃĤÃĥÃĤÃĥÃĤÃĥÃĤÃĥÃĤÃĥÃĤÃĥÃĤÃĥÃĤ": 2607,
    "Ã¸": 2608,
    "Ġmasculine": 2609,
    "Ġthinks": 2610,
    "Ġreceipts": 2611,
    "Ġcondol": 2612,
    "Ġvehicle": 2613,
    "ibli": 2614,
    "Ġexpressing": 2615,
    "Ġgeographic": 2616,
    "oku": 2617,
    "Ġmatter": 2618,
    "outheast": 2619,
    "wegian": 2620,
    "house": 2621,
    "icated": 2622,
    "Ġsurg": 2623,
    "Ġbes": 2624,
    "type": 2625,
    "asis": 2626,
    "Ġtwisted": 2627,
    "ĠQueen": 2628,
    "itative": 2629,
    "Ġhaunted": 2630,
    "Ġeliminating": 2631,
    "Brown": 2632,
    "Ġpos": 2633,
    "Ġsidewalks": 2634,
    "unch": 2635,
    "fts": 2636,
    "Mass": 2637,
    "Ġmerging": 2638,
    "Ġresidency": 2639,
    "ĠDNC": 2640,
    "Ġrack": 2641,
    "ĠDHS": 2642,
    "Ġstaff": 2643,
    "Credit": 2644,
    "ĠTi": 2645,
    "ĠRights": 2646,
    "ĠAlto": 2647,
    "Ġripe": 2648,
    "aunting": 2649,
    "yards": 2650,
    "ote": 2651,
    "ĠBoris": 2652,
    "ÑĢÐµ": 2653,
    "ls": 2654,
    "ie": 2655,
    "udes": 2656,
    "ĠHD": 2657,
    "Ã©r": 2658,
    "bin": 2659,
    "ĠFalk": 2660,
    "Person": 2661,
    "ĠTVs": 2662,
    "iden": 2663,
    "Ġseekers": 2664,
    "liners": 2665,
    "190": 2666,
    "ĠBub": 2667,
    "ĠBeck": 2668,
    "Support": 2669,
    "Ġquestions": 2670,
    "Ġultras": 2671,
    "Ġproactive": 2672,
    "mers": 2673,
    "Ġrecovery": 2674,
    "Ġiter": 2675,
    "Ġhacks": 2676,
    "ops": 2677,
    "ĠNULL": 2678,
    "Ġdeprived": 2679,
    "reet": 2680,
    "Ġmistaken": 2681,
    "ĠSaw": 2682,
    "ĠClose": 2683,
    "cf": 2684,
    "aith": 2685,
    "Ġ(.": 2686,
    "THE": 2687,
    "ĠOd": 2688,
    "Ġagreeing": 2689,
    "orate": 2690,
    "udic": 2691,
    "Ġsegment": 2692,
    "Ġclubs": 2693,
    "Ġunofficial": 2694,
    "Ġchromos": 2695,
    "Ġappe": 2696,
    "Ġemailed": 2697,
    "Ġbuilt": 2698,
    "Ġdocumenting": 2699,
    "Ġsurvey": 2700,
    "Ġpresum": 2701,
    "Ġfacts": 2702,
    "Ġwillingly": 2703,
    "Ġwords": 2704,
    "Ġunus": 2705,
    "Ġpsychic": 2706,
    "Ġsacrifices": 2707,
    "termin": 2708,
    "Ġcompat": 2709,
    "ĠDelta": 2710,
    "Ġpractically": 2711,
    "France": 2712,
    "acial": 2713,
    "ĠStats": 2714,
    "umbling": 2715,
    "Ġdiscovery": 2716,
    "Ġeconomically": 2717,
    "ĠGuards": 2718,
    "ich": 2719,
    "ĠVince": 2720,
    "ĠMaterials": 2721,
    "Ġ50": 2722,
    "shine": 2723,
    "Updated": 2724,
    "Ġcontractors": 2725,
    "fast": 2726,
    "square": 2727,
    "ruce": 2728,
    "Ġhelmets": 2729,
    "ĠPakistani": 2730,
    "Ġlife": 2731,
    "Ġchickens": 2732,
    "ites": 2733,
    "Ġur": 2734,
    "asion": 2735,
    "oup": 2736,
    "ursor": 2737,
    "bread": 2738,
    "ĠManufact": 2739,
    "Ġ#": 2740,
    "Ġrear": 2741,
    "Ġarrays": 2742,
    "Ġformats": 2743,
    "Ġbatt": 2744,
    "Ġavoiding": 2745,
    "ĠGonzalez": 2746,
    "ĠPakistan": 2747,
    "ĠLiv": 2748,
    "it": 2749,
    "Ġindication": 2750,
    "Ġpainting": 2751,
    "live": 2752,
    "Ġ02": 2753,
    "åħ": 2754,
    "Ġcontributors": 2755,
    "Ġloving": 2756,
    "ancial": 2757,
    "ĠHed": 2758,
    "ĠAdam": 2759,
    "ĠVermont": 2760,
    "ried": 2761,
    "portion": 2762,
    "Ġproduct": 2763,
    "ĠPittsburgh": 2764,
    "ĠAngela": 2765,
    "Judge": 2766,
    "Ġreminis": 2767,
    "Ġstarter": 2768,
    "ager": 2769,
    "Ġfederal": 2770,
    ".âĢĻ": 2771,
    "ĠArticle": 2772,
    "ĠProduct": 2773,
    "Ġresponding": 2774,
    "Ġpage": 2775,
    "ĠAdded": 2776,
    "ĠProbably": 2777,
    "Ġmanned": 2778,
    "ined": 2779,
    "Ġcapitalists": 2780,
    "4": 2781,
    "ĠME": 2782,
    "Ġmonitoring": 2783,
    "Ġwarnings": 2784,
    "ĠStam": 2785,
    "ĠAlban": 2786,
    "ĠDexter": 2787,
    "Ġtourists": 2788,
    "Ġpracticed": 2789,
    "ĠDS": 2790,
    "Ġexchanged": 2791,
    "Ġmandate": 2792,
    "Ġconversation": 2793,
    "Ġpartic": 2794,
    "ĠERA": 2795,
    "Ġtrend": 2796,
    "Ġderived": 2797,
    "onz": 2798,
    "÷": 2799,
    "Ġoutcome": 2800,
    "ĠDogs": 2801,
    "ĠAllied": 2802,
    "Ġrestaur": 2803,
    "ĠSpe": 2804,
    "Ġrebound": 2805,
    "Ġcompeted": 2806,
    "lets": 2807,
    "Ġreservoir": 2808,
    "Ġ102": 2809,
    "Ġderivative": 2810,
    "Ġhomophobic": 2811,
    "Ġfix": 2812,
    "Bit": 2813,
    "Ġlying": 2814,
    "ĠBreak": 2815,
    "Ġrad": 2816,
    "ĠWH": 2817,
    "ĠBatt": 2818,
    "Ġshrink": 2819,
    "med": 2820,
    "ĠJudicial": 2821,
    "Ġbypass": 2822,
    "Ġcharacteristic": 2823,
    "Ġunin": 2824,
    "Ġtheater": 2825,
    "Ġphysically": 2826,
    "ĠFROM": 2827,
    "Ġsurgeon": 2828,
    "Ġrevival": 2829,
    "ĠWid": 2830,
    "itas": 2831,
    "##": 2832,
    "stand": 2833,
    "ili": 2834,
    "Ġpear": 2835,
    "Ġsickness": 2836,
    "Ġæ": 2837,
    "Ġarche": 2838,
    "ussia": 2839,
    "ĠLetter": 2840,
    "Ġreaders": 2841,
    "Ġrolled": 2842,
    "ĠRecovery": 2843,
    "Ġabide": 2844,
    "ĠJoker": 2845,
    "Ġprost": 2846,
    "Supp": 2847,
    "Ġlit": 2848,
    "Ġradically": 2849,
    "ĠNewtown": 2850,
    "hunt": 2851,
    "Ġinequality": 2852,
    "chens": 2853,
    "ĠBritish": 2854,
    "Ġstere": 2855,
    "Researchers": 2856,
    "ucci": 2857,
    "Rather": 2858,
    "Ġ1998": 2859,
    "People": 2860,
    "Ġreviews": 2861,
    "Ġunseen": 2862,
    "ĠREL": 2863,
    "Ġgrav": 2864,
    "Ġrepresentative": 2865,
    "83": 2866,
    "ĠNobel": 2867,
    "ĠKiev": 2868,
    "rested": 2869,
    "Ġinflu": 2870,
    "Ð»Ð¸": 2871,
    "inge": 2872,
    "Ġclusters": 2873,
    "Ġspread": 2874,
    "ĠHearts": 2875,
    "ondo": 2876,
    "ĠTechnical": 2877,
    "ovie": 2878,
    "ĠTon": 2879,
    "ul": 2880,
    "Ġdefensive": 2881,
    "ĠMcM": 2882,
    "ĠRey": 2883,
    "alion": 2884,
    "Ġenforce": 2885,
    "Ġangry": 2886,
    "ĠBut": 2887,
    "ag": 2888,
    "Ġfolk": 2889,
    "Ġfav": 2890,
    "Ġexclusion": 2891,
    "Ġretire": 2892,
    "Ġveterans": 2893,
    "äº": 2894,
    "Ġindicate": 2895,
    "Ġreckless": 2896,
    "azingly": 2897,
    "Ġattempting": 2898,
    "Ġbit": 2899,
    "Ġvarieties": 2900,
    "Ġparan": 2901,
    "Ġcombines": 2902,
    "aur": 2903,
    "ĠAsh": 2904,
    "ĠWales": 2905,
    "ifferent": 2906,
    "Ġ:)": 2907,
    "Ġconversations": 2908,
    "Ġturns": 2909,
    "ĠCBC": 2910,
    "Ġinvestor": 2911,
    "Ġblogger": 2912,
    "Ġthese": 2913,
    "Ġtracking": 2914,
    "immers": 2915,
    "Ġgathering": 2916,
    "ĠTurn": 2917,
    "Ġshuttle": 2918,
    "Ġteenage": 2919,
    "Ġscrambling": 2920,
    "Ġsnack": 2921,
    "\"[": 2922,
    "Ġrecipe": 2923,
    "ĠConnect": 2924,
    "example": 2925,
    "Down": 2926,
    "ĠYahoo": 2927,
    "ĠBeauty": 2928,
    "words": 2929,
    "Ġdiscriminatory": 2930,
    "ĠROM": 2931,
    "inder": 2932,
    "Peter": 2933,
    "ĠAmer": 2934,
    "Ġsong": 2935,
    "Ġcoc": 2936,
    "Ġapparent": 2937,
    "Ġattorney": 2938,
    "ĠAf": 2939,
    "nee": 2940,
    "35": 2941,
    "ĠMatch": 2942,
    "uses": 2943,
    "Ġabstract": 2944,
    "'ve": 2945,
    "ĠSword": 2946,
    "sexual": 2947,
    "Ġeuth": 2948,
    "growing": 2949,
    "Government": 2950,
    "ĠPlato": 2951,
    "Ġleagues": 2952,
    "Ġbets": 2953,
    "Ġstandalone": 2954,
    "Comments": 2955,
    "Ġsparking": 2956,
    "ĠTar": 2957,
    "fing": 2958,
    "Ġstirred": 2959,
    "Ġfunctions": 2960,
    "ĠRow": 2961,
    "ĠMarty": 2962,
    "Ġthirteen": 2963,
    "Ġsurgeries": 2964,
    "Gal": 2965,
    "unction": 2966,
    "Ġdrilling": 2967,
    "uren": 2968,
    "ĠMeans": 2969,
    "Ġneighbourhood": 2970,
    "ĠDemand": 2971,
    "ĠNept": 2972,
    "):": 2973,
    "Simon": 2974,
    "noon": 2975,
    "Ġaccount": 2976,
    "Ġimply": 2977,
    "ĠLub": 2978,
    "Ġqualifications": 2979,
    "Ġsmaller": 2980,
    "ĠPony": 2981,
    "Jess": 2982,
    "Ġhom": 2983,
    "Ġmechan": 2984,
    "><": 2985,
    "Ġstated": 2986,
    "ĠCR": 2987,
    "ĠCrypt": 2988,
    "Ġchop": 2989,
    "Ġtightly": 2990,
    "Ġdirected": 2991,
    "Ġprobation": 2992,
    "Ġsocieties": 2993,
    "ira": 2994,
    "Ġviol": 2995,
    "bert": 2996,
    "rescent": 2997,
    "Ġconc": 2998,
    "ĠLO": 2999,
    "Ġmigrate": 3000,
    "Ġspheres": 3001,
    "ĠDenmark": 3002,
    "ĠFerrari": 3003,
    "Ġpinch": 3004,
    "ovsky": 3005,
    "Ġobtained": 3006,
    "give": 3007,
    "Ġordinary": 3008,
    "Ġcamoufl": 3009,
    "Ġweighted": 3010,
    "ĠMoney": 3011,
    "Free": 3012,
    "Ġaudition": 3013,
    "ĠBrewer": 3014,
    "Ġreceptors": 3015,
    "bean": 3016,
    "Ġpredicting": 3017,
    "Ġmesh": 3018,
    "cry": 3019,
    "Ġtel": 3020,
    "©": 3021,
    "Ġhopeless": 3022,
    "Ġpropose": 3023,
    "Ġslogan": 3024,
    "Ġorganisation": 3025,
    "Ġoutraged": 3026,
    "Ġconflic": 3027,
    "Ġbrother": 3028,
    "idav": 3029,
    "Ġdiscounted": 3030,
    "plus": 3031,
    "Ġeaten": 3032,
    "Ġ20": 3033,
    "ĠMel": 3034,
    "Ġinteractive": 3035,
    "generation": 3036,
    "ĠTroy": 3037,
    "Ġhistorically": 3038,
    "Ġderiv": 3039,
    "tes": 3040,
    "iam": 3041,
    "Ġacquire": 3042,
    "test": 3043,
    "ĠOperation": 3044,
    "fat": 3045,
    "Ġaddicted": 3046,
    "Ġrailroad": 3047,
    "Ġspont": 3048,
    "ĠFramework": 3049,
    "Ġkitchen": 3050,
    "anto": 3051,
    "boro": 3052,
    "nyder": 3053,
    "Ġattractive": 3054,
    "Ġpipe": 3055,
    "uf": 3056,
    "Ġconnectivity": 3057,
    "ilot": 3058,
    "ĠPoc": 3059,
    "Ġtsun": 3060,
    "such": 3061,
    "ĠBaghd": 3062,
    "Ġsecretary": 3063,
    "Ġmagic": 3064,
    "Rom": 3065,
    "ĠDoll": 3066,
    "Pe": 3067,
    "Ġes": 3068,
    "Ġoff": 3069,
    "Ġdifficulty": 3070,
    "ĠNewt": 3071,
    "eming": 3072,
    "Ġmosquitoes": 3073,
    "ices": 3074,
    "asking": 3075,
    "Gary": 3076,
    "ĠPier": 3077,
    "Ġinfer": 3078,
    "ĠUpdate": 3079,
    "Ġpolyg": 3080,
    "Ġpark": 3081,
    "Ġbenchmark": 3082,
    "ĠParty": 3083,
    "Ġsuspected": 3084,
    "Ġdenounced": 3085,
    "lights": 3086,
    "ecutive": 3087,
    "ĠSid": 3088,
    "rawl": 3089,
    "ĠBurlington": 3090,
    "doors": 3091,
    "ĠSlack": 3092,
    "Ġgrants": 3093,
    "Ġspectacular": 3094,
    "Ġ<": 3095,
    "Ġprofiles": 3096,
    "ĠCyn": 3097,
    "Ġproperties": 3098,
    "LAY": 3099,
    "Un": 3100,
    "William": 3101,
    "bid": 3102,
    "Charles": 3103,
    "Ġincome": 3104,
    "Ġbullied": 3105,
    "Her": 3106,
    "ĠNora": 3107,
    "Ġmanslaughter": 3108,
    "].": 3109,
    "ĠKings": 3110,
    "Ġnonetheless": 3111,
    "ĠVista": 3112,
    "ĠWith": 3113,
    "ĠAston": 3114,
    "Ġmeasured": 3115,
    "ĠBeir": 3116,
    "Ġintimidation": 3117,
    "apest": 3118,
    "DER": 3119,
    "inational": 3120,
    "Ġadorable": 3121,
    "Ġtarget": 3122,
    "Ġsolution": 3123,
    "Ġraw": 3124,
    "ĠCou": 3125,
    "Ġsteal": 3126,
    "Ġcomb": 3127,
    "Ġrich": 3128,
    "Ġstack": 3129,
    "Ġexplains": 3130,
    "Ġhoping": 3131,
    "ibly": 3132,
    "omic": 3133,
    "Ġjihadist": 3134,
    "ÑĨ": 3135,
    "October": 3136,
    "Ġpodcast": 3137,
    "Ġcoffee": 3138,
    "Ġrelease": 3139,
    "Ġstrictly": 3140,
    "hots": 3141,
    "Ġrapp": 3142,
    "Ġauthentication": 3143,
    "aft": 3144,
    "Ġposting": 3145,
    "ĠShak": 3146,
    "ĠEmily": 3147,
    "Ġchildren": 3148,
    "Ġgarnered": 3149,
    "Ġunarmed": 3150,
    "Ġinvested": 3151,
    "Ġsudo": 3152,
    "Ġtraders": 3153,
    "sor": 3154,
    "Ġsustainability": 3155,
    "ĠSerbian": 3156,
    "ĠKaplan": 3157,
    "atively": 3158,
    "ellation": 3159,
    "ĠGujarat": 3160,
    "ger": 3161,
    "chain": 3162,
    "Ġbrushed": 3163,
    "Ġbasement": 3164,
    "those": 3165,
    "Ġrebellion": 3166,
    "erson": 3167,
    "ĠFox": 3168,
    "ĠEdit": 3169,
    "lein": 3170,
    "ĠAlabama": 3171,
    "cot": 3172,
    "ĠParents": 3173,
    "Ġheir": 3174,
    "Ġdining": 3175,
    "Ġloved": 3176,
    "cr": 3177,
    "Ã©mon": 3178,
    "Ġinvited": 3179,
    "Ġquestion": 3180,
    "Ġancest": 3181,
    "Ġreaction": 3182,
    "berry": 3183,
    "Ġpresence": 3184,
    "Ġmom": 3185,
    "Ġbrew": 3186,
    "Ġexamine": 3187,
    "ĠJesse": 3188,
    "ĠUran": 3189,
    "ali": 3190,
    "Ġsupremacist": 3191,
    "Ġghosts": 3192,
    "akes": 3193,
    "Ġconsiderations": 3194,
    "ade": 3195,
    "ĠDex": 3196,
    "Ġconfirmed": 3197,
    "celona": 3198,
    "Ġworth": 3199,
    "ĠSprint": 3200,
    "Ġmust": 3201,
    "ĠFootball": 3202,
    "ĠDW": 3203,
    "Ð»Ð°": 3204,
    "Ġretention": 3205,
    "Ġhiring": 3206,
    "ĠAbbott": 3207,
    "olean": 3208,
    "Ġcontestants": 3209,
    "Ġrelatives": 3210,
    "well": 3211,
    "ĠAssange": 3212,
    "ĠAllow": 3213,
    "ĠJoan": 3214,
    "sein": 3215,
    "Ġinfected": 3216,
    "Ġinhab": 3217,
    "Ġjudgment": 3218,
    "Ãª": 3219,
    "Ġfixtures": 3220,
    "Ġterrific": 3221,
    "Ġpath": 3222,
    "Ġwins": 3223,
    "Ġsoldier": 3224,
    "130": 3225,
    "Ġvast": 3226,
    "ĠCinema": 3227,
    "raig": 3228,
    "Ġselfie": 3229,
    "Ġdisability": 3230,
    "rations": 3231,
    "ĠFamilies": 3232,
    "Ġslightest": 3233,
    "ĠWinn": 3234,
    "xml": 3235,
    "ĠPatriot": 3236,
    "Ġscam": 3237,
    "ĠMichel": 3238,
    "rawn": 3239,
    "Î»": 3240,
    "ĠQuick": 3241,
    "ĠMayweather": 3242,
    "uddled": 3243,
    "Ġcomprises": 3244,
    "uts": 3245,
    "Ġtaste": 3246,
    "George": 3247,
    "ottesville": 3248,
    "Ġpartly": 3249,
    "Ġtoxic": 3250,
    "ĠPowers": 3251,
    "Ġdome": 3252,
    "eight": 3253,
    "IE": 3254,
    "Ġjunior": 3255,
    "ĠISO": 3256,
    "Ġboosting": 3257,
    "Ġkillings": 3258,
    "Ġstarving": 3259,
    "largest": 3260,
    "Ġlightweight": 3261,
    "Ġadam": 3262,
    "ok": 3263,
    "Ġpsychiat": 3264,
    "iss": 3265,
    "pired": 3266,
    "X": 3267,
    "Ġpainter": 3268,
    "ĠWhether": 3269,
    "ĠBat": 3270,
    "Ġsymp": 3271,
    "Ġimpression": 3272,
    "Ġnu": 3273,
    "Ġbump": 3274,
    "Ġsupply": 3275,
    "Ġ06": 3276,
    "arrett": 3277,
    "onic": 3278,
    "Ġought": 3279,
    "cule": 3280,
    "Ġlegendary": 3281,
    "Ġvenues": 3282,
    "Ġwore": 3283,
    "Ġcontinued": 3284,
    "Ġabundance": 3285,
    "Ġsurprising": 3286,
    "Ġcush": 3287,
    "Rich": 3288,
    "ĠRomney": 3289,
    "ĠPenny": 3290,
    "Ġblog": 3291,
    "Ġyuan": 3292,
    "ĠDragon": 3293,
    "car": 3294,
    "uka": 3295,
    "Ġvault": 3296,
    "Ġpill": 3297,
    "ĠAAA": 3298,
    "inence": 3299,
    "ĠCompanies": 3300,
    "Ġvampire": 3301,
    "Ġmerit": 3302,
    "Global": 3303,
    "Ġthereby": 3304,
    "assion": 3305,
    "Ġampl": 3306,
    "ĠOver": 3307,
    "Ġnominee": 3308,
    "Ġbicycle": 3309,
    "Ġnin": 3310,
    "Ġsuppliers": 3311,
    "Ġprecursor": 3312,
    "ĠAutom": 3313,
    "making": 3314,
    "Ġcrackdown": 3315,
    "sensitive": 3316,
    "ĠHonduras": 3317,
    "reen": 3318,
    "Ġoverwhelming": 3319,
    "Ġconglomer": 3320,
    "Ġsen": 3321,
    "Ġexclusively": 3322,
    "ĠSt": 3323,
    "aka": 3324,
    "Ġbonus": 3325,
    "Ġcollateral": 3326,
    "ĠPr": 3327,
    "Ġdrib": 3328,
    "ĠAle": 3329,
    "Ġlacks": 3330,
    "Ġraids": 3331,
    "Ġadvers": 3332,
    "Ġneighborhood": 3333,
    "itage": 3334,
    "ĠKas": 3335,
    "When": 3336,
    "ĠFar": 3337,
    "usc": 3338,
    "Ġera": 3339,
    "Ġcoord": 3340,
    "Ġgrat": 3341,
    "Ġobserve": 3342,
    "Ġcrude": 3343,
    "Ġdisasters": 3344,
    "Ġwealthiest": 3345,
    "Ġgrocery": 3346,
    "heres": 3347,
    "idious": 3348,
    "ĠStudios": 3349,
    "raid": 3350,
    "ĠCommon": 3351,
    "ĠSundays": 3352,
    "umbered": 3353,
    "ercise": 3354,
    "peace": 3355,
    "Ġpersuaded": 3356,
    "Ġwounds": 3357,
    "Ġbridges": 3358,
    "fashioned": 3359,
    "ĠDEL": 3360,
    "Ġconnected": 3361,
    "ĠMississippi": 3362,
    "Ġreduces": 3363,
    "Ġaccounts": 3364,
    "emer": 3365,
    "floor": 3366,
    "Ġspeculative": 3367,
    "atch": 3368,
    "Ġdelightful": 3369,
    "ĠHeroes": 3370,
    "Ġsteril": 3371,
    "ini": 3372,
    "ĠDIS": 3373,
    "inition": 3374,
    "ĠLiz": 3375,
    "240": 3376,
    "Incre": 3377,
    "II": 3378,
    "Ġadapting": 3379,
    "Ġrecycling": 3380,
    "Ġtrusts": 3381,
    "Ġreports": 3382,
    "Ġkicker": 3383,
    "Ġtactical": 3384,
    "verage": 3385,
    "ulk": 3386,
    "Ġpassengers": 3387,
    "Ġcurtain": 3388,
    "Ġadult": 3389,
    "?'": 3390,
    "cultural": 3391,
    "Ġextraordinarily": 3392,
    "Ġcrashed": 3393,
    "ree": 3394,
    "raud": 3395,
    "Ġrepeal": 3396,
    "ĠPur": 3397,
    "ĠRonald": 3398,
    "ĠGuardians": 3399,
    "Ġbin": 3400,
    "Ġpromot": 3401,
    "Ġentrance": 3402,
    "ĠShell": 3403,
    "Ġrelocate": 3404,
    "âĢĿ).": 3405,
    "Ġbeen": 3406,
    "Ġillustration": 3407,
    "Ġnorthern": 3408,
    "ĠSequ": 3409,
    "Ġcomprehens": 3410,
    "++++": 3411,
    "rentice": 3412,
    "aid": 3413,
    "Ġsole": 3414,
    "Chinese": 3415,
    "rade": 3416,
    "umber": 3417,
    "ĠHERE": 3418,
    "ĠSoldier": 3419,
    "Ġadaptations": 3420,
    "oga": 3421,
    "COM": 3422,
    "ĠTurkish": 3423,
    "find": 3424,
    "ĠMB": 3425,
    "Ġpist": 3426,
    "ĠSle": 3427,
    "143": 3428,
    "uine": 3429,
    "];": 3430,
    "oenix": 3431,
    "Ġ2014": 3432,
    "ĠConservatives": 3433,
    "scars": 3434,
    "ĠLady": 3435,
    "ĠXI": 3436,
    "Ġbring": 3437,
    "Ġatheist": 3438,
    "terns": 3439,
    "ĠFacts": 3440,
    "ĠfÃ¼r": 3441,
    "Ġlongtime": 3442,
    "Ġinitial": 3443,
    "Ġcompleted": 3444,
    "mong": 3445,
    "Ġstabil": 3446,
    "ĠNAACP": 3447,
    "Ġlocation": 3448,
    "cal": 3449,
    "Ġdirects": 3450,
    "Ġsuppression": 3451,
    "Ġcounsel": 3452,
    "Ġnationwide": 3453,
    "ĠCRE": 3454,
    "Ġgluc": 3455,
    "Ġcustomization": 3456,
    "ãĢ": 3457,
    "ĠCPS": 3458,
    "Ġflash": 3459,
    "Ġtravelled": 3460,
    "Ġmicrobes": 3461,
    "Ġintr": 3462,
    "Ġgreeted": 3463,
    "Ġconqu": 3464,
    "ĠBoise": 3465,
    "ĠTaiwan": 3466,
    "Ĭ": 3467,
    "Ġdebugging": 3468,
    "Ġcorporate": 3469,
    "Ġessay": 3470,
    "itches": 3471,
    "illion": 3472,
    "process": 3473,
    "Ġseveral": 3474,
    "ĠTree": 3475,
    "ĠLiqu": 3476,
    "Ġbrink": 3477,
    "rolog": 3478,
    "Ġcontents": 3479,
    "Ġunres": 3480,
    "master": 3481,
    "own": 3482,
    "igenous": 3483,
    "ĠCapitals": 3484,
    "Ġmean": 3485,
    "isconsin": 3486,
    "Ġsovereignty": 3487,
    "Ġrebounds": 3488,
    "rh": 3489,
    "Ġoperating": 3490,
    "ict": 3491,
    "ĠBrat": 3492,
    "ĠNet": 3493,
    "Ġurged": 3494,
    "Ash": 3495,
    "Ġvendor": 3496,
    "ĠYemen": 3497,
    "ĠCombine": 3498,
    "ĠBun": 3499,
    "Ġdisclose": 3500,
    "cer": 3501,
    "ĠKurt": 3502,
    "Ġresumed": 3503,
    "Ġwants": 3504,
    "Ġseas": 3505,
    "ifying": 3506,
    "Ġsmiles": 3507,
    "Ġterrain": 3508,
    "incial": 3509,
    "Ġpathway": 3510,
    "urb": 3511,
    "ĠSa": 3512,
    "Ġmod": 3513,
    "in": 3514,
    "Ġpopped": 3515,
    "Ġcorrupted": 3516,
    "acks": 3517,
    "ĠGibbs": 3518,
    "ifer": 3519,
    "Chris": 3520,
    "achusetts": 3521,
    "Ġarchitects": 3522,
    "Ġfar": 3523,
    "Les": 3524,
    "ĠRails": 3525,
    "repre": 3526,
    "Ġhyster": 3527,
    "Ġcut": 3528,
    "Ġ21": 3529,
    "ĠAssistant": 3530,
    "Ġvalve": 3531,
    "ĠLEGO": 3532,
    "ĠCaptain": 3533,
    "Ġparticipation": 3534,
    "Ġrallied": 3535,
    "Ġnep": 3536,
    "Ġdebate": 3537,
    "Ġappropriately": 3538,
    "Episode": 3539,
    "Ġsubstantially": 3540,
    "%,": 3541,
    "Ġsucks": 3542,
    "Ġpne": 3543,
    "Ġtank": 3544,
    "something": 3545,
    "Ġide": 3546,
    "Ġimmigration": 3547,
    "bits": 3548,
    "ĠRobbie": 3549,
    "Ġhumanity": 3550,
    "ĠGriffin": 3551,
    "shield": 3552,
    "mat": 3553,
    "ĠClement": 3554,
    "Ġdeserves": 3555,
    "mates": 3556,
    "pared": 3557,
    "ĠGeek": 3558,
    "Ġfurniture": 3559,
    "ĠInside": 3560,
    "Coll": 3561,
    "Ġfinish": 3562,
    "gan": 3563,
    "Ġrecip": 3564,
    "Ġempathy": 3565,
    "that": 3566,
    "ĠVideos": 3567,
    "Ġpriest": 3568,
    "Ġtooth": 3569,
    "Ġappointment": 3570,
    "Ġproductive": 3571,
    "ler": 3572,
    "Ġexpression": 3573,
    "Ġobligation": 3574,
    "Ġarriving": 3575,
    "Ġwhistleblower": 3576,
    "Ġlining": 3577,
    "Only": 3578,
    "ĠOre": 3579,
    "Ġlawmakers": 3580,
    "IB": 3581,
    "writ": 3582,
    "Ġcough": 3583,
    "arette": 3584,
    "ĠLowe": 3585,
    "Ġguise": 3586,
    "Ġdisk": 3587,
    "}}": 3588,
    "Ġmanual": 3589,
    "avour": 3590,
    "Ġ1": 3591,
    "ĠSeries": 3592,
    "Ġteachers": 3593,
    ".'": 3594,
    "Ġunlimited": 3595,
    "Ġdelete": 3596,
    "Ġpersonal": 3597,
    "ota": 3598,
    "Ġfuture": 3599,
    "Ġprolong": 3600,
    "Ġregret": 3601,
    "Ġresembles": 3602,
    "uclear": 3603,
    "Ġconfirming": 3604,
    "Ġgig": 3605,
    "Ġsupernatural": 3606,
    "Ġadamant": 3607,
    "ĠMetro": 3608,
    "Ġ1940": 3609,
    "ĠTunis": 3610,
    "ĠApost": 3611,
    "get": 3612,
    "inces": 3613,
    "ĠDist": 3614,
    "ĠLynch": 3615,
    "ĠÂŃ": 3616,
    "Ġtrauma": 3617,
    "original": 3618,
    "Ġresident": 3619,
    "ĠAdmir": 3620,
    "child": 3621,
    "ĠWeaver": 3622,
    "fore": 3623,
    "patch": 3624,
    "ĠUnic": 3625,
    "izophren": 3626,
    "ptic": 3627,
    "Ġdismantle": 3628,
    "Ġplayers": 3629,
    "Ġcontradictory": 3630,
    "ĠFDA": 3631,
    "ĠBoost": 3632,
    "Ġgruesome": 3633,
    "ureau": 3634,
    "ĠAb": 3635,
    "Ġcorrelation": 3636,
    "Ġseniors": 3637,
    "Ġdev": 3638,
    "ĠAgriculture": 3639,
    "Ġbra": 3640,
    "ĠMix": 3641,
    "jad": 3642,
    "connected": 3643,
    "Ġintoler": 3644,
    "Ġdent": 3645,
    "ichever": 3646,
    "ĠHayden": 3647,
    "Ġru": 3648,
    "ĠFormer": 3649,
    "ĠCream": 3650,
    "open": 3651,
    "Van": 3652,
    "iveness": 3653,
    "ĠAbstract": 3654,
    "Ġgifts": 3655,
    "Ġdet": 3656,
    "cend": 3657,
    "orp": 3658,
    "akin": 3659,
    "Ġ43": 3660,
    "Ġbaseball": 3661,
    "Ġma": 3662,
    "str": 3663,
    "uras": 3664,
    "ĠFilipino": 3665,
    "Ġlikelihood": 3666,
    "ing": 3667,
    "ruction": 3668,
    "Ġseparating": 3669,
    "âĪ": 3670,
    "ĠMyster": 3671,
    "Ġsewage": 3672,
    "Ġlifelong": 3673,
    "Ġfitness": 3674,
    "ĠPCs": 3675,
    "hed": 3676,
    "ĠWas": 3677,
    "psych": 3678,
    "101": 3679,
    "ĠPike": 3680,
    "Ġorganize": 3681,
    "thinking": 3682,
    "Ġdebunk": 3683,
    "Ġathlet": 3684,
    "ACP": 3685,
    "ĠJes": 3686,
    "Ġter": 3687,
    "works": 3688,
    "ĠNether": 3689,
    "illing": 3690,
    "VP": 3691,
    "Ġpap": 3692,
    "Ġunjust": 3693,
    "Ġknown": 3694,
    "Ġprolonged": 3695,
    "ĠInterstate": 3696,
    "Ġwizard": 3697,
    "Ġguessing": 3698,
    "Ġoversee": 3699,
    "Ġevolutionary": 3700,
    "ĠFuj": 3701,
    "Ġmeddling": 3702,
    "eda": 3703,
    "ĠSaints": 3704,
    "King": 3705,
    "Ġdeeply": 3706,
    "ĠOg": 3707,
    "ilty": 3708,
    "Jordan": 3709,
    "ĠCoy": 3710,
    "tal": 3711,
    "Ġabout": 3712,
    "Ġsuperstar": 3713,
    "Ġupdating": 3714,
    "ĠTop": 3715,
    "Ġfragment": 3716,
    "ĠPig": 3717,
    "Ġgrounded": 3718,
    "ILL": 3719,
    "Ġdecreased": 3720,
    "imi": 3721,
    "ĠDonna": 3722,
    "ĠSergey": 3723,
    "Ġcommitted": 3724,
    "Ġlav": 3725,
    "Ġdemons": 3726,
    "Ġgran": 3727,
    "enable": 3728,
    "Ġ256": 3729,
    "ĠPrevention": 3730,
    "Ġarranged": 3731,
    "Ġplayed": 3732,
    "Ġsuggestions": 3733,
    "Ġtrans": 3734,
    "Ġcompiled": 3735,
    "ĠOl": 3736,
    "Ġaccomplishment": 3737,
    "imates": 3738,
    "row": 3739,
    "Ġetc": 3740,
    "Ġlawn": 3741,
    "ukes": 3742,
    "enos": 3743,
    "ĠTreat": 3744,
    "Ġadmittedly": 3745,
    "ĠDod": 3746,
    "Ġcensus": 3747,
    "ĠDell": 3748,
    "oke": 3749,
    "cknow": 3750,
    "ĠHighway": 3751,
    "usalem": 3752,
    "ĠHeritage": 3753,
    "ĠNex": 3754,
    "Palest": 3755,
    "ordable": 3756,
    "Ġprinting": 3757,
    "Ġembarrassing": 3758,
    "Ġbiom": 3759,
    "ĠAngeles": 3760,
    "asia": 3761,
    "ãĢĮ": 3762,
    "Ġslipped": 3763,
    "text": 3764,
    "afa": 3765,
    "Ñ": 3766,
    "RO": 3767,
    "ĠDeV": 3768,
    "Ġjerk": 3769,
    "ĠAuburn": 3770,
    "ĠKnowledge": 3771,
    "Ġfamed": 3772,
    "Ġbaff": 3773,
    "kefeller": 3774,
    "igers": 3775,
    "Ġion": 3776,
    "ĠDerby": 3777,
    "Ġcancel": 3778,
    "Ġmit": 3779,
    "ĠPoe": 3780,
    "14": 3781,
    "Mail": 3782,
    "Ġambulance": 3783,
    "Ġmeantime": 3784,
    "ĠSize": 3785,
    "ĠTheir": 3786,
    "ĠS": 3787,
    "Ġvend": 3788,
    "UST": 3789,
    "ĠFrontier": 3790,
    "amination": 3791,
    "Ġresent": 3792,
    "Ġblasted": 3793,
    "rell": 3794,
    "Ġconfess": 3795,
    "ĠGuardian": 3796,
    "tical": 3797,
    "Ġnort": 3798,
    "ranch": 3799,
    "Ġfuzz": 3800,
    "Ġnovelty": 3801,
    "Ġundergraduate": 3802,
    "XX": 3803,
    "Ġgor": 3804,
    "Ġairing": 3805,
    "Mir": 3806,
    "ĠAbuse": 3807,
    "Ġseven": 3808,
    "Ġlunar": 3809,
    "ĠSaudi": 3810,
    "ĠTodd": 3811,
    "squ": 3812,
    "ĠMediterranean": 3813,
    "Ġnumbered": 3814,
    "Ġrealized": 3815,
    "Ġidentity": 3816,
    "rophe": 3817,
    "Ġcategor": 3818,
    "ough": 3819,
    "mid": 3820,
    "Ġcraft": 3821,
    "Ġpamph": 3822,
    "Ġno": 3823,
    "irable": 3824,
    "Ġmanufactured": 3825,
    "122": 3826,
    "'d": 3827,
    "ï¿½": 3828,
    "Ġconscious": 3829,
    "ĠEff": 3830,
    "Ġpremise": 3831,
    "Ġbeast": 3832,
    "ĠDeclaration": 3833,
    "Ġsecret": 3834,
    "ĠFO": 3835,
    "Ġclin": 3836,
    "cue": 3837,
    "Ġpremature": 3838,
    "Ġattorneys": 3839,
    "ĠUnt": 3840,
    "Ġpertain": 3841,
    "isons": 3842,
    "adelph": 3843,
    "British": 3844,
    "ms": 3845,
    "ph": 3846,
    "Ġcontrollers": 3847,
    "ĠAm": 3848,
    "culation": 3849,
    "Ġvice": 3850,
    "ĠSer": 3851,
    ".).": 3852,
    "Ġ51": 3853,
    "ĠWinnipeg": 3854,
    "Ms": 3855,
    "Ġunse": 3856,
    "geon": 3857,
    "ĠShop": 3858,
    "NO": 3859,
    "ĠAthens": 3860,
    "ĠDodgers": 3861,
    "Ġrichest": 3862,
    "ĠWen": 3863,
    "ĠEX": 3864,
    "OP": 3865,
    "hem": 3866,
    "ĠSuddenly": 3867,
    "ĠBoard": 3868,
    "Ġcracked": 3869,
    "ĠRoad": 3870,
    "Ġ45": 3871,
    "Pad": 3872,
    "ĠPER": 3873,
    "ĠStatement": 3874,
    "Ġconsiderably": 3875,
    "NBC": 3876,
    "ĠLy": 3877,
    "Ġtraveled": 3878,
    "Ġslip": 3879,
    "pick": 3880,
    "Take": 3881,
    "Ġprud": 3882,
    "ĠBlocked": 3883,
    "kn": 3884,
    "ĠScript": 3885,
    "ixtures": 3886,
    "ĠHispanics": 3887,
    "ĠCompar": 3888,
    "abb": 3889,
    "Ġha": 3890,
    "Ġhelp": 3891,
    "ĠSanders": 3892,
    "ĠIdentity": 3893,
    "Ġowing": 3894,
    "Ġgrammar": 3895,
    "Ġexamination": 3896,
    "adem": 3897,
    "ĠMary": 3898,
    "Ġslammed": 3899,
    "Ġyell": 3900,
    "ges": 3901,
    "Ġspe": 3902,
    "Plan": 3903,
    "ĠKad": 3904,
    "Louis": 3905,
    "uctions": 3906,
    "ĠBitcoin": 3907,
    "Ñħ": 3908,
    "ĠPersian": 3909,
    "Ġoverlooking": 3910,
    "ĠJaguars": 3911,
    "Ġloaded": 3912,
    ".:": 3913,
    "mode": 3914,
    "Ġguilty": 3915,
    "Ġtune": 3916,
    "],\"": 3917,
    "Market": 3918,
    "thodox": 3919,
    "ĠColeman": 3920,
    "Ġrealization": 3921,
    "Ġalbums": 3922,
    "Ġpaint": 3923,
    "Ġamazing": 3924,
    "Ġ65": 3925,
    "iece": 3926,
    "Ġwarm": 3927,
    "tri": 3928,
    "ĠWhatever": 3929,
    "Ġmarketplace": 3930,
    "ĠFant": 3931,
    "Ġtray": 3932,
    "Ġdreaming": 3933,
    "Arthur": 3934,
    "Ġrepercussions": 3935,
    "Ġinvent": 3936,
    "WW": 3937,
    "Ġdoomed": 3938,
    "ĠED": 3939,
    "Ġprosecut": 3940,
    "Ġheroic": 3941,
    "Ġshiny": 3942,
    "Sadly": 3943,
    "asts": 3944,
    "Ġserum": 3945,
    "ĠLev": 3946,
    "paper": 3947,
    "Ġdescription": 3948,
    "hips": 3949,
    "ĠAlberta": 3950,
    "Ġexotic": 3951,
    "Ġresembling": 3952,
    "itially": 3953,
    "ĠCole": 3954,
    "Ġseaw": 3955,
    "ĠAbr": 3956,
    "Ġresurrect": 3957,
    "Mult": 3958,
    "Ġsummar": 3959,
    "imated": 3960,
    "cester": 3961,
    "Ġbab": 3962,
    "Ġguards": 3963,
    "ugger": 3964,
    "Ġ1969": 3965,
    "ĠSem": 3966,
    "ĠMystery": 3967,
    "itures": 3968,
    "Ġstages": 3969,
    "ĠChess": 3970,
    "Ġhitter": 3971,
    "Samsung": 3972,
    "Ġscreenplay": 3973,
    "ĠLindsey": 3974,
    "mar": 3975,
    "ĠStatus": 3976,
    "TR": 3977,
    "ĠChase": 3978,
    "Ġsituated": 3979,
    "Ġpaved": 3980,
    "ĠMega": 3981,
    "frac": 3982,
    "LL": 3983,
    "Ġheap": 3984,
    "ĠHicks": 3985,
    "Ġwrong": 3986,
    "aign": 3987,
    "ĠRivera": 3988,
    "Ġ=>": 3989,
    "ĠAndre": 3990,
    "(": 3991,
    "Ġsites": 3992,
    "ĠThreat": 3993,
    "ĠPass": 3994,
    "estic": 3995,
    "Ġencaps": 3996,
    "53": 3997,
    "ĠRobert": 3998,
    "Ġquality": 3999,
    "47": 4000,
    "Ġmotors": 4001,
    "Ġmusicians": 4002,
    "Ġsyn": 4003,
    "mostly": 4004,
    "Ġcoaching": 4005,
    "Ġtrou": 4006,
    "Ġstory": 4007,
    "Ġdisreg": 4008,
    "ependent": 4009,
    "Ġcount": 4010,
    "Ġeth": 4011,
    "Ġpref": 4012,
    "ĠTen": 4013,
    "ithe": 4014,
    "Ford": 4015,
    "Ġhist": 4016,
    "ĠGreater": 4017,
    "Ġindependents": 4018,
    "Ġlists": 4019,
    "eness": 4020,
    "Ġnoodles": 4021,
    "Ġinterpre": 4022,
    "ĠDragons": 4023,
    "Ġmonitored": 4024,
    "ĠCas": 4025,
    "ĠOregon": 4026,
    "Ġapplies": 4027,
    "Ask": 4028,
    "idence": 4029,
    "irming": 4030,
    "Ġcricket": 4031,
    "Ġegg": 4032,
    "Ġlead": 4033,
    "ĠBarnett": 4034,
    "Ġrepresented": 4035,
    "Ġcommanded": 4036,
    "§": 4037,
    "ĠRa": 4038,
    "Ġeffect": 4039,
    "asant": 4040,
    "her": 4041,
    "ĠAlmost": 4042,
    "ĠResearch": 4043,
    "ĠRise": 4044,
    "Ġsworn": 4045,
    "ĠMode": 4046,
    "ĠPE": 4047,
    "angled": 4048,
    "Ġincumbent": 4049,
    "Ġheroes": 4050,
    "Ġemployer": 4051,
    "stanbul": 4052,
    "Ġus": 4053,
    "ĠSherman": 4054,
    "aturday": 4055,
    "electric": 4056,
    "ĠMD": 4057,
    "Ġmonuments": 4058,
    "umer": 4059,
    "aly": 4060,
    "cs": 4061,
    "itations": 4062,
    "econom": 4063,
    "Ġ150": 4064,
    "Ġcommuters": 4065,
    "ĠTampa": 4066,
    "MORE": 4067,
    "ĠThrough": 4068,
    "Ġswords": 4069,
    "ĠMadrid": 4070,
    "Ġcolumnist": 4071,
    "Ġlounge": 4072,
    "Ġadequ": 4073,
    "Ġecho": 4074,
    "ĠDem": 4075,
    "aim": 4076,
    "ĠAPI": 4077,
    "ividual": 4078,
    "Hy": 4079,
    "Ġstadiums": 4080,
    "Ġscrutiny": 4081,
    "holes": 4082,
    "ĠRaven": 4083,
    "ĠPear": 4084,
    "ĠMang": 4085,
    "enery": 4086,
    "Ġcomfortable": 4087,
    "Ġgad": 4088,
    "Mobile": 4089,
    "ĠCP": 4090,
    "ual": 4091,
    "Ġstuff": 4092,
    "Ġcollaborating": 4093,
    "Ġpound": 4094,
    "Ġharm": 4095,
    "ovy": 4096,
    "Ġindeed": 4097,
    "zel": 4098,
    "Ġflavors": 4099,
    "cul": 4100,
    "olls": 4101,
    "ĠPru": 4102,
    "ĠNorman": 4103,
    "ĠNorm": 4104,
    "ĠMultiple": 4105,
    "Ġrespectively": 4106,
    "Ġpredicted": 4107,
    "ĠBuddh": 4108,
    "ĠJohns": 4109,
    "Ġshelling": 4110,
    "prop": 4111,
    "Or": 4112,
    "Ġleaking": 4113,
    "uring": 4114,
    "Ġconceal": 4115,
    "Ġsymb": 4116,
    "ographs": 4117,
    "majority": 4118,
    "ix": 4119,
    "Ġanthem": 4120,
    "wiki": 4121,
    "Virgin": 4122,
    "ĠPerkins": 4123,
    "Ġboasted": 4124,
    "ĠOber": 4125,
    "Ġintervened": 4126,
    "Ġcaller": 4127,
    "Ġdirectory": 4128,
    "Ġpoet": 4129,
    "Ġskept": 4130,
    "ĠCharl": 4131,
    "Ġphotos": 4132,
    "ence": 4133,
    "Ġpod": 4134,
    "ĠJe": 4135,
    "ĠKatie": 4136,
    "iod": 4137,
    "ĠNich": 4138,
    "Ġtal": 4139,
    "itutes": 4140,
    "Ġdou": 4141,
    "ĠLloyd": 4142,
    "ĠDevice": 4143,
    "ĠGames": 4144,
    "ising": 4145,
    "Ġanch": 4146,
    "Ġcompression": 4147,
    "Ġconspic": 4148,
    "ĠMaybe": 4149,
    "ĠNordic": 4150,
    "ĠPau": 4151,
    "FS": 4152,
    "volume": 4153,
    "awk": 4154,
    "ĠBuch": 4155,
    "Ġkeywords": 4156,
    "ĠNS": 4157,
    "Ġeleph": 4158,
    "Ġplayable": 4159,
    "202": 4160,
    "Ġintensified": 4161,
    "ĠLie": 4162,
    "jamin": 4163,
    "ĠWithin": 4164,
    "eenth": 4165,
    "ĠParent": 4166,
    "Ġhabitat": 4167,
    "Ġbreweries": 4168,
    "Ġgall": 4169,
    "Ġmil": 4170,
    "ĠCrowd": 4171,
    "Ġc": 4172,
    "ĠBeau": 4173,
    "ggles": 4174,
    "Ġentity": 4175,
    "Ġeup": 4176,
    "Ġsocio": 4177,
    "Ġnovel": 4178,
    "Ġapologies": 4179,
    "ĠScala": 4180,
    "Ġconviction": 4181,
    "ĠMH": 4182,
    "Ġinteracting": 4183,
    "Ġchat": 4184,
    "Link": 4185,
    "Ġsupplement": 4186,
    "Ġhistory": 4187,
    "Ġgood": 4188,
    "ĠMHz": 4189,
    "Ġoccupations": 4190,
    "Ġskate": 4191,
    "iral": 4192,
    "Henry": 4193,
    "ather": 4194,
    "ĠEarth": 4195,
    "ocratic": 4196,
    "Central": 4197,
    "bat": 4198,
    "ĠSte": 4199,
    "ĠWend": 4200,
    "Ġelbow": 4201,
    "Ġpointers": 4202,
    "Ġmorning": 4203,
    "Ġrevolutionary": 4204,
    "mt": 4205,
    "Ġmaximize": 4206,
    "Ġallowance": 4207,
    "ĠRiverside": 4208,
    "brow": 4209,
    "ĠDisplay": 4210,
    "73": 4211,
    "ĠGuant": 4212,
    "Ġadjustments": 4213,
    "Pal": 4214,
    "ĠHolocaust": 4215,
    "ĠFilip": 4216,
    "Ġcompensated": 4217,
    "Ġrender": 4218,
    "wy": 4219,
    "Ġaccidentally": 4220,
    "Ġcorporations": 4221,
    "Ġcaric": 4222,
    "ÑģÐº": 4223,
    "irlf": 4224,
    "Ġpi": 4225,
    "affer": 4226,
    "Ġstreams": 4227,
    "Ġgoodness": 4228,
    "63": 4229,
    "ĠBT": 4230,
    "Ġrequested": 4231,
    "Going": 4232,
    "along": 4233,
    "Ġparody": 4234,
    "oken": 4235,
    "Ġqueer": 4236,
    "Ġengulf": 4237,
    "Ġcivic": 4238,
    "Ġassessments": 4239,
    "states": 4240,
    "ilingual": 4241,
    "lev": 4242,
    "Ġmana": 4243,
    "ĠUnfortunately": 4244,
    "json": 4245,
    "Ġopenings": 4246,
    "?).": 4247,
    "ĠHam": 4248,
    "Ġ93": 4249,
    "ĠJP": 4250,
    "ĠReynolds": 4251,
    "bum": 4252,
    "ju": 4253,
    "Ġclient": 4254,
    "ĠYear": 4255,
    "ACH": 4256,
    "Ġflight": 4257,
    "Ġdropping": 4258,
    "Ġrails": 4259,
    "orie": 4260,
    "Ġclue": 4261,
    "Ġpathways": 4262,
    "Ġlandsc": 4263,
    "Es": 4264,
    "Ġideologies": 4265,
    "Ġmaterials": 4266,
    "Ġstigma": 4267,
    "ĠSoccer": 4268,
    "Ġchemicals": 4269,
    "Ġcanceled": 4270,
    "udo": 4271,
    "ĠGA": 4272,
    "É": 4273,
    "Question": 4274,
    "iolet": 4275,
    "Ġstadium": 4276,
    "earth": 4277,
    "ĠIgn": 4278,
    "Ġdiscredited": 4279,
    "aha": 4280,
    "Ġpossible": 4281,
    "ĠPepper": 4282,
    "ĠSalv": 4283,
    "UTC": 4284,
    "Ġhips": 4285,
    "Ġbetween": 4286,
    "quest": 4287,
    "Ġexperimentation": 4288,
    "ety": 4289,
    "Ġperennial": 4290,
    "Ġunable": 4291,
    "especially": 4292,
    "ĠAltern": 4293,
    "achers": 4294,
    "Ġfreezing": 4295,
    "ĠChurchill": 4296,
    "Ġtrades": 4297,
    "Ġ(": 4298,
    "Ġrecognize": 4299,
    "Ġspeaks": 4300,
    "Ġmasculinity": 4301,
    "ĠAleppo": 4302,
    "ĠHar": 4303,
    "Ġmemories": 4304,
    "uber": 4305,
    "Ġcommittees": 4306,
    "say": 4307,
    "tingham": 4308,
    "Ġscanned": 4309,
    "inally": 4310,
    "Ġembedded": 4311,
    "Ġsprayed": 4312,
    "Ġallows": 4313,
    "Ġinfantry": 4314,
    "ĠManagement": 4315,
    "Ġguessed": 4316,
    "Ġtransitional": 4317,
    "Ġdelivering": 4318,
    "ĠCommittee": 4319,
    "pic": 4320,
    "Ġdiagnosed": 4321,
    "owship": 4322,
    "Ġinform": 4323,
    "oles": 4324,
    "Ġprogrammes": 4325,
    "ĠWebsite": 4326,
    "Ġpromotions": 4327,
    "alin": 4328,
    "000000": 4329,
    "journal": 4330,
    "avez": 4331,
    "ĠAllison": 4332,
    "Ġlivestock": 4333,
    "Ġdamn": 4334,
    "Ġante": 4335,
    "ĠTall": 4336,
    "ĠItem": 4337,
    "ĠBerger": 4338,
    "icides": 4339,
    "illo": 4340,
    "religious": 4341,
    "pal": 4342,
    "Ġbreeds": 4343,
    "Ġharassing": 4344,
    "bian": 4345,
    "Ġrecomm": 4346,
    "odka": 4347,
    "otta": 4348,
    "bec": 4349,
    "afi": 4350,
    "Ġlied": 4351,
    "Ġconclus": 4352,
    "buster": 4353,
    "Ġdatabases": 4354,
    "Ġdatabase": 4355,
    "Ġrestoring": 4356,
    "asi": 4357,
    "ĠLeader": 4358,
    "Ġmercy": 4359,
    "mir": 4360,
    "Ġrepeated": 4361,
    "ĠArena": 4362,
    "Ġtries": 4363,
    "ĠTak": 4364,
    "ĠTonight": 4365,
    "Ġchoosing": 4366,
    "Ġsince": 4367,
    "Ġ()": 4368,
    "ĠWeb": 4369,
    "Ġcult": 4370,
    "ĠHit": 4371,
    "ĠWorld": 4372,
    "Bel": 4373,
    "Ġ``": 4374,
    "Ġbreast": 4375,
    "ĠSL": 4376,
    "ĠGN": 4377,
    "Ġtail": 4378,
    "Ġrelieve": 4379,
    "ĠSingle": 4380,
    "Ġaspects": 4381,
    "Ġexports": 4382,
    "safe": 4383,
    "Ã¤": 4384,
    "Ġlearn": 4385,
    "Ġtomato": 4386,
    "AFTA": 4387,
    "ĠGate": 4388,
    "Ġpotentially": 4389,
    "''": 4390,
    "Ġop": 4391,
    "Ġwhen": 4392,
    ".\"[": 4393,
    "Ġforecasts": 4394,
    "imately": 4395,
    "Ġwebs": 4396,
    "Ġnood": 4397,
    "ĠP": 4398,
    "tar": 4399,
    "Ġshifts": 4400,
    "ĠWrite": 4401,
    "ixels": 4402,
    "ĠGilbert": 4403,
    "Ġrecommends": 4404,
    "ĠKind": 4405,
    "heimer": 4406,
    "ĠInvestigation": 4407,
    "character": 4408,
    "isine": 4409,
    "any": 4410,
    "Ġcig": 4411,
    "ĠEgypt": 4412,
    "Ġmicrosc": 4413,
    "ĠSwift": 4414,
    "produ": 4415,
    "ĠNT": 4416,
    "ĠUnity": 4417,
    "sac": 4418,
    "ĠFM": 4419,
    "ĠCentral": 4420,
    "ĠCamb": 4421,
    "Ġvitamins": 4422,
    "Ġforesee": 4423,
    "ĠPersonal": 4424,
    "Ġ1945": 4425,
    "ĠPlatinum": 4426,
    "ĠFit": 4427,
    "ĠCivil": 4428,
    "Ġdirty": 4429,
    "ructions": 4430,
    "ĠCalvin": 4431,
    "venge": 4432,
    "Ġcents": 4433,
    "elman": 4434,
    "ĠLay": 4435,
    "Ġsplitting": 4436,
    "Ġ210": 4437,
    "ciation": 4438,
    "More": 4439,
    "Ġorigin": 4440,
    "Ġfade": 4441,
    "rative": 4442,
    "atern": 4443,
    "Ġorb": 4444,
    "Ġgunshot": 4445,
    "ĠGolden": 4446,
    "Gov": 4447,
    "ĠQueens": 4448,
    "Ġmenus": 4449,
    "Ġgranting": 4450,
    "{\\": 4451,
    "Don": 4452,
    "Ġend": 4453,
    "Ġcrown": 4454,
    "ĠSanta": 4455,
    "ĠGiants": 4456,
    "ĠLong": 4457,
    "ĠBailey": 4458,
    "Ġcircular": 4459,
    "query": 4460,
    "ĠAdolf": 4461,
    "Ġworkings": 4462,
    "ĠStern": 4463,
    "dark": 4464,
    "ĠOP": 4465,
    "Ġtimer": 4466,
    "Ġairborne": 4467,
    "Ġstates": 4468,
    "ector": 4469,
    "ĠCrawford": 4470,
    "imal": 4471,
    "Ġpsych": 4472,
    "ĠVernon": 4473,
    "ĠInvestment": 4474,
    "ced": 4475,
    "Ġfastest": 4476,
    "Ġreiter": 4477,
    "inating": 4478,
    "ĠCarpenter": 4479,
    "ari": 4480,
    "Ġseismic": 4481,
    "ln": 4482,
    "ĠGPUs": 4483,
    "Ġquests": 4484,
    "ĠPayne": 4485,
    "Ġwinners": 4486,
    "Ġimpuls": 4487,
    "ĠLemon": 4488,
    "De": 4489,
    "ama": 4490,
    "Ġverge": 4491,
    "Ġplaintiff": 4492,
    "Ġporn": 4493,
    "Ġmat": 4494,
    "ĠEarn": 4495,
    "Ġaffili": 4496,
    "Ġapplication": 4497,
    "ĠNever": 4498,
    "Because": 4499,
    "Ġpleasure": 4500,
    "Ġsubpo": 4501,
    "ĠPath": 4502,
    "Ġallerg": 4503,
    "ĠIndigenous": 4504,
    "Ġdisastrous": 4505,
    "Ġbargaining": 4506,
    "Ġbloss": 4507,
    "Ġpremiere": 4508,
    "Ġtrapped": 4509,
    "Ġenemies": 4510,
    "ĠSherlock": 4511,
    "Ġextends": 4512,
    "ĠTurk": 4513,
    "sett": 4514,
    "Ġfabric": 4515,
    "ighters": 4516,
    "Ġlocked": 4517,
    "building": 4518,
    "ĠVegan": 4519,
    "orial": 4520,
    "Ġste": 4521,
    "Ġdrew": 4522,
    "Ġnurses": 4523,
    "ĠFourth": 4524,
    "Building": 4525,
    "Ġ1946": 4526,
    "Ġbox": 4527,
    "Ġreceipt": 4528,
    "ĠEvening": 4529,
    "ccording": 4530,
    "Ġarr": 4531,
    "Ġparish": 4532,
    "ĠOs": 4533,
    "Ġruined": 4534,
    "Ġpot": 4535,
    "Ġborrowed": 4536,
    "ĠOdyssey": 4537,
    "ĠAvengers": 4538,
    "su": 4539,
    "Ġexpected": 4540,
    "oping": 4541,
    "Ġpropos": 4542,
    "Ġvir": 4543,
    "His": 4544,
    "word": 4545,
    "ĠCool": 4546,
    "ĠVoy": 4547,
    "Ġslic": 4548,
    "ĠCoun": 4549,
    "ĠMember": 4550,
    "Ġcelebrate": 4551,
    "Đ": 4552,
    "ĠMerc": 4553,
    "ĠRab": 4554,
    "esides": 4555,
    "1990": 4556,
    "inas": 4557,
    "owner": 4558,
    "Ġsentiment": 4559,
    "Ġarri": 4560,
    "Ġimpl": 4561,
    "Ġpremier": 4562,
    "ĠInsider": 4563,
    "CAR": 4564,
    "Ġuranium": 4565,
    "ĠEmail": 4566,
    "Ġstimulus": 4567,
    "Ġsouthwest": 4568,
    "Station": 4569,
    "Ġmask": 4570,
    "woman": 4571,
    "Ġslapped": 4572,
    "xual": 4573,
    "Paul": 4574,
    "Ġunleash": 4575,
    "Ġconsisted": 4576,
    "ilogy": 4577,
    "Ġserve": 4578,
    "Ġpoliceman": 4579,
    "Ġload": 4580,
    "ĠLiberal": 4581,
    "hn": 4582,
    "ĠTwin": 4583,
    "olve": 4584,
    "though": 4585,
    "Ġdrill": 4586,
    "ught": 4587,
    "assador": 4588,
    "Ġchef": 4589,
    "Ġbrowsers": 4590,
    "Ġunmanned": 4591,
    "Ġhumble": 4592,
    "itic": 4593,
    "Ġadul": 4594,
    "Î": 4595,
    "Ġhelicopters": 4596,
    "ĠGET": 4597,
    "ĠAvatar": 4598,
    "social": 4599,
    "ĠImp": 4600,
    "Mod": 4601,
    "Ġworthless": 4602,
    "if": 4603,
    "Ġoptional": 4604,
    "Ġvodka": 4605,
    "caps": 4606,
    "Ġprovince": 4607,
    "actions": 4608,
    "Ġcows": 4609,
    "SN": 4610,
    "Ãĥ": 4611,
    "Ġshot": 4612,
    "Ġain": 4613,
    "make": 4614,
    "Ġanimation": 4615,
    ":\"": 4616,
    "ĠDelivery": 4617,
    "Ġaesthetics": 4618,
    "Ġreligious": 4619,
    "ĠCaldwell": 4620,
    "Ġsounding": 4621,
    "Ġy": 4622,
    "ĠScot": 4623,
    "ĠHoliday": 4624,
    "Ġcombine": 4625,
    "ĠQur": 4626,
    "Ġcommence": 4627,
    "ĠRF": 4628,
    "ĠFind": 4629,
    "iva": 4630,
    "igger": 4631,
    "ĠLan": 4632,
    "uddle": 4633,
    "thur": 4634,
    "Ġexclud": 4635,
    "utable": 4636,
    "enfranch": 4637,
    "Ġshouldn": 4638,
    "Ġskeleton": 4639,
    "lov": 4640,
    "Ġtermination": 4641,
    "config": 4642,
    "Ġsn": 4643,
    "ĠHans": 4644,
    "ĠHyde": 4645,
    "Ġdominant": 4646,
    "earance": 4647,
    "ĠJeremy": 4648,
    "ahn": 4649,
    "ĠLego": 4650,
    "77": 4651,
    "ĠLocke": 4652,
    "Kim": 4653,
    "iles": 4654,
    "Ġmemorable": 4655,
    "ap": 4656,
    "Ġignored": 4657,
    "Ġate": 4658,
    "leys": 4659,
    "Ġdiscern": 4660,
    "Ġneighbours": 4661,
    "Email": 4662,
    "Ġgum": 4663,
    "ĠMonthly": 4664,
    "Ġdesires": 4665,
    "ĠBenef": 4666,
    "endar": 4667,
    "Qaeda": 4668,
    "Ġ000": 4669,
    "Ġobstacles": 4670,
    "chi": 4671,
    "Ġquota": 4672,
    "Ġimplies": 4673,
    "Ġbrave": 4674,
    "League": 4675,
    "ĠLaf": 4676,
    "ĠDOJ": 4677,
    "Ġbuilder": 4678,
    "Ġirrigation": 4679,
    "Ġsupported": 4680,
    "antom": 4681,
    "Ġcave": 4682,
    "Ġyourselves": 4683,
    "Ġmilitants": 4684,
    "Ali": 4685,
    "Ġsubmission": 4686,
    "ĠNad": 4687,
    "Ġunderstandable": 4688,
    "Ġarchitect": 4689,
    "MM": 4690,
    "ĠAc": 4691,
    "Ġfeedback": 4692,
    "Ġdebating": 4693,
    "Ġshore": 4694,
    "ially": 4695,
    "Ġhypot": 4696,
    "Ġcommentary": 4697,
    "ĠPlains": 4698,
    "Ġconstraints": 4699,
    "Ġtsp": 4700,
    "ĠHour": 4701,
    "Ġreleased": 4702,
    "Ġprox": 4703,
    "Ġliberals": 4704,
    "Ġdisposal": 4705,
    "Ġmythology": 4706,
    "EM": 4707,
    "ela": 4708,
    "Ġconceived": 4709,
    "ĠSher": 4710,
    "/": 4711,
    "Ġdiscusses": 4712,
    "Ġrainfall": 4713,
    "tingu": 4714,
    "Ġfier": 4715,
    "Ġstaggering": 4716,
    "eyed": 4717,
    "Ġcontinents": 4718,
    "ĠRemember": 4719,
    "rey": 4720,
    "Ġconsequences": 4721,
    "Ġhappily": 4722,
    "Ġshocks": 4723,
    "ĠJonathan": 4724,
    "Ġ1080": 4725,
    "nels": 4726,
    "Ġcorrected": 4727,
    "Drive": 4728,
    "xy": 4729,
    "Ġfunctional": 4730,
    "Ġphysicians": 4731,
    "often": 4732,
    "Ġbroadcaster": 4733,
    "Ġinexpl": 4734,
    "isha": 4735,
    "ĠMonsters": 4736,
    "Ġpor": 4737,
    "Ġtying": 4738,
    "con": 4739,
    "Ġ1966": 4740,
    "Listen": 4741,
    "Ġconjunction": 4742,
    "alys": 4743,
    "blank": 4744,
    "ĠNeither": 4745,
    "ĠRX": 4746,
    "ĠLad": 4747,
    "tit": 4748,
    "ĠTru": 4749,
    "Ġpardon": 4750,
    "Ġsuffered": 4751,
    "Ġsemin": 4752,
    "Ġpatriarch": 4753,
    "Ġcigarettes": 4754,
    "odes": 4755,
    "Ġ185": 4756,
    "Ġdispensaries": 4757,
    "Ġrus": 4758,
    "é": 4759,
    "Ġpun": 4760,
    "Ġafter": 4761,
    "ĠPos": 4762,
    "Ġmogul": 4763,
    "Ġescorted": 4764,
    "ĠNHS": 4765,
    "ensed": 4766,
    "large": 4767,
    "South": 4768,
    "Ġsimilarity": 4769,
    "SAN": 4770,
    "Ġanat": 4771,
    "Ġquote": 4772,
    "result": 4773,
    "Ġsurrendered": 4774,
    "ival": 4775,
    "fter": 4776,
    "Ġseal": 4777,
    "Ġbeard": 4778,
    "Method": 4779,
    "Ġspor": 4780,
    "Ġfinalized": 4781,
    "ĠPart": 4782,
    "Ġproceeded": 4783,
    "ĠInstitutes": 4784,
    "Ġpoorest": 4785,
    "Ġskysc": 4786,
    "Ġexc": 4787,
    "Ġtid": 4788,
    "Ġcourage": 4789,
    "Ġdemonstrators": 4790,
    "ixon": 4791,
    "ĠGlobe": 4792,
    "ĠEffect": 4793,
    "ember": 4794,
    "Ġquite": 4795,
    "ĠTuls": 4796,
    "!âĢĻ": 4797,
    "Ġalone": 4798,
    "Ġoffspring": 4799,
    "Ġshort": 4800,
    "ĠAzerbai": 4801,
    "Ġmigr": 4802,
    "Ġbrush": 4803,
    "porary": 4804,
    "ĠStore": 4805,
    "comfort": 4806,
    "vas": 4807,
    "ĠWis": 4808,
    "orc": 4809,
    "oba": 4810,
    "Ġunfortunate": 4811,
    "Ġbelong": 4812,
    "Senate": 4813,
    "Ġfundamentals": 4814,
    "Ġimages": 4815,
    "Ġmy": 4816,
    "ĠIndependent": 4817,
    "Ġcannon": 4818,
    "Ġinspir": 4819,
    "owl": 4820,
    "mosp": 4821,
    "guard": 4822,
    "Ġreceives": 4823,
    "ilibrium": 4824,
    "Ġinhibit": 4825,
    "Ġaddressing": 4826,
    "Ġwhales": 4827,
    "ĠBie": 4828,
    "Ġsqu": 4829,
    "Ġremind": 4830,
    "Ġtolerance": 4831,
    "Back": 4832,
    "Ġfounders": 4833,
    "Ġexha": 4834,
    "review": 4835,
    "OUND": 4836,
    "NN": 4837,
    "asure": 4838,
    "ĠNY": 4839,
    "ĠIsn": 4840,
    "Ġeducation": 4841,
    "Ġplayful": 4842,
    "Ġ650": 4843,
    "help": 4844,
    "Ġunp": 4845,
    "Ġpositives": 4846,
    "ĠTitans": 4847,
    "Ġmessages": 4848,
    "ĠFixed": 4849,
    "Ġneatly": 4850,
    "lift": 4851,
    "Ġpond": 4852,
    "mad": 4853,
    "ĠKnowing": 4854,
    "Ġrepeating": 4855,
    "Mic": 4856,
    "Ġbrown": 4857,
    "ĠGlass": 4858,
    "ĠTwilight": 4859,
    "Ġà¤": 4860,
    "Ġharness": 4861,
    "1994": 4862,
    "ĠCatholics": 4863,
    "Ġethnic": 4864,
    "Getting": 4865,
    "Ġpretending": 4866,
    "Ġlouder": 4867,
    "ĠGreatest": 4868,
    "ĠFoot": 4869,
    "retion": 4870,
    "ĸ": 4871,
    "Ġchocolate": 4872,
    "Ġreflecting": 4873,
    "Ġsticky": 4874,
    "marks": 4875,
    "icky": 4876,
    "elli": 4877,
    "ĠNorwegian": 4878,
    "ĠAssoci": 4879,
    "Ġplays": 4880,
    "ĠPentagon": 4881,
    "Ġrunway": 4882,
    "ĠAffairs": 4883,
    "ĠUb": 4884,
    "leader": 4885,
    "NFL": 4886,
    "Ġdams": 4887,
    "Ġslots": 4888,
    "ublic": 4889,
    "ĠBeng": 4890,
    "opt": 4891,
    "Ġscholarships": 4892,
    "Ġreversal": 4893,
    "trade": 4894,
    "71": 4895,
    "nik": 4896,
    "Ġ1500": 4897,
    "Ġscant": 4898,
    "Ġathletic": 4899,
    "Ġuncom": 4900,
    "Ġassociation": 4901,
    "Ġimagining": 4902,
    "ĠCorn": 4903,
    "ĠMemphis": 4904,
    "Ġmagnitude": 4905,
    "Hit": 4906,
    "hemy": 4907,
    "Ġexcuses": 4908,
    "adel": 4909,
    "ĠLiquid": 4910,
    "Ġey": 4911,
    "idth": 4912,
    "Ġbanning": 4913,
    "ĠLatino": 4914,
    "Until": 4915,
    "ĠWomen": 4916,
    "volent": 4917,
    "front": 4918,
    "ĠBi": 4919,
    "Ġinstruction": 4920,
    "Ġconfir": 4921,
    "Ġwashing": 4922,
    "Ġcontin": 4923,
    "ĠCambodia": 4924,
    "=": 4925,
    "ĠZone": 4926,
    "Ġexploit": 4927,
    "defined": 4928,
    "ĠCards": 4929,
    "ester": 4930,
    "Ġtable": 4931,
    "ĠSounds": 4932,
    "Ġdeck": 4933,
    "ĠTower": 4934,
    "Ġplots": 4935,
    "()": 4936,
    "Ġsustained": 4937,
    "Ġweak": 4938,
    "Ġsla": 4939,
    "Ġsolved": 4940,
    "Ġ1948": 4941,
    "Ġbunk": 4942,
    "outed": 4943,
    "ĠUniversity": 4944,
    "owler": 4945,
    "cel": 4946,
    "due": 4947,
    "lling": 4948,
    "ĠWayne": 4949,
    "ĠRSS": 4950,
    "ĠGray": 4951,
    "Ġpig": 4952,
    "Ġflo": 4953,
    "olving": 4954,
    "ĠBetty": 4955,
    "Ġtemp": 4956,
    "ĠTur": 4957,
    "ATION": 4958,
    "agonist": 4959,
    "ĠCert": 4960,
    "ĠBass": 4961,
    "ĠNEWS": 4962,
    "Ġjungle": 4963,
    "ĠJess": 4964,
    "Ġcancelled": 4965,
    "');": 4966,
    "Ġconsidered": 4967,
    "Ġviewers": 4968,
    "Att": 4969,
    "Ġdivest": 4970,
    "Ġcivilizations": 4971,
    "render": 4972,
    "Ġassert": 4973,
    "target": 4974,
    "ĠGaming": 4975,
    "Ġswiftly": 4976,
    "Ġnotifications": 4977,
    "Fi": 4978,
    "Ġthy": 4979,
    "existing": 4980,
    "Ġmeets": 4981,
    "ĠCommunist": 4982,
    "Ġsolve": 4983,
    "Ġdeserving": 4984,
    "center": 4985,
    "ĠMaxim": 4986,
    "ĠVi": 4987,
    "Com": 4988,
    "ĠGallagher": 4989,
    "Ġpreseason": 4990,
    "lia": 4991,
    "Ġupgrade": 4992,
    "Ġcountryside": 4993,
    "Ġsequel": 4994,
    "Ġcontinent": 4995,
    "ames": 4996,
    "Ġspark": 4997,
    "ĠObserv": 4998,
    "Ġitems": 4999,
    "Ġpunching": 5000,
    "Ġgenuinely": 5001,
    "Ġwid": 5002,
    "Ġinfectious": 5003,
    "iencies": 5004,
    "Ġsausage": 5005,
    "ĠAnonymous": 5006,
    "Ġbird": 5007,
    "ĠCampaign": 5008,
    "Ġblueprint": 5009,
    "zone": 5010,
    "ĠOracle": 5011,
    "Right": 5012,
    "irm": 5013,
    "Ġfog": 5014,
    "Ġcollabor": 5015,
    "\"": 5016,
    "Ġborne": 5017,
    "ham": 5018,
    "Ġserv": 5019,
    "75": 5020,
    "__": 5021,
    "Ġcontent": 5022,
    "Therefore": 5023,
    "Note": 5024,
    "Ġincap": 5025,
    "Ġcorrel": 5026,
    "Release": 5027,
    "Ġcaut": 5028,
    "Ġselective": 5029,
    "igned": 5030,
    "Ġfiltered": 5031,
    "âĹı": 5032,
    "Ġhacker": 5033,
    "inoids": 5034,
    "Ġrelaxed": 5035,
    "âĢĿ:": 5036,
    "ownt": 5037,
    "related": 5038,
    "Ġnest": 5039,
    "Ġdistract": 5040,
    "Ġschedule": 5041,
    "ĠCop": 5042,
    "ĠPayPal": 5043,
    "venue": 5044,
    "onna": 5045,
    "Sarah": 5046,
    "Ġknock": 5047,
    "Ġdish": 5048,
    "Ġelimin": 5049,
    "Ġcontentious": 5050,
    "Ġborn": 5051,
    "ĠSara": 5052,
    "ĠTerritory": 5053,
    "ĠMorgan": 5054,
    "Ġbless": 5055,
    "Ġoh": 5056,
    "ĠDak": 5057,
    "Ġradius": 5058,
    "iple": 5059,
    "Ġrental": 5060,
    "Ġadmitting": 5061,
    "ĠMog": 5062,
    "icted": 5063,
    "ĠPL": 5064,
    "KE": 5065,
    "aan": 5066,
    "Ġmayors": 5067,
    "ĠSochi": 5068,
    "ople": 5069,
    "Frank": 5070,
    "ket": 5071,
    "Ġbreakfast": 5072,
    "²": 5073,
    "Ġdemon": 5074,
    "Ġcombined": 5075,
    "Ġexpressed": 5076,
    "Ġsubsidized": 5077,
    "ĠUT": 5078,
    "ĠLu": 5079,
    "Sept": 5080,
    "Ġaffiliate": 5081,
    "antine": 5082,
    "Ġdissolved": 5083,
    "Ġbal": 5084,
    "Ġ1924": 5085,
    "Ġbrutally": 5086,
    "pect": 5087,
    "ĠHouse": 5088,
    "Ġshelter": 5089,
    "ucing": 5090,
    "Ġpul": 5091,
    "Ġpitcher": 5092,
    "Ġcatalogue": 5093,
    "Ġbelievers": 5094,
    "Ġthemselves": 5095,
    "ĠReal": 5096,
    "Ġinterpretations": 5097,
    "ĠOdd": 5098,
    "Ġmisrepresent": 5099,
    "Ġrecruit": 5100,
    "ĠNik": 5101,
    "policy": 5102,
    "feld": 5103,
    "onymous": 5104,
    "Ġted": 5105,
    "ulsion": 5106,
    "Ġrecognition": 5107,
    "Ġcondem": 5108,
    "nia": 5109,
    "Ġinvite": 5110,
    "Review": 5111,
    "Ter": 5112,
    "Ġbreak": 5113,
    "ĠGreen": 5114,
    "ĠFinals": 5115,
    "Ġsoundtrack": 5116,
    "ĠPam": 5117,
    "Ġelectron": 5118,
    "bar": 5119,
    "ĠCel": 5120,
    "Ġimpro": 5121,
    "Republican": 5122,
    "Major": 5123,
    "ished": 5124,
    "ĠPHP": 5125,
    "iders": 5126,
    "ĠFrance": 5127,
    "ĠOsw": 5128,
    "Ġpercentages": 5129,
    "ĠMaurice": 5130,
    "ĠâĢĿ": 5131,
    "ĠFalse": 5132,
    "uit": 5133,
    "Ġunh": 5134,
    "ak": 5135,
    "rene": 5136,
    "Ġcorners": 5137,
    "ĠGree": 5138,
    "Ġinterpretation": 5139,
    "ifference": 5140,
    "Ġfather": 5141,
    "ĠRash": 5142,
    "Ġforfe": 5143,
    "GC": 5144,
    "Ġlegalize": 5145,
    "necess": 5146,
    "Ġteenager": 5147,
    "ARP": 5148,
    "Techn": 5149,
    "ĠIR": 5150,
    "Ġsnapped": 5151,
    "Ġdiscovered": 5152,
    "ja": 5153,
    "Palestinian": 5154,
    "Ġcoping": 5155,
    "Windows": 5156,
    "Ġtheoretical": 5157,
    "Ġkindness": 5158,
    "Ġtalk": 5159,
    "Ġpassages": 5160,
    "uters": 5161,
    "formers": 5162,
    "Care": 5163,
    "Ġannounce": 5164,
    "oko": 5165,
    "Ġmodifications": 5166,
    "addock": 5167,
    "ĠCensus": 5168,
    "Ġindicators": 5169,
    "Ġoffending": 5170,
    "Ġclub": 5171,
    "activ": 5172,
    "ĠShepherd": 5173,
    "Ě": 5174,
    "Ġconcentrated": 5175,
    "Ġaccuses": 5176,
    "Ġcompletion": 5177,
    "ĠClinton": 5178,
    "Ġattacks": 5179,
    "ĠRoh": 5180,
    "arts": 5181,
    "Ã¶r": 5182,
    "ĠVienna": 5183,
    "Ġthemes": 5184,
    "hi": 5185,
    "ĠWizard": 5186,
    "ĠSons": 5187,
    "Ġcrore": 5188,
    "ĠGins": 5189,
    "enko": 5190,
    "Ġcrowds": 5191,
    "Ġfields": 5192,
    "Ġpermissions": 5193,
    "tenance": 5194,
    "Ġcontempl": 5195,
    "AK": 5196,
    "ĠStap": 5197,
    "athy": 5198,
    "Ġtroubles": 5199,
    "Ġwallet": 5200,
    "Ġgardens": 5201,
    "Ġsteam": 5202,
    "operative": 5203,
    "ĠStefan": 5204,
    "cks": 5205,
    "ĠTitan": 5206,
    "etro": 5207,
    "Ġemphas": 5208,
    "ĠPok": 5209,
    "ļ": 5210,
    "solete": 5211,
    "Ġinfinitely": 5212,
    "enh": 5213,
    "arrison": 5214,
    "Ġroasted": 5215,
    "az": 5216,
    "Ġbronze": 5217,
    "References": 5218,
    "ĠDictionary": 5219,
    "ĠRapid": 5220,
    "Ġmas": 5221,
    "Ġginger": 5222,
    "ĠWhites": 5223,
    "Ġm": 5224,
    "Ġfixed": 5225,
    "Justin": 5226,
    "ĠKathy": 5227,
    "grav": 5228,
    "ĠSE": 5229,
    "ĠGraphics": 5230,
    "ridge": 5231,
    "Ġcorrespondent": 5232,
    "Ġauthor": 5233,
    "ĠReviews": 5234,
    "andra": 5235,
    "Ġwouldn": 5236,
    "Ġpriorit": 5237,
    "ĠBE": 5238,
    "ĠLab": 5239,
    "Ġfights": 5240,
    "Ġenvelope": 5241,
    "ĠTeams": 5242,
    "crib": 5243,
    "Ġpubl": 5244,
    "Ġcyclist": 5245,
    "Ġresponses": 5246,
    "Ġprose": 5247,
    "ugg": 5248,
    "cation": 5249,
    "aut": 5250,
    "Ġintercepted": 5251,
    "Ġdesp": 5252,
    "sey": 5253,
    "ĠHTTP": 5254,
    "ĠUm": 5255,
    "ĠHoney": 5256,
    "ĠOakland": 5257,
    "ceed": 5258,
    "ĠConserv": 5259,
    "Ġpattern": 5260,
    "them": 5261,
    "ĠHidden": 5262,
    "Pre": 5263,
    "Ġmaking": 5264,
    "ãĥ¼": 5265,
    "ĠForbes": 5266,
    "ĠTel": 5267,
    "ĠFe": 5268,
    "oven": 5269,
    "Ġ0": 5270,
    "Ġmisconduct": 5271,
    "Ġmun": 5272,
    "Ġfind": 5273,
    "Ġexp": 5274,
    "ank": 5275,
    "ording": 5276,
    "An": 5277,
    "dogs": 5278,
    "elig": 5279,
    "Ġseam": 5280,
    "Ġfences": 5281,
    "iggle": 5282,
    "Ġsplit": 5283,
    "ding": 5284,
    "ĠFlor": 5285,
    "iago": 5286,
    "unicipality": 5287,
    "OR": 5288,
    "DR": 5289,
    "ĠÂ°": 5290,
    "Ġsolid": 5291,
    "Ġcomply": 5292,
    "iv": 5293,
    "Return": 5294,
    "ĠPacific": 5295,
    "ivity": 5296,
    "format": 5297,
    "Ġmiser": 5298,
    "Ġfile": 5299,
    "restrial": 5300,
    "Ġfinal": 5301,
    "Ġmerch": 5302,
    "Ġranking": 5303,
    "Ġcolor": 5304,
    "ĠFin": 5305,
    "ĠUruguay": 5306,
    "Ġlegislators": 5307,
    "iership": 5308,
    "ĠSMS": 5309,
    "Ġstriking": 5310,
    "iff": 5311,
    "Ġroutine": 5312,
    "Ġpython": 5313,
    "ĠEvery": 5314,
    "default": 5315,
    "osphere": 5316,
    "ater": 5317,
    "renches": 5318,
    "Ġlesser": 5319,
    "Ġminds": 5320,
    "Ġhaw": 5321,
    "ĠFT": 5322,
    "==": 5323,
    "Ġpharmaceutical": 5324,
    "Ġmissions": 5325,
    "Ġprohibition": 5326,
    "ĠGiant": 5327,
    "ĠDevelopment": 5328,
    "ĠSomeone": 5329,
    "WE": 5330,
    "Ray": 5331,
    "Ġestablishments": 5332,
    "orn": 5333,
    "Ġrefused": 5334,
    "Ġtouring": 5335,
    "Laughs": 5336,
    "hammad": 5337,
    "ae": 5338,
    "Ġcontemporary": 5339,
    "Ġnegotiated": 5340,
    "Ġsexually": 5341,
    "Associated": 5342,
    "ax": 5343,
    "ics": 5344,
    "ĠMariners": 5345,
    "thro": 5346,
    "Ġprevent": 5347,
    "Ġpays": 5348,
    "ĠVietnamese": 5349,
    "ĠSul": 5350,
    "Ġmag": 5351,
    "ĠFF": 5352,
    "arr": 5353,
    "ĠRecord": 5354,
    "Aaron": 5355,
    "Ġlanguage": 5356,
    "cular": 5357,
    "Ġbites": 5358,
    "ĠYork": 5359,
    "zed": 5360,
    "Ġimperfect": 5361,
    "Ġlacked": 5362,
    "________________________________": 5363,
    "Ġredef": 5364,
    "Ġtaps": 5365,
    "Ep": 5366,
    "Ġprominent": 5367,
    "ancy": 5368,
    "ĠInnovation": 5369,
    "idan": 5370,
    "Ġledger": 5371,
    "Ġslick": 5372,
    "Ġfright": 5373,
    "×Ļ": 5374,
    "Ġhottest": 5375,
    "Ġride": 5376,
    "Ġinject": 5377,
    "able": 5378,
    "McC": 5379,
    "rs": 5380,
    "Ġfro": 5381,
    "Ġclips": 5382,
    "Ġens": 5383,
    "Ġscreen": 5384,
    "Ġlimits": 5385,
    "Ġwed": 5386,
    "Ġlineage": 5387,
    "###": 5388,
    "lower": 5389,
    "Ġanalog": 5390,
    "Ġbranch": 5391,
    "iven": 5392,
    "Ġtoug": 5393,
    "ĠAugust": 5394,
    "ux": 5395,
    "ĠIII": 5396,
    "ĠGroup": 5397,
    "oral": 5398,
    "Ġefficient": 5399,
    "ober": 5400,
    "Ġnotice": 5401,
    "Ġearned": 5402,
    "Ġmedian": 5403,
    "Ġdismissing": 5404,
    "ĠPant": 5405,
    "Ġslashed": 5406,
    "Ġaggress": 5407,
    "ĠSecret": 5408,
    "Ġremedies": 5409,
    "igans": 5410,
    "ARK": 5411,
    "Ġexhaustion": 5412,
    "Ġunused": 5413,
    "otto": 5414,
    "Ġrecess": 5415,
    "Ġplanned": 5416,
    "Ġindirect": 5417,
    "Ġintimidated": 5418,
    "Ġdisagreed": 5419,
    "ĠCulture": 5420,
    "Ġtelephone": 5421,
    "inke": 5422,
    "Ġdisproportion": 5423,
    "coin": 5424,
    "ben": 5425,
    "Ġsons": 5426,
    "ĠBelow": 5427,
    "Ġcomplement": 5428,
    "Ġdepression": 5429,
    "Ġsharp": 5430,
    "Ġneuro": 5431,
    "Ġmarker": 5432,
    "intelligence": 5433,
    "hip": 5434,
    "Ġinconvenience": 5435,
    "Ġgiants": 5436,
    "Ġfunding": 5437,
    "Ġconsortium": 5438,
    "Ġstamps": 5439,
    "Ġmembr": 5440,
    "Mem": 5441,
    "********************************": 5442,
    "ĠBuzzFeed": 5443,
    "ĠGPS": 5444,
    "ĠSunderland": 5445,
    "Snow": 5446,
    "lain": 5447,
    "ĠArgent": 5448,
    "ĠBaltimore": 5449,
    "ĠEnd": 5450,
    "ifiers": 5451,
    "ĠWonder": 5452,
    "Ġrecruits": 5453,
    "eted": 5454,
    "ends": 5455,
    "Ġske": 5456,
    "display": 5457,
    "Ġplan": 5458,
    "ĠAng": 5459,
    "ĠSloven": 5460,
    "isen": 5461,
    "ĠMeyer": 5462,
    "ĠNebraska": 5463,
    "ĠDi": 5464,
    "Ġcomplaining": 5465,
    "Ġtoll": 5466,
    "Ġequity": 5467,
    "Put": 5468,
    "ĠItalian": 5469,
    "139": 5470,
    "Stop": 5471,
    "ĠTexans": 5472,
    "Ġtouchdowns": 5473,
    "Ġreopened": 5474,
    "ĠOPS": 5475,
    "ĠAdvisory": 5476,
    "Ġapproach": 5477,
    "vo": 5478,
    "Ġhotels": 5479,
    "introdu": 5480,
    "Ġmoving": 5481,
    "ĠFactor": 5482,
    "vertisement": 5483,
    "cas": 5484,
    "Ġhouseholds": 5485,
    "ea": 5486,
    "ushima": 5487,
    "Ġlearns": 5488,
    "rix": 5489,
    ">>>>>>>>": 5490,
    "ĠElite": 5491,
    "ĠRd": 5492,
    "rays": 5493,
    "Ġcardboard": 5494,
    "ĠMam": 5495,
    "Ġcred": 5496,
    "Ġassociated": 5497,
    "Ġlab": 5498,
    "Ġconsiderable": 5499,
    "clamation": 5500,
    "icia": 5501,
    "idespread": 5502,
    "Ġtechnological": 5503,
    "TIS": 5504,
    ")?": 5505,
    "Ġinland": 5506,
    "Ġfrankly": 5507,
    "ĠMarsh": 5508,
    "01": 5509,
    "ĠBurton": 5510,
    "ga": 5511,
    "flix": 5512,
    "ĠSteve": 5513,
    "bernatorial": 5514,
    "adal": 5515,
    "oard": 5516,
    "ĠIS": 5517,
    "ĠDani": 5518,
    "Ġhaun": 5519,
    "Ġ04": 5520,
    "Ġbolst": 5521,
    "Ġpink": 5522,
    "aste": 5523,
    "ĠJan": 5524,
    "Ġpra": 5525,
    "ifi": 5526,
    "999": 5527,
    "ressive": 5528,
    "ued": 5529,
    "ablish": 5530,
    "matic": 5531,
    "Ġprogram": 5532,
    "Ġdestro": 5533,
    "Sund": 5534,
    "cip": 5535,
    "rica": 5536,
    "Ġteaches": 5537,
    "rub": 5538,
    "ĠDamascus": 5539,
    "Ġsurpass": 5540,
    "ĠVikings": 5541,
    "ased": 5542,
    "oding": 5543,
    "Ġreproduced": 5544,
    "occup": 5545,
    "Ġaisle": 5546,
    "Ġclassics": 5547,
    "ĠACT": 5548,
    "ĠRoman": 5549,
    "Ġhemp": 5550,
    "aque": 5551,
    "59": 5552,
    "Ġreorgan": 5553,
    "Ġball": 5554,
    ",âĢĻ": 5555,
    "achus": 5556,
    "ĠSecretary": 5557,
    "Ġimmun": 5558,
    "ĠNorway": 5559,
    "bedroom": 5560,
    "Ġtun": 5561,
    "ĠThree": 5562,
    "ĠPew": 5563,
    "ĠEntertainment": 5564,
    "ĠKrug": 5565,
    "Ġbankrupt": 5566,
    "Ġres": 5567,
    "Ġpoured": 5568,
    "anan": 5569,
    "cards": 5570,
    "reamed": 5571,
    "ĠHistorical": 5572,
    "Ġmarkers": 5573,
    "Jud": 5574,
    "ĠChance": 5575,
    "Ġseem": 5576,
    "ĠBelg": 5577,
    "Ġtendencies": 5578,
    "Ġscient": 5579,
    "Ġmilitia": 5580,
    "acked": 5581,
    "Ill": 5582,
    "Ġdiminished": 5583,
    "Ġacceleration": 5584,
    "Ġsplash": 5585,
    "Ġsmooth": 5586,
    "Ġ23": 5587,
    "Ġpoorly": 5588,
    "held": 5589,
    "Ġpetty": 5590,
    "ĠGarner": 5591,
    "Ġsize": 5592,
    "Ġtumult": 5593,
    "ĠFrench": 5594,
    "Ġinvaluable": 5595,
    "osis": 5596,
    "Ġredes": 5597,
    "ĠKnow": 5598,
    "dan": 5599,
    "Ġbreached": 5600,
    "te": 5601,
    "Ġperiodic": 5602,
    "Rose": 5603,
    "Ġfa": 5604,
    "Ġseat": 5605,
    "Ġsimilarities": 5606,
    "ĠClark": 5607,
    "ldom": 5608,
    "ller": 5609,
    "Average": 5610,
    "ĠAL": 5611,
    "Ġhurricane": 5612,
    "ĠBoot": 5613,
    "Ġfridge": 5614,
    "ande": 5615,
    "Ġinvariably": 5616,
    "ĠGoodman": 5617,
    "ĠAccountability": 5618,
    "ĠFull": 5619,
    "?\"": 5620,
    "Ġabandon": 5621,
    "unct": 5622,
    "ĠAttorney": 5623,
    "rot": 5624,
    "accept": 5625,
    "Ġoutrageous": 5626,
    "Ġforbidden": 5627,
    "Ġfriendship": 5628,
    "Ġtourn": 5629,
    "Ġrose": 5630,
    "Ġgentle": 5631,
    "Ġrepeats": 5632,
    "Ġsituation": 5633,
    "lam": 5634,
    "Ġ75": 5635,
    "Ġyet": 5636,
    "ĠVac": 5637,
    "Ġsaf": 5638,
    "Hor": 5639,
    "Ġclassical": 5640,
    "ĠTerror": 5641,
    "ĠConference": 5642,
    "Ġreplay": 5643,
    "isters": 5644,
    "osexual": 5645,
    "usually": 5646,
    "bage": 5647,
    "although": 5648,
    "Ġpublish": 5649,
    "zona": 5650,
    "J": 5651,
    "Ġusers": 5652,
    "Ġchilling": 5653,
    "Ġrou": 5654,
    "ĠBoeing": 5655,
    "ĠSense": 5656,
    "ĠSean": 5657,
    "ĠEqual": 5658,
    "Ġpeoples": 5659,
    "Ġbattles": 5660,
    "Ġhow": 5661,
    "ĠVancouver": 5662,
    "Ġstride": 5663,
    "ĠâĪ": 5664,
    "licted": 5665,
    "ĠWon": 5666,
    "ĠIllustrated": 5667,
    "Ġmapped": 5668,
    "ĠLegends": 5669,
    "Swed": 5670,
    "Ġcortex": 5671,
    "rt": 5672,
    "ĠMelissa": 5673,
    "ĠGuys": 5674,
    "Ġcombust": 5675,
    "ĠRock": 5676,
    "Ġobjective": 5677,
    "Ġyen": 5678,
    "Ġmultiply": 5679,
    "ĠPCI": 5680,
    "ĠJesus": 5681,
    "Ġwritten": 5682,
    "ENT": 5683,
    "Ġribs": 5684,
    "security": 5685,
    "TS": 5686,
    "itnesses": 5687,
    "Ġshores": 5688,
    "rick": 5689,
    "Ġunleashed": 5690,
    "Ġhostile": 5691,
    "Ġbargain": 5692,
    "ervative": 5693,
    "ĠDayton": 5694,
    "cycl": 5695,
    "Ġle": 5696,
    "Ġrepealed": 5697,
    "Ġsubpoena": 5698,
    "Sh": 5699,
    "Ġprim": 5700,
    "ĠProv": 5701,
    "ract": 5702,
    "ĠWor": 5703,
    "ĠObserver": 5704,
    "Ġneglect": 5705,
    "Ġunint": 5706,
    "Ġphysical": 5707,
    "overty": 5708,
    "ĠKaiser": 5709,
    "ĠSummon": 5710,
    "Ġpreventing": 5711,
    "ri": 5712,
    "Ġho": 5713,
    "Ġcleaner": 5714,
    "Ġfirearm": 5715,
    "Ġ500": 5716,
    "ĠHeart": 5717,
    "Ġstretching": 5718,
    "ĠHU": 5719,
    "Ġfact": 5720,
    "Ġten": 5721,
    "Ġtaxpayer": 5722,
    "Way": 5723,
    "ATH": 5724,
    "idays": 5725,
    "Ġturb": 5726,
    "Photo": 5727,
    "ĠARE": 5728,
    "Ġ98": 5729,
    "addafi": 5730,
    "Ġhalf": 5731,
    "ĠSinn": 5732,
    "andal": 5733,
    "Ġsubstantive": 5734,
    "Roll": 5735,
    "ĠAl": 5736,
    "Ġvan": 5737,
    "ĠSpect": 5738,
    "Ġ61": 5739,
    "Ġensl": 5740,
    "145": 5741,
    "159": 5742,
    "Ġeffects": 5743,
    "oti": 5744,
    "ĠDespite": 5745,
    "Ġgreatly": 5746,
    "ĠDays": 5747,
    "Ð±": 5748,
    "ĠPengu": 5749,
    "ĠWright": 5750,
    "Ġvalidated": 5751,
    "Ġobserves": 5752,
    "'": 5753,
    "Ġadmit": 5754,
    "Ġfle": 5755,
    "Ġgram": 5756,
    "prus": 5757,
    "Taylor": 5758,
    "Ġdemand": 5759,
    "ĠGle": 5760,
    "ĠSpaceX": 5761,
    "ORK": 5762,
    "arget": 5763,
    "ocity": 5764,
    "mitted": 5765,
    "Ġcove": 5766,
    "ĠCamp": 5767,
    "Ġip": 5768,
    "ĠDig": 5769,
    "Ġhashtag": 5770,
    "Ġfiber": 5771,
    "Ġcenter": 5772,
    "aghd": 5773,
    "ĠBlizzard": 5774,
    "ĠIM": 5775,
    "serious": 5776,
    "ĠInvalid": 5777,
    "dog": 5778,
    "Ġ15": 5779,
    "Action": 5780,
    "Ġfashion": 5781,
    "ĠGarc": 5782,
    "Ġraise": 5783,
    "Ġcorro": 5784,
    "deb": 5785,
    "Ġintense": 5786,
    "Ġterrorists": 5787,
    "Ġhoped": 5788,
    "ĠBachmann": 5789,
    "ĠMeet": 5790,
    "Ġbark": 5791,
    "Ġbacteria": 5792,
    "ttp": 5793,
    "Ġtrees": 5794,
    "Ġstarters": 5795,
    "Jeff": 5796,
    "ience": 5797,
    "ĠNRL": 5798,
    "ĠOL": 5799,
    "Ġrhyth": 5800,
    "Intern": 5801,
    "Ġcalculated": 5802,
    "ĠMumbai": 5803,
    "ĠGear": 5804,
    "ldon": 5805,
    "Ġcelebr": 5806,
    "ĠTok": 5807,
    "Ġpediatric": 5808,
    "ancing": 5809,
    "ĠCW": 5810,
    "Ġdresses": 5811,
    "Ġthrilling": 5812,
    "ĠSD": 5813,
    "Ġputting": 5814,
    "Zero": 5815,
    "Ġslap": 5816,
    "Ġentrepreneur": 5817,
    "ĠJS": 5818,
    "Ġstereotypes": 5819,
    "Ġculp": 5820,
    "ĠCoc": 5821,
    "ill": 5822,
    "Ġalleviate": 5823,
    "Ġgi": 5824,
    "ĠRogue": 5825,
    "Ġnarcotics": 5826,
    "Cle": 5827,
    "Ġfreeze": 5828,
    "ĠSpeech": 5829,
    "haired": 5830,
    "Ġpurity": 5831,
    "ĠPOW": 5832,
    "Ã¯": 5833,
    "Ġtearing": 5834,
    "Ġwhich": 5835,
    "ĠJustice": 5836,
    "Ġmelee": 5837,
    "Bs": 5838,
    "aw": 5839,
    "ĠSchwe": 5840,
    "ĠMySQL": 5841,
    "hon": 5842,
    "icious": 5843,
    "Ġrecommending": 5844,
    "stay": 5845,
    "76": 5846,
    "220": 5847,
    "ĠMW": 5848,
    "ĠHawks": 5849,
    "idas": 5850,
    "infect": 5851,
    "2019": 5852,
    "Target": 5853,
    "Ġcomposer": 5854,
    "Ġteachings": 5855,
    "Ġ:": 5856,
    "ĠCanon": 5857,
    "busters": 5858,
    "astered": 5859,
    "Ġregularly": 5860,
    "Using": 5861,
    "BO": 5862,
    "Ġviolations": 5863,
    "Several": 5864,
    "ĠPod": 5865,
    "ĠMask": 5866,
    "rit": 5867,
    "\");": 5868,
    "Ġgaming": 5869,
    "ulators": 5870,
    "ouched": 5871,
    "Ġclut": 5872,
    "iggs": 5873,
    "ĠAverage": 5874,
    "Ġfootball": 5875,
    "Brian": 5876,
    "ĠUd": 5877,
    "Ġsafeguards": 5878,
    "imbabwe": 5879,
    "ramble": 5880,
    "lamm": 5881,
    "uchi": 5882,
    "folk": 5883,
    "ĠPu": 5884,
    "Ġ05": 5885,
    "Ġhandles": 5886,
    "Ġimplied": 5887,
    "Ġvelocity": 5888,
    "Ġforeigners": 5889,
    "ĠRAF": 5890,
    "ĠIntercept": 5891,
    "ĠEmployees": 5892,
    "lan": 5893,
    "ĠUsually": 5894,
    "ĠOur": 5895,
    "aration": 5896,
    "Ġevacuation": 5897,
    "Ġsecured": 5898,
    "ĠKrish": 5899,
    "Ġgenerous": 5900,
    "ĠJersey": 5901,
    "Ġmovements": 5902,
    "Ġencrypted": 5903,
    "ĠSunshine": 5904,
    "Ġoutfielder": 5905,
    "Current": 5906,
    "Ġlapt": 5907,
    "Ġthereof": 5908,
    "Ġlamb": 5909,
    "Ġtape": 5910,
    "Ġwant": 5911,
    "osen": 5912,
    "Ġprevalence": 5913,
    "wik": 5914,
    "ĠOmega": 5915,
    "Ġdismissal": 5916,
    "Ġstimulation": 5917,
    "Ġbooked": 5918,
    "Ġrival": 5919,
    "sub": 5920,
    "Ġorganiz": 5921,
    "ÄŁ": 5922,
    "Ġbracket": 5923,
    "uel": 5924,
    "Ġalright": 5925,
    "Bal": 5926,
    "ĠPac": 5927,
    "Ġwarned": 5928,
    "liable": 5929,
    "Ġfavoured": 5930,
    "ĠRamadan": 5931,
    "rect": 5932,
    "Could": 5933,
    "Ġdetained": 5934,
    "informed": 5935,
    "Few": 5936,
    "vertising": 5937,
    "Ġmanually": 5938,
    "Ġkeyword": 5939,
    "Ġburning": 5940,
    "Ġsnap": 5941,
    "Ġdescent": 5942,
    "ĠCastle": 5943,
    "ĠAndy": 5944,
    "edia": 5945,
    "Ġstimul": 5946,
    "wal": 5947,
    "Ġunc": 5948,
    "Ġstrains": 5949,
    "Ġanth": 5950,
    "Ġpenned": 5951,
    "Ġcrushed": 5952,
    "ayers": 5953,
    "Ġ[âĢ¦]": 5954,
    "ĠNothing": 5955,
    "Ġ170": 5956,
    "Wind": 5957,
    "Ġsubmit": 5958,
    "Ġchronic": 5959,
    "Ġthus": 5960,
    "legates": 5961,
    "Ġgarlic": 5962,
    "Ġeco": 5963,
    "fax": 5964,
    "Ġricher": 5965,
    "ĠChurch": 5966,
    "ario": 5967,
    "////": 5968,
    "Ġtremendously": 5969,
    "Ġrequirement": 5970,
    "ĠLSD": 5971,
    "space": 5972,
    "Ġinner": 5973,
    "Ġinconven": 5974,
    "Ġearn": 5975,
    "Space": 5976,
    "Ġplanets": 5977,
    "ess": 5978,
    "Ġalmond": 5979,
    "ĠPlaying": 5980,
    "rupt": 5981,
    "voc": 5982,
    "ĠOscar": 5983,
    "Ġexplos": 5984,
    "ĠMarks": 5985,
    "Ġsprint": 5986,
    "Ġhello": 5987,
    "Ġmum": 5988,
    "Ġdigging": 5989,
    "ĠRange": 5990,
    "Ġrepetitive": 5991,
    "Ġbolster": 5992,
    "linked": 5993,
    "Ġstabbing": 5994,
    "ĠNum": 5995,
    "Ġfra": 5996,
    "Ġtreaty": 5997,
    "Ġallies": 5998,
    "Ġfertil": 5999,
    "star": 6000,
    "Ġanimated": 6001,
    "mia": 6002,
    "ĠMemory": 6003,
    "Ġworms": 6004,
    "gal": 6005,
    "pora": 6006,
    "arant": 6007,
    "utch": 6008,
    "auer": 6009,
    "Ġspecifically": 6010,
    "ost": 6011,
    "Ġathletes": 6012,
    "Ġaccess": 6013,
    "Ġrunner": 6014,
    "][": 6015,
    "Ġarising": 6016,
    "ĠNorris": 6017,
    "Ġwhispered": 6018,
    "Ġroller": 6019,
    "ľ": 6020,
    "hops": 6021,
    "Ġtransformation": 6022,
    "ington": 6023,
    "Ġceased": 6024,
    "ached": 6025,
    "Ġtill": 6026,
    "elle": 6027,
    "ĠCorps": 6028,
    "qual": 6029,
    "otherapy": 6030,
    "o": 6031,
    "Ġinex": 6032,
    "Ġincrement": 6033,
    "ĠMinds": 6034,
    "Ġloc": 6035,
    "ĠMother": 6036,
    "ĠYorkers": 6037,
    "Ġairstrikes": 6038,
    "ĠLook": 6039,
    "Ġevaluate": 6040,
    "Ġmash": 6041,
    "ĠMaxwell": 6042,
    "Ġbarr": 6043,
    "Ġbul": 6044,
    "too": 6045,
    "Ġdeliver": 6046,
    "ĠLarry": 6047,
    "Ġhat": 6048,
    "ĠSuccess": 6049,
    "Ġplunged": 6050,
    "Ġremainder": 6051,
    "Ġuse": 6052,
    "Ġexcited": 6053,
    "ĠWins": 6054,
    "Ġwalking": 6055,
    "Ġthoughtful": 6056,
    "en": 6057,
    "Ġinvites": 6058,
    "First": 6059,
    "Ġclar": 6060,
    "Ġequals": 6061,
    "Ġfast": 6062,
    "Ġexceeding": 6063,
    "Ġswipe": 6064,
    "Ġancestor": 6065,
    "uer": 6066,
    "ammy": 6067,
    "Ġba": 6068,
    "Ġtumor": 6069,
    "Ġdisorders": 6070,
    "Ġdread": 6071,
    "Ã±a": 6072,
    "abl": 6073,
    "lated": 6074,
    "ment": 6075,
    "Ġpunch": 6076,
    "Ġcompuls": 6077,
    "YouTube": 6078,
    "urches": 6079,
    "--------------------------------": 6080,
    "charge": 6081,
    "Ġanger": 6082,
    "Ġorganisations": 6083,
    "ª": 6084,
    "intern": 6085,
    "Ġabolished": 6086,
    "Ġcommercials": 6087,
    "pg": 6088,
    "Ġskies": 6089,
    "Ġprotestors": 6090,
    "Ġroommate": 6091,
    "Ġscandal": 6092,
    "Ġathleticism": 6093,
    "Ġgraduation": 6094,
    "Ġsanct": 6095,
    "Ġdislike": 6096,
    "ĠTribune": 6097,
    "Ġblew": 6098,
    "Ġcitizens": 6099,
    "Ġbrowse": 6100,
    "Ġsponsors": 6101,
    "robe": 6102,
    "Ġsimply": 6103,
    "ĠWillie": 6104,
    "Ġcoal": 6105,
    "ĠStalin": 6106,
    "ĠAstros": 6107,
    "Ġforb": 6108,
    "Ġsite": 6109,
    "ĠBillboard": 6110,
    "ĠStrauss": 6111,
    "Ġbog": 6112,
    "oom": 6113,
    "Other": 6114,
    "fuel": 6115,
    "Ġac": 6116,
    "Ġorganizing": 6117,
    "ĠHa": 6118,
    "Ġlaundry": 6119,
    "Ġdisgrace": 6120,
    "Ġproceedings": 6121,
    "Ġentertaining": 6122,
    "polit": 6123,
    "charg": 6124,
    "Ġdessert": 6125,
    "Apart": 6126,
    "Ġpotent": 6127,
    "Ġclaimed": 6128,
    "ĠAlbuquerque": 6129,
    "Ġprosecutions": 6130,
    "Ġfetch": 6131,
    "Ġcru": 6132,
    "esar": 6133,
    "ĠEnterprise": 6134,
    "ĠMonaco": 6135,
    "Ġeyeb": 6136,
    "apon": 6137,
    "ung": 6138,
    "ĠReader": 6139,
    "ĠECB": 6140,
    "Ġtired": 6141,
    "isi": 6142,
    "Ġobjection": 6143,
    "ĠNFC": 6144,
    "Resp": 6145,
    "worked": 6146,
    "Ġelectronics": 6147,
    "Ġoffset": 6148,
    "Ġshoot": 6149,
    "ĠPoor": 6150,
    "Pict": 6151,
    "Ġsweep": 6152,
    "zos": 6153,
    "Ġamen": 6154,
    "ERC": 6155,
    "phas": 6156,
    "Ap": 6157,
    "elected": 6158,
    "ĠiP": 6159,
    "Ġ1913": 6160,
    "Ġfolded": 6161,
    "Ġtrio": 6162,
    "Ġacknowledged": 6163,
    "ĠGro": 6164,
    "ĠPeterson": 6165,
    "three": 6166,
    "Ġstore": 6167,
    "Ġactors": 6168,
    "Ġsamples": 6169,
    "Ġtorch": 6170,
    "Pr": 6171,
    "wed": 6172,
    "ĠButter": 6173,
    "web": 6174,
    "liberal": 6175,
    "Ġinsights": 6176,
    "Ġcategories": 6177,
    "Ġlegit": 6178,
    "verty": 6179,
    "Su": 6180,
    "Ġdinosaurs": 6181,
    "ĠPiet": 6182,
    "Bernie": 6183,
    "xon": 6184,
    "obe": 6185,
    "ered": 6186,
    "matched": 6187,
    "Ġangels": 6188,
    "Ġconfirm": 6189,
    "Øª": 6190,
    "ĠStudio": 6191,
    "pie": 6192,
    "Ph": 6193,
    "Ġconfigurations": 6194,
    "Ġtransit": 6195,
    "ĠCz": 6196,
    "Ġinvisible": 6197,
    "ushi": 6198,
    "Ġstructures": 6199,
    "Ġethos": 6200,
    "Enjoy": 6201,
    "Ġconsensus": 6202,
    "ĠRevolution": 6203,
    "Ġinto": 6204,
    "Ġbenefits": 6205,
    "Ġbridge": 6206,
    "Ġdivine": 6207,
    "rait": 6208,
    "ĠDirectors": 6209,
    "opy": 6210,
    "employment": 6211,
    "Ó": 6212,
    "Ġinflicted": 6213,
    "SW": 6214,
    "ĠCaller": 6215,
    "Ġmanipulated": 6216,
    "ovich": 6217,
    "Ġincomes": 6218,
    "Ġdepartments": 6219,
    "Tal": 6220,
    "Ġsmallest": 6221,
    "ifest": 6222,
    "ĠEDT": 6223,
    "FR": 6224,
    "ĠLincoln": 6225,
    "ĠManchester": 6226,
    "Ġphilosophical": 6227,
    "inflamm": 6228,
    "Ġwandering": 6229,
    "omers": 6230,
    "Ġunveil": 6231,
    "Ġdungeon": 6232,
    "Ġtabs": 6233,
    "Ġanything": 6234,
    "Ref": 6235,
    "Ġindisc": 6236,
    "Ġsty": 6237,
    "ĠHon": 6238,
    "Ġlasted": 6239,
    "zyme": 6240,
    "iii": 6241,
    "ĠBurning": 6242,
    "ĠWant": 6243,
    "ĠCont": 6244,
    "Miss": 6245,
    "Ġfarmers": 6246,
    "Ġminors": 6247,
    "ĠGetting": 6248,
    "Ġtargets": 6249,
    "oubtedly": 6250,
    "ĠMand": 6251,
    "ĠMt": 6252,
    "tered": 6253,
    "Ġcoined": 6254,
    "Iss": 6255,
    "Ġupgr": 6256,
    "Ġelimination": 6257,
    "liner": 6258,
    "ĠLaws": 6259,
    "sp": 6260,
    "Ġpartner": 6261,
    "Ġtong": 6262,
    "ĠMaria": 6263,
    "Ġexempl": 6264,
    "ĠComedy": 6265,
    "ĠPalestine": 6266,
    "Ġthinking": 6267,
    "Sil": 6268,
    "Ġintellectual": 6269,
    "ĠVen": 6270,
    "ervatives": 6271,
    "anking": 6272,
    "Ġvalues": 6273,
    "Ġpipeline": 6274,
    "Ġdestined": 6275,
    "Ġundis": 6276,
    "ĠSister": 6277,
    "Ġpoisoned": 6278,
    "agon": 6279,
    "levision": 6280,
    "itect": 6281,
    "Ġregions": 6282,
    "Ġresponded": 6283,
    "ATCH": 6284,
    "du": 6285,
    "200": 6286,
    "ĠKru": 6287,
    "DF": 6288,
    "Ġwith": 6289,
    "Ġattributes": 6290,
    "Jon": 6291,
    "ĠBiblical": 6292,
    "Ġperiods": 6293,
    "Ġcoincidence": 6294,
    "Ġsided": 6295,
    "ĠBennett": 6296,
    "Ġwinds": 6297,
    "iblings": 6298,
    "Ġstate": 6299,
    "rimination": 6300,
    "ĠLG": 6301,
    "haus": 6302,
    "henko": 6303,
    "Ġdefiance": 6304,
    "Ġlittle": 6305,
    "ustomed": 6306,
    "uru": 6307,
    "ature": 6308,
    "leaders": 6309,
    "notes": 6310,
    "Ġdisposable": 6311,
    "Thomas": 6312,
    "ĠCanyon": 6313,
    "tax": 6314,
    "Ġhangs": 6315,
    "ĠVita": 6316,
    "Ġvariability": 6317,
    "DI": 6318,
    "KR": 6319,
    "lad": 6320,
    "Ġprogressive": 6321,
    "ĠLoc": 6322,
    "Ġresolving": 6323,
    "Ġpars": 6324,
    "ĠRebecca": 6325,
    "Ġmarks": 6326,
    "Tech": 6327,
    "Ġindefinite": 6328,
    "ido": 6329,
    "Deb": 6330,
    "Ġuseful": 6331,
    "ĠBath": 6332,
    "Ġoccasional": 6333,
    "Found": 6334,
    "Ġstove": 6335,
    "choice": 6336,
    "ĠCatholic": 6337,
    "Final": 6338,
    "Ġawait": 6339,
    "33": 6340,
    "ĠKr": 6341,
    "Ġrevised": 6342,
    "Ġremember": 6343,
    "inished": 6344,
    "She": 6345,
    "ĠAJ": 6346,
    "Ġlaboratory": 6347,
    "Ġaw": 6348,
    "iness": 6349,
    "ĠAfter": 6350,
    "Ġgathered": 6351,
    "Ġbutt": 6352,
    "ĠMetal": 6353,
    "Ġplacebo": 6354,
    "mont": 6355,
    "project": 6356,
    "ĠWere": 6357,
    "ĠHaven": 6358,
    "Ġcalled": 6359,
    "Ġveil": 6360,
    "ĠMore": 6361,
    "rest": 6362,
    "India": 6363,
    "ĠChicken": 6364,
    "ĠWS": 6365,
    "WATCH": 6366,
    "Ġadvancement": 6367,
    "Ġhousehold": 6368,
    "Ġtrustworthy": 6369,
    "agher": 6370,
    "commun": 6371,
    "ĠBuild": 6372,
    "Ġ2010": 6373,
    "ĠInformation": 6374,
    "Ġstealth": 6375,
    "Ġreasoning": 6376,
    "Ġalways": 6377,
    "yg": 6378,
    "ĠPV": 6379,
    "orer": 6380,
    "ĠDems": 6381,
    "ador": 6382,
    "Ġjailed": 6383,
    "Ġworkplace": 6384,
    "ĠLav": 6385,
    "ĠReyn": 6386,
    "Ġindic": 6387,
    "ìĿ": 6388,
    "boy": 6389,
    "Ġlik": 6390,
    "Never": 6391,
    "Ġacclaimed": 6392,
    "ell": 6393,
    "Ġhomers": 6394,
    "Ġast": 6395,
    "ĠZomb": 6396,
    "Ġprinters": 6397,
    "Z": 6398,
    "Ġphot": 6399,
    "Ġprizes": 6400,
    "Ġpenetrate": 6401,
    "Ġtoddler": 6402,
    "urn": 6403,
    "ĠJenny": 6404,
    "ĠAdd": 6405,
    "Ġforensic": 6406,
    "Ġvariety": 6407,
    "ĠLieutenant": 6408,
    "Ġmetaph": 6409,
    "western": 6410,
    "Ġactivists": 6411,
    "Ġmenace": 6412,
    "Ġchancellor": 6413,
    "ĠRail": 6414,
    "Ġshrimp": 6415,
    "Sw": 6416,
    "ĠDigital": 6417,
    "Ġdiary": 6418,
    "Ġentertain": 6419,
    "Ġthriving": 6420,
    "ilem": 6421,
    "ifax": 6422,
    "Ġdat": 6423,
    "aver": 6424,
    "Ġslowed": 6425,
    "Ġpassports": 6426,
    "Ġpuzz": 6427,
    "Ġfewer": 6428,
    "augh": 6429,
    "Ġinitially": 6430,
    "aba": 6431,
    "arming": 6432,
    "Ġproprietary": 6433,
    "Calif": 6434,
    "102": 6435,
    "Half": 6436,
    "âĤ¬": 6437,
    "Ġthrive": 6438,
    "ĠMouse": 6439,
    "now": 6440,
    "playing": 6441,
    "uded": 6442,
    "Ġapplauded": 6443,
    "uls": 6444,
    "Ġadvertised": 6445,
    "Ġexterior": 6446,
    "ousands": 6447,
    "Ġfrightened": 6448,
    "HA": 6449,
    "ĠGain": 6450,
    "Ġselections": 6451,
    "Ġplag": 6452,
    "ĠGH": 6453,
    "Ġpostal": 6454,
    "Ġhorrifying": 6455,
    "ĠYemeni": 6456,
    "aution": 6457,
    "ĠThai": 6458,
    "ĠPhD": 6459,
    "itor": 6460,
    "ĠWah": 6461,
    "Ġresearc": 6462,
    "Ġdeploy": 6463,
    "Ġattendees": 6464,
    "Ġmetrics": 6465,
    "Ġlocker": 6466,
    "am": 6467,
    "ĠIss": 6468,
    "ĠÂĹ": 6469,
    "ĠHom": 6470,
    "154": 6471,
    "Ġconcession": 6472,
    "ĠHouston": 6473,
    "orthern": 6474,
    "ĠTripoli": 6475,
    "Ġcohort": 6476,
    "Ġautonomous": 6477,
    "Ġsubscription": 6478,
    "step": 6479,
    "Ġprojections": 6480,
    "uries": 6481,
    "Ġhighest": 6482,
    "Ġbacker": 6483,
    "icter": 6484,
    "ah": 6485,
    "Ġseize": 6486,
    "Ġimagin": 6487,
    "Ġcharacterization": 6488,
    "Ġare": 6489,
    "ĠAdventures": 6490,
    "Ġblanket": 6491,
    "oft": 6492,
    "ĠSerb": 6493,
    "Ġtire": 6494,
    "ĠDeputy": 6495,
    "Ġcontainer": 6496,
    "Ġsurrog": 6497,
    "ĠHug": 6498,
    "Ġsiege": 6499,
    "We": 6500,
    "Ġoptions": 6501,
    "ĠPatterson": 6502,
    "Details": 6503,
    "quite": 6504,
    "Ġsongs": 6505,
    "Ġcamer": 6506,
    "Ġchallenger": 6507,
    "ĠMaur": 6508,
    "assing": 6509,
    "Ġ1967": 6510,
    "Sec": 6511,
    "Linux": 6512,
    "Ġgard": 6513,
    "uddenly": 6514,
    "ĠKush": 6515,
    "Ġexpansive": 6516,
    "Ġshells": 6517,
    "...]": 6518,
    "ores": 6519,
    "enly": 6520,
    "Ġav": 6521,
    "istant": 6522,
    "witzerland": 6523,
    "Ġhurdle": 6524,
    "ĠHence": 6525,
    "femin": 6526,
    "Ġprem": 6527,
    "ĠGrant": 6528,
    "Ġbills": 6529,
    "ĠGlasgow": 6530,
    "Ġtraff": 6531,
    "rant": 6532,
    "Ġsmok": 6533,
    "ĠCoch": 6534,
    "Ġclicking": 6535,
    "Ġannounced": 6536,
    "Ġreset": 6537,
    "Ġodor": 6538,
    "Ġpatents": 6539,
    "Ġmatchup": 6540,
    "hl": 6541,
    "ĠMunicipal": 6542,
    "ĠSat": 6543,
    "Ġsoil": 6544,
    "Ġlin": 6545,
    "Ġar": 6546,
    "Â¢": 6547,
    "ĠCavs": 6548,
    "ĠFle": 6549,
    "ĠViktor": 6550,
    "Ġmasks": 6551,
    "reb": 6552,
    "Ġseeds": 6553,
    "isa": 6554,
    "orph": 6555,
    "Ġguild": 6556,
    "aks": 6557,
    "Case": 6558,
    "oo": 6559,
    "Ġnatural": 6560,
    "ĠCanadian": 6561,
    "Ġprolific": 6562,
    "Ġmortal": 6563,
    "Ġcourt": 6564,
    "Ġpowered": 6565,
    "Ġkingdom": 6566,
    "Ġexplored": 6567,
    "ĠSen": 6568,
    "Ġbattery": 6569,
    "Ġeffort": 6570,
    "Ġput": 6571,
    "ĠAv": 6572,
    "Ġlemon": 6573,
    "Ġlobbyist": 6574,
    "Ġintens": 6575,
    "ĠUnivers": 6576,
    "Ġensh": 6577,
    "ĠMalik": 6578,
    "Read": 6579,
    "ĠDirect": 6580,
    "ĠSunder": 6581,
    "Ġexpans": 6582,
    "ĠSin": 6583,
    "Ġpsychedelic": 6584,
    "Ġlineback": 6585,
    "edu": 6586,
    "ĠThey": 6587,
    "NET": 6588,
    "Ġassists": 6589,
    "ĠAside": 6590,
    "Ġshroud": 6591,
    "ĠHuawei": 6592,
    "Ġcoins": 6593,
    "Ġheadphones": 6594,
    "Ġdignity": 6595,
    "balls": 6596,
    "Indian": 6597,
    "Since": 6598,
    "ĠPost": 6599,
    "ĠFalls": 6600,
    "ĠAHL": 6601,
    "Ġwidely": 6602,
    "ĠRaqqa": 6603,
    "ĠProducer": 6604,
    "ĠEconom": 6605,
    "umi": 6606,
    "Ġexclude": 6607,
    "cd": 6608,
    "Ġteam": 6609,
    "Ġmedd": 6610,
    "Ġburgl": 6611,
    "Ġmort": 6612,
    "ĠApache": 6613,
    "Pl": 6614,
    "Ġinevitable": 6615,
    "agg": 6616,
    "ĠCos": 6617,
    "Ġfucking": 6618,
    "å¤": 6619,
    "Ġtexts": 6620,
    "Ġmodular": 6621,
    "ĠFarm": 6622,
    "Ġcondo": 6623,
    "pad": 6624,
    "Ġlegitimate": 6625,
    "Ġsummon": 6626,
    "Ġheavyweight": 6627,
    "Ġlobbied": 6628,
    "ĠSud": 6629,
    "ken": 6630,
    "ĠStre": 6631,
    "rog": 6632,
    "Ġdefining": 6633,
    "ĠDamage": 6634,
    "ĠVict": 6635,
    "Ġseen": 6636,
    "Ġaltercation": 6637,
    "Ġhinted": 6638,
    "Ġand": 6639,
    "Phot": 6640,
    "ĠBarton": 6641,
    "amb": 6642,
    "lem": 6643,
    "Ġmove": 6644,
    "Ġhumor": 6645,
    "Ġmatt": 6646,
    "Ġexamines": 6647,
    "ipple": 6648,
    "Ġsusceptible": 6649,
    "Ġdangerously": 6650,
    "raits": 6651,
    "ĠPC": 6652,
    "Ġexplosives": 6653,
    "Ġoverturn": 6654,
    "ĠEngine": 6655,
    "ĠâĨ": 6656,
    "Ġenvy": 6657,
    "ĠThought": 6658,
    "tailed": 6659,
    "iann": 6660,
    "and": 6661,
    "eligible": 6662,
    "ĠMcGu": 6663,
    "Ġoutset": 6664,
    "Ġfreelance": 6665,
    "users": 6666,
    "ĠNJ": 6667,
    "ĠNine": 6668,
    "Ġtons": 6669,
    "Ġhospitalized": 6670,
    "laws": 6671,
    "cription": 6672,
    "raham": 6673,
    "Ġauthenticity": 6674,
    "Ġfaithful": 6675,
    "Washington": 6676,
    "geons": 6677,
    "Ġdepending": 6678,
    "iox": 6679,
    "Andrew": 6680,
    "US": 6681,
    "Ġunm": 6682,
    "Ġrecipient": 6683,
    "ryption": 6684,
    "ĠKol": 6685,
    "Ġbeliever": 6686,
    "Ġfootage": 6687,
    "ĠPTSD": 6688,
    "Ġ->": 6689,
    "Ġwording": 6690,
    "Ġguid": 6691,
    "%.": 6692,
    "walk": 6693,
    "ajo": 6694,
    "oni": 6695,
    "Ġauthorize": 6696,
    "Ġgoodbye": 6697,
    "ĠTermin": 6698,
    "ĠMoto": 6699,
    "oka": 6700,
    "Ġrecruiting": 6701,
    "Ġconservatism": 6702,
    "ĠNeed": 6703,
    "ĠSergei": 6704,
    "Ġsuc": 6705,
    "Wood": 6706,
    "ĠAad": 6707,
    "ier": 6708,
    "Ġmakeshift": 6709,
    "abis": 6710,
    "Ġhoax": 6711,
    "Ġappliances": 6712,
    "ĠCalgary": 6713,
    "omics": 6714,
    "start": 6715,
    "Ġpromising": 6716,
    "ĠFuller": 6717,
    "ĠTournament": 6718,
    "ought": 6719,
    "ush": 6720,
    "ĠExplorer": 6721,
    "Ġmiscon": 6722,
    "ĠÃ®n": 6723,
    "Ġpopulation": 6724,
    "ĠIb": 6725,
    "Ġimprisoned": 6726,
    "ĠTime": 6727,
    "Ġsuits": 6728,
    "Ġpurp": 6729,
    "Ġkil": 6730,
    "Ġpursuit": 6731,
    "Ġwhis": 6732,
    "Ġsecretive": 6733,
    "ingly": 6734,
    "June": 6735,
    "ĠProgressive": 6736,
    "hill": 6737,
    "Ġwritings": 6738,
    "Love": 6739,
    "Ġfound": 6740,
    "Ġdiff": 6741,
    "Ġhere": 6742,
    "ĠDesert": 6743,
    "Ġextensively": 6744,
    "ĠHealthcare": 6745,
    "Ġservice": 6746,
    "ĠBelgium": 6747,
    "oths": 6748,
    "Ġintern": 6749,
    "qa": 6750,
    "Ġwatchdog": 6751,
    "ertainly": 6752,
    "Ġwarrants": 6753,
    "ĠOxford": 6754,
    "Ġgovernor": 6755,
    "Ġwagon": 6756,
    "Ġspect": 6757,
    "Ġelectrical": 6758,
    "ĠDad": 6759,
    "adow": 6760,
    "avor": 6761,
    "########": 6762,
    "ĠÂ©": 6763,
    "rez": 6764,
    "Ġadop": 6765,
    "ĠVir": 6766,
    "Ġrequest": 6767,
    "ĠPete": 6768,
    "ogan": 6769,
    "ijing": 6770,
    "Ġscrim": 6771,
    "Ġhostility": 6772,
    "shore": 6773,
    "Ġfossil": 6774,
    "Ġpenalties": 6775,
    "anded": 6776,
    "handed": 6777,
    "olo": 6778,
    "ĠMarxism": 6779,
    "ĠLevin": 6780,
    "atellite": 6781,
    "ĠGalaxy": 6782,
    "ĠRib": 6783,
    "ĠInvest": 6784,
    "Ġclothes": 6785,
    "ĠVanderbilt": 6786,
    "lee": 6787,
    "inem": 6788,
    "Ĵ": 6789,
    "Ġencl": 6790,
    "Ġ1988": 6791,
    "ĠPalestinian": 6792,
    "Ġreimb": 6793,
    "ĠMinnesota": 6794,
    "Ġeconomy": 6795,
    "pieces": 6796,
    "Ġresur": 6797,
    "Ġpost": 6798,
    "ĠCard": 6799,
    "Ġbulbs": 6800,
    "Ġtrading": 6801,
    "ciously": 6802,
    "Ġtelling": 6803,
    "Ĉ": 6804,
    "mand": 6805,
    "ĠAnalysis": 6806,
    "iments": 6807,
    "Ġproper": 6808,
    "Ġfollowers": 6809,
    "acted": 6810,
    "emporary": 6811,
    "Ġdetermination": 6812,
    "cker": 6813,
    "quality": 6814,
    "Ġshif": 6815,
    "ĠChandler": 6816,
    "Ġshareholders": 6817,
    "Ġunle": 6818,
    "we": 6819,
    "Ġinev": 6820,
    "larg": 6821,
    "outing": 6822,
    "Ġtur": 6823,
    "ãĤ¹": 6824,
    "Ġ..........": 6825,
    "Ġbury": 6826,
    "usters": 6827,
    "Ġ1959": 6828,
    "Ġfounded": 6829,
    "Ġlinebacker": 6830,
    "Ġroom": 6831,
    "Ġfacing": 6832,
    "ernick": 6833,
    "Ġdele": 6834,
    "Ġtoe": 6835,
    "Ġapolog": 6836,
    "Ġcandles": 6837,
    "Ġrespectful": 6838,
    "Ġretiring": 6839,
    "ĠDra": 6840,
    "Ġchill": 6841,
    "ĠEll": 6842,
    "lake": 6843,
    "vette": 6844,
    "ographically": 6845,
    "Ġunbelievable": 6846,
    "Ġseparation": 6847,
    "Ġarts": 6848,
    "ĠLogan": 6849,
    "Ġfrost": 6850,
    "mu": 6851,
    "Ġsl": 6852,
    "Obama": 6853,
    "Ġautomotive": 6854,
    "ĠPry": 6855,
    "kish": 6856,
    "ĠDownload": 6857,
    "orest": 6858,
    "Ġsorry": 6859,
    "ĠThing": 6860,
    "Ġelusive": 6861,
    "ĠKindle": 6862,
    "Ġholds": 6863,
    "Human": 6864,
    "Ġamph": 6865,
    "AND": 6866,
    "ĠCL": 6867,
    "illions": 6868,
    "Ġutilize": 6869,
    "Ġcompel": 6870,
    "ĠStars": 6871,
    "Ġtemporary": 6872,
    "ĠRailroad": 6873,
    "ennis": 6874,
    "Ġoverc": 6875,
    "Ġbaseline": 6876,
    "ĠMart": 6877,
    "Later": 6878,
    "Ġdonate": 6879,
    "Ġstandard": 6880,
    "Harry": 6881,
    "Ġether": 6882,
    "Ġfitting": 6883,
    "parent": 6884,
    "riors": 6885,
    "ĠHung": 6886,
    "ophob": 6887,
    "Ġhorr": 6888,
    "ĠÎ¼": 6889,
    "ĠTiger": 6890,
    "Ġrelation": 6891,
    "Ġinsecure": 6892,
    "angered": 6893,
    "Ġbats": 6894,
    "Ġring": 6895,
    "icularly": 6896,
    "Ġshed": 6897,
    "bey": 6898,
    "set": 6899,
    "enders": 6900,
    "Ġratios": 6901,
    "map": 6902,
    "ao": 6903,
    "ĠPlans": 6904,
    "Ġ2008": 6905,
    "Ġgraphic": 6906,
    "Arch": 6907,
    "ED": 6908,
    "design": 6909,
    "Ġundergone": 6910,
    "cus": 6911,
    "Ġlocks": 6912,
    "ãģ¾": 6913,
    "Ġaccounted": 6914,
    "plement": 6915,
    "oxide": 6916,
    "Eric": 6917,
    "Ġsky": 6918,
    "Ġsettlement": 6919,
    "Quick": 6920,
    "ĠBaker": 6921,
    "Ġviolates": 6922,
    "ructed": 6923,
    "Ġprincess": 6924,
    "rec": 6925,
    "ĠSar": 6926,
    "Ġbesie": 6927,
    "Ġnud": 6928,
    "Ġsurn": 6929,
    "ĠRoland": 6930,
    "ĠFI": 6931,
    "Ġ16": 6932,
    "ĠPRE": 6933,
    "ĠIsland": 6934,
    "ĠPrim": 6935,
    "Ġintimacy": 6936,
    "ĠHen": 6937,
    "Ġacquitted": 6938,
    "ective": 6939,
    "ĠGuard": 6940,
    "ĠMubarak": 6941,
    "most": 6942,
    "enf": 6943,
    "hal": 6944,
    "Ġsidewalk": 6945,
    "ĠSeason": 6946,
    "Ġfascist": 6947,
    "plot": 6948,
    "Ġeither": 6949,
    "book": 6950,
    "visor": 6951,
    "Prior": 6952,
    "ATA": 6953,
    "normal": 6954,
    "Ġrant": 6955,
    "Ġpet": 6956,
    "Ġstrategically": 6957,
    "etroit": 6958,
    "Ġdelighted": 6959,
    "Ġcartoon": 6960,
    ",[": 6961,
    "Ġrevital": 6962,
    "Ġquantities": 6963,
    "Ġfemale": 6964,
    "Ġpolicemen": 6965,
    "Ġmic": 6966,
    "ĠGarrett": 6967,
    "oper": 6968,
    "ĠiPhone": 6969,
    "Ġforcefully": 6970,
    "Ġcoincide": 6971,
    "Ġsecond": 6972,
    "Ġobserved": 6973,
    "Ġongoing": 6974,
    "Ġyellow": 6975,
    "Ġdynamics": 6976,
    "ĠYates": 6977,
    "ert": 6978,
    "Ġcasting": 6979,
    "Ġmartial": 6980,
    "ĠBear": 6981,
    "ĠHalloween": 6982,
    "agraph": 6983,
    "attack": 6984,
    "Ġmodule": 6985,
    "Ġbacked": 6986,
    "ĠHull": 6987,
    "carbon": 6988,
    "Dam": 6989,
    "Ġnewcomers": 6990,
    "Ġoblig": 6991,
    "ĠGuy": 6992,
    "74": 6993,
    "270": 6994,
    "FF": 6995,
    "Ġpolar": 6996,
    "Ġaven": 6997,
    "ppo": 6998,
    "Ġcallback": 6999,
    "ropy": 7000,
    "Ġnortheastern": 7001,
    "Their": 7002,
    "ĠIndiana": 7003,
    "Ġtransplant": 7004,
    "Ġpasta": 7005,
    "ĠCann": 7006,
    "berries": 7007,
    "ĠAnnie": 7008,
    "Ġdistributions": 7009,
    "may": 7010,
    "iot": 7011,
    "Ġpub": 7012,
    "ernandez": 7013,
    "Ġvisitor": 7014,
    "ocations": 7015,
    "imin": 7016,
    "Ġideals": 7017,
    "Ġporch": 7018,
    "Ġhipp": 7019,
    "ĠBears": 7020,
    "ĠKent": 7021,
    "ĠNYC": 7022,
    "Ġflags": 7023,
    "Ġfrightening": 7024,
    "Ġvag": 7025,
    "Ġinterfaces": 7026,
    "Ġhop": 7027,
    "Ġverbal": 7028,
    "Ġhouse": 7029,
    "loo": 7030,
    "believ": 7031,
    "Ġfalls": 7032,
    "Ġseparatists": 7033,
    "Ġhus": 7034,
    "Ġdefended": 7035,
    "Ġturbines": 7036,
    "Ġtriv": 7037,
    "00": 7038,
    "Field": 7039,
    "Ġ88": 7040,
    "Message": 7041,
    "ĠDiablo": 7042,
    "irlines": 7043,
    "Ġundermined": 7044,
    "outh": 7045,
    "Ġhierarch": 7046,
    "Ġtear": 7047,
    "alog": 7048,
    "ĠSaturn": 7049,
    "Ġsit": 7050,
    "Ġmodeling": 7051,
    "ĠPOL": 7052,
    "Ġhanding": 7053,
    "CC": 7054,
    "ĠPand": 7055,
    "û": 7056,
    "raine": 7057,
    "Ġfasting": 7058,
    "Ġkidding": 7059,
    "outube": 7060,
    "ĠMcDonnell": 7061,
    "Ġbiggest": 7062,
    "Ġspine": 7063,
    "ĠSir": 7064,
    "Ġgrassroots": 7065,
    "Ġwaved": 7066,
    "au": 7067,
    "leum": 7068,
    "Ġlure": 7069,
    "ĠMark": 7070,
    "Ġtorped": 7071,
    "Ġfantasies": 7072,
    "ĠDevils": 7073,
    "Ġidentified": 7074,
    "Ġvisibility": 7075,
    "Probably": 7076,
    "Ġpartnered": 7077,
    "esters": 7078,
    "tale": 7079,
    "ĠThen": 7080,
    "ĠSuns": 7081,
    "95": 7082,
    "Ġtrips": 7083,
    "Ġindicative": 7084,
    "ĠWhe": 7085,
    "itable": 7086,
    "ango": 7087,
    "ĠGraph": 7088,
    "fty": 7089,
    "ĠGoal": 7090,
    "ĠAirlines": 7091,
    "Ġtowel": 7092,
    "Ġdictator": 7093,
    "alian": 7094,
    "total": 7095,
    "ĠProt": 7096,
    "Exit": 7097,
    "Ġwildly": 7098,
    "Ġrelegated": 7099,
    ",âĢĻâĢĻ": 7100,
    "issue": 7101,
    "Ġrewrite": 7102,
    "ĠApps": 7103,
    "Ġarbitrary": 7104,
    "Ġshout": 7105,
    "Ġstandardized": 7106,
    "ĠSubscribe": 7107,
    "Ġregulation": 7108,
    "Ġformer": 7109,
    "ĠV": 7110,
    "Ġdimensions": 7111,
    "ledge": 7112,
    "Ġaudit": 7113,
    "Ġthroughout": 7114,
    "Ġerase": 7115,
    "!]": 7116,
    "Ġ280": 7117,
    "ĠHouth": 7118,
    "Ġdistribute": 7119,
    "ĠOtherwise": 7120,
    "Ġwhit": 7121,
    "Ġmight": 7122,
    "Ġcort": 7123,
    "Ġ320": 7124,
    "2010": 7125,
    "ĠWel": 7126,
    "ume": 7127,
    "ĠCollection": 7128,
    "Ġdiverted": 7129,
    "ĠJak": 7130,
    "Ġemails": 7131,
    "001": 7132,
    "station": 7133,
    "ĠSchne": 7134,
    "isol": 7135,
    "Ġfacility": 7136,
    "+,": 7137,
    "Ġrises": 7138,
    "Ġdece": 7139,
    "ĠPearl": 7140,
    "et": 7141,
    "Ġadults": 7142,
    "ĠCollins": 7143,
    "TO": 7144,
    "Writ": 7145,
    "Ġdebts": 7146,
    "Ġtrivial": 7147,
    "ĠTib": 7148,
    "Ġam": 7149,
    "ĠCore": 7150,
    "Ġdean": 7151,
    "Ġclergy": 7152,
    "Hol": 7153,
    "Ġforever": 7154,
    "\\-": 7155,
    "Ġdivides": 7156,
    "Ġexpires": 7157,
    "Ġrobotic": 7158,
    "section": 7159,
    "Ġestabl": 7160,
    "ayer": 7161,
    "ĠJets": 7162,
    "Ð¾Ð¼": 7163,
    "Ġoffs": 7164,
    "critical": 7165,
    "orst": 7166,
    "ĠAbbey": 7167,
    "Ġsniff": 7168,
    "erence": 7169,
    "ĠMath": 7170,
    "Ġmechanics": 7171,
    "Ġkm": 7172,
    "high": 7173,
    "Ġliking": 7174,
    "Ġyounger": 7175,
    "ĠLynn": 7176,
    "app": 7177,
    "Ġoversaw": 7178,
    "ĠCaesar": 7179,
    "ĠFlynn": 7180,
    "Ġremix": 7181,
    "ĠCapitol": 7182,
    "ĠThatcher": 7183,
    "ĠAthlet": 7184,
    "Ġpas": 7185,
    "Ġant": 7186,
    "Ġheaded": 7187,
    "ĠJulia": 7188,
    "Ġtoys": 7189,
    "Ġvolunt": 7190,
    "ĠCathedral": 7191,
    "ĠVIII": 7192,
    "Ġobey": 7193,
    "ĠCarl": 7194,
    "Ġsoft": 7195,
    "Ġ63": 7196,
    "Ġweighed": 7197,
    "OSS": 7198,
    "Ġclassic": 7199,
    "Ġoffers": 7200,
    "Ġbroadc": 7201,
    "olds": 7202,
    "PI": 7203,
    "ND": 7204,
    "Ġbriefing": 7205,
    "ĠLos": 7206,
    "Ġhours": 7207,
    "pen": 7208,
    "ĠPep": 7209,
    "AD": 7210,
    "ĠItal": 7211,
    "Ġassault": 7212,
    "Ġserving": 7213,
    "Ġinfection": 7214,
    "Ġbiologist": 7215,
    "Ð½": 7216,
    "12": 7217,
    "thanks": 7218,
    "amin": 7219,
    "Ġharvested": 7220,
    "Sound": 7221,
    "Ġdefy": 7222,
    "á": 7223,
    "Ġteaching": 7224,
    "Ġdaughter": 7225,
    "fr": 7226,
    "Ġessence": 7227,
    "Ġprofessionally": 7228,
    "Ġimpartial": 7229,
    "ply": 7230,
    "Open": 7231,
    "Ġnationals": 7232,
    "Ġdoor": 7233,
    "ĠCath": 7234,
    "Ġ250": 7235,
    "sponsored": 7236,
    "Ġseism": 7237,
    "Adding": 7238,
    "ð": 7239,
    "ĠAppalach": 7240,
    "osures": 7241,
    "Ġconventions": 7242,
    "Ġrelied": 7243,
    "pered": 7244,
    "Ġjet": 7245,
    "eding": 7246,
    "Ġrevisit": 7247,
    "Ġexecut": 7248,
    "Ġspill": 7249,
    "ĠRalph": 7250,
    "ĠTh": 7251,
    "ĠPhilip": 7252,
    "ĠNations": 7253,
    "ĠEconomic": 7254,
    "Ġidentities": 7255,
    "Books": 7256,
    "Ġkissing": 7257,
    "Ġmonstrous": 7258,
    "Ġputs": 7259,
    "Ġreally": 7260,
    "hers": 7261,
    "Ġmoments": 7262,
    "cember": 7263,
    "Ġscrolling": 7264,
    "ĠPierce": 7265,
    "Ġvicinity": 7266,
    "oker": 7267,
    "unged": 7268,
    "ĠMartin": 7269,
    "Ġlaunching": 7270,
    "division": 7271,
    "Ġseverely": 7272,
    "Prosecutors": 7273,
    "ĠMap": 7274,
    "ĠPirate": 7275,
    "Ġvastly": 7276,
    "amel": 7277,
    "Ġadminist": 7278,
    "Ġincub": 7279,
    "Ġcage": 7280,
    "ibus": 7281,
    "ĠChaos": 7282,
    "ĠFu": 7283,
    "Ġreal": 7284,
    "Ġmeas": 7285,
    "ĠG": 7286,
    "ĠMint": 7287,
    "ĠRhod": 7288,
    "Ġsq": 7289,
    "Ġmisunderstanding": 7290,
    "ocated": 7291,
    "Ġhelicopter": 7292,
    "ĠGrand": 7293,
    "Ġbo": 7294,
    "Ġmess": 7295,
    "Ġquestioning": 7296,
    "Ġinaccurate": 7297,
    "ĠAlonso": 7298,
    "ĠTab": 7299,
    "ĠTraff": 7300,
    "eries": 7301,
    "%),": 7302,
    "Ġuncon": 7303,
    "semb": 7304,
    "ĠAssociates": 7305,
    "Ġtactics": 7306,
    "Ġcabin": 7307,
    "Ġpremie": 7308,
    "ellectual": 7309,
    "igious": 7310,
    "ĠWould": 7311,
    "h": 7312,
    "ĠJPM": 7313,
    "Ġdragged": 7314,
    "Ġtranslates": 7315,
    "ĠCommonwealth": 7316,
    "Jo": 7317,
    "Ġrepr": 7318,
    "Ġblowing": 7319,
    "Ġcontinuing": 7320,
    "ĠCoca": 7321,
    "ĠMorsi": 7322,
    "sewhere": 7323,
    "Ġprivile": 7324,
    "Ġtrademark": 7325,
    "Ġloan": 7326,
    "Ġoldest": 7327,
    "oston": 7328,
    "Ġpractition": 7329,
    "Ġbrig": 7330,
    "Ġinforming": 7331,
    "ĠEgyptian": 7332,
    "waukee": 7333,
    "ackers": 7334,
    "Franc": 7335,
    "Ġstatistically": 7336,
    "eroids": 7337,
    "Ġinitiatives": 7338,
    "ĠInter": 7339,
    "Ġrestrictions": 7340,
    "Ġdetermine": 7341,
    "ĠToday": 7342,
    "Ġbeautifully": 7343,
    "Ġhill": 7344,
    "Ġaccusation": 7345,
    "ĠEl": 7346,
    "Ġparadox": 7347,
    "Ġcalorie": 7348,
    "ĠMin": 7349,
    "ĠCook": 7350,
    "Ġincorporating": 7351,
    "axis": 7352,
    "Ġversions": 7353,
    "Ġrage": 7354,
    "Ġproteins": 7355,
    "ĠUniversal": 7356,
    "Ġformerly": 7357,
    "Ġmessaging": 7358,
    "ĠTake": 7359,
    "Ġabsolutely": 7360,
    ":": 7361,
    "ĠCommit": 7362,
    "Ġunconventional": 7363,
    "Ġwatching": 7364,
    "Ġmedia": 7365,
    "Ġpleaded": 7366,
    "ĠFam": 7367,
    "natural": 7368,
    "Lead": 7369,
    "Version": 7370,
    "Ġsun": 7371,
    "ĠNor": 7372,
    "ĠIowa": 7373,
    "003": 7374,
    "ĠNA": 7375,
    "Ġarrow": 7376,
    "vine": 7377,
    "ilities": 7378,
    "ulated": 7379,
    "Ġpigs": 7380,
    "Ġrecalled": 7381,
    ".'\"": 7382,
    "Ġblockade": 7383,
    "ĠPlatform": 7384,
    "ĠAdvanced": 7385,
    "Ġdependencies": 7386,
    "Ġspotted": 7387,
    "Ġtrash": 7388,
    "ĠDual": 7389,
    "ling": 7390,
    "Ġsettlers": 7391,
    "wn": 7392,
    "AL": 7393,
    "description": 7394,
    "ĠESPN": 7395,
    "hibition": 7396,
    "Ġatt": 7397,
    "ĠEnc": 7398,
    "anners": 7399,
    "Ġkilomet": 7400,
    "Ġguiding": 7401,
    "Ġresh": 7402,
    "enberg": 7403,
    "ĠNaval": 7404,
    "Ġoil": 7405,
    "\\\"": 7406,
    "Ġpornography": 7407,
    "Ġtit": 7408,
    "Ġproxy": 7409,
    "ĠCharge": 7410,
    "imation": 7411,
    "ĠiPad": 7412,
    "vert": 7413,
    "olla": 7414,
    "then": 7415,
    "Ġvegetation": 7416,
    "Ġclot": 7417,
    "ĠAnaheim": 7418,
    "34": 7419,
    "Ġbirth": 7420,
    "Expl": 7421,
    "Ĥ¬": 7422,
    "ificial": 7423,
    "Bitcoin": 7424,
    "igue": 7425,
    "Ġthan": 7426,
    "long": 7427,
    "ĠTomorrow": 7428,
    "ĠCollective": 7429,
    "ĠAve": 7430,
    "eny": 7431,
    "19": 7432,
    "regor": 7433,
    "Ġaxe": 7434,
    "orient": 7435,
    "Ġr": 7436,
    "111": 7437,
    "Ġspare": 7438,
    "Ġskills": 7439,
    "ĠKnight": 7440,
    "Ġtraces": 7441,
    "ĠGlad": 7442,
    "Ġtested": 7443,
    "Ġestimate": 7444,
    "Need": 7445,
    "Ġwild": 7446,
    "Ġperpetrated": 7447,
    "early": 7448,
    "cca": 7449,
    "Ġundec": 7450,
    "Lear": 7451,
    "Ġins": 7452,
    "pensive": 7453,
    "Ġpostponed": 7454,
    "Ġthing": 7455,
    "ĠHol": 7456,
    "FI": 7457,
    "Ġsym": 7458,
    "Ġ2005": 7459,
    "Ġenc": 7460,
    "Ġchrom": 7461,
    "ĠBed": 7462,
    "Ġostensibly": 7463,
    "Ġbody": 7464,
    "Ġresemb": 7465,
    "ĠBUT": 7466,
    "Ē": 7467,
    "inters": 7468,
    "starter": 7469,
    "ĠVW": 7470,
    "Ġstation": 7471,
    "CLOSE": 7472,
    "Ġlitigation": 7473,
    "Ġphones": 7474,
    "Ġf": 7475,
    "Ġfinalists": 7476,
    "Ġromantic": 7477,
    "ILE": 7478,
    "Ġpurchased": 7479,
    "Ġstrange": 7480,
    "Ġurine": 7481,
    "ĠIr": 7482,
    "ĠGrey": 7483,
    "Ġincluding": 7484,
    "ĠLoss": 7485,
    "oking": 7486,
    "istry": 7487,
    "ĠACL": 7488,
    "erry": 7489,
    "Ġstrikes": 7490,
    "ottom": 7491,
    "Ġposture": 7492,
    "ĠBeer": 7493,
    "Ġbottom": 7494,
    "Ġenjoyable": 7495,
    "ĠStones": 7496,
    "Ġleather": 7497,
    "::": 7498,
    "ĠDum": 7499,
    "lyn": 7500,
    "Ext": 7501,
    "Ġjihadists": 7502,
    "Ġorbital": 7503,
    "Ġgrips": 7504,
    "Ġfederally": 7505,
    "Ġfrag": 7506,
    "Ġreversed": 7507,
    "oa": 7508,
    "Ġanswers": 7509,
    "Ġthank": 7510,
    "ĠPolish": 7511,
    "ĠAust": 7512,
    "Ġlakes": 7513,
    "Ġinherent": 7514,
    "Ġphenomenon": 7515,
    "Ġrefund": 7516,
    "ĠEvolution": 7517,
    "resh": 7518,
    "Dem": 7519,
    "Blood": 7520,
    "Ġindie": 7521,
    "Ġ1996": 7522,
    "Ġdorm": 7523,
    "ODE": 7524,
    "íķ": 7525,
    "Ġdancing": 7526,
    "sh": 7527,
    "Ġ1955": 7528,
    "Ġintermediate": 7529,
    "Ġtransitioning": 7530,
    "ĠSteele": 7531,
    "Kelly": 7532,
    "ying": 7533,
    "Mart": 7534,
    "ĠVC": 7535,
    "ĠY": 7536,
    "Ġrelic": 7537,
    "weather": 7538,
    "175": 7539,
    "Ġconfiguration": 7540,
    "Ġtweak": 7541,
    "Ġcounting": 7542,
    "ĠTri": 7543,
    "Ġtestosterone": 7544,
    "amber": 7545,
    "Ġpayload": 7546,
    "ĠAmendment": 7547,
    "Ġsubsc": 7548,
    "ĠRNC": 7549,
    "hammer": 7550,
    "Bro": 7551,
    "Ġplac": 7552,
    "imeter": 7553,
    "Ġbelieve": 7554,
    "Ġpacked": 7555,
    "essed": 7556,
    "Ġvictim": 7557,
    "Ġdefendants": 7558,
    "Ġreferee": 7559,
    "Ġpa": 7560,
    "Ġintroduced": 7561,
    "ĠBill": 7562,
    "Ġpumped": 7563,
    "Ġsaint": 7564,
    "ĠRules": 7565,
    "Ġintervention": 7566,
    "Ġdistrust": 7567,
    "Hon": 7568,
    "essa": 7569,
    "Ġcheering": 7570,
    "Ġvested": 7571,
    "ega": 7572,
    "ĠRaw": 7573,
    "porate": 7574,
    "Ġstab": 7575,
    "Ġexplicit": 7576,
    "Ġsmall": 7577,
    "Ġdecorated": 7578,
    "Ġcement": 7579,
    "authored": 7580,
    "ĠEli": 7581,
    "à": 7582,
    "ĠGandhi": 7583,
    "TT": 7584,
    "Ġloop": 7585,
    "Ġped": 7586,
    "Ġtreat": 7587,
    "ETT": 7588,
    "Ġinvading": 7589,
    "amba": 7590,
    "ĠLamar": 7591,
    "emb": 7592,
    "wards": 7593,
    "Ġvehicles": 7594,
    "Ġverified": 7595,
    "Ġpsychedel": 7596,
    "Ġundergoing": 7597,
    "ĠCities": 7598,
    "Ġstepping": 7599,
    "ĠDota": 7600,
    "umat": 7601,
    "opia": 7602,
    "Ġwhereabouts": 7603,
    "Ġwave": 7604,
    "Ros": 7605,
    "respect": 7606,
    "elfare": 7607,
    "Ġpolit": 7608,
    "Ġenvision": 7609,
    "Ġpedestrian": 7610,
    "Ġcirc": 7611,
    "ĠRig": 7612,
    "ĠPik": 7613,
    "ĠAgg": 7614,
    "otal": 7615,
    "Ġstartling": 7616,
    "e": 7617,
    "extremely": 7618,
    "ported": 7619,
    "Report": 7620,
    "Ġ67": 7621,
    "Ġstagn": 7622,
    "API": 7623,
    "Ġ();": 7624,
    "Ġredistributed": 7625,
    "leased": 7626,
    "Ġspons": 7627,
    "ĠHuman": 7628,
    "reon": 7629,
    "Ġpresented": 7630,
    "ilo": 7631,
    "L": 7632,
    "Ġnegligence": 7633,
    "Ġmissiles": 7634,
    "Apple": 7635,
    "Test": 7636,
    "ĠDemocracy": 7637,
    "ĠPolit": 7638,
    "ĠLegal": 7639,
    "CLA": 7640,
    "Ġcycle": 7641,
    "Ġsold": 7642,
    "ĠVision": 7643,
    "Ġincomplete": 7644,
    "Ġemphasizing": 7645,
    "Ġinsecurity": 7646,
    "Ġopportun": 7647,
    "Ġkind": 7648,
    "alker": 7649,
    "Ġhandheld": 7650,
    "xd": 7651,
    "86": 7652,
    "ĠSell": 7653,
    "ĠLeslie": 7654,
    "Ġtransportation": 7655,
    "cook": 7656,
    "Ġguarantees": 7657,
    "IES": 7658,
    "ution": 7659,
    "Ġrewritten": 7660,
    "Ġ('": 7661,
    "ĠNashville": 7662,
    "BB": 7663,
    "Ġvoting": 7664,
    "Ġclass": 7665,
    "ĠMinority": 7666,
    "ĠAncient": 7667,
    "Ġtender": 7668,
    "Ġundisclosed": 7669,
    "Ġstartups": 7670,
    "ĠHope": 7671,
    "Ġpara": 7672,
    "Ġcandidate": 7673,
    "isan": 7674,
    "Ġfruits": 7675,
    "aca": 7676,
    "jas": 7677,
    "ĠMattis": 7678,
    "Ġbru": 7679,
    "ĠReno": 7680,
    "idant": 7681,
    "Ġgeop": 7682,
    "Ġfooting": 7683,
    "ĠVolume": 7684,
    "return": 7685,
    "ĠCats": 7686,
    "Ġcredible": 7687,
    "Ġeducating": 7688,
    "Ġignor": 7689,
    "Ġlim": 7690,
    "KY": 7691,
    "ĠRO": 7692,
    "cÃ©": 7693,
    "lif": 7694,
    "angles": 7695,
    "ĠKashmir": 7696,
    "Ġdefenseman": 7697,
    "Ġswings": 7698,
    "Ġdenying": 7699,
    "Ġ200": 7700,
    "ĠTim": 7701,
    "Ġcharming": 7702,
    "idding": 7703,
    "Getty": 7704,
    "Ġinj": 7705,
    "Ġethnicity": 7706,
    "ĠHarm": 7707,
    "abetes": 7708,
    "Ġeloqu": 7709,
    "named": 7710,
    "Ġplastic": 7711,
    "Ġoutgoing": 7712,
    "Ġbegin": 7713,
    "âĢ¢": 7714,
    "Ġ1978": 7715,
    "ĠAj": 7716,
    "Ġparade": 7717,
    "Ġcounties": 7718,
    "Ġdonating": 7719,
    "PR": 7720,
    "Ġbowl": 7721,
    "Ġsanction": 7722,
    "Ġescaping": 7723,
    "Ġimmedi": 7724,
    "They": 7725,
    "Ġabol": 7726,
    "Ġstarts": 7727,
    "Ġrecurring": 7728,
    "Ġwebsites": 7729,
    "ĠChampion": 7730,
    "Ġtex": 7731,
    "Ġaccomplished": 7732,
    "oler": 7733,
    "Ġdispro": 7734,
    "ĠAdvis": 7735,
    "ĠGirl": 7736,
    "ĠShawn": 7737,
    "Ġauthentic": 7738,
    "Ġplanting": 7739,
    "Ġdispatch": 7740,
    "gering": 7741,
    "Ġexpl": 7742,
    "Ġprow": 7743,
    "ĠBeijing": 7744,
    "ty": 7745,
    "ĠET": 7746,
    "air": 7747,
    "ĠAfrica": 7748,
    "2012": 7749,
    "onding": 7750,
    "Nor": 7751,
    "ĠDian": 7752,
    "isson": 7753,
    "ĠAren": 7754,
    "ĠWy": 7755,
    "Ġrebuild": 7756,
    "Ġconsciously": 7757,
    "Ġdon": 7758,
    "Ġquarterback": 7759,
    "pu": 7760,
    "ma": 7761,
    "ĠACC": 7762,
    "Ġinfant": 7763,
    "Ġdecisions": 7764,
    "Ġracial": 7765,
    "Ġsink": 7766,
    "ĠVox": 7767,
    "Ġinterfere": 7768,
    "Ġtact": 7769,
    "lies": 7770,
    "pet": 7771,
    "ĠHyd": 7772,
    "ĠSie": 7773,
    "Ġdeferred": 7774,
    "bone": 7775,
    "Ġdictates": 7776,
    "Ġeffectiveness": 7777,
    "Ġjaw": 7778,
    "âĢ¦": 7779,
    "Ġhuman": 7780,
    "remlin": 7781,
    "Ġub": 7782,
    "ician": 7783,
    "zip": 7784,
    "Ġsixteen": 7785,
    "Â®": 7786,
    "69": 7787,
    "Ġdeal": 7788,
    "Ġmerc": 7789,
    "ilda": 7790,
    "Ġencour": 7791,
    "Ġgarage": 7792,
    "ĠDew": 7793,
    "Ġregained": 7794,
    "Ġfinest": 7795,
    "mod": 7796,
    "nton": 7797,
    "keley": 7798,
    "airs": 7799,
    "Ġdischarged": 7800,
    "Ġduo": 7801,
    "ĠCay": 7802,
    "Ġclerk": 7803,
    "Ġartificial": 7804,
    "ikk": 7805,
    "idis": 7806,
    "Ġimmort": 7807,
    "Ġmarathon": 7808,
    "ĠVill": 7809,
    "ĠSpani": 7810,
    "Ġaided": 7811,
    "ÃĹ": 7812,
    "Ġpartnerships": 7813,
    "ain": 7814,
    "ense": 7815,
    "Ġsuppress": 7816,
    "ooter": 7817,
    "Ġeruption": 7818,
    "Ġphenomen": 7819,
    "omer": 7820,
    "ĠTheft": 7821,
    "Ġimplicated": 7822,
    "eal": 7823,
    "Bre": 7824,
    "ĠNeil": 7825,
    "ĠRobb": 7826,
    "Ġantibodies": 7827,
    "Friend": 7828,
    "Ġexistential": 7829,
    "ĠGIF": 7830,
    "Ġdecentralized": 7831,
    "Hz": 7832,
    "Ġunlock": 7833,
    "efe": 7834,
    "ĠGriff": 7835,
    "AI": 7836,
    "Ġsubscribers": 7837,
    "What": 7838,
    "ayan": 7839,
    "ĠWent": 7840,
    "antha": 7841,
    "Ġtempting": 7842,
    "Ġspeakers": 7843,
    "olutely": 7844,
    "irc": 7845,
    "ĠReally": 7846,
    "developed": 7847,
    "Ġ[+": 7848,
    "Ġburst": 7849,
    "Ġproceed": 7850,
    "Ġmaker": 7851,
    "Ġredevelopment": 7852,
    "contin": 7853,
    "ĠThrones": 7854,
    "Ġpersona": 7855,
    "Ġconvince": 7856,
    "Ġhaul": 7857,
    "laughs": 7858,
    "Ġefficiently": 7859,
    "ĠHarry": 7860,
    "perhaps": 7861,
    "Ġtrajectory": 7862,
    "ennial": 7863,
    "agine": 7864,
    "%": 7865,
    "ĠFl": 7866,
    "Ġimmersive": 7867,
    "Ġrelate": 7868,
    "Ġjoking": 7869,
    "Ġnum": 7870,
    "ĠError": 7871,
    "thening": 7872,
    "Ġacknowledge": 7873,
    "ĠGalile": 7874,
    "Ġdazz": 7875,
    "Ġbec": 7876,
    "Ġcafe": 7877,
    "Ġuncont": 7878,
    "ĠNep": 7879,
    "Sen": 7880,
    "Ġdrones": 7881,
    "ĠHBO": 7882,
    "ĠCSS": 7883,
    "ĠAtmosp": 7884,
    "Ġmeasuring": 7885,
    "Ġunsuccess": 7886,
    "ĠMilky": 7887,
    "inch": 7888,
    "bled": 7889,
    "----": 7890,
    "ĠEag": 7891,
    "Ġnominated": 7892,
    "Ġevid": 7893,
    "Wil": 7894,
    "ashington": 7895,
    "igating": 7896,
    "uming": 7897,
    "ede": 7898,
    "Ġsignal": 7899,
    "isting": 7900,
    "Ġvitamin": 7901,
    "Ġaffiliated": 7902,
    "ĠObservatory": 7903,
    "Ġstruggle": 7904,
    "ĠGone": 7905,
    "Ġembod": 7906,
    "Ġgubernatorial": 7907,
    "point": 7908,
    "ĠRussian": 7909,
    "pled": 7910,
    "mons": 7911,
    "ĠPhot": 7912,
    "Ġcontaminated": 7913,
    "Ġord": 7914,
    "amacare": 7915,
    "ĠMyan": 7916,
    "ĠServices": 7917,
    "Ġapparently": 7918,
    "Ġlasts": 7919,
    "ĠMacDonald": 7920,
    "Ġrevolutions": 7921,
    "Ġexpect": 7922,
    "2001": 7923,
    "ĠErik": 7924,
    "Ġbapt": 7925,
    "Ġthugs": 7926,
    "ĠQuant": 7927,
    "Ġconver": 7928,
    "ĠHunger": 7929,
    "Ġmyself": 7930,
    "ĠAmerican": 7931,
    "ĠInternal": 7932,
    "Ġcreative": 7933,
    "ĠVeter": 7934,
    "IFF": 7935,
    "Ġtribal": 7936,
    "ĠDean": 7937,
    "ĠOrb": 7938,
    "ĠHalf": 7939,
    "ities": 7940,
    "Ġdiscour": 7941,
    "Ġdescend": 7942,
    "Ġpioneering": 7943,
    "Ġna": 7944,
    "Ġdeputy": 7945,
    "Ġsack": 7946,
    "READ": 7947,
    "Ġoverturned": 7948,
    "ĠSalman": 7949,
    "ensor": 7950,
    "Ġcomparing": 7951,
    "Ġdiscontinued": 7952,
    "uction": 7953,
    "umen": 7954,
    "Even": 7955,
    "ĠCouncil": 7956,
    "Ġmobile": 7957,
    "ĠLE": 7958,
    "ĠWebster": 7959,
    "Ġsin": 7960,
    "Ġsibling": 7961,
    "Ġunfavor": 7962,
    "Ġarrogance": 7963,
    "Ġhearing": 7964,
    "CL": 7965,
    "Democrats": 7966,
    "non": 7967,
    "Ġbom": 7968,
    "Ġremarked": 7969,
    "ĠAN": 7970,
    "Ġcommemorate": 7971,
    "Ġdissip": 7972,
    "ĠâĪĴ": 7973,
    "Ġpup": 7974,
    "Ġdeficits": 7975,
    "ator": 7976,
    "Ġrh": 7977,
    "Ġsend": 7978,
    "Federal": 7979,
    "ĠOperations": 7980,
    "Ġsorrow": 7981,
    "Ġredd": 7982,
    "Ġlar": 7983,
    "ji": 7984,
    "ĠPle": 7985,
    "Ġrelating": 7986,
    "Ġerrors": 7987,
    "RA": 7988,
    "ime": 7989,
    "Ġappearances": 7990,
    "ĠSU": 7991,
    "Ġframeworks": 7992,
    "lio": 7993,
    "Ġwinner": 7994,
    "Ġmonkeys": 7995,
    "âĨ": 7996,
    "Inside": 7997,
    "ÈĻ": 7998,
    "Employ": 7999,
    "rared": 8000,
    "Ġplacing": 8001,
    "pire": 8002,
    "shit": 8003,
    "head": 8004,
    "raven": 8005,
    "Ġunpre": 8006,
    "Ġimproperly": 8007,
    "ĠChristianity": 8008,
    "ãģ®": 8009,
    "Ġgeneric": 8010,
    "Ġunethical": 8011,
    "ĠReview": 8012,
    "Ġconcessions": 8013,
    "ĠGreek": 8014,
    "reck": 8015,
    "Ġweb": 8016,
    "plane": 8017,
    "Ġsupplied": 8018,
    "Ġturbo": 8019,
    "ĠOUT": 8020,
    "Ġbust": 8021,
    "Ġcellphone": 8022,
    "Ġminiature": 8023,
    "Ġnineteenth": 8024,
    "ĠFX": 8025,
    "Ġchase": 8026,
    "Ġdementia": 8027,
    "ĠCisco": 8028,
    "Ġevent": 8029,
    "ĠLetters": 8030,
    "Ġaccompl": 8031,
    "Ġcache": 8032,
    "ĠMcCl": 8033,
    "Ġlegalizing": 8034,
    "ĠKurd": 8035,
    "ĠArm": 8036,
    "Ġcardiovascular": 8037,
    "line": 8038,
    "IC": 8039,
    "Ġstringent": 8040,
    "Ġhamstring": 8041,
    "Ġjer": 8042,
    "Ġtremendous": 8043,
    "ĠCit": 8044,
    "ĠBaptist": 8045,
    "ĠSymph": 8046,
    "nered": 8047,
    "Ġdetail": 8048,
    "ĠPsychology": 8049,
    "Ġhype": 8050,
    "Ġaccelerated": 8051,
    "Ġinvestigator": 8052,
    "ĠTyler": 8053,
    "Ġdeclare": 8054,
    "stra": 8055,
    "Ġbottles": 8056,
    "daily": 8057,
    "Law": 8058,
    "Po": 8059,
    "ĠDylan": 8060,
    "Ġascertain": 8061,
    "ano": 8062,
    "Ġhack": 8063,
    "airy": 8064,
    "ĠGary": 8065,
    "Ã¡s": 8066,
    "doing": 8067,
    "Ġsatellites": 8068,
    "Newsletter": 8069,
    "ĠNets": 8070,
    "Ġstrat": 8071,
    "ners": 8072,
    "ĠColorado": 8073,
    "ossibly": 8074,
    "pat": 8075,
    "Ġmailing": 8076,
    "Ġshoots": 8077,
    "ĠAW": 8078,
    "ĠCreative": 8079,
    "ĠAbs": 8080,
    "Ġparadise": 8081,
    "rights": 8082,
    "ĠEuropeans": 8083,
    "ĠBeckham": 8084,
    "Ġconclude": 8085,
    "Ġrivers": 8086,
    "ocre": 8087,
    "Ġdescriptions": 8088,
    "çļ": 8089,
    "Ġstreet": 8090,
    "dem": 8091,
    "iban": 8092,
    "ĠMrs": 8093,
    "ks": 8094,
    "ĠReserve": 8095,
    "Ġrang": 8096,
    "Ġtheology": 8097,
    "Ġsuperintendent": 8098,
    "ĠKepler": 8099,
    "ĠHand": 8100,
    "Ġupon": 8101,
    "ĠMul": 8102,
    "Ġcaste": 8103,
    "ise": 8104,
    "Ġads": 8105,
    "Ġprominently": 8106,
    "owell": 8107,
    "tlement": 8108,
    "ĠHudson": 8109,
    "ĠCommission": 8110,
    "Ġburnt": 8111,
    "ĠEducation": 8112,
    "Ġblend": 8113,
    "Ġscripts": 8114,
    "Ġedges": 8115,
    "mental": 8116,
    "Ġ750": 8117,
    "Ġmarital": 8118,
    "selves": 8119,
    "Sch": 8120,
    "ĠIrish": 8121,
    "ologies": 8122,
    "Ġbrightest": 8123,
    "cified": 8124,
    "Many": 8125,
    "Then": 8126,
    "Bush": 8127,
    "Ġgem": 8128,
    "Ġ}": 8129,
    "union": 8130,
    "Ġgovernmental": 8131,
    "ĠTerminal": 8132,
    "ĠSDK": 8133,
    "Ġgest": 8134,
    "Ġmyths": 8135,
    "Ġchief": 8136,
    "Ġcaucuses": 8137,
    "magic": 8138,
    "Court": 8139,
    "Ġretreat": 8140,
    "Ġthough": 8141,
    "andro": 8142,
    "ĠAsian": 8143,
    "verts": 8144,
    "Ġunheard": 8145,
    "Pierre": 8146,
    "Ġbelief": 8147,
    "Ġadvert": 8148,
    "Ġguidance": 8149,
    "Ġstage": 8150,
    "ĠShakespeare": 8151,
    "ĠPhillies": 8152,
    "eye": 8153,
    "Dis": 8154,
    "Ġmosque": 8155,
    "have": 8156,
    "Obs": 8157,
    "Ġasc": 8158,
    "Ġwheel": 8159,
    "!!!": 8160,
    "Cut": 8161,
    "+": 8162,
    "Ġtrump": 8163,
    "ĠKilled": 8164,
    "Ġrevisions": 8165,
    "iques": 8166,
    "listed": 8167,
    "ĠFacility": 8168,
    ")\"": 8169,
    "Ġpatriot": 8170,
    "Ġexemption": 8171,
    "Ġrealise": 8172,
    "ST": 8173,
    "lv": 8174,
    "Ġequival": 8175,
    "Ġproved": 8176,
    "Ġslam": 8177,
    "okia": 8178,
    "Ġswall": 8179,
    "ateg": 8180,
    "Ġinterested": 8181,
    "Ġunlike": 8182,
    "ĠConfeder": 8183,
    "ĠHay": 8184,
    "ĠMo": 8185,
    "Ġboss": 8186,
    "Ġaggrav": 8187,
    "Ġdelivery": 8188,
    "Ġcondemned": 8189,
    "Ġcrew": 8190,
    "Ġfamous": 8191,
    "ĠBroncos": 8192,
    "ĠPorsche": 8193,
    "Ġperformers": 8194,
    "ai": 8195,
    "ĠReality": 8196,
    "ady": 8197,
    "ĠÃ©": 8198,
    "ï¼": 8199,
    "ĠLone": 8200,
    "Ġdrastic": 8201,
    "felt": 8202,
    "Ġbar": 8203,
    "Ġshallow": 8204,
    "Ġgenerals": 8205,
    "Ġfant": 8206,
    "Ġruler": 8207,
    "Ġreferendum": 8208,
    "ĠNote": 8209,
    "Ġpersonality": 8210,
    "Ġeveryday": 8211,
    "Ġlaun": 8212,
    "Ġineff": 8213,
    "oved": 8214,
    "ĠTeachers": 8215,
    "Ġterror": 8216,
    "AF": 8217,
    "pler": 8218,
    "ĠBreitbart": 8219,
    "ĠHond": 8220,
    "ĠBris": 8221,
    "Ġmushrooms": 8222,
    "Ġneighbour": 8223,
    "impse": 8224,
    "ihil": 8225,
    "Ġpackages": 8226,
    "ĠPublishing": 8227,
    "Ġchain": 8228,
    "ĠPotter": 8229,
    "Ġchildhood": 8230,
    "um": 8231,
    "iating": 8232,
    "Ġenthusiastic": 8233,
    "ĠDrop": 8234,
    "EL": 8235,
    "Ġdonor": 8236,
    "ipedia": 8237,
    "ĠUCLA": 8238,
    "Ġmakes": 8239,
    "UPDATE": 8240,
    "Ġlan": 8241,
    "imir": 8242,
    "Ġmotive": 8243,
    "Ġmagnetic": 8244,
    "âĶĢâĶĢâĶĢâĶĢ": 8245,
    "446": 8246,
    "ĠMohammad": 8247,
    "Ġupfront": 8248,
    "Ġinterest": 8249,
    "braska": 8250,
    "bow": 8251,
    "Ġlabeling": 8252,
    "ierre": 8253,
    "Ġincumb": 8254,
    "PM": 8255,
    "Ġreplaced": 8256,
    "udge": 8257,
    "ĠCanberra": 8258,
    "rib": 8259,
    "vic": 8260,
    "ĠKate": 8261,
    "ĠViol": 8262,
    "expl": 8263,
    "ohyd": 8264,
    "Sep": 8265,
    "sur": 8266,
    "ĠProsecutor": 8267,
    "urring": 8268,
    "Ġtechnology": 8269,
    "Â°": 8270,
    "ibility": 8271,
    "Ġeconomists": 8272,
    "ĠErd": 8273,
    "ĠCover": 8274,
    "Joe": 8275,
    "getown": 8276,
    "Ġexceeds": 8277,
    "aneously": 8278,
    "daughter": 8279,
    "Ġdeductions": 8280,
    "Ġmetric": 8281,
    "Ġbathrooms": 8282,
    "Ġtrad": 8283,
    "Ġthree": 8284,
    "puted": 8285,
    "Ġencompass": 8286,
    "Ġweighs": 8287,
    "ĠFriends": 8288,
    "Ġ83": 8289,
    "ilar": 8290,
    "hedul": 8291,
    "Ġcollected": 8292,
    "ographer": 8293,
    "ĠExtra": 8294,
    "Ġrouter": 8295,
    "ping": 8296,
    "Sham": 8297,
    "Tim": 8298,
    "Ġwitch": 8299,
    "Ġcompatible": 8300,
    "Should": 8301,
    "ĠWalmart": 8302,
    "aura": 8303,
    "bell": 8304,
    "iano": 8305,
    "Ġforced": 8306,
    "ĠPanel": 8307,
    "ĠBernanke": 8308,
    "JUST": 8309,
    "break": 8310,
    "Ġmandates": 8311,
    "Ġcarries": 8312,
    "Ġprice": 8313,
    "Additionally": 8314,
    "Ġdisadvantage": 8315,
    "land": 8316,
    "Ġspicy": 8317,
    "Ġlocate": 8318,
    "Ġcommodity": 8319,
    "ĠPlayStation": 8320,
    "jin": 8321,
    "colm": 8322,
    "Ġplummet": 8323,
    "Ġwere": 8324,
    "ĠGregg": 8325,
    "Ġsh": 8326,
    "ĠDarwin": 8327,
    "Ġammunition": 8328,
    "ĠInv": 8329,
    "Ġtrick": 8330,
    "rig": 8331,
    "Ġsuff": 8332,
    "Ġour": 8333,
    "Ġbeginnings": 8334,
    "Ġallowing": 8335,
    "orf": 8336,
    "Advertisement": 8337,
    "Ġfin": 8338,
    "ĠWilliamson": 8339,
    "OB": 8340,
    "Ġindustries": 8341,
    "East": 8342,
    "ĠTrou": 8343,
    "ĠPerhaps": 8344,
    "rane": 8345,
    "worthy": 8346,
    "Ġlocations": 8347,
    "aries": 8348,
    "Ġbowling": 8349,
    "ĠOther": 8350,
    "Ġdess": 8351,
    "ĠAce": 8352,
    "Ġcosting": 8353,
    "irk": 8354,
    "Ġliberties": 8355,
    "ĠWinter": 8356,
    "Ġliber": 8357,
    "ĠAlong": 8358,
    "Ġfingers": 8359,
    "irmed": 8360,
    "Ġmeasurements": 8361,
    "ĠHeat": 8362,
    "ĠJulius": 8363,
    "Ġgroups": 8364,
    "ĠBerlin": 8365,
    "ĠProduction": 8366,
    "ingen": 8367,
    "Ġtemporal": 8368,
    "Ġnotorious": 8369,
    "ĠLIVE": 8370,
    "url": 8371,
    "Ġnutrient": 8372,
    "ĠTwins": 8373,
    "Ġslide": 8374,
    "Ġshift": 8375,
    "Ġrestart": 8376,
    "War": 8377,
    "itbart": 8378,
    "Ġnap": 8379,
    "ĠObama": 8380,
    "Ġmicroscope": 8381,
    "ĠFortunately": 8382,
    "Ġearthqu": 8383,
    "Ġconcert": 8384,
    "induced": 8385,
    "iatric": 8386,
    "ĠMotorola": 8387,
    "Table": 8388,
    "Ġtattoo": 8389,
    "emies": 8390,
    "ĠBom": 8391,
    "ifier": 8392,
    "aggering": 8393,
    "than": 8394,
    "Ste": 8395,
    "Ġ82": 8396,
    "ĠEvan": 8397,
    "Ġbehavioral": 8398,
    "ĠGeor": 8399,
    "Ġrefuse": 8400,
    "Ġlenses": 8401,
    "eat": 8402,
    "Ġlots": 8403,
    "Ġcod": 8404,
    "ĠCity": 8405,
    "Ġtriumph": 8406,
    "Exper": 8407,
    "ĠFilms": 8408,
    "ĠHassan": 8409,
    "ĠCunningham": 8410,
    "ĠModern": 8411,
    "writer": 8412,
    "Ġbi": 8413,
    "ard": 8414,
    "ĠStanford": 8415,
    "Roy": 8416,
    "Ġrampant": 8417,
    "ificent": 8418,
    "ĠEthics": 8419,
    "Ġtravelers": 8420,
    "producing": 8421,
    "Ġeyebrows": 8422,
    "Ġattractions": 8423,
    "Ġcompanion": 8424,
    "Ġcompetition": 8425,
    "Ġeducate": 8426,
    "ĠTong": 8427,
    "Ġceremonies": 8428,
    "off": 8429,
    "respons": 8430,
    "Ġbusy": 8431,
    "Ġremark": 8432,
    "ATO": 8433,
    "aaaa": 8434,
    "ĠPrivate": 8435,
    "Ġpersist": 8436,
    "ĠVote": 8437,
    "Ġcyn": 8438,
    "ĠFBI": 8439,
    "Ġdoc": 8440,
    "Ġexploring": 8441,
    "ched": 8442,
    "Ġbetrayal": 8443,
    "Ġvisitors": 8444,
    "Ġfading": 8445,
    "Ġupside": 8446,
    "Ġscouts": 8447,
    "Ġgle": 8448,
    "Ġdisapp": 8449,
    "Ġinefficient": 8450,
    "ĠMaple": 8451,
    "riched": 8452,
    "Ġtaxpayers": 8453,
    "Ġparticipating": 8454,
    "selling": 8455,
    "si": 8456,
    "asonable": 8457,
    "Ð¹": 8458,
    "Ġsmash": 8459,
    "850": 8460,
    "Ġirre": 8461,
    "ingo": 8462,
    "ãĤĵ": 8463,
    "ĠMedicaid": 8464,
    "Ġbullying": 8465,
    "Ġmaster": 8466,
    "ĠCurry": 8467,
    "ropic": 8468,
    "Facebook": 8469,
    "ch": 8470,
    "Ġenormously": 8471,
    "ĠHayes": 8472,
    "Ġswallowed": 8473,
    "Ġreserve": 8474,
    "Ġok": 8475,
    "ĠTheatre": 8476,
    "Ġbott": 8477,
    "Ġmechanical": 8478,
    "ĠLimited": 8479,
    "Ġsimilar": 8480,
    "ĠFil": 8481,
    "Ġven": 8482,
    "Ġinsurers": 8483,
    "Ġfun": 8484,
    "ĠHowever": 8485,
    "Ġcontractor": 8486,
    "inski": 8487,
    "Ġsch": 8488,
    "Ġmanage": 8489,
    "Ġsat": 8490,
    "nc": 8491,
    "ĠVaugh": 8492,
    "Ġnov": 8493,
    "Ġstart": 8494,
    "Ġinstitutions": 8495,
    "Ġpocket": 8496,
    "Ġphilosoph": 8497,
    "ãĥ": 8498,
    "Ġtangible": 8499,
    "Ġprofile": 8500,
    "Ġlens": 8501,
    "ĠDet": 8502,
    "Ġfamilies": 8503,
    "ĠFlyers": 8504,
    "Ġec": 8505,
    "old": 8506,
    "Will": 8507,
    "omen": 8508,
    "Ġasserted": 8509,
    "arian": 8510,
    "Ġattention": 8511,
    "ĠPitt": 8512,
    "Ġcel": 8513,
    "double": 8514,
    "reedom": 8515,
    "Ġflashing": 8516,
    "Ġepis": 8517,
    "Also": 8518,
    "Ġverte": 8519,
    "ĠSym": 8520,
    "Ġrapidly": 8521,
    "Seattle": 8522,
    "uum": 8523,
    "Ġmeme": 8524,
    "ĠLambert": 8525,
    "Ġplunge": 8526,
    "imate": 8527,
    "ggle": 8528,
    "ansion": 8529,
    "Ġantagon": 8530,
    "Ġwiped": 8531,
    "ĠResults": 8532,
    "Ġglasses": 8533,
    "Ġstrengthened": 8534,
    "Ġoverly": 8535,
    "Ġlever": 8536,
    "ubl": 8537,
    "Ġdescribed": 8538,
    "Ġcouncil": 8539,
    "km": 8540,
    "Ġnotion": 8541,
    "Ġgu": 8542,
    "ĠWolf": 8543,
    "ĠStrange": 8544,
    "Ġbetting": 8545,
    "ribut": 8546,
    "Ġcond": 8547,
    "Ġcopy": 8548,
    "ĠShap": 8549,
    "PA": 8550,
    "Ġdevelopers": 8551,
    "ĠFamily": 8552,
    "Ġcircum": 8553,
    "ĠStewart": 8554,
    "Ġbothered": 8555,
    "vention": 8556,
    "ference": 8557,
    "ĠBegin": 8558,
    "Ġodds": 8559,
    "Ġnutritional": 8560,
    "working": 8561,
    "Ġdetective": 8562,
    "Ġcyl": 8563,
    "Ġslips": 8564,
    "ĠMob": 8565,
    "Ġbeneath": 8566,
    "Ġ{{": 8567,
    "Ġnumbers": 8568,
    "ranean": 8569,
    "imon": 8570,
    "Ġoct": 8571,
    "Ġhiking": 8572,
    "Comb": 8573,
    "Ġsync": 8574,
    "ķ": 8575,
    "Ġgraduate": 8576,
    "Ġtrucks": 8577,
    "ĠProdu": 8578,
    "Ġextension": 8579,
    "perature": 8580,
    "ĠKevin": 8581,
    "Ġcrisp": 8582,
    "ĠAround": 8583,
    "ĠHatch": 8584,
    "Ġrelentless": 8585,
    "ĠIniti": 8586,
    "Ġalert": 8587,
    "Actually": 8588,
    "Ġhum": 8589,
    "Ġquotes": 8590,
    "hens": 8591,
    "Ġmaze": 8592,
    "uro": 8593,
    "Ġblasp": 8594,
    "Ġparad": 8595,
    "ĠEbola": 8596,
    "Ġdeny": 8597,
    "olves": 8598,
    "Price": 8599,
    "Ġgiving": 8600,
    "ĠGround": 8601,
    "Ġcompl": 8602,
    "chel": 8603,
    "ĠMilan": 8604,
    "Mean": 8605,
    "ĠMa": 8606,
    "ĠFunction": 8607,
    "Ġconnector": 8608,
    "West": 8609,
    "Ġ114": 8610,
    "ĠTreasury": 8611,
    "usp": 8612,
    "Ġrepresentations": 8613,
    "Ġtraditional": 8614,
    "Ġexercises": 8615,
    "ĠZak": 8616,
    "Ġlaund": 8617,
    "DS": 8618,
    "Ġleftist": 8619,
    "Ġknot": 8620,
    "Ġwhistlebl": 8621,
    "ĠDa": 8622,
    "ĠCrow": 8623,
    "runner": 8624,
    "United": 8625,
    "Ġparticular": 8626,
    "ĠOccup": 8627,
    "ĠDiaz": 8628,
    "izer": 8629,
    "ĠDru": 8630,
    "ĠRabb": 8631,
    "Ġshortage": 8632,
    "est": 8633,
    "Ġfore": 8634,
    "Ġintimidate": 8635,
    "Ġdowntown": 8636,
    "Ġpilot": 8637,
    "GF": 8638,
    "Ġsemi": 8639,
    "eah": 8640,
    "archy": 8641,
    "avoid": 8642,
    "Ġtoggle": 8643,
    "ĠPKK": 8644,
    "Ġdaily": 8645,
    "Ġdestroyed": 8646,
    "Ġmeaningless": 8647,
    "ĠObamacare": 8648,
    "Ġenables": 8649,
    "zsche": 8650,
    "rote": 8651,
    "ĠEk": 8652,
    "Ġnow": 8653,
    "Science": 8654,
    "Ġcomputational": 8655,
    "rand": 8656,
    "ĠBiology": 8657,
    "Ġilleg": 8658,
    "Ġmitigate": 8659,
    "Ġannually": 8660,
    "Ġbow": 8661,
    "Ġunsupp": 8662,
    "Ġconflicts": 8663,
    "Ġalarm": 8664,
    "Ġwonder": 8665,
    "Tre": 8666,
    "rne": 8667,
    "ĠArmed": 8668,
    "ĠCaucas": 8669,
    "arak": 8670,
    "By": 8671,
    "lit": 8672,
    "Ġtedious": 8673,
    "350": 8674,
    "q": 8675,
    "Ġdenial": 8676,
    "Ġremaining": 8677,
    "Ġcold": 8678,
    "Ġpills": 8679,
    "utterstock": 8680,
    "Ġfranch": 8681,
    "vered": 8682,
    "Ġgrateful": 8683,
    "urai": 8684,
    "Ġrevolution": 8685,
    "Ġskull": 8686,
    "ĠBe": 8687,
    "yrr": 8688,
    "Ġlosses": 8689,
    "Ġpsychiatrist": 8690,
    "iterranean": 8691,
    "Ġprosecute": 8692,
    "Ġ});": 8693,
    "ĠBannon": 8694,
    "lash": 8695,
    "berto": 8696,
    "real": 8697,
    "Ġmindful": 8698,
    "Ġarson": 8699,
    "Ġcultiv": 8700,
    "ctor": 8701,
    "ioned": 8702,
    "ention": 8703,
    "Ġcustomized": 8704,
    "ÑĮ": 8705,
    "Ġillumin": 8706,
    "Rick": 8707,
    "ovych": 8708,
    "effective": 8709,
    "ĠSant": 8710,
    "Ġplotting": 8711,
    "Media": 8712,
    "Ġenergies": 8713,
    "ĠHorizon": 8714,
    "Tell": 8715,
    "Ġripping": 8716,
    "azor": 8717,
    "Lat": 8718,
    "Ġacquiring": 8719,
    "isation": 8720,
    "stad": 8721,
    "ĠNorfolk": 8722,
    "ĠOrwell": 8723,
    "Ġoverrun": 8724,
    "field": 8725,
    "tein": 8726,
    "Ġlun": 8727,
    "ĠLinks": 8728,
    "Ġshel": 8729,
    "ology": 8730,
    "Ġproving": 8731,
    "Ġearlier": 8732,
    "Ġlows": 8733,
    "Ġacts": 8734,
    "Ġevacuated": 8735,
    "ę": 8736,
    "Ġhobby": 8737,
    "Ġevolved": 8738,
    "Ġdestroys": 8739,
    "Ġstre": 8740,
    "Ġcounters": 8741,
    "Ġcriminal": 8742,
    "advant": 8743,
    "Ġtale": 8744,
    "Ġstrength": 8745,
    "Ġ59": 8746,
    "Ġdel": 8747,
    "Ġreminding": 8748,
    "Ġshifting": 8749,
    "Do": 8750,
    "Ġlot": 8751,
    "asks": 8752,
    "1991": 8753,
    "Us": 8754,
    "ĠLeon": 8755,
    "Ġsynchron": 8756,
    "ivalent": 8757,
    "ashtra": 8758,
    "Ġeliminate": 8759,
    "Ġlaptops": 8760,
    "Ġjurisdictions": 8761,
    "ĠLatinos": 8762,
    "reported": 8763,
    "archive": 8764,
    "Ġbulk": 8765,
    "Ġbounce": 8766,
    "ĠMarketing": 8767,
    "axy": 8768,
    "ĠPirates": 8769,
    "fu": 8770,
    "ĠNV": 8771,
    "Wire": 8772,
    "Ġloot": 8773,
    "Ġslaves": 8774,
    "Ġmarch": 8775,
    "Ã©t": 8776,
    "ĠICO": 8777,
    "Ġbald": 8778,
    "Ġvoyage": 8779,
    "Ġjustices": 8780,
    "Ġ[]": 8781,
    "Ġconveyed": 8782,
    "Ġstream": 8783,
    "ĠMoy": 8784,
    "cats": 8785,
    "riber": 8786,
    "taking": 8787,
    "ĠYel": 8788,
    "ottage": 8789,
    "ĠLumia": 8790,
    "Ġrelax": 8791,
    "ĠHistoric": 8792,
    "ĠShelby": 8793,
    "ishes": 8794,
    "Ġradical": 8795,
    "Fig": 8796,
    "serving": 8797,
    "Ġtw": 8798,
    "Ġrendition": 8799,
    "ĠTP": 8800,
    "anthrop": 8801,
    "ĠSiri": 8802,
    "Ġinstructions": 8803,
    "Foot": 8804,
    "actory": 8805,
    "Ġworkload": 8806,
    "Ġcrime": 8807,
    "Ġcake": 8808,
    "ĠTay": 8809,
    "ryan": 8810,
    "Ġhires": 8811,
    "erved": 8812,
    "Image": 8813,
    "ĠManuel": 8814,
    "Ġregulators": 8815,
    "Ġsynthes": 8816,
    "uter": 8817,
    "ĠFlying": 8818,
    "Ġvibr": 8819,
    "Ġplanted": 8820,
    "Keep": 8821,
    "ĠGRE": 8822,
    "adian": 8823,
    "ĠTales": 8824,
    "Ġshades": 8825,
    "isoft": 8826,
    "Ġnavigation": 8827,
    "Ġemployers": 8828,
    "ĠEnergy": 8829,
    "worth": 8830,
    "Context": 8831,
    "ĠChronicle": 8832,
    "Ġtoxicity": 8833,
    "Ġdistinguish": 8834,
    "liament": 8835,
    "Ġshutter": 8836,
    "Ġacted": 8837,
    "Ġheel": 8838,
    "Ġdebates": 8839,
    "ĠSam": 8840,
    "Ġwrath": 8841,
    "ĠFound": 8842,
    "ĠBrewery": 8843,
    "oooo": 8844,
    "Ġlivelihood": 8845,
    "Ġstripped": 8846,
    "Ġwire": 8847,
    "Ġclimbing": 8848,
    "Ġpharm": 8849,
    "Ġ\"[": 8850,
    "Ġmaterial": 8851,
    "Ġtemperature": 8852,
    "ĠDallas": 8853,
    "uesday": 8854,
    "oud": 8855,
    "ecause": 8856,
    "Go": 8857,
    "usted": 8858,
    "Ġruns": 8859,
    "camp": 8860,
    "Ġabandoned": 8861,
    "church": 8862,
    "Ġcompliance": 8863,
    "Ġlumin": 8864,
    "Ġclaims": 8865,
    "Ġtragedy": 8866,
    "Ġat": 8867,
    "ĠIPCC": 8868,
    "rupal": 8869,
    "ĠThese": 8870,
    "Ġstoryline": 8871,
    "cz": 8872,
    "ĠRy": 8873,
    "Ġinterval": 8874,
    "ĠAwesome": 8875,
    "Ġcapacities": 8876,
    "Ġrequ": 8877,
    "ively": 8878,
    "Ġsupplements": 8879,
    "Ġbeneficial": 8880,
    "Ġwould": 8881,
    "Ġinterference": 8882,
    "Jew": 8883,
    "ĳ": 8884,
    "ĠChes": 8885,
    "ower": 8886,
    "Ã¢": 8887,
    "Ġforgotten": 8888,
    "Ġencouragement": 8889,
    "ĠApr": 8890,
    "Ġarena": 8891,
    "Ġridiculous": 8892,
    "Ġboot": 8893,
    "Ġcommunist": 8894,
    "Ġpersonalized": 8895,
    "vis": 8896,
    "Ġglobally": 8897,
    "ĠMalays": 8898,
    "undred": 8899,
    "Ġactivated": 8900,
    "ĠFrances": 8901,
    "ĠMari": 8902,
    "Ġfriendships": 8903,
    "ĠContinue": 8904,
    "ĠBasic": 8905,
    "ĠEV": 8906,
    "male": 8907,
    "Ġlinem": 8908,
    "ĠComplete": 8909,
    "AM": 8910,
    "Ġown": 8911,
    "pe": 8912,
    "32": 8913,
    "Ġhomosexuals": 8914,
    "Donnell": 8915,
    "44": 8916,
    "ĠRena": 8917,
    "ĠImpact": 8918,
    "Ġintroduces": 8919,
    "Bob": 8920,
    "Ġturtle": 8921,
    "oring": 8922,
    "ĠCox": 8923,
    "Ġu": 8924,
    "ĠMike": 8925,
    "Ġinhib": 8926,
    "Ġcalf": 8927,
    "asons": 8928,
    "ĠGi": 8929,
    "ĠFisher": 8930,
    "Ġ1980": 8931,
    "uations": 8932,
    "Ġpublicity": 8933,
    "ĠChamber": 8934,
    "Ġgolden": 8935,
    "ĠChairman": 8936,
    "ograp": 8937,
    "Ġ1933": 8938,
    "Ġrepetition": 8939,
    "Ġyouthful": 8940,
    "Ġdevoid": 8941,
    "Ġengagement": 8942,
    "Ġless": 8943,
    "ederation": 8944,
    "ĠWoody": 8945,
    "asty": 8946,
    "Ġdual": 8947,
    "Ġdoubles": 8948,
    "Äĥ": 8949,
    "Ġexagger": 8950,
    "Ġdrafts": 8951,
    "Ġcautious": 8952,
    "gram": 8953,
    "ĠSeptember": 8954,
    "Ġfounding": 8955,
    "ering": 8956,
    "Ġrefriger": 8957,
    "Mother": 8958,
    "landers": 8959,
    "Feb": 8960,
    "Ġpreceded": 8961,
    "ige": 8962,
    "Ġcompositions": 8963,
    "allah": 8964,
    "ĠCOU": 8965,
    "ordered": 8966,
    "TH": 8967,
    "Ġbaggage": 8968,
    "icked": 8969,
    "Ġreceivers": 8970,
    "Ġranged": 8971,
    "ĠPodcast": 8972,
    "-)": 8973,
    "official": 8974,
    "Ġtrafficking": 8975,
    "arters": 8976,
    "Ġstronger": 8977,
    "Ġreserv": 8978,
    "ĠMonument": 8979,
    "Ġ84": 8980,
    "ĠEllison": 8981,
    "Ġlonger": 8982,
    "Ġcosmic": 8983,
    "sum": 8984,
    "Ġmur": 8985,
    "Ġwired": 8986,
    "Ġcd": 8987,
    "Ġfinishing": 8988,
    "ĠPlus": 8989,
    "ĠCl": 8990,
    "Ġmisdemeanor": 8991,
    "Bo": 8992,
    "ĠTah": 8993,
    "Ġgotta": 8994,
    "Ġnewborn": 8995,
    "mel": 8996,
    "seen": 8997,
    "Ġlimb": 8998,
    "Ġsmile": 8999,
    "Ġherd": 9000,
    "general": 9001,
    "ellow": 9002,
    "Ġregional": 9003,
    "azi": 9004,
    "Ġcou": 9005,
    "Ġhomicide": 9006,
    "Ġsetback": 9007,
    "Ġnoticeably": 9008,
    "ĠMug": 9009,
    "Ġsuburb": 9010,
    "225": 9011,
    "ĠAnything": 9012,
    "ĠTrib": 9013,
    "Ġobsc": 9014,
    "Ġsurveyed": 9015,
    "Ġpages": 9016,
    "label": 9017,
    "Via": 9018,
    "ĠEdison": 9019,
    "harm": 9020,
    "Ġnation": 9021,
    "Sony": 9022,
    "ADVERTIS": 9023,
    "Ġeats": 9024,
    "uding": 9025,
    "Ġfaster": 9026,
    "ĠSex": 9027,
    "Ġdifferently": 9028,
    "Ġintric": 9029,
    "l": 9030,
    ")))": 9031,
    "ĠVirginia": 9032,
    "Ġencouraged": 9033,
    "ĠTe": 9034,
    "Ġbeta": 9035,
    "ĠLaud": 9036,
    "ĠAdding": 9037,
    "chool": 9038,
    "Ġwing": 9039,
    "ĠBrighton": 9040,
    "Ġcholesterol": 9041,
    "Ġounce": 9042,
    "Hist": 9043,
    "Ġblood": 9044,
    "ĠBO": 9045,
    "Ġcrushing": 9046,
    "Ġcolumn": 9047,
    "Ġpine": 9048,
    "ĠHamas": 9049,
    "ĠFaith": 9050,
    "ĠElectronics": 9051,
    "Ġengineered": 9052,
    "Ġlogical": 9053,
    "ĠCertain": 9054,
    "Ġgrowing": 9055,
    "ĠMarkets": 9056,
    "Ġing": 9057,
    "GO": 9058,
    "Ġfighting": 9059,
    "estern": 9060,
    "Ġmissed": 9061,
    "Ġpumps": 9062,
    "OU": 9063,
    "Ġproceeds": 9064,
    "oubted": 9065,
    "Ġhuge": 9066,
    "certain": 9067,
    "ases": 9068,
    "Ġprocessor": 9069,
    "ĠTrue": 9070,
    "åĪ": 9071,
    "ĠClayton": 9072,
    "Ġfacebook": 9073,
    "Ġoptimistic": 9074,
    "Ġcontinuation": 9075,
    "Ġawaiting": 9076,
    "Ġpoles": 9077,
    "Ġinvolves": 9078,
    "Ġfasc": 9079,
    "ent": 9080,
    "ottest": 9081,
    "Ġexecutions": 9082,
    "Ġcruise": 9083,
    "Ġdisciplines": 9084,
    "Ġbalanced": 9085,
    "Monday": 9086,
    "ĠEllis": 9087,
    "Ġconnect": 9088,
    "Ġlod": 9089,
    "ĠEmmy": 9090,
    "Images": 9091,
    "Ġverdict": 9092,
    "Ġpund": 9093,
    "ĠBeacon": 9094,
    "ĪĴ": 9095,
    "Ġits": 9096,
    "Ġstruggles": 9097,
    "IA": 9098,
    "Ġinval": 9099,
    "Ġvulner": 9100,
    "ĠÂĸ": 9101,
    "ĠPalestinians": 9102,
    "Ġimmunity": 9103,
    "ia": 9104,
    "Ġexpedition": 9105,
    "Ġshorts": 9106,
    "8": 9107,
    "ĠWhereas": 9108,
    "Ġeventually": 9109,
    "Ġabandoning": 9110,
    "ĠViv": 9111,
    "Ġhypothesis": 9112,
    "Rod": 9113,
    "ĠEvil": 9114,
    "Ind": 9115,
    "Ġcomprised": 9116,
    "ĠTibet": 9117,
    "Ch": 9118,
    "ĠOpportun": 9119,
    "ocalypse": 9120,
    "Ġdictionary": 9121,
    "Ġrevive": 9122,
    "Ġgreenhouse": 9123,
    "xi": 9124,
    "Ġwholesale": 9125,
    "ET": 9126,
    "ĠExample": 9127,
    "Money": 9128,
    "ails": 9129,
    "ĠNichols": 9130,
    "ĠSwan": 9131,
    "ICT": 9132,
    "Ġvibe": 9133,
    "Ġundeniable": 9134,
    "regn": 9135,
    "USH": 9136,
    "Ġchang": 9137,
    "ĠForest": 9138,
    "Ġjuvenile": 9139,
    "ĠTehran": 9140,
    "Ġded": 9141,
    "Ġingredient": 9142,
    "Ġannoyed": 9143,
    "Ġvessel": 9144,
    "Ġcaveat": 9145,
    "Ġtest": 9146,
    "Ġ69": 9147,
    "ĠEdward": 9148,
    "week": 9149,
    "cium": 9150,
    "Ġprobability": 9151,
    "Ġfascinating": 9152,
    "ball": 9153,
    "Ġcontrols": 9154,
    "-": 9155,
    "question": 9156,
    "ob": 9157,
    "Ġwearing": 9158,
    "Ġdescended": 9159,
    "Ġlibraries": 9160,
    "anic": 9161,
    "Ġweight": 9162,
    "ready": 9163,
    "ĠElections": 9164,
    "isf": 9165,
    "ĠCh": 9166,
    "ĠBoston": 9167,
    "ĠCheney": 9168,
    "ĠSit": 9169,
    "Ġattack": 9170,
    "Ġroster": 9171,
    "ĠFrank": 9172,
    "Ġguys": 9173,
    "UTERS": 9174,
    "Ġ-->": 9175,
    "Ġworst": 9176,
    "[": 9177,
    "ĠARM": 9178,
    "Ġtenth": 9179,
    "Ġmayoral": 9180,
    "Ġmeasure": 9181,
    "ĠLuckily": 9182,
    "ĠEv": 9183,
    "Ġdark": 9184,
    "Ġloopholes": 9185,
    "itch": 9186,
    "Ġmonopol": 9187,
    "Ġburied": 9188,
    "Ġpseud": 9189,
    "Ġprovoked": 9190,
    "Ġfronts": 9191,
    "ĠBCE": 9192,
    "({": 9193,
    "Ġnorthwest": 9194,
    "Ġfinancially": 9195,
    "ĠSyria": 9196,
    "ĠSpin": 9197,
    "Ġpreviously": 9198,
    "Ġsinking": 9199,
    "Ġgreen": 9200,
    "ĠGlobal": 9201,
    "Ġrecogn": 9202,
    "uz": 9203,
    "Ġleaf": 9204,
    "Ġdrummer": 9205,
    "Investigators": 9206,
    "Ġbribes": 9207,
    "Ġworkout": 9208,
    "ĠSag": 9209,
    "ranking": 9210,
    "super": 9211,
    "positive": 9212,
    "ilight": 9213,
    "ĠLion": 9214,
    "Ġdisclosed": 9215,
    "IGHT": 9216,
    "ĠConc": 9217,
    "agogue": 9218,
    "Ġhealthier": 9219,
    "ĠNW": 9220,
    "Ġguts": 9221,
    "Ø§ÙĦ": 9222,
    "anged": 9223,
    "ĠÃĸ": 9224,
    "Authorities": 9225,
    "ĠMalcolm": 9226,
    "Ġasthma": 9227,
    "At": 9228,
    "acerb": 9229,
    "Ġmonkey": 9230,
    "Ret": 9231,
    "ĠPetersburg": 9232,
    "Ġprecedent": 9233,
    "Ġliquor": 9234,
    "ĠAmeric": 9235,
    "gorith": 9236,
    "Ġrespond": 9237,
    "Ġobsess": 9238,
    "ĠSol": 9239,
    "Ġ{\\": 9240,
    "ainer": 9241,
    "ĠShane": 9242,
    "Ġintuition": 9243,
    "Ġcognition": 9244,
    "isco": 9245,
    "ĠNinja": 9246,
    "ĠiOS": 9247,
    "Ġappar": 9248,
    "Date": 9249,
    "Ġlobby": 9250,
    "Ġvoluntarily": 9251,
    "Ġnicknamed": 9252,
    "ĠML": 9253,
    "750": 9254,
    "ĠNorthwestern": 9255,
    "Ġgeographical": 9256,
    "obb": 9257,
    "Ġadvocated": 9258,
    "Ġwait": 9259,
    "gaard": 9260,
    "Ġtyp": 9261,
    "Ġexpecting": 9262,
    "ĠF": 9263,
    "ĠBowl": 9264,
    "ĠMong": 9265,
    "ĠHeather": 9266,
    "Ġreducing": 9267,
    "Ġfuzzy": 9268,
    "Ġupdate": 9269,
    "Ġliver": 9270,
    "Ġasylum": 9271,
    "Ġintervals": 9272,
    "rc": 9273,
    "Ġconsistently": 9274,
    "Ġrep": 9275,
    "ĠArt": 9276,
    "icient": 9277,
    "Ġsquirrel": 9278,
    "utenant": 9279,
    "ĠRPG": 9280,
    "ĠThanks": 9281,
    "ĠJeffrey": 9282,
    "====": 9283,
    "Use": 9284,
    "Ġadulthood": 9285,
    "Ġopted": 9286,
    "Ġcritical": 9287,
    "Ġstip": 9288,
    "ĠImport": 9289,
    "umn": 9290,
    "ĠWestbrook": 9291,
    "Cast": 9292,
    "Ġscrew": 9293,
    "Friday": 9294,
    "Ġpayroll": 9295,
    "Ġref": 9296,
    "Ġcolonies": 9297,
    "ĠWu": 9298,
    "Ġclues": 9299,
    "Ġsizable": 9300,
    "ĠBh": 9301,
    "Ġessential": 9302,
    "âĻ": 9303,
    "Ġcu": 9304,
    "Ġbilled": 9305,
    "ĠCounsel": 9306,
    "ĠDebor": 9307,
    "Ġfraught": 9308,
    "Ġfairy": 9309,
    "ĠEngland": 9310,
    "Ġsea": 9311,
    "Ġpresumed": 9312,
    "numbered": 9313,
    "2006": 9314,
    "ĠØ§ÙĦ": 9315,
    "Ġsquat": 9316,
    "Ġsmart": 9317,
    "ĠÑĤ": 9318,
    "ĠAntar": 9319,
    "osta": 9320,
    "WH": 9321,
    "Ġgambling": 9322,
    "educated": 9323,
    "kay": 9324,
    "bot": 9325,
    "Ġvinegar": 9326,
    "Ġconditions": 9327,
    "otally": 9328,
    "designed": 9329,
    "Ġabuse": 9330,
    "dney": 9331,
    "Ġtemplate": 9332,
    "Ġadopting": 9333,
    "ĠACA": 9334,
    "baum": 9335,
    "Ġloyalty": 9336,
    "ĠMarin": 9337,
    "ptions": 9338,
    "FL": 9339,
    "Gl": 9340,
    "Ġboundary": 9341,
    "ĠEmployment": 9342,
    "Ġmurd": 9343,
    "iser": 9344,
    "Ġaffirmative": 9345,
    "where": 9346,
    "ĠNL": 9347,
    "Ġshowc": 9348,
    "Ġthings": 9349,
    "ĠJamie": 9350,
    "Ġlikewise": 9351,
    "nders": 9352,
    "Ġdeeper": 9353,
    "za": 9354,
    "Ġintercept": 9355,
    "Tele": 9356,
    "Ġdetain": 9357,
    "Ġimplications": 9358,
    "Ġ1914": 9359,
    "Video": 9360,
    "Ġmotivate": 9361,
    "Ġsquash": 9362,
    "host": 9363,
    "Ġexplain": 9364,
    "Ġpurpose": 9365,
    "Ġ1929": 9366,
    "ĠMinister": 9367,
    "Ġchart": 9368,
    "oyle": 9369,
    "Ġbyte": 9370,
    "ude": 9371,
    "dependent": 9372,
    "ĠBas": 9373,
    "random": 9374,
    "ĠBever": 9375,
    "ĠGrimm": 9376,
    "ups": 9377,
    "arch": 9378,
    "ĠCologne": 9379,
    "Ġsever": 9380,
    "Ġ\"/": 9381,
    "hen": 9382,
    "free": 9383,
    "Ġgraphene": 9384,
    "Ġassistant": 9385,
    "Ġstd": 9386,
    "berg": 9387,
    "cess": 9388,
    "ĠBl": 9389,
    "Ġfries": 9390,
    "Ġbadly": 9391,
    "ĠÅ": 9392,
    "ĠAnimal": 9393,
    "Ġlandl": 9394,
    "ĠCold": 9395,
    "119": 9396,
    "Ġceiling": 9397,
    "FT": 9398,
    "Ġgoof": 9399,
    "Ġhide": 9400,
    "ĠBelarus": 9401,
    "ĠRetail": 9402,
    "Ġqual": 9403,
    "ĠSe": 9404,
    "Ġpassword": 9405,
    "ampire": 9406,
    "Ġmotives": 9407,
    "production": 9408,
    "ĠFargo": 9409,
    "rief": 9410,
    "ĠRound": 9411,
    "Oper": 9412,
    "Ġnear": 9413,
    "Ġconvin": 9414,
    "Dev": 9415,
    "Ġenerget": 9416,
    "ĠBuffett": 9417,
    "Ġpatrons": 9418,
    "Europe": 9419,
    "Ġremn": 9420,
    "Ġslaughtered": 9421,
    "ĠHarris": 9422,
    "ullivan": 9423,
    "Ġdich": 9424,
    "ĠPick": 9425,
    "Ġgly": 9426,
    "izons": 9427,
    "APP": 9428,
    "Ġadd": 9429,
    "Ġaudio": 9430,
    "ĠArchive": 9431,
    "ĠKier": 9432,
    "ĠHew": 9433,
    "Ġindustrial": 9434,
    "Ġbegan": 9435,
    "vity": 9436,
    "ĠWater": 9437,
    "org": 9438,
    "Ġyards": 9439,
    "Ġpublisher": 9440,
    "Ġupset": 9441,
    "Ġclashed": 9442,
    "Ġdisagrees": 9443,
    "ĠSacramento": 9444,
    "Ġpassenger": 9445,
    "Ġcirculating": 9446,
    "ĠDetroit": 9447,
    "array": 9448,
    "ĠðŁ": 9449,
    "Ġhistor": 9450,
    "Ġhurricanes": 9451,
    "Ġspat": 9452,
    "Work": 9453,
    "cedented": 9454,
    "Ġimpending": 9455,
    "ĠBA": 9456,
    "Ġskyrock": 9457,
    "usa": 9458,
    "Ġcitizen": 9459,
    "closure": 9460,
    "ighter": 9461,
    "Ġidentify": 9462,
    "Ġconvened": 9463,
    "ĠMov": 9464,
    "Ġquantitative": 9465,
    "Ġenjoyment": 9466,
    "ĠKh": 9467,
    "ĠLin": 9468,
    "Ġgods": 9469,
    "ĠMatthews": 9470,
    "July": 9471,
    "Ġconcer": 9472,
    "Ġachieve": 9473,
    "Wait": 9474,
    "Ġexch": 9475,
    "ogens": 9476,
    "ĠPhoto": 9477,
    "Wolf": 9478,
    "ahan": 9479,
    "Ġtherap": 9480,
    "\"),": 9481,
    "Ġleaks": 9482,
    "ĠLevy": 9483,
    "Ġdemocratic": 9484,
    "Queen": 9485,
    "Ġthirty": 9486,
    "Ġamount": 9487,
    "Ġcheat": 9488,
    "Ġexcel": 9489,
    "Ġdup": 9490,
    "Ġsurely": 9491,
    "welling": 9492,
    "match": 9493,
    "ÃĥÃĤÃĥÃĤÃĥÃĤÃĥÃĤ": 9494,
    "Ġstopping": 9495,
    "Ġcousins": 9496,
    "Ġsailed": 9497,
    "Ġveto": 9498,
    "Ġinter": 9499,
    "ha": 9500,
    "ĠAshe": 9501,
    "atlantic": 9502,
    "shaped": 9503,
    "Ġmad": 9504,
    "Ġrenting": 9505,
    "idden": 9506,
    "Romney": 9507,
    "Ġwhe": 9508,
    "tle": 9509,
    "teenth": 9510,
    "Land": 9511,
    "hib": 9512,
    "alt": 9513,
    "ema": 9514,
    "Ġsubstit": 9515,
    "Ġendorsement": 9516,
    "ĠPrison": 9517,
    "verett": 9518,
    "rik": 9519,
    "Ġgl": 9520,
    "Bad": 9521,
    "Ġstudying": 9522,
    "Water": 9523,
    "Ġpending": 9524,
    "Prince": 9525,
    "ĠSoros": 9526,
    "leep": 9527,
    "close": 9528,
    "illa": 9529,
    "Ġfilibuster": 9530,
    "Ġchimpanz": 9531,
    "ĠJays": 9532,
    "Ġmanga": 9533,
    "ĠContract": 9534,
    "Ġleaves": 9535,
    "Ġrefres": 9536,
    "gt": 9537,
    "RES": 9538,
    "mun": 9539,
    "ĠBrussels": 9540,
    "ĠPy": 9541,
    "Ġwealth": 9542,
    "finals": 9543,
    "player": 9544,
    "Ġduel": 9545,
    "Ġswitches": 9546,
    "ascular": 9547,
    "enses": 9548,
    "itime": 9549,
    "Ġextremely": 9550,
    "Ultimately": 9551,
    "john": 9552,
    "ostic": 9553,
    "Ġneon": 9554,
    "Ġvaluable": 9555,
    "Outside": 9556,
    "claimed": 9557,
    "fulness": 9558,
    "ricks": 9559,
    "ĠThank": 9560,
    "ĠConsider": 9561,
    "AGE": 9562,
    "Ġperformed": 9563,
    "isition": 9564,
    "omi": 9565,
    "ëĭ": 9566,
    "Ġcrafting": 9567,
    "Ġsore": 9568,
    "Ġsum": 9569,
    "constitutional": 9570,
    "Ġdelicate": 9571,
    "It": 9572,
    "Ġalpha": 9573,
    "ĠShaw": 9574,
    "Ġimmoral": 9575,
    "aying": 9576,
    "ĠComcast": 9577,
    "uting": 9578,
    "Ġaccusing": 9579,
    "Ġnic": 9580,
    "¸": 9581,
    "ĠCorporate": 9582,
    "ĠReligious": 9583,
    "Ġcivilization": 9584,
    "Ġappend": 9585,
    "Ġlyn": 9586,
    "mn": 9587,
    "Ġstresses": 9588,
    "Ġsap": 9589,
    "Ġrider": 9590,
    "Ġresistant": 9591,
    "ĠShore": 9592,
    "Ġconditional": 9593,
    "save": 9594,
    "Ġdetermining": 9595,
    "ĠCoke": 9596,
    "ĠCelsius": 9597,
    "28": 9598,
    "âĢ": 9599,
    "Ġcoun": 9600,
    "Product": 9601,
    "Ġbreaches": 9602,
    "Ġsupremacists": 9603,
    "Ġchassis": 9604,
    "Ġplatforms": 9605,
    "Ġdomain": 9606,
    "Ġgrip": 9607,
    "Ġraised": 9608,
    "obile": 9609,
    "resent": 9610,
    "ĠPhoenix": 9611,
    "Ġbugs": 9612,
    "ĠFr": 9613,
    "ĠIreland": 9614,
    "Ġquestioned": 9615,
    "Ġgunman": 9616,
    "ĠNortheast": 9617,
    "ĠAustrian": 9618,
    "arth": 9619,
    "Ġprotocol": 9620,
    "amac": 9621,
    "Ġacqu": 9622,
    "Ġfost": 9623,
    "heading": 9624,
    "Ġprecise": 9625,
    "Ġeurozone": 9626,
    "Ġsleeves": 9627,
    "ÂŃ": 9628,
    "Ġtutorials": 9629,
    "sound": 9630,
    "ĠKey": 9631,
    "ĠMcMahon": 9632,
    "Ġautonomy": 9633,
    "Ġrings": 9634,
    "defense": 9635,
    "ĠOttoman": 9636,
    "ĠWestminster": 9637,
    "orted": 9638,
    "39": 9639,
    "Ġprovider": 9640,
    "Ġdistinguished": 9641,
    "Please": 9642,
    "ora": 9643,
    "Ġinsiders": 9644,
    "Ġmembers": 9645,
    "ĠAction": 9646,
    "Ġbaking": 9647,
    "Ġcav": 9648,
    "Ġowners": 9649,
    "oneliness": 9650,
    "Ġscans": 9651,
    "ĠAssessment": 9652,
    "Ġencourage": 9653,
    "Ġfestival": 9654,
    "Ġbattalion": 9655,
    "Ġreperc": 9656,
    "urally": 9657,
    "atural": 9658,
    "Ġspecial": 9659,
    "ĠArmy": 9660,
    "Ð¾Ð¹": 9661,
    "Ġclos": 9662,
    "Ġappl": 9663,
    "ĠAPIs": 9664,
    "80": 9665,
    "ĠLuis": 9666,
    "ĠCourtesy": 9667,
    "arel": 9668,
    "ĠMet": 9669,
    "Ġwhereas": 9670,
    "Ġgel": 9671,
    "cision": 9672,
    "ĠNoah": 9673,
    "Ġannounces": 9674,
    "accessible": 9675,
    "Ġrefer": 9676,
    "Ġvary": 9677,
    "rimp": 9678,
    "Ġforms": 9679,
    "ĠKash": 9680,
    "ggy": 9681,
    "ĠKlopp": 9682,
    "ī": 9683,
    "Ġpersisted": 9684,
    "itate": 9685,
    "ĠContent": 9686,
    "ĠTheory": 9687,
    "Ġappet": 9688,
    "Ġeconomies": 9689,
    "Ġcloud": 9690,
    "Ġjets": 9691,
    "ĠGor": 9692,
    "Ġcancellation": 9693,
    "ĠSnyder": 9694,
    "Ġwhom": 9695,
    "ĠSter": 9696,
    "ĠSounders": 9697,
    "Ser": 9698,
    "soever": 9699,
    "Ġaggression": 9700,
    "weight": 9701,
    "Ġspouse": 9702,
    "ĠPubl": 9703,
    "ission": 9704,
    "fair": 9705,
    "ĠX": 9706,
    "swick": 9707,
    "while": 9708,
    "river": 9709,
    "ĠDuc": 9710,
    "arrow": 9711,
    "Ġhook": 9712,
    "Alex": 9713,
    "ĠProgram": 9714,
    "Ġcongreg": 9715,
    "Ġparas": 9716,
    "ĠBench": 9717,
    "Ġthat": 9718,
    "ĠSQL": 9719,
    "Times": 9720,
    "ĠReport": 9721,
    "pack": 9722,
    "ĠKaf": 9723,
    "ĠDesign": 9724,
    "ĠRelations": 9725,
    "Ġinsure": 9726,
    "iki": 9727,
    "DD": 9728,
    "ĠGan": 9729,
    "Ġ>": 9730,
    "ĠArk": 9731,
    "Ġspectrum": 9732,
    "Ġhurts": 9733,
    "ĠBoyle": 9734,
    "haul": 9735,
    "dy": 9736,
    "Ġupdated": 9737,
    "Ġequ": 9738,
    "ĠDC": 9739,
    "Ġspinal": 9740,
    "Ġartifacts": 9741,
    "imer": 9742,
    "Ġn": 9743,
    "2016": 9744,
    "Ġcomprising": 9745,
    "ioxide": 9746,
    "Air": 9747,
    "Ġairline": 9748,
    "onel": 9749,
    "ols": 9750,
    "Ġdo": 9751,
    "profile": 9752,
    "And": 9753,
    "Ġsilk": 9754,
    "ĠSupporters": 9755,
    "Ġtrials": 9756,
    "ql": 9757,
    "Ġmillion": 9758,
    "Ġutterly": 9759,
    "đ": 9760,
    "Ġexecuting": 9761,
    "achi": 9762,
    "ĠCarson": 9763,
    "Eight": 9764,
    "Ġcancers": 9765,
    "ĠArabic": 9766,
    "Ġdoubt": 9767,
    "ĠUsed": 9768,
    "irty": 9769,
    "ĠBlvd": 9770,
    "Ġdangerous": 9771,
    "ĠHungarian": 9772,
    "Republic": 9773,
    "Ġthrows": 9774,
    "Ġce": 9775,
    "ĠAnalytics": 9776,
    "Ġproductivity": 9777,
    "Ġfirearms": 9778,
    "entin": 9779,
    "Ġá": 9780,
    "VER": 9781,
    "Ġbanned": 9782,
    "seek": 9783,
    "ipher": 9784,
    "Ġagendas": 9785,
    "ĠQ": 9786,
    "Ġdegr": 9787,
    "Ġlocally": 9788,
    "duty": 9789,
    "Ġcontrovers": 9790,
    "object": 9791,
    "ĠMiy": 9792,
    "amous": 9793,
    "dd": 9794,
    "fires": 9795,
    "Ġseparately": 9796,
    "Ġtagged": 9797,
    "ivered": 9798,
    "Ġbenef": 9799,
    "Ġsits": 9800,
    "roid": 9801,
    "hetamine": 9802,
    "Ġclearing": 9803,
    "Ġhorrified": 9804,
    "ets": 9805,
    "âĢĿ?": 9806,
    "ciples": 9807,
    "Ġexpon": 9808,
    "ĠNolan": 9809,
    "types": 9810,
    "Ġprofess": 9811,
    "ĠIdent": 9812,
    "ĠChild": 9813,
    "ĠNash": 9814,
    "Ġstruggled": 9815,
    "Camp": 9816,
    "ĠFC": 9817,
    "Ġworries": 9818,
    "ĠTr": 9819,
    "har": 9820,
    "Ġmethodology": 9821,
    "Ġnumber": 9822,
    "Ġcleaned": 9823,
    "ĠAustral": 9824,
    "uper": 9825,
    "Ġclosures": 9826,
    "Ä«": 9827,
    "riel": 9828,
    "ĠLI": 9829,
    "Ġsuscept": 9830,
    "Ġthreads": 9831,
    "Ġarchaeologists": 9832,
    "Ġdetailing": 9833,
    "itimate": 9834,
    "Ġwhilst": 9835,
    "ĠTom": 9836,
    "ĠEverything": 9837,
    "ĠSimply": 9838,
    "Ġtrig": 9839,
    "Ġslaughter": 9840,
    "Ġintellig": 9841,
    "ĠHaw": 9842,
    "Ġumbrella": 9843,
    "Ġrescued": 9844,
    "SE": 9845,
    "Ã©d": 9846,
    "ĠPrem": 9847,
    "Ġ].": 9848,
    "Ġcarn": 9849,
    "aments": 9850,
    "AME": 9851,
    "ĠPrint": 9852,
    "Ġswinging": 9853,
    "Ġabundant": 9854,
    "Ġpure": 9855,
    "Ġcycl": 9856,
    "Ġfrank": 9857,
    "ĠTimothy": 9858,
    "Ġembarrassment": 9859,
    "imeters": 9860,
    "Ġpoint": 9861,
    "Ġestimates": 9862,
    "Ġhonestly": 9863,
    "ĠRico": 9864,
    "âĢĿ),": 9865,
    "ĠStatistics": 9866,
    "ĠRex": 9867,
    "manuel": 9868,
    "âĢĻ.": 9869,
    "Ġdisintegr": 9870,
    "Ġcivilian": 9871,
    "Ġdisciplinary": 9872,
[...]
