{
    "Ġlibrary": 0,
    "Ġillustrates": 1,
    "Ġmembership": 2,
    "Ġpersons": 3,
    "ĠFilms": 4,
    "ĠMoz": 5,
    "Ġregulating": 6,
    "Chris": 7,
    "British": 8,
    "Ġbru": 9,
    "ĠCompar": 10,
    "Ġitem": 11,
    "Ġlimitations": 12,
    "Ġpenn": 13,
    "Ġthrow": 14,
    "ĠHew": 15,
    "Ġgn": 16,
    "Copyright": 17,
    "ĠBald": 18,
    "ĠEp": 19,
    "raper": 20,
    "Ġpose": 21,
    "Ġexcessive": 22,
    "Ġqueer": 23,
    "Ġcro": 24,
    "Ġcub": 25,
    "ĠJohnny": 26,
    "Ġfiat": 27,
    "Ġknot": 28,
    "ĠEntry": 29,
    "ĠArs": 30,
    "ĠRanger": 31,
    "Ġleader": 32,
    "Ġescalated": 33,
    "Ġfictional": 34,
    "Ġfeatures": 35,
    "Ġinterrupt": 36,
    "ĠIPCC": 37,
    "artz": 38,
    "Ġdownstream": 39,
    "Ġappliances": 40,
    "Ġtired": 41,
    "chemical": 42,
    "Ġmaps": 43,
    "Ġ1977": 44,
    "Ġconditional": 45,
    "ĠConnect": 46,
    "ĠSimon": 47,
    "uccess": 48,
    "Ġassists": 49,
    "Ġremove": 50,
    "Ġpayroll": 51,
    "cht": 52,
    "Ġneck": 53,
    "aca": 54,
    "Ġunfolded": 55,
    "Ġphotos": 56,
    "Ġwind": 57,
    "ĠGri": 58,
    "Ġlapt": 59,
    "Ġindec": 60,
    "Ġrallies": 61,
    "etheless": 62,
    "Ġtraged": 63,
    "Ġencouraged": 64,
    "Ġassisting": 65,
    "Ġ55": 66,
    "ĠLamp": 67,
    "Ġadvent": 68,
    "ĠCanadians": 69,
    "essed": 70,
    "Ġusable": 71,
    "ĠNoble": 72,
    "Ġcontext": 73,
    "Ġpersonnel": 74,
    "Ġpopulist": 75,
    "iga": 76,
    "ĠGreen": 77,
    "Ġrats": 78,
    "ĠSharma": 79,
    "Ġunden": 80,
    "Ġquir": 81,
    "ĠLite": 82,
    "Ġintimate": 83,
    "ĠTrafford": 84,
    "ĠSept": 85,
    "Ġweed": 86,
    "steps": 87,
    "Ġwhispered": 88,
    "Ġreferee": 89,
    "Ġshoulders": 90,
    "Ġintr": 91,
    "ĠGrill": 92,
    "ĠSpider": 93,
    "Ġ138": 94,
    "Ġinvestment": 95,
    "ĠPS": 96,
    "ĠGat": 97,
    "Ġ0": 98,
    "Sarah": 99,
    "Ġconsole": 100,
    "ĠLaur": 101,
    "ĠPlains": 102,
    "ec": 103,
    "ĠClinic": 104,
    "ahu": 105,
    "senal": 106,
    "Similar": 107,
    "Ġbold": 108,
    "Ġalive": 109,
    "Ġspecialists": 110,
    "Ġvulnerabilities": 111,
    "Ġprogressives": 112,
    "Ġincreased": 113,
    "rived": 114,
    "displaystyle": 115,
    "abulary": 116,
    "ulse": 117,
    "ugged": 118,
    "Ġblasted": 119,
    "olden": 120,
    "Ġconsistently": 121,
    "osc": 122,
    "Ġcontacting": 123,
    "Ġshouldn": 124,
    "usra": 125,
    "ossibly": 126,
    "Ġnavigate": 127,
    "Ġperiodically": 128,
    "ILE": 129,
    "Ġflashing": 130,
    "Shell": 131,
    "eddy": 132,
    "Ġencount": 133,
    "enge": 134,
    "hab": 135,
    "ohyd": 136,
    "Ġmoms": 137,
    "ounty": 138,
    "Ġwounds": 139,
    "Ġderivatives": 140,
    "Ġtests": 141,
    "amples": 142,
    "Ġpro": 143,
    "ATCH": 144,
    "Ġwise": 145,
    "Ġscenarios": 146,
    "Ġball": 147,
    "oint": 148,
    "Ġtablet": 149,
    "ĠSpe": 150,
    "Ġhomicides": 151,
    "isible": 152,
    "Ġgardens": 153,
    "content": 154,
    "ila": 155,
    "itime": 156,
    "gger": 157,
    "ĠTas": 158,
    "Ġcommunication": 159,
    "Ġcites": 160,
    "ĠSpec": 161,
    "sexual": 162,
    "ĠSox": 163,
    "onial": 164,
    "Ġunited": 165,
    "Ġlocations": 166,
    "Ġrural": 167,
    "ojure": 168,
    "ĠAbdel": 169,
    "ĠTwin": 170,
    "ps": 171,
    "perm": 172,
    "ĠOp": 173,
    "Ġtweeting": 174,
    "Ġnatural": 175,
    "Ġprogress": 176,
    "Ãī": 177,
    "Ġchoice": 178,
    "ĠTur": 179,
    "ĠComcast": 180,
    "Ġinadequate": 181,
    "Ġavoided": 182,
    "ln": 183,
    "ĠHur": 184,
    "ĠTier": 185,
    "ĠEX": 186,
    "Ġscientifically": 187,
    "Ġthief": 188,
    "Ġatheism": 189,
    "hour": 190,
    "Ġliberal": 191,
    "îĢ": 192,
    "Ġridic": 193,
    "Ġwrestling": 194,
    "ĠBond": 195,
    "Ġimpacted": 196,
    "omo": 197,
    "Ġfills": 198,
    "Fans": 199,
    "ĠGrade": 200,
    "Ġflood": 201,
    "rote": 202,
    "ĠAfrica": 203,
    "Ġanimal": 204,
    "Ġterror": 205,
    "notes": 206,
    "iation": 207,
    "ĠOnce": 208,
    "Ġirregular": 209,
    "Ġinflict": 210,
    "reatment": 211,
    "Ġheterosexual": 212,
    "Ġpolish": 213,
    "Ġsuffering": 214,
    "oka": 215,
    "Ġan": 216,
    "ĠNate": 217,
    "Ġsticker": 218,
    "ĠImperial": 219,
    "Ġhadn": 220,
    "ĠWeapon": 221,
    "roots": 222,
    "Jay": 223,
    "generated": 224,
    "ĠGR": 225,
    "Ġdescribes": 226,
    "Ð·": 227,
    "Ġdrink": 228,
    "dist": 229,
    "afia": 230,
    "ĠCO": 231,
    "Ġindepend": 232,
    "Ġhint": 233,
    "Ġteac": 234,
    "stay": 235,
    "Ġprose": 236,
    "dit": 237,
    "ĠJoint": 238,
    "ĠLowe": 239,
    "holes": 240,
    "Ġsubpoena": 241,
    "ĠMIN": 242,
    "Ġcooking": 243,
    "Research": 244,
    "vin": 245,
    "regn": 246,
    "Ġ145": 247,
    "Ġke": 248,
    "Ġmerits": 249,
    "Ġuphe": 250,
    "equ": 251,
    "ĠViol": 252,
    "otion": 253,
    "ĠFund": 254,
    "rne": 255,
    "Ġfinalized": 256,
    "ĠEqual": 257,
    "ĠKore": 258,
    "Ġventure": 259,
    "ĠBengals": 260,
    "ume": 261,
    "tingu": 262,
    "Ġpolite": 263,
    "âķ": 264,
    "Ġnever": 265,
    "Ġbothered": 266,
    "ĠLook": 267,
    "event": 268,
    "ĠBronx": 269,
    "Ġsavage": 270,
    "Ġreef": 271,
    "Roll": 272,
    "oggle": 273,
    "Ġoverturn": 274,
    "undred": 275,
    "Ġplants": 276,
    "ĠSew": 277,
    "ĠCorn": 278,
    "ructive": 279,
    "Ġcareers": 280,
    "ĠLess": 281,
    "ĠSN": 282,
    "creat": 283,
    "ide": 284,
    "Ġarts": 285,
    "should": 286,
    "fund": 287,
    "ĠArnold": 288,
    "resp": 289,
    "antically": 290,
    "ka": 291,
    "Ġhurting": 292,
    "ĠSing": 293,
    "Ġrecognise": 294,
    "aciÃ³n": 295,
    "uls": 296,
    "ĠEd": 297,
    "braska": 298,
    "oche": 299,
    "Ġproductivity": 300,
    "ĠBeg": 301,
    "the": 302,
    "outing": 303,
    "ont": 304,
    "next": 305,
    "rolog": 306,
    "Red": 307,
    "Ġmix": 308,
    "tar": 309,
    "ĠWhites": 310,
    "Ġdisclosure": 311,
    "Ġgentleman": 312,
    "Ġinevitably": 313,
    "ĠAdvanced": 314,
    "ĠSwed": 315,
    "pa": 316,
    "Ġdividend": 317,
    "ĠProducts": 318,
    "Ġtry": 319,
    "Ġbreadth": 320,
    "exp": 321,
    "Ġintact": 322,
    "Ġphysic": 323,
    "Their": 324,
    "ician": 325,
    "Ġhttps": 326,
    "rowd": 327,
    "ãģ¨": 328,
    "eremy": 329,
    "kish": 330,
    "reland": 331,
    "Ġconcern": 332,
    "Ġlandsc": 333,
    "Ġdishonest": 334,
    "Ġcage": 335,
    "Ġdumped": 336,
    "Ġreaff": 337,
    "Sk": 338,
    "Ġrenown": 339,
    "Type": 340,
    "Ġund": 341,
    "Mad": 342,
    "Ġintimidation": 343,
    "Ġsophomore": 344,
    "Ġpairing": 345,
    "erences": 346,
    "ĠShadow": 347,
    "ĠBitcoin": 348,
    "Ġbrilliance": 349,
    "Ġentered": 350,
    "Ġwriters": 351,
    "Ġgrass": 352,
    "ĠPar": 353,
    "nine": 354,
    "ĠLos": 355,
    ",'": 356,
    "Ġe": 357,
    "ala": 358,
    "Ġfurious": 359,
    "Ġarchaeological": 360,
    "Ġterms": 361,
    "Ġthinkers": 362,
    "inct": 363,
    "Ġdecent": 364,
    "owler": 365,
    "ems": 366,
    "Ġcorro": 367,
    "¤": 368,
    "ĠChrys": 369,
    "Ġassurances": 370,
    "Mark": 371,
    "ESS": 372,
    "ktop": 373,
    "Ġpossession": 374,
    "Ġscrut": 375,
    "Ġintolerance": 376,
    "Ġconv": 377,
    "ographics": 378,
    "rates": 379,
    "Ġenhancing": 380,
    "Ġcaptivity": 381,
    "ays": 382,
    "direct": 383,
    "Ġdeployment": 384,
    "Ġchain": 385,
    "three": 386,
    "ĠAHL": 387,
    "Ġfriction": 388,
    "ol": 389,
    "ĠPipeline": 390,
    "cil": 391,
    "ousse": 392,
    "Today": 393,
    "////": 394,
    "Ġcamps": 395,
    "profile": 396,
    "Ġwarnings": 397,
    "Ġlogos": 398,
    "ĠBern": 399,
    "ĠBroncos": 400,
    "Ġunderstandably": 401,
    "ĠVital": 402,
    "Ġsen": 403,
    "ĠEnter": 404,
    "Inter": 405,
    "utes": 406,
    "ĠRobb": 407,
    "ĠChick": 408,
    "Ġslogans": 409,
    "Ġordinance": 410,
    "fax": 411,
    "Ġhowever": 412,
    "fully": 413,
    "aternity": 414,
    "cyclop": 415,
    "ĠOslo": 416,
    "now": 417,
    "ĠProjects": 418,
    "ips": 419,
    "ĠMight": 420,
    "Ġadvocating": 421,
    "ĠMaking": 422,
    "oping": 423,
    "ĠInitially": 424,
    "Ġpass": 425,
    "ĠOtto": 426,
    "oo": 427,
    "Ġdigital": 428,
    "opathy": 429,
    "Ġaddicted": 430,
    "Police": 431,
    "Ġbarely": 432,
    "ceived": 433,
    "Republicans": 434,
    "ĠHon": 435,
    "Andrew": 436,
    "Ġoffering": 437,
    "ĠAchie": 438,
    "Release": 439,
    "ĠLew": 440,
    "bable": 441,
    "Ġwreckage": 442,
    "Ġprofoundly": 443,
    "Ġcholesterol": 444,
    "Ġanticipate": 445,
    "ĠVegan": 446,
    "rought": 447,
    "Play": 448,
    "ĠBlocked": 449,
    "Ġorders": 450,
    "Ġreper": 451,
    "Ġdisintegr": 452,
    "Ġgarbage": 453,
    "Ġtargeted": 454,
    "Ġcommit": 455,
    "Ġaccelerated": 456,
    "Ġconfiscated": 457,
    "ackets": 458,
    "ĠRadio": 459,
    "William": 460,
    "tale": 461,
    "enas": 462,
    "ĠTray": 463,
    "âĢĵâĢĵ": 464,
    "ona": 465,
    "Ġcraft": 466,
    "Ġsculpture": 467,
    "ĠLast": 468,
    "ĠHorn": 469,
    "ratory": 470,
    "Ġfighters": 471,
    "55": 472,
    "Ġnominated": 473,
    "Ġdoor": 474,
    "ĠChairman": 475,
    "ĠWestern": 476,
    "ixt": 477,
    "ĠSquare": 478,
    "Ġng": 479,
    "Ġmagic": 480,
    "ĠRic": 481,
    "Ġbeginnings": 482,
    "ĠLL": 483,
    "ĠSpike": 484,
    "Ġfifty": 485,
    "lt": 486,
    "Ġintrusion": 487,
    "Ġadded": 488,
    "ĠCA": 489,
    "Two": 490,
    "ĠNYC": 491,
    "Ġconstructing": 492,
    "Ġcoating": 493,
    "serious": 494,
    "ĠMount": 495,
    "ordinate": 496,
    "MG": 497,
    "ĠGorsuch": 498,
    "Ġcoffin": 499,
    "Ġsubstant": 500,
    "idelines": 501,
    "Bs": 502,
    "Ġfiring": 503,
    "pit": 504,
    "Ġindustrial": 505,
    "ĠTimes": 506,
    "ensions": 507,
    "Ġreiter": 508,
    "ĠO": 509,
    "making": 510,
    "hew": 511,
    "Ġaddiction": 512,
    "eur": 513,
    "east": 514,
    "Ġpubl": 515,
    "Ġstro": 516,
    "Ġnetworking": 517,
    "Ġdiving": 518,
    "pect": 519,
    "David": 520,
    "_{": 521,
    "Ġsubur": 522,
    "Ġmankind": 523,
    "Ġnoticeably": 524,
    "Ġcollectors": 525,
    "iam": 526,
    "Ġteaser": 527,
    "ishable": 528,
    "Based": 529,
    "Ġ199": 530,
    "Ġcounterpart": 531,
    "Ġdefeating": 532,
    "Ġvelocity": 533,
    "ĠManafort": 534,
    "Ġdive": 535,
    "Ġspam": 536,
    "ĠThrones": 537,
    "Ġfading": 538,
    "Ġcoast": 539,
    "ĠGaddafi": 540,
    "Imp": 541,
    "Ġparanoid": 542,
    "Ġdiscrimin": 543,
    "Ġstarred": 544,
    "Ġpackets": 545,
    "Ġsuc": 546,
    "Ġharmed": 547,
    "Ġformer": 548,
    "Ġeco": 549,
    "+": 550,
    "Ġcreations": 551,
    "Ġprone": 552,
    "Ġoriginal": 553,
    "Jackson": 554,
    "ĠApplication": 555,
    "ct": 556,
    "Ġdesc": 557,
    "Wall": 558,
    "....": 559,
    "ree": 560,
    "Ġignores": 561,
    "Ġsounds": 562,
    "Ġsoutheast": 563,
    "Ġslaughtered": 564,
    "large": 565,
    "Ġcarpet": 566,
    "Ġ#": 567,
    "witch": 568,
    "For": 569,
    "ĠHalf": 570,
    "ĠYouth": 571,
    "pic": 572,
    "Ġunlocked": 573,
    "Ġuneven": 574,
    "acial": 575,
    "Ġpremiums": 576,
    "Ġcorresponding": 577,
    "incinn": 578,
    "Grand": 579,
    "ĠPam": 580,
    "Ġunilateral": 581,
    "Ġceremon": 582,
    "Ġsoccer": 583,
    "isexual": 584,
    "hr": 585,
    "his": 586,
    "ĠJer": 587,
    "Ġnearest": 588,
    "Ġborough": 589,
    "Ġneat": 590,
    "Ġ1986": 591,
    "31": 592,
    "125": 593,
    "ENS": 594,
    "Jason": 595,
    "Ġghost": 596,
    "Ġindicating": 597,
    "themed": 598,
    "ĠLiqu": 599,
    "ifa": 600,
    "Ġburd": 601,
    "Ġbomb": 602,
    "ĠNetanyahu": 603,
    "agi": 604,
    "Credit": 605,
    "Mus": 606,
    "ĠWilliamson": 607,
    "ĠNations": 608,
    "Ġtreat": 609,
    "oner": 610,
    "ĠNuclear": 611,
    "ĠPenny": 612,
    "kill": 613,
    "Ġthroat": 614,
    "ĠDW": 615,
    "Ġrever": 616,
    "Ġthough": 617,
    "Ġdonors": 618,
    "tro": 619,
    "aris": 620,
    "Ġintervened": 621,
    "ĠSterling": 622,
    "ĠSold": 623,
    "Cal": 624,
    "Ġdignity": 625,
    "Ġsailing": 626,
    "Ġdescriptions": 627,
    "ĠMP": 628,
    "Ġfelony": 629,
    "rue": 630,
    "ĠMcMahon": 631,
    "apter": 632,
    "Ġfoil": 633,
    "Ġdefy": 634,
    "Ġpray": 635,
    "Ġunknown": 636,
    "Ġveter": 637,
    "Ġdepressed": 638,
    "Ġheroin": 639,
    "Ġconvinc": 640,
    "ĠStam": 641,
    "rawling": 642,
    "itative": 643,
    "inson": 644,
    "ĠCalvin": 645,
    "Ġ1923": 646,
    "Ġminimize": 647,
    "ĠRegion": 648,
    "john": 649,
    "Ġstereo": 650,
    "Ġspur": 651,
    "Virgin": 652,
    "maybe": 653,
    "Ġconqu": 654,
    "ĠRac": 655,
    "ĠImpact": 656,
    "Ġdangerously": 657,
    "Ġindie": 658,
    "lets": 659,
    "Ġachieve": 660,
    "ĠMead": 661,
    "medi": 662,
    "Ġsed": 663,
    "Ġwarriors": 664,
    "Ġcomed": 665,
    "Ġ<-": 666,
    "Rick": 667,
    "Ġtelev": 668,
    "Ġsailed": 669,
    "ausible": 670,
    "border": 671,
    "ĠNest": 672,
    "itars": 673,
    "Ġplates": 674,
    "Ġcoined": 675,
    "Ġstaunch": 676,
    "Ġmeeting": 677,
    "Ġpron": 678,
    "ovych": 679,
    "ĠVisual": 680,
    "ollah": 681,
    "Ġprotestors": 682,
    "ĠShooting": 683,
    "Ġfi": 684,
    "Ġfragment": 685,
    "Ġdecade": 686,
    "Ġ230": 687,
    "Ġbarbar": 688,
    "Ġconsume": 689,
    "Ġfunny": 690,
    "ĠOutside": 691,
    "ĠMayo": 692,
    "Ġstocks": 693,
    "Ġdipped": 694,
    "?âĢĻ": 695,
    "ĠFive": 696,
    "com": 697,
    "ĠSSD": 698,
    "ĠAssass": 699,
    "ĠTa": 700,
    "GL": 701,
    "));": 702,
    "orsche": 703,
    "Ġfights": 704,
    "Ġblamed": 705,
    "Ġoils": 706,
    "Ã±": 707,
    "ĠAC": 708,
    "ĠFinally": 709,
    "Ġwip": 710,
    "89": 711,
    "ĠCraig": 712,
    "portation": 713,
    "Ġ2021": 714,
    "ĠHak": 715,
    "Ġvigilant": 716,
    "Ġlivelihood": 717,
    "Ġweights": 718,
    "ĠAbove": 719,
    "Episode": 720,
    "Ġwhales": 721,
    "Ġl": 722,
    "ann": 723,
    "gu": 724,
    "ĠNES": 725,
    "amac": 726,
    "Ġunve": 727,
    "ĠDoctor": 728,
    "ĠDion": 729,
    "anne": 730,
    "Ġrevenue": 731,
    "Ġupcoming": 732,
    "Ġmarket": 733,
    "git": 734,
    "ĠHole": 735,
    "Ġchromos": 736,
    "Ġfans": 737,
    "voc": 738,
    "Ġdancers": 739,
    "Ġbombings": 740,
    "ĠIsraelis": 741,
    "vity": 742,
    "Ġblaming": 743,
    "ĠRobbie": 744,
    "ike": 745,
    "Ġpay": 746,
    "Ġfeminism": 747,
    "Ġpopularity": 748,
    "Ġscrew": 749,
    "buck": 750,
    "ĠBillion": 751,
    "Rober": 752,
    "Ġcomprise": 753,
    "azers": 754,
    "GN": 755,
    "Ġdrum": 756,
    "Ġstainless": 757,
    "ĠExperiment": 758,
    "ãĤĴ": 759,
    "Ġdrilling": 760,
    "ĠBul": 761,
    "Ġfetch": 762,
    "cl": 763,
    "Ġdimension": 764,
    "Ġincompetence": 765,
    "ologist": 766,
    "ĠCanadian": 767,
    "Ġdisasters": 768,
    "violent": 769,
    "Ġposed": 770,
    "Ġexploring": 771,
    "ĠPayne": 772,
    "ĠVaugh": 773,
    "Ġthesis": 774,
    "ĠSeven": 775,
    "Ġchocolate": 776,
    "Ġgiants": 777,
    "Ġinspiration": 778,
    "cu": 779,
    "ĠSwe": 780,
    "Ġform": 781,
    "ĠAmer": 782,
    "Ġabortion": 783,
    "var": 784,
    "Ġlumin": 785,
    "Ġdictators": 786,
    "Ġripped": 787,
    "Ġstabbing": 788,
    "Ġna": 789,
    "Russia": 790,
    "Ġprescribed": 791,
    "OST": 792,
    "Large": 793,
    "Ġsentiment": 794,
    "mode": 795,
    "Ġboyfriend": 796,
    "ĠBil": 797,
    "osen": 798,
    "Ġhypocrisy": 799,
    "Ġsurvey": 800,
    "cuts": 801,
    "Ġrespected": 802,
    "Ġrepe": 803,
    "Ġsubstance": 804,
    "Ġbargain": 805,
    "iv": 806,
    "*.": 807,
    "Ġapplicants": 808,
    "Ġsuspension": 809,
    "ollen": 810,
    "advant": 811,
    "ĠWhile": 812,
    "ĠTraining": 813,
    "ĠBub": 814,
    "arest": 815,
    "Ġpo": 816,
    "Ġwr": 817,
    "ulu": 818,
    "Ð¾Ð»": 819,
    "SAN": 820,
    "Ġpersuaded": 821,
    "pret": 822,
    "ĠTB": 823,
    "ym": 824,
    "ernel": 825,
    "green": 826,
    "Ġcandy": 827,
    "counter": 828,
    "53": 829,
    "ĠStreets": 830,
    "Ġruthless": 831,
    "Ġsrc": 832,
    "Ġlinks": 833,
    "Â½": 834,
    "Ġperfection": 835,
    "ĠRog": 836,
    "ĠEy": 837,
    "Ġtightening": 838,
    "ĠSaskatchewan": 839,
    "Ġreturn": 840,
    "Ġbelongs": 841,
    "Ġphen": 842,
    "Ġaccurately": 843,
    "Ġstaging": 844,
    "Ġabusing": 845,
    "ĠTimber": 846,
    "Ġcoup": 847,
    "entric": 848,
    "ĠAround": 849,
    "lot": 850,
    "poons": 851,
    "Ġlimiting": 852,
    "ĠHispan": 853,
    "ĠBranch": 854,
    "Ġdensity": 855,
    "ĠSara": 856,
    "ĠOrt": 857,
    "ĠTrail": 858,
    "ĠThrow": 859,
    "âĸ": 860,
    "Ġexpire": 861,
    "ĠScient": 862,
    "ĠCinema": 863,
    "ĠWade": 864,
    "Ġ1959": 865,
    "Ġvote": 866,
    "aft": 867,
    "ects": 868,
    "VC": 869,
    "regist": 870,
    "iasm": 871,
    "Ġconcession": 872,
    "ibles": 873,
    "umi": 874,
    "issance": 875,
    "non": 876,
    "were": 877,
    "Ġaccompl": 878,
    "every": 879,
    "ĠWing": 880,
    "Seattle": 881,
    "Ġspecify": 882,
    "ĠDocument": 883,
    "Ġlegisl": 884,
    "Ġhelped": 885,
    "ĠPhase": 886,
    "ĠElectronics": 887,
    "ours": 888,
    "ĠPike": 889,
    "Ġmoderate": 890,
    "Ġhistoric": 891,
    "ĠGenesis": 892,
    "rupal": 893,
    "Ġseriousness": 894,
    "ĠBarack": 895,
    "ĠPaper": 896,
    "ĠMY": 897,
    "ĠGust": 898,
    "onte": 899,
    "Ġborders": 900,
    "ĠDepartment": 901,
    "ĠLag": 902,
    "Ġamen": 903,
    "ĠLiber": 904,
    "IP": 905,
    "Ġcast": 906,
    "runner": 907,
    "139": 908,
    "Ġannouncements": 909,
    "AS": 910,
    "Ġblu": 911,
    "BY": 912,
    "whel": 913,
    "ll": 914,
    "Ġsteady": 915,
    "Ġrewards": 916,
    "ĸ": 917,
    "Ġfacial": 918,
    "aware": 919,
    "Within": 920,
    "Ġpolice": 921,
    "ĠSongs": 922,
    "Ġspeeds": 923,
    "ĠAdvisory": 924,
    "Ġpeak": 925,
    "Ġjava": 926,
    "Ġhopes": 927,
    "Law": 928,
    "Ġimplies": 929,
    "Ġembarrassing": 930,
    "Ġassum": 931,
    "Ġestablishments": 932,
    "width": 933,
    "Ġstarvation": 934,
    "rimp": 935,
    "Ġrecreational": 936,
    "Ġutilized": 937,
    "Ġdiscretion": 938,
    "v": 939,
    "Ġsensory": 940,
    "Ġmush": 941,
    "Ġwhatever": 942,
    "77": 943,
    "ledge": 944,
    "wall": 945,
    "ĠSister": 946,
    "Ġmade": 947,
    "Ġpurity": 948,
    "ĠChronicle": 949,
    "Ġbox": 950,
    "ĠBeyond": 951,
    "Ġwomen": 952,
    "deep": 953,
    "ĠPant": 954,
    "Ġdownward": 955,
    "Ġstat": 956,
    "Ġaggress": 957,
    "config": 958,
    "Ġdou": 959,
    "ĠWid": 960,
    "match": 961,
    "Ġman": 962,
    "eds": 963,
    "Ġechoed": 964,
    "Ġsymbolic": 965,
    "ude": 966,
    "mass": 967,
    "omon": 968,
    "ĠDie": 969,
    "Ġtells": 970,
    "ĠReality": 971,
    "Ġhappiness": 972,
    "ĠÐ¾": 973,
    "omething": 974,
    "Ġcope": 975,
    "ĠMessage": 976,
    "ito": 977,
    "ty": 978,
    "Ġirrigation": 979,
    "********************************": 980,
    "uated": 981,
    "Published": 982,
    "Ġsus": 983,
    "ĠRosa": 984,
    "DA": 985,
    "Ġmakers": 986,
    "Ġproced": 987,
    "Ġpolling": 988,
    "Ġauthoritarian": 989,
    "oples": 990,
    "arios": 991,
    "Ġsalaries": 992,
    "Ġsuddenly": 993,
    "ĠUruguay": 994,
    "zz": 995,
    "Ġprivatization": 996,
    "Ġransom": 997,
    "ats": 998,
    "Ġtill": 999,
    "Ġcontroversy": 1000,
    "Ġexpires": 1001,
    "Ġmildly": 1002,
    "beat": 1003,
    "Ġtitled": 1004,
    "Ġgaming": 1005,
    "Ġdisappear": 1006,
    "Ġadul": 1007,
    "ĠPanel": 1008,
    "ĠRockets": 1009,
    "ĠMinority": 1010,
    "urch": 1011,
    "omen": 1012,
    "iol": 1013,
    "iggle": 1014,
    "Ġcuisine": 1015,
    "ĠPOL": 1016,
    "ĠKremlin": 1017,
    "Ġmotivations": 1018,
    "yton": 1019,
    "Ġtyp": 1020,
    "Ġunstable": 1021,
    "Ġsimultane": 1022,
    "ĠWriting": 1023,
    "Each": 1024,
    "ĠSu": 1025,
    "Ġcav": 1026,
    "Ġâī": 1027,
    "Ġdesignated": 1028,
    "Ġurgently": 1029,
    "imal": 1030,
    "Ġsw": 1031,
    "Ġ6": 1032,
    "Ġfarmer": 1033,
    "ĠAlto": 1034,
    "ament": 1035,
    "Ġwindow": 1036,
    "urst": 1037,
    "Ġrefugees": 1038,
    "Ġexists": 1039,
    "Ġthrough": 1040,
    "Ġyears": 1041,
    "Ġep": 1042,
    "Ġasylum": 1043,
    "Ġalley": 1044,
    "insky": 1045,
    "ĠCrash": 1046,
    "le": 1047,
    "Ġseats": 1048,
    "Ġreversed": 1049,
    "ya": 1050,
    "ĠFraser": 1051,
    "ospace": 1052,
    "ĠSingh": 1053,
    "true": 1054,
    "ĠActually": 1055,
    "reported": 1056,
    "ĠReddit": 1057,
    "ouring": 1058,
    "ised": 1059,
    "Ġplanet": 1060,
    "ĠKilled": 1061,
    "hett": 1062,
    "Jordan": 1063,
    "ĠCock": 1064,
    "Ġcouncillor": 1065,
    "agrams": 1066,
    "ĠPew": 1067,
    "Ġpromote": 1068,
    "cliffe": 1069,
    "ĠSDK": 1070,
    "Ġvetting": 1071,
    "Ġopportun": 1072,
    "Ġslippery": 1073,
    "ĠMichael": 1074,
    "Ġsq": 1075,
    "iak": 1076,
    "ovable": 1077,
    "Ã³": 1078,
    "Ġ1972": 1079,
    "ĠDesigner": 1080,
    "Ġinclude": 1081,
    "Ġarrest": 1082,
    "ĠCardinals": 1083,
    "ĠMag": 1084,
    "Ã¼": 1085,
    "orter": 1086,
    "Ġcomplained": 1087,
    "Ġwide": 1088,
    "130": 1089,
    "Ġassure": 1090,
    "alties": 1091,
    "Ġlead": 1092,
    "Ġrecord": 1093,
    "aine": 1094,
    "made": 1095,
    "ĠShaw": 1096,
    "itch": 1097,
    "ĠPatrol": 1098,
    "Ġindiscrimin": 1099,
    "Ġstable": 1100,
    "ĠSnapchat": 1101,
    "Ġapplication": 1102,
    "WC": 1103,
    ";": 1104,
    "Ġspawned": 1105,
    "IFF": 1106,
    "ĠSubst": 1107,
    "INT": 1108,
    "Ġj": 1109,
    "Array": 1110,
    "wagen": 1111,
    "oons": 1112,
    "ĠButler": 1113,
    "Ġbracket": 1114,
    "iny": 1115,
    "ĠPacers": 1116,
    "Ġdelight": 1117,
    "FOR": 1118,
    "ĠRogers": 1119,
    "Ġent": 1120,
    "Ġu": 1121,
    "government": 1122,
    "ce": 1123,
    "inem": 1124,
    "Ult": 1125,
    "Ġcoastal": 1126,
    "Ġoptimism": 1127,
    "ĠFord": 1128,
    "FF": 1129,
    "Ġacts": 1130,
    "Ġgraz": 1131,
    "Ġradio": 1132,
    "Ġearns": 1133,
    "ailand": 1134,
    "Dark": 1135,
    "Ġjelly": 1136,
    "Ġforbid": 1137,
    "Ġgrand": 1138,
    "ĠOakland": 1139,
    "ographers": 1140,
    "âĪ": 1141,
    "ccess": 1142,
    "Ġcoach": 1143,
    "Ġepidem": 1144,
    "Ġknow": 1145,
    "ĠWes": 1146,
    "Ġpaths": 1147,
    "older": 1148,
    "Ġbuffer": 1149,
    "Ġusage": 1150,
    "ĠChampions": 1151,
    "Tell": 1152,
    "Ġaren": 1153,
    "Ġ250": 1154,
    "ĠKobe": 1155,
    "ĠMurd": 1156,
    "Ġsmells": 1157,
    "Ġcleaning": 1158,
    "ihil": 1159,
    "ING": 1160,
    "Ġfeather": 1161,
    "Ġchoosing": 1162,
    "Ġstrikes": 1163,
    "Ġsearch": 1164,
    "tv": 1165,
    "ĠCastro": 1166,
    "account": 1167,
    "ĠKant": 1168,
    "Ġcompartment": 1169,
    "Ġexplosives": 1170,
    "Ġsyrup": 1171,
    "ĠNRL": 1172,
    "Ġoccasional": 1173,
    "ĠBooth": 1174,
    "Ġshakes": 1175,
    "Ġbegin": 1176,
    "CBC": 1177,
    "Ġlament": 1178,
    "pur": 1179,
    "Ġhydrogen": 1180,
    "jad": 1181,
    "Ġsoaring": 1182,
    "Ġment": 1183,
    "Ġsubject": 1184,
    "Ġamendments": 1185,
    "ĠInvestig": 1186,
    "Ġavo": 1187,
    "Ġaccessing": 1188,
    "Ġharsh": 1189,
    "Ġdescend": 1190,
    "Ġimmun": 1191,
    "Ġcloak": 1192,
    "Ġrubbish": 1193,
    "ĠTreaty": 1194,
    "ente": 1195,
    "Ġsprint": 1196,
    "Tal": 1197,
    "ĠHoll": 1198,
    "\":{\"": 1199,
    "Ġdecided": 1200,
    "Ġproperties": 1201,
    "Ġairing": 1202,
    "Ġescalating": 1203,
    "ĠSY": 1204,
    "ĠMaduro": 1205,
    "Ġether": 1206,
    "ĠGDP": 1207,
    "ĠMumbai": 1208,
    "arty": 1209,
    "ĠPeninsula": 1210,
    "ĠGet": 1211,
    "Ġlearned": 1212,
    "Ġprospects": 1213,
    "Ġstaple": 1214,
    "Ġstead": 1215,
    "cool": 1216,
    "Supp": 1217,
    "Ġ23": 1218,
    "Ren": 1219,
    "ales": 1220,
    "Ġresearch": 1221,
    "gon": 1222,
    "Ġarbit": 1223,
    "ĠLocke": 1224,
    "ĠRex": 1225,
    "vironments": 1226,
    "Ġfoster": 1227,
    "ift": 1228,
    "Ġcommitment": 1229,
    "Ġseparation": 1230,
    "Ġmetropolitan": 1231,
    "ĠWorlds": 1232,
    "ĠParis": 1233,
    "ĠLama": 1234,
    "Ġconfrontation": 1235,
    "label": 1236,
    "Ġlied": 1237,
    "rimin": 1238,
    "ĠAG": 1239,
    "Ä": 1240,
    "Ġlouder": 1241,
    "Ġshadows": 1242,
    "Ġtravels": 1243,
    "ĠBroad": 1244,
    "Ġhelm": 1245,
    "Ġavoidance": 1246,
    "Ġvegetarian": 1247,
    "ovy": 1248,
    "ieties": 1249,
    "ĠAA": 1250,
    "alysis": 1251,
    "ithmetic": 1252,
    "Ġstunned": 1253,
    "Ġmice": 1254,
    "ĠLuther": 1255,
    "Ġsecrecy": 1256,
    "Ġresolutions": 1257,
    "arrow": 1258,
    "iesel": 1259,
    "Ġalternatives": 1260,
    "Ġexplode": 1261,
    "Ġtriggers": 1262,
    "Fast": 1263,
    "Ġdevotion": 1264,
    "Ġcivic": 1265,
    "isoft": 1266,
    "Ġpropose": 1267,
    "Ġinstitutions": 1268,
    "Ġlets": 1269,
    "oes": 1270,
    "Ġpain": 1271,
    "Ġcorrections": 1272,
    "Ġstomp": 1273,
    "Ġoffshore": 1274,
    "omics": 1275,
    "Ġoneself": 1276,
    "ovie": 1277,
    "Ġdealings": 1278,
    "ĠCloud": 1279,
    "ĠAfrican": 1280,
    "ĠMovement": 1281,
    "Ġago": 1282,
    "Ġproduces": 1283,
    "Ġlongtime": 1284,
    "ĠNorm": 1285,
    "ĠEnlight": 1286,
    "ĠEmails": 1287,
    "ĠMt": 1288,
    "Ġexclusion": 1289,
    "Ġwired": 1290,
    "Ġslated": 1291,
    "raf": 1292,
    "Ġcit": 1293,
    "What": 1294,
    "everal": 1295,
    "ĠArchbishop": 1296,
    "Ġsemif": 1297,
    "ĠGB": 1298,
    "Ġcomplicated": 1299,
    "andals": 1300,
    "ussion": 1301,
    "ĠHill": 1302,
    "ö": 1303,
    "Central": 1304,
    "Ġreferred": 1305,
    "Ġparking": 1306,
    "description": 1307,
    "Ġsalv": 1308,
    "ĠUtah": 1309,
    "Ġmenus": 1310,
    "ĠRamsey": 1311,
    "Ġsandwich": 1312,
    "Ġpiracy": 1313,
    "Ġessays": 1314,
    "Ġgray": 1315,
    "Ġunin": 1316,
    "SE": 1317,
    "Ġunpaid": 1318,
    "Ġcauses": 1319,
    "Ġceleb": 1320,
    "ashion": 1321,
    "phal": 1322,
    "ayers": 1323,
    "ĠGol": 1324,
    "cel": 1325,
    "Ġcapable": 1326,
    "ĠTechnologies": 1327,
    "Ġnotch": 1328,
    "uate": 1329,
    "ĠMelissa": 1330,
    "azing": 1331,
    "ologne": 1332,
    "Ġbecomes": 1333,
    "Ġoccasions": 1334,
    "ateur": 1335,
    "Ġconfronting": 1336,
    "ĠBattlefield": 1337,
    "ĠWal": 1338,
    "ð": 1339,
    "Ġbars": 1340,
    "Ġspecialist": 1341,
    "Ġfrankly": 1342,
    "ĠKurdistan": 1343,
    "ĠNam": 1344,
    "Ġdoing": 1345,
    "ĠAshley": 1346,
    "Ġkiller": 1347,
    "Ġoptimal": 1348,
    "aged": 1349,
    "ĠSnapdragon": 1350,
    "({": 1351,
    "ĠPearl": 1352,
    "arent": 1353,
    "Israel": 1354,
    "ĠSave": 1355,
    "Ġfoll": 1356,
    "Ġwonderful": 1357,
    "ĠCage": 1358,
    "ob": 1359,
    "Fire": 1360,
    "cig": 1361,
    "igi": 1362,
    "âĢĻ.": 1363,
    "ACK": 1364,
    "Ġlongevity": 1365,
    "Ġdebug": 1366,
    "[/": 1367,
    "Ġpermits": 1368,
    "Ġdescription": 1369,
    "Ġenlisted": 1370,
    "minist": 1371,
    "ufficient": 1372,
    "Ġodds": 1373,
    "Ġcon": 1374,
    "Ġadapt": 1375,
    "riber": 1376,
    "Ve": 1377,
    "Ġtowards": 1378,
    "inel": 1379,
    "ĠPatel": 1380,
    "Ġoppressive": 1381,
    "Ġconnects": 1382,
    "instein": 1383,
    "Ġsuperb": 1384,
    "Ġelectrons": 1385,
    "Ġbeliefs": 1386,
    "ĠPeople": 1387,
    "Ġarcade": 1388,
    "ĠRade": 1389,
    "Ġdisclosures": 1390,
    "July": 1391,
    "ĠFactor": 1392,
    "Rog": 1393,
    "Ġcondemning": 1394,
    "Ġsanction": 1395,
    "Through": 1396,
    "Mos": 1397,
    "Ġcornerback": 1398,
    "indust": 1399,
    "Ġlakh": 1400,
    "Ryan": 1401,
    "civil": 1402,
    "ained": 1403,
    "ĠCombat": 1404,
    "Ġhard": 1405,
    "height": 1406,
    "Ġbribery": 1407,
    "Ġcensus": 1408,
    "Ġconsumed": 1409,
    "ĠPatricia": 1410,
    "Ġpedestrian": 1411,
    "Ġstatistical": 1412,
    "Ġdetained": 1413,
    "ĠSergio": 1414,
    "Ġavid": 1415,
    "isters": 1416,
    "Ġdiscredit": 1417,
    "Ġlanded": 1418,
    "ĠGlass": 1419,
    "ĠGoogle": 1420,
    "AT": 1421,
    "T": 1422,
    "ĠEight": 1423,
    "SW": 1424,
    "ĠReagan": 1425,
    "Ram": 1426,
    "ĠSecretary": 1427,
    "Ġregard": 1428,
    "Ġdemocracies": 1429,
    "ensen": 1430,
    "Ġkeyword": 1431,
    "Ind": 1432,
    "Ġdecks": 1433,
    "emy": 1434,
    "ĠKC": 1435,
    "Ġeat": 1436,
    "ĠTravel": 1437,
    "ĠHouse": 1438,
    "Ġdaily": 1439,
    "ĠAuto": 1440,
    "Ġprints": 1441,
    "owitz": 1442,
    "ĠStandards": 1443,
    "Op": 1444,
    "xc": 1445,
    "illusion": 1446,
    "Ġmesh": 1447,
    "ĠKill": 1448,
    "ĠLenn": 1449,
    "Alan": 1450,
    "ĠCivil": 1451,
    "Ġmort": 1452,
    "Ġsupplements": 1453,
    "Internet": 1454,
    "agle": 1455,
    "Con": 1456,
    "up": 1457,
    "Ġpieces": 1458,
    "Ġliberals": 1459,
    "there": 1460,
    "inging": 1461,
    "science": 1462,
    "ĠMake": 1463,
    "theless": 1464,
    "Ġmidst": 1465,
    "Ġcommence": 1466,
    "TV": 1467,
    "ĠChildren": 1468,
    "Ġliquid": 1469,
    "Ġgreen": 1470,
    "Ġuncond": 1471,
    "Ġepic": 1472,
    "ropolitan": 1473,
    "Ġrelatively": 1474,
    "Ġimaginary": 1475,
    "b": 1476,
    "imps": 1477,
    "ĠÎ±": 1478,
    "ĠSchedule": 1479,
    "Ġglob": 1480,
    "Ġdev": 1481,
    "Ġcrypto": 1482,
    "Ġgarnered": 1483,
    "Ġevolution": 1484,
    "end": 1485,
    "ĠService": 1486,
    "Ġplot": 1487,
    "Ġlaund": 1488,
    "Ġfourteen": 1489,
    "ĠDevil": 1490,
    "lex": 1491,
    "Ġreplies": 1492,
    "cross": 1493,
    "Ġune": 1494,
    "Ġsteer": 1495,
    "ĠWAS": 1496,
    "Ġstove": 1497,
    "Ġattributes": 1498,
    "idi": 1499,
    "ĠTickets": 1500,
    "Ġaccessible": 1501,
    "Ġhaunted": 1502,
    "Ġconcerning": 1503,
    "Ġplasma": 1504,
    "line": 1505,
    "Ġgolf": 1506,
    "ĠChem": 1507,
    "Ġmercy": 1508,
    "ĠCinem": 1509,
    "ĠFirst": 1510,
    "ĠJPM": 1511,
    "ĠTO": 1512,
    "Ġsob": 1513,
    "Ġmatchup": 1514,
    "glass": 1515,
    "74": 1516,
    "Ġcaves": 1517,
    "Ġfaithful": 1518,
    "ĠRoberts": 1519,
    "Ġlur": 1520,
    "W": 1521,
    "Greg": 1522,
    "uki": 1523,
    "ijing": 1524,
    "AST": 1525,
    "ĠEmirates": 1526,
    "rencies": 1527,
    "Ý": 1528,
    "Ġovershadow": 1529,
    "ĠChiefs": 1530,
    "ĠColombian": 1531,
    "ĠScouts": 1532,
    "ĠRasm": 1533,
    "Ġfavors": 1534,
    "reen": 1535,
    "Romney": 1536,
    "ĠHello": 1537,
    "Ġyellow": 1538,
    "ĠGulf": 1539,
    "Ġlymph": 1540,
    "Ġfascination": 1541,
    "Ġentirely": 1542,
    "ĠLeon": 1543,
    "ĠDigital": 1544,
    "Ġrespondents": 1545,
    "Ġleve": 1546,
    "Ġgang": 1547,
    "educ": 1548,
    "Ġpoverty": 1549,
    "ĠNut": 1550,
    "ĠFalcon": 1551,
    "Ġpunishing": 1552,
    "ĠSh": 1553,
    "Ġeccentric": 1554,
    "ELD": 1555,
    "idden": 1556,
    "Ġinsufficient": 1557,
    "audi": 1558,
    "Ġartificial": 1559,
    "Ġconstrain": 1560,
    "Ġpressures": 1561,
    "ĠIntel": 1562,
    "ĠAmy": 1563,
    "Only": 1564,
    "Ġsaturated": 1565,
    "ancing": 1566,
    "ĠFootball": 1567,
    "NOT": 1568,
    "Ġaround": 1569,
    "Ġhandic": 1570,
    "ĠNaval": 1571,
    "Ġstring": 1572,
    "Aw": 1573,
    "imb": 1574,
    "draw": 1575,
    "ame": 1576,
    "Ġdiscussions": 1577,
    "adelphia": 1578,
    "Ġspeak": 1579,
    "Ġpor": 1580,
    "ĠClaire": 1581,
    "Ġdispro": 1582,
    "Ġambitious": 1583,
    "amins": 1584,
    "ĠMedia": 1585,
    "itudes": 1586,
    "leted": 1587,
    "Ġlocally": 1588,
    "December": 1589,
    "Ġ27": 1590,
    "ĠKnights": 1591,
    "Ġtechnological": 1592,
    "Ġexplan": 1593,
    "ĠWebster": 1594,
    "ĠNVIDIA": 1595,
    "Les": 1596,
    "ĠSome": 1597,
    "Ġhikes": 1598,
    "owns": 1599,
    "Ġrumours": 1600,
    "ĠSci": 1601,
    "Ġmotif": 1602,
    "Ġinception": 1603,
    "ĠYORK": 1604,
    "Dun": 1605,
    "Ġfavour": 1606,
    "ĠCelebr": 1607,
    "Ġvag": 1608,
    "Ġborder": 1609,
    "illard": 1610,
    "Ġextremism": 1611,
    "Ġkn": 1612,
    "Ġint": 1613,
    "Ġexpanding": 1614,
    "Ġopio": 1615,
    "Ġcomponent": 1616,
    "Ġrapidly": 1617,
    "Ġdividing": 1618,
    "ĠDash": 1619,
    "erers": 1620,
    "ansion": 1621,
    "Ġoutrage": 1622,
    "Ġsweep": 1623,
    "***": 1624,
    "arians": 1625,
    "Does": 1626,
    "Ġnotorious": 1627,
    "Ġexited": 1628,
    "berto": 1629,
    "ĠLady": 1630,
    "ĠInstitute": 1631,
    "ĠSuperman": 1632,
    "Ġaff": 1633,
    "ĠAfghanistan": 1634,
    "rab": 1635,
    "elsen": 1636,
    "ĠChristmas": 1637,
    "ronting": 1638,
    "ĠSchwartz": 1639,
    "formation": 1640,
    "ĠVariety": 1641,
    "Ġtypically": 1642,
    "ĠLED": 1643,
    "Ġtick": 1644,
    "ĠRow": 1645,
    "plan": 1646,
    "Ġobviously": 1647,
    "rt": 1648,
    "Ġsummit": 1649,
    "!âĢĿ": 1650,
    "asm": 1651,
    "pectives": 1652,
    "acent": 1653,
    "It": 1654,
    "Ġfin": 1655,
    "geon": 1656,
    "apor": 1657,
    "ĠTobacco": 1658,
    "Ġsounding": 1659,
    "ĠDre": 1660,
    "Ġ1916": 1661,
    "Ġpainful": 1662,
    "Day": 1663,
    "thinking": 1664,
    "Ġgoalkeeper": 1665,
    "Ġcere": 1666,
    "Ġreminded": 1667,
    "Ġjudging": 1668,
    "idity": 1669,
    "supported": 1670,
    "Ġburst": 1671,
    "ĠIron": 1672,
    "ĠBusiness": 1673,
    "Ġlaundering": 1674,
    "600": 1675,
    "Ġgone": 1676,
    "Ġsupp": 1677,
    "Ġlinking": 1678,
    "ĠKru": 1679,
    "Ġdrummer": 1680,
    "Ġstacks": 1681,
    "Kim": 1682,
    "ĠStaff": 1683,
    "bt": 1684,
    "os": 1685,
    "Ġhemisphere": 1686,
    "Ġprocessors": 1687,
    "Ġlieutenant": 1688,
    "ĠContinued": 1689,
    "ĠStanford": 1690,
    "agonal": 1691,
    "late": 1692,
    "gged": 1693,
    "burn": 1694,
    "Ġloudly": 1695,
    "Ġfrightening": 1696,
    "ilia": 1697,
    "Ġcampus": 1698,
    "ĠRising": 1699,
    "sburg": 1700,
    "Ġyear": 1701,
    "Ġrestrict": 1702,
    "Ġsetting": 1703,
    "ipp": 1704,
    "Ġundersc": 1705,
    "ĠAccept": 1706,
    "Ġrespons": 1707,
    "aji": 1708,
    "ep": 1709,
    "India": 1710,
    "iated": 1711,
    "Ġnegative": 1712,
    "ĠSpani": 1713,
    "ĠBour": 1714,
    "afety": 1715,
    "ĠFigure": 1716,
    "000000": 1717,
    "Ġko": 1718,
    "ĠAlthough": 1719,
    "ĠOrlando": 1720,
    "as": 1721,
    "Ġseeks": 1722,
    "ĠPine": 1723,
    "Ġtreatments": 1724,
    "Ġsplit": 1725,
    "Ġagencies": 1726,
    "Ġledger": 1727,
    "while": 1728,
    "Ġdesperation": 1729,
    "Ġneighbour": 1730,
    "Ð¸": 1731,
    "historic": 1732,
    "ita": 1733,
    "fashioned": 1734,
    "Ġroof": 1735,
    "Ġbike": 1736,
    "mag": 1737,
    "Ġtalents": 1738,
    "etta": 1739,
    "Ġshouting": 1740,
    "Ġserves": 1741,
    "Ġaber": 1742,
    "ĠQuran": 1743,
    "ĠTheresa": 1744,
    "Ġdesigners": 1745,
    "Ġaims": 1746,
    "Ġethnic": 1747,
    "Ġclouds": 1748,
    "ĠLo": 1749,
    "Authorities": 1750,
    "Ġbanners": 1751,
    "Instead": 1752,
    "Ġclass": 1753,
    "Ġhomeowners": 1754,
    "Ġvague": 1755,
    "Ġbehav": 1756,
    "ĠAustin": 1757,
    "ĠMaced": 1758,
    "Ġgriev": 1759,
    "ĠObamaCare": 1760,
    "post": 1761,
    "ĠThose": 1762,
    "Ġgrams": 1763,
    "Ġcontributing": 1764,
    "Ġconverts": 1765,
    "Ġskepticism": 1766,
    ".âĢĿ)": 1767,
    "ally": 1768,
    "Ġmouth": 1769,
    "Ġhuman": 1770,
    "Ġsystematic": 1771,
    "!!!!": 1772,
    "acey": 1773,
    "files": 1774,
    "ĠSikh": 1775,
    "Ġexamine": 1776,
    "ĠCompetition": 1777,
    "irms": 1778,
    "Sund": 1779,
    "Ġdependencies": 1780,
    "Ġlent": 1781,
    "Ġgender": 1782,
    "Ġindication": 1783,
    "Ġms": 1784,
    "ĠBeck": 1785,
    "Check": 1786,
    "ibr": 1787,
    "Ġamazingly": 1788,
    "reek": 1789,
    "jay": 1790,
    "Ġpools": 1791,
    "ĠBeat": 1792,
    "Ġreferencing": 1793,
    "ĠBirds": 1794,
    "Ġfog": 1795,
    "ĠKevin": 1796,
    "Ġpedest": 1797,
    "ah": 1798,
    "rog": 1799,
    "Ġunclear": 1800,
    "neath": 1801,
    "Ġmart": 1802,
    "antha": 1803,
    "Ġfren": 1804,
    "ĠHud": 1805,
    "Ġtwentieth": 1806,
    "Ġtattoo": 1807,
    "circ": 1808,
    "Ġobservers": 1809,
    "NPR": 1810,
    "eneration": 1811,
    "ĠHowever": 1812,
    "cow": 1813,
    "anes": 1814,
    "Inf": 1815,
    "Ġdisclosed": 1816,
    "Ġfled": 1817,
    "sy": 1818,
    "format": 1819,
    "oured": 1820,
    "ĠUnd": 1821,
    "Conservative": 1822,
    "icon": 1823,
    "uting": 1824,
    "g": 1825,
    "Ġaside": 1826,
    "chair": 1827,
    "Ġviolated": 1828,
    "Ġbankrupt": 1829,
    "ĠSeriously": 1830,
    "ĠActor": 1831,
    "cers": 1832,
    "Po": 1833,
    "Ġvoluntary": 1834,
    "Ġtask": 1835,
    "ĠInternational": 1836,
    "1980": 1837,
    "Ġtribe": 1838,
    "ĠCan": 1839,
    "oulos": 1840,
    "imi": 1841,
    "inker": 1842,
    "Install": 1843,
    "ĠAt": 1844,
    "Ġdiscount": 1845,
    "NBC": 1846,
    "Ġstandardized": 1847,
    "Ġinclud": 1848,
    "years": 1849,
    "oriented": 1850,
    "carry": 1851,
    "ctory": 1852,
    "Ġputting": 1853,
    "Form": 1854,
    "Ġtouchdowns": 1855,
    "Ġhops": 1856,
    "strong": 1857,
    "amer": 1858,
    "Ġgrave": 1859,
    "ĠExper": 1860,
    "liber": 1861,
    "kins": 1862,
    "ĠCompared": 1863,
    "Ġseparate": 1864,
    "ĠVolkswagen": 1865,
    "Ġdeliberate": 1866,
    "Ġbackpack": 1867,
    "Ġplac": 1868,
    "ĠCollection": 1869,
    "ĠGoing": 1870,
    "Ġsynthes": 1871,
    "Ġfearful": 1872,
    "Ġpreceded": 1873,
    "Ġinvol": 1874,
    "Ġincrease": 1875,
    "Ġcattle": 1876,
    "Ġtasks": 1877,
    "Ġidle": 1878,
    "Ġfraught": 1879,
    "Ġgolden": 1880,
    "Û": 1881,
    "Q": 1882,
    "ethyl": 1883,
    "Ġsevere": 1884,
    "built": 1885,
    "Ġhold": 1886,
    "Ġscholarship": 1887,
    "Ġpleased": 1888,
    "Ġcondol": 1889,
    "ining": 1890,
    "000": 1891,
    "Ġtro": 1892,
    "omatic": 1893,
    "ĠMo": 1894,
    "ĠScientology": 1895,
    "Ġethical": 1896,
    "Ġdysfunctional": 1897,
    "Ġnoting": 1898,
    "Ġ132": 1899,
    "Ġwhereby": 1900,
    "ĠSavage": 1901,
    "idis": 1902,
    "Ġderive": 1903,
    "kes": 1904,
    "ĠPV": 1905,
    "Ġmaster": 1906,
    "Ġ2014": 1907,
    "ĠPetersburg": 1908,
    "ĠKurd": 1909,
    "Ġinstincts": 1910,
    "ĠMash": 1911,
    "ĠGreeks": 1912,
    "Ġblunt": 1913,
    "iques": 1914,
    "Ġgirlfriend": 1915,
    "ony": 1916,
    "ĠRifle": 1917,
    "Ġswitches": 1918,
    "unks": 1919,
    "json": 1920,
    "maid": 1921,
    "Ġib": 1922,
    "Ġturned": 1923,
    "Ġcommission": 1924,
    "ĠLanka": 1925,
    "ĠHug": 1926,
    "ATE": 1927,
    "Ġcurrently": 1928,
    "Ġinbox": 1929,
    "Ġflash": 1930,
    "ĠTodd": 1931,
    "Sean": 1932,
    "Ġvoting": 1933,
    "ĠWITH": 1934,
    "otional": 1935,
    "Ġfury": 1936,
    "Ġunthinkable": 1937,
    "Ġfulfill": 1938,
    "Ġentertain": 1939,
    "ircraft": 1940,
    "Ġabstract": 1941,
    "ĠNicole": 1942,
    "Ġmemo": 1943,
    "Ġsl": 1944,
    "Ġholding": 1945,
    "Ġwandering": 1946,
    "FBI": 1947,
    "Ġpresented": 1948,
    "ĠCON": 1949,
    "lear": 1950,
    "Ġmish": 1951,
    "Ġadvertising": 1952,
    "Ġconsiderably": 1953,
    "ĠVenezuela": 1954,
    "Ġcompetitive": 1955,
    "ioned": 1956,
    "Ġcasino": 1957,
    "Ġaddressing": 1958,
    "rella": 1959,
    "Ġconvey": 1960,
    "()": 1961,
    "Ġ280": 1962,
    "Ġcrowded": 1963,
    "Ġposture": 1964,
    "pick": 1965,
    "Ġum": 1966,
    "Ġdonate": 1967,
    "ĠPractice": 1968,
    "Ġrides": 1969,
    "Ġcollaborative": 1970,
    "Ġvulnerable": 1971,
    "Ġinfection": 1972,
    "Ġdischarge": 1973,
    "Ġstatistics": 1974,
    "ĠBever": 1975,
    "Ġcrater": 1976,
    "ĠComplex": 1977,
    "Ġclosure": 1978,
    "Ġ%": 1979,
    "Ġ104": 1980,
    "Pl": 1981,
    "Lat": 1982,
    "Ġintrig": 1983,
    "Ġcooperate": 1984,
    "Ġadvance": 1985,
    "ĠCincinnati": 1986,
    "season": 1987,
    "ĠJulia": 1988,
    "andra": 1989,
    "title": 1990,
    "Ġhid": 1991,
    "ĠeSports": 1992,
    "ĠCreed": 1993,
    "otypes": 1994,
    "ĠProtest": 1995,
    "ĠMTV": 1996,
    "prime": 1997,
    "âĶĢâĶĢ": 1998,
    "ĠShelby": 1999,
    "Ġoffer": 2000,
    "rique": 2001,
    "umer": 2002,
    "ĠPh": 2003,
    "ĠGer": 2004,
    "iban": 2005,
    "Ġdemos": 2006,
    "urrection": 2007,
    "Start": 2008,
    "Ġmerchant": 2009,
    "Ġshrine": 2010,
    "ra": 2011,
    "Ġtotalitarian": 2012,
    "ĠSl": 2013,
    "Ġspy": 2014,
    "erence": 2015,
    "Jim": 2016,
    "Ġaffiliated": 2017,
    "Ġastounding": 2018,
    "collar": 2019,
    "We": 2020,
    "Land": 2021,
    "Ġunhappy": 2022,
    "ODE": 2023,
    "Ġsuspect": 2024,
    "ali": 2025,
    "swer": 2026,
    "Ġplug": 2027,
    "Ġdrafted": 2028,
    "Ġinequality": 2029,
    "Ġbureaucrats": 2030,
    "Ġli": 2031,
    "ĠOber": 2032,
    "ĠEffect": 2033,
    "ably": 2034,
    "ĠKil": 2035,
    "ĠEqu": 2036,
    "Ġpetrol": 2037,
    "Ġresistance": 2038,
    "ĠRain": 2039,
    "Ġ...": 2040,
    "mt": 2041,
    "ĠFind": 2042,
    "iya": 2043,
    "Ġupgrading": 2044,
    "Ġacclaimed": 2045,
    "Ġoutputs": 2046,
    "atered": 2047,
    "Step": 2048,
    "Ġaffirmative": 2049,
    "Ġrandom": 2050,
    "ĠKay": 2051,
    "Ġmindfulness": 2052,
    "Ġagreement": 2053,
    "Here": 2054,
    "Ġwipe": 2055,
    "Ġcondem": 2056,
    "ĠOn": 2057,
    "Regardless": 2058,
    "testing": 2059,
    "ĠWC": 2060,
    "Ġ1920": 2061,
    "Ġdebut": 2062,
    "OUT": 2063,
    "Ġreg": 2064,
    "Ġmarrying": 2065,
    "Ġfemales": 2066,
    "Ġtoss": 2067,
    "Ġguise": 2068,
    "ISE": 2069,
    "Oh": 2070,
    "ĠReed": 2071,
    "Investigators": 2072,
    "Ġbodily": 2073,
    "Ġfreaking": 2074,
    "Ġtainted": 2075,
    "Ġautomobile": 2076,
    "ĠCrosby": 2077,
    "Ġnum": 2078,
    "Ġticket": 2079,
    "Ġcraw": 2080,
    "Ġpregnancy": 2081,
    "Subscribe": 2082,
    "Ġcalcium": 2083,
    "Sand": 2084,
    "Ġbombed": 2085,
    "Ġshack": 2086,
    "ild": 2087,
    "ĠPalestinian": 2088,
    "Ġtossed": 2089,
    "orical": 2090,
    "Ġdubbed": 2091,
    "ĠHerman": 2092,
    "Eventually": 2093,
    "ĠUnt": 2094,
    "ĠWant": 2095,
    "Ġoccupying": 2096,
    "141": 2097,
    "ĠGT": 2098,
    "Labour": 2099,
    "ĠSinai": 2100,
    "Ġmerch": 2101,
    "ĠKR": 2102,
    "à¸": 2103,
    "Ġpopulated": 2104,
    "ĠGrass": 2105,
    "Ġredevelop": 2106,
    "Leaks": 2107,
    "unique": 2108,
    "orse": 2109,
    "Ġswallow": 2110,
    "Ġpave": 2111,
    "Ġbiodiversity": 2112,
    "ingu": 2113,
    "Ġstandout": 2114,
    "Ġcomparisons": 2115,
    "ĠCommercial": 2116,
    "ĠAuburn": 2117,
    "Abs": 2118,
    "ĠTL": 2119,
    "Ġexist": 2120,
    "ĠMotors": 2121,
    "Ġnortheast": 2122,
    "Ġhypothes": 2123,
    "Ġvend": 2124,
    "Ġcourage": 2125,
    "Ġtags": 2126,
    "Ġtub": 2127,
    "Not": 2128,
    "ĠAnonymous": 2129,
    "ĠWoods": 2130,
    "Pacific": 2131,
    "Ġang": 2132,
    "ĠTruck": 2133,
    "ĠAPIs": 2134,
    "ulous": 2135,
    "Com": 2136,
    "Ġradar": 2137,
    "ÑĢ": 2138,
    "Ġlac": 2139,
    "Ġphones": 2140,
    "Ġmathem": 2141,
    "ĠKepler": 2142,
    "Ġsafely": 2143,
    "ĠMacDonald": 2144,
    "Ġ110": 2145,
    "ĠFlight": 2146,
    "Ġmalaria": 2147,
    "ĠTolkien": 2148,
    "Ġty": 2149,
    "Ġdepleted": 2150,
    "aley": 2151,
    "ĠDurant": 2152,
    "Ġsuperf": 2153,
    "Ġrevelation": 2154,
    "Ġpillar": 2155,
    "Ġcommitments": 2156,
    "Ġresidual": 2157,
    "Ġadjusting": 2158,
    "Ġrede": 2159,
    "ograph": 2160,
    "ĠBron": 2161,
    "greg": 2162,
    "Ġenemies": 2163,
    "Ġphenomena": 2164,
    "Ġexpon": 2165,
    "ĠGun": 2166,
    "ĠSwiss": 2167,
    "Ġtempo": 2168,
    "Ġindul": 2169,
    "ĠPrint": 2170,
    "liners": 2171,
    "ĠClintons": 2172,
    "ifference": 2173,
    "ĠBeth": 2174,
    "ĠLil": 2175,
    "Ġapplic": 2176,
    "Ġlistened": 2177,
    "Ġrehears": 2178,
    "Ġash": 2179,
    "ĠCreek": 2180,
    "ĠMind": 2181,
    "obs": 2182,
    "Ġprosecutor": 2183,
    "Ġfinger": 2184,
    "Ġglyph": 2185,
    "ilion": 2186,
    "Ġrocky": 2187,
    "Ġinterference": 2188,
    "ĠNor": 2189,
    "iami": 2190,
    "Daily": 2191,
    "ĠSie": 2192,
    "Ġmaternal": 2193,
    "Ġpoles": 2194,
    "ĠVen": 2195,
    "Ġworkshops": 2196,
    "ECT": 2197,
    "Ġceased": 2198,
    "Ġskelet": 2199,
    "node": 2200,
    "Ġgluten": 2201,
    "Ġech": 2202,
    "Ġinnate": 2203,
    "loc": 2204,
    "Ġsuburbs": 2205,
    "sheet": 2206,
    "ĠDue": 2207,
    "Muslims": 2208,
    "Ġdynamic": 2209,
    "ĠBr": 2210,
    "In": 2211,
    "OR": 2212,
    "ĠBTC": 2213,
    "ĠGerman": 2214,
    "bitious": 2215,
    "Ġmanaged": 2216,
    "Ġmicrobi": 2217,
    "olutely": 2218,
    "import": 2219,
    "ĠSteele": 2220,
    "Ġboards": 2221,
    "ĠJapan": 2222,
    "Ġturbine": 2223,
    "ei": 2224,
    "Ġupgrade": 2225,
    "Ġcontinuously": 2226,
    "Ġreaching": 2227,
    "Ġlingu": 2228,
    "ore": 2229,
    "Ġproposals": 2230,
    "âĢ": 2231,
    "icken": 2232,
    "Ġverbal": 2233,
    "Ġreverse": 2234,
    "Ġ>>>": 2235,
    "Ġspecies": 2236,
    "Ġoriginated": 2237,
    "Ġguy": 2238,
    "Ġcross": 2239,
    "ugh": 2240,
    "Ġbriefing": 2241,
    "body": 2242,
    "compet": 2243,
    "ĠAugust": 2244,
    "Ġimmedi": 2245,
    "----": 2246,
    "legates": 2247,
    "ritis": 2248,
    "Ġarresting": 2249,
    "Ġbacklash": 2250,
    "ÂĢÂĻ": 2251,
    "Ġexcellence": 2252,
    "Ġintellig": 2253,
    "Ġboxes": 2254,
    "Ġillustrated": 2255,
    "Ġcrafted": 2256,
    "Ġsham": 2257,
    "Ġearned": 2258,
    "Ġappointment": 2259,
    "ĠBaker": 2260,
    "Ġincremental": 2261,
    "ĠCleveland": 2262,
    "ĠAd": 2263,
    "Ġbatting": 2264,
    "outheastern": 2265,
    "Ġhormones": 2266,
    "Ġasym": 2267,
    "Ġcities": 2268,
    "Ġearly": 2269,
    "Ġslipping": 2270,
    "Environment": 2271,
    "Ġmarkers": 2272,
    "Ġmotorists": 2273,
    "Ġmic": 2274,
    "Ġdramatically": 2275,
    "Ġlaboratory": 2276,
    "Ġtar": 2277,
    "Ġsponsored": 2278,
    "Ġhumidity": 2279,
    "isite": 2280,
    "oter": 2281,
    "Ġrabbit": 2282,
    "Ġsoutheastern": 2283,
    "Ġservant": 2284,
    "ĠMae": 2285,
    "ĠMark": 2286,
    "ĠNL": 2287,
    "Ġutilities": 2288,
    "ixty": 2289,
    "Ġensure": 2290,
    "ĠIrving": 2291,
    "hod": 2292,
    "ñ": 2293,
    "Ġvandal": 2294,
    "##": 2295,
    "aunting": 2296,
    "antics": 2297,
    "Ġtreats": 2298,
    "Ġduel": 2299,
    "ĠAffairs": 2300,
    "ĠTogether": 2301,
    "iots": 2302,
    "ĠRec": 2303,
    "Ġhardcore": 2304,
    "Ġsmear": 2305,
    "nar": 2306,
    "ĠGro": 2307,
    "archy": 2308,
    "ĠIslamists": 2309,
    "chie": 2310,
    "Ġparallels": 2311,
    "Ġslain": 2312,
    "ĠDNC": 2313,
    "Ġclaims": 2314,
    "Ġlaughs": 2315,
    "ĠDale": 2316,
    "Fair": 2317,
    "Ġhurricane": 2318,
    "fy": 2319,
    "Ġworm": 2320,
    "imately": 2321,
    "Ġargue": 2322,
    "ĠPort": 2323,
    "Almost": 2324,
    "aire": 2325,
    "Ġcooled": 2326,
    "ĠMail": 2327,
    "Ġthemed": 2328,
    "ate": 2329,
    "ĠNegro": 2330,
    "ĠIsle": 2331,
    "nels": 2332,
    "Ġmeets": 2333,
    "Ġsacked": 2334,
    "ĠTicket": 2335,
    "Ġraided": 2336,
    "Ġmy": 2337,
    "Ġpri": 2338,
    "zes": 2339,
    "div": 2340,
    "ĠPeter": 2341,
    "ĠMariners": 2342,
    "nders": 2343,
    "Ġprox": 2344,
    "Books": 2345,
    "icester": 2346,
    "iant": 2347,
    "ĠConvention": 2348,
    "ĠOrig": 2349,
    "Ġcrude": 2350,
    "anoia": 2351,
    "Ġveil": 2352,
    "EL": 2353,
    "ĠSanders": 2354,
    "aby": 2355,
    "Ġbenchmark": 2356,
    "ĠRBI": 2357,
    "Ġengaging": 2358,
    "ory": 2359,
    "Ġlikelihood": 2360,
    "Ġcompromises": 2361,
    "Ġfires": 2362,
    "122": 2363,
    "ĠML": 2364,
    "Ġcolleague": 2365,
    "Ġsucc": 2366,
    "ms": 2367,
    "mos": 2368,
    "ĠKeys": 2369,
    "Ġbrows": 2370,
    "izard": 2371,
    "Ġfacilitated": 2372,
    "inois": 2373,
    "Mother": 2374,
    "ĠFTC": 2375,
    "Ġsimplify": 2376,
    "rec": 2377,
    "lead": 2378,
    "Ġnuts": 2379,
    "Ġprocessed": 2380,
    "Ġhegem": 2381,
    "ĠBullet": 2382,
    "Ġpivot": 2383,
    "ĠPittsburgh": 2384,
    "Dear": 2385,
    "Ġburger": 2386,
    "etermined": 2387,
    "Ġbrutal": 2388,
    "Ġintervals": 2389,
    "best": 2390,
    "ĠONLY": 2391,
    "ãĤ¤": 2392,
    "ĠGov": 2393,
    "ascist": 2394,
    "Ġbom": 2395,
    "BBC": 2396,
    "itol": 2397,
    "Ohio": 2398,
    "ĠTry": 2399,
    "ĠKelley": 2400,
    "ĠArchae": 2401,
    "Ġfever": 2402,
    "Ġdirty": 2403,
    "Ġsym": 2404,
    "rael": 2405,
    "ĠRobot": 2406,
    "Ġhonour": 2407,
    "ĠStrateg": 2408,
    "Ġbrakes": 2409,
    "1993": 2410,
    "Ġnostal": 2411,
    "Ġmetadata": 2412,
    "Ġweekend": 2413,
    "One": 2414,
    "ĠRoh": 2415,
    "ipeg": 2416,
    "ĠStand": 2417,
    "ete": 2418,
    "i": 2419,
    "Ġdeciding": 2420,
    "Ġproduct": 2421,
    "Ġ1951": 2422,
    "Ġdonating": 2423,
    "Ġpremise": 2424,
    "Ġangels": 2425,
    "ĠTriple": 2426,
    "ĠNetherlands": 2427,
    "ĠOrtiz": 2428,
    "ĠWat": 2429,
    "Ġdesigner": 2430,
    "ĠRabbit": 2431,
    "Ġimplicitly": 2432,
    "Ġversions": 2433,
    "Ġtroub": 2434,
    "ĠHamilton": 2435,
    "Ġallerg": 2436,
    "Ġyuan": 2437,
    "ĠOrganisation": 2438,
    "itor": 2439,
    "ĠDylan": 2440,
    "ĠExcept": 2441,
    "uably": 2442,
    "Ġdaughter": 2443,
    "Ġinaccur": 2444,
    "dam": 2445,
    "Sn": 2446,
    "Ġflew": 2447,
    "Ġsurviv": 2448,
    "Ġelections": 2449,
    "rition": 2450,
    "Ġslaves": 2451,
    "red": 2452,
    "Ġtraject": 2453,
    "Ġ1936": 2454,
    "Ġconvictions": 2455,
    "Ġpossessions": 2456,
    ");": 2457,
    "Ġchart": 2458,
    "ndering": 2459,
    "Ġcriticizing": 2460,
    "ĠSnow": 2461,
    "types": 2462,
    "edge": 2463,
    "ĠPoverty": 2464,
    "Ġpublication": 2465,
    "Ġpsychiat": 2466,
    "2003": 2467,
    "stand": 2468,
    "heres": 2469,
    "Ġencounter": 2470,
    "Ġrecession": 2471,
    "perty": 2472,
    "ĠSoccer": 2473,
    "Ġhoused": 2474,
    "Ġcircuit": 2475,
    "ĠEvents": 2476,
    "avi": 2477,
    "Ġinterchange": 2478,
    "Ġmind": 2479,
    "hero": 2480,
    "amine": 2481,
    "ĠDam": 2482,
    "orie": 2483,
    "Ġfeast": 2484,
    "Ġposter": 2485,
    "Ġinsists": 2486,
    "Ġsupported": 2487,
    "illa": 2488,
    "larg": 2489,
    "ĠGener": 2490,
    "Î½": 2491,
    "Ġdebts": 2492,
    "Ġholds": 2493,
    "ĠMak": 2494,
    "Ġwanna": 2495,
    "ĠCharge": 2496,
    "ĠPrimary": 2497,
    "enes": 2498,
    "disc": 2499,
    "ĠTrek": 2500,
    "Ġasc": 2501,
    "ĠMRI": 2502,
    "ĠApollo": 2503,
    "Ġscreening": 2504,
    "Ġreflects": 2505,
    "ĠBrother": 2506,
    "ãĢģ": 2507,
    "abi": 2508,
    "Ġaccessed": 2509,
    "ĠNetflix": 2510,
    "Don": 2511,
    "OWN": 2512,
    "Ġ2025": 2513,
    "aghd": 2514,
    "ompson": 2515,
    "Ġindependence": 2516,
    "ope": 2517,
    "Ġ-->": 2518,
    "onal": 2519,
    "Ġadv": 2520,
    "esides": 2521,
    "ĠClare": 2522,
    "side": 2523,
    "Ġbrink": 2524,
    "Ġ66": 2525,
    "ĠÂ©": 2526,
    "ato": 2527,
    "N": 2528,
    "ously": 2529,
    "Ġthoughts": 2530,
    "Miller": 2531,
    "ural": 2532,
    "Ġlesser": 2533,
    "Ġfranchises": 2534,
    "L": 2535,
    "ĠRouge": 2536,
    "au": 2537,
    "images": 2538,
    "ware": 2539,
    "related": 2540,
    "Ġmicrobes": 2541,
    "Ġdrilled": 2542,
    "Ġextraordinary": 2543,
    "corn": 2544,
    "Ġaddition": 2545,
    "Ġlink": 2546,
    "natural": 2547,
    "ĠAvoid": 2548,
    "Ġportable": 2549,
    "Ġ1930": 2550,
    "ĠTrump": 2551,
    "Ġfuzzy": 2552,
    "ĠSach": 2553,
    "ultz": 2554,
    "ĠWould": 2555,
    "seud": 2556,
    "sensitive": 2557,
    "ĠSystem": 2558,
    "Ġbytes": 2559,
    "eded": 2560,
    "Ġmartial": 2561,
    "ĠIGN": 2562,
    "Ġtaught": 2563,
    "Ġtrees": 2564,
    "dream": 2565,
    "Ġintimidating": 2566,
    "Ġunlimited": 2567,
    "kit": 2568,
    "ocese": 2569,
    "ĠExtra": 2570,
    "ĠPC": 2571,
    "orts": 2572,
    "ually": 2573,
    "Ġhacker": 2574,
    "orously": 2575,
    "after": 2576,
    "Ġconcentrate": 2577,
    "upload": 2578,
    "ĠSun": 2579,
    "Ġdri": 2580,
    "ward": 2581,
    "Ġimplementation": 2582,
    "Ġnewcomers": 2583,
    "Ġcourthouse": 2584,
    "Ġnavigating": 2585,
    "ĠHubble": 2586,
    "udes": 2587,
    "brew": 2588,
    "¡": 2589,
    "Anyway": 2590,
    "Ġwaiver": 2591,
    "fly": 2592,
    "Ġprovocative": 2593,
    "ĠCzech": 2594,
    "ÙĨ": 2595,
    "ĠCool": 2596,
    "Ġcoincided": 2597,
    "ĠJinping": 2598,
    "oke": 2599,
    "ĠFantasy": 2600,
    "ĠRhodes": 2601,
    "Ġinform": 2602,
    "Ġcontinental": 2603,
    "ĠBiblical": 2604,
    "Ġhaul": 2605,
    "ĠMental": 2606,
    "ĠNO": 2607,
    "Ġhorrified": 2608,
    "Ġfreely": 2609,
    "ĠDist": 2610,
    "ĠHughes": 2611,
    "Ġeight": 2612,
    "Ġwhip": 2613,
    "Ġcarp": 2614,
    "ĠSpanish": 2615,
    "@": 2616,
    "Ġon": 2617,
    "real": 2618,
    "oven": 2619,
    "Ġmagnet": 2620,
    "Ġbreathtaking": 2621,
    "Ġleagues": 2622,
    "ĠRos": 2623,
    "ouf": 2624,
    "Ġdestroys": 2625,
    "Ġordeal": 2626,
    "ĠInterstate": 2627,
    "do": 2628,
    "pict": 2629,
    "Ġhelic": 2630,
    "Ġspreads": 2631,
    "Hall": 2632,
    "Ġdepartments": 2633,
    "ĠChamber": 2634,
    "Ġmolecular": 2635,
    "ĠDual": 2636,
    "Ġraised": 2637,
    "ĠMarlins": 2638,
    "regor": 2639,
    ".[": 2640,
    "Ent": 2641,
    "Ġdisillusion": 2642,
    "holders": 2643,
    "abis": 2644,
    "Ġserver": 2645,
    "Ġdecision": 2646,
    "ĠVirt": 2647,
    "Ġcorps": 2648,
    "Ġexecut": 2649,
    "ĠKra": 2650,
    "Ġprolific": 2651,
    "Ġrecognizing": 2652,
    "umably": 2653,
    "ocur": 2654,
    "Ġmedic": 2655,
    "ĠPolit": 2656,
    "Ġlodged": 2657,
    "ĠEmir": 2658,
    "Ġjump": 2659,
    "Ġft": 2660,
    "Ġslic": 2661,
    "ĠWii": 2662,
    "Case": 2663,
    "t": 2664,
    "Pan": 2665,
    "ĠInfrastructure": 2666,
    "Ġmisrepresent": 2667,
    "ĠWalter": 2668,
    "Ġtheirs": 2669,
    "cipl": 2670,
    "Ġhalls": 2671,
    "ones": 2672,
    "unction": 2673,
    "ĠBloomberg": 2674,
    "ĠHas": 2675,
    "src": 2676,
    "omez": 2677,
    "Ġcommemorate": 2678,
    "ne": 2679,
    "ven": 2680,
    "wic": 2681,
    "Ġrenewed": 2682,
    "Ġpinpoint": 2683,
    "Ġanom": 2684,
    "Ġrebel": 2685,
    "Ġpronounced": 2686,
    "Ġadamant": 2687,
    "Jud": 2688,
    "Ġstatistically": 2689,
    "Ġgeneral": 2690,
    "kef": 2691,
    "Ġtragic": 2692,
    "roduction": 2693,
    "Ġdismissed": 2694,
    "Ġdisturbed": 2695,
    "illion": 2696,
    "Ġpersistence": 2697,
    "Ġdepending": 2698,
    "ĠProduct": 2699,
    "egr": 2700,
    "sided": 2701,
    "Ġfitness": 2702,
    "Ġeditorial": 2703,
    "Ġfilmed": 2704,
    "imagin": 2705,
    "Ġofficially": 2706,
    "Ġsave": 2707,
    "ĠAnd": 2708,
    "Ġsupremac": 2709,
    "stones": 2710,
    "iar": 2711,
    "Ġobst": 2712,
    "128": 2713,
    "othing": 2714,
    "distance": 2715,
    "Ġmachines": 2716,
    "Ġretrieve": 2717,
    "alle": 2718,
    "ĠConcept": 2719,
    "Ġmorale": 2720,
    "Ġpathetic": 2721,
    "Ġkilometers": 2722,
    "ĠGoals": 2723,
    "ĠDestroy": 2724,
    "polit": 2725,
    "aint": 2726,
    "Ġfert": 2727,
    "Ġshy": 2728,
    "mia": 2729,
    "Ġconsisted": 2730,
    "Ġreasonable": 2731,
    "often": 2732,
    "Ġjunk": 2733,
    "Altern": 2734,
    "ĠInter": 2735,
    "Ġhorrific": 2736,
    "Const": 2737,
    "Ġanticipated": 2738,
    "limited": 2739,
    "Jack": 2740,
    "Ġmultinational": 2741,
    "ĠJac": 2742,
    "ĠâĢŀ": 2743,
    "ĠOlymp": 2744,
    "olar": 2745,
    "Ġnumbers": 2746,
    "ĠQualcomm": 2747,
    "Ġliabilities": 2748,
    "Ġother": 2749,
    "ki": 2750,
    "Ġshapes": 2751,
    "Ġworkout": 2752,
    "ĠHor": 2753,
    "Ġ1978": 2754,
    "Ġpus": 2755,
    "ĠIBM": 2756,
    "ĠMaya": 2757,
    "Ġult": 2758,
    "°": 2759,
    "iov": 2760,
    "Ġfactions": 2761,
    "enfranch": 2762,
    "Ġtextures": 2763,
    "SD": 2764,
    "ĠAnton": 2765,
    "iners": 2766,
    "ogan": 2767,
    "Ġunheard": 2768,
    "Ġstudied": 2769,
    "ĠCa": 2770,
    "grav": 2771,
    "Ġterrified": 2772,
    "Ġgel": 2773,
    "cular": 2774,
    "ract": 2775,
    "Ġprevail": 2776,
    "ĠJavascript": 2777,
    "ĠWorkers": 2778,
    "Ġshortages": 2779,
    "Ġlesbian": 2780,
    "Ķ": 2781,
    "Ġever": 2782,
    "World": 2783,
    "Ġamount": 2784,
    "Ġdue": 2785,
    "ange": 2786,
    "iosity": 2787,
    "Ġaccounts": 2788,
    "ETH": 2789,
    "ĠObservatory": 2790,
    "ĠMarathon": 2791,
    "grad": 2792,
    "Ġdestroyed": 2793,
    "bons": 2794,
    "ptic": 2795,
    "iley": 2796,
    "ĠSouls": 2797,
    "otle": 2798,
    "Ġphosph": 2799,
    "sc": 2800,
    "OC": 2801,
    "Ġheightened": 2802,
    "Ġrefined": 2803,
    "Ġquery": 2804,
    "Ġbelie": 2805,
    "Ġconve": 2806,
    "AZ": 2807,
    "Ġdemonstration": 2808,
    "Ġemer": 2809,
    "Ġtangible": 2810,
    "ulum": 2811,
    "Ġoutlet": 2812,
    "riving": 2813,
    "Ġillness": 2814,
    "Ġcrisis": 2815,
    "Ġimprov": 2816,
    "ant": 2817,
    "Ġpolitician": 2818,
    "Ġcens": 2819,
    "Nov": 2820,
    "add": 2821,
    "Ġrecall": 2822,
    "Ġtheorists": 2823,
    "Ġcharging": 2824,
    "ĠPalmer": 2825,
    "etts": 2826,
    "ĠSC": 2827,
    "ĠShi": 2828,
    "ĠSally": 2829,
    "Ġoperate": 2830,
    "Ġwizard": 2831,
    "ĠClinical": 2832,
    "brain": 2833,
    "ĠHeroes": 2834,
    "Ġcal": 2835,
    "ĠLate": 2836,
    "ĠTrad": 2837,
    "Ġspecs": 2838,
    "cc": 2839,
    "nown": 2840,
    "Ġreducing": 2841,
    "Ġfreedom": 2842,
    "Ġelse": 2843,
    "eprint": 2844,
    "bit": 2845,
    "ĠVietnamese": 2846,
    "iani": 2847,
    "Ġblat": 2848,
    "Ġbrowser": 2849,
    "viol": 2850,
    "ervation": 2851,
    "Ġapprehend": 2852,
    "Ġwor": 2853,
    "Ġenjoys": 2854,
    "Ġno": 2855,
    "Ġ501": 2856,
    "uv": 2857,
    "Ġdiscomfort": 2858,
    "Ġpesticide": 2859,
    "ĠKe": 2860,
    "opoulos": 2861,
    "lines": 2862,
    "Cr": 2863,
    "ĠLoad": 2864,
    "Ġfurther": 2865,
    "ĠLed": 2866,
    "Ġrepeated": 2867,
    "OD": 2868,
    "Ġnorms": 2869,
    "Ġconsequ": 2870,
    "ĠDes": 2871,
    "ĠResolution": 2872,
    "Ġdominate": 2873,
    "Ġemploy": 2874,
    "dog": 2875,
    "Ġcosting": 2876,
    "ĠDev": 2877,
    "ĠNato": 2878,
    "Card": 2879,
    "Ġlineman": 2880,
    "ĥ": 2881,
    "Ġclassics": 2882,
    "Ġrendering": 2883,
    "elia": 2884,
    "ĠExecutive": 2885,
    "Ġenough": 2886,
    "ĠProbably": 2887,
    "Ġgained": 2888,
    "Ġconcluding": 2889,
    "Ġ>": 2890,
    "Ġstunning": 2891,
    "Ġfright": 2892,
    "Ġvarying": 2893,
    "obe": 2894,
    "sett": 2895,
    "ĠArkansas": 2896,
    "Ġeas": 2897,
    "Ġtrading": 2898,
    "Ġconflicting": 2899,
    "ĠMonster": 2900,
    "Ġrealised": 2901,
    "Ġrelies": 2902,
    "follow": 2903,
    "Ġ1993": 2904,
    "forming": 2905,
    "Ġprices": 2906,
    "VERTIS": 2907,
    "Ġtighter": 2908,
    "Ġfemale": 2909,
    "Ġthereafter": 2910,
    "Ġdisposal": 2911,
    "Ġcaliber": 2912,
    "Ġpi": 2913,
    "ience": 2914,
    "Ġbraz": 2915,
    "ĠSports": 2916,
    "ĠBar": 2917,
    "stick": 2918,
    "Ġprominent": 2919,
    "Ġwaving": 2920,
    "cut": 2921,
    "Ġadvertise": 2922,
    "aw": 2923,
    "âĢ¦": 2924,
    "ĠWheel": 2925,
    "abortion": 2926,
    "Ġcoordination": 2927,
    "ĠCraw": 2928,
    "Further": 2929,
    "Ġinsist": 2930,
    "Ġblanket": 2931,
    "Ġwarehouse": 2932,
    "Ġscroll": 2933,
    "Ġbreaking": 2934,
    "icus": 2935,
    "hon": 2936,
    "Ġsorry": 2937,
    "ihad": 2938,
    "Ġpartner": 2939,
    "enery": 2940,
    "vement": 2941,
    "ĠSau": 2942,
    "Ġprevention": 2943,
    "athetic": 2944,
    "Ġhumanitarian": 2945,
    "Ġrealise": 2946,
    "ĠHar": 2947,
    "Email": 2948,
    "Ġmarathon": 2949,
    "ĠYel": 2950,
    "Ġskewed": 2951,
    "Ġapple": 2952,
    "Ġinterviewed": 2953,
    "AD": 2954,
    "Ġsole": 2955,
    "your": 2956,
    "Ġbroke": 2957,
    "nia": 2958,
    "ellation": 2959,
    "ĠMohammed": 2960,
    "Ġimpart": 2961,
    "Ġpuppet": 2962,
    "Ġworkforce": 2963,
    "thon": 2964,
    "Ġalt": 2965,
    "Ġmut": 2966,
    "Ġattend": 2967,
    "ĠCNBC": 2968,
    "mon": 2969,
    "hetics": 2970,
    "±": 2971,
    "Ġspecimens": 2972,
    "Ġfeedback": 2973,
    "Ġson": 2974,
    "GB": 2975,
    "ĠHollywood": 2976,
    "Ġcomm": 2977,
    "Ġpermitted": 2978,
    "Ġjumping": 2979,
    "Ġreassuring": 2980,
    "Ġdisguised": 2981,
    "Ġmosquito": 2982,
    "Ġshale": 2983,
    "iii": 2984,
    "BR": 2985,
    "Ġpreserved": 2986,
    "Series": 2987,
    "EE": 2988,
    "Pr": 2989,
    "ĠÐ¸": 2990,
    "aucus": 2991,
    "ussia": 2992,
    "ICS": 2993,
    "ĠBUT": 2994,
    "Ġcompared": 2995,
    "ĠCowboys": 2996,
    "Ġav": 2997,
    "secut": 2998,
    "quire": 2999,
    "hip": 3000,
    "****": 3001,
    "alog": 3002,
    "Ġriots": 3003,
    "ieves": 3004,
    "Ġdub": 3005,
    "Ġconfused": 3006,
    "itionally": 3007,
    "Ġmeasures": 3008,
    "Ġundis": 3009,
    "Ġsuspicious": 3010,
    "lus": 3011,
    "ĠNovember": 3012,
    "Ġrefrain": 3013,
    "ĠCap": 3014,
    "Ġcable": 3015,
    "Ġoccupy": 3016,
    "%.": 3017,
    "Ġoffences": 3018,
    "augh": 3019,
    "Ġeasier": 3020,
    "Ġ450": 3021,
    "Ġsolving": 3022,
    "ept": 3023,
    "Ġmerchandise": 3024,
    "Ġwoke": 3025,
    "sylvania": 3026,
    "VE": 3027,
    "Ġhi": 3028,
    "Ġcorrupt": 3029,
    "ĠCommission": 3030,
    "Ġscout": 3031,
    "isman": 3032,
    "Ġforty": 3033,
    "ĠGore": 3034,
    "ĠMT": 3035,
    "ĠDeutsche": 3036,
    "agues": 3037,
    "Ġbooth": 3038,
    "define": 3039,
    "Ġconfidential": 3040,
    "Ġdeclarations": 3041,
    "ablish": 3042,
    "Ġsunshine": 3043,
    "pires": 3044,
    "Ġdwind": 3045,
    "Ġdenounced": 3046,
    "ĠInterestingly": 3047,
    ".âĢĶ": 3048,
    "Ġconsultation": 3049,
    "night": 3050,
    "Ġenroll": 3051,
    "Ġincompatible": 3052,
    "ĠFashion": 3053,
    "ĠHardy": 3054,
    "Ġrestraint": 3055,
    "Ġorb": 3056,
    "ided": 3057,
    "Ġdisgusting": 3058,
    "ername": 3059,
    "Ġconcurrent": 3060,
    "ĠHeat": 3061,
    "Content": 3062,
    "Ġpeasants": 3063,
    "Ġunmanned": 3064,
    "Ġaspects": 3065,
    "Every": 3066,
    "Ġassemble": 3067,
    "Ġsensible": 3068,
    "Ġtravelling": 3069,
    "ucing": 3070,
    "ĠSoldier": 3071,
    "arded": 3072,
    "ĠRT": 3073,
    "ĠKap": 3074,
    "Ġexercising": 3075,
    "Ġpersonal": 3076,
    "ĠEPA": 3077,
    "ADA": 3078,
    "esteem": 3079,
    "ĠGonzalez": 3080,
    "Ġbugs": 3081,
    "Ġvalid": 3082,
    "nut": 3083,
    "rate": 3084,
    "ĠViktor": 3085,
    "ĠUsed": 3086,
    "ĠCBO": 3087,
    "ĠUran": 3088,
    "Ġanyway": 3089,
    "ourgeois": 3090,
    "Ġgroundbreaking": 3091,
    "Ġmoist": 3092,
    "urther": 3093,
    "ĠSketch": 3094,
    "Ġaccount": 3095,
    "ĠEdward": 3096,
    "colm": 3097,
    "Ġcubic": 3098,
    "Ġinitially": 3099,
    "Ġmotivation": 3100,
    "lit": 3101,
    "ailing": 3102,
    "ĠStreet": 3103,
    "ĠSuff": 3104,
    "ĠSouth": 3105,
    "ĠMitch": 3106,
    "clair": 3107,
    "contract": 3108,
    "Ġgrapp": 3109,
    "ĠLetters": 3110,
    "ISS": 3111,
    "Ġassured": 3112,
    "CT": 3113,
    "ĠCorey": 3114,
    "Recent": 3115,
    "Ġ1956": 3116,
    "ĠIvanka": 3117,
    "Ġreplacing": 3118,
    "Ø§ÙĦ": 3119,
    "ĠMotorola": 3120,
    "---": 3121,
    "ansk": 3122,
    "Ġinsert": 3123,
    "Ġvendor": 3124,
    "Ġsignature": 3125,
    "Ò": 3126,
    "Ġsubsc": 3127,
    "Ġimpose": 3128,
    "''": 3129,
    "Ġeconomically": 3130,
    "Ġvehicles": 3131,
    "ĠMn": 3132,
    "Ġqualifications": 3133,
    "found": 3134,
    "Ġrant": 3135,
    "aret": 3136,
    "ĠIQ": 3137,
    "fa": 3138,
    "Ď": 3139,
    "Ġwheels": 3140,
    "Ġdescribing": 3141,
    "asury": 3142,
    "Ġprest": 3143,
    "Ġroute": 3144,
    "uk": 3145,
    "ĠFresh": 3146,
    "ĠGiul": 3147,
    "Ġgloss": 3148,
    "raction": 3149,
    "elected": 3150,
    "Advertising": 3151,
    "Ġexpans": 3152,
    "Ġblow": 3153,
    "riend": 3154,
    "enezuel": 3155,
    "Other": 3156,
    "Ġ82": 3157,
    "Ġcoherent": 3158,
    "ĠThing": 3159,
    "oha": 3160,
    "LAND": 3161,
    "Ġ1929": 3162,
    "Ġgard": 3163,
    "Ġpowerhouse": 3164,
    "vy": 3165,
    "Ġsurfing": 3166,
    "Ġfrenzy": 3167,
    "Ġaccus": 3168,
    "Ġinformal": 3169,
    "avour": 3170,
    "Ġdashboard": 3171,
    "ĠCurry": 3172,
    "ils": 3173,
    "Ġwilling": 3174,
    "Ġbusted": 3175,
    "independent": 3176,
    "Ġwealthy": 3177,
    ".'": 3178,
    "Ġremoving": 3179,
    "Þ": 3180,
    "Ġtraction": 3181,
    "Well": 3182,
    "Ġcampaigned": 3183,
    "Staff": 3184,
    "Ġalarm": 3185,
    "Ġdialect": 3186,
    "Ġstereotypes": 3187,
    "Ġspent": 3188,
    "Ñ": 3189,
    "active": 3190,
    "ĠOval": 3191,
    "You": 3192,
    "Ġalien": 3193,
    "Ã§Ã£o": 3194,
    "ĠGuest": 3195,
    "ĠMaker": 3196,
    "Ġwhopping": 3197,
    "Ġbreak": 3198,
    "Ġwine": 3199,
    "Ġwork": 3200,
    "ommod": 3201,
    "ĠPistons": 3202,
    "ĠPerhaps": 3203,
    "ĠStack": 3204,
    "chool": 3205,
    "ĠWise": 3206,
    "iked": 3207,
    "ĠLiquid": 3208,
    "ĠOrion": 3209,
    "Ġreinforce": 3210,
    "ĠRousse": 3211,
    "obil": 3212,
    "adjusted": 3213,
    "ante": 3214,
    "ĕ": 3215,
    "Ġmant": 3216,
    "Ġ1934": 3217,
    "ication": 3218,
    "Ġdust": 3219,
    "Ġ91": 3220,
    "Ġy": 3221,
    "tank": 3222,
    "ĠCBC": 3223,
    "Ġspont": 3224,
    "twitter": 3225,
    "ĠReid": 3226,
    "rain": 3227,
    "ĠGeorgian": 3228,
    "Ġisolated": 3229,
    "Ġcalendar": 3230,
    "Ġlip": 3231,
    "chell": 3232,
    "whelming": 3233,
    "Ġentreprene": 3234,
    "Ġaffiliates": 3235,
    "ĠChance": 3236,
    "Ġspit": 3237,
    "Ġquarters": 3238,
    "Ext": 3239,
    "Ġname": 3240,
    "ĠSwitch": 3241,
    "Neill": 3242,
    "ĠPrivate": 3243,
    "ĠBes": 3244,
    "168": 3245,
    "ĠIceland": 3246,
    "ĠPubl": 3247,
    "Ġneural": 3248,
    "Ġalmond": 3249,
    "Ġ26": 3250,
    "ĠPerth": 3251,
    "35": 3252,
    "Ġcooperative": 3253,
    "ĠTheir": 3254,
    "Ġintegrate": 3255,
    "Ġ000": 3256,
    "Ġfaire": 3257,
    "Ġbonds": 3258,
    "ĠKrist": 3259,
    "When": 3260,
    "ĠToronto": 3261,
    "array": 3262,
    "stro": 3263,
    "Ġwarmth": 3264,
    "Ġnetworks": 3265,
    "Before": 3266,
    "ĠThailand": 3267,
    "Ġdislike": 3268,
    "ĠÃ©": 3269,
    "Ġfundament": 3270,
    "Ġdestined": 3271,
    "nm": 3272,
    "Joseph": 3273,
    "ISA": 3274,
    "prov": 3275,
    "Ġaunt": 3276,
    "Washington": 3277,
    "ĠTal": 3278,
    "Ġreason": 3279,
    "Ġwhose": 3280,
    "Ġmedd": 3281,
    "Ġradius": 3282,
    "Ġmorally": 3283,
    "Ġproudly": 3284,
    "Ġincumbent": 3285,
    "bsp": 3286,
    "Ġvs": 3287,
    "Ġfav": 3288,
    "Ġvicious": 3289,
    "ieg": 3290,
    "adic": 3291,
    "fty": 3292,
    "1": 3293,
    "oren": 3294,
    "Ġbasic": 3295,
    "Ġ06": 3296,
    "ĠKenn": 3297,
    "facebook": 3298,
    "ĠJerome": 3299,
    "ĠScots": 3300,
    "IC": 3301,
    "stal": 3302,
    "Ġ80": 3303,
    "Â»": 3304,
    "ĠMembers": 3305,
    "Ġpeas": 3306,
    "root": 3307,
    "ĠBMI": 3308,
    "Ġdevelopment": 3309,
    "Ġoccurred": 3310,
    "Ġvanished": 3311,
    "osition": 3312,
    "aird": 3313,
    "lins": 3314,
    "ĠARM": 3315,
    "air": 3316,
    "Ġbreeze": 3317,
    "ĠKaf": 3318,
    "Fl": 3319,
    "Ġrookie": 3320,
    "agan": 3321,
    "Ġuncon": 3322,
    "Ġcou": 3323,
    "Ġchast": 3324,
    "Ġwaste": 3325,
    "inas": 3326,
    "atz": 3327,
    "ysis": 3328,
    "ĠSprint": 3329,
    "ected": 3330,
    "akespeare": 3331,
    "isive": 3332,
    "math": 3333,
    "llor": 3334,
    "ĠJets": 3335,
    "say": 3336,
    "Ġwaged": 3337,
    "Ġinhabited": 3338,
    "ĠThanksgiving": 3339,
    "Ġnon": 3340,
    "Ãº": 3341,
    "Ġfence": 3342,
    "Ġcivilizations": 3343,
    "Ġjuven": 3344,
    "Ġswim": 3345,
    "drug": 3346,
    "Ġends": 3347,
    "ĠBU": 3348,
    "rors": 3349,
    "Ġkit": 3350,
    "Ġdared": 3351,
    "ĠSn": 3352,
    "pm": 3353,
    "ĠOt": 3354,
    "Ġpopul": 3355,
    "Ġsufficiently": 3356,
    "bury": 3357,
    "Ġsnapshot": 3358,
    "ĠGr": 3359,
    "Fox": 3360,
    "ĠSeattle": 3361,
    "ĠHawaiian": 3362,
    "Ġsafeguard": 3363,
    "Ġflipped": 3364,
    "Ġslapped": 3365,
    "Ġspinning": 3366,
    "Ġcolleagues": 3367,
    "erek": 3368,
    "Ġmost": 3369,
    "Ġbarrel": 3370,
    "Ġminus": 3371,
    "Ġexp": 3372,
    "Power": 3373,
    "Ġtransform": 3374,
    "ĠSep": 3375,
    "Ġnomination": 3376,
    "ĠLif": 3377,
    "ĠBlues": 3378,
    "ĠPablo": 3379,
    "Ġintermedi": 3380,
    "ĠHezbollah": 3381,
    "Ġdesignation": 3382,
    "Ġfatty": 3383,
    "Ġgenerators": 3384,
    "Ġadvertisements": 3385,
    "po": 3386,
    "Ġ37": 3387,
    "Even": 3388,
    "tingham": 3389,
    "ĠUniversal": 3390,
    "ĠHaram": 3391,
    "Ġabusive": 3392,
    "ĠJean": 3393,
    "Ġmalt": 3394,
    "Ġresearching": 3395,
    "Ġcharism": 3396,
    "Ġbump": 3397,
    "Ġ/*": 3398,
    "Ġ1984": 3399,
    "Ġexcluded": 3400,
    "ĠCIA": 3401,
    "ety": 3402,
    "ĠRem": 3403,
    "ĠJacob": 3404,
    "Ġcorrel": 3405,
    "Ġerror": 3406,
    "ĠÂ§": 3407,
    "Ġemploying": 3408,
    "ĠSch": 3409,
    "elfare": 3410,
    "criptions": 3411,
    "ĠPayPal": 3412,
    "ropical": 3413,
    "Ġregulations": 3414,
    "Ġrhetoric": 3415,
    "Ġrisks": 3416,
    "Ġlyr": 3417,
    "Ġvi": 3418,
    "Ġfactual": 3419,
    "Ġlifted": 3420,
    "ĠLatinos": 3421,
    "ĠPay": 3422,
    "Ġmachine": 3423,
    "ants": 3424,
    "Ġcartel": 3425,
    "Ġdiscuss": 3426,
    "Ġparamed": 3427,
    "ĠInformation": 3428,
    "Ġetern": 3429,
    "Try": 3430,
    "Ġexplicit": 3431,
    "Ġaccur": 3432,
    "Food": 3433,
    "ĠPLAY": 3434,
    "Ġhomosexuals": 3435,
    "Ġridiculously": 3436,
    "Ġquestionnaire": 3437,
    "ĠEagle": 3438,
    "¿": 3439,
    "ĠLib": 3440,
    "Ġfreak": 3441,
    "Ġrapper": 3442,
    "Ġadaptation": 3443,
    "inity": 3444,
    "ĠMarriage": 3445,
    "vent": 3446,
    "ĠHigh": 3447,
    "Ġmum": 3448,
    "ĠHumph": 3449,
    "Ġblessing": 3450,
    "Ġlived": 3451,
    "Ġspokes": 3452,
    "Ġreproduce": 3453,
    "ĠSant": 3454,
    "ĠBurton": 3455,
    "Ġaffiliation": 3456,
    "Ġportrait": 3457,
    "Ġalternative": 3458,
    "Ġflawed": 3459,
    "Ġprescrib": 3460,
    "rating": 3461,
    "Ger": 3462,
    "Ġfew": 3463,
    "Coll": 3464,
    "Ġrelative": 3465,
    "ainer": 3466,
    "PP": 3467,
    "omination": 3468,
    "ĠCarr": 3469,
    "Ġpseudo": 3470,
    "Ġ1958": 3471,
    "ĠCalgary": 3472,
    "club": 3473,
    "Ġunw": 3474,
    "Ġfraudulent": 3475,
    "©": 3476,
    "Ġpredatory": 3477,
    "Ġburned": 3478,
    "Ġblew": 3479,
    "Ġunanimous": 3480,
    "walker": 3481,
    "ĠCollege": 3482,
    "Ġ77": 3483,
    "Ġ1968": 3484,
    "ĠPublic": 3485,
    "Ġreactive": 3486,
    "ĠFM": 3487,
    "reaching": 3488,
    "ursed": 3489,
    "Ġtalked": 3490,
    "Ġamazed": 3491,
    "Ġemphasizing": 3492,
    "Ġbacks": 3493,
    "Ġmay": 3494,
    "Ġidentifies": 3495,
    "auf": 3496,
    "ĠFIR": 3497,
    "Ġacoustic": 3498,
    "Ġeats": 3499,
    "While": 3500,
    "2013": 3501,
    "Ġstigma": 3502,
    "Ġ1965": 3503,
    "Ġhumour": 3504,
    "Ĥ": 3505,
    "Ġsignal": 3506,
    "Ġbrill": 3507,
    "Ġcollection": 3508,
    "Ġce": 3509,
    "Ġcorridor": 3510,
    "Ġavoid": 3511,
    "Ġjustices": 3512,
    "100": 3513,
    "Ġomn": 3514,
    "cas": 3515,
    "Ġshow": 3516,
    "ĠFOR": 3517,
    "ĠLouise": 3518,
    "Ġrout": 3519,
    "Ġdeeds": 3520,
    "ĠStore": 3521,
    "Ġoutspoken": 3522,
    "ĠUrban": 3523,
    "ĠHun": 3524,
    "Ġmattered": 3525,
    "Ġsoup": 3526,
    "ĠAndrea": 3527,
    "ĠFuller": 3528,
    "Ġtopp": 3529,
    "Ġidentify": 3530,
    "Ġtesting": 3531,
    "Ġoffending": 3532,
    "Ġfactories": 3533,
    "ĠPad": 3534,
    "Ġchamp": 3535,
    "ĠGround": 3536,
    "Happy": 3537,
    "lim": 3538,
    "ĠTaj": 3539,
    "ĠRES": 3540,
    "Ġanalytical": 3541,
    "ILL": 3542,
    "tax": 3543,
    "Ġseek": 3544,
    "Ġpink": 3545,
    "ĠReviews": 3546,
    "Mobile": 3547,
    "Ġsorted": 3548,
    "turn": 3549,
    "ĠBill": 3550,
    "ĠBulgaria": 3551,
    "Ġflavor": 3552,
    "ĠMadd": 3553,
    "Ġsomeday": 3554,
    "zman": 3555,
    "Ġfandom": 3556,
    "ĠIsn": 3557,
    "Franc": 3558,
    "ĠHunter": 3559,
    "Ġprojections": 3560,
    "().": 3561,
    "Ġfabricated": 3562,
    "Sum": 3563,
    "ĠGermany": 3564,
    "ĠWILL": 3565,
    "str": 3566,
    "Ġhorm": 3567,
    "Ġpurs": 3568,
    "Ġpenalties": 3569,
    "Ø": 3570,
    "Ġviews": 3571,
    "La": 3572,
    "Ġincons": 3573,
    "rent": 3574,
    "Ġfloor": 3575,
    "ĠPump": 3576,
    "Ġslack": 3577,
    "Ġhonor": 3578,
    "ham": 3579,
    "glas": 3580,
    "Ġformat": 3581,
    "Ġirrit": 3582,
    "\",\"": 3583,
    "Stay": 3584,
    "ucle": 3585,
    "ĠHiggins": 3586,
    "isode": 3587,
    "ĠWATCHED": 3588,
    "Ġclin": 3589,
    "Ġnerve": 3590,
    "athy": 3591,
    "ĠRom": 3592,
    "peer": 3593,
    "Ġnotice": 3594,
    "ĠÐ½Ð°": 3595,
    "Ġdaytime": 3596,
    "Ġreflected": 3597,
    "idency": 3598,
    "Ġforb": 3599,
    "Ġbright": 3600,
    "Ġdetective": 3601,
    "Ġanimated": 3602,
    "ĠBreitbart": 3603,
    "ĠSmith": 3604,
    "ACT": 3605,
    "Ġfreelance": 3606,
    "comm": 3607,
    "unct": 3608,
    "Ġ1913": 3609,
    "Ġrunway": 3610,
    "Ġtodd": 3611,
    "via": 3612,
    "west": 3613,
    "Ġavenues": 3614,
    "Ġlegend": 3615,
    "Ġmentality": 3616,
    "ness": 3617,
    "ĠBills": 3618,
    "ĠInc": 3619,
    "ĠHamburg": 3620,
    "RELATED": 3621,
    "ĠDrag": 3622,
    "Ġkingdom": 3623,
    "Ġdeliberately": 3624,
    "Mid": 3625,
    "Ġreleased": 3626,
    "Ġremote": 3627,
    "sworth": 3628,
    "Ġhallway": 3629,
    "haul": 3630,
    "iddles": 3631,
    "inda": 3632,
    "irlf": 3633,
    "ys": 3634,
    "Ġsil": 3635,
    "ĠPage": 3636,
    "Ġbacter": 3637,
    "Ġcrus": 3638,
    "uge": 3639,
    "Ġcle": 3640,
    "ĠHispanics": 3641,
    "Ġas": 3642,
    "big": 3643,
    "rath": 3644,
    "ĠEST": 3645,
    "Ġirre": 3646,
    "Ġcall": 3647,
    "Ġê": 3648,
    "Ġfashion": 3649,
    "imen": 3650,
    "ĠLot": 3651,
    "ĠWriters": 3652,
    "ĠJonathan": 3653,
    "Ġgradual": 3654,
    "aper": 3655,
    "Ġmanifesto": 3656,
    "ĠCommons": 3657,
    "ocket": 3658,
    "ĠUltimately": 3659,
    "ĠChampionship": 3660,
    "ady": 3661,
    "ajo": 3662,
    "Ġcas": 3663,
    "Ġharvesting": 3664,
    "ween": 3665,
    "ĠHong": 3666,
    "Ġrefriger": 3667,
    "Ġlaughing": 3668,
    "Ġdecline": 3669,
    "Light": 3670,
    "Ġlungs": 3671,
    "social": 3672,
    "Ġstored": 3673,
    "istic": 3674,
    "Ġlitter": 3675,
    "Ġusually": 3676,
    "Ġpredec": 3677,
    "Ġseal": 3678,
    "off": 3679,
    "educated": 3680,
    "ĠNewport": 3681,
    "Ġimplying": 3682,
    "Ġreacts": 3683,
    "ĠHarold": 3684,
    "icals": 3685,
    "Ġdisability": 3686,
    "1990": 3687,
    "Ġzeal": 3688,
    "Ġstyle": 3689,
    "threatening": 3690,
    "ĠIndiana": 3691,
    "ĠPere": 3692,
    "Ġplate": 3693,
    "ĠWindsor": 3694,
    "aman": 3695,
    "Ġ36": 3696,
    "Ġrecharge": 3697,
    "Ġfocus": 3698,
    "ĠBelt": 3699,
    "Ġhalluc": 3700,
    "ĠLatino": 3701,
    "04": 3702,
    "Ġsuppression": 3703,
    "wart": 3704,
    "ĠAll": 3705,
    "Ġfertile": 3706,
    "Ġpull": 3707,
    "Ġreservation": 3708,
    "Ġresigned": 3709,
    "Ġstruggle": 3710,
    "ĠYorkers": 3711,
    "pal": 3712,
    "ĠComp": 3713,
    "Ġawarded": 3714,
    "ĠOtt": 3715,
    "Ġcommissions": 3716,
    "ĠDol": 3717,
    "Ġpup": 3718,
    "Photos": 3719,
    "Ġmanner": 3720,
    "Ġarrangement": 3721,
    "Ġreconsider": 3722,
    "Ġtemplate": 3723,
    "ĠAmerican": 3724,
    "spl": 3725,
    "Ġvolcano": 3726,
    "ĠMont": 3727,
    "'": 3728,
    "ĠTib": 3729,
    "Ġtou": 3730,
    "Ġreacting": 3731,
    "ĠImagine": 3732,
    "ĠGrim": 3733,
    "Ġnotify": 3734,
    "ĠGrammy": 3735,
    "ĠMask": 3736,
    "ĠAve": 3737,
    "Ġchampion": 3738,
    "ĠPupp": 3739,
    "Ġquick": 3740,
    "trl": 3741,
    "Ġout": 3742,
    "innamon": 3743,
    "Ġdeclaration": 3744,
    "Ġcommun": 3745,
    "Øª": 3746,
    "Ġalliances": 3747,
    "ĠCatal": 3748,
    "Ġfunded": 3749,
    "Ġdoct": 3750,
    "drive": 3751,
    "plot": 3752,
    "Ġcompetition": 3753,
    "ĠGabriel": 3754,
    "ĠAwards": 3755,
    "Ġplans": 3756,
    "oped": 3757,
    "Ġinternally": 3758,
    "BO": 3759,
    "Ġ58": 3760,
    "Ġmarried": 3761,
    "ĠLakes": 3762,
    "ĠArch": 3763,
    "vironment": 3764,
    "abetes": 3765,
    "Ġwhe": 3766,
    "blood": 3767,
    "Ġscient": 3768,
    "33": 3769,
    "Ġcontenders": 3770,
    "Ġcache": 3771,
    "Ġwound": 3772,
    "«": 3773,
    "ionally": 3774,
    "irgin": 3775,
    "ctica": 3776,
    "ĠPist": 3777,
    "Ġestablished": 3778,
    "Ġpainted": 3779,
    "Ġvil": 3780,
    "media": 3781,
    "ens": 3782,
    "largest": 3783,
    "Ġcorruption": 3784,
    "ĠGame": 3785,
    "Ġprobation": 3786,
    "Ġrotate": 3787,
    "ranch": 3788,
    "Ġunrestricted": 3789,
    "Ġratio": 3790,
    "ĠIstanbul": 3791,
    "Ġdeal": 3792,
    "Ġbits": 3793,
    "ĠMotion": 3794,
    "ĠScholars": 3795,
    "Ġhot": 3796,
    "Ġassociation": 3797,
    "Ġblueprint": 3798,
    "charge": 3799,
    "ĠSA": 3800,
    "earing": 3801,
    "ĠTyler": 3802,
    "ARR": 3803,
    "ĠUd": 3804,
    "Ġcumulative": 3805,
    "Ġscrimmage": 3806,
    "ĠMandela": 3807,
    "ish": 3808,
    "ĠGren": 3809,
    "okia": 3810,
    "urances": 3811,
    "Ġasserting": 3812,
    "Ġprior": 3813,
    "ĠTucker": 3814,
    "Charlie": 3815,
    "=âĢĿ": 3816,
    "OSS": 3817,
    "Ġhitters": 3818,
    "âĹı": 3819,
    "ĠClarks": 3820,
    "Ġpreview": 3821,
    "cell": 3822,
    "ĠBetween": 3823,
    "Ġcandid": 3824,
    "Ġregards": 3825,
    "Ġcre": 3826,
    "Ġcans": 3827,
    "Ġbasin": 3828,
    "Ġdevoid": 3829,
    "Ġcombines": 3830,
    "unless": 3831,
    "ĠSoros": 3832,
    "ĠBest": 3833,
    "Ġ33": 3834,
    "ĠCards": 3835,
    "Ġjudges": 3836,
    "ĠNa": 3837,
    "Ġmassacre": 3838,
    "ĠUCLA": 3839,
    "scope": 3840,
    "ĠJackie": 3841,
    "Ġreporter": 3842,
    "ú": 3843,
    "Ġprotections": 3844,
    "Ġmeteor": 3845,
    "ĠCord": 3846,
    "Ġhood": 3847,
    "Ġprofound": 3848,
    "why": 3849,
    "ĠGolden": 3850,
    "lan": 3851,
    "ĠTru": 3852,
    "smith": 3853,
    "Ġhumorous": 3854,
    "ISIS": 3855,
    "Ġnode": 3856,
    "ĠThought": 3857,
    "ĠSom": 3858,
    "Ġnested": 3859,
    "'ll": 3860,
    "ĠSamsung": 3861,
    "Ġreplace": 3862,
    "Ġexperimental": 3863,
    "ival": 3864,
    "Ġgenres": 3865,
    ").[": 3866,
    "course": 3867,
    "ÂŃ": 3868,
    "Ġelectricity": 3869,
    "Ġlecture": 3870,
    "Ġsheets": 3871,
    "chedel": 3872,
    "ĠBaghdad": 3873,
    "ĠEvan": 3874,
    "ĠPrevious": 3875,
    "Ġtraveled": 3876,
    "Ġeuth": 3877,
    "Ġyoga": 3878,
    "ĠGNU": 3879,
    "ĠLaz": 3880,
    "ixon": 3881,
    "ĠHarry": 3882,
    "ĠSkype": 3883,
    "Average": 3884,
    "idant": 3885,
    "ĠDevils": 3886,
    "Ġclearance": 3887,
    "ĠRes": 3888,
    "Win": 3889,
    "Ġprem": 3890,
    ":\"": 3891,
    "rera": 3892,
    "four": 3893,
    "Ġprestigious": 3894,
    "ĠSP": 3895,
    "ĠBet": 3896,
    "Mor": 3897,
    "azed": 3898,
    "ĠMHz": 3899,
    "Ġha": 3900,
    "Ġbu": 3901,
    "Invest": 3902,
    "Ġdry": 3903,
    "Ġreliably": 3904,
    "Ġcloth": 3905,
    "Ġingest": 3906,
    "Ġtrophy": 3907,
    "wed": 3908,
    "ÙĲ": 3909,
    "die": 3910,
    "Ġmisunderstanding": 3911,
    "give": 3912,
    "ht": 3913,
    "Ġgrowing": 3914,
    "Ġguaranteed": 3915,
    "ĠArmy": 3916,
    "ĠCharl": 3917,
    "Ġsecret": 3918,
    "Ġspiders": 3919,
    "Ġper": 3920,
    "Ġ1944": 3921,
    "ĠCrus": 3922,
    "uilt": 3923,
    "Ġwash": 3924,
    "Ġtight": 3925,
    "Ġromantic": 3926,
    "Ġtyping": 3927,
    "ĠKatherine": 3928,
    "Ġsort": 3929,
    "Ġwest": 3930,
    "alia": 3931,
    "Ġpatience": 3932,
    "Ġsite": 3933,
    "Ġinstruct": 3934,
    "Ġactiv": 3935,
    "create": 3936,
    "!),": 3937,
    "Tuesday": 3938,
    "Born": 3939,
    "esters": 3940,
    "Per": 3941,
    "valid": 3942,
    "ĠDivine": 3943,
    "service": 3944,
    "ĠCBS": 3945,
    "ĠNew": 3946,
    "ĠIX": 3947,
    "emic": 3948,
    "ogether": 3949,
    "Ġphone": 3950,
    "Ġhacked": 3951,
    "ĠUganda": 3952,
    "left": 3953,
    "Ġnegotiations": 3954,
    "Ġcyber": 3955,
    "IME": 3956,
    "Ġdefinitely": 3957,
    "Ġempty": 3958,
    "ĠProvince": 3959,
    "Ġfolk": 3960,
    "Ġoct": 3961,
    "raid": 3962,
    "ĠSimple": 3963,
    "important": 3964,
    "urs": 3965,
    "ows": 3966,
    "ĠKurds": 3967,
    "ivity": 3968,
    "Ġkeynote": 3969,
    "ashi": 3970,
    "ĠNapoleon": 3971,
    "Graph": 3972,
    "mble": 3973,
    "Ġpatrols": 3974,
    "Ġconst": 3975,
    "ĠLow": 3976,
    "icks": 3977,
    "essa": 3978,
    "setting": 3979,
    "Ġthou": 3980,
    "\".": 3981,
    "aida": 3982,
    "Ġabsolute": 3983,
    "ĠSalv": 3984,
    "ula": 3985,
    "Ġworkflow": 3986,
    "ĠIndia": 3987,
    "Ġsheriff": 3988,
    "ĠBloom": 3989,
    "ĠChancellor": 3990,
    "Ġcrunch": 3991,
    "Ġeject": 3992,
    "Year": 3993,
    "Ġwal": 3994,
    "Ġedited": 3995,
    "ĠFoley": 3996,
    "Ġstarting": 3997,
    "Ġ86": 3998,
    "olitical": 3999,
    "tri": 4000,
    "ĠCaliforn": 4001,
    "Ġhigh": 4002,
    "Ġbringing": 4003,
    "ĠPatri": 4004,
    "Ġlessons": 4005,
    "ĠArsenal": 4006,
    "Ġqualifier": 4007,
    "Ġconsidered": 4008,
    "Ġdoubts": 4009,
    "Ġclos": 4010,
    "Ġrepro": 4011,
    "how": 4012,
    "ĠCalifornia": 4013,
    "ĠSer": 4014,
    "Under": 4015,
    "ĠEssex": 4016,
    "imet": 4017,
    "Second": 4018,
    "ĠPlus": 4019,
    "breaks": 4020,
    "ĠHistory": 4021,
    "Ġaest": 4022,
    "Ġ70": 4023,
    "ĠMah": 4024,
    "ĠPru": 4025,
    "ĠV": 4026,
    "Ġtemptation": 4027,
    "aukee": 4028,
    "osity": 4029,
    "ushes": 4030,
    "Ġ}": 4031,
    "Ġneigh": 4032,
    "Ġdecrease": 4033,
    "ructure": 4034,
    "oubtedly": 4035,
    "Ġoperation": 4036,
    "it": 4037,
    "Ġgot": 4038,
    "Ġbelong": 4039,
    "Ġcracks": 4040,
    "Ġquasi": 4041,
    "ĠMcCarthy": 4042,
    "Ġperman": 4043,
    "Ġobstruction": 4044,
    "utz": 4045,
    "Ġsticks": 4046,
    "Ġmayoral": 4047,
    "Ġstorms": 4048,
    "Ġmigrants": 4049,
    "ĠKathleen": 4050,
    "Ġ65": 4051,
    "Ġmodern": 4052,
    "Am": 4053,
    "Ġunreasonable": 4054,
    "cÃ©": 4055,
    "Ġclassmates": 4056,
    "Ġmolecule": 4057,
    "ac": 4058,
    "ĠpÃ¥": 4059,
    "erest": 4060,
    "ĠManuel": 4061,
    "loid": 4062,
    "Ġdepths": 4063,
    "Ġmiserable": 4064,
    "ĠMarine": 4065,
    "inflamm": 4066,
    "vis": 4067,
    "ĠGTX": 4068,
    "uring": 4069,
    "Ġorig": 4070,
    "enary": 4071,
    "Earth": 4072,
    "Ġinvestments": 4073,
    "blem": 4074,
    "ased": 4075,
    "ĠNational": 4076,
    "ribution": 4077,
    "Ġdisdain": 4078,
    "ĠNinja": 4079,
    "ĠM": 4080,
    "olkien": 4081,
    "ĠNicolas": 4082,
    "Ġseries": 4083,
    "mega": 4084,
    "Ġchaos": 4085,
    "Ġskins": 4086,
    "asy": 4087,
    "ĠPrime": 4088,
    "Ġexperienced": 4089,
    "Ġbureaucr": 4090,
    "çļ": 4091,
    "Ġreddit": 4092,
    "Ġlit": 4093,
    "Ġraped": 4094,
    "Ġknockout": 4095,
    "Ġannounced": 4096,
    "Ġafter": 4097,
    "Ð": 4098,
    "arks": 4099,
    "prot": 4100,
    "OL": 4101,
    "ainted": 4102,
    "jriwal": 4103,
    "ĠSchumer": 4104,
    "ĠThe": 4105,
    "ators": 4106,
    "ASH": 4107,
    "Ġgenerated": 4108,
    "ĠEisen": 4109,
    "swick": 4110,
    "pie": 4111,
    "Ġforces": 4112,
    "ĠOther": 4113,
    "Ġholidays": 4114,
    "Ġbother": 4115,
    "Ġplunged": 4116,
    "CON": 4117,
    "ĠCannon": 4118,
    "co": 4119,
    "Fr": 4120,
    "Ġtedious": 4121,
    "icked": 4122,
    "Ġ480": 4123,
    "het": 4124,
    "Ġmedals": 4125,
    "Ġexpense": 4126,
    "Ġconfirm": 4127,
    "ĠNixon": 4128,
    "ĠGallagher": 4129,
    "hots": 4130,
    "Ġnude": 4131,
    "ernand": 4132,
    "tenance": 4133,
    "Ġvisibly": 4134,
    "ĠCentury": 4135,
    "ĠKasich": 4136,
    "Ġæ": 4137,
    "Ġinexpl": 4138,
    "ĠPrem": 4139,
    "Ġcater": 4140,
    "Ġneo": 4141,
    "Ġabnormal": 4142,
    "ĠVin": 4143,
    "ERY": 4144,
    "ĠFred": 4145,
    "ĠEll": 4146,
    "Ġracket": 4147,
    "ĠLinux": 4148,
    "ĠTet": 4149,
    "onents": 4150,
    "job": 4151,
    "Ġinappropriate": 4152,
    "Ġincorporated": 4153,
    "Because": 4154,
    "ello": 4155,
    "ong": 4156,
    "City": 4157,
    "ĠCourt": 4158,
    "Ġpart": 4159,
    "ĠReyn": 4160,
    "Ġsentenced": 4161,
    "ĠThread": 4162,
    "ĠTransportation": 4163,
    "Gun": 4164,
    "Ġsouthern": 4165,
    "ĠStars": 4166,
    "Ġgenetic": 4167,
    "Ġplus": 4168,
    "Ġwithstand": 4169,
    "Ġnightmare": 4170,
    "Ġpleas": 4171,
    "cling": 4172,
    "ĠAgricult": 4173,
    "Ġguts": 4174,
    "System": 4175,
    "habi": 4176,
    "inating": 4177,
    "tesque": 4178,
    "Ġphotograph": 4179,
    "æľ": 4180,
    "Ġpunt": 4181,
    "ĠBenghazi": 4182,
    "Ġvalidity": 4183,
    "Ġorder": 4184,
    "ĠPA": 4185,
    "ĠGraphics": 4186,
    "Ġhack": 4187,
    "Ġneighbourhood": 4188,
    "Ġweakness": 4189,
    "Ġnaval": 4190,
    "ĠSanta": 4191,
    "ī": 4192,
    "ondu": 4193,
    "ĠMinutes": 4194,
    "asts": 4195,
    "Ġinsurgency": 4196,
    "Ġwondering": 4197,
    "dollar": 4198,
    "ĠNormally": 4199,
    "untary": 4200,
    "ĠKarn": 4201,
    "ĠHilton": 4202,
    "Ġcountry": 4203,
    "Ġtimetable": 4204,
    "Ġinside": 4205,
    "ĠNOT": 4206,
    "HT": 4207,
    "ĠDynam": 4208,
    "Ġ210": 4209,
    "mark": 4210,
    "Ġemerge": 4211,
    "amo": 4212,
    "Ġdemolished": 4213,
    "ĠRapid": 4214,
    "ision": 4215,
    "Ġlobbied": 4216,
    "that": 4217,
    "Controller": 4218,
    "Ġhorr": 4219,
    "Ġnod": 4220,
    "por": 4221,
    "pir": 4222,
    "ĠRelations": 4223,
    "ĠDodge": 4224,
    "Ġrelying": 4225,
    "ĠTalk": 4226,
    "Ġintimacy": 4227,
    "Ġtenth": 4228,
    "Ġcasts": 4229,
    "Ġopp": 4230,
    "ĠTor": 4231,
    "inness": 4232,
    "Ġtranslation": 4233,
    "buster": 4234,
    "Ġinternet": 4235,
    "Ġcele": 4236,
    "ometimes": 4237,
    "noon": 4238,
    "Ġestimates": 4239,
    "Ġarrows": 4240,
    "Ġcritique": 4241,
    "Ġapplicable": 4242,
    "Ġrelocation": 4243,
    "ĠMS": 4244,
    "Question": 4245,
    "ĠMaster": 4246,
    "Ġcircumstances": 4247,
    "oids": 4248,
    "Ġworry": 4249,
    "Ġpulls": 4250,
    "ector": 4251,
    "anas": 4252,
    "ĠCaesar": 4253,
    "represented": 4254,
    "ĠSchwe": 4255,
    "Ġaerial": 4256,
    "Ġcontests": 4257,
    "Ġfetish": 4258,
    "Ġfiscal": 4259,
    "----------------": 4260,
    "dullah": 4261,
    "ĠEye": 4262,
    "Ġprevious": 4263,
    "oji": 4264,
    "ĠSeveral": 4265,
    "ĠMour": 4266,
    "ĠPap": 4267,
    "Ġnoteworthy": 4268,
    "ĠBacon": 4269,
    "Ġthro": 4270,
    "ĠMalaysian": 4271,
    "ÑģÐº": 4272,
    "ĠCrit": 4273,
    "ength": 4274,
    "Ġmarriage": 4275,
    "ĠâĢĭ": 4276,
    "Ġmechanisms": 4277,
    "Ġdaunting": 4278,
    "Had": 4279,
    "Ġarch": 4280,
    "Ġregime": 4281,
    "Ġincomplete": 4282,
    "ĠCorp": 4283,
    "Since": 4284,
    "Ġaboard": 4285,
    "nergy": 4286,
    "raven": 4287,
    "ĠAssembly": 4288,
    "ĠLevy": 4289,
    "ĠBeginning": 4290,
    "yond": 4291,
    "arsh": 4292,
    "Ġ01": 4293,
    "obile": 4294,
    "Ġwithdrew": 4295,
    "esse": 4296,
    "Ġgeomet": 4297,
    "Ġcand": 4298,
    "Ġket": 4299,
    "inational": 4300,
    "Ġedition": 4301,
    "ĠExperience": 4302,
    "Ġdetail": 4303,
    "posts": 4304,
    "ĠFran": 4305,
    "ĠFriends": 4306,
    "amation": 4307,
    "Ġpockets": 4308,
    "ocial": 4309,
    "Ġsovere": 4310,
    "Ġsyntax": 4311,
    "Ġbeside": 4312,
    "hyd": 4313,
    "Ġsighed": 4314,
    "alla": 4315,
    "ĠCody": 4316,
    "ĠBach": 4317,
    "Ġoper": 4318,
    "ĠSchool": 4319,
    "Ġcis": 4320,
    "Ġteenage": 4321,
    "ĠEpstein": 4322,
    "Ġorigin": 4323,
    "idad": 4324,
    "ĠMarketing": 4325,
    "ĠGarner": 4326,
    "Ġelementary": 4327,
    "ĠGW": 4328,
    "htaking": 4329,
    "Ġpeaked": 4330,
    "Ġ1967": 4331,
    "Ġgrade": 4332,
    "Ġprecautions": 4333,
    "Canada": 4334,
    "ĠHorizon": 4335,
    "Ġdiss": 4336,
    "PD": 4337,
    "Ġatomic": 4338,
    "laughs": 4339,
    "Ġproves": 4340,
    "Ġideally": 4341,
    "Ġrecol": 4342,
    "Ġyoung": 4343,
    "Ġrainfall": 4344,
    "Ġinsurance": 4345,
    "Ġclerk": 4346,
    "ĠâĨĴ": 4347,
    "ĠBrandon": 4348,
    "Ur": 4349,
    "ĠPradesh": 4350,
    "Ġansw": 4351,
    "Ġalright": 4352,
    "Ġwhole": 4353,
    "ĠThom": 4354,
    "Ġcontaining": 4355,
    "Ġflashes": 4356,
    "ĠBundesliga": 4357,
    "Ġamateur": 4358,
    "roph": 4359,
    "Ġpreparation": 4360,
    "ĠCave": 4361,
    "Ġpolitically": 4362,
    "Ġcent": 4363,
    "Ġsubmar": 4364,
    "ĠAdvis": 4365,
    "Ġstays": 4366,
    "Ġpatriarch": 4367,
    "Pen": 4368,
    "Ġir": 4369,
    "ĠRan": 4370,
    "Ġlateral": 4371,
    "namese": 4372,
    "Ġcurriculum": 4373,
    "Ġwarm": 4374,
    "Ġsupports": 4375,
    "angling": 4376,
    "NAS": 4377,
    "ĠPitch": 4378,
    "mala": 4379,
    "bird": 4380,
    "Ġcurrents": 4381,
    "Ġmystery": 4382,
    "Another": 4383,
    "LAY": 4384,
    "apse": 4385,
    "ĠMeh": 4386,
    "Ġadversary": 4387,
    "Ġexample": 4388,
    "ĠFox": 4389,
    "Ġtype": 4390,
    "bomb": 4391,
    "Ġropes": 4392,
    "Ġsimple": 4393,
    "Ġmonst": 4394,
    "Ġpassages": 4395,
    "Ġguided": 4396,
    "bid": 4397,
    "Ġabove": 4398,
    "thread": 4399,
    "Ġnumbered": 4400,
    "Ġpresidents": 4401,
    "ĠFly": 4402,
    "Ġclich": 4403,
    "Ġdefended": 4404,
    "ĠFC": 4405,
    "ĠUltimate": 4406,
    "Ġwolf": 4407,
    "Ġoverweight": 4408,
    "inces": 4409,
    "Ġphotographers": 4410,
    "Ġperipheral": 4411,
    "Ġprepar": 4412,
    "Ġmicroscope": 4413,
    "Ġmeasurement": 4414,
    "ĠZucker": 4415,
    "Ġcollateral": 4416,
    "Ġdecidedly": 4417,
    "Ġrepealing": 4418,
    "Ġpublishers": 4419,
    "Ġtwins": 4420,
    "Ġcolours": 4421,
    "water": 4422,
    "ĠButter": 4423,
    "Id": 4424,
    "Ġware": 4425,
    "idy": 4426,
    "ĠMonsters": 4427,
    "ĠGovernment": 4428,
    "Ġphrase": 4429,
    "Ġintrinsic": 4430,
    "Ġaccident": 4431,
    "Ġresur": 4432,
    "ihar": 4433,
    "general": 4434,
    "Ġpublishing": 4435,
    "ĠWildlife": 4436,
    "Ġscen": 4437,
    "Ġfluctuations": 4438,
    "ĠSet": 4439,
    "Ġdemonstrate": 4440,
    "Ġrequires": 4441,
    "aments": 4442,
    "Ġdiscrep": 4443,
    "otti": 4444,
    "Ġmoder": 4445,
    "Ġbidding": 4446,
    "Ġposing": 4447,
    "Ġsuffer": 4448,
    "Ġdy": 4449,
    "Ġphot": 4450,
    "oss": 4451,
    "Ġ3000": 4452,
    "ĠPilot": 4453,
    "ĠPlato": 4454,
    "ĠGawker": 4455,
    "ĠHit": 4456,
    "Ġemphasize": 4457,
    "Ġlosses": 4458,
    "Ġtrace": 4459,
    "Ġsecrets": 4460,
    "Ter": 4461,
    "whether": 4462,
    "Ġextensions": 4463,
    "install": 4464,
    "Ġantis": 4465,
    "per": 4466,
    "ĠHawks": 4467,
    "Ġsettled": 4468,
    "Char": 4469,
    "Ġoperator": 4470,
    "Ġestablishment": 4471,
    "Ġriders": 4472,
    "Ġunderest": 4473,
    "ĠHan": 4474,
    "claim": 4475,
    "Ġprosecutors": 4476,
    "Ġstockp": 4477,
    "Ć": 4478,
    "ĠBuddh": 4479,
    "ĠPi": 4480,
    "Ġsalary": 4481,
    "ĠTTC": 4482,
    "Ġcore": 4483,
    "Ġdet": 4484,
    "felt": 4485,
    "ART": 4486,
    "Ġnarrowly": 4487,
    "ipher": 4488,
    "ĠZimmerman": 4489,
    "Ġfaint": 4490,
    "Ġ4": 4491,
    "Ġleast": 4492,
    "Ġcamera": 4493,
    "ĠSteel": 4494,
    "Ġseismic": 4495,
    "Ġprimaries": 4496,
    "Ġhers": 4497,
    "ĠTuls": 4498,
    "Ġmile": 4499,
    "ĠVirtual": 4500,
    "Ġmach": 4501,
    "Ġtsun": 4502,
    "ĠKend": 4503,
    "Ġinflu": 4504,
    "Ġpresident": 4505,
    "ĠFifth": 4506,
    "Ġpromo": 4507,
    "Ġhappen": 4508,
    "Ġgrips": 4509,
    "Ġstretching": 4510,
    "Ġorganize": 4511,
    "ayette": 4512,
    "Core": 4513,
    "see": 4514,
    "ossip": 4515,
    "Ġperf": 4516,
    "Ã©e": 4517,
    "Ġbowl": 4518,
    "ĠDurham": 4519,
    "199": 4520,
    "ividual": 4521,
    "Ġbroadband": 4522,
    "ĠCommittee": 4523,
    "Ġcommute": 4524,
    "flight": 4525,
    "played": 4526,
    "itches": 4527,
    "words": 4528,
    "ĠStafford": 4529,
    "IGH": 4530,
    "im": 4531,
    "ederal": 4532,
    "ĠVita": 4533,
    "cyclopedia": 4534,
    "Ġtrivial": 4535,
    "ĠNZ": 4536,
    "ĠFocus": 4537,
    "Ġtweak": 4538,
    "aterial": 4539,
    "ĠDew": 4540,
    "Ġpred": 4541,
    "Ġpoke": 4542,
    "Ġanth": 4543,
    "ĠWass": 4544,
    "ĠHydro": 4545,
    "Ġindoors": 4546,
    "ophob": 4547,
    "ĠBa": 4548,
    "ĠJump": 4549,
    "FW": 4550,
    "Ġspeaking": 4551,
    "ĠGlen": 4552,
    "ĠPeyton": 4553,
    "ĠNevada": 4554,
    "celer": 4555,
    "ĠIntegr": 4556,
    "Six": 4557,
    "Ġinsider": 4558,
    "rir": 4559,
    "Ġsuccessful": 4560,
    "verse": 4561,
    "Ġways": 4562,
    "Ġtransaction": 4563,
    "Ġasked": 4564,
    "ĠÑĩ": 4565,
    "Ġimmense": 4566,
    "headed": 4567,
    "Ġcolorful": 4568,
    "apping": 4569,
    "ĠBrisbane": 4570,
    "Ġelderly": 4571,
    "A": 4572,
    "ĠEthiopia": 4573,
    "Ġrest": 4574,
    "Ġsurely": 4575,
    "Ġdick": 4576,
    "Ġinnovative": 4577,
    "91": 4578,
    "Ġsells": 4579,
    "ĠComment": 4580,
    "Ġruth": 4581,
    "Ġimplications": 4582,
    "Sy": 4583,
    "ĠBase": 4584,
    "uzz": 4585,
    "ĠEarl": 4586,
    "97": 4587,
    "Ġphotographer": 4588,
    "gow": 4589,
    "Ġgonna": 4590,
    "econom": 4591,
    "Ġfoul": 4592,
    "ashtra": 4593,
    "ĠClear": 4594,
    "Ġram": 4595,
    "ĠJong": 4596,
    "Ġinclusion": 4597,
    "Ġaccompanied": 4598,
    "ĠHugo": 4599,
    "Ġkiss": 4600,
    "Ġdraws": 4601,
    "Conclusion": 4602,
    "Sw": 4603,
    "MM": 4604,
    "Ġpublish": 4605,
    "icles": 4606,
    "Ġagreements": 4607,
    "ĠTele": 4608,
    "ĠIII": 4609,
    "ĠBrend": 4610,
    "ĠNorwegian": 4611,
    "Ġfo": 4612,
    "ĠVari": 4613,
    "Ġlabel": 4614,
    "Ġhits": 4615,
    "ĠCarpenter": 4616,
    "Ġseparatists": 4617,
    "still": 4618,
    "Ġsmaller": 4619,
    "Ġdepl": 4620,
    "Ġprotective": 4621,
    "Ġdemonstrating": 4622,
    "arry": 4623,
    "Ġcigar": 4624,
    "ĠKazakh": 4625,
    "Ġmogul": 4626,
    "oot": 4627,
    "ĠPepper": 4628,
    "fd": 4629,
    "usp": 4630,
    "Ġimplement": 4631,
    "Ġelected": 4632,
    "Ġannot": 4633,
    "group": 4634,
    "ĠAllah": 4635,
    "ĠSanchez": 4636,
    "Ġrallied": 4637,
    "enced": 4638,
    "Ġspells": 4639,
    "me": 4640,
    "Ġthreat": 4641,
    "Ġtempt": 4642,
    "Ġlater": 4643,
    "Ġhonesty": 4644,
    "awn": 4645,
    "ERO": 4646,
    "Ġaired": 4647,
    "ĠJersey": 4648,
    "ĠPlan": 4649,
    "Ġsurn": 4650,
    "Ġhumans": 4651,
    "ocious": 4652,
    "ĠAFP": 4653,
    "mercial": 4654,
    "Ġres": 4655,
    "fields": 4656,
    "clock": 4657,
    "Tem": 4658,
    "ocrat": 4659,
    "Ġremarkably": 4660,
    "Ġexempt": 4661,
    "ĠPope": 4662,
    "Ġalerts": 4663,
    "Ġpel": 4664,
    "ĠHammer": 4665,
    "Ġneon": 4666,
    "Ġsided": 4667,
    "Ġsul": 4668,
    "ĠCol": 4669,
    "bes": 4670,
    "ANS": 4671,
    "Ġfamiliarity": 4672,
    "Ġclub": 4673,
    "Ġbless": 4674,
    "Ġ|": 4675,
    "agic": 4676,
    "ĠIz": 4677,
    "aniel": 4678,
    "ilem": 4679,
    "Ġinfectious": 4680,
    "isl": 4681,
    "Ġillumin": 4682,
    "Ġexacerbated": 4683,
    "Ġ$": 4684,
    "ĠBelfast": 4685,
    "Ġfrequ": 4686,
    "bian": 4687,
    "Ġgum": 4688,
    "uating": 4689,
    "Ġstrikeouts": 4690,
    "Ġceasefire": 4691,
    "ALLY": 4692,
    "Ġherself": 4693,
    "ruct": 4694,
    "Ġbeer": 4695,
    "Ġcondemnation": 4696,
    "birds": 4697,
    "ĠItal": 4698,
    "Ġtraded": 4699,
    "ntil": 4700,
    "ĠBarnes": 4701,
    "Ġsurrounded": 4702,
    "ĠJessica": 4703,
    "Ġdenounce": 4704,
    "ĠDana": 4705,
    "WAR": 4706,
    "Ġpossesses": 4707,
    "Ġtape": 4708,
    "olesterol": 4709,
    "bye": 4710,
    "ĠCopyright": 4711,
    "Ġrank": 4712,
    "sector": 4713,
    "ĠGone": 4714,
    "Ġped": 4715,
    "ĠMcA": 4716,
    "Ġhull": 4717,
    "Ġvolunteers": 4718,
    "Ġmeantime": 4719,
    "Ġdetection": 4720,
    "Ġrefurb": 4721,
    "Att": 4722,
    "Ġreceivers": 4723,
    "anking": 4724,
    "Ġhiring": 4725,
    "empt": 4726,
    "Ġepis": 4727,
    "ANN": 4728,
    "ĠHorror": 4729,
    "ÑĤ": 4730,
    "Ġhelpless": 4731,
    "ĠMatthews": 4732,
    "Ġdisruption": 4733,
    "ĠGilbert": 4734,
    "ĠHunting": 4735,
    "ĠVirgin": 4736,
    "Ġrepression": 4737,
    "Ġdread": 4738,
    "Ġtrusting": 4739,
    "Was": 4740,
    "02": 4741,
    "ĠKumar": 4742,
    "46": 4743,
    "ĠCow": 4744,
    "iliary": 4745,
    "oulder": 4746,
    "ĠSleep": 4747,
    "ĠâĢľâĢ¦": 4748,
    "Ġaccuse": 4749,
    "ceed": 4750,
    "ecause": 4751,
    "ĠKeystone": 4752,
    "Ġphysician": 4753,
    "Ġdried": 4754,
    "Ġsponsorship": 4755,
    "Ġcousin": 4756,
    "Ġneuro": 4757,
    "ĠChang": 4758,
    "bringing": 4759,
    "orton": 4760,
    "elly": 4761,
    "Ġrelate": 4762,
    "ĠJosh": 4763,
    "Ġresponds": 4764,
    "thy": 4765,
    "Ġdess": 4766,
    "Ġfaulty": 4767,
    "agogue": 4768,
    "Ġtaxes": 4769,
    "GS": 4770,
    "Ġtissues": 4771,
    "ĠTrin": 4772,
    "Ġfar": 4773,
    "Ġavenue": 4774,
    "yn": 4775,
    "ĠCrawford": 4776,
    "ĠRomania": 4777,
    "Occ": 4778,
    "ĠPf": 4779,
    "sover": 4780,
    "ĠFont": 4781,
    "Ġtablets": 4782,
    "ĠPush": 4783,
    "Ġpir": 4784,
    "ĠRust": 4785,
    "ĠCAR": 4786,
    "Ġbacklog": 4787,
    "Ġscrews": 4788,
    "Ġdetails": 4789,
    "Ġhubs": 4790,
    "Ġinterview": 4791,
    "conscious": 4792,
    "bean": 4793,
    "tered": 4794,
    "block": 4795,
    "Like": 4796,
    "Ġderail": 4797,
    "Ġbourgeois": 4798,
    "Ġconvoy": 4799,
    "ĠDoe": 4800,
    "ĠAdolf": 4801,
    "olls": 4802,
    "ustainable": 4803,
    "Ġenter": 4804,
    "Ġstrat": 4805,
    "eteenth": 4806,
    "ĠPulse": 4807,
    "vel": 4808,
    "osed": 4809,
    "Ġsituation": 4810,
    "Ġcausal": 4811,
    "icio": 4812,
    "Ġdone": 4813,
    "ĠDone": 4814,
    "ĠSol": 4815,
    "Ġempirical": 4816,
    "ĠReligious": 4817,
    "ĠPixel": 4818,
    "ĠNova": 4819,
    "parent": 4820,
    "Ġaudience": 4821,
    "Ġanticipation": 4822,
    "Build": 4823,
    "Ġswear": 4824,
    "ĠHz": 4825,
    "Public": 4826,
    "Ġbust": 4827,
    "Security": 4828,
    "Ġpersonalities": 4829,
    "ĠPerry": 4830,
    "ĠMinister": 4831,
    "ĠCold": 4832,
    "iblings": 4833,
    "estial": 4834,
    "ĠPolitics": 4835,
    "Ġorche": 4836,
    "ape": 4837,
    "ĠAdvance": 4838,
    "olia": 4839,
    "Ġrelocate": 4840,
    "Ġworsh": 4841,
    "Ġattendees": 4842,
    "Smart": 4843,
    "ġ": 4844,
    "Count": 4845,
    "ĠDebian": 4846,
    "Ġtravelled": 4847,
    "ĠAmb": 4848,
    "ÂĶ": 4849,
    "ottage": 4850,
    "Ġvisitor": 4851,
    "ĠHal": 4852,
    "Ġadmit": 4853,
    "laws": 4854,
    "ĠPhantom": 4855,
    "Ass": 4856,
    "ĠSudan": 4857,
    "ÃĥÃĤÃĥÃĤÃĥÃĤÃĥÃĤ": 4858,
    "arthed": 4859,
    "Ġrelationship": 4860,
    "Nearly": 4861,
    "rim": 4862,
    "Ġthrowing": 4863,
    "holder": 4864,
    "âĢ³": 4865,
    "Ġslows": 4866,
    "Ġdemonstrations": 4867,
    "Ġfrom": 4868,
    "Ġblogger": 4869,
    "bourne": 4870,
    "Ġborne": 4871,
    "Ġshifting": 4872,
    "ĠStarting": 4873,
    "herent": 4874,
    "Ġmaintains": 4875,
    "ĠDem": 4876,
    "ĠY": 4877,
    "eah": 4878,
    "AGE": 4879,
    "Ġoxide": 4880,
    "Ġdishon": 4881,
    "Ġmemorial": 4882,
    "Fortunately": 4883,
    "ĠHBO": 4884,
    "ritional": 4885,
    "Disney": 4886,
    "Ġmouths": 4887,
    "ĠMalays": 4888,
    "Ġvaccination": 4889,
    "Wat": 4890,
    "ĠOC": 4891,
    "Probably": 4892,
    "GBT": 4893,
    "Ġbottled": 4894,
    "Ġinsects": 4895,
    "ingly": 4896,
    "argo": 4897,
    "Ġdest": 4898,
    "Ġintegral": 4899,
    "ĠCanucks": 4900,
    "ĠUm": 4901,
    "odox": 4902,
    "ĠHannah": 4903,
    "ĠSyrians": 4904,
    "ĠFall": 4905,
    "Ġrestaurants": 4906,
    "Ġgoat": 4907,
    "ATO": 4908,
    "unes": 4909,
    "ĠBav": 4910,
    "Ġarom": 4911,
    "Ġadequate": 4912,
    "Jul": 4913,
    "Ġimply": 4914,
    "ĠAN": 4915,
    "Ġscreenplay": 4916,
    "Ġhub": 4917,
    "Ġcave": 4918,
    "ĠObama": 4919,
    "irs": 4920,
    "including": 4921,
    "Ġforge": 4922,
    "Ġcertainty": 4923,
    "ĠTon": 4924,
    "Ġtsunami": 4925,
    "Ġprotests": 4926,
    "Ġwet": 4927,
    "ĠTrent": 4928,
    "Ġjoked": 4929,
    "ĠMcConnell": 4930,
    "Ġ31": 4931,
    "ĠUnion": 4932,
    "Ġamended": 4933,
    "Tra": 4934,
    "ĠForum": 4935,
    "ĠOttawa": 4936,
    "Ġinherent": 4937,
    "ordering": 4938,
    "ĠFollowing": 4939,
    "ĠJoey": 4940,
    "oad": 4941,
    "Ġstumble": 4942,
    "anc": 4943,
    "Ġdoesn": 4944,
    "Ġgotten": 4945,
    "Stud": 4946,
    "ĠInvalid": 4947,
    "Ġparadox": 4948,
    "ĠZombie": 4949,
    "ca": 4950,
    "Ġcentered": 4951,
    "ablo": 4952,
    "Ġlegal": 4953,
    "Ġinvasive": 4954,
    "Ġassociate": 4955,
    "ĠÂĸ": 4956,
    "ask": 4957,
    "ĠOg": 4958,
    "Ġcells": 4959,
    "Ġunderstood": 4960,
    "Ġjust": 4961,
    "emet": 4962,
    "Ġmetal": 4963,
    "Ġcateg": 4964,
    "itter": 4965,
    "Ġvaluable": 4966,
    "Ġempathy": 4967,
    "Ġimpossible": 4968,
    "ugs": 4969,
    "Ġwiped": 4970,
    "Ġcarry": 4971,
    "VER": 4972,
    "ĠCup": 4973,
    "ĠPunj": 4974,
    "held": 4975,
    "riers": 4976,
    "ĠOkay": 4977,
    "Ġsymptoms": 4978,
    "Ġjihadists": 4979,
    "ĠChandler": 4980,
    "ĠYates": 4981,
    "Ġhelicop": 4982,
    "ĠWarrior": 4983,
    "Ġknock": 4984,
    "Ġdear": 4985,
    "Ġretali": 4986,
    "port": 4987,
    "Ġinterventions": 4988,
    "ĠBehavior": 4989,
    "ĠSilent": 4990,
    "Ġinland": 4991,
    "ģ": 4992,
    "ĠLoading": 4993,
    "Ġmods": 4994,
    "ampion": 4995,
    "Ġsubscrib": 4996,
    "isha": 4997,
    "Ġsp": 4998,
    "ĠLeft": 4999,
    "ibo": 5000,
    "Ġour": 5001,
    "stock": 5002,
    "Ġimplant": 5003,
    "ĠT": 5004,
    "Ġsomebody": 5005,
    "iors": 5006,
    "rus": 5007,
    "Ġtackling": 5008,
    "Ġromance": 5009,
    "pared": 5010,
    "ĠBun": 5011,
    "apa": 5012,
    "Ġimpact": 5013,
    "Ġrelentless": 5014,
    "Ġsync": 5015,
    "ĠCE": 5016,
    "Ġtension": 5017,
    "Ġfear": 5018,
    "Ġlinebacker": 5019,
    "Ġstimulate": 5020,
    "Ġrose": 5021,
    "Ġnuclear": 5022,
    "oneliness": 5023,
    "Ġinhabitants": 5024,
    "ĠFreeman": 5025,
    "ĠDwight": 5026,
    "ĠPoe": 5027,
    "Ġreleg": 5028,
    "Ġgradient": 5029,
    "Ġgoalie": 5030,
    "achi": 5031,
    "Ġbreat": 5032,
    "Ġoriented": 5033,
    "ĠSpir": 5034,
    "chn": 5035,
    "IF": 5036,
    "life": 5037,
    "Ġdilem": 5038,
    "Ġinfo": 5039,
    "ĠKnox": 5040,
    "30": 5041,
    "Ġnation": 5042,
    "Ġworkload": 5043,
    "Ġholog": 5044,
    "Ġnons": 5045,
    "ĠOfficers": 5046,
    "ĠMaryland": 5047,
    "Five": 5048,
    "Ġarmored": 5049,
    "Someone": 5050,
    "onding": 5051,
    "ention": 5052,
    "uclear": 5053,
    "Ġdisplacement": 5054,
    "Ġchem": 5055,
    "Ġscholars": 5056,
    "ĠNaz": 5057,
    "Ġrif": 5058,
    "Ġathlet": 5059,
    "openhagen": 5060,
    "Ġrecons": 5061,
    "Ġendors": 5062,
    "leys": 5063,
    "aud": 5064,
    "Sen": 5065,
    "ĠEc": 5066,
    "ĠAby": 5067,
    "Residents": 5068,
    "olas": 5069,
    "ĠEverything": 5070,
    "hash": 5071,
    "Ġisol": 5072,
    "Ġnightmares": 5073,
    "sm": 5074,
    "ĠLevi": 5075,
    "Ġcould": 5076,
    "ĠBronze": 5077,
    "Ġreviewing": 5078,
    "ĠPalestine": 5079,
    "Cy": 5080,
    "ella": 5081,
    "quirer": 5082,
    "Ġ320": 5083,
    "Ġbefore": 5084,
    "lights": 5085,
    "Ðº": 5086,
    "Ġaffection": 5087,
    "ĠPerson": 5088,
    "Ġlocking": 5089,
    "Ġexploration": 5090,
    "ĠCS": 5091,
    "effective": 5092,
    "E": 5093,
    "Ġmodest": 5094,
    "efe": 5095,
    "Ġgenetics": 5096,
    "Ġspiritual": 5097,
    "Ġexcept": 5098,
    "ociated": 5099,
    "ĠClarke": 5100,
    "ĠColumb": 5101,
    "Ġpassing": 5102,
    "Ġrestore": 5103,
    "isen": 5104,
    "plex": 5105,
    "Ġmidterm": 5106,
    "ĠAgents": 5107,
    "Ġhiding": 5108,
    "ĠPetra": 5109,
    "ammed": 5110,
    "Ġpathways": 5111,
    "ĠStan": 5112,
    "ĠGL": 5113,
    "Ġtimber": 5114,
    "Ġironic": 5115,
    "ĠHub": 5116,
    "ĠPiet": 5117,
    "Malley": 5118,
    "Ġfilling": 5119,
    "Ġplacement": 5120,
    "ubl": 5121,
    "acing": 5122,
    "buquerque": 5123,
    "ĠMali": 5124,
    "orting": 5125,
    "ĠRobertson": 5126,
    "Ġupstream": 5127,
    "ĠChoose": 5128,
    "iller": 5129,
    "Ġmast": 5130,
    "lower": 5131,
    "ĠPreview": 5132,
    "ĠDiaz": 5133,
    "Ġbesides": 5134,
    "ography": 5135,
    "isle": 5136,
    "ĠWa": 5137,
    "ĠNHS": 5138,
    "amina": 5139,
    "Ġguidelines": 5140,
    "addafi": 5141,
    "Ġidentified": 5142,
    "ĠBody": 5143,
    "Ġspecializes": 5144,
    "Ġundecided": 5145,
    "Ġideological": 5146,
    "Ġcove": 5147,
    "placed": 5148,
    "Ġmagnificent": 5149,
    "Äģ": 5150,
    "Ġsnow": 5151,
    "Ġing": 5152,
    "ĠHC": 5153,
    "ĠChristina": 5154,
    "Ġbat": 5155,
    "bsite": 5156,
    "film": 5157,
    "LO": 5158,
    "Ġdistributor": 5159,
    "Ġnick": 5160,
    "Ġlatter": 5161,
    "Ġblind": 5162,
    "Ġwithdrawal": 5163,
    "arr": 5164,
    "Ġpen": 5165,
    "Ġnecessity": 5166,
    "Ġmetrics": 5167,
    "ĠMoses": 5168,
    "eor": 5169,
    "ĠShoot": 5170,
    "Ġmotorcy": 5171,
    "ĠHunt": 5172,
    "Ġju": 5173,
    "lining": 5174,
    "Ġwindows": 5175,
    "ĠGiuliani": 5176,
    "ĠKrug": 5177,
    "Ġthrilling": 5178,
    "odo": 5179,
    "java": 5180,
    "Ġsharing": 5181,
    "ĠRome": 5182,
    "KK": 5183,
    "Ġ)": 5184,
    "Ġcontracting": 5185,
    "Ġroutine": 5186,
    "ĠLin": 5187,
    "Ġcrack": 5188,
    "ands": 5189,
    "Ġtra": 5190,
    "Ġsubscriber": 5191,
    "Ġimagining": 5192,
    "Ġinclined": 5193,
    "ates": 5194,
    "Ġ260": 5195,
    "Ġvital": 5196,
    "ĠI": 5197,
    "Ġadvertised": 5198,
    "Ġrivalry": 5199,
    "Ġlack": 5200,
    "Ġthrust": 5201,
    "136": 5202,
    "actory": 5203,
    "Î±": 5204,
    "Ġgenerous": 5205,
    "Ġpursuing": 5206,
    "Ġdespair": 5207,
    "ĠNULL": 5208,
    "rade": 5209,
    "Ġundertaken": 5210,
    "ĠUpgrade": 5211,
    "Ġslee": 5212,
    "Ġscrambled": 5213,
    "Ġcardboard": 5214,
    "orm": 5215,
    "av": 5216,
    "ĠWh": 5217,
    "Ġmisdem": 5218,
    "Ġparadigm": 5219,
    "Ġhighest": 5220,
    "ufact": 5221,
    "ĠTok": 5222,
    "Ġsatellites": 5223,
    "Ġshotgun": 5224,
    "ancies": 5225,
    "ĠEM": 5226,
    "Ġrad": 5227,
    "Got": 5228,
    "ulent": 5229,
    "ĠRa": 5230,
    "etsk": 5231,
    "ero": 5232,
    "Ġpunching": 5233,
    "Ġdispensaries": 5234,
    "Ġcreators": 5235,
    "numbered": 5236,
    "Ġstrategist": 5237,
    "Ġinterviews": 5238,
    "resa": 5239,
    "Ġidiot": 5240,
    "ĠJin": 5241,
    "Ġthr": 5242,
    "ĠTurner": 5243,
    "112": 5244,
    "Ġparadise": 5245,
    "aura": 5246,
    "Ġsocialist": 5247,
    "Ġdenies": 5248,
    "Ġliking": 5249,
    "Ġformidable": 5250,
    "Ġdiscard": 5251,
    "GE": 5252,
    "ĠWait": 5253,
    "ĠBom": 5254,
    "ĠUnblock": 5255,
    "Ġvirtues": 5256,
    "ĠBroadway": 5257,
    "Ġmonopoly": 5258,
    "Ġinvasion": 5259,
    "Ġwhatsoever": 5260,
    "Ġdeported": 5261,
    "Ġabst": 5262,
    "117": 5263,
    "ãĤĤ": 5264,
    "ĠSaint": 5265,
    "Ġbrutally": 5266,
    "ĠMississ": 5267,
    "Ġfatally": 5268,
    "ĠIndones": 5269,
    "gebra": 5270,
    "Ġ^": 5271,
    "ĠMam": 5272,
    "Element": 5273,
    "Ġdense": 5274,
    "ĠOttoman": 5275,
    "bably": 5276,
    "Ġextension": 5277,
    "mun": 5278,
    "Ġclue": 5279,
    "Ġminister": 5280,
    "liberal": 5281,
    "Ġintervene": 5282,
    "quet": 5283,
    "Write": 5284,
    "articles": 5285,
    "Sign": 5286,
    "action": 5287,
    "edIn": 5288,
    "Ġreplay": 5289,
    "RR": 5290,
    "Ġcapsule": 5291,
    "End": 5292,
    "ĠCommun": 5293,
    "ĠLan": 5294,
    "Ġtraces": 5295,
    "gregated": 5296,
    "Ġrepeal": 5297,
    "Current": 5298,
    "Ġzero": 5299,
    "Ġbrass": 5300,
    "Ġpsychedel": 5301,
    "ĠWilliams": 5302,
    "Ġonslaught": 5303,
    "ĠHy": 5304,
    "Ġscr": 5305,
    "intage": 5306,
    "igation": 5307,
    "Ġstarter": 5308,
    "Ġjud": 5309,
    "Ġsuicidal": 5310,
    "bey": 5311,
    "Ġimposed": 5312,
    "Ġreimburse": 5313,
    "itud": 5314,
    "Ġpowder": 5315,
    "ucked": 5316,
    "Ġquicker": 5317,
    "Ġincomes": 5318,
    "TIS": 5319,
    "}{": 5320,
    "VP": 5321,
    "Ġpessim": 5322,
    "eligible": 5323,
    "ĠMas": 5324,
    "ĠBuff": 5325,
    "Ġresting": 5326,
    "Ġdisturbing": 5327,
    "ĠNin": 5328,
    "Ġrefuses": 5329,
    "ĠSoul": 5330,
    "ĠIraqi": 5331,
    "ader": 5332,
    "atus": 5333,
    "eton": 5334,
    "Ġmonarch": 5335,
    "Ġnumber": 5336,
    "ĠTrevor": 5337,
    "Player": 5338,
    "Ġ81": 5339,
    "take": 5340,
    "ĠAh": 5341,
    "ucc": 5342,
    "Ġworn": 5343,
    "ĠRecent": 5344,
    "ĠMon": 5345,
    "Ġbl": 5346,
    "ĠYard": 5347,
    "cribed": 5348,
    "ĠJet": 5349,
    "consuming": 5350,
    "Ġinefficient": 5351,
    "ĠOwen": 5352,
    "Ġspikes": 5353,
    "isd": 5354,
    "Ġexcel": 5355,
    "Ġlowest": 5356,
    "quality": 5357,
    "ĠLynn": 5358,
    "resolution": 5359,
    "stru": 5360,
    "Ġattacker": 5361,
    "Ġanxiety": 5362,
    "ĠPennsylvania": 5363,
    "Ġkinderg": 5364,
    "max": 5365,
    "lad": 5366,
    "Getting": 5367,
    "Ġod": 5368,
    "plement": 5369,
    "arez": 5370,
    "Ġterr": 5371,
    "ĠRabbi": 5372,
    "ĠXML": 5373,
    "Ġconsisting": 5374,
    "brook": 5375,
    "Ġstraight": 5376,
    "ordered": 5377,
    "Ġdodge": 5378,
    "Ġillegally": 5379,
    "ĠNorthwestern": 5380,
    "Ġperformance": 5381,
    "Ġspouses": 5382,
    "keeper": 5383,
    "Ġm": 5384,
    "Ġmidway": 5385,
    "Ġholder": 5386,
    "mont": 5387,
    "ĠEvent": 5388,
    "Ġframes": 5389,
    "ĠLay": 5390,
    "Ġassumptions": 5391,
    "Ġtaste": 5392,
    "det": 5393,
    "ica": 5394,
    "Ġrhyth": 5395,
    "Ġbicycle": 5396,
    "Ġwithhold": 5397,
    "ĠCapitol": 5398,
    "cry": 5399,
    "ĠVander": 5400,
    "Ġprank": 5401,
    "Ġplural": 5402,
    "+.": 5403,
    "ĠValve": 5404,
    "Ġvenom": 5405,
    "Ġcorrect": 5406,
    "Ġdirective": 5407,
    "ĠMiz": 5408,
    "ront": 5409,
    "Ġmeters": 5410,
    "Ġstudies": 5411,
    "Ġregener": 5412,
    "ĠIslands": 5413,
    "ĠDevelopment": 5414,
    "Ġfilmmaker": 5415,
    "ctive": 5416,
    "orn": 5417,
    "Ġ1973": 5418,
    "atter": 5419,
    "written": 5420,
    "102": 5421,
    "Ġmarkets": 5422,
    "Ġmirac": 5423,
    "haw": 5424,
    "Ġspeed": 5425,
    "Ġbald": 5426,
    "Ġ165": 5427,
    "ĠArmen": 5428,
    "Park": 5429,
    "success": 5430,
    "Ġkm": 5431,
    "ĠMontana": 5432,
    "Ġless": 5433,
    "19": 5434,
    "ĠRy": 5435,
    "Ġfitting": 5436,
    "ĠOrange": 5437,
    "dro": 5438,
    "Ġain": 5439,
    "Ġwel": 5440,
    "Ġvotes": 5441,
    "ĠEdinburgh": 5442,
    "51": 5443,
    "Ġaircraft": 5444,
    "forward": 5445,
    "Ġcure": 5446,
    "Jewish": 5447,
    "inth": 5448,
    "shop": 5449,
    "Ġking": 5450,
    "Ġstrategy": 5451,
    "ĠThrough": 5452,
    "ans": 5453,
    "ĠLightning": 5454,
    "Ġcompromising": 5455,
    "lopp": 5456,
    "Ġemphasizes": 5457,
    "Ġbrewery": 5458,
    "ĠXavier": 5459,
    "Ġpharmacy": 5460,
    "Ġtheat": 5461,
    "ĠCaroline": 5462,
    "Ġnurt": 5463,
    "Ġdent": 5464,
    "Ġdeficiency": 5465,
    "Ġupgr": 5466,
    "nedy": 5467,
    "ibling": 5468,
    "ĠMoss": 5469,
    "iding": 5470,
    "gar": 5471,
    "ĠPrevention": 5472,
    "ĠHa": 5473,
    "ĠLouisiana": 5474,
    "ollar": 5475,
    "ĠCBD": 5476,
    "ĠSgt": 5477,
    "laim": 5478,
    "Ġsuits": 5479,
    "Ġclarity": 5480,
    "Ġgif": 5481,
    "giene": 5482,
    "Ġjersey": 5483,
    "Ġprops": 5484,
    "Ġsnack": 5485,
    "ĠSurvival": 5486,
    "rero": 5487,
    "ĠSandy": 5488,
    "ĠKeith": 5489,
    "Ġanomal": 5490,
    "Ġconsistency": 5491,
    "Ġconsult": 5492,
    "Ġpenal": 5493,
    "Ġhurt": 5494,
    "ĠJam": 5495,
    "Ġcovered": 5496,
    "Ġ18": 5497,
    "agers": 5498,
    "ph": 5499,
    "Ġconceal": 5500,
    "ĠUk": 5501,
    "ĠKnow": 5502,
    "osophy": 5503,
    "enne": 5504,
    "ĠComey": 5505,
    "Ġshowed": 5506,
    "Ġaveraging": 5507,
    "Ġprefer": 5508,
    "Ġdenial": 5509,
    "Ġ1000": 5510,
    "ourced": 5511,
    "omb": 5512,
    "ursday": 5513,
    "ċ": 5514,
    "ĠMarshall": 5515,
    "zona": 5516,
    "Ġhates": 5517,
    "Ġmundane": 5518,
    "Ġtouring": 5519,
    "Ġwrath": 5520,
    "ancy": 5521,
    "ulated": 5522,
    "Ġmonthly": 5523,
    "ju": 5524,
    "Ġdrawing": 5525,
    "Complete": 5526,
    "ĠChuck": 5527,
    "Ġlays": 5528,
    "`": 5529,
    "ĠMarty": 5530,
    "Ġscarce": 5531,
    "Ġviewers": 5532,
    ".": 5533,
    "Send": 5534,
    "Ġprogrammer": 5535,
    "odka": 5536,
    "ĠSchne": 5537,
    "Ġ('": 5538,
    "atican": 5539,
    "Ġcommunity": 5540,
    "Ġdistorted": 5541,
    "Ġrebell": 5542,
    "ĠMarc": 5543,
    "Ġsuccessfully": 5544,
    "Ġspreading": 5545,
    "ĠAB": 5546,
    "Vs": 5547,
    "Ġskating": 5548,
    "ĠTennessee": 5549,
    "Ġeverywhere": 5550,
    "unicipal": 5551,
    "ĠWrit": 5552,
    "Game": 5553,
    "professional": 5554,
    "Picture": 5555,
    "Ġuseful": 5556,
    "Ġdisg": 5557,
    "az": 5558,
    "Ġfollow": 5559,
    "uels": 5560,
    "ĠIndigenous": 5561,
    "ĠInternet": 5562,
    "porting": 5563,
    "believ": 5564,
    "ĠCRE": 5565,
    "ĠObamacare": 5566,
    "San": 5567,
    "Ġexpansion": 5568,
    "280": 5569,
    "Ġexpect": 5570,
    "132": 5571,
    "alan": 5572,
    "Ġproposition": 5573,
    "resh": 5574,
    "Ġrehe": 5575,
    "thing": 5576,
    "Most": 5577,
    "pg": 5578,
    "ĠRaymond": 5579,
    "Ġalong": 5580,
    "Ġpolicy": 5581,
    "Ġembro": 5582,
    "keley": 5583,
    "Ġchair": 5584,
    "ramento": 5585,
    ",âĢĻâĢĿ": 5586,
    "ivor": 5587,
    "ko": 5588,
    "isitions": 5589,
    "ensing": 5590,
    "Ġsour": 5591,
    "Ġtenure": 5592,
    "poor": 5593,
    "Ġunatt": 5594,
    "ĠdÃ©": 5595,
    "Ġissued": 5596,
    "Ġpedd": 5597,
    "Ġscreamed": 5598,
    "Ġdiscouraged": 5599,
    "Ġinability": 5600,
    "Ġarmies": 5601,
    "ĠPip": 5602,
    "ord": 5603,
    "Ġconsuming": 5604,
    "Ġimperative": 5605,
    "Ġtools": 5606,
    "IZ": 5607,
    "Creat": 5608,
    "inction": 5609,
    "Ġvoices": 5610,
    "Cle": 5611,
    "Ġnarrative": 5612,
    "orian": 5613,
    "Ġexpectation": 5614,
    "Ġcommuters": 5615,
    "afa": 5616,
    "Ġludic": 5617,
    "ĠEven": 5618,
    "Ġconsist": 5619,
    "Ġmeaningful": 5620,
    "venant": 5621,
    "ĠKom": 5622,
    "Ġupgraded": 5623,
    "Ġdispat": 5624,
    "ĠStudent": 5625,
    "Ġimplementations": 5626,
    "imes": 5627,
    "ĠAltern": 5628,
    "Moving": 5629,
    "ĠICO": 5630,
    "Ġawaken": 5631,
    "etti": 5632,
    "icket": 5633,
    "Ġplaintiffs": 5634,
    "ournament": 5635,
    "Ġdome": 5636,
    "elman": 5637,
    "Ġ1971": 5638,
    "Ġintense": 5639,
    "Ġhistorian": 5640,
    "Ġnond": 5641,
    "Ġchildhood": 5642,
    "Ġjets": 5643,
    "ĠLeadership": 5644,
    "ĠAndreas": 5645,
    "ĠNad": 5646,
    "Ġimmortal": 5647,
    "Ġyelling": 5648,
    "ĠLam": 5649,
    "race": 5650,
    "Ġgatherings": 5651,
    "Ġflows": 5652,
    "Ġaspir": 5653,
    "Ġunlike": 5654,
    "icans": 5655,
    "Ġnav": 5656,
    "Ġbooster": 5657,
    "Ġprevalence": 5658,
    "Ġbelonged": 5659,
    "Ġpale": 5660,
    "Ġunderwater": 5661,
    "Ġsettlement": 5662,
    "Ġsqu": 5663,
    "Ġdirection": 5664,
    "mith": 5665,
    "Ġdeterior": 5666,
    "ellow": 5667,
    "ĠThird": 5668,
    "engers": 5669,
    "Ġemerging": 5670,
    "Ġrend": 5671,
    "Ġborrowers": 5672,
    "ĠLeonardo": 5673,
    "Ġlakes": 5674,
    "Ġarrogance": 5675,
    "ĠShock": 5676,
    "mostly": 5677,
    "Eng": 5678,
    "Ġwave": 5679,
    "Ġtransit": 5680,
    "League": 5681,
    "ĠCopy": 5682,
    "Ġseaw": 5683,
    "Ġhandling": 5684,
    "âĢ¦]": 5685,
    "Ġseldom": 5686,
    "Ġlengthy": 5687,
    "Ġrestoration": 5688,
    "Ġnote": 5689,
    "Ġoverturned": 5690,
    "Ġancestry": 5691,
    "Ġhomers": 5692,
    "Operation": 5693,
    "emer": 5694,
    "Ġ1952": 5695,
    "Putin": 5696,
    "Ġambitions": 5697,
    "Ġdestabil": 5698,
    "llah": 5699,
    "Ġ113": 5700,
    "Ġproposing": 5701,
    "ee": 5702,
    "Ġsh": 5703,
    "Ġvillains": 5704,
    "Ġprivilege": 5705,
    "ĠMog": 5706,
    "Ġimproves": 5707,
    "ĠAccountability": 5708,
    "appy": 5709,
    "Ġcombinations": 5710,
    "rehens": 5711,
    "ĠTibetan": 5712,
    "ĠChess": 5713,
    "Ste": 5714,
    "bee": 5715,
    "ĠBR": 5716,
    "ĠEst": 5717,
    "ĠGeForce": 5718,
    "Ġmed": 5719,
    "Ġoffended": 5720,
    "Ġshadow": 5721,
    "Left": 5722,
    "ĠPremium": 5723,
    "String": 5724,
    "esy": 5725,
    "usa": 5726,
    "Ġstrengthened": 5727,
    "archs": 5728,
    "Ms": 5729,
    "rane": 5730,
    "eng": 5731,
    "ivist": 5732,
    "Ġalcohol": 5733,
    "Ġwalking": 5734,
    "eted": 5735,
    "ĠTact": 5736,
    "Ġloot": 5737,
    "ĠSina": 5738,
    "part": 5739,
    "Ġsick": 5740,
    "Ġhopefully": 5741,
    "are": 5742,
    "ĠWatson": 5743,
    "Ġdwell": 5744,
    "produ": 5745,
    "Ġshortcomings": 5746,
    "Ġknows": 5747,
    "Ġliteral": 5748,
    "ĠRooney": 5749,
    "Ġneurolog": 5750,
    "Ġworking": 5751,
    "Ġ1937": 5752,
    "Ġdiscounted": 5753,
    "Ġrocked": 5754,
    "Ġnasty": 5755,
    "Ġfloat": 5756,
    "Ġsprings": 5757,
    "Ġregulator": 5758,
    "Ġjer": 5759,
    "Level": 5760,
    "Ġstalled": 5761,
    "ĠÐ¼": 5762,
    "Ġcrap": 5763,
    "Lab": 5764,
    "Ġovernight": 5765,
    "Ġferry": 5766,
    "Ġgovernor": 5767,
    "Ġsexuality": 5768,
    "ĠRNC": 5769,
    "Ġvodka": 5770,
    "Ġegregious": 5771,
    "ĠProphet": 5772,
    "Ġcaus": 5773,
    "ison": 5774,
    "ĠWebb": 5775,
    "Ġcontestants": 5776,
    "lla": 5777,
    "ooting": 5778,
    "Ġhon": 5779,
    "ĠArcade": 5780,
    "ĠMonst": 5781,
    "low": 5782,
    "ĠSelect": 5783,
    "Ġtongue": 5784,
    "Who": 5785,
    "Ġrun": 5786,
    "Ġindic": 5787,
    "ĠAlban": 5788,
    "ĠFO": 5789,
    "Ġill": 5790,
    "Ġtempting": 5791,
    "Ġfetal": 5792,
    "ĠJenkins": 5793,
    "Ġparties": 5794,
    "ĠSamar": 5795,
    "ter": 5796,
    "ability": 5797,
    "Ġlands": 5798,
    "Ġbeverage": 5799,
    "ĠCreator": 5800,
    "Ġproper": 5801,
    "arrett": 5802,
    "Ġredundant": 5803,
    "ify": 5804,
    "I": 5805,
    "aux": 5806,
    "ĠJamie": 5807,
    "history": 5808,
    "onds": 5809,
    "Ġsatisfying": 5810,
    "ĠTrinity": 5811,
    "Ġshoes": 5812,
    "Ġdenied": 5813,
    "ĠElections": 5814,
    "baum": 5815,
    "Ġprevented": 5816,
    "Ġgamble": 5817,
    "edu": 5818,
    "nuts": 5819,
    "Ġsurvival": 5820,
    "sharing": 5821,
    "Ġhoney": 5822,
    "ĠElementary": 5823,
    "Ġarise": 5824,
    "emed": 5825,
    "Ġplaybook": 5826,
    "ĠVersion": 5827,
    "Ġpredecessor": 5828,
    "Ġpresumably": 5829,
    "ĠDub": 5830,
    "Ġstark": 5831,
    "Ġcolumns": 5832,
    "Ġdictionary": 5833,
    "wolf": 5834,
    "ync": 5835,
    "Ġatmospheric": 5836,
    "Ġsust": 5837,
    "Ġunreal": 5838,
    "cled": 5839,
    "ĠRo": 5840,
    "erry": 5841,
    "owa": 5842,
    "Ġlid": 5843,
    "ĠOmega": 5844,
    "ORS": 5845,
    "Ġmapping": 5846,
    "onym": 5847,
    "fired": 5848,
    "cript": 5849,
    "ĠTool": 5850,
    "ĠSebastian": 5851,
    "Ġpp": 5852,
    "ĠJen": 5853,
    "Ġpaste": 5854,
    "ĠXP": 5855,
    "Ġgrit": 5856,
    "Ġdeterrent": 5857,
    "ĠUnity": 5858,
    "top": 5859,
    "engeance": 5860,
    "GP": 5861,
    "Ġflagged": 5862,
    "Ġcompress": 5863,
    "Ġfindings": 5864,
    "ulate": 5865,
    "Ġdetermines": 5866,
    "ĠISIL": 5867,
    "Ġexped": 5868,
    "ĠMr": 5869,
    "Ġcustomer": 5870,
    "ĠSuns": 5871,
    "Ġrider": 5872,
    "Ġbones": 5873,
    "Ġsubs": 5874,
    "Ġwouldn": 5875,
    "Ġsafety": 5876,
    "255": 5877,
    "ĠQueen": 5878,
    "Ġanarchists": 5879,
    "digit": 5880,
    "Ġmotions": 5881,
    "Ġgallons": 5882,
    "riminal": 5883,
    "Ġproducers": 5884,
    "ĠPrivacy": 5885,
    "ĠHoldings": 5886,
    "ĠBowie": 5887,
    "Ġmassage": 5888,
    "Ġprivately": 5889,
    "ĠClar": 5890,
    "Ġbod": 5891,
    "Ġdinosaur": 5892,
    "850": 5893,
    "perhaps": 5894,
    "ĠFL": 5895,
    "Ġparental": 5896,
    "Ġorganizational": 5897,
    "ĠBudd": 5898,
    "Ġremembers": 5899,
    "paying": 5900,
    "Ġranked": 5901,
    "ĠSeth": 5902,
    "lington": 5903,
    "ĠLimbaugh": 5904,
    "ĠYad": 5905,
    "Ġshowing": 5906,
    "Ġhust": 5907,
    "ĠDamon": 5908,
    "ĠFantastic": 5909,
    "Ġpne": 5910,
    "Ġve": 5911,
    "Ġlob": 5912,
    "Available": 5913,
    "Ġprotected": 5914,
    "Ġrape": 5915,
    "Ġdescript": 5916,
    "ĠRed": 5917,
    "Ġcheapest": 5918,
    "ĠSpeed": 5919,
    "Ġbaggage": 5920,
    "Ġpack": 5921,
    "ĠChina": 5922,
    "Ġunderstanding": 5923,
    "such": 5924,
    "ĠEasy": 5925,
    "Ġdamages": 5926,
    "Ġcum": 5927,
    "Ġguilt": 5928,
    "Ġintervention": 5929,
    "Ġdialogue": 5930,
    "Ġgrievances": 5931,
    "asketball": 5932,
    "ĠColeman": 5933,
    "Ġstyl": 5934,
    "ÃŃ": 5935,
    "acter": 5936,
    "ĠSud": 5937,
    "Ġmercury": 5938,
    "Ban": 5939,
    "ĠCompanies": 5940,
    "ĠMiche": 5941,
    "ĠDur": 5942,
    "ulators": 5943,
    "look": 5944,
    "Ġprol": 5945,
    "Ġapplauded": 5946,
    "Ġ401": 5947,
    "Ġtestament": 5948,
    "Previously": 5949,
    "ĠEllen": 5950,
    "aan": 5951,
    "Ġappre": 5952,
    "2016": 5953,
    "Ġeligible": 5954,
    "Ġcalculations": 5955,
    "Ġcred": 5956,
    "Ġquota": 5957,
    "Ġmessaging": 5958,
    "Ġclaim": 5959,
    "LINE": 5960,
    "ĠSure": 5961,
    "mer": 5962,
    "Ġspicy": 5963,
    "ĠPurdue": 5964,
    "Ġannouncement": 5965,
    "Ġlargest": 5966,
    "Ġpatrol": 5967,
    "Ly": 5968,
    "etro": 5969,
    "Ġestimate": 5970,
    "Ġalbums": 5971,
    "15": 5972,
    "cedes": 5973,
    "ĠWhenever": 5974,
    "uh": 5975,
    "Ġovers": 5976,
    "lass": 5977,
    "Eight": 5978,
    "chi": 5979,
    "Ġenduring": 5980,
    "Ġvoyage": 5981,
    "Ġglitch": 5982,
    "ĠAM": 5983,
    "orde": 5984,
    "Ġincludes": 5985,
    "ĠGab": 5986,
    "Ġappetite": 5987,
    "Ġreversal": 5988,
    "Ġdepicts": 5989,
    "Ġauthentication": 5990,
    "Ġwinds": 5991,
    "Ġfares": 5992,
    "utch": 5993,
    "ĠMediterranean": 5994,
    "Ġab": 5995,
    "ĠHull": 5996,
    "Ġtong": 5997,
    "ads": 5998,
    "Ġsilly": 5999,
    "Context": 6000,
    "ĠEditor": 6001,
    "Ġshelling": 6002,
    "Ġaffairs": 6003,
    "ĠAlexandria": 6004,
    "Ġdemise": 6005,
    "ockey": 6006,
    "step": 6007,
    "ahi": 6008,
    "Ġgrains": 6009,
    "GHz": 6010,
    "Ġactivated": 6011,
    "ĠDE": 6012,
    "Ġmuseums": 6013,
    "Ġmarked": 6014,
    "Ġviolence": 6015,
    "Ġgaps": 6016,
    "retty": 6017,
    "Ġ76": 6018,
    "Ġridiculous": 6019,
    "kefeller": 6020,
    "Ġsustainable": 6021,
    "isations": 6022,
    "Ġbarrels": 6023,
    "Ġplaying": 6024,
    "ĠBelgian": 6025,
    "ĠAverage": 6026,
    "ĠTownship": 6027,
    "Ġwing": 6028,
    "Ġmeal": 6029,
    "ĠVa": 6030,
    "emporary": 6031,
    "Ġsuper": 6032,
    "Ġinadequ": 6033,
    "ĠComments": 6034,
    "Ġsummoned": 6035,
    "ĠDong": 6036,
    "Ġswit": 6037,
    "Ġmarble": 6038,
    "Ġpunches": 6039,
    "gall": 6040,
    "ma": 6041,
    "Ġpreparing": 6042,
    "Ġforeclosure": 6043,
    "Ġ220": 6044,
    "ĠWho": 6045,
    "Ġbeloved": 6046,
    "hop": 6047,
    "Az": 6048,
    "Ġincentive": 6049,
    "Ġviol": 6050,
    "Ġevil": 6051,
    "ordinarily": 6052,
    "\")": 6053,
    "if": 6054,
    "mittee": 6055,
    "Ġinterpret": 6056,
    "Ġtele": 6057,
    "ĠÑ": 6058,
    "rupt": 6059,
    "illes": 6060,
    "Ġdisappearance": 6061,
    "ĠÅ": 6062,
    "Ġ1995": 6063,
    "ĠDonna": 6064,
    "uries": 6065,
    "Ġdiabetes": 6066,
    "Ġhonors": 6067,
    "Ġindictment": 6068,
    "Ġthumbs": 6069,
    "Ġimag": 6070,
    "exper": 6071,
    "Ġpraise": 6072,
    "ĠMourinho": 6073,
    "oustic": 6074,
    "Ġenrichment": 6075,
    "ĠBerg": 6076,
    "upert": 6077,
    "Pa": 6078,
    "idays": 6079,
    "ĠÃ": 6080,
    "Ġvolume": 6081,
    "Ġmov": 6082,
    "OLL": 6083,
    "Ġoverdose": 6084,
    "Ġbatch": 6085,
    "Ġsimulations": 6086,
    "some": 6087,
    "Ġfrozen": 6088,
    "Ġhave": 6089,
    "ĠUkrainian": 6090,
    "directed": 6091,
    "Ġpertaining": 6092,
    "Ġregeneration": 6093,
    "Ġundergoing": 6094,
    "adelph": 6095,
    "Ġall": 6096,
    "icut": 6097,
    "ĠWoody": 6098,
    "Ġterrit": 6099,
    "ĠOut": 6100,
    "report": 6101,
    "arge": 6102,
    "ĠRoland": 6103,
    "jan": 6104,
    "Ang": 6105,
    "ĠLer": 6106,
    "imag": 6107,
    "Ġmunicipality": 6108,
    "ĠSV": 6109,
    "Ġoffic": 6110,
    "ĠYas": 6111,
    "lia": 6112,
    "Ġmagazine": 6113,
    "Ġdetected": 6114,
    "Ġprayers": 6115,
    "ifier": 6116,
    "Ġalleviate": 6117,
    "OT": 6118,
    "Ġintake": 6119,
    "oa": 6120,
    "ĠChampionships": 6121,
    "Ġclust": 6122,
    "Fund": 6123,
    "ĠAnglo": 6124,
    "Ġnic": 6125,
    "Ġbomber": 6126,
    "KO": 6127,
    "rez": 6128,
    "ĠSolutions": 6129,
    "Ġguides": 6130,
    "ĠAhmed": 6131,
    "Ġtopics": 6132,
    "anyon": 6133,
    "Ġteachers": 6134,
    "ev": 6135,
    "ĠPaul": 6136,
    "His": 6137,
    "olitics": 6138,
    "uce": 6139,
    "Sa": 6140,
    "ãģŁ": 6141,
    "Ġexplosion": 6142,
    "Ġboo": 6143,
    "Ġlect": 6144,
    "abwe": 6145,
    "Ġeffectively": 6146,
    "Ġprint": 6147,
    "ynchron": 6148,
    "telling": 6149,
    "Ġcolonial": 6150,
    "Ġanswered": 6151,
    "Ġmarches": 6152,
    "Ġgrief": 6153,
    "Ġoverd": 6154,
    "Ġpan": 6155,
    "ores": 6156,
    "Ġtorture": 6157,
    "Ġownership": 6158,
    "Ġmelt": 6159,
    "Ġlicence": 6160,
    "ANK": 6161,
    "Ġrotation": 6162,
    "ĠSubaru": 6163,
    "Ġindoor": 6164,
    "ounces": 6165,
    "Ġcolumn": 6166,
    "Ġsignific": 6167,
    "Clinton": 6168,
    "igrant": 6169,
    "ĠErin": 6170,
    "Ġannually": 6171,
    "Ġcoerc": 6172,
    "Ġnotebook": 6173,
    "Ġsuicides": 6174,
    "Ġgoverned": 6175,
    "Ġbelow": 6176,
    "ĠTwo": 6177,
    "rator": 6178,
    "Ġbang": 6179,
    "ĠJoined": 6180,
    "Ġtogether": 6181,
    "Ġinjuring": 6182,
    "ĠPill": 6183,
    "Ġdelightful": 6184,
    "atorium": 6185,
    "ĠSto": 6186,
    "Ġhumanity": 6187,
    "Ġlively": 6188,
    "Ġcreat": 6189,
    "Round": 6190,
    "Ġclaw": 6191,
    "Ġcompulsory": 6192,
    "Ġmantle": 6193,
    "Ġrenovation": 6194,
    "ĠAbb": 6195,
    "Ġregression": 6196,
    "Ġrisking": 6197,
    "ĠBM": 6198,
    "ĠHait": 6199,
    "Ġcomprises": 6200,
    "ĠSample": 6201,
    "Ġdemanding": 6202,
    "Ġstronger": 6203,
    "ox": 6204,
    "Ġtire": 6205,
    "ĠCab": 6206,
    "Imagine": 6207,
    "dot": 6208,
    "OS": 6209,
    "ĠAle": 6210,
    "Ġdependent": 6211,
    "Ġbrick": 6212,
    "Ġconversion": 6213,
    "ĠBruins": 6214,
    "wich": 6215,
    "ĠRoosevelt": 6216,
    "ĠWon": 6217,
    "ĠSp": 6218,
    "Ġskin": 6219,
    "verts": 6220,
    "set": 6221,
    "Ġthem": 6222,
    "gerald": 6223,
    "Ġexcuse": 6224,
    "Ġtackles": 6225,
    "Ġobstacles": 6226,
    "year": 6227,
    "Ġdeclare": 6228,
    "ĠCons": 6229,
    "Ġdiscour": 6230,
    "Ġconfusion": 6231,
    "lat": 6232,
    "Ġslate": 6233,
    "Ġscent": 6234,
    "icism": 6235,
    "ĠSwedish": 6236,
    "Cl": 6237,
    "Gary": 6238,
    "amp": 6239,
    "ĠTerrit": 6240,
    "Polit": 6241,
    "ĠCommander": 6242,
    "ĠMax": 6243,
    "ĠLater": 6244,
    "ĠContinental": 6245,
    "Ġfuss": 6246,
    "Ġlic": 6247,
    "pay": 6248,
    "Ġforget": 6249,
    "Ġcrowds": 6250,
    "ĠPatriot": 6251,
    "Ġlol": 6252,
    "Ġtermed": 6253,
    "ĠStephens": 6254,
    "Ġfail": 6255,
    "Ġoblig": 6256,
    "ussed": 6257,
    "Ġunfortunately": 6258,
    "pecting": 6259,
    "Ġbreeding": 6260,
    "Ġinnov": 6261,
    "soever": 6262,
    "On": 6263,
    "Ġdifference": 6264,
    "rained": 6265,
    "Ġperspective": 6266,
    "ĠZone": 6267,
    "Summary": 6268,
    "ĠPri": 6269,
    "ĠTab": 6270,
    "Ġdisregard": 6271,
    "Ġtaped": 6272,
    "ĠEV": 6273,
    "Ġgeek": 6274,
    "Ġshoe": 6275,
    "ĠBi": 6276,
    "ĠMarin": 6277,
    "imeter": 6278,
    "Ġneighboring": 6279,
    "Ġwages": 6280,
    "sty": 6281,
    "cz": 6282,
    "West": 6283,
    "Ġoutlaw": 6284,
    "Ġcomparable": 6285,
    "Ġtermination": 6286,
    "support": 6287,
    "incoln": 6288,
    "Ġsad": 6289,
    "ĠFather": 6290,
    "dies": 6291,
    "Ġgym": 6292,
    "afort": 6293,
    "fold": 6294,
    "formed": 6295,
    "ĠFellow": 6296,
    "Ġdiligence": 6297,
    "ami": 6298,
    "ĠAdult": 6299,
    "Anth": 6300,
    "ĠOpportun": 6301,
    "jamin": 6302,
    "DR": 6303,
    "Ġbids": 6304,
    "Ġeaten": 6305,
    "Ġdiv": 6306,
    "roud": 6307,
    "youtube": 6308,
    "ĠWillie": 6309,
    "ĠSupporters": 6310,
    "Ġrot": 6311,
    "Ġ1954": 6312,
    "Ġweekends": 6313,
    "Ġsucked": 6314,
    "Ġ1950": 6315,
    "ĠMacBook": 6316,
    "Ġexit": 6317,
    "Ġemissions": 6318,
    "Ġbelly": 6319,
    "odied": 6320,
    "ĠFairfax": 6321,
    "Ġpipeline": 6322,
    "ĠCream": 6323,
    "Ġleaf": 6324,
    "ĠTesting": 6325,
    "ĠSpecies": 6326,
    "Ġrenewal": 6327,
    "109": 6328,
    "Ġdark": 6329,
    "Ġcourts": 6330,
    "Ġrent": 6331,
    "cot": 6332,
    "Ġseparat": 6333,
    "Ġcompetitiveness": 6334,
    "ĠChambers": 6335,
    "Â°": 6336,
    "Ġmigration": 6337,
    "antom": 6338,
    "levision": 6339,
    "itt": 6340,
    "fact": 6341,
    ")]": 6342,
    "Ġfaculty": 6343,
    "amination": 6344,
    "Ġwherever": 6345,
    "ĠResource": 6346,
    "Ġunwit": 6347,
    "Ġundo": 6348,
    "Ġerrone": 6349,
    "Ġadapter": 6350,
    "Ġhippocamp": 6351,
    "Ġoffenses": 6352,
    "lli": 6353,
    "Ġvacuum": 6354,
    "Ġinvites": 6355,
    "Ġdigit": 6356,
    "Ġconsidering": 6357,
    "liver": 6358,
    "ļ": 6359,
    "ĠSilk": 6360,
    "rily": 6361,
    "Ġdiff": 6362,
    "Ġyours": 6363,
    "ĠAssoci": 6364,
    "ĠNow": 6365,
    "Ġfrustration": 6366,
    "Ġacceleration": 6367,
    "ĠTribune": 6368,
    "ies": 6369,
    "HS": 6370,
    "Ġexecute": 6371,
    "Ġpositively": 6372,
    "EMENT": 6373,
    "nel": 6374,
    "Ġprepared": 6375,
    "Ġreader": 6376,
    "ĠGods": 6377,
    "Ġthreaten": 6378,
    "ako": 6379,
    "ĠGC": 6380,
    "Ġpumps": 6381,
    "Ġbel": 6382,
    "Ġinstallations": 6383,
    "Ġdirects": 6384,
    "Ġgravity": 6385,
    "Ġcoding": 6386,
    "Ġquotes": 6387,
    "Ġtemperature": 6388,
    "~~": 6389,
    "Ġmillennials": 6390,
    "daily": 6391,
    "0": 6392,
    "ê": 6393,
    "icultural": 6394,
    "ĠWy": 6395,
    "ĠAuthor": 6396,
    "Ġgoof": 6397,
    "Ġwanting": 6398,
    "Ġdoi": 6399,
    "ĠCC": 6400,
    "Ġtraditionally": 6401,
    "Ġcalm": 6402,
    "Ġexhausted": 6403,
    "pe": 6404,
    "assis": 6405,
    "Bi": 6406,
    "Ġthink": 6407,
    "ĠArabic": 6408,
    "Ġcamoufl": 6409,
    "ĠPesh": 6410,
    "did": 6411,
    "Ġvel": 6412,
    "Ġgag": 6413,
    "Ð¶": 6414,
    "Ġdictates": 6415,
    "ãĤĭ": 6416,
    "Ġunveil": 6417,
    "ĠAzerbai": 6418,
    "lag": 6419,
    "print": 6420,
    "ĠAccount": 6421,
    "Ġfeminists": 6422,
    "Ġsmiled": 6423,
    "Ġdrove": 6424,
    "Ġbehaviour": 6425,
    "ency": 6426,
    "Ġconcess": 6427,
    "EM": 6428,
    "Ġcensorship": 6429,
    "Ġwallets": 6430,
    "Ã¸": 6431,
    "Ġresides": 6432,
    "Ġamong": 6433,
    "ĠRoma": 6434,
    "Ġdifferent": 6435,
    "Ġ39": 6436,
    "Ġcentres": 6437,
    "ĠPerez": 6438,
    "Ġtumors": 6439,
    "Ġimpro": 6440,
    "ĠZuckerberg": 6441,
    "Ġtrain": 6442,
    "Following": 6443,
    "Ġnominees": 6444,
    "Ġmainland": 6445,
    "Ġrear": 6446,
    "Ġhovering": 6447,
    "Ġkeeping": 6448,
    "X": 6449,
    "Ġmethods": 6450,
    "Ġprobability": 6451,
    "ignty": 6452,
    "ĠBS": 6453,
    "ĠArts": 6454,
    "super": 6455,
    "Ġpages": 6456,
    "iral": 6457,
    "ĠLyft": 6458,
    "Ġpiled": 6459,
    "Wait": 6460,
    "gen": 6461,
    "NBA": 6462,
    "Ġcalculate": 6463,
    "Ġconvert": 6464,
    "Ġbroadly": 6465,
    "ĠDawson": 6466,
    "ĠUSB": 6467,
    "ĠBattery": 6468,
    "è": 6469,
    "Ġprince": 6470,
    "dr": 6471,
    "Ġtriv": 6472,
    "Ġturf": 6473,
    "am": 6474,
    "ĠYellow": 6475,
    "Ġintention": 6476,
    "Ġproportions": 6477,
    "Ġlegalization": 6478,
    "double": 6479,
    "ĠTerran": 6480,
    "Ġpower": 6481,
    "Ġmilitias": 6482,
    "Ġresponsibilities": 6483,
    "wire": 6484,
    "Ġstats": 6485,
    "Ġvacation": 6486,
    "Mir": 6487,
    "Ġfighting": 6488,
    "Ġfifteen": 6489,
    "mans": 6490,
    "Neil": 6491,
    "ĠUT": 6492,
    "ĠNormal": 6493,
    "Hel": 6494,
    "erential": 6495,
    "Ġquirky": 6496,
    "ardo": 6497,
    "amacare": 6498,
    "Ġmilitia": 6499,
    "Ġtrilogy": 6500,
    "ocus": 6501,
    "Ġpound": 6502,
    "osing": 6503,
    "ud": 6504,
    "Ġcompos": 6505,
    "Ġconspir": 6506,
    "Ġbarbecue": 6507,
    "usions": 6508,
    "istle": 6509,
    "Ġlegislatures": 6510,
    "ĠOpportunity": 6511,
    "Ġsurpassed": 6512,
    "Political": 6513,
    "Ġtrash": 6514,
    "ĠNicholas": 6515,
    "Ġsovereignty": 6516,
    "Ġbehind": 6517,
    "Ġinsignificant": 6518,
    "Ben": 6519,
    "Ġupside": 6520,
    "ĠiPad": 6521,
    "Ruby": 6522,
    "anced": 6523,
    "SS": 6524,
    "Ġdominant": 6525,
    "ations": 6526,
    "Ġlasting": 6527,
    "Ġsibling": 6528,
    "Bad": 6529,
    "ĠRib": 6530,
    "ĠSinger": 6531,
    "ĠArizona": 6532,
    "Ġmeaningless": 6533,
    "ey": 6534,
    "Ġsuspected": 6535,
    "Ġtestosterone": 6536,
    "Moore": 6537,
    "Ġfinanced": 6538,
    "')": 6539,
    "Davis": 6540,
    "Ġsued": 6541,
    "Ġhash": 6542,
    "ĠCats": 6543,
    "net": 6544,
    "Her": 6545,
    "Ġasserts": 6546,
    "ouched": 6547,
    "team": 6548,
    "ĠGmail": 6549,
    "Ġattain": 6550,
    "Ġpreferred": 6551,
    "Saturday": 6552,
    "author": 6553,
    "compass": 6554,
    "Ġunsigned": 6555,
    "Ġmedia": 6556,
    "balanced": 6557,
    "Basically": 6558,
    "irlines": 6559,
    "Ġfacilit": 6560,
    "Ġconstituted": 6561,
    "Ġlawmaker": 6562,
    "Ġrefreshing": 6563,
    "Ġdevastating": 6564,
    "Ġcases": 6565,
    "ĠCities": 6566,
    "sic": 6567,
    "ĠExpo": 6568,
    "Ġstretch": 6569,
    "cha": 6570,
    "raud": 6571,
    "nation": 6572,
    "istan": 6573,
    "Ġdisconnected": 6574,
    "Ġweekly": 6575,
    "Ġconsists": 6576,
    "ĠDad": 6577,
    "defined": 6578,
    "Ġimplicit": 6579,
    "Ġdividends": 6580,
    "ĠSuperior": 6581,
    "Ġrepository": 6582,
    "Ġ{\\": 6583,
    "Ġsumm": 6584,
    "Ġanalysed": 6585,
    "Ber": 6586,
    "ĠEli": 6587,
    "Ġbee": 6588,
    "ĠTree": 6589,
    "Ġneeded": 6590,
    "ĠSwitzerland": 6591,
    "Ġones": 6592,
    "Ġfilters": 6593,
    "Ġdefender": 6594,
    "ĠThanks": 6595,
    "erting": 6596,
    "Ġoath": 6597,
    "ouncing": 6598,
    "Ġ124": 6599,
    "Ġattitude": 6600,
    "ĠBorder": 6601,
    "ĠPalest": 6602,
    "Ð¹": 6603,
    "ĠOk": 6604,
    "Ġmeasles": 6605,
    "ĠReply": 6606,
    "ĠComic": 6607,
    "650": 6608,
    "Ġcounterparts": 6609,
    "ĠHTTP": 6610,
    "Ġwoods": 6611,
    "Ġtagged": 6612,
    "Ġhabitats": 6613,
    "Ġparticipated": 6614,
    "ould": 6615,
    "itiz": 6616,
    "ishers": 6617,
    "Ġwage": 6618,
    "Ġunderlying": 6619,
    "Ġ1966": 6620,
    "product": 6621,
    "ĠPlayStation": 6622,
    "Ġthanked": 6623,
    "Ġstandoff": 6624,
    "Table": 6625,
    "ĠAntarctic": 6626,
    "igration": 6627,
    "ĠNak": 6628,
    "\"âĢĶ": 6629,
    "public": 6630,
    "Ġhal": 6631,
    "liv": 6632,
    "isms": 6633,
    "Ġfet": 6634,
    "Ġtotally": 6635,
    "Ġramp": 6636,
    "vs": 6637,
    "ĠComics": 6638,
    "Ġlion": 6639,
    "Ġcomparative": 6640,
    "ĠON": 6641,
    "ĠDepending": 6642,
    "Ġvoice": 6643,
    "Ġmuscles": 6644,
    "Ġcarved": 6645,
    "Ġserved": 6646,
    "Ġpains": 6647,
    "Ġcatalog": 6648,
    "Ġsignificance": 6649,
    "Ġshootout": 6650,
    "Ġmph": 6651,
    "95": 6652,
    "Ġrounded": 6653,
    "Ġconditioning": 6654,
    "ĠHaw": 6655,
    "planes": 6656,
    "ns": 6657,
    "Ġoften": 6658,
    "ressing": 6659,
    "Ġwinding": 6660,
    "ĠCull": 6661,
    "ĠCont": 6662,
    "ĠFif": 6663,
    "81": 6664,
    "statement": 6665,
    "Ġtemporal": 6666,
    "Ġreasonably": 6667,
    "steen": 6668,
    "fast": 6669,
    "clipse": 6670,
    "ued": 6671,
    "lift": 6672,
    "ĠAzerbaijan": 6673,
    "irth": 6674,
    "Ġworkings": 6675,
    "Ġgrades": 6676,
    "ĠDuke": 6677,
    "Ġstruct": 6678,
    "Ġcouldn": 6679,
    "ĠIO": 6680,
    "Ġupper": 6681,
    "aring": 6682,
    "ĠBrewers": 6683,
    "Ġterrifying": 6684,
    "550": 6685,
    "Ġadmissions": 6686,
    "ĠKen": 6687,
    "Ġ22": 6688,
    "Ġmoon": 6689,
    "Ġdealers": 6690,
    "ĠBlasio": 6691,
    "Ġfind": 6692,
    "Ġauthorities": 6693,
    "Back": 6694,
    "ĠZealand": 6695,
    "Ġescaped": 6696,
    "itious": 6697,
    "ignant": 6698,
    "know": 6699,
    "Ġamend": 6700,
    "Ġartic": 6701,
    "ĠBird": 6702,
    "Ġqualify": 6703,
    "tein": 6704,
    "Ġ911": 6705,
    "Ġportray": 6706,
    "ĠInnovation": 6707,
    "ĠJobs": 6708,
    "Ġrain": 6709,
    "Steve": 6710,
    "Ġenthus": 6711,
    "Ġresponders": 6712,
    "Ġdef": 6713,
    "load": 6714,
    "Ġcrippling": 6715,
    "ordon": 6716,
    "ĠDest": 6717,
    "Ġarrays": 6718,
    "Ġsearches": 6719,
    "Ġnot": 6720,
    "Ġbill": 6721,
    "ĠSho": 6722,
    "Ġbogus": 6723,
    "Ġdiscredited": 6724,
    "ĠMarvel": 6725,
    "ĠWed": 6726,
    "ĠSummers": 6727,
    "western": 6728,
    "ĠPH": 6729,
    "Ġbeams": 6730,
    "Ġsalvation": 6731,
    "Ġimprint": 6732,
    "Ġsch": 6733,
    "Ġsubset": 6734,
    "ack": 6735,
    "inally": 6736,
    "ĠChand": 6737,
    "Ġbiologist": 6738,
    "Ġsimilar": 6739,
    "Ġaltered": 6740,
    "Ġcomplaint": 6741,
    "ke": 6742,
    "Ġw": 6743,
    "ĠDesert": 6744,
    "Ġfathers": 6745,
    "Ġalthough": 6746,
    "Ġobvious": 6747,
    "Ġtastes": 6748,
    "Ġmission": 6749,
    "Ġprincess": 6750,
    "vd": 6751,
    "Ġgrandson": 6752,
    "Ġancest": 6753,
    "ĠSoc": 6754,
    "Ġfilming": 6755,
    "raved": 6756,
    "Ġoutdated": 6757,
    "ivers": 6758,
    "Ġdiffere": 6759,
    "ĠRolling": 6760,
    "ĠStep": 6761,
    "onst": 6762,
    "ascular": 6763,
    "Ġice": 6764,
    "ĠStory": 6765,
    "ĠBP": 6766,
    "Ġholdings": 6767,
    "Ġholy": 6768,
    "ĠSloven": 6769,
    "lived": 6770,
    "ĠMW": 6771,
    "Fall": 6772,
    "bai": 6773,
    "ived": 6774,
    "Ġreminds": 6775,
    "ĠÂ": 6776,
    "ĠCooper": 6777,
    "Ġbush": 6778,
    "ĠHass": 6779,
    "ript": 6780,
    "Ġplaintiff": 6781,
    "veillance": 6782,
    "Ġunderstand": 6783,
    "Pre": 6784,
    "Ġoutput": 6785,
    "1000": 6786,
    "Ġgraduation": 6787,
    "ĠBeta": 6788,
    "ĠTag": 6789,
    "Ġrewarding": 6790,
    "Twenty": 6791,
    "Cho": 6792,
    "Ġzomb": 6793,
    "ĠEbola": 6794,
    "Ġfundamental": 6795,
    "Ġemerged": 6796,
    "ĠMode": 6797,
    "ĠGar": 6798,
    "Ġreport": 6799,
    "Ġchunks": 6800,
    "Ġstrongest": 6801,
    "agh": 6802,
    "Ġoppression": 6803,
    "Ġaccomp": 6804,
    "ĠMeans": 6805,
    "Ġcellular": 6806,
    "Ġrows": 6807,
    "orest": 6808,
    "ĠBund": 6809,
    "Ġq": 6810,
    "Ġtwists": 6811,
    "Ġelsewhere": 6812,
    "app": 6813,
    "Ag": 6814,
    "Ġdispute": 6815,
    "Ġcontrad": 6816,
    "ĠBarbara": 6817,
    "pieces": 6818,
    "Ġcancel": 6819,
    "Ġrockets": 6820,
    "ĠRetail": 6821,
    "Ġcomplex": 6822,
    "Ġleads": 6823,
    "ellar": 6824,
    "ĠF": 6825,
    "eren": 6826,
    "ravity": 6827,
    "ĠRamadan": 6828,
    "Ġunfolding": 6829,
    "ĠFortunately": 6830,
    "Ġreported": 6831,
    "ill": 6832,
    "ĠMcCoy": 6833,
    "ĠMartinez": 6834,
    "Ġstatue": 6835,
    "Ġsenses": 6836,
    "ics": 6837,
    "github": 6838,
    "rem": 6839,
    "Ġmanuscript": 6840,
    "ĠModi": 6841,
    "Ġunder": 6842,
    "Ġcompile": 6843,
    "^": 6844,
    "Ġcontradict": 6845,
    "Ġgives": 6846,
    "ĠSteam": 6847,
    "%).": 6848,
    "Ġmoving": 6849,
    "uits": 6850,
    "Ġoffensively": 6851,
    "mph": 6852,
    "ĠDep": 6853,
    "ĠOrche": 6854,
    "Ġcooling": 6855,
    "Ġtriggered": 6856,
    "Ġmac": 6857,
    "books": 6858,
    "Ġelectronics": 6859,
    "Ġcontinuing": 6860,
    "Ġreactions": 6861,
    "Ġcontempor": 6862,
    "Ġadjustments": 6863,
    "ĠVic": 6864,
    "Ġboycot": 6865,
    "ĠDP": 6866,
    "ĠMay": 6867,
    "Ġagree": 6868,
    "church": 6869,
    "uta": 6870,
    "Ġstormed": 6871,
    "Ġfel": 6872,
    "Ġpopping": 6873,
    "Ġslid": 6874,
    "vi": 6875,
    "ĠHuawei": 6876,
    "Ġcorporate": 6877,
    "ĠZen": 6878,
    "atical": 6879,
    "aj": 6880,
    "ĠEr": 6881,
    "ĠNCAA": 6882,
    "ĠFior": 6883,
    "Ġmaintaining": 6884,
    "allic": 6885,
    "ĠURL": 6886,
    "\".[": 6887,
    "ĠStarr": 6888,
    "Ġtips": 6889,
    "oubted": 6890,
    "ge": 6891,
    "Ġfict": 6892,
    "Ġwatching": 6893,
    "ĠRecre": 6894,
    "Ġtransformation": 6895,
    "ĠPor": 6896,
    "Ġexercised": 6897,
    "Ġprec": 6898,
    "ĠPhilippines": 6899,
    "ĠAvailable": 6900,
    "Ġ1935": 6901,
    "Ġabilities": 6902,
    "Ġprosecuting": 6903,
    "Actually": 6904,
    "Ġdebunk": 6905,
    "helps": 6906,
    "ĠGre": 6907,
    "September": 6908,
    "Ġprovides": 6909,
    "adas": 6910,
    "Ġradi": 6911,
    "Ġslowly": 6912,
    "ĠJulie": 6913,
    "Ġvictory": 6914,
    "ods": 6915,
    "Ġsec": 6916,
    "lang": 6917,
    "Ġstared": 6918,
    "armac": 6919,
    "Ġcoinc": 6920,
    "Ġdeclared": 6921,
    "ressed": 6922,
    "Ġtwent": 6923,
    "Ġimmunity": 6924,
    "uit": 6925,
    "Ġchance": 6926,
    "Ġreduces": 6927,
    "ley": 6928,
    "Ġard": 6929,
    "unged": 6930,
    "Ġheels": 6931,
    "Ġcooper": 6932,
    "soft": 6933,
    "Ġhighlighting": 6934,
    "Ġenvironmental": 6935,
    "Ġcloud": 6936,
    "Ġincub": 6937,
    "don": 6938,
    "Ġrally": 6939,
    "Ġbandwidth": 6940,
    "utable": 6941,
    "Ġchim": 6942,
    "ulator": 6943,
    "Ġadoles": 6944,
    "Ġprestige": 6945,
    "ĠSix": 6946,
    "Ġofferings": 6947,
    "Ġkilling": 6948,
    "ĠCod": 6949,
    "iled": 6950,
    "ĠGlory": 6951,
    "Ġwebsite": 6952,
    "Ġaccomplishment": 6953,
    "Ġshif": 6954,
    "Ġinfluenza": 6955,
    "akin": 6956,
    "Ġpercentages": 6957,
    "Ġcompare": 6958,
    "Ġcultivation": 6959,
    "Ġeducate": 6960,
    "inc": 6961,
    "Republic": 6962,
    "ĠIran": 6963,
    "Ġstuffed": 6964,
    "lies": 6965,
    "FM": 6966,
    "Ġlatency": 6967,
    "ĠKindle": 6968,
    "âĢ¦.": 6969,
    "angerous": 6970,
    "hardt": 6971,
    "Ġviolating": 6972,
    "ĠTigers": 6973,
    "Ġstatistic": 6974,
    "Ġpil": 6975,
    "eworthy": 6976,
    "PG": 6977,
    "ivities": 6978,
    "ĠDonetsk": 6979,
    "reat": 6980,
    "Ġinstallation": 6981,
    "Ġadviser": 6982,
    "ts": 6983,
    "rated": 6984,
    "Ġpodcasts": 6985,
    "umar": 6986,
    "Ġlegendary": 6987,
    "ĠHonduras": 6988,
    "Ġinvitation": 6989,
    "rh": 6990,
    "Ġprivile": 6991,
    "Reuters": 6992,
    "Ġprinters": 6993,
    "iphate": 6994,
    "Ġendured": 6995,
    "Ġtherm": 6996,
    "Ġqualities": 6997,
    "Ġfooled": 6998,
    "Ġdeck": 6999,
    "âĢĿ:": 7000,
    "umption": 7001,
    "ĠCertainly": 7002,
    "ĠCraft": 7003,
    "Ġholiday": 7004,
    "alsh": 7005,
    "Ġdifferentiate": 7006,
    "ĠVoy": 7007,
    "Writing": 7008,
    "Ġreminis": 7009,
    "Ġprotein": 7010,
    "Ġaccidental": 7011,
    "ĠLake": 7012,
    "Ġthrone": 7013,
    "ĠItem": 7014,
    "Ġreflection": 7015,
    "ĠWeapons": 7016,
    "Ġstroke": 7017,
    "Ġproved": 7018,
    "Ġranging": 7019,
    "Ġvolunteer": 7020,
    "Ġdementia": 7021,
    "lls": 7022,
    "Ġcurs": 7023,
    "ĠKlopp": 7024,
    "ĠDT": 7025,
    "ĠRift": 7026,
    "risy": 7027,
    "Ġwireless": 7028,
    "can": 7029,
    "Ġchecking": 7030,
    "orous": 7031,
    "Ġmail": 7032,
    "ocrats": 7033,
    "ĠMean": 7034,
    "ft": 7035,
    "Ġdeter": 7036,
    "Ġawesome": 7037,
    "Via": 7038,
    "eele": 7039,
    "ĠGeneral": 7040,
    "Ġ*": 7041,
    "Ġrack": 7042,
    "ĠRick": 7043,
    "ĠFA": 7044,
    "ste": 7045,
    "Ġtemperatures": 7046,
    "Ġpsychologist": 7047,
    "Ġignored": 7048,
    "Self": 7049,
    "rib": 7050,
    "Ġtranslating": 7051,
    "Ġfeds": 7052,
    "yrrha": 7053,
    "ĠInd": 7054,
    "IG": 7055,
    "Ġinstrument": 7056,
    "ande": 7057,
    "Ġjudgment": 7058,
    "Ġcategory": 7059,
    "Ġreplica": 7060,
    "Ġpoint": 7061,
    "ĠACLU": 7062,
    "ĠAnalytics": 7063,
    "Ġaf": 7064,
    "ĠListen": 7065,
    "isons": 7066,
    "Ġconstitutional": 7067,
    "ĠWent": 7068,
    "§": 7069,
    "Ġvolt": 7070,
    "ĠRings": 7071,
    "Ġsupervision": 7072,
    "Kar": 7073,
    "Ġcompute": 7074,
    "Ġcomplicit": 7075,
    "ĠChap": 7076,
    "shaped": 7077,
    "ette": 7078,
    "Ġrooms": 7079,
    "Ġconscious": 7080,
    "ĠQuick": 7081,
    "txt": 7082,
    "ĠPosts": 7083,
    "ĠOrioles": 7084,
    "Ġshovel": 7085,
    "Modern": 7086,
    "ĠPrinceton": 7087,
    "2019": 7088,
    "ĠCrystal": 7089,
    "Ġbalance": 7090,
    "Ġachie": 7091,
    "pped": 7092,
    "ĠAlexis": 7093,
    "pod": 7094,
    "Ġpub": 7095,
    "ĠSources": 7096,
    "ked": 7097,
    "Ġspeculate": 7098,
    "Ġhardest": 7099,
    "Ġacid": 7100,
    "Ġoverlooking": 7101,
    "Ġsimilarities": 7102,
    "ĠIv": 7103,
    "Ġpatriot": 7104,
    "Ġassertion": 7105,
    "appointed": 7106,
    "ĠCU": 7107,
    "ĠSolomon": 7108,
    "ĠIslanders": 7109,
    "Ġdistribution": 7110,
    "Found": 7111,
    "Ġbelieving": 7112,
    "ĠPhoenix": 7113,
    "onnaissance": 7114,
    "Ġmaximize": 7115,
    "Ġobtaining": 7116,
    "Ġbast": 7117,
    "ĠTac": 7118,
    "Ġsatirical": 7119,
    "Ġrefres": 7120,
    "Ġowning": 7121,
    "ĠEconom": 7122,
    "ĠLieutenant": 7123,
    "Ġprocure": 7124,
    "Ġpeanut": 7125,
    "Ġfortune": 7126,
    "ĠRegist": 7127,
    "Ġbeginning": 7128,
    "ĠHistorical": 7129,
    "ĠServ": 7130,
    "umble": 7131,
    "Ġpet": 7132,
    "ĠAbbey": 7133,
    "ĠKong": 7134,
    "olve": 7135,
    "ĠSER": 7136,
    "ĠVlad": 7137,
    "ĠMayweather": 7138,
    "itable": 7139,
    "ĠFT": 7140,
    "2014": 7141,
    "ennis": 7142,
    "Mod": 7143,
    "Pop": 7144,
    "ĠCarlson": 7145,
    "WS": 7146,
    "Ġshowcase": 7147,
    "ĠRash": 7148,
    "Ġcontribution": 7149,
    "Ġlinemen": 7150,
    "Ġsearching": 7151,
    "Ġenzyme": 7152,
    "Ġchecked": 7153,
    "Ġ\"": 7154,
    "ĠNice": 7155,
    "Ġspecifically": 7156,
    "Error": 7157,
    "ĠCr": 7158,
    "Ġaccumulate": 7159,
    "Feb": 7160,
    "Ġcouncillors": 7161,
    "ĠHelen": 7162,
    "Ġjoining": 7163,
    "Ġ130": 7164,
    "ren": 7165,
    "Judge": 7166,
    "Ġbrew": 7167,
    "Ġpreseason": 7168,
    "Ġadventures": 7169,
    "ĠVul": 7170,
    "ĠMunicipal": 7171,
    "long": 7172,
    "Ġundermining": 7173,
    "Ġtraffic": 7174,
    "Ġrecognition": 7175,
    "Ġrepaired": 7176,
    "Ġnegotiate": 7177,
    "Ġarchaeologists": 7178,
    "Editor": 7179,
    "ivan": 7180,
    "Ġfoes": 7181,
    "ĠUs": 7182,
    "Ġdominated": 7183,
    "ĠRudy": 7184,
    "Ġpatent": 7185,
    "ibli": 7186,
    "0000": 7187,
    "ĠDavies": 7188,
    "ĠBengal": 7189,
    "Ġendorsing": 7190,
    "ĠDisneyland": 7191,
    "ĠSultan": 7192,
    "Ġsampling": 7193,
    "Ġhazardous": 7194,
    "ĠEmail": 7195,
    "Ġadmits": 7196,
    "Ġconfident": 7197,
    "£": 7198,
    "Ġclosed": 7199,
    "Ġfunnel": 7200,
    "cn": 7201,
    "Ġeste": 7202,
    "Ġdoubling": 7203,
    "Ġmajority": 7204,
    "Ġwarning": 7205,
    "Ġrelation": 7206,
    "Ġshout": 7207,
    "Tom": 7208,
    "Figure": 7209,
    "Â©": 7210,
    "Ġpicture": 7211,
    "Ġnort": 7212,
    "Ġhypothetical": 7213,
    "png": 7214,
    "Ġcoma": 7215,
    "Ġdisabilities": 7216,
    "Ġinitiate": 7217,
    "Ġpopular": 7218,
    "Ġapply": 7219,
    "ap": 7220,
    "Ġvisitors": 7221,
    "gn": 7222,
    "Ô": 7223,
    "æ": 7224,
    "Ġvegan": 7225,
    "Ġstud": 7226,
    "ĠBlack": 7227,
    "Ġsecured": 7228,
    "Ġoutraged": 7229,
    "Ġacquaint": 7230,
    "Ġrestaur": 7231,
    "Ġfiction": 7232,
    "108": 7233,
    "lander": 7234,
    "agg": 7235,
    "irrel": 7236,
    "uffs": 7237,
    "Ġ12": 7238,
    "Ġpatch": 7239,
    "illian": 7240,
    "oj": 7241,
    "Ð¾Ð": 7242,
    "aways": 7243,
    "ounds": 7244,
    "Ġdivers": 7245,
    "Ġaffluent": 7246,
    "isp": 7247,
    "Ġpsychopath": 7248,
    "ational": 7249,
    "Ġmailing": 7250,
    "Ġcheat": 7251,
    "Ġnodes": 7252,
    "ĠStorage": 7253,
    "Ġassass": 7254,
    "Ġsong": 7255,
    "ĠLie": 7256,
    "Ġhandc": 7257,
    "Ġnear": 7258,
    "Ġscrap": 7259,
    "Ġtonnes": 7260,
    "ĠCapitals": 7261,
    "ĠLas": 7262,
    "last": 7263,
    "Cs": 7264,
    "Ġinformant": 7265,
    "Ġmassive": 7266,
    "Ġdonor": 7267,
    "Off": 7268,
    "amas": 7269,
    "Ġspike": 7270,
    "Ġcollaborated": 7271,
    "Ġillum": 7272,
    "iza": 7273,
    "Ġter": 7274,
    "ĠPot": 7275,
    "Ġvarieties": 7276,
    "owship": 7277,
    "uilding": 7278,
    "Ġtram": 7279,
    "ceans": 7280,
    "ĠItalian": 7281,
    "ĠChristine": 7282,
    "otherapy": 7283,
    "hot": 7284,
    "ĠPlatform": 7285,
    "____": 7286,
    "Ġsyndrome": 7287,
    "Ġbelongings": 7288,
    "Ġalbum": 7289,
    "ride": 7290,
    "ĠUSDA": 7291,
    "Ġstructured": 7292,
    "Ġrespectively": 7293,
    "Ġwould": 7294,
    "care": 7295,
    "Ġcheap": 7296,
    "appropriate": 7297,
    "ĠLeave": 7298,
    "iron": 7299,
    "ĠDrug": 7300,
    "cip": 7301,
    "Ġdebate": 7302,
    "Ġfridge": 7303,
    "Ġabandoning": 7304,
    "Ġreass": 7305,
    "ĠDouble": 7306,
    "apture": 7307,
    "Ġdismiss": 7308,
    "ĠOR": 7309,
    "ĠPruitt": 7310,
    "Ġfont": 7311,
    "Ġrender": 7312,
    "ĺ": 7313,
    "ĠJudicial": 7314,
    "ĠInsurance": 7315,
    "ĠCJ": 7316,
    "Ġstructural": 7317,
    "Ġschedule": 7318,
    "Ġmonths": 7319,
    "Ġlore": 7320,
    "Ġgad": 7321,
    "Ġconservatism": 7322,
    "ordinates": 7323,
    "Ġdec": 7324,
    "Ġoft": 7325,
    "Ġnap": 7326,
    "Ð»Ð¸": 7327,
    "Ġadop": 7328,
    "Ġconstructive": 7329,
    "Author": 7330,
    "Ġstories": 7331,
    "Ġremembering": 7332,
    "ãħ": 7333,
    "endant": 7334,
    "Ġsup": 7335,
    "Ġrelent": 7336,
    "Ġcommod": 7337,
    "ĠWitt": 7338,
    "php": 7339,
    "ĠNY": 7340,
    "Ġroadmap": 7341,
    "Ġdin": 7342,
    "ell": 7343,
    "Ġsmashed": 7344,
    "ĠBou": 7345,
    "Ġtabs": 7346,
    "ĠDepression": 7347,
    "Ġmillion": 7348,
    "ĠNelson": 7349,
    "Ġ111": 7350,
    "Ġtransitional": 7351,
    "Ġcreditors": 7352,
    "anim": 7353,
    "thal": 7354,
    "Ġcelebrate": 7355,
    "FT": 7356,
    "ĠHapp": 7357,
    "ĠPopulation": 7358,
    "Ġtricks": 7359,
    "adin": 7360,
    "rait": 7361,
    "Ġconcessions": 7362,
    "API": 7363,
    "alty": 7364,
    "ĠSic": 7365,
    "Ġpenned": 7366,
    "chewan": 7367,
    "acebook": 7368,
    "Ġcomeback": 7369,
    "Bl": 7370,
    "ouver": 7371,
    "ĠBig": 7372,
    "Ġcolle": 7373,
    "ICA": 7374,
    "Ġabstraction": 7375,
    "Ġ87": 7376,
    "Ġfigures": 7377,
    "ĠBobby": 7378,
    "Ġessential": 7379,
    "Ġmargin": 7380,
    "ĠRamos": 7381,
    "Ġhelping": 7382,
    "Ġstrained": 7383,
    "Ġlegalizing": 7384,
    "ĠBoulder": 7385,
    "pty": 7386,
    "ĠLegislature": 7387,
    "ĠEA": 7388,
    "ĠEither": 7389,
    "Ġclaiming": 7390,
    "Great": 7391,
    "item": 7392,
    "Ġconsulting": 7393,
    "Ġmerit": 7394,
    "Ġburn": 7395,
    "Ġprosecut": 7396,
    "CH": 7397,
    "Ġfill": 7398,
    "better": 7399,
    "Nobody": 7400,
    "Lo": 7401,
    "ĠNW": 7402,
    "Ġspreadsheet": 7403,
    "Ġexamining": 7404,
    "ĠTs": 7405,
    "ĠMotor": 7406,
    "Ġgreedy": 7407,
    "opard": 7408,
    "imo": 7409,
    "Ġsymb": 7410,
    "ĠCoach": 7411,
    "Ġbiom": 7412,
    "Ġdisagree": 7413,
    "Berry": 7414,
    "ĠN": 7415,
    "Ġunfold": 7416,
    "udge": 7417,
    "Ġciv": 7418,
    "Ġincorrectly": 7419,
    "Ġdise": 7420,
    "Ġchurch": 7421,
    "Ġresponsible": 7422,
    "Ġsteep": 7423,
    "Ġtreating": 7424,
    "Bas": 7425,
    "Islamic": 7426,
    "Ġtranslate": 7427,
    "Ġsadly": 7428,
    "Ġarrange": 7429,
    "Ġvisits": 7430,
    "ocracies": 7431,
    "ABC": 7432,
    "Ġexpressing": 7433,
    "Ġunion": 7434,
    "Fore": 7435,
    "since": 7436,
    "Ġguests": 7437,
    "ĠDelhi": 7438,
    "Ġpant": 7439,
    "although": 7440,
    "Ġremind": 7441,
    "igious": 7442,
    "Ġtopic": 7443,
    "Ġsack": 7444,
    "Ġbias": 7445,
    "ĠAfricans": 7446,
    "Ġframework": 7447,
    "Ġindict": 7448,
    "Ġtelecommunications": 7449,
    "ĠCommon": 7450,
    "Ġsight": 7451,
    "Ġuncle": 7452,
    "Ġhighs": 7453,
    "Ġnatives": 7454,
    "Ġvillages": 7455,
    "Ġairport": 7456,
    "Ġemot": 7457,
    "Ġweather": 7458,
    "Ġdefault": 7459,
    "Ġinvented": 7460,
    "Ġpharm": 7461,
    "California": 7462,
    "sell": 7463,
    "Ġdisadvant": 7464,
    "ĠFoster": 7465,
    "Ġhelpful": 7466,
    "Ġviolent": 7467,
    "ĠSkin": 7468,
    "Ġvampire": 7469,
    "ĠCrimea": 7470,
    "Ġapproximate": 7471,
    "Ġaccuracy": 7472,
    "ĠDe": 7473,
    "Ġarbitrary": 7474,
    "Mind": 7475,
    "Ġdestinations": 7476,
    "into": 7477,
    "Ġhappy": 7478,
    "Ġposts": 7479,
    "assador": 7480,
    "ĠWash": 7481,
    "ppe": 7482,
    "oll": 7483,
    "Ġactual": 7484,
    "ĠFerguson": 7485,
    "Ġtightly": 7486,
    "Ġmedical": 7487,
    "Ġblame": 7488,
    "arch": 7489,
    "Ġfilm": 7490,
    "Ġawareness": 7491,
    "ĠGandhi": 7492,
    "izoph": 7493,
    "Ġpics": 7494,
    "ĠBor": 7495,
    "ĠBradford": 7496,
    "Ġexercise": 7497,
    "endar": 7498,
    "ctr": 7499,
    "Ġsex": 7500,
    "âĢĿ;": 7501,
    "Ġrobot": 7502,
    "Ġscattered": 7503,
    "ovich": 7504,
    "<": 7505,
    "Ġimbalance": 7506,
    "],": 7507,
    "uese": 7508,
    "Ġresolving": 7509,
    "Ġ(.": 7510,
    "ĠChe": 7511,
    "door": 7512,
    "Ġimportant": 7513,
    "Ġcatching": 7514,
    "wives": 7515,
    "Ġpivotal": 7516,
    "Ġunequiv": 7517,
    "Many": 7518,
    "ĠChinese": 7519,
    "ander": 7520,
    "Ġterrorist": 7521,
    "axy": 7522,
    "Ġinhab": 7523,
    "Ġopposed": 7524,
    "Ġconce": 7525,
    "Ġotherwise": 7526,
    "Jones": 7527,
    "odge": 7528,
    "Saudi": 7529,
    "Ġalph": 7530,
    "Ġtravel": 7531,
    "ompl": 7532,
    "Ġmodule": 7533,
    "published": 7534,
    "Ġcoordinate": 7535,
    "Ġblasp": 7536,
    "accur": 7537,
    "itutes": 7538,
    "ampions": 7539,
    "ependent": 7540,
    "Ġcapitalists": 7541,
    "Ġbreed": 7542,
    "Ġinflux": 7543,
    "Ġtaking": 7544,
    "Ġunusually": 7545,
    "ÂĢ": 7546,
    "Ġheaded": 7547,
    "ĠWatt": 7548,
    "Ġencouraging": 7549,
    "Ġmug": 7550,
    "itution": 7551,
    "Ġindicated": 7552,
    "Ġch": 7553,
    "Ġresearc": 7554,
    "uchs": 7555,
    "Ġspotted": 7556,
    "Ġsplash": 7557,
    "ests": 7558,
    "Ġinvisible": 7559,
    "Ġunchanged": 7560,
    "Ġsatur": 7561,
    "Ġya": 7562,
    "ĠSunder": 7563,
    "Ġbasketball": 7564,
    "ĠNight": 7565,
    "Ġunions": 7566,
    "ĠHillary": 7567,
    "ĠLip": 7568,
    "onel": 7569,
    "Ġsmok": 7570,
    "patch": 7571,
    "Foreign": 7572,
    "Ġforthcoming": 7573,
    "ĠCook": 7574,
    "Ġrelie": 7575,
    "ripp": 7576,
    "Ġdumping": 7577,
    "ĠMarie": 7578,
    "Ġpredict": 7579,
    "ĠMO": 7580,
    "Bro": 7581,
    "Ġreputation": 7582,
    "ĠJaguars": 7583,
    "Ġprocess": 7584,
    "icially": 7585,
    "Ġbounds": 7586,
    "ĠVC": 7587,
    "Ġpat": 7588,
    "borhood": 7589,
    "Ġeast": 7590,
    "ĠEmily": 7591,
    "ĠWell": 7592,
    "abet": 7593,
    "ĠTak": 7594,
    "Ġbeliever": 7595,
    "Ġhandy": 7596,
    "Ġrookies": 7597,
    "particularly": 7598,
    "fried": 7599,
    "Ġexpelled": 7600,
    "Ġjustified": 7601,
    "ĠCONT": 7602,
    "ĠJP": 7603,
    "Ġesc": 7604,
    "pling": 7605,
    "Ġcomprehend": 7606,
    "Ġillicit": 7607,
    "bilt": 7608,
    "ĠFors": 7609,
    "ails": 7610,
    "Ġyeast": 7611,
    "Ġelic": 7612,
    "Ġover": 7613,
    "Ġaffordability": 7614,
    "ĠMaggie": 7615,
    "ute": 7616,
    "fits": 7617,
    "Ġhorrors": 7618,
    "inst": 7619,
    "ĠUE": 7620,
    "Ġpreceding": 7621,
    "Ġprecisely": 7622,
    "Ġfront": 7623,
    "otechnology": 7624,
    "ĠTyr": 7625,
    "Ġmaid": 7626,
    "ĠIreland": 7627,
    "Ġdeserving": 7628,
    "Early": 7629,
    "iago": 7630,
    "omy": 7631,
    "Sadly": 7632,
    "ĠWalsh": 7633,
    "ĠSeason": 7634,
    "Ġawkward": 7635,
    "Ġgrandchildren": 7636,
    "Ġmotivated": 7637,
    "ĠReview": 7638,
    "Ġlou": 7639,
    "Sil": 7640,
    "aun": 7641,
    "Ġyeah": 7642,
    "ĠElectronic": 7643,
    "Ġformal": 7644,
    "Ġusername": 7645,
    "Ġdiminish": 7646,
    "acity": 7647,
    "between": 7648,
    "Ġsemester": 7649,
    "250": 7650,
    "coin": 7651,
    "ĠMarco": 7652,
    "Ġpervasive": 7653,
    "ĠOrient": 7654,
    "ĠArg": 7655,
    "Ġdig": 7656,
    "ĠStatement": 7657,
    "Ġalbeit": 7658,
    "Ġeither": 7659,
    "Ġcues": 7660,
    "ĠFen": 7661,
    "ificent": 7662,
    "Ġrejects": 7663,
    "Ġsmartphone": 7664,
    "ĠMets": 7665,
    "Ġspinal": 7666,
    "urp": 7667,
    "ĠHoliday": 7668,
    "Ġunits": 7669,
    "ĠSark": 7670,
    "Ġhear": 7671,
    "Ġaffair": 7672,
    "Ġtit": 7673,
    "ĠCorpor": 7674,
    "Gov": 7675,
    "Ġfeder": 7676,
    "ĠSail": 7677,
    "Ġ1946": 7678,
    "ĠOverwatch": 7679,
    "Ġoptimize": 7680,
    "oster": 7681,
    "Ġcomedian": 7682,
    "Ġkeen": 7683,
    "Ġreactors": 7684,
    "vie": 7685,
    "Ġprincip": 7686,
    "vised": 7687,
    "ĠFlash": 7688,
    "Ġlos": 7689,
    "ĠMir": 7690,
    "Ġtechn": 7691,
    "ifting": 7692,
    "ĠGingrich": 7693,
    "Ġobjections": 7694,
    "Ġeventual": 7695,
    "Ġshipping": 7696,
    "ureau": 7697,
    "ĠRepublicans": 7698,
    "Throughout": 7699,
    "GA": 7700,
    "Ġgenuinely": 7701,
    "AK": 7702,
    "ĠMountains": 7703,
    "Ġforcing": 7704,
    "rics": 7705,
    "Ġbinary": 7706,
    "xt": 7707,
    "Ġcrime": 7708,
    "zos": 7709,
    "ĠCam": 7710,
    "Lib": 7711,
    "Ġoffend": 7712,
    "ĠHis": 7713,
    "Yeah": 7714,
    "Ġnoble": 7715,
    "Ġdepth": 7716,
    "inion": 7717,
    "Ġwell": 7718,
    "ocker": 7719,
    "ĠChurch": 7720,
    "Qaida": 7721,
    "osit": 7722,
    "ĠSeah": 7723,
    "ĠNigerian": 7724,
    "RI": 7725,
    "ĠSoon": 7726,
    "Ġdepressing": 7727,
    "Ġapproval": 7728,
    "ĠEthan": 7729,
    "Ġtribes": 7730,
    "short": 7731,
    "Apple": 7732,
    "Ġspecification": 7733,
    "at": 7734,
    "ĠCould": 7735,
    "ĠPhilippine": 7736,
    "ĠThousands": 7737,
    "ĠVisa": 7738,
    "ĠLooking": 7739,
    "ĠRs": 7740,
    "Ġgre": 7741,
    "Ġemphasized": 7742,
    "nn": 7743,
    "lud": 7744,
    "Ġexclusives": 7745,
    "ĠDOJ": 7746,
    "Ġown": 7747,
    "rer": 7748,
    "icular": 7749,
    "Ġcom": 7750,
    "yard": 7751,
    "Ġjailed": 7752,
    "og": 7753,
    "ĠWith": 7754,
    "orient": 7755,
    "Ġflagship": 7756,
    "ĠDavidson": 7757,
    "Ġchallenges": 7758,
    "ĠHerbert": 7759,
    "Ġresisting": 7760,
    "ĠCher": 7761,
    "ingle": 7762,
    "Ġpond": 7763,
    "Ġdataset": 7764,
    "Ġvisas": 7765,
    "ě": 7766,
    "Ġmyst": 7767,
    "phasis": 7768,
    "yers": 7769,
    "ĠWill": 7770,
    "Ġempower": 7771,
    "ake": 7772,
    "ĠBoard": 7773,
    "Ġrestricting": 7774,
    "Ġworship": 7775,
    "ĠKerry": 7776,
    "Ġbattled": 7777,
    "Ġcontained": 7778,
    "Ġscan": 7779,
    "women": 7780,
    "ĠKn": 7781,
    "ĠResp": 7782,
    "Ġspaces": 7783,
    "ĠAst": 7784,
    "elin": 7785,
    "ĠBernardino": 7786,
    "wick": 7787,
    "berger": 7788,
    "Ġabsolutely": 7789,
    "ĠKlein": 7790,
    "Senate": 7791,
    "Ġprofits": 7792,
    "Ġexplaining": 7793,
    "ĠJerusalem": 7794,
    "Ġ),": 7795,
    "Ġpoet": 7796,
    "Ġevening": 7797,
    "Ġseem": 7798,
    "Ġdivides": 7799,
    "Ġousted": 7800,
    "ĠCorbyn": 7801,
    "Ġfast": 7802,
    "zed": 7803,
    "ĠDo": 7804,
    "ĠHad": 7805,
    "ĠVill": 7806,
    "its": 7807,
    "icials": 7808,
    "Ġquantity": 7809,
    "Ġhorsepower": 7810,
    "Ġpretending": 7811,
    "Ġtrailer": 7812,
    "ema": 7813,
    "ĠRuss": 7814,
    "That": 7815,
    "iers": 7816,
    "Ġpatterns": 7817,
    "Ġbouncing": 7818,
    "uch": 7819,
    "Ġwrapped": 7820,
    "Ġtremendously": 7821,
    "Ġspecial": 7822,
    "Ġpos": 7823,
    "ĠAddress": 7824,
    "operative": 7825,
    "abama": 7826,
    "Ġconglomer": 7827,
    "anners": 7828,
    "Ġthreatened": 7829,
    "ĠLevel": 7830,
    "ĠProtestant": 7831,
    "Former": 7832,
    "Ġoversaw": 7833,
    "Ġchip": 7834,
    "Ġfutures": 7835,
    "ĠTol": 7836,
    "Ġsignaling": 7837,
    "ĠRP": 7838,
    "ĠRobinson": 7839,
    "reshold": 7840,
    "ĠApr": 7841,
    "Ġaloud": 7842,
    "Ġfame": 7843,
    "ĠCounsel": 7844,
    "ĠUnit": 7845,
    "ĠDetails": 7846,
    "Ġacquisitions": 7847,
    "utton": 7848,
    "uf": 7849,
    "Ġowners": 7850,
    "Ġembassy": 7851,
    "ĠHolocaust": 7852,
    "Ġprefers": 7853,
    "Ġinvestors": 7854,
    "Ġinfluences": 7855,
    "iat": 7856,
    "Ġapplied": 7857,
    "Ġstraw": 7858,
    "Ġripe": 7859,
    "ĠToyota": 7860,
    "ĠHannity": 7861,
    "ĠSchmidt": 7862,
    "Ġtrying": 7863,
    "Ġappet": 7864,
    "Ġfinds": 7865,
    "ĠDri": 7866,
    "Ġnegligence": 7867,
    "loaded": 7868,
    "Ġenergy": 7869,
    "Ġrunoff": 7870,
    "Ġwaters": 7871,
    "immer": 7872,
    "ished": 7873,
    "average": 7874,
    "employment": 7875,
    "ĠFixed": 7876,
    "Ġcelebrating": 7877,
    "ĠAmericas": 7878,
    "von": 7879,
    "Ġafterward": 7880,
    "Ġshutting": 7881,
    "Ġank": 7882,
    "Ġscept": 7883,
    "udic": 7884,
    "Ġninth": 7885,
    "ĠHonda": 7886,
    "Ġannexation": 7887,
    "ĠBasketball": 7888,
    "Ġattracted": 7889,
    "apan": 7890,
    "Ġoverlapping": 7891,
    "Ġarche": 7892,
    "Mem": 7893,
    "jas": 7894,
    "ÙĬ": 7895,
    "Ġpregn": 7896,
    "iful": 7897,
    "Ġmamm": 7898,
    "ĠGarland": 7899,
    "vertising": 7900,
    "ĠSeg": 7901,
    "Ġart": 7902,
    "ĠHalloween": 7903,
    "Ġunnoticed": 7904,
    "isting": 7905,
    "ĠWen": 7906,
    "ĠMichelle": 7907,
    "Ġera": 7908,
    "ĠAlex": 7909,
    "org": 7910,
    "Ê": 7911,
    "ĠBent": 7912,
    "Ġjugg": 7913,
    "ĠCourse": 7914,
    "Ġthemes": 7915,
    "Ġsooner": 7916,
    "Ġblocked": 7917,
    "Ġnationalists": 7918,
    "rist": 7919,
    "hesis": 7920,
    "UM": 7921,
    "Ġimped": 7922,
    "Ġmargins": 7923,
    "Ġinterrog": 7924,
    "Ġinvestor": 7925,
    "Ġamino": 7926,
    "Ġtang": 7927,
    "Ġbenefits": 7928,
    "Ġelectron": 7929,
    "day": 7930,
    "ishop": 7931,
    "Ġhinted": 7932,
    "ĠTelescope": 7933,
    "ĠFlynn": 7934,
    "Ġinstitution": 7935,
    "Ġstrategically": 7936,
    "ĠDominican": 7937,
    "Ġmourning": 7938,
    "Ġscore": 7939,
    "Ġerected": 7940,
    "ĠHomeland": 7941,
    "Ġstair": 7942,
    "ĠLO": 7943,
    "ĠB": 7944,
    "ĠMacron": 7945,
    "Apparently": 7946,
    "bone": 7947,
    "abytes": 7948,
    "ĠMilky": 7949,
    "Ġarchitect": 7950,
    "Ġengineer": 7951,
    "Ġ32": 7952,
    "Report": 7953,
    "Ġplugin": 7954,
    "Ġspeakers": 7955,
    "Ġdepos": 7956,
    "ĠSwan": 7957,
    "Ġaide": 7958,
    "Ġtaxpayers": 7959,
    "Posted": 7960,
    "Super": 7961,
    "ĠOpposition": 7962,
    "Ġrecommending": 7963,
    "Ġproportion": 7964,
    "Ġprocesses": 7965,
    "Ġbeers": 7966,
    "Ġsmokers": 7967,
    "COM": 7968,
    "arms": 7969,
    "fe": 7970,
    "chem": 7971,
    "Der": 7972,
    "orship": 7973,
    "ĠToo": 7974,
    "Ġpledged": 7975,
    "Ġopera": 7976,
    "Ġvou": 7977,
    "ilated": 7978,
    "Ġ1974": 7979,
    "mite": 7980,
    "Ġinterfering": 7981,
    "Ġclimbed": 7982,
    "Ġaqu": 7983,
    "ĠShannon": 7984,
    "Ġgroundwater": 7985,
    "wiki": 7986,
    "Ġproactive": 7987,
    "Hit": 7988,
    "Ġstationed": 7989,
    "lick": 7990,
    "uddenly": 7991,
    "ĠBangkok": 7992,
    "123": 7993,
    "ĠChain": 7994,
    "Connect": 7995,
    "Ġredevelopment": 7996,
    "Ġpits": 7997,
    "ĠLuis": 7998,
    "ĠKin": 7999,
    "Ġsnake": 8000,
    "ĠTer": 8001,
    "Ġplenty": 8002,
    "Ġcompassion": 8003,
    "ĠCorps": 8004,
    "established": 8005,
    "Ġmetic": 8006,
    "Ġinspired": 8007,
    "Ġrecordings": 8008,
    "ULT": 8009,
    "Ġrequested": 8010,
    "esity": 8011,
    "ĠCyprus": 8012,
    "ĠIg": 8013,
    "Pinterest": 8014,
    "Ġanyone": 8015,
    "Ġactivists": 8016,
    "all": 8017,
    "haired": 8018,
    "avier": 8019,
    "Ġ205": 8020,
    "ĠMLS": 8021,
    "Ġeighth": 8022,
    "few": 8023,
    "Ġdivided": 8024,
    "Ġpuls": 8025,
    "{\"": 8026,
    "ĠMis": 8027,
    "Ġrecovered": 8028,
    "ĠJack": 8029,
    "Ġsys": 8030,
    "Ġaster": 8031,
    "Ġdissip": 8032,
    "industrial": 8033,
    "ĠAir": 8034,
    "Ġwithd": 8035,
    "ĠMaz": 8036,
    "Mult": 8037,
    "Ġpolished": 8038,
    "Ġright": 8039,
    "Ġarrived": 8040,
    "Ġhalted": 8041,
    "AY": 8042,
    "Ġsediment": 8043,
    "ĠUnfortunately": 8044,
    "ĠJar": 8045,
    "byn": 8046,
    "Ġflav": 8047,
    "nces": 8048,
    "ĠHast": 8049,
    "Ġlove": 8050,
    "Ġrenew": 8051,
    "aver": 8052,
    "[": 8053,
    "\",": 8054,
    "ĠNewcastle": 8055,
    "Ġvictims": 8056,
    "Ġenumer": 8057,
    "Ġprominently": 8058,
    "ĠRange": 8059,
    "Ġconceded": 8060,
    "arse": 8061,
    "Ġpsychologists": 8062,
    "Ġroot": 8063,
    "ard": 8064,
    "ĠWeiss": 8065,
    "Ġsquad": 8066,
    "Ġcombination": 8067,
    "ĠProfessional": 8068,
    "Ġbearing": 8069,
    "ambling": 8070,
    "ĠBrown": 8071,
    "Ġdwar": 8072,
    "esome": 8073,
    "ĠKi": 8074,
    "Ġbark": 8075,
    "Ġattracts": 8076,
    "hum": 8077,
    "Ġfeud": 8078,
    "Ġcasting": 8079,
    "Ġyoungsters": 8080,
    "Ġpacking": 8081,
    "ĠChat": 8082,
    "Roman": 8083,
    "ĠMolly": 8084,
    "ĠMessenger": 8085,
    "ĠCarn": 8086,
    "ĠBatt": 8087,
    "Ġpuzzle": 8088,
    "Ġostensibly": 8089,
    "Ġecc": 8090,
    "Indian": 8091,
    "Ġpartial": 8092,
    "Ġliqu": 8093,
    "ĠCorrect": 8094,
    "Ġmusic": 8095,
    "Ġaisle": 8096,
    "Ġgive": 8097,
    "Ġseemingly": 8098,
    "Ġviewing": 8099,
    "Ġsupposedly": 8100,
    "Ġmetals": 8101,
    "Ġperforming": 8102,
    "https": 8103,
    "Ġjointly": 8104,
    "Ġmeals": 8105,
    "Ġarms": 8106,
    "custom": 8107,
    "ĠINT": 8108,
    "ĠBox": 8109,
    "Ġbrake": 8110,
    "Ġtab": 8111,
    "Ġwit": 8112,
    "ochond": 8113,
    "Î¼": 8114,
    "elling": 8115,
    "ĠMON": 8116,
    "ĠSalvador": 8117,
    "ĠShak": 8118,
    "rock": 8119,
    "Ġsustain": 8120,
    "Ġapparently": 8121,
    "so": 8122,
    "Ġ()": 8123,
    "Ġut": 8124,
    "Ġunlawful": 8125,
    "Ġmigr": 8126,
    "represent": 8127,
    "ĠNora": 8128,
    "Ġcompound": 8129,
    "Ġhuge": 8130,
    "ĠBrady": 8131,
    "gence": 8132,
    "Ġgift": 8133,
    "ãģª": 8134,
    "ĠPortug": 8135,
    "NT": 8136,
    "Ġstarring": 8137,
    "ĠAssociates": 8138,
    "ĠMahmoud": 8139,
    "oys": 8140,
    "Human": 8141,
    "inav": 8142,
    "Ġ42": 8143,
    "Ġfirearm": 8144,
    "ĠBerlin": 8145,
    "ï½": 8146,
    "Ġalert": 8147,
    "broken": 8148,
    "priv": 8149,
    "160": 8150,
    "political": 8151,
    "led": 8152,
    "necess": 8153,
    "en": 8154,
    "Ġunch": 8155,
    "Ġremix": 8156,
    "Ġcongest": 8157,
    "ciples": 8158,
    "Ġmaintain": 8159,
    "ĠEnvironmental": 8160,
    "bishop": 8161,
    "ĠBlade": 8162,
    "ĠProblem": 8163,
    "Ġnumerical": 8164,
    "ls": 8165,
    "itating": 8166,
    "Ġframe": 8167,
    "Ġorganization": 8168,
    "ĠExperts": 8169,
    "Ġinstitute": 8170,
    "Ġnurse": 8171,
    "Ġbackwards": 8172,
    "ĠG": 8173,
    "Ġhatch": 8174,
    "Ġh": 8175,
    "Ġtolerance": 8176,
    "Americans": 8177,
    "Ġmortg": 8178,
    "Why": 8179,
    "Ġwheel": 8180,
    "ichi": 8181,
    "ĠShortly": 8182,
    "ĠSim": 8183,
    "Ġtestimony": 8184,
    "Ġmasterpiece": 8185,
    "ĠKai": 8186,
    "Ġobliged": 8187,
    "Ġastronomical": 8188,
    "Ġmarital": 8189,
    "Our": 8190,
    "ĠâĢľ": 8191,
    "iams": 8192,
    "ĠGrace": 8193,
    "ĠDuck": 8194,
    "Ġspo": 8195,
    "Ġgo": 8196,
    "Ġoutlines": 8197,
    "perties": 8198,
    "Ġcertificate": 8199,
    "ĠLodge": 8200,
    "ĠAlf": 8201,
    "infect": 8202,
    "ku": 8203,
    "Ġviolate": 8204,
    "Ġtechnicians": 8205,
    "obi": 8206,
    "ĠRSS": 8207,
    "pron": 8208,
    "ĠMedium": 8209,
    "hearted": 8210,
    "irds": 8211,
    "Ġpractition": 8212,
    "commun": 8213,
    "Ġbranch": 8214,
    "ĠEP": 8215,
    "umper": 8216,
    "Ġpetroleum": 8217,
    "Team": 8218,
    "arc": 8219,
    "Ġextensively": 8220,
    "ĠJazz": 8221,
    "Ġefficacy": 8222,
    "Ġeducated": 8223,
    "ĠRevenue": 8224,
    "Ġshaped": 8225,
    "funded": 8226,
    "ftime": 8227,
    "Ġbattery": 8228,
    "FR": 8229,
    "Ġwartime": 8230,
    "otic": 8231,
    "Ġont": 8232,
    "Ġhardware": 8233,
    "TION": 8234,
    "Ġdisruptive": 8235,
    "Ġë": 8236,
    "Ġregimes": 8237,
    "ronics": 8238,
    "ogle": 8239,
    "Ġmedi": 8240,
    "ĠAmong": 8241,
    "letion": 8242,
    "xit": 8243,
    "ĠScand": 8244,
    "ĠArk": 8245,
    "Ġuncons": 8246,
    "ĠMcGregor": 8247,
    "Al": 8248,
    "Ġinf": 8249,
    "ĠAmnesty": 8250,
    "Ġincompetent": 8251,
    "Ġcompositions": 8252,
    "Less": 8253,
    "ĠRiver": 8254,
    "lf": 8255,
    "Ġnonprofit": 8256,
    "sub": 8257,
    "ventional": 8258,
    "onda": 8259,
    "ĠOdyssey": 8260,
    "committee": 8261,
    "cook": 8262,
    "2005": 8263,
    "Ġscarcity": 8264,
    "ĠNative": 8265,
    "Ġcereal": 8266,
    "Ġbills": 8267,
    "Being": 8268,
    "B": 8269,
    "ĠProductions": 8270,
    "Ġeffect": 8271,
    "Ġcoal": 8272,
    "Ġsom": 8273,
    "ĠNepal": 8274,
    "Ġnothing": 8275,
    "Ġharder": 8276,
    "Ġflare": 8277,
    "Ġfixture": 8278,
    "IFA": 8279,
    "Ġ5": 8280,
    "ez": 8281,
    "Ġscreenshot": 8282,
    "ĠBI": 8283,
    "ĠWATCH": 8284,
    "eme": 8285,
    "Ġentirety": 8286,
    "Ġfake": 8287,
    "Ġgroceries": 8288,
    "Ġphenomenon": 8289,
    "ĠFemin": 8290,
    "Ġassuming": 8291,
    "Ġappealing": 8292,
    "bus": 8293,
    "DER": 8294,
    "Ġplaint": 8295,
    "nom": 8296,
    "Res": 8297,
    "Click": 8298,
    "ĠShut": 8299,
    "ĠWer": 8300,
    "earance": 8301,
    "Ġem": 8302,
    "ourse": 8303,
    "erts": 8304,
    "iaz": 8305,
    "ĠDownload": 8306,
    "cy": 8307,
    "Ġtrust": 8308,
    "Ġderiv": 8309,
    "then": 8310,
    "ĠInstead": 8311,
    "pert": 8312,
    "ĠCreat": 8313,
    "Bern": 8314,
    "Across": 8315,
    "Ġaffirm": 8316,
    "ĵ": 8317,
    "ĠBJP": 8318,
    "ĠJoseph": 8319,
    "Ġmetro": 8320,
    "Ġcounterterrorism": 8321,
    "ĠCard": 8322,
    "HI": 8323,
    "ĠFilipino": 8324,
    "Ġimport": 8325,
    "ĠHP": 8326,
    "Ġpeers": 8327,
    "Science": 8328,
    "ĠAna": 8329,
    "ĠLiverpool": 8330,
    "Ġweighed": 8331,
    "ĠBashar": 8332,
    "ĠBudget": 8333,
    "ĠFix": 8334,
    "uming": 8335,
    "ĠAlcohol": 8336,
    "Ġ<": 8337,
    "ĠArray": 8338,
    "ĠOrb": 8339,
    "ĠFill": 8340,
    "loop": 8341,
    "Screen": 8342,
    "ĠLike": 8343,
    "ible": 8344,
    "Ġcorrection": 8345,
    "Ġfiles": 8346,
    "Ġcocktails": 8347,
    "Ġopponents": 8348,
    "Ġworldview": 8349,
    "ĠRee": 8350,
    "Ġdisorder": 8351,
    "iologist": 8352,
    "bag": 8353,
    "Ġseed": 8354,
    "Ġsear": 8355,
    "Ġdistingu": 8356,
    "asure": 8357,
    "ĠFedora": 8358,
    "ĠTHE": 8359,
    "Ġhonoring": 8360,
    "bar": 8361,
    "ĠE": 8362,
    "Ġoverc": 8363,
    "Ġspons": 8364,
    "winning": 8365,
    "Ġcrown": 8366,
    "Ġspun": 8367,
    "Ġaffecting": 8368,
    "Ġconfirms": 8369,
    "Ġmasters": 8370,
    "only": 8371,
    "mad": 8372,
    "terns": 8373,
    "Ġlust": 8374,
    "eroids": 8375,
    "Ġlatitude": 8376,
    "Ġwounded": 8377,
    "ĠIm": 8378,
    "ĠReb": 8379,
    "odus": 8380,
    "ĠKaepernick": 8381,
    "getown": 8382,
    "Starting": 8383,
    "loo": 8384,
    "ĠMaple": 8385,
    "Ġhappened": 8386,
    "Ġante": 8387,
    "Ġsuicide": 8388,
    "tical": 8389,
    "Ġbalanced": 8390,
    "ĠTracy": 8391,
    "Ġrains": 8392,
    "ĠRailroad": 8393,
    "Money": 8394,
    "Line": 8395,
    "ĠPink": 8396,
    "ĠPriebus": 8397,
    "ĠTournament": 8398,
    "Ġwife": 8399,
    "ĠMontreal": 8400,
    "Ġhad": 8401,
    "ĠWillis": 8402,
    "Ġchances": 8403,
    "Ġmaterials": 8404,
    "Ġspontaneous": 8405,
    "Ġgrape": 8406,
    "Ġtiers": 8407,
    "Ġjail": 8408,
    "irmed": 8409,
    "ĠConstruction": 8410,
    "atively": 8411,
    "Ġobv": 8412,
    "Hub": 8413,
    "rich": 8414,
    "assed": 8415,
    "ĠWinner": 8416,
    "Ġquantum": 8417,
    "Ġbasement": 8418,
    "Ġsomewhat": 8419,
    "Ġmechanic": 8420,
    "Ġ2002": 8421,
    "without": 8422,
    "Ġresidents": 8423,
    "åĪ": 8424,
    "ĠCause": 8425,
    "Ġsidewalks": 8426,
    "ound": 8427,
    "Ġdoc": 8428,
    "Ġreboot": 8429,
    "Ġsized": 8430,
    "ĠWireless": 8431,
    "hammer": 8432,
    "ĠMic": 8433,
    "Ġbutton": 8434,
    "Ġmanif": 8435,
    "Ġesports": 8436,
    "Ġdesire": 8437,
    "ĠScholar": 8438,
    "Ġrobber": 8439,
    "Ġavailability": 8440,
    "TR": 8441,
    "Ã¤": 8442,
    "ĠLeBron": 8443,
    "stars": 8444,
    "ÃĤ": 8445,
    "rug": 8446,
    "Ġbetween": 8447,
    "ĠAlbany": 8448,
    "ĠDL": 8449,
    "Ġmog": 8450,
    "Ġconcludes": 8451,
    "ĠCulture": 8452,
    "ĠMarcos": 8453,
    "Ġherb": 8454,
    "Ġdistances": 8455,
    "Ġerr": 8456,
    "tw": 8457,
    "Ġforehead": 8458,
    "Ġtroops": 8459,
    "Ġvertical": 8460,
    "ĠNg": 8461,
    "ãģ®": 8462,
    "Mayor": 8463,
    "Ġfarms": 8464,
    "Johnson": 8465,
    "intendent": 8466,
    "Key": 8467,
    "Ġbrighter": 8468,
    "rench": 8469,
    "ĠSheffield": 8470,
    "Continue": 8471,
    "Ġpuzz": 8472,
    "Ġrough": 8473,
    "Ġvisually": 8474,
    "bright": 8475,
    "ĠKent": 8476,
    "Ġbulk": 8477,
    "Ġgeographical": 8478,
    "ĠAdministration": 8479,
    "Ġ\"/": 8480,
    "ĠTruman": 8481,
    "PR": 8482,
    "ĠSUV": 8483,
    "ĠSequ": 8484,
    "Ġvolunt": 8485,
    "ouble": 8486,
    "Ġjerk": 8487,
    "Ġcollusion": 8488,
    "Ġvarious": 8489,
    "Ġpilots": 8490,
    "ser": 8491,
    "Ġstealth": 8492,
    "Ġpositives": 8493,
    "Ġcook": 8494,
    "--": 8495,
    "ĠFig": 8496,
    "andro": 8497,
    ",âĢĻâĢĻ": 8498,
    "fit": 8499,
    "ĠFuk": 8500,
    "lves": 8501,
    "Ġlunar": 8502,
    "ĠEgypt": 8503,
    "ĠKling": 8504,
    "Ġunsc": 8505,
    "Hard": 8506,
    "ĠNRA": 8507,
    "Ġcorridors": 8508,
    "Ġgraves": 8509,
    "Ġsore": 8510,
    "Ġslam": 8511,
    "Ġye": 8512,
    "ĠAbrams": 8513,
    "Ġenthusi": 8514,
    "ĠCheney": 8515,
    "Ġsung": 8516,
    "men": 8517,
    "ĠIF": 8518,
    "Ġthugs": 8519,
    "ressive": 8520,
    "Ġtweets": 8521,
    "Ġaffirmed": 8522,
    "ĠHungary": 8523,
    "Ġconscience": 8524,
    "Access": 8525,
    "ĠNorway": 8526,
    "Ġtorn": 8527,
    "Ġplayoffs": 8528,
    "Ġsimulated": 8529,
    "Ġadvertisement": 8530,
    "Stand": 8531,
    "Ġcompre": 8532,
    "USE": 8533,
    "Ġplease": 8534,
    "Ġexamples": 8535,
    "fc": 8536,
    "ĠPerformance": 8537,
    "Ġener": 8538,
    "ris": 8539,
    "ophobia": 8540,
    "ij": 8541,
    "Ġassoci": 8542,
    "ãĢĤ": 8543,
    "ogs": 8544,
    "covered": 8545,
    "Ġbarrier": 8546,
    "Ġtrajectory": 8547,
    "akedown": 8548,
    "Ġdrama": 8549,
    "inctions": 8550,
    "Ġrealization": 8551,
    "ĠArchive": 8552,
    "Ġpuppy": 8553,
    "Ġsuppliers": 8554,
    "Ġblowing": 8555,
    "ĠDot": 8556,
    "Ġimpuls": 8557,
    "Ġfr": 8558,
    "iem": 8559,
    "Ġeff": 8560,
    "Ġknife": 8561,
    "ĠSD": 8562,
    "ĠâĨ": 8563,
    "book": 8564,
    "ĠComputer": 8565,
    "Ġviolently": 8566,
    "ĠFS": 8567,
    "rising": 8568,
    "volume": 8569,
    "ĠSty": 8570,
    "kok": 8571,
    "Luck": 8572,
    "Ġlift": 8573,
    "Ġam": 8574,
    "Ġretained": 8575,
    "ĠVirginia": 8576,
    "Ġcorrelation": 8577,
    "Ġcontrollers": 8578,
    "Ġpaint": 8579,
    "oken": 8580,
    "ITH": 8581,
    "ĠECB": 8582,
    "TOR": 8583,
    "nerg": 8584,
    "ĠArabs": 8585,
    "Ġqueue": 8586,
    "03": 8587,
    "orses": 8588,
    "ĠRequ": 8589,
    "sewhere": 8590,
    "Ġtrolls": 8591,
    "essler": 8592,
    "uu": 8593,
    "hem": 8594,
    "Ġcomple": 8595,
    "sole": 8596,
    "ĠSuccess": 8597,
    "ition": 8598,
    "Ġinsiders": 8599,
    "Ġaesthetic": 8600,
    "Ġ10": 8601,
    "Ġvul": 8602,
    "ĠCalder": 8603,
    "Ġ1943": 8604,
    "ĠSweden": 8605,
    "ĠRecently": 8606,
    "Ġcomic": 8607,
    "ĠLiu": 8608,
    "weet": 8609,
    "ĠBenjamin": 8610,
    "umph": 8611,
    "ĠWolver": 8612,
    "åĲ": 8613,
    "Ġtoured": 8614,
    "Ġilleg": 8615,
    "vell": 8616,
    "Ġprofessionally": 8617,
    "ĠTrans": 8618,
    "Ġelites": 8619,
    "ĠMedic": 8620,
    "Ġneighborhoods": 8621,
    "ĠÑģ": 8622,
    "ĠPresidents": 8623,
    "Ġcameo": 8624,
    "ĠAdventure": 8625,
    "ĠVictorian": 8626,
    "ĠPoland": 8627,
    "Ġtechnician": 8628,
    "Ġcorpor": 8629,
    "live": 8630,
    "Ġaffected": 8631,
    "Ġbullied": 8632,
    "Ġconception": 8633,
    "Ġmultiplayer": 8634,
    "Ġentrepreneurs": 8635,
    "Ġsmall": 8636,
    "Travel": 8637,
    "urches": 8638,
    "Ġwood": 8639,
    "wy": 8640,
    "Ġdelt": 8641,
    "loving": 8642,
    "Ġhonest": 8643,
    "ĠKushner": 8644,
    "Apart": 8645,
    "Ġpork": 8646,
    "Ġmultipl": 8647,
    "Ġbreakthrough": 8648,
    "Ġassets": 8649,
    "ĠISBN": 8650,
    "ĠReligion": 8651,
    "ĠBrad": 8652,
    "42": 8653,
    "Ġnonsense": 8654,
    "ĠCash": 8655,
    "ĠTermin": 8656,
    "mg": 8657,
    "Ġmanslaughter": 8658,
    "Ġincredibly": 8659,
    "Ġteam": 8660,
    "ĠMeteor": 8661,
    "Ġgenus": 8662,
    "Ġperson": 8663,
    "ĠLud": 8664,
    "init": 8665,
    "Ġtube": 8666,
    "uff": 8667,
    "throp": 8668,
    "Est": 8669,
    "Ġthese": 8670,
    "Ġimpunity": 8671,
    "ĠHack": 8672,
    "Ġwors": 8673,
    "Ġcrackdown": 8674,
    "Ġtapping": 8675,
    "od": 8676,
    "Ġet": 8677,
    "Ġhandled": 8678,
    "wheel": 8679,
    "uth": 8680,
    "ĠReporter": 8681,
    "Ġportfol": 8682,
    "ãĤĵ": 8683,
    "bottom": 8684,
    "Ġinitial": 8685,
    "entially": 8686,
    "ĠTort": 8687,
    "oos": 8688,
    "Ġwhites": 8689,
    "budget": 8690,
    "quin": 8691,
    "mingham": 8692,
    "antly": 8693,
    "erion": 8694,
    "ĠMeg": 8695,
    "tr": 8696,
    "Ġprisoners": 8697,
    "ced": 8698,
    "Ġgoods": 8699,
    "ĠReports": 8700,
    "Ġcopied": 8701,
    "Ġrealizing": 8702,
    "grass": 8703,
    "urn": 8704,
    "Ġbewild": 8705,
    "Ġsnipp": 8706,
    "Ġnotification": 8707,
    "Ġunemployed": 8708,
    "Ġgotta": 8709,
    "ĠTerrorism": 8710,
    "Ġ1933": 8711,
    "ocations": 8712,
    "Below": 8713,
    "Ġthreads": 8714,
    "Own": 8715,
    "fed": 8716,
    "ĠTut": 8717,
    "Ġengulf": 8718,
    "eral": 8719,
    "Ġgubernatorial": 8720,
    "Ġholders": 8721,
    "iven": 8722,
    "Ġharassing": 8723,
    "Ġonset": 8724,
    "ĠAustria": 8725,
    "ĠBlair": 8726,
    "gic": 8727,
    "bay": 8728,
    "Ġharm": 8729,
    "Ġjury": 8730,
    "Ġ127": 8731,
    "Ġreward": 8732,
    "ĠPry": 8733,
    "ĠKnicks": 8734,
    "ion": 8735,
    "env": 8736,
    "Ġtextbooks": 8737,
    "Ġinterrogation": 8738,
    "Ġdrawn": 8739,
    "ĠCou": 8740,
    "Ġkicker": 8741,
    "ĠHaving": 8742,
    "Ġphil": 8743,
    "neg": 8744,
    "Ġnarrator": 8745,
    "Ġlaws": 8746,
    "stage": 8747,
    "hetic": 8748,
    "Ġmun": 8749,
    "ĠCompl": 8750,
    "Ġcrowdfunding": 8751,
    "Ġtexts": 8752,
    "ĠEventually": 8753,
    "ĠCell": 8754,
    "Ġliver": 8755,
    "Ġtrends": 8756,
    "ĠMormon": 8757,
    "Ġapartments": 8758,
    "Ġbott": 8759,
    "Ġapologies": 8760,
    "ĠDuterte": 8761,
    "ĠEmmy": 8762,
    "Ġcircus": 8763,
    "Ġstate": 8764,
    "Ġsubstances": 8765,
    "iy": 8766,
    "Right": 8767,
    "idel": 8768,
    "Ġprofiling": 8769,
    "ĠPhillips": 8770,
    "Ġfasting": 8771,
    "Ġ1988": 8772,
    "ĠTroy": 8773,
    "Impro": 8774,
    "resistant": 8775,
    "Ġregion": 8776,
    "ially": 8777,
    "ĠPedro": 8778,
    "Ġrud": 8779,
    "ĠUlt": 8780,
    "Ġresurrect": 8781,
    "Ġmoral": 8782,
    "Â±": 8783,
    "Ġneeding": 8784,
    "Ġmarching": 8785,
    "ĠPTSD": 8786,
    "amping": 8787,
    "Ġ195": 8788,
    "checked": 8789,
    "ĠBless": 8790,
    "Ġcareful": 8791,
    "Ġdollar": 8792,
    "aron": 8793,
    "PS": 8794,
    "itic": 8795,
    "ugar": 8796,
    "Ġmurderous": 8797,
    "Ġpecul": 8798,
    "Ġestablishes": 8799,
    "ĠPrep": 8800,
    "intelligence": 8801,
    "ĠManz": 8802,
    "ĠHale": 8803,
    "Now": 8804,
    "ackers": 8805,
    "Short": 8806,
    "ak": 8807,
    "ĠChapel": 8808,
    "Ġdot": 8809,
    "vari": 8810,
    "ĠStatistics": 8811,
    "ments": 8812,
    "ĠFat": 8813,
    "ession": 8814,
    "Ġunite": 8815,
    "ĠRove": 8816,
    "ĠPublishing": 8817,
    "ĠMormons": 8818,
    "Ġfut": 8819,
    "Ġunsuccessfully": 8820,
    "Ġthing": 8821,
    "useum": 8822,
    "Ġvill": 8823,
    "Ġenthusiasm": 8824,
    "Ġdeclar": 8825,
    "Ġdont": 8826,
    "Ġopponent": 8827,
    "Ġcommunities": 8828,
    "Ġcrystal": 8829,
    "attled": 8830,
    "ibe": 8831,
    "Ġjewelry": 8832,
    "Ġinflation": 8833,
    "isions": 8834,
    "ĠHunger": 8835,
    "walk": 8836,
    "Ġpanel": 8837,
    "Ġsubjects": 8838,
    "far": 8839,
    "ĠFF": 8840,
    "Ġrenting": 8841,
    "Ġathletic": 8842,
    "Ġuphold": 8843,
    "Ġoverwhelmingly": 8844,
    "Ġsuspicion": 8845,
    "Ġreservoir": 8846,
    "Ġvideot": 8847,
    "Econom": 8848,
    "Ġantib": 8849,
    "ÿ": 8850,
    "entry": 8851,
    "Ġthigh": 8852,
    "Ġoffensive": 8853,
    "essors": 8854,
    "Ġ105": 8855,
    "Night": 8856,
    "ĠMile": 8857,
    "Ġhumiliation": 8858,
    "ushima": 8859,
    "Ãł": 8860,
    "Ġthought": 8861,
    "Ġsurrog": 8862,
    "Ġgeopolitical": 8863,
    "Ġelaborate": 8864,
    "bet": 8865,
    "ĠJSON": 8866,
    "ĠKosovo": 8867,
    "Ġunfamiliar": 8868,
    "ĠTaking": 8869,
    "ĠGir": 8870,
    "rafted": 8871,
    "Ġclose": 8872,
    "9": 8873,
    "Ġscheme": 8874,
    "Ġblonde": 8875,
    "Ġeasing": 8876,
    "neys": 8877,
    "Ġwow": 8878,
    "ĠSacramento": 8879,
    "Ġcancelled": 8880,
    "Un": 8881,
    "Ġsurprises": 8882,
    "Ġuncomfort": 8883,
    "Ġbyte": 8884,
    "Ġbiological": 8885,
    "Ġwoo": 8886,
    "ĠSheldon": 8887,
    "Ġattribute": 8888,
    "Ġnominate": 8889,
    "efined": 8890,
    "ĠPag": 8891,
    "ĠÑĤ": 8892,
    "lyn": 8893,
    "ĠCad": 8894,
    "Ġpayment": 8895,
    "berry": 8896,
    "Community": 8897,
    "redible": 8898,
    "Ġnuanced": 8899,
    "Ġmig": 8900,
    "Ġobligations": 8901,
    "caster": 8902,
    "Ġdisclose": 8903,
    "ĠMalt": 8904,
    "Ġpublicly": 8905,
    "Ġcos": 8906,
    "ĠRough": 8907,
    "ĠFan": 8908,
    "Georg": 8909,
    "ĠIP": 8910,
    "Ġmetallic": 8911,
    "worker": 8912,
    "ĠGlenn": 8913,
    "ulty": 8914,
    "Ġdancing": 8915,
    "Ġacquiring": 8916,
    "Ġ//": 8917,
    "aging": 8918,
    "ĠBatman": 8919,
    "Ġrematch": 8920,
    "ttes": 8921,
    "º": 8922,
    "Ġtell": 8923,
    "ĠWS": 8924,
    "Ġimmigrant": 8925,
    "Ġcord": 8926,
    "Ġcorn": 8927,
    "Ġconquer": 8928,
    "ĠSuperintendent": 8929,
    "Ġdisease": 8930,
    "Ġmate": 8931,
    "Ġripping": 8932,
    "ios": 8933,
    "Ġconfigurations": 8934,
    "Ġmetric": 8935,
    "ĠTide": 8936,
    "Ġsuit": 8937,
    "Ġdisappointment": 8938,
    "GW": 8939,
    "ĠTransport": 8940,
    "Ġguarantee": 8941,
    "Ġbegan": 8942,
    "Ã¡s": 8943,
    "Ġmentor": 8944,
    "ĠPrin": 8945,
    "âĸĪâĸĪ": 8946,
    "Ġanticip": 8947,
    "Non": 8948,
    "Ġamusing": 8949,
    "outed": 8950,
    "ĠChristian": 8951,
    "Ġammo": 8952,
    "Ġchasing": 8953,
    "ĠUn": 8954,
    "Ġenzymes": 8955,
    "riched": 8956,
    "ĠMills": 8957,
    "Ġ/": 8958,
    "Ġstru": 8959,
    "ĠâĪĴ": 8960,
    "Ġemb": 8961,
    "ĠCit": 8962,
    "ĠPremier": 8963,
    "ãĤ¹": 8964,
    "UP": 8965,
    "zone": 8966,
    "Ġsince": 8967,
    "ron": 8968,
    "gers": 8969,
    "Gr": 8970,
    "ĠMC": 8971,
    "Ġgases": 8972,
    "Ġprinted": 8973,
    "ĠMiranda": 8974,
    "heastern": 8975,
    "Ġpremier": 8976,
    "Ġnause": 8977,
    "Ġsand": 8978,
    "Ġobtained": 8979,
    "Ġindependents": 8980,
    "ĠLac": 8981,
    "Ġbuttons": 8982,
    "Title": 8983,
    "Ġcriticize": 8984,
    "Ġbombers": 8985,
    "ï¿½": 8986,
    "1995": 8987,
    "Ġsigning": 8988,
    "Import": 8989,
    "Death": 8990,
    "Ġdevil": 8991,
    "ĠRace": 8992,
    "Ġwords": 8993,
    "Ġdesper": 8994,
    "ĠIT": 8995,
    "ĠTibet": 8996,
    "eda": 8997,
    "Ġveterans": 8998,
    "ĠPick": 8999,
    "Ġsurveyed": 9000,
    "48": 9001,
    "Bush": 9002,
    "ĠDec": 9003,
    "ĠBurr": 9004,
    "UN": 9005,
    "Ġusing": 9006,
    "named": 9007,
    "ĠNearly": 9008,
    "Ġconsoles": 9009,
    "Ġcoc": 9010,
    "dden": 9011,
    "ĠBack": 9012,
    "ĠTransfer": 9013,
    "ĠBrotherhood": 9014,
    "ĠTorres": 9015,
    "awks": 9016,
    "References": 9017,
    "aries": 9018,
    "ĠSaudi": 9019,
    "ĠThroughout": 9020,
    "Ġmos": 9021,
    "ĠMiy": 9022,
    "reon": 9023,
    "Ġpneum": 9024,
    "Ġdistinct": 9025,
    "ĠRoom": 9026,
    "Item": 9027,
    "ign": 9028,
    "Ġfeat": 9029,
    "owder": 9030,
    "beh": 9031,
    "Ġtaxp": 9032,
    "udeau": 9033,
    "Ġcod": 9034,
    "Ġblur": 9035,
    "cin": 9036,
    "Ġstiff": 9037,
    "irl": 9038,
    "Ġhabitat": 9039,
    "ĠGreenpeace": 9040,
    "Ġdirectory": 9041,
    "ĠBlu": 9042,
    "healthy": 9043,
    "Ġdict": 9044,
    "Ġindustry": 9045,
    "ĠWhich": 9046,
    "organ": 9047,
    "ĠReplay": 9048,
    "ĠConfederate": 9049,
    "ĠLiv": 9050,
    "Ġloading": 9051,
    "ĠHA": 9052,
    "Ġprotested": 9053,
    "Dr": 9054,
    "rolled": 9055,
    "Ġsequ": 9056,
    "Ġblockade": 9057,
    "ĠSab": 9058,
    "Ġblades": 9059,
    "strike": 9060,
    "Stock": 9061,
    "Ġhy": 9062,
    "Ġcharities": 9063,
    "54": 9064,
    "CNN": 9065,
    "outs": 9066,
    "ube": 9067,
    "Ġpolls": 9068,
    "Ġaspiring": 9069,
    "culus": 9070,
    "Ð²": 9071,
    "image": 9072,
    "ĠFort": 9073,
    "Ġbland": 9074,
    "Ġconcluded": 9075,
    "ĠBerry": 9076,
    "ĠSen": 9077,
    "ĠCru": 9078,
    "Ġ30": 9079,
    "ĠFile": 9080,
    "Ġded": 9081,
    "ĠNag": 9082,
    "nex": 9083,
    "Ġperme": 9084,
    "Ġpe": 9085,
    "ilaterally": 9086,
    "ĠChan": 9087,
    "Ġflying": 9088,
    "Ġfatalities": 9089,
    "ĠTh": 9090,
    "NS": 9091,
    "inance": 9092,
    "Ġglory": 9093,
    "Ġbreath": 9094,
    "ĠHurricane": 9095,
    "Ġdimin": 9096,
    "Ġregulatory": 9097,
    "Ġ:=": 9098,
    "opt": 9099,
    "Ġbeasts": 9100,
    "Ġobs": 9101,
    "Ġdisciplined": 9102,
    "Status": 9103,
    "ãĤ": 9104,
    "Ġpromises": 9105,
    "ĠSurveillance": 9106,
    "Ġther": 9107,
    "Ġdrew": 9108,
    "Los": 9109,
    "poll": 9110,
    "Ġruin": 9111,
    "ĠEnc": 9112,
    "ophers": 9113,
    "ĠNan": 9114,
    "Ġremed": 9115,
    "Ġdeposition": 9116,
    "ĠAlexand": 9117,
    "ĠCitiz": 9118,
    "ĠGraph": 9119,
    "clamation": 9120,
    "ĠMatt": 9121,
    "Ġjournalists": 9122,
    "arious": 9123,
    "oths": 9124,
    "Women": 9125,
    "local": 9126,
    "Ġfan": 9127,
    "ANCE": 9128,
    "Ġquantities": 9129,
    "Ġunethical": 9130,
    "atisf": 9131,
    "Ġtennis": 9132,
    "YD": 9133,
    "ĠEdge": 9134,
    "verning": 9135,
    "iously": 9136,
    "Ġcommits": 9137,
    "lder": 9138,
    "itary": 9139,
    "lickr": 9140,
    "Ġonline": 9141,
    "ĠMat": 9142,
    "ĠMurder": 9143,
    "ĠiOS": 9144,
    "acceptable": 9145,
    "ĠAdditionally": 9146,
    "URE": 9147,
    "odi": 9148,
    "GRE": 9149,
    "chy": 9150,
    "Ġequation": 9151,
    "ĠAssault": 9152,
    "Ġadvocacy": 9153,
    "Å": 9154,
    "Ġsophisticated": 9155,
    "ĠFarage": 9156,
    "Ġbar": 9157,
    "lin": 9158,
    "sch": 9159,
    "ĠSundays": 9160,
    "ĠAy": 9161,
    "Ġmarketed": 9162,
    "Ġministers": 9163,
    "ĠRw": 9164,
    "ada": 9165,
    "Ġfart": 9166,
    "Ġbrib": 9167,
    "ĠPalm": 9168,
    "ĠYe": 9169,
    "ibility": 9170,
    "Down": 9171,
    "worth": 9172,
    "ĠBass": 9173,
    "berg": 9174,
    "ĠHat": 9175,
    "area": 9176,
    "Des": 9177,
    "again": 9178,
    "oting": 9179,
    "ouses": 9180,
    "ras": 9181,
    "link": 9182,
    "Ġimpressive": 9183,
    "miss": 9184,
    "Cloud": 9185,
    "ĠDerby": 9186,
    "Ġselect": 9187,
    "icide": 9188,
    "Phot": 9189,
    "Ġmomentum": 9190,
    "ĠIPA": 9191,
    "GF": 9192,
    "ĠJude": 9193,
    "Ġquint": 9194,
    "Ġlighter": 9195,
    "Ġshaft": 9196,
    "iliated": 9197,
    "ayed": 9198,
    "Ġsounded": 9199,
    "ĠSHA": 9200,
    "Monday": 9201,
    "Ġadvanced": 9202,
    "ĠAlfred": 9203,
    "escope": 9204,
    "cean": 9205,
    "Ġweapon": 9206,
    "cent": 9207,
    "Ġorigins": 9208,
    "Ġassertions": 9209,
    "Very": 9210,
    "ĠBrendan": 9211,
    "quart": 9212,
    "abe": 9213,
    "ourt": 9214,
    "rators": 9215,
    "Ġsworn": 9216,
    "Ġfluid": 9217,
    "Ġconsiderable": 9218,
    "Ġhurdles": 9219,
    "Ġsteadfast": 9220,
    "NN": 9221,
    "Ġprofess": 9222,
    "Researchers": 9223,
    "ĠState": 9224,
    "ĠPerkins": 9225,
    "ĠBalk": 9226,
    "Ŀ": 9227,
    "Ġears": 9228,
    "Ġextremists": 9229,
    "Den": 9230,
    "134": 9231,
    "stead": 9232,
    "Ġschizophren": 9233,
    "ĠAppro": 9234,
    "urai": 9235,
    "Pierre": 9236,
    "Ġsmoothly": 9237,
    "Ġdrivers": 9238,
    "ĠShaun": 9239,
    "letcher": 9240,
    "ĠZh": 9241,
    "Using": 9242,
    "Ġmonks": 9243,
    "Ġbal": 9244,
    "Ġactive": 9245,
    "ima": 9246,
    "Ġelimin": 9247,
    "ĠBrit": 9248,
    "check": 9249,
    "aling": 9250,
    "umbling": 9251,
    "ocene": 9252,
    "Ġbrewers": 9253,
    "ive": 9254,
    "Ġmystical": 9255,
    "Ġstaggering": 9256,
    "Ġnutrition": 9257,
    "response": 9258,
    "Ġboiling": 9259,
    "etic": 9260,
    "ĠDisplay": 9261,
    "Ġethn": 9262,
    "Sch": 9263,
    "Ġok": 9264,
    "nings": 9265,
    "ĠYugoslav": 9266,
    "Ġaccord": 9267,
    "Ġcrews": 9268,
    "su": 9269,
    "pub": 9270,
    "ulture": 9271,
    "Ġyourselves": 9272,
    "240": 9273,
    "ĠCumm": 9274,
    "Ġsystematically": 9275,
    "ĠMany": 9276,
    "ization": 9277,
    "Ġintimidate": 9278,
    "ĠWall": 9279,
    "Ġimprisoned": 9280,
    "ß": 9281,
    "Ġthus": 9282,
    "Ġlegends": 9283,
    "ahar": 9284,
    "aval": 9285,
    "Ġsurreal": 9286,
    "ĠJew": 9287,
    "Ġven": 9288,
    "Ġlifes": 9289,
    "Ġsign": 9290,
    "una": 9291,
    "ĠSoviets": 9292,
    "azor": 9293,
    "ĠOfficial": 9294,
    "mot": 9295,
    "Ġgenerosity": 9296,
    "ither": 9297,
    "achel": 9298,
    "Ġappro": 9299,
    "quarter": 9300,
    "ĠButton": 9301,
    "ĠMast": 9302,
    "Ġsplits": 9303,
    "Ġredu": 9304,
    "Ġpassed": 9305,
    "Ġbattle": 9306,
    "TA": 9307,
    "Ġmonitors": 9308,
    "Ġcotton": 9309,
    "Ġhatred": 9310,
    "Ġpetro": 9311,
    "Ġspouse": 9312,
    "Ġscreenshots": 9313,
    "key": 9314,
    "Ġseemed": 9315,
    "ĠPub": 9316,
    "avy": 9317,
    "lund": 9318,
    "begin": 9319,
    "Ġstretched": 9320,
    "Ġ×": 9321,
    "Ġcomparing": 9322,
    "Ġdocumenting": 9323,
    "charging": 9324,
    "Ġstemming": 9325,
    "Ġsword": 9326,
    "ONG": 9327,
    "Ġsketches": 9328,
    "Season": 9329,
    "ĠSims": 9330,
    "ĠWiki": 9331,
    "Ġlacking": 9332,
    "ERT": 9333,
    "Ġpressing": 9334,
    "Ġregular": 9335,
    "enburg": 9336,
    "ĠGerald": 9337,
    "umn": 9338,
    "ĠMari": 9339,
    "ĠLocal": 9340,
    "elong": 9341,
    "Ġscary": 9342,
    "yet": 9343,
    "Ġtil": 9344,
    ":": 9345,
    "ĠLab": 9346,
    "ĠMedal": 9347,
    "Ġgig": 9348,
    "Ġconfront": 9349,
    "Ġemerges": 9350,
    "Ġgood": 9351,
    "Ġfreeing": 9352,
    "ĠFactory": 9353,
    "ĠCall": 9354,
    "Ġvirt": 9355,
    "Ġcelebr": 9356,
    "ĠPrison": 9357,
    "Ġfavoured": 9358,
    "Ġministry": 9359,
    "Ġsidewalk": 9360,
    "Cover": 9361,
    "Ġorn": 9362,
    "Ġprevailed": 9363,
    "Ġslides": 9364,
    "ĠSEO": 9365,
    "umbered": 9366,
    "Ġpixels": 9367,
    "ĠZhang": 9368,
    "ĠBucks": 9369,
    "ĠHerald": 9370,
    "eding": 9371,
    "Ġglor": 9372,
    "Foot": 9373,
    "ĠAustrian": 9374,
    "Better": 9375,
    "EC": 9376,
    "Bel": 9377,
    "otally": 9378,
    "Ġcomedy": 9379,
    "Ġangel": 9380,
    "Pict": 9381,
    "Ġinstructor": 9382,
    "belief": 9383,
    "['": 9384,
    "ota": 9385,
    "Ġreconc": 9386,
    "ĠLopez": 9387,
    "ĠAtlantic": 9388,
    "ĠDarwin": 9389,
    "Ġexplo": 9390,
    "Ġuniform": 9391,
    "Ġsuggesting": 9392,
    "Ġgoodbye": 9393,
    "ĠGreenland": 9394,
    "ger": 9395,
    "ĠMouse": 9396,
    "mult": 9397,
    "Ġopinion": 9398,
    "Ġit": 9399,
    "Ġtheft": 9400,
    "Ġtag": 9401,
    "ĠIRS": 9402,
    "Ġinstru": 9403,
    "table": 9404,
    "jud": 9405,
    "Ġgame": 9406,
    "Ġmitochond": 9407,
    "Ġperks": 9408,
    "yssey": 9409,
    "ĠDil": 9410,
    "Michael": 9411,
    "Ġdeparted": 9412,
    "Ġprotesting": 9413,
    "colored": 9414,
    "Ġbeautifully": 9415,
    "Ġpolar": 9416,
    "Ġlobby": 9417,
    "2006": 9418,
    "ĠÐ¿": 9419,
    "ined": 9420,
    "ĠAngel": 9421,
    "Ġstruggling": 9422,
    "Ġpist": 9423,
    "ĠBrook": 9424,
    "Ġcolon": 9425,
    "Ġpacked": 9426,
    "ĠThor": 9427,
    "field": 9428,
    "Ġmalicious": 9429,
    "frame": 9430,
    "Kit": 9431,
    "Ġincor": 9432,
    "oki": 9433,
    "Ġlaw": 9434,
    "Ġprominence": 9435,
    "Ġhamm": 9436,
    "Ġbusinessmen": 9437,
    "ĠRice": 9438,
    "Ġkernel": 9439,
    "ĠBle": 9440,
    "ĠCensus": 9441,
    "Ġemploys": 9442,
    "proclaimed": 9443,
    "Ġsitting": 9444,
    "Ġwishing": 9445,
    ",,": 9446,
    "Ġwax": 9447,
    "ĠAgriculture": 9448,
    "Finally": 9449,
    "Ġindependently": 9450,
    "Ġoverthrow": 9451,
    "Ġfit": 9452,
    "Ġspotlight": 9453,
    "Ġaust": 9454,
    "depth": 9455,
    "achine": 9456,
    "Rad": 9457,
    "Ġsliding": 9458,
    "ield": 9459,
    "Ġdestiny": 9460,
    "Ġcir": 9461,
    "Ġinjured": 9462,
    "DI": 9463,
    "bell": 9464,
    "emetery": 9465,
    "jav": 9466,
    "yre": 9467,
    "ĠAdam": 9468,
    "Ġproc": 9469,
    "Ġbroad": 9470,
    "Ġfourth": 9471,
    "ĠCoffee": 9472,
    "Ġfare": 9473,
    "Ġbuildings": 9474,
    "Ġ``": 9475,
    "Ġattendant": 9476,
    "Ġmerc": 9477,
    "Ġprogramming": 9478,
    "Ġcommissioner": 9479,
    "Man": 9480,
    "ST": 9481,
    "ĠLewis": 9482,
    "ĠDuffy": 9483,
    "icago": 9484,
    "Ġpic": 9485,
    "Ġmagnitude": 9486,
    "aven": 9487,
    "orial": 9488,
    "Ġtoilets": 9489,
    "umbles": 9490,
    "Ġtolerant": 9491,
    "Ġarea": 9492,
    "Ġsucceeded": 9493,
    "ĠRepublic": 9494,
    "Ġtrial": 9495,
    "Ġfem": 9496,
    "Ġpret": 9497,
    "Ġregulate": 9498,
    "Ġplagued": 9499,
    "Ġroutes": 9500,
    "ĠGames": 9501,
    "Ġlectures": 9502,
    "inary": 9503,
    "ĠShar": 9504,
    "Ġsuperhero": 9505,
    "Ġfret": 9506,
    "Ġcrystall": 9507,
    "ailed": 9508,
    "ĠSebast": 9509,
    "aught": 9510,
    "Ġnom": 9511,
    "Ġintuitive": 9512,
    "44": 9513,
    "Ġinmates": 9514,
    "Ġallowing": 9515,
    "Ġmeltdown": 9516,
    "Ġpossibility": 9517,
    "Ġwhim": 9518,
    "Ġforfeiture": 9519,
    "Ġrequests": 9520,
    "ATT": 9521,
    "ĠClean": 9522,
    "Ġtom": 9523,
    "ĠCharles": 9524,
    "Ġnoticing": 9525,
    "ĠLoss": 9526,
    "ĠIndonesian": 9527,
    "img": 9528,
    "Ġage": 9529,
    "ĠOversight": 9530,
    "Ġsiblings": 9531,
    "raine": 9532,
    "Energy": 9533,
    "Students": 9534,
    "Ġfries": 9535,
    "ĠBaron": 9536,
    "elsius": 9537,
    "Ġimplementing": 9538,
    "Ġpromised": 9539,
    "Ġscor": 9540,
    "ĠDaesh": 9541,
    "ĠDiscovery": 9542,
    "ĠBright": 9543,
    "ĠNX": 9544,
    "Ġgren": 9545,
    "ĠLal": 9546,
    "ĠMarsh": 9547,
    "Ġunex": 9548,
    "Ġblank": 9549,
    "ĠInterest": 9550,
    "ĠFlint": 9551,
    "Ġmechanical": 9552,
    "Ġconclus": 9553,
    "UT": 9554,
    "Media": 9555,
    "activity": 9556,
    "Ġeuros": 9557,
    "ousing": 9558,
    "ĠEuropeans": 9559,
    "Cru": 9560,
    "Ġinsecurity": 9561,
    "Ġpush": 9562,
    "ĠCain": 9563,
    "Ġranks": 9564,
    "Ġcharac": 9565,
    "Ġconstruct": 9566,
    "Ġmassac": 9567,
    "may": 9568,
    "Ġdid": 9569,
    "ãĥ¼": 9570,
    "ĠDen": 9571,
    "kara": 9572,
    "ĠRon": 9573,
    "ĠRunner": 9574,
    "sim": 9575,
    "ried": 9576,
    "ĠSeoul": 9577,
    "ĠBeach": 9578,
    "heads": 9579,
    "Ġsmoke": 9580,
    "ĠGrant": 9581,
    "Ġinert": 9582,
    "Ġanalyzing": 9583,
    "ĠEastern": 9584,
    "Ġforged": 9585,
    "UR": 9586,
    "Ġwinner": 9587,
    "Ġfrequency": 9588,
    "Ġreporters": 9589,
    "geant": 9590,
    "ĠLuxem": 9591,
    "Ġduplicate": 9592,
    "iking": 9593,
    "hered": 9594,
    "Ġdisappro": 9595,
    "ĠPentagon": 9596,
    "Ġbackup": 9597,
    "certain": 9598,
    "ĠHip": 9599,
    "Ġsur": 9600,
    "ĠCircuit": 9601,
    "Ġ2013": 9602,
    "Ġcollaborators": 9603,
    "enson": 9604,
    "Ġwhy": 9605,
    "uan": 9606,
    "People": 9607,
    "Sar": 9608,
    "Ġold": 9609,
    "not": 9610,
    "SB": 9611,
    "ĠJones": 9612,
    "Ġdiet": 9613,
    "Ġleading": 9614,
    "Hot": 9615,
    "Ġunpredict": 9616,
    "Hand": 9617,
    "ĠNH": 9618,
    "ubs": 9619,
    "ĠPlant": 9620,
    "axies": 9621,
    "Ġjob": 9622,
    "Ġbasket": 9623,
    "ĠTonight": 9624,
    "grade": 9625,
    "ĠPCI": 9626,
    "Ġinfrastructure": 9627,
    "ĠBrigade": 9628,
    "ĠDeep": 9629,
    "Ġacknowledging": 9630,
    "ARS": 9631,
    "Ġapproach": 9632,
    "iop": 9633,
    "ĠGiants": 9634,
    "cosystem": 9635,
    ")/": 9636,
    "Ġresolve": 9637,
    "dropping": 9638,
    "ocalypse": 9639,
    "gay": 9640,
    "Ġresumed": 9641,
    "hips": 9642,
    "Ġluc": 9643,
    "leen": 9644,
    "Ġsomehow": 9645,
    "landers": 9646,
    "Ġinstructed": 9647,
    "ĠRules": 9648,
    "ĠKaw": 9649,
    "Ġprotest": 9650,
    "Ġmurd": 9651,
    "leveland": 9652,
    "bour": 9653,
    "ĠBaptist": 9654,
    "ĠJews": 9655,
    "sto": 9656,
    "**": 9657,
    "ĠSimp": 9658,
    "ĠQueens": 9659,
    "ĠLisa": 9660,
    "Ġguards": 9661,
    "ĠChavez": 9662,
    "hower": 9663,
    "Ġrental": 9664,
    "Ġgen": 9665,
    "ĠChron": 9666,
    "Ġlung": 9667,
    "Ġpackaging": 9668,
    "Ġrewrite": 9669,
    "Ġmask": 9670,
    "Ġgovernance": 9671,
    "uary": 9672,
    "seller": 9673,
    "Equ": 9674,
    "Ġgrabbed": 9675,
    "Ġdiscrepancy": 9676,
    "ih": 9677,
    "Ġcourageous": 9678,
    "Ġproducts": 9679,
    "Ġbrewing": 9680,
    "Ġarguably": 9681,
    "ĠCenters": 9682,
    "ĠBuy": 9683,
    "vote": 9684,
    "Ġrunner": 9685,
    "Ġduties": 9686,
    "Ġbaked": 9687,
    "ĠEL": 9688,
    "Images": 9689,
    "Ġmock": 9690,
    "cription": 9691,
    ":\\": 9692,
    "Ġaccept": 9693,
    "pound": 9694,
    "Ġpledges": 9695,
    "ĠZionist": 9696,
    "Ġtort": 9697,
    "DD": 9698,
    "ĠBelg": 9699,
    "û": 9700,
    "Ġhired": 9701,
    "ĠDru": 9702,
    "stad": 9703,
    "ĠVictory": 9704,
    "ĠOpen": 9705,
    "Facebook": 9706,
    "ancouver": 9707,
    "Ġevacuated": 9708,
    "Ġaccumulated": 9709,
    "osion": 9710,
    "bnb": 9711,
    "aving": 9712,
    "Ġcomplementary": 9713,
    "Ġtrustworthy": 9714,
    "Ġexpired": 9715,
    "ĠCopenhagen": 9716,
    "ĠMoment": 9717,
    "Ġreasoning": 9718,
    "Ġ2006": 9719,
    "akable": 9720,
    "Ġworks": 9721,
    "wn": 9722,
    "Ġrenewable": 9723,
    "Ġmember": 9724,
    "ĠCry": 9725,
    "Ġundermines": 9726,
    "Ġfru": 9727,
    "Ġsummed": 9728,
    "ogy": 9729,
    "ĠTrip": 9730,
    "Ġcommanded": 9731,
    "Ġchief": 9732,
    "Ġprovider": 9733,
    "Ġshield": 9734,
    "Ġamnesty": 9735,
    "Ġsubsidies": 9736,
    "Ġvicinity": 9737,
    "ĠCreation": 9738,
    "Ġcourtesy": 9739,
    "visors": 9740,
    "ĠGill": 9741,
    "ski": 9742,
    "etz": 9743,
    "==": 9744,
    "Ġdevelop": 9745,
    "Ġfacility": 9746,
    "ĠBeir": 9747,
    "Ġshorts": 9748,
    "ĠSylv": 9749,
    "Ġliterature": 9750,
    "belie": 9751,
    "Ġtracker": 9752,
    "12": 9753,
    "Ġstrengthening": 9754,
    "ĠPolice": 9755,
    "arre": 9756,
    "letter": 9757,
    "Ġdots": 9758,
    "erness": 9759,
    "irtual": 9760,
    "Ġhome": 9761,
    "Ġpresenting": 9762,
    "ivil": 9763,
    "Ġpredictive": 9764,
    "ĠDebor": 9765,
    "gregation": 9766,
    "station": 9767,
    "fill": 9768,
    "ĠDarkness": 9769,
    "ĠCy": 9770,
    "ĠLegion": 9771,
    "apest": 9772,
    "Ġundertaking": 9773,
    "\"": 9774,
    "lett": 9775,
    "ĠSans": 9776,
    "ĠZ": 9777,
    "Ġsatisfaction": 9778,
    "cier": 9779,
    "static": 9780,
    "Ġray": 9781,
    "ĠDistrict": 9782,
    "Ġwhis": 9783,
    "gently": 9784,
    "Ġvalues": 9785,
    "owner": 9786,
    "Ġadvantages": 9787,
    "ĠCut": 9788,
    "Ġarter": 9789,
    "rect": 9790,
    "unk": 9791,
    "Ġheavy": 9792,
    "Ġproceed": 9793,
    "Ġgranting": 9794,
    "ĠAndrews": 9795,
    "isher": 9796,
    "Ġdirect": 9797,
    "Ġurine": 9798,
    "ĠFergus": 9799,
    "ption": 9800,
    "ĠAngels": 9801,
    "Ġsummer": 9802,
    "ĠSr": 9803,
    "over": 9804,
    "oux": 9805,
    "Ġbased": 9806,
    "Ġreferring": 9807,
    "Ġpassive": 9808,
    "ificant": 9809,
    "Ġgratitude": 9810,
    "ricks": 9811,
    "UPDATE": 9812,
    "ade": 9813,
    "Ġward": 9814,
    "File": 9815,
    "Ġpace": 9816,
    "ÄŁan": 9817,
    "Ġ:": 9818,
    "Ġlanguages": 9819,
    "bernatorial": 9820,
    "Ġmasses": 9821,
    "Ġlineage": 9822,
    "Ġarson": 9823,
    "¶": 9824,
    "Ġwiret": 9825,
    "Ġpremises": 9826,
    "Keep": 9827,
    "Ġlegalized": 9828,
    "Ġsilently": 9829,
    "zi": 9830,
    "Ġmother": 9831,
    "Ġaged": 9832,
    "Week": 9833,
    "Ġcontexts": 9834,
    "move": 9835,
    "ribed": 9836,
    "ĠWard": 9837,
    "Ġtoes": 9838,
    "Ġfuck": 9839,
    "Ġfood": 9840,
    "target": 9841,
    "edia": 9842,
    "Ġexpressions": 9843,
    "aunted": 9844,
    "Ġanimations": 9845,
    "Ġ114": 9846,
    "Ġseating": 9847,
    "Ġweekday": 9848,
    "Ġallegiance": 9849,
    "Ġ[...]": 9850,
    "phone": 9851,
    "ĠQueensland": 9852,
    "Ġsensation": 9853,
    "Ġhunger": 9854,
    "Ġdiscussing": 9855,
    "Ġboys": 9856,
    "Ġsubstantial": 9857,
    "ĠEuropa": 9858,
    "asons": 9859,
    "ctions": 9860,
    "ĠGenerally": 9861,
    "paralle": 9862,
    "yd": 9863,
    "ĠObject": 9864,
    "Ġupstairs": 9865,
    "aston": 9866,
    "ffield": 9867,
    "Ġentr": 9868,
    "room": 9869,
    "jury": 9870,
    "Ġmatching": 9871,
    "Ġalpha": 9872,
    "Ġleftist": 9873,
    "Ġseat": 9874,
[...]
