{
    "ĠBerger": 0,
    "oting": 1,
    "ĠMom": 2,
    "Ġuniversity": 3,
    "femin": 4,
    "Ġcrude": 5,
    "Ġrevenue": 6,
    "Ġarises": 7,
    "Ġchess": 8,
    "IND": 9,
    "Ġshaken": 10,
    "sis": 11,
    "bley": 12,
    "ĠHed": 13,
    "Ġorg": 14,
    "arest": 15,
    "ĠHarb": 16,
    "ĠScottish": 17,
    "Ġcapitalize": 18,
    "ĠB": 19,
    "Ġrepeatedly": 20,
    "ĠPhillips": 21,
    "Ġsmiles": 22,
    "Ġunlawful": 23,
    "brain": 24,
    "Ġleaning": 25,
    "Ġludicrous": 26,
    "Ġbrings": 27,
    "Ġbail": 28,
    "Ġpunching": 29,
    "plates": 30,
    "Ġdisple": 31,
    "Ġissu": 32,
    "Ġimply": 33,
    "Ġplanted": 34,
    "JS": 35,
    "Ġpage": 36,
    "new": 37,
    "language": 38,
    "line": 39,
    "ĠBay": 40,
    "urchase": 41,
    "Ġstorm": 42,
    "Ġoffline": 43,
    "Ġgrenade": 44,
    "fun": 45,
    "hydro": 46,
    "Ġbirds": 47,
    "ĠDis": 48,
    "Ad": 49,
    "Ġast": 50,
    "rite": 51,
    "ashtra": 52,
    "Ġdock": 53,
    "Ġtolerate": 54,
    "iversary": 55,
    "Ġstrugg": 56,
    "ĠPit": 57,
    "ĠPh": 58,
    "Ġbeneficiaries": 59,
    "Ġwindow": 60,
    "Ġfost": 61,
    "ĠTamil": 62,
    "tarian": 63,
    "Ġwiret": 64,
    "hand": 65,
    "Ġchairs": 66,
    "Ġprejudice": 67,
    "I": 68,
    "ĠSchedule": 69,
    "ground": 70,
    "Ġaccounted": 71,
    "orable": 72,
    "song": 73,
    "unique": 74,
    "Ġtariff": 75,
    "ĠRecords": 76,
    "Ġemergency": 77,
    "ĠWid": 78,
    "ĠBlackhawks": 79,
    "Ġhapp": 80,
    "ĠSuz": 81,
    "ĠHalf": 82,
    "Ġprodu": 83,
    "ĠJag": 84,
    "Ġprompted": 85,
    "Ġspite": 86,
    "ĠDame": 87,
    "ĠWendy": 88,
    "Ġlesson": 89,
    "Ġlit": 90,
    "Ġcalcium": 91,
    "ĠBea": 92,
    "Ġbeing": 93,
    "Ġturt": 94,
    "oured": 95,
    "Ġshoes": 96,
    "Ġ1913": 97,
    "Bas": 98,
    "available": 99,
    "speaking": 100,
    "Space": 101,
    "Ġmissing": 102,
    "Ġitem": 103,
    "ĠChand": 104,
    "Ġnic": 105,
    "ĠJed": 106,
    "scrib": 107,
    "Ġdeclining": 108,
    "ĠIvan": 109,
    "Ġlion": 110,
    "Ġriff": 111,
    "ously": 112,
    "Ġreun": 113,
    "Ġvacc": 114,
    "Ġlore": 115,
    "Ġtoddler": 116,
    "Ġexpanded": 117,
    "ĠMunicipal": 118,
    "vous": 119,
    "Ġstarting": 120,
    "acco": 121,
    "ä»": 122,
    "ĠTrin": 123,
    "Ġswing": 124,
    "Ġstripes": 125,
    "cent": 126,
    "ĠCage": 127,
    "???": 128,
    "Ġcraft": 129,
    "Ġremake": 130,
    "omination": 131,
    "Ġlocally": 132,
    "Ġbearing": 133,
    "ĠPlayStation": 134,
    "Ġweaknesses": 135,
    "Ġthief": 136,
    "ĠâĪĴ": 137,
    "Ġduring": 138,
    "Ġdestabil": 139,
    "Ġmindfulness": 140,
    "Ġultimate": 141,
    "Ġguard": 142,
    "ĠBlood": 143,
    "Ġreverse": 144,
    "ellow": 145,
    "Gun": 146,
    "ĠBright": 147,
    "ĠSociety": 148,
    "CI": 149,
    "activity": 150,
    "Ġdaughter": 151,
    "endment": 152,
    "Ġsurprising": 153,
    "Ġcollusion": 154,
    "Ġfriendship": 155,
    "ĠWarm": 156,
    "rition": 157,
    "Ġtransfers": 158,
    "ĠPerth": 159,
    "ARA": 160,
    "ĠGoal": 161,
    "ĠCav": 162,
    "ĠSpeed": 163,
    "adian": 164,
    "Ġcaring": 165,
    "Ġimplicitly": 166,
    "ĠMiz": 167,
    "shop": 168,
    "ward": 169,
    "ĠGTX": 170,
    "Ġarrogant": 171,
    "ĠSweden": 172,
    "Ġguardian": 173,
    "ĠGallery": 174,
    "Ġterrestrial": 175,
    "Ġsecond": 176,
    "Ġpressed": 177,
    "ardo": 178,
    "achel": 179,
    "Ġ)": 180,
    "Ġsm": 181,
    "ĠMcD": 182,
    "Ġwarr": 183,
    "c": 184,
    "Ġlaws": 185,
    "escope": 186,
    "ĠThrow": 187,
    "urious": 188,
    "Ġhugely": 189,
    "Ġwhen": 190,
    "Ġstream": 191,
    "ottesville": 192,
    "mt": 193,
    "Ġplayer": 194,
    "ially": 195,
    "ĠHist": 196,
    "Ġonline": 197,
    "Ġhits": 198,
    "Ġremed": 199,
    "Ġkiller": 200,
    "Ess": 201,
    "eremy": 202,
    "quality": 203,
    "ĠArthur": 204,
    "Ġbid": 205,
    "een": 206,
    "Ġmortal": 207,
    "ĠPe": 208,
    "Ġawake": 209,
    "Ġrecipes": 210,
    "ervative": 211,
    "ĠKong": 212,
    "Ġdessert": 213,
    "Ġsupremacist": 214,
    "Ġseparating": 215,
    "Ġmating": 216,
    "ĠL": 217,
    "ĠBeng": 218,
    "cedes": 219,
    "Ġorb": 220,
    "Ġsatell": 221,
    "Í": 222,
    "ĠSo": 223,
    "Ġremove": 224,
    "leys": 225,
    "ruction": 226,
    "Ġadaptive": 227,
    "Ġlacks": 228,
    "ĠMel": 229,
    "Ġautistic": 230,
    "Ġcooperating": 231,
    "Ġendorsing": 232,
    "ĠElections": 233,
    "urning": 234,
    "hots": 235,
    "lings": 236,
    "boot": 237,
    "Ġprevalence": 238,
    "race": 239,
    "Ġ5000": 240,
    "ĠProsecutor": 241,
    "ĠVIII": 242,
    "chan": 243,
    "Ġpestic": 244,
    "Ġliberated": 245,
    "Ġext": 246,
    "Ġflurry": 247,
    "æ": 248,
    "ĠExtreme": 249,
    "ĠThread": 250,
    "Ġinjured": 251,
    "Ġstem": 252,
    "Ġms": 253,
    "ĠWolver": 254,
    "iber": 255,
    "Ġeighteen": 256,
    "Ġembassy": 257,
    "Ġundert": 258,
    "ĠLion": 259,
    "ĠNatalie": 260,
    "Ġtattoos": 261,
    "Sanders": 262,
    "ĠSmash": 263,
    "Ġpeers": 264,
    "Ġpicked": 265,
    "ĠKim": 266,
    "Ġgrants": 267,
    "Scroll": 268,
    "Ġgovernor": 269,
    "ottest": 270,
    "Į": 271,
    "Ġbody": 272,
    "secut": 273,
    "Ġprofitable": 274,
    "Prime": 275,
    "ĠKun": 276,
    "isers": 277,
    "Ġsup": 278,
    "opus": 279,
    "aph": 280,
    "Ġlithium": 281,
    "Ġlaying": 282,
    "ored": 283,
    "Ġrifle": 284,
    "olution": 285,
    "Ġwireless": 286,
    "ĠJulia": 287,
    "argo": 288,
    "ĠAJ": 289,
    "Ġstark": 290,
    "ĠLuck": 291,
    "Ġslope": 292,
    "Ġaver": 293,
    "Ġmir": 294,
    "ographers": 295,
    "Line": 296,
    "Ġloves": 297,
    "Ġafterwards": 298,
    "established": 299,
    "Ġsug": 300,
    "odo": 301,
    "init": 302,
    "Ġintoler": 303,
    "iggle": 304,
    "Ġsteak": 305,
    "athon": 306,
    "Ġpills": 307,
    "Ġcapac": 308,
    "Ġadvisors": 309,
    "Ġcoer": 310,
    "Ġvillains": 311,
    "Ġliked": 312,
    "Ġby": 313,
    "ó": 314,
    "Ġrepr": 315,
    "ĠBP": 316,
    "sound": 317,
    "Ġs": 318,
    "Ġparse": 319,
    "ung": 320,
    "ĠNolan": 321,
    "Ġalways": 322,
    "Sh": 323,
    "ĠNAS": 324,
    "ĠLow": 325,
    "ĠChampion": 326,
    "Cy": 327,
    "anced": 328,
    "Ġtom": 329,
    "Ġcomeback": 330,
    "rehensible": 331,
    "Ġregardless": 332,
    "kee": 333,
    "Ġtrace": 334,
    "ĠRoute": 335,
    "onest": 336,
    "Ġvoyage": 337,
    "ĠBiology": 338,
    "ĠBrunswick": 339,
    "rance": 340,
    "icial": 341,
    "ĠFirst": 342,
    "Ġincorrect": 343,
    "Ġdu": 344,
    "Ġhous": 345,
    "Ġprotects": 346,
    "ĠLamb": 347,
    "Na": 348,
    "Ġspouse": 349,
    "Ġoutward": 350,
    "ĠKurd": 351,
    "ĠPin": 352,
    "Ġefficiency": 353,
    "Ġads": 354,
    "hu": 355,
    ".âĢĻ": 356,
    "Ġinitially": 357,
    "Ġdisturb": 358,
    "actively": 359,
    "à¤": 360,
    "ĠFinnish": 361,
    "Ġdiscussion": 362,
    "Ġbids": 363,
    "Ġtighten": 364,
    "Ġrequest": 365,
    "ĠPharm": 366,
    "yn": 367,
    "ĠPrevious": 368,
    "Ġtransparency": 369,
    "apore": 370,
    "Ġmistakes": 371,
    "ĠEqu": 372,
    "Ġmanual": 373,
    "Ġautop": 374,
    "ads": 375,
    "Ġboast": 376,
    "Ar": 377,
    "ĠMur": 378,
    "Ġaccidentally": 379,
    "ĠJS": 380,
    "ue": 381,
    "Ġrise": 382,
    "forming": 383,
    "Ġdict": 384,
    "Ġlb": 385,
    "ĠDatabase": 386,
    "Ġfrank": 387,
    "Brexit": 388,
    "ADA": 389,
    "Ġsexism": 390,
    "voc": 391,
    "Ġpert": 392,
    "Ã¯": 393,
    "Ġwit": 394,
    "Ġincorpor": 395,
    "ann": 396,
    "Const": 397,
    "anges": 398,
    "Ġjog": 399,
    "gr": 400,
    "ĠCommission": 401,
    "Ġfiction": 402,
    "Ġtortured": 403,
    "Ġhumiliation": 404,
    "Import": 405,
    "Ġredd": 406,
    "Ġdiscriminatory": 407,
    "significant": 408,
    "etary": 409,
    "!": 410,
    "ĠSchultz": 411,
    "ê": 412,
    "Ġ550": 413,
    "ĠUSSR": 414,
    "Ġhypotheses": 415,
    "Ġfading": 416,
    "62": 417,
    "ĠModi": 418,
    "ĠJa": 419,
    "Ġtoxic": 420,
    "Ġreconcile": 421,
    "ĠAppalach": 422,
    "Ġprohibits": 423,
    "handed": 424,
    "Ġbunk": 425,
    "Police": 426,
    "oc": 427,
    "Marcus": 428,
    "ĠRNC": 429,
    "Ġinitiate": 430,
    "Canada": 431,
    "Ġtheatrical": 432,
    "ĠMC": 433,
    "Ġclouds": 434,
    "Ġlump": 435,
    "Ġta": 436,
    "EG": 437,
    "Ġwitness": 438,
    "Ġchased": 439,
    "Ġcompute": 440,
    "Obviously": 441,
    "Ġrelax": 442,
    "ĠMir": 443,
    "Ġpand": 444,
    "Ġintercepted": 445,
    "ĠGO": 446,
    "Ġdried": 447,
    "onde": 448,
    "ĠCOP": 449,
    ",\"": 450,
    "ips": 451,
    "eneration": 452,
    "ods": 453,
    "ĠLar": 454,
    "ĠPupp": 455,
    "issue": 456,
    "Ġinstit": 457,
    "Ġimagining": 458,
    "ian": 459,
    "ĠChild": 460,
    "oma": 461,
    "rowing": 462,
    "OH": 463,
    "Ġtax": 464,
    "arendra": 465,
    "hod": 466,
    "ĠRad": 467,
    "ĠBuffett": 468,
    "ĠVilla": 469,
    "Ġpars": 470,
    "cas": 471,
    "Ġshook": 472,
    "ĠAlbum": 473,
    "ĠGos": 474,
    "opes": 475,
    "Ġmake": 476,
    "ĠCS": 477,
    "Ġsimilarly": 478,
    "Ġtrim": 479,
    "Ą": 480,
    "Ġpatience": 481,
    "lay": 482,
    "Ġbodies": 483,
    "Ġlaughter": 484,
    "Ġthereby": 485,
    "step": 486,
    "op": 487,
    "Ġland": 488,
    "Ġthemselves": 489,
    "Left": 490,
    "Ġmigrants": 491,
    "ĠGeForce": 492,
    "ificial": 493,
    "ĠCros": 494,
    "Ġretrospect": 495,
    "Ġdeceased": 496,
    "ĠLaunch": 497,
    "Guard": 498,
    "in": 499,
    "Ġencountered": 500,
    "ĠQual": 501,
    "Ġsmall": 502,
    "ĠThem": 503,
    "Ġcustoms": 504,
    "ĠSudan": 505,
    "Ġdevelopments": 506,
    "Ġshrugged": 507,
    "Ġredistributed": 508,
    "oud": 509,
    "BP": 510,
    "Captain": 511,
    "anies": 512,
    "~": 513,
    "Ġsquat": 514,
    "Ġimagination": 515,
    "oi": 516,
    "ĠAlert": 517,
    "Ġresisting": 518,
    "ĠGorsuch": 519,
    "43": 520,
    "oday": 521,
    "ibrary": 522,
    "hammer": 523,
    "Down": 524,
    "âĸĪâĸĪ": 525,
    "Ġaffiliation": 526,
    "Ġharbour": 527,
    "Ġdam": 528,
    "Ġpsychopath": 529,
    "Ġaccuse": 530,
    "Ġbenef": 531,
    "Ġrecommend": 532,
    ".-": 533,
    "ĠInvest": 534,
    "Ġrugby": 535,
    "Ġinterrupted": 536,
    "Ġintu": 537,
    "Ġillusion": 538,
    "ĠSince": 539,
    "Ġsympath": 540,
    "enko": 541,
    "Ġlibrary": 542,
    "ĠOntario": 543,
    "Ġairst": 544,
    "Ġtuition": 545,
    "Ġrolled": 546,
    "ASS": 547,
    "inous": 548,
    "iron": 549,
    "ĠRoy": 550,
    "Ġbicycle": 551,
    "Ġprofessors": 552,
    "Ġresigned": 553,
    "Ġcharacteristics": 554,
    "Ġcon": 555,
    "Ġverified": 556,
    "Ġupgraded": 557,
    "Ġtub": 558,
    "Rather": 559,
    "ĠPink": 560,
    "Ġopio": 561,
    "wiki": 562,
    "Ġreturned": 563,
    "Ð¾": 564,
    "ĠDescription": 565,
    "Ġappetite": 566,
    "avoid": 567,
    "Pl": 568,
    "How": 569,
    "eta": 570,
    "asts": 571,
    "ĠPistons": 572,
    "Ġtraveled": 573,
    "beh": 574,
    "Ġoverd": 575,
    "thanks": 576,
    "DD": 577,
    "Ġofficials": 578,
    "Ġconfession": 579,
    "Ġpatron": 580,
    "yl": 581,
    "Ġtargeted": 582,
    "ĠNu": 583,
    "ang": 584,
    "Ġball": 585,
    "ĠLim": 586,
    "ct": 587,
    "ĠCory": 588,
    "igator": 589,
    ",âĢĻâĢĻ": 590,
    "Ġenthusiast": 591,
    "Ġimp": 592,
    "Ġprovoc": 593,
    "Ġinterval": 594,
    "reviewed": 595,
    "Ġexperimenting": 596,
    "ĠSurv": 597,
    "Ġreload": 598,
    "serv": 599,
    "Ġdisciplined": 600,
    "Ġbanners": 601,
    "cop": 602,
    "ĠMov": 603,
    "Ġqualities": 604,
    "utical": 605,
    "Ġongoing": 606,
    "grand": 607,
    "Alex": 608,
    "ĠClaire": 609,
    "gent": 610,
    "Ġreduce": 611,
    "Ġembro": 612,
    "breaking": 613,
    "comment": 614,
    "ĠVer": 615,
    "Ġcomplete": 616,
    "ĠMumbai": 617,
    "Ġproduction": 618,
    "Ġspider": 619,
    "peer": 620,
    "Ġwithhold": 621,
    "Anyone": 622,
    "afort": 623,
    "Ġangered": 624,
    "Ġspreading": 625,
    "Ġeagle": 626,
    "Ġtoggle": 627,
    "Ġfunctions": 628,
    "Ġlightning": 629,
    "ĠRec": 630,
    "Play": 631,
    "ĠBec": 632,
    "Ð±": 633,
    "Ġarrive": 634,
    "Ġbypass": 635,
    "ĠPra": 636,
    "ĠGreenpeace": 637,
    "Ġpraising": 638,
    "Ġoch": 639,
    "âĸĳ": 640,
    "ĠKurdistan": 641,
    "Ġintense": 642,
    "ĠTax": 643,
    "apper": 644,
    "ĠMayer": 645,
    "GEL": 646,
    "Ġguests": 647,
    "Ġpilgr": 648,
    "ĠTate": 649,
    "Ġounce": 650,
    "scape": 651,
    "Ġmass": 652,
    "Ġeas": 653,
    "ĠClient": 654,
    "ĠWool": 655,
    "Ġconfirming": 656,
    "Ġreflect": 657,
    "world": 658,
    "Ġmonopoly": 659,
    "80": 660,
    "obia": 661,
    "Ġmo": 662,
    "Ġcompletion": 663,
    "Ġpolitical": 664,
    "ĠMilo": 665,
    "Ġdisable": 666,
    "ĠEinstein": 667,
    "Ġperiods": 668,
    "Ġsuggestions": 669,
    "umber": 670,
    "HH": 671,
    "Street": 672,
    "hour": 673,
    "ĠSmith": 674,
    "Ġunderestimated": 675,
    "Ġawe": 676,
    "verse": 677,
    "č": 678,
    "Labour": 679,
    "Ġreigning": 680,
    "abel": 681,
    "Ġtotalitarian": 682,
    "Ġincumb": 683,
    "Ġsuperv": 684,
    "proclaimed": 685,
    "Ġmonitors": 686,
    "ĠAuthor": 687,
    "share": 688,
    "ĠUber": 689,
    "Ġcompact": 690,
    "acher": 691,
    "Ġfraud": 692,
    "Change": 693,
    "ĠEllen": 694,
    "Ġdisillusion": 695,
    "Ġprocure": 696,
    "ophone": 697,
    "Ġdet": 698,
    "ĠReader": 699,
    "ingen": 700,
    "Ġtransformation": 701,
    "olis": 702,
    "Ġagency": 703,
    "meter": 704,
    "Ġdiscl": 705,
    "ĠMic": 706,
    "alsh": 707,
    "ingly": 708,
    "Ġjet": 709,
    "ĠUran": 710,
    "Ġselection": 711,
    "ĠFoods": 712,
    "EX": 713,
    "Ġactivist": 714,
    "shirts": 715,
    "ĠFlint": 716,
    "Ġpain": 717,
    "Ñı": 718,
    "ĠPhot": 719,
    "iac": 720,
    "NG": 721,
    "Ġfocal": 722,
    "ASHINGTON": 723,
    "Ġbrother": 724,
    "Australian": 725,
    "Late": 726,
    "lda": 727,
    "eur": 728,
    "Ġru": 729,
    "Ġblames": 730,
    "netic": 731,
    "Ġinhib": 732,
    "Ġdefenses": 733,
    "Ġdil": 734,
    "ĠCopyright": 735,
    "ĠCrypt": 736,
    "Ġhonoring": 737,
    "ĠArg": 738,
    "Ġgun": 739,
    "reet": 740,
    "Ġgri": 741,
    "Ġide": 742,
    "ĠLouisville": 743,
    "fore": 744,
    "Ġmes": 745,
    "blem": 746,
    "Ġ1912": 747,
    "ĠHammond": 748,
    "lex": 749,
    "lux": 750,
    "Ġcollaps": 751,
    "ĠSenator": 752,
    "Ġmotives": 753,
    "lessly": 754,
    "hun": 755,
    "Ġsnack": 756,
    "ĠArm": 757,
    "400": 758,
    "iry": 759,
    "rers": 760,
    "],": 761,
    "Ġantibiotic": 762,
    "ĠOrche": 763,
    "izabeth": 764,
    "Ġgenerous": 765,
    "Ġembracing": 766,
    "xxxx": 767,
    "ĠSioux": 768,
    "pin": 769,
    "Ġprefers": 770,
    "Ġguarantee": 771,
    "iddy": 772,
    "Ġreluctance": 773,
    "Ġmaintains": 774,
    "staff": 775,
    "Ġresistant": 776,
    "Ġoffensively": 777,
    "Ġunfinished": 778,
    "ently": 779,
    "ĠBash": 780,
    "irection": 781,
    "Ġraids": 782,
    "iencies": 783,
    "turn": 784,
    "ĠExperts": 785,
    "Ġprosperous": 786,
    "ĠSas": 787,
    "Ġ1984": 788,
    "Ġcult": 789,
    "Ġdigging": 790,
    "Ġsurv": 791,
    "circ": 792,
    "amer": 793,
    "Ġturning": 794,
    "Ġporn": 795,
    "ĠMa": 796,
    "ona": 797,
    "Ġfate": 798,
    "ĠBass": 799,
    "TS": 800,
    "uts": 801,
    "Ġdemon": 802,
    "Ġdetr": 803,
    "Ġbishop": 804,
    "Ġbanks": 805,
    "ĠMarsh": 806,
    "Ġexcess": 807,
    "pound": 808,
    "ĠThinking": 809,
    "ber": 810,
    "Ġoverlapping": 811,
    "ĠPacers": 812,
    "âĸĪâĸĪâĸĪâĸĪ": 813,
    "Ġtough": 814,
    "upp": 815,
    "ĠBM": 816,
    "aged": 817,
    "Ġ,": 818,
    "Ġanywhere": 819,
    "Ġwatch": 820,
    "Ġnewly": 821,
    "Ġlacked": 822,
    "iet": 823,
    "Wat": 824,
    "ĠBach": 825,
    "Ġassured": 826,
    "Ġcollections": 827,
    "ĠRepresentative": 828,
    "opy": 829,
    "Ġsplits": 830,
    "ĠLew": 831,
    "ream": 832,
    "Ġ2012": 833,
    "Ġunsuccessful": 834,
    "ĠLith": 835,
    "efeated": 836,
    "Ġranc": 837,
    "ĠRegion": 838,
    "Ġfashion": 839,
    "Ġflock": 840,
    "ipple": 841,
    "Ġdisabilities": 842,
    "Ġagon": 843,
    "Ġvisibility": 844,
    "Ġguest": 845,
    "Ġannouncing": 846,
    "Ġbelongings": 847,
    "ĠDuke": 848,
    "next": 849,
    "Ġvalidated": 850,
    "ĠOutlook": 851,
    "Ġpoker": 852,
    "Ġsignature": 853,
    "ple": 854,
    "Ġgrey": 855,
    "Ġfunn": 856,
    "ynasty": 857,
    "Ġraping": 858,
    "Method": 859,
    "ĠCats": 860,
    "ĠJedi": 861,
    "Ġrequired": 862,
    "ĠWizards": 863,
    "represented": 864,
    "arming": 865,
    "cont": 866,
    "lined": 867,
    "Ġobesity": 868,
    "Ġfist": 869,
    "Ġtherapeutic": 870,
    "Jan": 871,
    "ĠZen": 872,
    "Ġhen": 873,
    "Ġdesperately": 874,
    "Ġeconomies": 875,
    "Cont": 876,
    "anth": 877,
    "Ġautomotive": 878,
    "ĠDeclaration": 879,
    "Ġaddressed": 880,
    "isoft": 881,
    "Ġblogging": 882,
    "Ġindicated": 883,
    "ĠVista": 884,
    "Ġprevailed": 885,
    "Ġreconst": 886,
    "Aut": 887,
    "Ġswings": 888,
    "ophob": 889,
    "ĠBurke": 890,
    "Dun": 891,
    "Ġsoutheast": 892,
    "Ġaccommodate": 893,
    "ĠRare": 894,
    "Nick": 895,
    "Ġsparse": 896,
    "Ġ(@": 897,
    "ĠCharlotte": 898,
    "Ġprinting": 899,
    "Ġbrokers": 900,
    "onst": 901,
    "Ġroughly": 902,
    "verts": 903,
    "Ġcent": 904,
    "ĠProceed": 905,
    "Ġresidence": 906,
    "Ġconstitute": 907,
    "Ġfeasible": 908,
    "ĠIssue": 909,
    "Ġtweeted": 910,
    "!!": 911,
    "Ġunidentified": 912,
    "Ġvir": 913,
    "Ġanest": 914,
    "ĠCFL": 915,
    "Let": 916,
    "ĠSeeing": 917,
    "Ġdisappeared": 918,
    "isations": 919,
    "team": 920,
    "Ġforcing": 921,
    "Ġexport": 922,
    "Ġautomobile": 923,
    "Ġtags": 924,
    "Ġcannabis": 925,
    "Dec": 926,
    "ĠCay": 927,
    "Ġcriticizing": 928,
    "ĠBMI": 929,
    "Ġshr": 930,
    "Ġentry": 931,
    "wan": 932,
    "ĠCos": 933,
    "Ġtoe": 934,
    "ĠHawaii": 935,
    "anch": 936,
    "ĠTol": 937,
    "Ġexclude": 938,
    "arsh": 939,
    ".:": 940,
    "Ġmedication": 941,
    "ĠKe": 942,
    "Ġreunited": 943,
    "atter": 944,
    "withstanding": 945,
    "Ġavailable": 946,
    "ĠSweet": 947,
    "Ġblowing": 948,
    "Ġtouchdown": 949,
    "Ġcertificate": 950,
    "Ġgold": 951,
    "Ġorigins": 952,
    "Ġinstallation": 953,
    "Ġrallies": 954,
    "ĠHugh": 955,
    "prus": 956,
    "Ġsafeguards": 957,
    "Ġsteril": 958,
    "Ġmulti": 959,
    "ĠCorey": 960,
    "Ġsimilarity": 961,
    "Ġovershadow": 962,
    "Ġheaded": 963,
    "stein": 964,
    "Ġprescriptions": 965,
    "ĠDems": 966,
    "oved": 967,
    "Ġsatisf": 968,
    "ĠEmma": 969,
    "ĠLuxembourg": 970,
    "ĠNec": 971,
    "oslav": 972,
    "Ġwrote": 973,
    "Less": 974,
    "Ġinfuri": 975,
    "Ñĥ": 976,
    "Ġexperiments": 977,
    "ĠPlan": 978,
    "berman": 979,
    "Ġswords": 980,
    "ĠRein": 981,
    "Ġperhaps": 982,
    "Ġcis": 983,
    "pick": 984,
    "Ġcontributions": 985,
    "lifting": 986,
    "Ġspook": 987,
    "ĠNak": 988,
    "ĠDion": 989,
    "Ġcontaminated": 990,
    "Report": 991,
    "Ġevaluate": 992,
    "mont": 993,
    "Ġmand": 994,
    "ĠHeaven": 995,
    "ĠGl": 996,
    "Ġor": 997,
    "Ġsubstances": 998,
    "Doc": 999,
    "ĠOs": 1000,
    "fork": 1001,
    "Ġpremiums": 1002,
    "make": 1003,
    "adays": 1004,
    "ĠLCD": 1005,
    "Researchers": 1006,
    "ĠREAD": 1007,
    "Ġtipping": 1008,
    "ttes": 1009,
    "write": 1010,
    "Ġunnamed": 1011,
    "ĠNixon": 1012,
    "Ġyour": 1013,
    "Ġdark": 1014,
    "Ġtranscription": 1015,
    "Ġstrings": 1016,
    "nyder": 1017,
    "shake": 1018,
    "Ġsupremacists": 1019,
    "estones": 1020,
    "Ġlimiting": 1021,
    "Ġseism": 1022,
    "Ġtou": 1023,
    "Ġcom": 1024,
    "arks": 1025,
    "Ġmilit": 1026,
    "Ġweighted": 1027,
    "ĠDw": 1028,
    "Jordan": 1029,
    "eme": 1030,
    "ĠRhode": 1031,
    "Ġlaughs": 1032,
    "women": 1033,
    "Mexico": 1034,
    "Ġcollaborated": 1035,
    "Ġrestaurant": 1036,
    "Ġtrials": 1037,
    "Ġhier": 1038,
    "onel": 1039,
    "Money": 1040,
    "feeding": 1041,
    "Ġworkforce": 1042,
    "Ġdownloading": 1043,
    "ĠFar": 1044,
    "Ġreminding": 1045,
    "ĠJackie": 1046,
    "Ġsame": 1047,
    "iddled": 1048,
    "ĠCritics": 1049,
    "etts": 1050,
    "Ġsprawling": 1051,
    "Ġsprink": 1052,
    "j": 1053,
    "Ġborder": 1054,
    "Ġraise": 1055,
    "Ġlaund": 1056,
    "Ġcul": 1057,
    "Ġantibiot": 1058,
    "ĠHodg": 1059,
    "ĠVox": 1060,
    "ĠVo": 1061,
    "ĠMitt": 1062,
    "isphere": 1063,
    "ĠConsult": 1064,
    "Ġtalk": 1065,
    "Ġrecommending": 1066,
    "Ġastronaut": 1067,
    "leted": 1068,
    "Ġwoman": 1069,
    "Ġaccustomed": 1070,
    "attled": 1071,
    "Ġfair": 1072,
    "Ġunite": 1073,
    "Ġsixteen": 1074,
    "Ma": 1075,
    "aid": 1076,
    "intendent": 1077,
    "Ġtim": 1078,
    "ĠMatter": 1079,
    "annah": 1080,
    "Ġridiculously": 1081,
    "Ġfuels": 1082,
    "uter": 1083,
    "Ġaggression": 1084,
    "Amazon": 1085,
    "Ġlight": 1086,
    "ĠRamsey": 1087,
    "ĠPosted": 1088,
    "ĠRon": 1089,
    "ows": 1090,
    "Ġcauses": 1091,
    "BA": 1092,
    "Ġbapt": 1093,
    "Ġshop": 1094,
    "Ġtariffs": 1095,
    "ĠBlacks": 1096,
    "Ġachieved": 1097,
    "ĠNV": 1098,
    "ĠCrist": 1099,
    "berger": 1100,
    "ccording": 1101,
    "Ġo": 1102,
    "Ġemb": 1103,
    "ĠStrateg": 1104,
    "Ì": 1105,
    "lications": 1106,
    "Ġestablishes": 1107,
    "Ġspo": 1108,
    "Ġhars": 1109,
    "Ġefficient": 1110,
    "ĠHo": 1111,
    "plays": 1112,
    "Ġfiles": 1113,
    "com": 1114,
    "Ġalliance": 1115,
    "Ġcommunity": 1116,
    "Ġcatalyst": 1117,
    "essment": 1118,
    "coal": 1119,
    "ĠSpencer": 1120,
    "Ġmultinational": 1121,
    "ĠPlain": 1122,
    "Ġgravity": 1123,
    "Ġnarrator": 1124,
    "ĠEli": 1125,
    "Ġgeared": 1126,
    "Ġwired": 1127,
    "Ġdefinition": 1128,
    "ĠVine": 1129,
    "Ġmenstru": 1130,
    "Ġentrance": 1131,
    "ĠSlate": 1132,
    "tier": 1133,
    "Ġsolidarity": 1134,
    "Ġenjoying": 1135,
    "deb": 1136,
    "umb": 1137,
    "Ġdetailing": 1138,
    "ĠGardner": 1139,
    "grad": 1140,
    "ĠHowever": 1141,
    "Ġentire": 1142,
    "Ġmale": 1143,
    "ĠQuran": 1144,
    "ĠResearch": 1145,
    "Ġprestigious": 1146,
    "ĠFIR": 1147,
    "Ġapost": 1148,
    "Ġcoast": 1149,
    "Ġmantle": 1150,
    "ĠJuan": 1151,
    "iciary": 1152,
    "ĠTai": 1153,
    "Ġdeadline": 1154,
    "Ġcopper": 1155,
    "ĠParents": 1156,
    "essor": 1157,
    "ĠCole": 1158,
    "ì": 1159,
    "Ġtraps": 1160,
    "ĠForeign": 1161,
    "Incre": 1162,
    "must": 1163,
    "Sa": 1164,
    "Class": 1165,
    "ĠJustice": 1166,
    "Ġtoler": 1167,
    "ĠRonald": 1168,
    "Ġideally": 1169,
    "Ġmoments": 1170,
    "Ġest": 1171,
    "Ġsmo": 1172,
    "ĠAdventure": 1173,
    "Ġdenied": 1174,
    "Ġitself": 1175,
    "Ġsuprem": 1176,
    "Ġinnovations": 1177,
    "ĠCarolina": 1178,
    "ymph": 1179,
    "rant": 1180,
    "ĠAnth": 1181,
    "ĠRift": 1182,
    "Ġlarger": 1183,
    "Ġphotographer": 1184,
    "Ġpull": 1185,
    "Ġ54": 1186,
    "thirds": 1187,
    "rael": 1188,
    "ĠIv": 1189,
    "Ġassemble": 1190,
    "display": 1191,
    "Back": 1192,
    "Ġsmaller": 1193,
    "ĠBalk": 1194,
    "Ġweakest": 1195,
    "Ġtempt": 1196,
    "Ġfats": 1197,
    "ĠCreek": 1198,
    "Ġcold": 1199,
    "jad": 1200,
    "ĠBuild": 1201,
    "Ġtant": 1202,
    "Ġenvironmentally": 1203,
    "TT": 1204,
    "Ren": 1205,
    "ique": 1206,
    "Ġdeny": 1207,
    "Ġaffidav": 1208,
    "Ġracial": 1209,
    "ĠDOJ": 1210,
    "Jason": 1211,
    "ĠSaturn": 1212,
    "opa": 1213,
    "Ġcrowd": 1214,
    "ila": 1215,
    "ĠNoble": 1216,
    "[]": 1217,
    "Ġface": 1218,
    "Ġtea": 1219,
    "comfort": 1220,
    "Ġearnings": 1221,
    "ĪĴ": 1222,
    "Ġpython": 1223,
    "Ġinvari": 1224,
    "Ġos": 1225,
    "ĠSeason": 1226,
    "ĠPuerto": 1227,
    "Soon": 1228,
    "Ġuseless": 1229,
    "ures": 1230,
    "Added": 1231,
    "corn": 1232,
    "ober": 1233,
    "ĠKell": 1234,
    "ĠFO": 1235,
    "Ġtempted": 1236,
    "Ġtermination": 1237,
    "ĠCarol": 1238,
    "Ġropes": 1239,
    "Ġwish": 1240,
    "Ġdimin": 1241,
    "fat": 1242,
    "ĠCommunist": 1243,
    "Ġessays": 1244,
    "ĠSquadron": 1245,
    "Ġfoolish": 1246,
    "uctions": 1247,
    "ĠIndiana": 1248,
    "Ġdivers": 1249,
    "Ġdistribution": 1250,
    "represent": 1251,
    "Ġcampaigns": 1252,
    "Ġwaged": 1253,
    "ĠVic": 1254,
    "Ġconsequences": 1255,
    "ª": 1256,
    "Ġdiscouraged": 1257,
    "Ġgrows": 1258,
    "People": 1259,
    "ĠPlayer": 1260,
    "ĠOsborne": 1261,
    "Ġmeme": 1262,
    "iker": 1263,
    "Ġcontradiction": 1264,
    "ocalyptic": 1265,
    "aint": 1266,
    "ĠBundesliga": 1267,
    "Ġsiblings": 1268,
    "rown": 1269,
    "ĠNeal": 1270,
    "`": 1271,
    "Ġalign": 1272,
    "Ġalong": 1273,
    "ĠSenators": 1274,
    "malink": 1275,
    "TP": 1276,
    "idepress": 1277,
    "aneously": 1278,
    "iscons": 1279,
    "umers": 1280,
    "Ġsk": 1281,
    "ÃĥÃĤ": 1282,
    "Ġbrowser": 1283,
    "ried": 1284,
    "ratic": 1285,
    "Ġsubscribe": 1286,
    "Ġcomplementary": 1287,
    "Ġpalace": 1288,
    "sein": 1289,
    "Mom": 1290,
    "ak": 1291,
    "ilateral": 1292,
    "ĠEnt": 1293,
    "ĠBrook": 1294,
    "Ġegregious": 1295,
    "ĠStrauss": 1296,
    "ĠGain": 1297,
    "Ġpaired": 1298,
    "ĠPage": 1299,
    "LP": 1300,
    "ĠBIG": 1301,
    "ĠShort": 1302,
    "gall": 1303,
    "Ġlinked": 1304,
    "ĠBannon": 1305,
    "ĠCro": 1306,
    "Ġhunted": 1307,
    "Ġclicked": 1308,
    "ryn": 1309,
    "inct": 1310,
    "Ġhesitate": 1311,
    "Ġgraduation": 1312,
    "getown": 1313,
    "Ġeliminate": 1314,
    "ĠÎ¼": 1315,
    "ĠCaribbean": 1316,
    "Ġpositive": 1317,
    "Ġfallen": 1318,
    "Ġabused": 1319,
    "Ġpractically": 1320,
    "ĠBaldwin": 1321,
    "Ġbart": 1322,
    "ĠRodrig": 1323,
    "RY": 1324,
    "Ġobviously": 1325,
    "etti": 1326,
    "ĠGoth": 1327,
    "Ġcity": 1328,
    "ucks": 1329,
    "Ġansw": 1330,
    "Ġcouncil": 1331,
    "Ġasserts": 1332,
    "rase": 1333,
    "Ġproducing": 1334,
    "ĠSm": 1335,
    "Ted": 1336,
    "ĠPol": 1337,
    "EA": 1338,
    "Ġhypothesis": 1339,
    "ĠFamily": 1340,
    "ippers": 1341,
    "ĠVader": 1342,
    "Ġrelating": 1343,
    "Äĩ": 1344,
    "nsic": 1345,
    "Ġet": 1346,
    "Ġsecuring": 1347,
    "Ġwhale": 1348,
    "Ġseat": 1349,
    "Ġdebating": 1350,
    "Ġmedications": 1351,
    "Ġnegotiation": 1352,
    "ĠZelda": 1353,
    "Ġthread": 1354,
    "Ġarom": 1355,
    "ĠJacobs": 1356,
    "aku": 1357,
    "Ġevidently": 1358,
    "Ġmyself": 1359,
    "ĠVari": 1360,
    "mite": 1361,
    "perty": 1362,
    "ĠYuk": 1363,
    "ĠBlog": 1364,
    "Ġscreamed": 1365,
    "Ġoffer": 1366,
    "Ġinflammatory": 1367,
    "ĠLeon": 1368,
    "Ġrefrain": 1369,
    "Ġabandoned": 1370,
    "Ġcrystall": 1371,
    "Ġexerc": 1372,
    "Ġfossils": 1373,
    "Custom": 1374,
    "ĠAbdullah": 1375,
    "Ġingest": 1376,
    "Ġencaps": 1377,
    "Dav": 1378,
    "Ġdisruptive": 1379,
    "Ġshortcomings": 1380,
    "Ġexplored": 1381,
    "ĠConcer": 1382,
    "ĠGenerally": 1383,
    "onal": 1384,
    "APD": 1385,
    "ĠHat": 1386,
    "Ġstorms": 1387,
    "!!!!": 1388,
    "BBC": 1389,
    "Ġ2009": 1390,
    "ĠAbsolutely": 1391,
    "ĠKat": 1392,
    "Ġidea": 1393,
    "âĤ¬âĦ¢": 1394,
    "second": 1395,
    "soc": 1396,
    "Ġsynd": 1397,
    "ĠTas": 1398,
    "ĠWeapon": 1399,
    "Ġdefinite": 1400,
    "Ġcasc": 1401,
    "ISE": 1402,
    "Ġbooks": 1403,
    "Ġroof": 1404,
    ")]": 1405,
    "ĠLeo": 1406,
    "izard": 1407,
    "Ġdisclose": 1408,
    "Ġtyp": 1409,
    "Ġjumped": 1410,
    "ĠContinued": 1411,
    "ĠDoll": 1412,
    "Ġtorn": 1413,
    "lly": 1414,
    "Ġunsupported": 1415,
    "print": 1416,
    "Ġtotaling": 1417,
    "Ġhazard": 1418,
    "ĠBre": 1419,
    "Ġawaiting": 1420,
    "fill": 1421,
    "ĠDiam": 1422,
    "ĠGuest": 1423,
    "isa": 1424,
    "enberg": 1425,
    "Ġgear": 1426,
    "Ġbecause": 1427,
    "Save": 1428,
    "ĠAgain": 1429,
    "ĠEmmanuel": 1430,
    "ĠHamilton": 1431,
    "ĠFuller": 1432,
    "Ġtob": 1433,
    "Ġfetish": 1434,
    "Ġhelicop": 1435,
    "Ġlate": 1436,
    "ĠThanks": 1437,
    "ris": 1438,
    "Ġedges": 1439,
    "Everything": 1440,
    "ample": 1441,
    "PDATE": 1442,
    "vag": 1443,
    "ustainable": 1444,
    "ĠManit": 1445,
    "rina": 1446,
    "Ġrelegated": 1447,
    "Ġrom": 1448,
    "ĠJordan": 1449,
    "Ġ1987": 1450,
    "Smith": 1451,
    "Ġpanc": 1452,
    "Ġens": 1453,
    "Ġrooft": 1454,
    "cule": 1455,
    "Ġfaded": 1456,
    "ivable": 1457,
    "igg": 1458,
    "ighed": 1459,
    "iles": 1460,
    "Ġstandings": 1461,
    "Ġorbits": 1462,
    "ĠRule": 1463,
    "Ġvitamin": 1464,
    "Ġfasting": 1465,
    "Ġsettling": 1466,
    "Ġhusband": 1467,
    "89": 1468,
    "Ġairing": 1469,
    "zsche": 1470,
    "agraph": 1471,
    "Ġunderlying": 1472,
    "Ġburgers": 1473,
    "Ġanimated": 1474,
    "27": 1475,
    "ĠGarrett": 1476,
    "Ġbreaches": 1477,
    "Ġtoxicity": 1478,
    "Ġbored": 1479,
    "Ġscen": 1480,
    "Ġimag": 1481,
    "hyth": 1482,
    "wat": 1483,
    "Ġcelebrate": 1484,
    "Ġconsolid": 1485,
    "Ġmixing": 1486,
    "ĠYoutube": 1487,
    "Ġanat": 1488,
    "ĠWoody": 1489,
    "ĠKenn": 1490,
    "gotten": 1491,
    "Ġphon": 1492,
    "ĠTut": 1493,
    "Ġpresumed": 1494,
    "spons": 1495,
    "appy": 1496,
    "Ġcenturies": 1497,
    "ĠAnniversary": 1498,
    "Ġpronounced": 1499,
    "ĠRap": 1500,
    "ĠReports": 1501,
    "Ġfeed": 1502,
    "Ġdefeats": 1503,
    "Ġmajority": 1504,
    "Ġvessel": 1505,
    "ĠAlleg": 1506,
    "Ġwhiskey": 1507,
    "Ġfamilies": 1508,
    "ĠSel": 1509,
    "ĠBranch": 1510,
    "ĠProdu": 1511,
    "Ġprior": 1512,
    "ĠPetra": 1513,
    "Ġpredicting": 1514,
    "ĠWorldwide": 1515,
    "Ġresolution": 1516,
    "oring": 1517,
    "Ġsequences": 1518,
    "ESPN": 1519,
    "Ġusers": 1520,
    "Ġphysical": 1521,
    "ĠWR": 1522,
    "Ġgunmen": 1523,
    "ĠGy": 1524,
    "fully": 1525,
    "flies": 1526,
    "iere": 1527,
    "ĠGur": 1528,
    "Ġcautioned": 1529,
    "ĠTorah": 1530,
    "Ġblame": 1531,
    "Ġdivine": 1532,
    "Ġcoaching": 1533,
    "boys": 1534,
    "listed": 1535,
    "Ġmetal": 1536,
    "Ġbutton": 1537,
    "ured": 1538,
    "ĠRut": 1539,
    "justice": 1540,
    "ERO": 1541,
    "ĠActiv": 1542,
    "Ġachie": 1543,
    "ĠDe": 1544,
    "ĠBrief": 1545,
    "bum": 1546,
    "Min": 1547,
    "ĠPowell": 1548,
    "Ġdestruction": 1549,
    "because": 1550,
    "Ġmid": 1551,
    "ĠDNC": 1552,
    "ĠMead": 1553,
    "ĠSpiel": 1554,
    "Ġamb": 1555,
    "wed": 1556,
    "Ġpressured": 1557,
    "stra": 1558,
    "Ġche": 1559,
    "ĠMarlins": 1560,
    "Ġ>": 1561,
    "ĠAlternative": 1562,
    "cember": 1563,
    "ĠFarm": 1564,
    "ĠKindle": 1565,
    "ĠTales": 1566,
    "Ġmayor": 1567,
    "lete": 1568,
    "ĠRiley": 1569,
    "aley": 1570,
    "alone": 1571,
    "Ġnortheast": 1572,
    "Ġtwo": 1573,
    "ner": 1574,
    "Ġexperiences": 1575,
    "igh": 1576,
    "Ġworked": 1577,
    "Ġcomprehend": 1578,
    "Ġhollow": 1579,
    "ĠFalcon": 1580,
    "Ġplanets": 1581,
    "ĠTrial": 1582,
    "cier": 1583,
    "ipes": 1584,
    "ERY": 1585,
    "Ġanarch": 1586,
    "Ġloot": 1587,
    "Ġcaliber": 1588,
    "eless": 1589,
    "sex": 1590,
    "Ġwider": 1591,
    "arter": 1592,
    "Ġconnection": 1593,
    "ĠSk": 1594,
    "ipher": 1595,
    "Ġrequ": 1596,
    "Car": 1597,
    "ĠCircuit": 1598,
    "ĠRegular": 1599,
    "iser": 1600,
    "ĠHTTP": 1601,
    "ĠLuxem": 1602,
    "ĠDome": 1603,
    "Ġsn": 1604,
    "Ġcentered": 1605,
    "price": 1606,
    "Ġacademy": 1607,
    "AMA": 1608,
    "Ġshootout": 1609,
    "vie": 1610,
    "ria": 1611,
    "Ġbill": 1612,
    "Ġlies": 1613,
    "reach": 1614,
    "Ġassuming": 1615,
    "rial": 1616,
    "Ġcause": 1617,
    "Tell": 1618,
    "ĠConsider": 1619,
    "Tex": 1620,
    "ĠCase": 1621,
    "ĠCertain": 1622,
    "Ġrequiring": 1623,
    "ĠMovement": 1624,
    "Ġfeminine": 1625,
    "ĠPreviously": 1626,
    "Ġrevital": 1627,
    "ĠSerbian": 1628,
    "Ġcollective": 1629,
    "ĠHi": 1630,
    "Ġpuzz": 1631,
    "ĠGem": 1632,
    "Don": 1633,
    "Ġpond": 1634,
    "ĠDetroit": 1635,
    "Ġwear": 1636,
    "OCK": 1637,
    "Ġcatastrophe": 1638,
    "Sec": 1639,
    "Ġhateful": 1640,
    "Ġpuppet": 1641,
    "oggle": 1642,
    "ÃĤ": 1643,
    "ĠTy": 1644,
    "Ġmix": 1645,
    "Ġmansion": 1646,
    "Ġupward": 1647,
    "Ġchampions": 1648,
    "Ġtheat": 1649,
    "Ġreve": 1650,
    "Give": 1651,
    "Ġlinebackers": 1652,
    "ĠAlmost": 1653,
    "ĠBangl": 1654,
    "Ġavenue": 1655,
    "Ġplayoff": 1656,
    "Ġhabitats": 1657,
    "ĠBee": 1658,
    "ĠDiet": 1659,
    "Ġwandering": 1660,
    "leg": 1661,
    "Ġtour": 1662,
    "Ġresulting": 1663,
    "Ġmigration": 1664,
    "ĠBed": 1665,
    "ĠGW": 1666,
    "terior": 1667,
    "ĠPalm": 1668,
    "\",": 1669,
    "Ġtherapies": 1670,
    "Ġau": 1671,
    "Gar": 1672,
    "ĠRemove": 1673,
    "Ġterms": 1674,
    "ĠDepot": 1675,
    "Ġconsecutive": 1676,
    "oles": 1677,
    "ĠDen": 1678,
    "level": 1679,
    "ĠWars": 1680,
    "hou": 1681,
    "orkshire": 1682,
    "Finally": 1683,
    "Ġdefended": 1684,
    "Ġhistorian": 1685,
    "Ġconsidered": 1686,
    "un": 1687,
    "Ġjournalism": 1688,
    "ged": 1689,
    "Ġevery": 1690,
    "ĠGerman": 1691,
    "orsche": 1692,
    "Ġboys": 1693,
    "ĠCody": 1694,
    "inate": 1695,
    "ĠTreasury": 1696,
    "iovascular": 1697,
    "98": 1698,
    "Ġscarcity": 1699,
    "Ġviol": 1700,
    "train": 1701,
    "opard": 1702,
    "1989": 1703,
    "Ġalignment": 1704,
    "Ġpaid": 1705,
    "ĠKer": 1706,
    "Ġimper": 1707,
    "avier": 1708,
    "ĠOrig": 1709,
    "Ġvoiced": 1710,
    "ologic": 1711,
    "Ġmushrooms": 1712,
    "ĠRoe": 1713,
    "olar": 1714,
    "Ġincompetence": 1715,
    "eren": 1716,
    "ĠAbb": 1717,
    "Ġambul": 1718,
    "Ġmicrowave": 1719,
    "Ġclients": 1720,
    "Ġconcussion": 1721,
    "IF": 1722,
    "Yeah": 1723,
    "agn": 1724,
    "bo": 1725,
    "ĠYorkers": 1726,
    "Ġdesktop": 1727,
    "ĠChapman": 1728,
    "Ke": 1729,
    "Ġslashed": 1730,
    "ĠRomero": 1731,
    "Ġracing": 1732,
    "Ġbargaining": 1733,
    "Jesus": 1734,
    "Ġown": 1735,
    "Ġillustrate": 1736,
    "Ġæ": 1737,
    ".[": 1738,
    "ĠDemocratic": 1739,
    "ĠAlabama": 1740,
    "Ġhousing": 1741,
    "Ġrewarded": 1742,
    "ifest": 1743,
    "top": 1744,
    "Ġfree": 1745,
    "Ã©s": 1746,
    "ĠGlobal": 1747,
    "Ġcontest": 1748,
    "Ġwants": 1749,
    "Ġthinks": 1750,
    "Ġimpartial": 1751,
    "aret": 1752,
    "Ġbroadcasting": 1753,
    "ĠReynolds": 1754,
    "Ġemer": 1755,
    "ĠMVP": 1756,
    "sign": 1757,
    "acerb": 1758,
    "ĠRating": 1759,
    "ishing": 1760,
    "atories": 1761,
    "Ġconfined": 1762,
    "Good": 1763,
    "RL": 1764,
    "ÂĢÂĻ": 1765,
    "bet": 1766,
    "Ġtablet": 1767,
    "Ġwork": 1768,
    "Ġforming": 1769,
    "elig": 1770,
    "Ġfog": 1771,
    "Ġskills": 1772,
    "Ġnowadays": 1773,
    "Ġprogressed": 1774,
    "ĠVen": 1775,
    "Ġcap": 1776,
    "For": 1777,
    "EM": 1778,
    "Was": 1779,
    "Ġgoat": 1780,
    "ĠGOODMAN": 1781,
    "Ġmembrane": 1782,
    "âĢĻ,": 1783,
    "ĠChronicles": 1784,
    "ownt": 1785,
    "Ġ=": 1786,
    "PA": 1787,
    "Ġdefeat": 1788,
    "Ġ2019": 1789,
    "ĠMissouri": 1790,
    "outing": 1791,
    "oul": 1792,
    "ĠST": 1793,
    "tri": 1794,
    "Ġcheese": 1795,
    "Ġholding": 1796,
    "eb": 1797,
    "Ġclim": 1798,
    "ĠPoland": 1799,
    "ĠFrozen": 1800,
    "ĠXavier": 1801,
    "ulously": 1802,
    "Ġfunc": 1803,
    "Ġstir": 1804,
    "emed": 1805,
    "Ġcandidate": 1806,
    "ĠNCAA": 1807,
    "une": 1808,
    "Sept": 1809,
    "ĠRF": 1810,
    "Super": 1811,
    "ĠSeoul": 1812,
    "ĠSoph": 1813,
    "ĠAns": 1814,
    "Ġinconsistent": 1815,
    "Ġscrimmage": 1816,
    "Ġrejection": 1817,
    "Ġperfect": 1818,
    "ansen": 1819,
    "yards": 1820,
    "Ġreflects": 1821,
    "Ġexits": 1822,
    "Ã¢": 1823,
    "Professor": 1824,
    "Ġann": 1825,
    "Ġof": 1826,
    "ĠAlzheimer": 1827,
    "Ġallerg": 1828,
    "eria": 1829,
    "Ġtrader": 1830,
    "Ġthreat": 1831,
    "Ġrugged": 1832,
    "Ġconsolidation": 1833,
    "lic": 1834,
    "Ġruler": 1835,
    "vy": 1836,
    "Script": 1837,
    "Ġjustify": 1838,
    "thia": 1839,
    "Ġja": 1840,
    "ĠWeather": 1841,
    "ired": 1842,
    "Ġgrap": 1843,
    "Ġdiscipl": 1844,
    "rots": 1845,
    "tha": 1846,
    "ĠBluetooth": 1847,
    "Art": 1848,
    "cho": 1849,
    "ĠFramework": 1850,
    "Ġsurgical": 1851,
    "Ġexterior": 1852,
    "ĠNorth": 1853,
    "Ġstringent": 1854,
    "ĠAAA": 1855,
    "Ġvolatility": 1856,
    "FP": 1857,
    "ITY": 1858,
    "Ġimpact": 1859,
    "Ġfastest": 1860,
    "Ġcommentators": 1861,
    "Qaeda": 1862,
    "ĠKyle": 1863,
    "110": 1864,
    "ĠModel": 1865,
    "Ġdrawings": 1866,
    "Ġmaker": 1867,
    "Ġcommissioners": 1868,
    "Ġclient": 1869,
    "Ġenemies": 1870,
    "Ãł": 1871,
    "'.": 1872,
    "God": 1873,
    "Ġinherent": 1874,
    "ĠBus": 1875,
    "Ġsho": 1876,
    "Ġrapper": 1877,
    "Ġpremises": 1878,
    "Ġothers": 1879,
    "ependence": 1880,
    "Ġplea": 1881,
    "Ġprecinct": 1882,
    "Redd": 1883,
    "Ġguide": 1884,
    "athan": 1885,
    "Ġpartner": 1886,
    "ĠAnnual": 1887,
    "Ġunanimous": 1888,
    "Ġcharacter": 1889,
    "Lear": 1890,
    "Ġwrath": 1891,
    "lied": 1892,
    "Ġinstituted": 1893,
    "ogene": 1894,
    "Ġmonuments": 1895,
    "ł": 1896,
    "ahar": 1897,
    "Ġreferenced": 1898,
    "Ġconcluding": 1899,
    "ĠSea": 1900,
    "elected": 1901,
    "Ġlaser": 1902,
    "Ġnews": 1903,
    "ĠLeeds": 1904,
    "Ġteenage": 1905,
    "Ġadvis": 1906,
    "Ġmanually": 1907,
    "Ġaffluent": 1908,
    "Ġsurgeries": 1909,
    "Ġmission": 1910,
    "**": 1911,
    "Ġplant": 1912,
    "Ġharb": 1913,
    "Ĳ": 1914,
    "Ġmakeup": 1915,
    "jpg": 1916,
    "hma": 1917,
    "arak": 1918,
    "Ġmom": 1919,
    "Ġenc": 1920,
    "aired": 1921,
    "Ġstandardized": 1922,
    "Ġsought": 1923,
    "ĠLem": 1924,
    "Rober": 1925,
    "âĹ": 1926,
    "Ġpardon": 1927,
    "Ġexhibit": 1928,
    "ĠAbe": 1929,
    "Ġunrealistic": 1930,
    "Ġjealous": 1931,
    "Ġspont": 1932,
    "ĠDM": 1933,
    "ĠNike": 1934,
    "ĠInqu": 1935,
    "ename": 1936,
    "Ġinterchange": 1937,
    "ugby": 1938,
    "ĠLinkedIn": 1939,
    "Ġintr": 1940,
    "Ġlayout": 1941,
    "ĠAllied": 1942,
    "ĠCanal": 1943,
    "Ġheated": 1944,
    "arly": 1945,
    "rient": 1946,
    "Ġdissolved": 1947,
    "_": 1948,
    "ammar": 1949,
    "Ġdoor": 1950,
    "black": 1951,
    "Ġproducers": 1952,
    "Ġdistinguished": 1953,
    "Ġnaming": 1954,
    "Ġpartisan": 1955,
    "ĠCult": 1956,
    "ilipp": 1957,
    "Release": 1958,
    "wagen": 1959,
    "Ġknife": 1960,
    "Ġimplied": 1961,
    "astered": 1962,
    "ãĤĮ": 1963,
    "Ġconfer": 1964,
    "Ġcrystals": 1965,
    "ĠBoise": 1966,
    "Ġdesigns": 1967,
    "Ġengineers": 1968,
    "ĠGrim": 1969,
    "gom": 1970,
    "Ġhandgun": 1971,
    "Ġcurrencies": 1972,
    "Ġrag": 1973,
    "Ġintriguing": 1974,
    "ĠFleming": 1975,
    "Ġech": 1976,
    "ĠBarry": 1977,
    "ples": 1978,
    "PG": 1979,
    "67": 1980,
    "ulence": 1981,
    "Ġdecor": 1982,
    "orts": 1983,
    "ĠPacific": 1984,
    "ĠBot": 1985,
    "ĠÂ": 1986,
    "coming": 1987,
    "Ġresearching": 1988,
    "Ġwool": 1989,
    "ago": 1990,
    "ĠBo": 1991,
    "Ġletters": 1992,
    "Ġaccumulation": 1993,
    "Ġresentment": 1994,
    "Ġard": 1995,
    "Ġearners": 1996,
    "Ġadvertisement": 1997,
    "Ġepisode": 1998,
    "Ġordin": 1999,
    "what": 2000,
    "Ġideal": 2001,
    "Ġglobalization": 2002,
    "Fe": 2003,
    "ĠÂ»": 2004,
    "Nic": 2005,
    "ratulations": 2006,
    "ĠHotel": 2007,
    "Ġhill": 2008,
    "Ġspoke": 2009,
    "Ġmetropolitan": 2010,
    "Ġprecision": 2011,
    "ĠHunter": 2012,
    "ographer": 2013,
    "Ġnamed": 2014,
    "ĠNut": 2015,
    "ĠHezbollah": 2016,
    "Ġtroubles": 2017,
    "join": 2018,
    "Ġtriggers": 2019,
    "Ġmaple": 2020,
    "ĠTri": 2021,
    "uv": 2022,
    "ivic": 2023,
    "ĠElon": 2024,
    "abinet": 2025,
    "oser": 2026,
    "ĠPodcast": 2027,
    "Ġtaxation": 2028,
    "Ġcere": 2029,
    "ĠKir": 2030,
    "ĠTa": 2031,
    "Ġfactual": 2032,
    "ĠSpec": 2033,
    "oen": 2034,
    "oup": 2035,
    "ental": 2036,
    "Ġlearn": 2037,
    "onna": 2038,
    "Ġperceived": 2039,
    "ĠPlanning": 2040,
    "ĠStones": 2041,
    "Ġdid": 2042,
    "Ġcuisine": 2043,
    "ĠCharter": 2044,
    "Ġsmuggling": 2045,
    "Ġdozens": 2046,
    "Ġoperational": 2047,
    "ering": 2048,
    "ĠSpain": 2049,
    "uary": 2050,
    "start": 2051,
    "Ġ230": 2052,
    "GG": 2053,
    "leep": 2054,
    "ĠPBS": 2055,
    "ena": 2056,
    "Ġca": 2057,
    "Ġcognitive": 2058,
    "ĠCorrect": 2059,
    "Ġvector": 2060,
    "Ġmitochond": 2061,
    "ĠDefense": 2062,
    "Ġpopped": 2063,
    "ĠDrew": 2064,
    "ĠColumbia": 2065,
    "Ġundes": 2066,
    "Ġspeak": 2067,
    "ĠChristians": 2068,
    "Ġmerc": 2069,
    "ĠClippers": 2070,
    "mine": 2071,
    "ĠLess": 2072,
    "Ġdemocracy": 2073,
    "urable": 2074,
    "avin": 2075,
    "Ġunre": 2076,
    "Ġtopped": 2077,
    "Ġinvestigative": 2078,
    "Ġwaist": 2079,
    "Ġworkshops": 2080,
    "Ġdrugs": 2081,
    "Ġge": 2082,
    "Ġfolders": 2083,
    "Ġshifted": 2084,
    "Ġwasted": 2085,
    "Ġgenerator": 2086,
    "147": 2087,
    "Ġthree": 2088,
    "ĠFive": 2089,
    "iew": 2090,
    "haul": 2091,
    "ulate": 2092,
    "Ġkeeper": 2093,
    "sl": 2094,
    "Ġblasp": 2095,
    "acter": 2096,
    "Host": 2097,
    "fox": 2098,
    "Ġpier": 2099,
    "uristic": 2100,
    "ĠÃ¢": 2101,
    "look": 2102,
    "inational": 2103,
    "amacare": 2104,
    "whe": 2105,
    "Ġbold": 2106,
    "Ġwriting": 2107,
    "OW": 2108,
    "Ġhacking": 2109,
    "Ġwound": 2110,
    "Ġtrades": 2111,
    "ĠVik": 2112,
    "Ġconsiders": 2113,
    "pet": 2114,
    "Take": 2115,
    "Ġappealing": 2116,
    "Ġgases": 2117,
    "female": 2118,
    "Ġsubsequ": 2119,
    "ĠBapt": 2120,
    "Ġfury": 2121,
    "ĠHour": 2122,
    "Ġcrushing": 2123,
    "ĠCou": 2124,
    "ĠNotes": 2125,
    "Ġacknowledge": 2126,
    "assion": 2127,
    "ĠRubin": 2128,
    "Ġmade": 2129,
    "Ġfaire": 2130,
    "ĠâĢ¢": 2131,
    "ĠDaddy": 2132,
    "ĠIndustries": 2133,
    "Charl": 2134,
    "doing": 2135,
    "Ġswept": 2136,
    "Ġdisrupt": 2137,
    "ĠSB": 2138,
    "://": 2139,
    "Ġdamning": 2140,
    "Ġpur": 2141,
    "levision": 2142,
    "Ġwinds": 2143,
    "ĠBristol": 2144,
    "Ġmortgages": 2145,
    "ĠCSS": 2146,
    "Ġclassification": 2147,
    "Ġtreats": 2148,
    "ĠGuinea": 2149,
    "Ġtrans": 2150,
    "kind": 2151,
    "ĠPred": 2152,
    "ĠVladimir": 2153,
    "irs": 2154,
    "ĠÂĹ": 2155,
    "asion": 2156,
    "ĠJP": 2157,
    "azz": 2158,
    "Ġvert": 2159,
    "Ġcoolest": 2160,
    "ĠBrend": 2161,
    "Ġtimer": 2162,
    "ĠMoroc": 2163,
    "ĠMight": 2164,
    "ĠCruise": 2165,
    "inian": 2166,
    "Ġdetecting": 2167,
    "ĠBit": 2168,
    "ĠReality": 2169,
    "ivil": 2170,
    "Ġvoid": 2171,
    "ĠAv": 2172,
    "Ġtaxp": 2173,
    "hist": 2174,
    "Ġquo": 2175,
    "rac": 2176,
    "Ġshores": 2177,
    "ĠMoody": 2178,
    "Ġmor": 2179,
    "Ġdetention": 2180,
    "ervatives": 2181,
    "Ġroyalties": 2182,
    "ĠChap": 2183,
    "Ġgreatest": 2184,
    "cca": 2185,
    "idency": 2186,
    "Ġcomic": 2187,
    "Ġtick": 2188,
    "Ġshrink": 2189,
    "ĠVent": 2190,
    "ĠCroatia": 2191,
    "Ġauthored": 2192,
    "Ġselling": 2193,
    "exp": 2194,
    "NL": 2195,
    "ĠOff": 2196,
    "ĠPhantom": 2197,
    "utton": 2198,
    "state": 2199,
    "Ġmisinformation": 2200,
    "ĠPos": 2201,
    "coins": 2202,
    "munition": 2203,
    "Ġaccurately": 2204,
    "Ġemploys": 2205,
    "Ġspeculated": 2206,
    "terrorism": 2207,
    "ATION": 2208,
    "ĠDur": 2209,
    "files": 2210,
    "Ġnationwide": 2211,
    "Ġdigits": 2212,
    "itated": 2213,
    "three": 2214,
    "ĠTumblr": 2215,
    "Ġsomet": 2216,
    "ĠGol": 2217,
    "istent": 2218,
    "ians": 2219,
    "Ġflashes": 2220,
    "Search": 2221,
    "ĠBeyond": 2222,
    "Ġmini": 2223,
    "ect": 2224,
    "Ġsanctions": 2225,
    "Ġtrademark": 2226,
    "Ġlife": 2227,
    "Ġpress": 2228,
    "this": 2229,
    "edo": 2230,
    "ĠOre": 2231,
    "ĠAlv": 2232,
    "if": 2233,
    "ĠVenice": 2234,
    "Ġsimulations": 2235,
    "Ġstore": 2236,
    "ppers": 2237,
    "week": 2238,
    "Ġcompete": 2239,
    "ÑĪ": 2240,
    "Ġabrupt": 2241,
    "ĠCur": 2242,
    "ĠFrancois": 2243,
    "change": 2244,
    "Ġaltern": 2245,
    "Ġceremony": 2246,
    "ĠEag": 2247,
    "Ġ05": 2248,
    "Ġstatistics": 2249,
    "Ġrepresented": 2250,
    "Ġpreseason": 2251,
    "ospital": 2252,
    "ĠOz": 2253,
    "Ġconditioning": 2254,
    "Ġmachinery": 2255,
    "winning": 2256,
    "Ġdevote": 2257,
    "Ġintoxicated": 2258,
    "amba": 2259,
    "Ġpresented": 2260,
    "ĠEgypt": 2261,
    "Ġchlor": 2262,
    "peria": 2263,
    "heimer": 2264,
    "Ġmouths": 2265,
    "Ġdownloaded": 2266,
    "bourg": 2267,
    "Index": 2268,
    "sto": 2269,
    "ĠSenate": 2270,
    "Ġtranslator": 2271,
    "ĠThink": 2272,
    "eto": 2273,
    "atus": 2274,
    "Ġ1933": 2275,
    "ĠMiche": 2276,
    "incinn": 2277,
    "loading": 2278,
    "Ġreplied": 2279,
    "Ġmatching": 2280,
    "Ġsurviving": 2281,
    "ĠKiev": 2282,
    "Ġrisky": 2283,
    "Ġ1922": 2284,
    "Ġsymbols": 2285,
    "Ġguitar": 2286,
    "oice": 2287,
    "Id": 2288,
    "Ġsuitable": 2289,
    "Ġconnects": 2290,
    "Ġingredient": 2291,
    "Ġstrict": 2292,
    "ĠChampionships": 2293,
    "Ġclashed": 2294,
    "Ġsupervised": 2295,
    "Ġarcade": 2296,
    "Ġdelegation": 2297,
    "Ġmocking": 2298,
    "ĠMuslims": 2299,
    "DonaldTrump": 2300,
    "ranging": 2301,
    "Ġblows": 2302,
    "Ġ1953": 2303,
    "Naz": 2304,
    "Ġenhance": 2305,
    "TY": 2306,
    "Ġcross": 2307,
    "Ġfeud": 2308,
    "Ġjustices": 2309,
    "Ġclassroom": 2310,
    "Ġtexts": 2311,
    "Ġmem": 2312,
    "Ġbehavioral": 2313,
    "Live": 2314,
    "ĠEther": 2315,
    "ping": 2316,
    "Ġchefs": 2317,
    "Ġsteering": 2318,
    "linked": 2319,
    "Ġwhile": 2320,
    "Ġchees": 2321,
    "Ġideas": 2322,
    "Toronto": 2323,
    "ellation": 2324,
    "Ġphrase": 2325,
    "Ġopposite": 2326,
    "Ġconsiderable": 2327,
    "ĠTeams": 2328,
    "ER": 2329,
    "ĠFriday": 2330,
    "ĠHeck": 2331,
    "ĠGonzalez": 2332,
    "ĠWong": 2333,
    "Ġbath": 2334,
    "Ġservices": 2335,
    "Ġgraphics": 2336,
    "Ġauth": 2337,
    "81": 2338,
    "Ġlecture": 2339,
    "ĠRome": 2340,
    "onian": 2341,
    "Ġbraz": 2342,
    "ĠSingapore": 2343,
    "ĠBitcoin": 2344,
    "ĠPole": 2345,
    "pun": 2346,
    "Ġblasted": 2347,
    "ĠPatterson": 2348,
    "welling": 2349,
    "ĠHistory": 2350,
    "ĠMonsters": 2351,
    "Ġathe": 2352,
    "Ġcandy": 2353,
    "10": 2354,
    "mith": 2355,
    "berg": 2356,
    "iments": 2357,
    "ĠSharks": 2358,
    "oj": 2359,
    "Ġinterior": 2360,
    "Ġshall": 2361,
    "GM": 2362,
    "ĠIndependent": 2363,
    "Ġbene": 2364,
    "Ġunsur": 2365,
    "ivas": 2366,
    "Ġdragon": 2367,
    "alla": 2368,
    "ĠTrudeau": 2369,
    "Ġinterference": 2370,
    "Cut": 2371,
    "Ġpresentation": 2372,
    "Ġalien": 2373,
    "Ġlearned": 2374,
    "ĠMyan": 2375,
    "science": 2376,
    "Ġrestoring": 2377,
    "Ġresearch": 2378,
    "Ġimpe": 2379,
    "Ġconcert": 2380,
    "Ġdelayed": 2381,
    "rifice": 2382,
    "ĠKeith": 2383,
    "ĠMont": 2384,
    "Ġexamining": 2385,
    "anza": 2386,
    "ĠBernardino": 2387,
    "Ġnegative": 2388,
    "ĠProblem": 2389,
    "adena": 2390,
    "ĠTPP": 2391,
    "lihood": 2392,
    "Ġspecimen": 2393,
    "leton": 2394,
    "ĠCars": 2395,
    "Ġyuan": 2396,
    "ertain": 2397,
    "Ġtowers": 2398,
    "Ġ20": 2399,
    "oh": 2400,
    "ĠMubarak": 2401,
    "Ġphen": 2402,
    "Ġantibodies": 2403,
    "Ġresponsible": 2404,
    "Ġinsect": 2405,
    "Sur": 2406,
    "Ġdisputed": 2407,
    "Defense": 2408,
    "ubs": 2409,
    "Ġrein": 2410,
    "real": 2411,
    "pectives": 2412,
    "Ġscarce": 2413,
    "ata": 2414,
    "ĠND": 2415,
    "Ġunc": 2416,
    "ĠCube": 2417,
    "Ġjust": 2418,
    "Ġshut": 2419,
    "Ġdelivering": 2420,
    "159": 2421,
    "ĠTele": 2422,
    "small": 2423,
    "Ġexpress": 2424,
    "ĠThur": 2425,
    "itic": 2426,
    "Ġdenying": 2427,
    "ĠHussein": 2428,
    "Ġthermal": 2429,
    "Ġbehaving": 2430,
    "ĠCavaliers": 2431,
    "Ñħ": 2432,
    "Ġmisuse": 2433,
    "ĠNeuro": 2434,
    "Ġcoy": 2435,
    "ĠMalaysian": 2436,
    "Ġrelates": 2437,
    "Ġhurdle": 2438,
    "Ġbuddies": 2439,
    "Ġoccurring": 2440,
    "Ġcreations": 2441,
    "Ġcomprises": 2442,
    "ĠGET": 2443,
    "ĠPf": 2444,
    "between": 2445,
    "ĠMAC": 2446,
    "ascus": 2447,
    "quarters": 2448,
    "rary": 2449,
    "draw": 2450,
    "olph": 2451,
    "alph": 2452,
    "ĠStein": 2453,
    "Ġarsenal": 2454,
    "ĠVisit": 2455,
    "per": 2456,
    "Ġmonk": 2457,
    "ĠSelect": 2458,
    "Market": 2459,
    "ĠGawker": 2460,
    "Ġing": 2461,
    "GB": 2462,
    "ĠRaqqa": 2463,
    "ĠRapids": 2464,
    "Ġillust": 2465,
    "Ġparas": 2466,
    "ĠGallup": 2467,
    "Ġlymph": 2468,
    "ĠFemin": 2469,
    "aka": 2470,
    "ĠMarie": 2471,
    "Ġshallow": 2472,
    "ĠJoh": 2473,
    "ĠAs": 2474,
    "53": 2475,
    "Ġphase": 2476,
    "lopp": 2477,
    "Ġarchitect": 2478,
    "olith": 2479,
    "Ġstabbed": 2480,
    "ider": 2481,
    "Ġdiscounts": 2482,
    "ĠWireless": 2483,
    "Ġlargest": 2484,
    "ident": 2485,
    "wen": 2486,
    "ĠWhat": 2487,
    "2018": 2488,
    "Muslims": 2489,
    "Ġswimming": 2490,
    "Ġflav": 2491,
    "Ġspecifically": 2492,
    "Ġbets": 2493,
    "ĠBeacon": 2494,
    "Ġcontacting": 2495,
    "Ġchair": 2496,
    "Ġ1000": 2497,
    "ĠMs": 2498,
    "erves": 2499,
    "Ġfacility": 2500,
    "Supp": 2501,
    "Ġmerged": 2502,
    "ographs": 2503,
    "Ġever": 2504,
    "itation": 2505,
    "Ġsearching": 2506,
    "Ġsimpl": 2507,
    "certain": 2508,
    "Ġstripped": 2509,
    "Ġvision": 2510,
    "Ġconfinement": 2511,
    "Ġfrequent": 2512,
    "Ġdesigners": 2513,
    "ĠCapital": 2514,
    "Ġobvious": 2515,
    "Ġbattalion": 2516,
    "ĠSheffield": 2517,
    "Ġcenters": 2518,
    "Ġepidemic": 2519,
    "Ġinforms": 2520,
    "ĠTobacco": 2521,
    "ellig": 2522,
    "Ġdiscussed": 2523,
    "No": 2524,
    "pent": 2525,
    "ĠViking": 2526,
    "ĠRock": 2527,
    "Ġpictures": 2528,
    "Ġeducated": 2529,
    "cific": 2530,
    "Ġidol": 2531,
    "ression": 2532,
    "z": 2533,
    "Ġsalary": 2534,
    "Ġfren": 2535,
    "Ġprud": 2536,
    "Ġoverturned": 2537,
    "Altern": 2538,
    "Ġ1200": 2539,
    "ĠGh": 2540,
    "ĠSchneider": 2541,
    "ĠOriginal": 2542,
    "Ġthickness": 2543,
    "âĢ¦âĢ¦": 2544,
    "ĠAnt": 2545,
    "Ġdeepest": 2546,
    "W": 2547,
    "İ": 2548,
    "Åį": 2549,
    "auc": 2550,
    "Previous": 2551,
    "Ġstif": 2552,
    "oween": 2553,
    "Ġworthless": 2554,
    "ed": 2555,
    "ĠHerman": 2556,
    "Ġimminent": 2557,
    "Ġgif": 2558,
    "Ġmodern": 2559,
    "Ġhref": 2560,
    "ĠWoods": 2561,
    "Oct": 2562,
    "Ġcompar": 2563,
    "ĠFounder": 2564,
    "Ġunsustainable": 2565,
    "ĠWhatsApp": 2566,
    "rene": 2567,
    "ĠÂĸ": 2568,
    "Ġdefence": 2569,
    "ĠPirate": 2570,
    "38": 2571,
    "Ġcompliance": 2572,
    "Ġhave": 2573,
    "Ġdoubled": 2574,
    "rators": 2575,
    "base": 2576,
    "ott": 2577,
    "keep": 2578,
    "ggles": 2579,
    "ĠSim": 2580,
    "stead": 2581,
    "ĠHonor": 2582,
    "ĠFormula": 2583,
    "Ġnavigating": 2584,
    "Ġfaster": 2585,
    "ĠVolume": 2586,
    "atra": 2587,
    "Ý": 2588,
    "aconian": 2589,
    "ĠProphet": 2590,
    "Ġbuyer": 2591,
    "Ġphilosophers": 2592,
    "ĠLSU": 2593,
    "Ġcove": 2594,
    "Ġbeats": 2595,
    "Ġwhis": 2596,
    "Comments": 2597,
    "bes": 2598,
    "Ġdepicted": 2599,
    "buck": 2600,
    "ourced": 2601,
    "Ġpolicy": 2602,
    "Ġselfie": 2603,
    "unit": 2604,
    "Ġtrailing": 2605,
    "vic": 2606,
    "ravo": 2607,
    "ĠVul": 2608,
    "Donald": 2609,
    "rogen": 2610,
    "ĠHuffPost": 2611,
    "stay": 2612,
    "erts": 2613,
    "affle": 2614,
    "Ġtrailer": 2615,
    "occ": 2616,
    "Ġdisturbed": 2617,
    "Ġadopting": 2618,
    "Ġmemories": 2619,
    "achelor": 2620,
    "ĠCitizen": 2621,
    "Ġbeg": 2622,
    "ĠFav": 2623,
    "ĠDer": 2624,
    "Mother": 2625,
    "Ġoffence": 2626,
    "ĠApplication": 2627,
    "ĠLu": 2628,
    "Ġlucky": 2629,
    "PRE": 2630,
    "ocity": 2631,
    "Ġwording": 2632,
    "Â½": 2633,
    "Ġflux": 2634,
    "rated": 2635,
    "Ġevident": 2636,
    "media": 2637,
    "Public": 2638,
    "ĠChicago": 2639,
    "Ġneurons": 2640,
    "uters": 2641,
    "your": 2642,
    "ãģĮ": 2643,
    "Word": 2644,
    "Ġrare": 2645,
    "Ġinterim": 2646,
    "and": 2647,
    "Ġblood": 2648,
    "Ġdrama": 2649,
    "Light": 2650,
    "Ġmidnight": 2651,
    "ht": 2652,
    "ĠBrett": 2653,
    "Ġfeatures": 2654,
    "Ġdef": 2655,
    "Ġcomposite": 2656,
    "ĠNOR": 2657,
    "rest": 2658,
    "Ġcolleagues": 2659,
    "Ġevil": 2660,
    "Ġprotein": 2661,
    "Ġadopt": 2662,
    "Ġcomplained": 2663,
    "ĠSara": 2664,
    "Ġanalyses": 2665,
    "Similar": 2666,
    "Ð¶": 2667,
    "mel": 2668,
    "ential": 2669,
    "ĠHear": 2670,
    "urai": 2671,
    "oyle": 2672,
    "ĠComm": 2673,
    "aro": 2674,
    "Ġwhist": 2675,
    "Ġdeterrent": 2676,
    "Ġworsh": 2677,
    "ĠPom": 2678,
    "Ġgenerating": 2679,
    "INGTON": 2680,
    "Ġonset": 2681,
    "telling": 2682,
    "ĠProspect": 2683,
    "Ġattacks": 2684,
    "odore": 2685,
    "ĠFang": 2686,
    "Ġinflicted": 2687,
    "Ġmeasures": 2688,
    "Ġlever": 2689,
    "wd": 2690,
    "Ġterrorists": 2691,
    "ĠPhilosophy": 2692,
    "ĠUSDA": 2693,
    "ĠFen": 2694,
    "Ġattain": 2695,
    "Ġslider": 2696,
    "Experts": 2697,
    "ilaterally": 2698,
    "Ġenriched": 2699,
    "Ġdead": 2700,
    "ĠBroadway": 2701,
    "Ġfirmly": 2702,
    "Ġbait": 2703,
    "ĠParish": 2704,
    "ĠLicense": 2705,
    "Ġdetermine": 2706,
    "AGE": 2707,
    "ervice": 2708,
    "ophobic": 2709,
    "Ġlegal": 2710,
    "ĠRah": 2711,
    "ĠBY": 2712,
    "William": 2713,
    "ĠPanthers": 2714,
    "avez": 2715,
    "Ġleather": 2716,
    "ĠTottenham": 2717,
    "Ġaliens": 2718,
    "Ġfragile": 2719,
    "ĠWOR": 2720,
    "ĠHawai": 2721,
    "Ġschemes": 2722,
    "hen": 2723,
    "Ġinstruments": 2724,
    "lio": 2725,
    "Ġspacecraft": 2726,
    "Ġpainting": 2727,
    "orm": 2728,
    "Ġscrutin": 2729,
    "rough": 2730,
    "Ġcylinder": 2731,
    "Ġflows": 2732,
    "pr": 2733,
    "Ġfu": 2734,
    "Ġante": 2735,
    "uch": 2736,
    "rian": 2737,
    "iple": 2738,
    "oid": 2739,
    "ĠAustral": 2740,
    "ĠIniti": 2741,
    "Ġchanging": 2742,
    "ĠNotre": 2743,
    "Ġrainbow": 2744,
    "Ġnamely": 2745,
    "Ġoccas": 2746,
    "addafi": 2747,
    "Ġcrash": 2748,
    "Ġfade": 2749,
    "Ġqu": 2750,
    "Ġbare": 2751,
    "Ġmines": 2752,
    "sponsored": 2753,
    "cious": 2754,
    "Ġpipe": 2755,
    "ĠMall": 2756,
    "ĠResp": 2757,
    "ĠFC": 2758,
    "ĠUnic": 2759,
    "pared": 2760,
    "sel": 2761,
    "Ġ95": 2762,
    "ĠMcGregor": 2763,
    "Ġunst": 2764,
    "Ġsharks": 2765,
    "ans": 2766,
    "ages": 2767,
    "Ġengines": 2768,
    "Ġsentencing": 2769,
    "Ġdismant": 2770,
    "file": 2771,
    "Michel": 2772,
    "Where": 2773,
    "ĠHDMI": 2774,
    "Ġcourtesy": 2775,
    "ĠNewport": 2776,
    "ĠGust": 2777,
    "pless": 2778,
    "Ġproductivity": 2779,
    "ĠChaos": 2780,
    "ĠSad": 2781,
    "Ġaerial": 2782,
    "born": 2783,
    "Ġplate": 2784,
    "plete": 2785,
    "isible": 2786,
    "Ġtook": 2787,
    "Ġunreal": 2788,
    "Ha": 2789,
    "Ġtransferring": 2790,
    "olation": 2791,
    "ĠDort": 2792,
    "Ġfol": 2793,
    "Ġopaque": 2794,
    "rier": 2795,
    "Ġcaste": 2796,
    "abling": 2797,
    "Ġshops": 2798,
    "Ġperenn": 2799,
    "Ġdrained": 2800,
    "bright": 2801,
    "ĠOber": 2802,
    "bra": 2803,
    "Ġveil": 2804,
    "Ġnurt": 2805,
    "rip": 2806,
    "Ġissues": 2807,
    "ĠIndex": 2808,
    "Ġperpetrated": 2809,
    "Ġchallenging": 2810,
    "Ġcampaign": 2811,
    "Going": 2812,
    "ĠYou": 2813,
    "Ġconflicting": 2814,
    "imo": 2815,
    "medi": 2816,
    "cia": 2817,
    "ĉ": 2818,
    "Ġbelonging": 2819,
    "ĠChrome": 2820,
    "ĠBaghdad": 2821,
    "hower": 2822,
    "ĠRaq": 2823,
    "Ġsucceeds": 2824,
    "ĠDoctors": 2825,
    "irie": 2826,
    "oft": 2827,
    "hom": 2828,
    "Ġturnover": 2829,
    "Ġarrival": 2830,
    "Without": 2831,
    "Ġattributes": 2832,
    "ĠInnov": 2833,
    "Ġcheapest": 2834,
    "ĠCul": 2835,
    "lein": 2836,
    "Ġstayed": 2837,
    "Ġmindset": 2838,
    "gomery": 2839,
    "Ġmess": 2840,
    "Ġplainly": 2841,
    "Ġtrapped": 2842,
    "player": 2843,
    "asis": 2844,
    "Ġyes": 2845,
    "Ġautomation": 2846,
    "Health": 2847,
    "Action": 2848,
    "Ġthought": 2849,
    "Ġprogressive": 2850,
    "atered": 2851,
    "sc": 2852,
    "ĠRew": 2853,
    "Ġregister": 2854,
    "With": 2855,
    "Ġorganization": 2856,
    "Ġresilient": 2857,
    "Ġaccounting": 2858,
    "ĠREL": 2859,
    "ĠDou": 2860,
    "Ġeconomics": 2861,
    "ĠFate": 2862,
    "Ġamp": 2863,
    "Ġacquitted": 2864,
    "inoids": 2865,
    "Ġoverlap": 2866,
    "Ġexercise": 2867,
    "iq": 2868,
    "Ġthereof": 2869,
    "ventional": 2870,
    "Ġstamps": 2871,
    "ĠDell": 2872,
    "ĠComp": 2873,
    "ĠSpirit": 2874,
    "atsu": 2875,
    "ĠFI": 2876,
    "ĠSNP": 2877,
    "Ġoun": 2878,
    "Ġrates": 2879,
    "Ġclust": 2880,
    "ĠViktor": 2881,
    "tail": 2882,
    "Ġsponsor": 2883,
    "ĠIndust": 2884,
    "Ġfueled": 2885,
    "Ġclutch": 2886,
    "ĠABC": 2887,
    "Ġevacuation": 2888,
    "ĠOrtiz": 2889,
    "Ġdecline": 2890,
    "Ġcontent": 2891,
    "Ġsimpler": 2892,
    "Ġexclud": 2893,
    "Ġcinematic": 2894,
    "idan": 2895,
    "Ġamnesty": 2896,
    "Ġheritage": 2897,
    "closed": 2898,
    "istical": 2899,
    "ĠLum": 2900,
    "needed": 2901,
    "ĠSK": 2902,
    "ĠThan": 2903,
    "hard": 2904,
    "ĠPass": 2905,
    "Ġdeadlines": 2906,
    "ĠSwiss": 2907,
    "Uk": 2908,
    "Ġsane": 2909,
    "ĠÃ®": 2910,
    "ĠFul": 2911,
    "Ġaccepts": 2912,
    "Ġgovernment": 2913,
    "Ġquietly": 2914,
    "McC": 2915,
    "ORT": 2916,
    "Ġgeographic": 2917,
    "Ġplastic": 2918,
    "Ġhide": 2919,
    "pering": 2920,
    "Ġgraves": 2921,
    "Ġpossessions": 2922,
    "ĠWalton": 2923,
    "Ġcharm": 2924,
    "Ġreactions": 2925,
    "Ġcomfortable": 2926,
    "Ohio": 2927,
    "Ġascent": 2928,
    "Ġrip": 2929,
    "Ġdeton": 2930,
    "Ġweighing": 2931,
    "Ġnephew": 2932,
    "Ġmessy": 2933,
    "Ġworms": 2934,
    "Ġclot": 2935,
    "Ġdesirable": 2936,
    "Ġelection": 2937,
    "Ġapology": 2938,
    "Ġjacket": 2939,
    "Ġdetails": 2940,
    "Ġunsure": 2941,
    "aaaa": 2942,
    "ux": 2943,
    "Ġmagic": 2944,
    "Ġtwitter": 2945,
    "hed": 2946,
    "ĠEconomics": 2947,
    "ĠMovie": 2948,
    "ollow": 2949,
    "Ķ": 2950,
    "ĠTSA": 2951,
    "Ġdying": 2952,
    "Ġshine": 2953,
    "Ġprohibiting": 2954,
    "Ġshortened": 2955,
    "By": 2956,
    "Ġinforming": 2957,
    "osit": 2958,
    "google": 2959,
    "ay": 2960,
    "Ġboosting": 2961,
    "ĠRodgers": 2962,
    "asia": 2963,
    "Ġbriefing": 2964,
    "Ġsettlements": 2965,
    "ĠNicolas": 2966,
    "Ġlistened": 2967,
    "ĠHannah": 2968,
    "Ġattraction": 2969,
    "Additional": 2970,
    "Ġpayment": 2971,
    "Ġglaciers": 2972,
    "urred": 2973,
    "Pan": 2974,
    "ont": 2975,
    "33": 2976,
    "Ġconspic": 2977,
    "Ġpersecut": 2978,
    "ĠPublished": 2979,
    "ĠPhillip": 2980,
    "Ġoffender": 2981,
    "Ġdysfunctional": 2982,
    "Brien": 2983,
    "ĠPrest": 2984,
    "ĠPerfect": 2985,
    "Ġaloud": 2986,
    "ĠBh": 2987,
    "Ġtextbooks": 2988,
    "usp": 2989,
    "upiter": 2990,
    "Ġtranscend": 2991,
    "emon": 2992,
    "ĠOwn": 2993,
    "ope": 2994,
    "RS": 2995,
    "Ġprem": 2996,
    "Ġsne": 2997,
    "Ġurge": 2998,
    "Ġski": 2999,
    "Ġeste": 3000,
    "Ġdecay": 3001,
    "appropri": 3002,
    "Ġimproving": 3003,
    "ĠHolmes": 3004,
    "Ġcapita": 3005,
    "ats": 3006,
    "ivists": 3007,
    "ICS": 3008,
    "Ġqueen": 3009,
    "ĠConference": 3010,
    "ĠPS": 3011,
    "Ġmonstrous": 3012,
    "dep": 3013,
    "o": 3014,
    "ĠCIA": 3015,
    "Ġreinvent": 3016,
    "Ġwounds": 3017,
    "France": 3018,
    "Ġseparation": 3019,
    "ĠKings": 3020,
    "Ġ1931": 3021,
    "These": 3022,
    "ĠSN": 3023,
    "Ġwon": 3024,
    "Ġpractices": 3025,
    "Ġnarr": 3026,
    "ĠStewart": 3027,
    "Ġarter": 3028,
    "ĠBritish": 3029,
    "Ġstabil": 3030,
    "encia": 3031,
    "ĠPrinc": 3032,
    "ĠImp": 3033,
    "Ġdoubtful": 3034,
    "Ġfict": 3035,
    "Ġsunny": 3036,
    "Ġincomes": 3037,
    "ĠAlfred": 3038,
    "ĠGalaxy": 3039,
    "Gold": 3040,
    "eca": 3041,
    "Ġcounterparts": 3042,
    "Calif": 3043,
    "Ġclicking": 3044,
    "ĠCooper": 3045,
    "({": 3046,
    "ĠCreator": 3047,
    "ĠHuawei": 3048,
    "Ġshocking": 3049,
    "Ġforgotten": 3050,
    "Start": 3051,
    "igration": 3052,
    "Ġstair": 3053,
    "Ġrandomized": 3054,
    "Ġinfrared": 3055,
    "ĠKr": 3056,
    "apor": 3057,
    "Ġoutlook": 3058,
    "ĠÐ¼": 3059,
    "ĠBengal": 3060,
    "urp": 3061,
    "lasses": 3062,
    "ĠPolitico": 3063,
    "ĠAllison": 3064,
    "secret": 3065,
    "Ġredesign": 3066,
    "Ġdispat": 3067,
    "eprint": 3068,
    "Ġdefic": 3069,
    "ĠMit": 3070,
    "ĠParticip": 3071,
    "secution": 3072,
    "Ġbelieves": 3073,
    "Ġheterosexual": 3074,
    "Ġ59": 3075,
    "ĠPoe": 3076,
    "Ġaltered": 3077,
    "Ġpredictions": 3078,
    "Sex": 3079,
    "Ġluc": 3080,
    "itution": 3081,
    "Ġexpectancy": 3082,
    "ĠCoff": 3083,
    "Ġengage": 3084,
    "Ġrepression": 3085,
    "Ġleverage": 3086,
    "move": 3087,
    "Ġcontribution": 3088,
    "stal": 3089,
    "Ġcomputers": 3090,
    "Ġabsolute": 3091,
    "Ġbunch": 3092,
    "Ġcivilization": 3093,
    "ĠComment": 3094,
    "Ġsom": 3095,
    "ĠRamadan": 3096,
    "ĠHe": 3097,
    "Ġcategories": 3098,
    "ĠMLB": 3099,
    "Ġflames": 3100,
    "Ġoverwhelmed": 3101,
    "Ġconsolidated": 3102,
    "ĠCre": 3103,
    "Ġsymp": 3104,
    "Question": 3105,
    "ĠMich": 3106,
    "Ġtweets": 3107,
    "ĠREST": 3108,
    "Ġ..........": 3109,
    "Ġcricket": 3110,
    "Size": 3111,
    "Ġartistic": 3112,
    "Ġnuanced": 3113,
    "airy": 3114,
    "ĠRaf": 3115,
    "Ġdeciding": 3116,
    "Ġdangerous": 3117,
    "cess": 3118,
    "ibly": 3119,
    "But": 3120,
    "âĢĻ.": 3121,
    "Ġbland": 3122,
    "Ġsins": 3123,
    "Ġrenamed": 3124,
    "ĠPizza": 3125,
    "ĠGmail": 3126,
    "Ġlimitation": 3127,
    "Ġmarketplace": 3128,
    "Ġ(âĢľ": 3129,
    "ĠTitle": 3130,
    "ĠFront": 3131,
    "ounced": 3132,
    "Ġsecured": 3133,
    "ANS": 3134,
    "Ġceiling": 3135,
    "emade": 3136,
    "polit": 3137,
    "ĠBorder": 3138,
    "Ġtranspl": 3139,
    "ĠSnap": 3140,
    "airo": 3141,
    "Ġadolesc": 3142,
    "MP": 3143,
    "Ġplasma": 3144,
    "Ġpromoting": 3145,
    "Ġnineteenth": 3146,
    "ĠMemorial": 3147,
    "Ġincidents": 3148,
    "Ġconveniently": 3149,
    "pan": 3150,
    "pse": 3151,
    "Ġvegetable": 3152,
    "ĠSketch": 3153,
    "ĠGotham": 3154,
    "ĠWitness": 3155,
    "Ġspinning": 3156,
    "Ġattack": 3157,
    "ĠDivine": 3158,
    "alties": 3159,
    "Ġhere": 3160,
    "bage": 3161,
    "pherd": 3162,
    "Ġprotected": 3163,
    "Ġnothing": 3164,
    "ĠProgress": 3165,
    "ĠConnecticut": 3166,
    "Ġremainder": 3167,
    "Ġhttps": 3168,
    "ive": 3169,
    "PU": 3170,
    "oulder": 3171,
    "Ġenthusiasts": 3172,
    "Ġworth": 3173,
    "Ġformidable": 3174,
    "ĠFr": 3175,
    "Cola": 3176,
    "Ã": 3177,
    "evil": 3178,
    "Ġslaves": 3179,
    "Ġspike": 3180,
    "Ġnode": 3181,
    "Ġtooth": 3182,
    "Ġbees": 3183,
    "ass": 3184,
    "Ġeleph": 3185,
    "ĠJournalism": 3186,
    "sts": 3187,
    "ieu": 3188,
    "author": 3189,
    "Ġcaptivity": 3190,
    "ĠWaters": 3191,
    "Ġmoved": 3192,
    "Ġfruits": 3193,
    "apego": 3194,
    "Ġtimely": 3195,
    "Ġthrew": 3196,
    "AV": 3197,
    "Ġcontrad": 3198,
    "ĠProvince": 3199,
    "Ġ911": 3200,
    "asive": 3201,
    "Ġprominent": 3202,
    "about": 3203,
    "Ġkeyboard": 3204,
    "Ġswallow": 3205,
    "ethyl": 3206,
    "Ġinvolves": 3207,
    "Ġpolicing": 3208,
    "ĠMoss": 3209,
    "ĠVillage": 3210,
    "Ġdesperate": 3211,
    "Ġcommunications": 3212,
    "uba": 3213,
    "Ġfoes": 3214,
    "Ġtang": 3215,
    "ĠApost": 3216,
    "Ġrelentless": 3217,
    "Ġwarned": 3218,
    "Ġoverwhelmingly": 3219,
    "KA": 3220,
    "Ġinj": 3221,
    "Ġju": 3222,
    "Ġanalys": 3223,
    "From": 3224,
    "MR": 3225,
    "ĠGors": 3226,
    "Ġconstitu": 3227,
    "Ġobligation": 3228,
    "Ġstance": 3229,
    "Ġcontinued": 3230,
    "inks": 3231,
    "Ġgrenades": 3232,
    "Ġweakening": 3233,
    "arding": 3234,
    "Ġoptional": 3235,
    "ĠWu": 3236,
    "Ġreversing": 3237,
    "Ġagainst": 3238,
    "Ġmyst": 3239,
    "Ġdigest": 3240,
    "ĠMeh": 3241,
    "ĠAddress": 3242,
    "ĠKeys": 3243,
    "Ġauthorize": 3244,
    "Ġreservations": 3245,
    "ĠKosovo": 3246,
    "izable": 3247,
    "Ġstones": 3248,
    "Ġadministered": 3249,
    "nine": 3250,
    "Ġsuperst": 3251,
    "111": 3252,
    "ĠCit": 3253,
    "Ġ\"/": 3254,
    "Ġeuros": 3255,
    "Med": 3256,
    "ĠCalvin": 3257,
    "Ġreproduce": 3258,
    "âĶĢâĶĢâĶĢâĶĢ": 3259,
    "Ġpitcher": 3260,
    "ĠBan": 3261,
    "ĠLanka": 3262,
    "ĠInd": 3263,
    "lin": 3264,
    "Ġwillingness": 3265,
    "ĠStart": 3266,
    "oped": 3267,
    "ĠISIS": 3268,
    "Ŀ": 3269,
    "azor": 3270,
    "ramble": 3271,
    "Ġpled": 3272,
    "Ġclerk": 3273,
    "ĠSword": 3274,
    "ĠDisc": 3275,
    "ĠSupport": 3276,
    "uously": 3277,
    "Ġkid": 3278,
    "Ġgate": 3279,
    "update": 3280,
    "Ġstrategist": 3281,
    "Ġcrack": 3282,
    "build": 3283,
    "useum": 3284,
    "Ġfavorable": 3285,
    "Ġjun": 3286,
    "ĠMontgomery": 3287,
    "ĠScandinav": 3288,
    "witzerland": 3289,
    "ĠPaul": 3290,
    "Ġframeworks": 3291,
    "Ġben": 3292,
    "assing": 3293,
    "Ġhierarchy": 3294,
    "ella": 3295,
    "Ġbreakthrough": 3296,
    "Ġaudition": 3297,
    "Ġcivilians": 3298,
    "Ġdependent": 3299,
    "bedroom": 3300,
    "upid": 3301,
    "verett": 3302,
    "Ġtechnician": 3303,
    "ĠSystems": 3304,
    "page": 3305,
    "ĠGarc": 3306,
    "ogan": 3307,
    "Ġwithdrew": 3308,
    "ĠRo": 3309,
    "vin": 3310,
    "Ġprecarious": 3311,
    "Ġforbid": 3312,
    "urst": 3313,
    "largest": 3314,
    "ldon": 3315,
    "Ġvertically": 3316,
    "ilitating": 3317,
    "Furthermore": 3318,
    "ĠLevin": 3319,
    "Ġdismay": 3320,
    "Ġdeterior": 3321,
    "Ġinjust": 3322,
    "ĠA": 3323,
    "Ġmodified": 3324,
    "Ġdress": 3325,
    "Ġstomach": 3326,
    "ĠNag": 3327,
    "Ĥ": 3328,
    "Ġ),": 3329,
    "Ġcontacts": 3330,
    "Ġbreasts": 3331,
    "Ġsum": 3332,
    "ĠGeor": 3333,
    "ĠTennessee": 3334,
    "Ġprost": 3335,
    "Ġpuls": 3336,
    "Ġassembled": 3337,
    "ounty": 3338,
    "Ġpron": 3339,
    "izer": 3340,
    "Ġpolled": 3341,
    "endas": 3342,
    "ĠStack": 3343,
    "ricks": 3344,
    "stones": 3345,
    "ĠSergio": 3346,
    "uthor": 3347,
    "Ġinsists": 3348,
    "Ġnotebook": 3349,
    "Ġveteran": 3350,
    "Ġremn": 3351,
    "Ġassail": 3352,
    "Ġ3": 3353,
    "âĢĻ": 3354,
    ".\"": 3355,
    "ĠAbdul": 3356,
    "ĠCrowd": 3357,
    "hn": 3358,
    "ĠId": 3359,
    "Michael": 3360,
    "Ġexagger": 3361,
    "Ġplates": 3362,
    "Ġscore": 3363,
    "cz": 3364,
    "ĠFrom": 3365,
    "Ġtentative": 3366,
    "mented": 3367,
    "ĠBrain": 3368,
    "ĠWeiner": 3369,
    "lling": 3370,
    "Ġarms": 3371,
    "Ġsadness": 3372,
    "ĠHol": 3373,
    "Ġspect": 3374,
    "querque": 3375,
    "cigarettes": 3376,
    "ĠOpportunity": 3377,
    "Ġ1978": 3378,
    "ĠDamascus": 3379,
    "Ġmodules": 3380,
    "ĠLyft": 3381,
    "Ġindic": 3382,
    "Ġknowledge": 3383,
    "isson": 3384,
    "ĠBelle": 3385,
    "ĠVW": 3386,
    "Ġrunway": 3387,
    "ĠBattery": 3388,
    "emporary": 3389,
    "ĠDavid": 3390,
    "Ġillness": 3391,
    "ancing": 3392,
    "ĠCreate": 3393,
    "Ġconfessed": 3394,
    "ĠBruins": 3395,
    "Ġfertility": 3396,
    "ĠBarcelona": 3397,
    "iona": 3398,
    "Ġbreat": 3399,
    "ĠLater": 3400,
    "char": 3401,
    "Ġcolored": 3402,
    "vertise": 3403,
    "Ġhindsight": 3404,
    "Ġinsult": 3405,
    "ĠSequ": 3406,
    "Ġ28": 3407,
    "ĠÏĦ": 3408,
    "Ġpercentages": 3409,
    "Ġkeys": 3410,
    "Ġmysteries": 3411,
    "Ġlatter": 3412,
    "Ġsci": 3413,
    "Ġdisruption": 3414,
    "Sing": 3415,
    "Â±": 3416,
    "iler": 3417,
    "BD": 3418,
    "Ġincumbent": 3419,
    "âĸł": 3420,
    "Ġtam": 3421,
    "Ġshel": 3422,
    "Ġproving": 3423,
    "mails": 3424,
    "Ġministers": 3425,
    "ishes": 3426,
    "prot": 3427,
    "Ġmoder": 3428,
    "ĠChallenge": 3429,
    "ĠGill": 3430,
    "Ġ400": 3431,
    "Ġfrustration": 3432,
    "Ġng": 3433,
    "Ġfemales": 3434,
    "Ġalarming": 3435,
    "Second": 3436,
    "Ġloving": 3437,
    "Ġtournament": 3438,
    "Ġcounties": 3439,
    "Ġamounted": 3440,
    "ĠZimbabwe": 3441,
    "Ġignorance": 3442,
    "Ġprolonged": 3443,
    "kan": 3444,
    "ĠStudent": 3445,
    "Ġshareholders": 3446,
    "Ġinc": 3447,
    "iners": 3448,
    "Ġhoped": 3449,
    "ĠKa": 3450,
    "Ġsure": 3451,
    "ĠNiet": 3452,
    "respect": 3453,
    "ĠValent": 3454,
    "Ġbecome": 3455,
    "Ġdisadvantage": 3456,
    "ĠRestaur": 3457,
    "Ġendurance": 3458,
    "Ġcomet": 3459,
    "eh": 3460,
    "Ġpaints": 3461,
    "Ġoverc": 3462,
    "Ġanchor": 3463,
    "Ġunfairly": 3464,
    "Ġlaw": 3465,
    "Ġinteresting": 3466,
    "Ġcultivated": 3467,
    "unks": 3468,
    "ĠLite": 3469,
    "Ġmarry": 3470,
    "Ġmelt": 3471,
    "Ġimpacts": 3472,
    "Ġresidency": 3473,
    "ĠDraw": 3474,
    "imps": 3475,
    "akers": 3476,
    "Ġtha": 3477,
    "Ġemissions": 3478,
    "Ġsmoke": 3479,
    "ĠCons": 3480,
    "Ġteeth": 3481,
    "Ġseeking": 3482,
    "ĠMitch": 3483,
    "Ġcommunicate": 3484,
    "Ġexperienced": 3485,
    "ĠNobel": 3486,
    "Ġredef": 3487,
    "bits": 3488,
    "ulas": 3489,
    "Ġlear": 3490,
    "ĠExaminer": 3491,
    "afety": 3492,
    "Ġexploits": 3493,
    "ĠInc": 3494,
    "ĠMcGu": 3495,
    "ĠLane": 3496,
    "ĠHole": 3497,
    "Ġadvocacy": 3498,
    "Ġpatent": 3499,
    "Find": 3500,
    "ĠEnterprise": 3501,
    "ready": 3502,
    "Ġcivil": 3503,
    "iami": 3504,
    "Ġsymbolic": 3505,
    "paper": 3506,
    "Ġproc": 3507,
    "Ġpitchers": 3508,
    "edience": 3509,
    "ience": 3510,
    "ĠLady": 3511,
    "Ġelementary": 3512,
    "Ġinspiring": 3513,
    "Ġglyph": 3514,
    "Ġdemands": 3515,
    "ĠHak": 3516,
    "Ġbehalf": 3517,
    "Ġwelcoming": 3518,
    "Ġbreathe": 3519,
    "Ġleaf": 3520,
    "oston": 3521,
    "ken": 3522,
    "ĠâĪ": 3523,
    "ĠEmergency": 3524,
    "Hard": 3525,
    "Ġtoilet": 3526,
    "Ġpie": 3527,
    "ĠSpurs": 3528,
    "Government": 3529,
    "Ġcampus": 3530,
    "BO": 3531,
    "ucky": 3532,
    "AP": 3533,
    "Ġinvasive": 3534,
    "Ġap": 3535,
    "ĠKB": 3536,
    "Ġsave": 3537,
    "chant": 3538,
    "Ġinhabit": 3539,
    "2015": 3540,
    "Ġdetermination": 3541,
    "Ph": 3542,
    "Ġundergraduate": 3543,
    "Ġlively": 3544,
    "hum": 3545,
    "P": 3546,
    "Ġinsist": 3547,
    "ates": 3548,
    "Ġdiscontent": 3549,
    "ĠSandra": 3550,
    "iam": 3551,
    "enced": 3552,
    "Ġsail": 3553,
    "Ġsetting": 3554,
    "Ġrude": 3555,
    "iously": 3556,
    "Ġsing": 3557,
    "Why": 3558,
    "Ġsuff": 3559,
    "Ġinstant": 3560,
    "Ġfreed": 3561,
    "ĠUsually": 3562,
    "uo": 3563,
    "Inst": 3564,
    "rises": 3565,
    "two": 3566,
    "retched": 3567,
    "ĠWATCH": 3568,
    "ĠBelfast": 3569,
    "Ġbarriers": 3570,
    "Much": 3571,
    "Ġbombing": 3572,
    "Ġhighest": 3573,
    "ĠNordic": 3574,
    "ĠMacBook": 3575,
    "Ġjoy": 3576,
    "ĠAngeles": 3577,
    "Ġmater": 3578,
    "Ġstructured": 3579,
    "Ġgrievances": 3580,
    "enger": 3581,
    "leum": 3582,
    "stars": 3583,
    "ĠCave": 3584,
    "mobile": 3585,
    "Off": 3586,
    "acy": 3587,
    "ĠSorry": 3588,
    "Br": 3589,
    "Ġarise": 3590,
    "ĠEisenhower": 3591,
    "Ġsleek": 3592,
    "Ġensl": 3593,
    "Ġsuscept": 3594,
    "ĠDemon": 3595,
    "MW": 3596,
    "squ": 3597,
    "Charles": 3598,
    "Ġdangers": 3599,
    "ĠAgr": 3600,
    "OND": 3601,
    "opoulos": 3602,
    "Ġassociated": 3603,
    "ĠSox": 3604,
    "ĠAnaheim": 3605,
    "imming": 3606,
    "ĠWillie": 3607,
    "ipment": 3608,
    "Ġdates": 3609,
    "nan": 3610,
    "Ġconducted": 3611,
    "auf": 3612,
    "ochond": 3613,
    "ĠDodd": 3614,
    "kes": 3615,
    "Ġemotional": 3616,
    "AND": 3617,
    "ĠKil": 3618,
    "Ap": 3619,
    "ally": 3620,
    "Ġhig": 3621,
    "Ġpitched": 3622,
    "Ġcounselor": 3623,
    "Ġeverything": 3624,
    "Ġclosing": 3625,
    "Ġtasks": 3626,
    "Ġracket": 3627,
    "Ġumbrella": 3628,
    "Ġevents": 3629,
    "Ġdioxide": 3630,
    "Ġ38": 3631,
    "eligible": 3632,
    "Ġbattled": 3633,
    "Ġbug": 3634,
    "ĠLeft": 3635,
    "Ġblend": 3636,
    "images": 3637,
    "Ġconcerted": 3638,
    "ĠJoan": 3639,
    "Ġdogs": 3640,
    "Ġvitamins": 3641,
    "ĠFelix": 3642,
    "ickers": 3643,
    "Ġfundraiser": 3644,
    "Life": 3645,
    "ĠBurr": 3646,
    "ĠWorth": 3647,
    "Ġpic": 3648,
    "Ġresil": 3649,
    "ĠHappy": 3650,
    "Ġble": 3651,
    "Ġcater": 3652,
    "Ġstudio": 3653,
    "Ġcards": 3654,
    "Ġawesome": 3655,
    "Ġpriorit": 3656,
    "Ġaccompl": 3657,
    "Ġ900": 3658,
    "ĠMicro": 3659,
    "idel": 3660,
    "Ġdifferential": 3661,
    "Ġdisastrous": 3662,
    "ivia": 3663,
    "ĠJerusalem": 3664,
    "ĠWall": 3665,
    "Old": 3666,
    "Ġmisery": 3667,
    "Ġstabbing": 3668,
    "uten": 3669,
    "ĠCand": 3670,
    "Ġspying": 3671,
    "m": 3672,
    "Information": 3673,
    "ob": 3674,
    "Ġgames": 3675,
    "Ġmonop": 3676,
    "Ġpun": 3677,
    "ĠCutler": 3678,
    "ĠFoot": 3679,
    "Ġturns": 3680,
    "Sham": 3681,
    "Ware": 3682,
    "Ġturb": 3683,
    "Ġmembers": 3684,
    "Ġfle": 3685,
    "eals": 3686,
    "ists": 3687,
    "ĠYoung": 3688,
    "Ġgram": 3689,
    "à¦": 3690,
    "Ġmit": 3691,
    "Ġsulf": 3692,
    "cell": 3693,
    "Ġsafeguard": 3694,
    "ski": 3695,
    "Ġbandwidth": 3696,
    "ĠDiane": 3697,
    "Ġcow": 3698,
    "Ð½Ð°": 3699,
    "Ġmainstream": 3700,
    "Ġgrapp": 3701,
    "ĠAbr": 3702,
    "oken": 3703,
    "ĠNetflix": 3704,
    "zbollah": 3705,
    "ĠKirk": 3706,
    "Ġmalicious": 3707,
    "Ġvolunt": 3708,
    "64": 3709,
    "ĠDA": 3710,
    "Ġunchanged": 3711,
    "ĠLebanese": 3712,
    "Ġ1974": 3713,
    "Ġdoses": 3714,
    "rix": 3715,
    "Ġevidenced": 3716,
    "brand": 3717,
    "Ġportrayal": 3718,
    "how": 3719,
    "Ġcircumst": 3720,
    "opsis": 3721,
    "Ġslapped": 3722,
    "Ġkey": 3723,
    "fitting": 3724,
    "Ġassistants": 3725,
    "ilingual": 3726,
    "y": 3727,
    "Ġ215": 3728,
    "aby": 3729,
    "Ġsuccumb": 3730,
    "Ġstreet": 3731,
    "Ġsituation": 3732,
    "Ġmemor": 3733,
    "Ġpermission": 3734,
    "enh": 3735,
    "Ġtyping": 3736,
    "ĠAle": 3737,
    "uro": 3738,
    "Ġracist": 3739,
    "Ġlifestyle": 3740,
    "Ġbinding": 3741,
    "Ġman": 3742,
    "Ġcouldn": 3743,
    "ĠParks": 3744,
    "2017": 3745,
    "ĠAub": 3746,
    "Ġbankers": 3747,
    "Ġhefty": 3748,
    "Ġpreview": 3749,
    "Federal": 3750,
    "Ġplaybook": 3751,
    "Ġglobe": 3752,
    "ĠISS": 3753,
    "iter": 3754,
    "Ġtotally": 3755,
    "ĠPortland": 3756,
    "search": 3757,
    "ropolitan": 3758,
    "Ġocc": 3759,
    "hem": 3760,
    "ĠPub": 3761,
    "Ġquestionable": 3762,
    "rising": 3763,
    "alt": 3764,
    "FK": 3765,
    "ĠTC": 3766,
    "Ġscouts": 3767,
    "ĠAud": 3768,
    "Ġseaf": 3769,
    "comed": 3770,
    "R": 3771,
    "arson": 3772,
    "Ġendorsement": 3773,
    "Ġcertified": 3774,
    "Ġplugins": 3775,
    "Ġgust": 3776,
    "Taylor": 3777,
    "ĠIr": 3778,
    "ĠSexual": 3779,
    "ĠArticle": 3780,
    "Ġlegalizing": 3781,
    "Ġdwind": 3782,
    "Ġlaundering": 3783,
    "money": 3784,
    "Ġroyalty": 3785,
    "ĠSteven": 3786,
    "ural": 3787,
    "json": 3788,
    "Ġnick": 3789,
    "Ġconvention": 3790,
    "Ġwishes": 3791,
    "ashing": 3792,
    "Mr": 3793,
    "Based": 3794,
    "Ġthous": 3795,
    "Ġbacter": 3796,
    "Ġcolumnist": 3797,
    "ctica": 3798,
    "Ġlogic": 3799,
    "Ġpale": 3800,
    "Ġheadline": 3801,
    "Ġexpon": 3802,
    "Ġwarehouse": 3803,
    "ĠAccept": 3804,
    "ĠâĢŀ": 3805,
    "order": 3806,
    "Step": 3807,
    "ĠÃł": 3808,
    "Ġpossibilities": 3809,
    "Exception": 3810,
    "ĠCoin": 3811,
    "ĠHopkins": 3812,
    "Ġstomp": 3813,
    "Ġrecre": 3814,
    "Ġdomains": 3815,
    "acre": 3816,
    "ilian": 3817,
    "Have": 3818,
    "ELL": 3819,
    "Ġbroader": 3820,
    "Ġdelicate": 3821,
    "ĠMarty": 3822,
    "Ġoutright": 3823,
    "Ġdetective": 3824,
    "ĠMurder": 3825,
    "Ġph": 3826,
    "Sty": 3827,
    "http": 3828,
    "Ġpresenter": 3829,
    "antic": 3830,
    "pard": 3831,
    "ĠTel": 3832,
    "Ġtestament": 3833,
    "Ġtill": 3834,
    "ikhail": 3835,
    "ico": 3836,
    "alion": 3837,
    "Ġrhythm": 3838,
    "Ġeth": 3839,
    "four": 3840,
    "Ġrelocate": 3841,
    "Ġstronghold": 3842,
    "Ġinvestment": 3843,
    "vernment": 3844,
    "Ġgruesome": 3845,
    "Ġeconomically": 3846,
    "Ġskipping": 3847,
    "stock": 3848,
    "Ġwhipped": 3849,
    "Ġglam": 3850,
    "Ġdevastating": 3851,
    "ĠCalder": 3852,
    "ped": 3853,
    "ore": 3854,
    "Ġlobby": 3855,
    "ĠGreece": 3856,
    "Ġundefeated": 3857,
    "cribed": 3858,
    "Ġcontinuing": 3859,
    "Ġprosecute": 3860,
    "upert": 3861,
    "Ġthen": 3862,
    "Via": 3863,
    "Ġlex": 3864,
    "Ġfluor": 3865,
    "Ġinstead": 3866,
    "ĠDar": 3867,
    "Ġbad": 3868,
    "ologne": 3869,
    "ĠTrail": 3870,
    "ĠUrban": 3871,
    "Ġaboard": 3872,
    "Ġeup": 3873,
    "Ġgoverning": 3874,
    "Ġvocabulary": 3875,
    "Ġincredible": 3876,
    "Ġinvested": 3877,
    "ĠVault": 3878,
    "Ġincarnation": 3879,
    "Ġfemin": 3880,
    "Ġdisabled": 3881,
    "orton": 3882,
    "âĢĵâĢĵ": 3883,
    "Ġtrunk": 3884,
    "Ġscrambled": 3885,
    "Ġutility": 3886,
    "Ġartifacts": 3887,
    "Ġmic": 3888,
    "Ġaccording": 3889,
    "Ġbrewing": 3890,
    "ĠKremlin": 3891,
    "Ġunable": 3892,
    "Ġreligion": 3893,
    "Ġlegalization": 3894,
    "img": 3895,
    "Ġresemblance": 3896,
    "ĠAlvarez": 3897,
    "planes": 3898,
    "ĠPakistan": 3899,
    "ĠLoad": 3900,
    "Ġbribery": 3901,
    "ĠOliver": 3902,
    "Ġprotagonist": 3903,
    "Ġunderstandably": 3904,
    "Ġmachine": 3905,
    "Ġconc": 3906,
    "ĠHC": 3907,
    "åı": 3908,
    "ĠMust": 3909,
    "icians": 3910,
    "powered": 3911,
    "Ġalready": 3912,
    "ĠOverwatch": 3913,
    "Ġspokesperson": 3914,
    "Ġprize": 3915,
    "Ġ26": 3916,
    "ĠQuint": 3917,
    "ĠAdministration": 3918,
    "Ġcostly": 3919,
    "fulness": 3920,
    "Ġslows": 3921,
    "Ġâ": 3922,
    "heat": 3923,
    "ÂĹ": 3924,
    "Ġrough": 3925,
    "Ġinstrumental": 3926,
    "akes": 3927,
    "ĠMonth": 3928,
    "ĠRifle": 3929,
    "Ġcorresponds": 3930,
    "ĠMaj": 3931,
    "the": 3932,
    "ĠFergus": 3933,
    "ĠAlready": 3934,
    "Un": 3935,
    "ć": 3936,
    "Ġspecifics": 3937,
    "ĠSame": 3938,
    "la": 3939,
    "ĠDirect": 3940,
    "Ġnerd": 3941,
    "amb": 3942,
    "Ġdumb": 3943,
    "Ġmund": 3944,
    "Ġ\\": 3945,
    "Ġinnov": 3946,
    "ĠAqu": 3947,
    "ĠFargo": 3948,
    "ĠACC": 3949,
    "Ġcloth": 3950,
    "Ġrace": 3951,
    "ĠHistoric": 3952,
    "Ġminim": 3953,
    "Ġsolutions": 3954,
    "Ġcrops": 3955,
    "\":\"": 3956,
    "ĠAthletics": 3957,
    "Ġbar": 3958,
    "Ġsw": 3959,
    "Sam": 3960,
    "ynam": 3961,
    "Ġfraction": 3962,
    "Ġaffili": 3963,
    "Ġempowering": 3964,
    "berto": 3965,
    "ĠSSL": 3966,
    "Ġsid": 3967,
    "ĠIII": 3968,
    "114": 3969,
    "Ġassessing": 3970,
    "veillance": 3971,
    "ĠCous": 3972,
    "ĠSub": 3973,
    "ĠUlt": 3974,
    "Ġshooting": 3975,
    "Ġprivile": 3976,
    "Ġclich": 3977,
    "Ġaura": 3978,
    "Ġmartial": 3979,
    "190": 3980,
    "Ġterrit": 3981,
    "ĠLine": 3982,
    "Ġastronauts": 3983,
    "ĠContract": 3984,
    "Ġportions": 3985,
    ".": 3986,
    "ĠGroup": 3987,
    "ĠTrading": 3988,
    "owa": 3989,
    "vari": 3990,
    "Ġscreenshot": 3991,
    "Ġ[]": 3992,
    "Ġowning": 3993,
    "Ros": 3994,
    "Ġyard": 3995,
    "help": 3996,
    "ĠMW": 3997,
    "Ġoccurred": 3998,
    "ql": 3999,
    "Ġantip": 4000,
    "anas": 4001,
    "Ġforeseeable": 4002,
    "Ġpockets": 4003,
    "Ġreplaces": 4004,
    "Ġdro": 4005,
    "Ġtroub": 4006,
    "999": 4007,
    "Ġbiod": 4008,
    "Ġmonth": 4009,
    "ĠChancellor": 4010,
    "Ġelders": 4011,
    "Â´": 4012,
    "Ġflare": 4013,
    "Ġambassador": 4014,
    "Ġoffend": 4015,
    "resistant": 4016,
    "Ġmathem": 4017,
    "Ġneither": 4018,
    "ĠTrevor": 4019,
    "NASA": 4020,
    "luence": 4021,
    "Ġsuit": 4022,
    "ĠSans": 4023,
    "Ġsensors": 4024,
    "Ġcelebr": 4025,
    "Ġsmartphone": 4026,
    "Ġgluc": 4027,
    "illusion": 4028,
    "Va": 4029,
    "Ġpopulated": 4030,
    "Ġassistant": 4031,
    "Player": 4032,
    "mas": 4033,
    "ĠQuest": 4034,
    "ĠDepending": 4035,
    "ako": 4036,
    "ĠJump": 4037,
    "ax": 4038,
    "Ġinfantry": 4039,
    "ified": 4040,
    "Ġinstance": 4041,
    "Ġdiabetes": 4042,
    "Ġsickness": 4043,
    "Ġourselves": 4044,
    "org": 4045,
    "ĠMao": 4046,
    "ĠEnjoy": 4047,
    "Ġundoubtedly": 4048,
    "ĠSham": 4049,
    "Ġendorsements": 4050,
    "Ġheaders": 4051,
    "Ġhardest": 4052,
    "ĠCoach": 4053,
    "Ġindicators": 4054,
    "borne": 4055,
    "ATED": 4056,
    "Ġpacket": 4057,
    "ĠAlban": 4058,
    "7": 4059,
    "oxide": 4060,
    "ublished": 4061,
    "ulating": 4062,
    "child": 4063,
    "ĠAuburn": 4064,
    "aught": 4065,
    "Ġpatrols": 4066,
    "ÄŁ": 4067,
    "Ġbeam": 4068,
    "spoken": 4069,
    "osa": 4070,
    "ĠDaily": 4071,
    "Ġtong": 4072,
    "Ġpolitely": 4073,
    "ĠFat": 4074,
    "overty": 4075,
    "Ġrobust": 4076,
    "Ġwishing": 4077,
    "noticed": 4078,
    "ĠManufact": 4079,
    "ĠRocky": 4080,
    "Ġscaled": 4081,
    "dot": 4082,
    "cano": 4083,
    "Pres": 4084,
    "t": 4085,
    "ember": 4086,
    "ĠSaskatchewan": 4087,
    "Ġstickers": 4088,
    "Ġno": 4089,
    "Ġdifferentiate": 4090,
    "Ġtrump": 4091,
    "Ġ||": 4092,
    "gery": 4093,
    "Ġcame": 4094,
    "ĠWang": 4095,
    "Ġunintention": 4096,
    "Ġbooming": 4097,
    "Ġfavourite": 4098,
    "ifying": 4099,
    "My": 4100,
    "idae": 4101,
    "Ġnoise": 4102,
    "Ġrecordings": 4103,
    "ĠHampton": 4104,
    "Ġlandscape": 4105,
    "Ġsupportive": 4106,
    "amsung": 4107,
    "Ġtears": 4108,
    "Ġhandling": 4109,
    "oche": 4110,
    "Ġconfigured": 4111,
    "ĠAZ": 4112,
    "UL": 4113,
    "estation": 4114,
    "Ġstrokes": 4115,
    "ĠCOM": 4116,
    "ĠHQ": 4117,
    "ĠTru": 4118,
    "eating": 4119,
    "nation": 4120,
    "ĠSab": 4121,
    "viously": 4122,
    "11": 4123,
    "Ġinvestigating": 4124,
    "Ġquicker": 4125,
    "Ġstarvation": 4126,
    "drop": 4127,
    "Ġshorts": 4128,
    "Ġopponent": 4129,
    "TION": 4130,
    "ait": 4131,
    "Ī": 4132,
    "Ġbrackets": 4133,
    "roe": 4134,
    "Ġdepressing": 4135,
    "Ġcompositions": 4136,
    "Ġunconscious": 4137,
    "ĠAD": 4138,
    "ĠMeet": 4139,
    "gs": 4140,
    "Ġviolation": 4141,
    "cean": 4142,
    "Ġask": 4143,
    "adal": 4144,
    "ĠFun": 4145,
    "ICH": 4146,
    "ĠHuss": 4147,
    "ession": 4148,
    "lies": 4149,
    "Ġimperson": 4150,
    "Ġdegradation": 4151,
    "Gen": 4152,
    "Ü": 4153,
    "Ġfixture": 4154,
    "arette": 4155,
    "anchester": 4156,
    "System": 4157,
    "Ġexpect": 4158,
    "Ġbroadc": 4159,
    "pack": 4160,
    "Park": 4161,
    "Ġunsettling": 4162,
    "equ": 4163,
    "iling": 4164,
    "DL": 4165,
    "Ġlets": 4166,
    "TI": 4167,
    "Ġfraternity": 4168,
    "Ġsubstit": 4169,
    "Maybe": 4170,
    "ĠEC": 4171,
    "Ġprojects": 4172,
    "Ġequal": 4173,
    "ĠUnit": 4174,
    "ull": 4175,
    "Ġfeelings": 4176,
    "ĠNormally": 4177,
    "ĠApparently": 4178,
    "Gov": 4179,
    "Ġshameful": 4180,
    "Ġli": 4181,
    "Ġatheism": 4182,
    "ater": 4183,
    "Ġpassengers": 4184,
    "Ġvivid": 4185,
    "ll": 4186,
    "Ġhonest": 4187,
    "andem": 4188,
    "ĠIV": 4189,
    "Ġseparatist": 4190,
    "Ġsoccer": 4191,
    "ĠInn": 4192,
    "ĠIRS": 4193,
    "ĠMyanmar": 4194,
    "unct": 4195,
    "Ġrealization": 4196,
    "Ġfatally": 4197,
    "Ġrainfall": 4198,
    "Ġsees": 4199,
    "eworthy": 4200,
    "ĠTweet": 4201,
    "Overall": 4202,
    "ukes": 4203,
    "ĠMetropolitan": 4204,
    "Ġflipping": 4205,
    "Ġglasses": 4206,
    "inson": 4207,
    "Ġobliged": 4208,
    "Ġplanners": 4209,
    "ĠFuk": 4210,
    "angled": 4211,
    "Ġmud": 4212,
    "Ġsome": 4213,
    "Ps": 4214,
    "ĠRash": 4215,
    "isha": 4216,
    "Ġty": 4217,
    "Ġsubsidies": 4218,
    "ĠHB": 4219,
    "Ġadventure": 4220,
    "Ġrec": 4221,
    "gel": 4222,
    "ĠTolkien": 4223,
    "Ġoperators": 4224,
    "ulative": 4225,
    "ĠRum": 4226,
    "Ġrulers": 4227,
    "lv": 4228,
    "ĠRasm": 4229,
    "Ġflagship": 4230,
    "ĠPrimary": 4231,
    "ĠSunni": 4232,
    "Ġstudios": 4233,
    "Ġinstincts": 4234,
    "atic": 4235,
    "Ġhip": 4236,
    "itu": 4237,
    "smith": 4238,
    "secutor": 4239,
    "Ġearning": 4240,
    "Ġopportunity": 4241,
    "cest": 4242,
    "eanor": 4243,
    "ĠVick": 4244,
    "Ġoptimize": 4245,
    "Ġinteract": 4246,
    "mage": 4247,
    "Ġeyew": 4248,
    "Ġinland": 4249,
    "Ġmeans": 4250,
    "ĠTHE": 4251,
    "agan": 4252,
    "Ġantiqu": 4253,
    "ĠHawkins": 4254,
    "ĠCollege": 4255,
    "Ġcosting": 4256,
    "Ġeruption": 4257,
    "Ġknot": 4258,
    "Ġcatching": 4259,
    "name": 4260,
    "ĠBengals": 4261,
    "ĠHM": 4262,
    "ĠBut": 4263,
    "ishops": 4264,
    "ĠPrior": 4265,
    "109": 4266,
    "akable": 4267,
    "ĠDefence": 4268,
    "Ġenergies": 4269,
    "ĠJoined": 4270,
    "amus": 4271,
    "ĠBehind": 4272,
    "total": 4273,
    "Ġhorrors": 4274,
    "igr": 4275,
    "Ġprohibited": 4276,
    "Ġguilty": 4277,
    "oyd": 4278,
    "Ġlandmark": 4279,
    "Ġsequ": 4280,
    "ĠUbuntu": 4281,
    "Ġfaults": 4282,
    "ĠWhitney": 4283,
    "ji": 4284,
    "()": 4285,
    "ĠRes": 4286,
    "Ġhorr": 4287,
    "Ġcheer": 4288,
    "ĠOlson": 4289,
    "ĠHindus": 4290,
    "Ġfactory": 4291,
    "Ġcabinet": 4292,
    "Ġultras": 4293,
    "ĠJoey": 4294,
    "ĠFry": 4295,
    "Ang": 4296,
    "ĠOlymp": 4297,
    "Ġmuscles": 4298,
    "room": 4299,
    "Ġchrom": 4300,
    "ĠBos": 4301,
    "ĠWrest": 4302,
    "ĠCore": 4303,
    "Ġamazed": 4304,
    "Ġthroughout": 4305,
    "Ġyet": 4306,
    "Ġmagazine": 4307,
    "Ġforefront": 4308,
    "rows": 4309,
    "highest": 4310,
    "fig": 4311,
    "Ġimpending": 4312,
    "Ġlimits": 4313,
    "Ġordinary": 4314,
    "Ġinitiatives": 4315,
    "Ġacademic": 4316,
    "Ġ44": 4317,
    "Ġrepresentative": 4318,
    "Aaron": 4319,
    "Ġinteractions": 4320,
    "Ġbuttons": 4321,
    "ĠVirt": 4322,
    "Ġjob": 4323,
    "uma": 4324,
    "2006": 4325,
    "Ġhobby": 4326,
    "Ġquestion": 4327,
    "Ġrumours": 4328,
    "wright": 4329,
    "Ġscanned": 4330,
    "ĠOptim": 4331,
    "essed": 4332,
    "Ġgoing": 4333,
    "omers": 4334,
    "ĠPride": 4335,
    "ashington": 4336,
    "Ġpoll": 4337,
    "Ġhumili": 4338,
    "Ġdismantle": 4339,
    "Ġexceeds": 4340,
    "Because": 4341,
    "Ġ##": 4342,
    "ĠGitHub": 4343,
    "Ġconsult": 4344,
    "Ġtolerance": 4345,
    "ĠPolitics": 4346,
    "iver": 4347,
    "Ġmall": 4348,
    "ĠCrown": 4349,
    "ĠCultural": 4350,
    "ridge": 4351,
    "WR": 4352,
    "Topics": 4353,
    "Ġsurrog": 4354,
    "Ġtransit": 4355,
    "Ġgifts": 4356,
    "Ġprice": 4357,
    "850": 4358,
    "Ġstrange": 4359,
    "aker": 4360,
    "Ġoutrageous": 4361,
    "hh": 4362,
    "Ġsite": 4363,
    "Ġshouted": 4364,
    "Death": 4365,
    "umper": 4366,
    "Ġapplies": 4367,
    "ĠSalvador": 4368,
    "Ġexpose": 4369,
    "Ġsilver": 4370,
    "Ġheavier": 4371,
    "ĠSeg": 4372,
    "Ġgenerated": 4373,
    "oso": 4374,
    "ĠVermont": 4375,
    "shire": 4376,
    "arios": 4377,
    "ĠEngine": 4378,
    "Ġdiplomats": 4379,
    "Reviewer": 4380,
    "Ġhomeland": 4381,
    "ĠSabha": 4382,
    "Ġrisk": 4383,
    "Ġvoting": 4384,
    "Intern": 4385,
    "Ġrepetition": 4386,
    "special": 4387,
    "ossier": 4388,
    "Ġfetal": 4389,
    "Ġchampion": 4390,
    "ĠMaurice": 4391,
    "Ġconfess": 4392,
    "Further": 4393,
    "tein": 4394,
    "Ġsupplies": 4395,
    "Ġsuperb": 4396,
    "Ġgang": 4397,
    "ĠJavascript": 4398,
    "hest": 4399,
    "Read": 4400,
    "pdf": 4401,
    "ĠMiguel": 4402,
    "Ġflourish": 4403,
    "ĠPriebus": 4404,
    "',": 4405,
    "ĠHyd": 4406,
    "ullah": 4407,
    "Ġappearance": 4408,
    "Ġmilestone": 4409,
    "Ġgrabs": 4410,
    "Ġshe": 4411,
    "2": 4412,
    "Ġbest": 4413,
    "Ġposition": 4414,
    "Ġenvironmental": 4415,
    "Ġfifty": 4416,
    "Ġlaps": 4417,
    "Ġlegends": 4418,
    "oven": 4419,
    "Ġdrinking": 4420,
    "Ġrallied": 4421,
    "),âĢĿ": 4422,
    "ĠSimp": 4423,
    "Ġfor": 4424,
    "Ġprofessional": 4425,
    "Ġdoubles": 4426,
    "Ġessence": 4427,
    "gor": 4428,
    "Ġboundary": 4429,
    "vell": 4430,
    "rence": 4431,
    "ĠYe": 4432,
    "Ġincome": 4433,
    "Ġinclude": 4434,
    "elo": 4435,
    "Ġ1993": 4436,
    "Ġhandful": 4437,
    "Ġcriticism": 4438,
    "Ġsequencing": 4439,
    "ĠHy": 4440,
    "lar": 4441,
    "alis": 4442,
    "Ġrefrigerator": 4443,
    "]": 4444,
    "ĠStephanie": 4445,
    "Ġtips": 4446,
    "ĠRidge": 4447,
    "ĠSalem": 4448,
    "Ġtesting": 4449,
    "Ġextingu": 4450,
    "Ġsatisfied": 4451,
    "missions": 4452,
    "ĠTher": 4453,
    "Ġas": 4454,
    "ĠNVIDIA": 4455,
    "ague": 4456,
    "mes": 4457,
    "Ġbeyond": 4458,
    "Indeed": 4459,
    "ĠEach": 4460,
    "Ġvenue": 4461,
    "Ġproteins": 4462,
    "gus": 4463,
    "ĠAction": 4464,
    "Ġceased": 4465,
    "Ġimprovements": 4466,
    "63": 4467,
    "ĠEat": 4468,
    "ĠDel": 4469,
    "Ġmig": 4470,
    "Ġstub": 4471,
    "Ġprovince": 4472,
    "ĠBorn": 4473,
    "orig": 4474,
    "ĠPresidents": 4475,
    "Ky": 4476,
    "Ġdominated": 4477,
    "Ġrice": 4478,
    "Ġcondemn": 4479,
    "Mor": 4480,
    "Ġboxes": 4481,
    "Ġbicy": 4482,
    "ĠPere": 4483,
    "ĠGirls": 4484,
    "ĠPine": 4485,
    "ĠRussia": 4486,
    "Ġincor": 4487,
    "Ġguid": 4488,
    "ĠPerl": 4489,
    "Ġadminist": 4490,
    "Ġsaus": 4491,
    "ĠCry": 4492,
    "RES": 4493,
    "Mond": 4494,
    "Ġfam": 4495,
    "Error": 4496,
    "Ġseven": 4497,
    "Ġlengthy": 4498,
    "Ġcontraception": 4499,
    "Ġ03": 4500,
    "54": 4501,
    "status": 4502,
    "ipped": 4503,
    "Ġproof": 4504,
    "Ġvs": 4505,
    "Ġstreaming": 4506,
    "Ġcool": 4507,
    "Ġgift": 4508,
    "Ġreps": 4509,
    "Ġfrost": 4510,
    "Ġblogger": 4511,
    "ete": 4512,
    "ĠMarine": 4513,
    "Ġferv": 4514,
    "facing": 4515,
    "Ġabnormal": 4516,
    "Ġspeedy": 4517,
    "ensity": 4518,
    "Ġrapidly": 4519,
    "Ġintervene": 4520,
    "Ġspending": 4521,
    "Ġdens": 4522,
    "Ġpurp": 4523,
    "Ġrust": 4524,
    "Ġsuggest": 4525,
    "Ġpursuit": 4526,
    "ĠShepherd": 4527,
    "ĠWinner": 4528,
    "Ġminerals": 4529,
    "ĠGriff": 4530,
    "uccess": 4531,
    "ĠFOX": 4532,
    "ĠMatch": 4533,
    "ĠPrime": 4534,
    "Ġ192": 4535,
    "sic": 4536,
    "ĠGe": 4537,
    "Ġdrawing": 4538,
    "ĠJuventus": 4539,
    "Ġincluding": 4540,
    "Ġspells": 4541,
    "Ġmerely": 4542,
    "hof": 4543,
    "Ġrepeated": 4544,
    "Ġwhole": 4545,
    "gia": 4546,
    "adjusted": 4547,
    "Ġcrisp": 4548,
    "åĲ": 4549,
    "rod": 4550,
    "Ġvolcano": 4551,
    "Ġtsp": 4552,
    "ĠHispanics": 4553,
    "Ġmixed": 4554,
    "ĠOttawa": 4555,
    "hesis": 4556,
    "18": 4557,
    "ĠCitiz": 4558,
    "Ġ1998": 4559,
    "Ġhighlights": 4560,
    "Ġtestify": 4561,
    "Ġquiet": 4562,
    "Ġshortly": 4563,
    "FOR": 4564,
    "hes": 4565,
    "ĠMySQL": 4566,
    "Ġsufficient": 4567,
    "Ġrefuse": 4568,
    "Ġwell": 4569,
    "ulations": 4570,
    "Ġdeclined": 4571,
    "Ġnatural": 4572,
    "Ġtraffickers": 4573,
    "Ġsafety": 4574,
    "Ġrunners": 4575,
    "Ġsummar": 4576,
    "Ġvastly": 4577,
    "ĠWords": 4578,
    "Ġpleasure": 4579,
    "phone": 4580,
    "Ġoxygen": 4581,
    "Ġcontrolled": 4582,
    "Ġtravel": 4583,
    "Ġmosquit": 4584,
    "ĠDR": 4585,
    "Ġconnecting": 4586,
    "Ġlust": 4587,
    "ĠKh": 4588,
    "Ġsuicide": 4589,
    "unal": 4590,
    "Ġomitted": 4591,
    "without": 4592,
    "Ġfoil": 4593,
    "Ġhonors": 4594,
    "Ġfreaking": 4595,
    "Ġconfusion": 4596,
    "Ġdirty": 4597,
    "cor": 4598,
    "ĠWC": 4599,
    "ĠNewtown": 4600,
    "Ġworkshop": 4601,
    "Ġbombard": 4602,
    ")|": 4603,
    "ourge": 4604,
    "ĠEssentially": 4605,
    "Ġsignificance": 4606,
    "Ġmobil": 4607,
    "mb": 4608,
    "ĠCanada": 4609,
    "Ġbedroom": 4610,
    "Ġturbine": 4611,
    "ĠBlackBerry": 4612,
    "Ġdiet": 4613,
    "Ġwitch": 4614,
    "Ġimproper": 4615,
    "ĠAnti": 4616,
    "Ġinfections": 4617,
    "Ġconsolidate": 4618,
    "Ġspeaker": 4619,
    "Ġempower": 4620,
    "Ġwe": 4621,
    "umption": 4622,
    "Ġ1969": 4623,
    "Ġassignments": 4624,
    "Ġstealth": 4625,
    "Ġconversation": 4626,
    "ĠEnc": 4627,
    "Ġquarters": 4628,
    "Ġentails": 4629,
    "Ġ$": 4630,
    "ses": 4631,
    "Ġpou": 4632,
    "ĠBark": 4633,
    "rue": 4634,
    "ĠWatch": 4635,
    "anthrop": 4636,
    "Ġlevels": 4637,
    "Ġcongestion": 4638,
    "Ġfier": 4639,
    "anta": 4640,
    "iola": 4641,
    "Ġpenet": 4642,
    "rell": 4643,
    "ĠConf": 4644,
    "Ġdepl": 4645,
    "Ġshown": 4646,
    "ĠZ": 4647,
    "Ġimprisonment": 4648,
    "Ġcrews": 4649,
    "ĠKind": 4650,
    "Ġarrog": 4651,
    "Ġplum": 4652,
    "Ġyearly": 4653,
    "º": 4654,
    "Ġdemons": 4655,
    "Ġputs": 4656,
    "Ġfest": 4657,
    "uggets": 4658,
    "Lew": 4659,
    "Courtesy": 4660,
    "yy": 4661,
    "ocus": 4662,
    "Ġdesigner": 4663,
    "Ġcaveat": 4664,
    "If": 4665,
    "Ġartifact": 4666,
    "bf": 4667,
    "Ġspeculate": 4668,
    "Ġmetadata": 4669,
    "Ġcourts": 4670,
    "Ġencoun": 4671,
    "ĠHope": 4672,
    "ĠKash": 4673,
    "Ġ]": 4674,
    "Ġsubjected": 4675,
    "ĠCrash": 4676,
    "Ġmanufact": 4677,
    "ĠKorea": 4678,
    "icter": 4679,
    "ĠLiberal": 4680,
    "ĠNew": 4681,
    "Ġexperimentation": 4682,
    "ibles": 4683,
    "Ġtheology": 4684,
    "Ġinhabitants": 4685,
    "clusion": 4686,
    "ĠWarfare": 4687,
    "ÙĬ": 4688,
    "CT": 4689,
    "eteenth": 4690,
    "Ġwar": 4691,
    "Ġstats": 4692,
    "Ġqualify": 4693,
    "Ġsworn": 4694,
    "Ġbom": 4695,
    "Ġearned": 4696,
    "Ġpodium": 4697,
    "Ġgovern": 4698,
    "ĠVe": 4699,
    "Ever": 4700,
    "osate": 4701,
    "uably": 4702,
    "Ġorchestrated": 4703,
    "ĠWi": 4704,
    "ĠRally": 4705,
    "zai": 4706,
    "founder": 4707,
    "Ġrep": 4708,
    "ĠBal": 4709,
    "Ġinstruction": 4710,
    "Ġcontempor": 4711,
    "ruary": 4712,
    "Ġadulthood": 4713,
    "iologist": 4714,
    "Ġdoct": 4715,
    "Ġboost": 4716,
    "ĠHenderson": 4717,
    "Ġdeclar": 4718,
    "Ġsector": 4719,
    "ili": 4720,
    "Ġ!=": 4721,
    "ĠGreen": 4722,
    "Ġpreferences": 4723,
    "Ġrefine": 4724,
    "ĠUnion": 4725,
    "Mos": 4726,
    "Ġonto": 4727,
    "Ġopener": 4728,
    "ĠTok": 4729,
    "ĠLegend": 4730,
    "ologically": 4731,
    "37": 4732,
    "Ġinserted": 4733,
    "Ġcyclists": 4734,
    "ĠActive": 4735,
    "ĠWales": 4736,
    "Ġmisogyn": 4737,
    "raising": 4738,
    "ogen": 4739,
    "idy": 4740,
    "ĠAV": 4741,
    "Ġacids": 4742,
    "Ġconcent": 4743,
    "ĠTag": 4744,
    "Ġshape": 4745,
    "Ġwine": 4746,
    "Ġearliest": 4747,
    "Ġ@": 4748,
    "Ġ110": 4749,
    "iasm": 4750,
    "Ġtainted": 4751,
    "Ġcongest": 4752,
    "Ġattitude": 4753,
    "Ġintent": 4754,
    "Ġfavorite": 4755,
    "umed": 4756,
    "ĠÂ©": 4757,
    "velength": 4758,
    "ĠGat": 4759,
    "aly": 4760,
    "ĠSession": 4761,
    "Ġapplied": 4762,
    "Ġcure": 4763,
    "Ġwatching": 4764,
    "ĠObamacare": 4765,
    "ĠBurlington": 4766,
    "Ġunlimited": 4767,
    "ector": 4768,
    "þ": 4769,
    "Ġregions": 4770,
    "annie": 4771,
    "ĠÏ": 4772,
    "Ġelic": 4773,
    "Ġconcentrated": 4774,
    "ĠWalt": 4775,
    "ĠYo": 4776,
    "Ġadministrators": 4777,
    "Ġpursued": 4778,
    "pc": 4779,
    "Ġscoop": 4780,
    "ï": 4781,
    "Ġinequality": 4782,
    "Ġgrow": 4783,
    "Ġlive": 4784,
    "uesday": 4785,
    "example": 4786,
    "N": 4787,
    "Ġinteractive": 4788,
    "Ġtestified": 4789,
    "Final": 4790,
    "PER": 4791,
    "Ġdisreg": 4792,
    "ton": 4793,
    "io": 4794,
    "Ġvis": 4795,
    "Ġrebel": 4796,
    "ĠHarm": 4797,
    "Ġtonnes": 4798,
    "ĠDear": 4799,
    "Ġrecount": 4800,
    "ĠGor": 4801,
    "Ġbanana": 4802,
    "Ġfibers": 4803,
    "height": 4804,
    "Ġdistributing": 4805,
    "ocol": 4806,
    "Ġrestrict": 4807,
    "ĠKnowledge": 4808,
    "Ġabuses": 4809,
    "---": 4810,
    "qu": 4811,
    "tech": 4812,
    "Ġwraps": 4813,
    "Ġtake": 4814,
    "ĠBolshe": 4815,
    "ĠSyrian": 4816,
    "ĠFer": 4817,
    "Ġlone": 4818,
    "Ġapproving": 4819,
    "Ġcosmic": 4820,
    "Ġslack": 4821,
    "Ġpose": 4822,
    "eff": 4823,
    "ĠBow": 4824,
    "ĠEston": 4825,
    "Ġdilig": 4826,
    "athering": 4827,
    "Ġ%": 4828,
    "Ġuniversities": 4829,
    "CE": 4830,
    "Ġ99": 4831,
    "Ġspikes": 4832,
    "ĠVP": 4833,
    "Ġcontributed": 4834,
    "Fig": 4835,
    "ĠIndividual": 4836,
    "Ġtwin": 4837,
    "irts": 4838,
    "ĠAlive": 4839,
    "Ġskill": 4840,
    "Ġlease": 4841,
    "Ġconquered": 4842,
    "Send": 4843,
    "ĠRodney": 4844,
    "Ġcounty": 4845,
    "Ġafraid": 4846,
    "ĠUntil": 4847,
    "Ġsodium": 4848,
    "ĠRomanian": 4849,
    "profits": 4850,
    "usions": 4851,
    "ĠMolly": 4852,
    "Ġmedicinal": 4853,
    "ĠMiller": 4854,
    "Ġyouthful": 4855,
    "Ġgrains": 4856,
    "ennial": 4857,
    "Ġprocessor": 4858,
    "ĠChase": 4859,
    "idered": 4860,
    "ĠVerizon": 4861,
    "Ġvowed": 4862,
    "##": 4863,
    "ĠEll": 4864,
    "idding": 4865,
    "\");": 4866,
    "aver": 4867,
    "IG": 4868,
    "Ġnice": 4869,
    "ĠBig": 4870,
    "urned": 4871,
    "dis": 4872,
    "ranged": 4873,
    "ĠOr": 4874,
    "irt": 4875,
    "Ġder": 4876,
    "Ġsimilarities": 4877,
    "Ġ124": 4878,
    "Rose": 4879,
    "Ġmurderous": 4880,
    "Ġplanned": 4881,
    "Ġmi": 4882,
    "priced": 4883,
    "ĠBuy": 4884,
    "Ġautonomous": 4885,
    "ĠCly": 4886,
    "Ġreproduction": 4887,
    "ĠComic": 4888,
    "Ġdownhill": 4889,
    "Ġdiscredited": 4890,
    "Ġlau": 4891,
    "Ġpecul": 4892,
    "sover": 4893,
    "Ġcombo": 4894,
    "ĠNations": 4895,
    "heit": 4896,
    "Ġanalytics": 4897,
    "istics": 4898,
    "ĠCaldwell": 4899,
    "ĠAge": 4900,
    "olkien": 4901,
    "Ġthoughts": 4902,
    "vik": 4903,
    "Ġgets": 4904,
    "zhou": 4905,
    "Ġaway": 4906,
    "ĠYOUR": 4907,
    "Ġintegrity": 4908,
    "Ġmicrobes": 4909,
    "Ġsubset": 4910,
    "rane": 4911,
    "Ġpupp": 4912,
    "Ġbriefly": 4913,
    "ÃŁ": 4914,
    "Ġshooters": 4915,
    "Ġ201": 4916,
    "ĠGuer": 4917,
    "Ġoutweigh": 4918,
    "Ġenabling": 4919,
    "witz": 4920,
    "Ġcheers": 4921,
    "Ġst": 4922,
    "friend": 4923,
    "Ġsheer": 4924,
    "Ġpalm": 4925,
    "Ġreleasing": 4926,
    "Ġrested": 4927,
    "Ġthese": 4928,
    "Ġpulse": 4929,
    "Ġacute": 4930,
    "Ġworst": 4931,
    "Ġepid": 4932,
    "ĠErnst": 4933,
    "Ġsubjects": 4934,
    "Ġhappier": 4935,
    "uggage": 4936,
    "Ġtherefore": 4937,
    "sever": 4938,
    "Ġconfisc": 4939,
    "Ġcollabor": 4940,
    "185": 4941,
    "Semitism": 4942,
    "ĠEth": 4943,
    "Ġfootball": 4944,
    "ASE": 4945,
    "Ġspreads": 4946,
    "ĠPeyton": 4947,
    "Ġofferings": 4948,
    "ĠIllustrated": 4949,
    "ĠRichardson": 4950,
    "Ġdescribed": 4951,
    "con": 4952,
    "Ġcenter": 4953,
    "Ġexclusion": 4954,
    "gun": 4955,
    "ĠGit": 4956,
    "rolled": 4957,
    "ĠPer": 4958,
    "ĠJulian": 4959,
    "frac": 4960,
    "Ġjaw": 4961,
    "ggle": 4962,
    "athing": 4963,
    "ĠNine": 4964,
    "Ġremedy": 4965,
    "Ġforth": 4966,
    "Ġconstituted": 4967,
    "Ġphotographed": 4968,
    "Advertising": 4969,
    "ĠIB": 4970,
    "Ġcracks": 4971,
    "ffiti": 4972,
    "Ġwritings": 4973,
    "ĠSergei": 4974,
    "ĠColor": 4975,
    "Ġevolved": 4976,
    "ournament": 4977,
    "Ġcosmetic": 4978,
    "Ġreck": 4979,
    "Ġinsane": 4980,
    "Ġrope": 4981,
    "awn": 4982,
    "ges": 4983,
    "ĠWire": 4984,
    "Ġaccurate": 4985,
    "ĠResponse": 4986,
    "Ġfem": 4987,
    "Ġcountry": 4988,
    "ivities": 4989,
    "Ġvill": 4990,
    "nas": 4991,
    "ystem": 4992,
    "Ġimplementation": 4993,
    ")(": 4994,
    "ania": 4995,
    "202": 4996,
    "Ġmet": 4997,
    "Ġtragedy": 4998,
    "pril": 4999,
    "vig": 5000,
    "ĠSolomon": 5001,
    "ĠForever": 5002,
    "Ġstudied": 5003,
    "Ġatt": 5004,
    "ected": 5005,
    "ĠSe": 5006,
    "Ġhttp": 5007,
    "ĠIstanbul": 5008,
    "ues": 5009,
    "anding": 5010,
    "Ġchemotherapy": 5011,
    "lish": 5012,
    "ribut": 5013,
    "Ġenforcing": 5014,
    "Ġbusiness": 5015,
    "ĠAncient": 5016,
    "Ġlethal": 5017,
    "Ġtranscript": 5018,
    "ur": 5019,
    "ascal": 5020,
    "ibling": 5021,
    "Ġreligions": 5022,
    "Ġscholarship": 5023,
    "Ġrebels": 5024,
    "mg": 5025,
    "ĠHulk": 5026,
    "Ġclimate": 5027,
    "Ġranging": 5028,
    "cert": 5029,
    "dragon": 5030,
    "Ġain": 5031,
    "ĠIDF": 5032,
    "DNA": 5033,
    "ĠSW": 5034,
    "igan": 5035,
    "even": 5036,
    "Ġrehears": 5037,
    "ĠPurdue": 5038,
    "ylan": 5039,
    "Ġrushed": 5040,
    "®": 5041,
    "cod": 5042,
    "Ġfaction": 5043,
    "Ġdementia": 5044,
    "ĠSome": 5045,
    "Ġliberalism": 5046,
    "ayer": 5047,
    "Ð´": 5048,
    "owed": 5049,
    "Semitic": 5050,
    "Ġsubstitute": 5051,
    "Ġtouted": 5052,
    "Ġempirical": 5053,
    "!âĢĿ": 5054,
    "ĻĤ": 5055,
    "Ġenvironmentalists": 5056,
    "Ġminer": 5057,
    "Ġenduring": 5058,
    "Ġshelves": 5059,
    "roads": 5060,
    "Ġirresponsible": 5061,
    "ĠDr": 5062,
    "Ġeyebrows": 5063,
    "Ġglance": 5064,
    "Ġenlight": 5065,
    "ĠFlash": 5066,
    "ORK": 5067,
    "Ġdug": 5068,
    "Ġchaotic": 5069,
    "Ġcondemnation": 5070,
    "Ġproudly": 5071,
    "ĠAS": 5072,
    "ye": 5073,
    "ĠRT": 5074,
    "Ġcruelty": 5075,
    "Ġtimes": 5076,
    "Ġseller": 5077,
    "Ġ129": 5078,
    "Ġpneumonia": 5079,
    "Shortly": 5080,
    "Ġvegetables": 5081,
    "Ġthro": 5082,
    "ggy": 5083,
    "mic": 5084,
    "uggish": 5085,
    "ĠSn": 5086,
    "ĠBeautiful": 5087,
    "ĠApp": 5088,
    "angered": 5089,
    "att": 5090,
    "Ġvisual": 5091,
    "Ġamassed": 5092,
    "Ġworse": 5093,
    "ĠWester": 5094,
    "Ġknowingly": 5095,
    "Ġcoins": 5096,
    "Ġpreparation": 5097,
    "hew": 5098,
    "Ġroom": 5099,
    "Ġunwilling": 5100,
    "Ġnotices": 5101,
    "ARC": 5102,
    "Ġbacklash": 5103,
    "Ġlist": 5104,
    "estic": 5105,
    "croft": 5106,
    "Ġchest": 5107,
    "Ġburd": 5108,
    "rice": 5109,
    "Ġ1940": 5110,
    "Ġpapers": 5111,
    "Ġblown": 5112,
    "ĠMe": 5113,
    "ĠKaw": 5114,
    "Ġiniti": 5115,
    "elta": 5116,
    "ĠShortly": 5117,
    "Ġbrow": 5118,
    "ĠAfghan": 5119,
    "Ġawhile": 5120,
    "Ġdisapp": 5121,
    "Ġusername": 5122,
    "ufficient": 5123,
    "onda": 5124,
    "aches": 5125,
    "ĠDim": 5126,
    "Justice": 5127,
    "e": 5128,
    "ussian": 5129,
    "Stack": 5130,
    "ĠRussell": 5131,
    "December": 5132,
    "Ġcommunic": 5133,
    "Ġplugin": 5134,
    "entric": 5135,
    "Ġattorneys": 5136,
    "rapped": 5137,
    "Ġcarriage": 5138,
    "Ġproceeds": 5139,
    "±": 5140,
    "itement": 5141,
    "Organ": 5142,
    "ĠRecently": 5143,
    "Ġcorrelated": 5144,
    "acks": 5145,
    "standard": 5146,
    "ĠAy": 5147,
    "Ġdurable": 5148,
    "igrant": 5149,
    "ĠInv": 5150,
    "ĠMet": 5151,
    "stack": 5152,
    "iversity": 5153,
    "Ġsecondary": 5154,
    "ordinator": 5155,
    "Ġtotals": 5156,
    "Ġanswers": 5157,
    "ometric": 5158,
    "Ġmargin": 5159,
    "yre": 5160,
    "sector": 5161,
    "Ġlifted": 5162,
    "Ã£": 5163,
    "ĠAir": 5164,
    "Ġplat": 5165,
    "Ġdin": 5166,
    "Ġimmortal": 5167,
    "Ġspir": 5168,
    "?\"": 5169,
    "Ġplight": 5170,
    "uly": 5171,
    "Ġwears": 5172,
    "Ġdefin": 5173,
    "rect": 5174,
    "Ġbuilt": 5175,
    "Ġturtle": 5176,
    "Ġrationale": 5177,
    "Ġtwists": 5178,
    "Ġwarfare": 5179,
    "Len": 5180,
    "Ġscan": 5181,
    "Ġepilepsy": 5182,
    "Ġdaughters": 5183,
    "impro": 5184,
    "requ": 5185,
    "Fil": 5186,
    "Everyone": 5187,
    "Ġromance": 5188,
    "pit": 5189,
    "Ġclever": 5190,
    "Stream": 5191,
    "Republicans": 5192,
    "EC": 5193,
    "Ġsimplified": 5194,
    "Ġanten": 5195,
    "Ġstaple": 5196,
    "ĠOn": 5197,
    "Ġip": 5198,
    "q": 5199,
    "Ġsatir": 5200,
    "Ġvariations": 5201,
    "Ġluxury": 5202,
    "Ġoven": 5203,
    "encies": 5204,
    "zel": 5205,
    "Ġmakeshift": 5206,
    "Ġunfold": 5207,
    "Ġgoddess": 5208,
    "ãĢĮ": 5209,
    "136": 5210,
    "ĠDoyle": 5211,
    "ĠDenmark": 5212,
    "Ġarchive": 5213,
    "Ġjustice": 5214,
    "ĠReading": 5215,
    "ĠEM": 5216,
    "Sometimes": 5217,
    "Ġaim": 5218,
    "ĠThirty": 5219,
    "fly": 5220,
    "ing": 5221,
    "middle": 5222,
    "ĠCork": 5223,
    "Ġdisp": 5224,
    "Ġhooked": 5225,
    "Ġabandoning": 5226,
    "asty": 5227,
    "ba": 5228,
    "Ġsmiling": 5229,
    "ltry": 5230,
    "Ġminds": 5231,
    "Squ": 5232,
    "ĠNit": 5233,
    "arro": 5234,
    "git": 5235,
    "Ġpiles": 5236,
    "vol": 5237,
    "ĠAlbuquerque": 5238,
    "Ġcitizen": 5239,
    "ĠIslanders": 5240,
    "Ġleisure": 5241,
    "Ġcollected": 5242,
    "Ġpartnering": 5243,
    "ĠKro": 5244,
    "Ġ33": 5245,
    "aze": 5246,
    "ĠFestival": 5247,
    "Ġnoting": 5248,
    "Ġrampant": 5249,
    "ĠMichael": 5250,
    "Ġnaked": 5251,
    "assium": 5252,
    "ĠEarn": 5253,
    "ĠWeinstein": 5254,
    "icate": 5255,
    "Ùħ": 5256,
    "andals": 5257,
    "Ġsudo": 5258,
    "ĠFowler": 5259,
    "October": 5260,
    "Ġlocked": 5261,
    "ĠRole": 5262,
    "ĠFocus": 5263,
    "ican": 5264,
    "Ġenterprise": 5265,
    "1997": 5266,
    "Ġrhetoric": 5267,
    "ĠTer": 5268,
    "Ġscheduling": 5269,
    "otech": 5270,
    "Ġmanufacture": 5271,
    "Ġagrees": 5272,
    "Ġslog": 5273,
    "Ġbulb": 5274,
    "Ġmineral": 5275,
    "Ġmice": 5276,
    "Ġmaterials": 5277,
    "Ġpal": 5278,
    "Av": 5279,
    "Ġinvestor": 5280,
    "Ġwouldn": 5281,
    "Ġfitting": 5282,
    "Broad": 5283,
    "Ġhashtag": 5284,
    "ĠBush": 5285,
    "Ġcontinues": 5286,
    "ĠCle": 5287,
    "SP": 5288,
    "!âĢĻ": 5289,
    "8": 5290,
    "Ġplagued": 5291,
    "Ġfirmware": 5292,
    "Ġabs": 5293,
    "ended": 5294,
    "uct": 5295,
    "Sk": 5296,
    "cipled": 5297,
    "Ġwoo": 5298,
    "Ġappl": 5299,
    "ĠSample": 5300,
    "ĠYorker": 5301,
    "Ġtemp": 5302,
    "bed": 5303,
    "ULL": 5304,
    "erences": 5305,
    "Ġembr": 5306,
    "Ġday": 5307,
    "ĠHook": 5308,
    "Ġcharge": 5309,
    "Ġsummer": 5310,
    "ÿ": 5311,
    "oret": 5312,
    "Ġheed": 5313,
    "Ġmil": 5314,
    "uation": 5315,
    "Ġ2005": 5316,
    "arer": 5317,
    "hens": 5318,
    "Earth": 5319,
    "ĠGeorgetown": 5320,
    "This": 5321,
    "Ġfilled": 5322,
    "Ġmedi": 5323,
    "ÑĢÐ¾": 5324,
    "ĠWrong": 5325,
    "ĠCorporation": 5326,
    "omic": 5327,
    "Ġdared": 5328,
    "Ġconfigure": 5329,
    "ithub": 5330,
    "rees": 5331,
    "SO": 5332,
    "onge": 5333,
    "atives": 5334,
    "ĠWWE": 5335,
    "ĠWere": 5336,
    "Ġsingers": 5337,
    "Ġjudgement": 5338,
    "ĠMidwest": 5339,
    "ĠDakota": 5340,
    "Ġscene": 5341,
    "anz": 5342,
    "ths": 5343,
    "Ġcreat": 5344,
    "Ġburning": 5345,
    "Ġstaff": 5346,
    "embed": 5347,
    "Ġdoesn": 5348,
    "Ġdisgust": 5349,
    "ĠIND": 5350,
    "Ġdeg": 5351,
    "Ġpencil": 5352,
    "Ġvegetarian": 5353,
    "Ġswipe": 5354,
    "Ġpromotional": 5355,
    "Ġdinosaur": 5356,
    "intage": 5357,
    "Ġwithdrawn": 5358,
    "api": 5359,
    "ĠBil": 5360,
    "ĠCock": 5361,
    "Ġparan": 5362,
    "Ġdisgr": 5363,
    "ĠEvening": 5364,
    "ĠSounds": 5365,
    "Ġmunicipality": 5366,
    "Ġdeduct": 5367,
    "Ġnodes": 5368,
    "ĠArchives": 5369,
    "ĠSerge": 5370,
    "ĠNYC": 5371,
    "ĠIntegr": 5372,
    "quin": 5373,
    "ĠSDK": 5374,
    "ocations": 5375,
    "Ġswit": 5376,
    "Ġmerge": 5377,
    "Ġdrown": 5378,
    "Ġoverwhel": 5379,
    "fits": 5380,
    "ĠDaw": 5381,
    "Coming": 5382,
    "Ġcentres": 5383,
    "aman": 5384,
    "ĠArchive": 5385,
    "Ġargues": 5386,
    "ĠBak": 5387,
    "ĠGo": 5388,
    "Quick": 5389,
    "%)": 5390,
    "ĠCap": 5391,
    "attle": 5392,
    "Ġparole": 5393,
    "Ġattracts": 5394,
    "Ġbed": 5395,
    "ĠWen": 5396,
    "Ġurging": 5397,
    "ocating": 5398,
    "Ġappliances": 5399,
    "first": 5400,
    "ĠPhiladelphia": 5401,
    "roller": 5402,
    "2011": 5403,
    "1999": 5404,
    "Ġtore": 5405,
    "Ġ_": 5406,
    "Ġboards": 5407,
    "Ġaccounts": 5408,
    "esh": 5409,
    "Ġliberals": 5410,
    "Ġoccurs": 5411,
    "Ġprimaries": 5412,
    "Ġextradition": 5413,
    "ĠAFC": 5414,
    "IN": 5415,
    "GC": 5416,
    "Ġbreadth": 5417,
    "Across": 5418,
    "ĠDT": 5419,
    "terday": 5420,
    "Ġboring": 5421,
    "Ġfront": 5422,
    "Ġfood": 5423,
    "Ġnevertheless": 5424,
    "ĠTruck": 5425,
    "sy": 5426,
    "ĠMonroe": 5427,
    "ĠCL": 5428,
    "Ġbrightness": 5429,
    "ĠMotor": 5430,
    "Ġsweat": 5431,
    "Ġforgiven": 5432,
    "Ġsupermarket": 5433,
    "uries": 5434,
    "Ġapparatus": 5435,
    "mod": 5436,
    "Ġrendering": 5437,
    "Ġbull": 5438,
    "istine": 5439,
    "rum": 5440,
    "Ġbeliever": 5441,
    "lord": 5442,
    "Ġhassle": 5443,
    "Ġnumber": 5444,
    "high": 5445,
    "Ġconstructive": 5446,
    "Ġpassed": 5447,
    "ĠAccording": 5448,
    "ĠÐ·": 5449,
    "Ġbol": 5450,
    "Ġcontenders": 5451,
    "rez": 5452,
    "\".": 5453,
    "ĠElectric": 5454,
    "Ġmush": 5455,
    "osaur": 5456,
    "ĠMN": 5457,
    "than": 5458,
    "ĠÍ": 5459,
    "abb": 5460,
    "Ġdetectives": 5461,
    "ommod": 5462,
    "ĠBeer": 5463,
    "ĠAny": 5464,
    "ĠJunior": 5465,
    "Ġpointers": 5466,
    "Ġtalented": 5467,
    "Ġrank": 5468,
    "ĠBooks": 5469,
    "nerg": 5470,
    "arty": 5471,
    "Ġriot": 5472,
    "raved": 5473,
    "ities": 5474,
    "Ġweaponry": 5475,
    "Ġdon": 5476,
    "Ġimport": 5477,
    "Ġcontests": 5478,
    "itably": 5479,
    "Ġauditor": 5480,
    "ĠConservation": 5481,
    "Ġexclusively": 5482,
    "Exit": 5483,
    "ĠAllow": 5484,
    "ĠPlanned": 5485,
    "ĠVolkswagen": 5486,
    "ĠMay": 5487,
    "Ġgiants": 5488,
    "ĠKurt": 5489,
    "rax": 5490,
    "ĠBen": 5491,
    "Ġinvoked": 5492,
    "weet": 5493,
    "fires": 5494,
    "untary": 5495,
    "arthy": 5496,
    "ĠTenn": 5497,
    "Ġale": 5498,
    "Ġformats": 5499,
    "Ġeasing": 5500,
    "Ġinvite": 5501,
    "ane": 5502,
    "priv": 5503,
    "Ġannot": 5504,
    "Ġdiligence": 5505,
    "ĠStar": 5506,
    "ĠRep": 5507,
    "Ġstory": 5508,
    "Invest": 5509,
    "LS": 5510,
    "ĠMaxwell": 5511,
    "ĠAmerica": 5512,
    "give": 5513,
    "minster": 5514,
    "orrow": 5515,
    "Ġaside": 5516,
    "Ġperforms": 5517,
    "plant": 5518,
    "ĠRoberto": 5519,
    "ĠMontreal": 5520,
    "Ġmeasuring": 5521,
    "ĠRosa": 5522,
    "ĠTestament": 5523,
    "Ġirrigation": 5524,
    "ĠEng": 5525,
    "Ġbetting": 5526,
    "Ġsubmitting": 5527,
    "ĠEcuador": 5528,
    "ĠOf": 5529,
    "Ġvisas": 5530,
    "Ġuninsured": 5531,
    "Ġfar": 5532,
    "don": 5533,
    "Ð¾Ð": 5534,
    "PT": 5535,
    "Ġrobot": 5536,
    "erie": 5537,
    "Micro": 5538,
    "Ġwood": 5539,
    "Ġimpair": 5540,
    "IX": 5541,
    "Ġauthoritarian": 5542,
    "Jud": 5543,
    "Ġfactories": 5544,
    "...)": 5545,
    "Ġyounger": 5546,
    "Ġunaff": 5547,
    "Scientists": 5548,
    "ĠGraphics": 5549,
    "gin": 5550,
    "giving": 5551,
    "ĠEuros": 5552,
    "ĠPix": 5553,
    "ĠSimilarly": 5554,
    "ĠMau": 5555,
    "ĠFill": 5556,
    "Players": 5557,
    "Ġzeal": 5558,
    "Ġ1964": 5559,
    "error": 5560,
    "Ġsuspic": 5561,
    "Ġassumes": 5562,
    "Ġdisposal": 5563,
    "Ġpublishers": 5564,
    "Ġdamaged": 5565,
    "icts": 5566,
    "Ġboy": 5567,
    "Ġtemptation": 5568,
    "ĠFinland": 5569,
    "ATCH": 5570,
    "erek": 5571,
    "Ġ63": 5572,
    "Ġplay": 5573,
    "ĠGeek": 5574,
    "intern": 5575,
    "ĠDW": 5576,
    "visors": 5577,
    "ĠSud": 5578,
    "imination": 5579,
    "Ġrestaurants": 5580,
    "Ġcaps": 5581,
    "ĠMain": 5582,
    "ul": 5583,
    "Ġdog": 5584,
    "Ġsucceeded": 5585,
    "iller": 5586,
    "ĠSa": 5587,
    "Ġphotograp": 5588,
    "ĠAHL": 5589,
    "Ġupload": 5590,
    "ĠWesley": 5591,
    "Ġstage": 5592,
    "ĠHur": 5593,
    "ependent": 5594,
    "Ġpopulation": 5595,
    "Ġ135": 5596,
    "bane": 5597,
    "1992": 5598,
    "Ġmathematical": 5599,
    "Reg": 5600,
    "Ġdrafting": 5601,
    "ĠDamage": 5602,
    "Ġhigh": 5603,
    "Ġsacred": 5604,
    "ĠWalsh": 5605,
    "Ġavoids": 5606,
    "ek": 5607,
    "Ġcontact": 5608,
    "ĠLaboratory": 5609,
    "Ġthesis": 5610,
    "Ġstick": 5611,
    "Ġimplemented": 5612,
    "Ġpasswords": 5613,
    "Ġstating": 5614,
    "Ġhockey": 5615,
    "Ġcompliant": 5616,
    "Ġ48": 5617,
    "Ġlaunches": 5618,
    "Ġsanctioned": 5619,
    "payer": 5620,
    "Ġkeeps": 5621,
    "Ġsemi": 5622,
    "ĠMan": 5623,
    "Ġfavored": 5624,
    "ĠThought": 5625,
    "Ġskipped": 5626,
    "Il": 5627,
    "Ġdetached": 5628,
    "cies": 5629,
    "Ġav": 5630,
    "ĠMiddle": 5631,
    "incial": 5632,
    "Ġsocks": 5633,
    "Ġvisa": 5634,
    "Ġhates": 5635,
    "Then": 5636,
    "Ġferry": 5637,
    "Ġhim": 5638,
    "integr": 5639,
    "Ġrepaired": 5640,
    "Ġdefendant": 5641,
    "Ġreconciliation": 5642,
    "Ġeight": 5643,
    "Ġmessage": 5644,
    "going": 5645,
    "ro": 5646,
    "Ġtourism": 5647,
    "emb": 5648,
    "Ġhelped": 5649,
    "Ġproviders": 5650,
    "ĠYour": 5651,
    "Ġuphill": 5652,
    "Ġbasin": 5653,
    "Ġabstraction": 5654,
    "ĠYates": 5655,
    "Ġbump": 5656,
    "Commun": 5657,
    "Ġregeneration": 5658,
    "--------": 5659,
    "swick": 5660,
    "outhern": 5661,
    "Ġasserted": 5662,
    "ĠStuart": 5663,
    "Books": 5664,
    "Ġinterviewed": 5665,
    "desc": 5666,
    "awi": 5667,
    "te": 5668,
    "isman": 5669,
    "Ġanimation": 5670,
    "minute": 5671,
    "ĠLG": 5672,
    "Ġinqu": 5673,
    "irk": 5674,
    "java": 5675,
    "ĠJPMorgan": 5676,
    "Ġfeatured": 5677,
    "ĠAmong": 5678,
    "Ġreject": 5679,
    "ĠMatrix": 5680,
    "ĠDIS": 5681,
    "Ġside": 5682,
    "ĠPorter": 5683,
    "enez": 5684,
    "ĠSEC": 5685,
    "Ġsimultaneously": 5686,
    "ĠFuel": 5687,
    "SN": 5688,
    "Ġurgent": 5689,
    "Ġtackle": 5690,
    "61": 5691,
    "party": 5692,
    "Ġanalyze": 5693,
    "ĠVirgin": 5694,
    "iesel": 5695,
    "Ġspilled": 5696,
    "ĠPV": 5697,
    "Ġdiagn": 5698,
    "Ġpertain": 5699,
    "ĠEpstein": 5700,
    "pool": 5701,
    "Ġdisadvantaged": 5702,
    "gers": 5703,
    "awk": 5704,
    "Ġgreat": 5705,
    "Ġweakened": 5706,
    "Ġwings": 5707,
    "Ġt": 5708,
    "ĠAmericas": 5709,
    "erv": 5710,
    "cohol": 5711,
    "ĠME": 5712,
    "ĠBlasio": 5713,
    "48": 5714,
    "GP": 5715,
    "ĠPik": 5716,
    "ĠVas": 5717,
    "ĠÂ±": 5718,
    "AK": 5719,
    "Ġhail": 5720,
    "Ġsore": 5721,
    "ĠCub": 5722,
    "ĠEv": 5723,
    "Ġquestionnaire": 5724,
    "Ġfacilities": 5725,
    "Ġpillars": 5726,
    "brow": 5727,
    "IB": 5728,
    "################": 5729,
    "Ġdunk": 5730,
    "ĠEnglish": 5731,
    "Ġobservation": 5732,
    "pill": 5733,
    "Ġanth": 5734,
    "would": 5735,
    "Ġunsuccessfully": 5736,
    "lynn": 5737,
    "Ġ65": 5738,
    "Ġclicks": 5739,
    "laughs": 5740,
    "Ġappearances": 5741,
    "Ġunaware": 5742,
    "Ġdonated": 5743,
    "Ġended": 5744,
    "Ġrenovation": 5745,
    "Ġendure": 5746,
    "rica": 5747,
    "Ġreferendum": 5748,
    "Ġblockchain": 5749,
    "ĠFreddie": 5750,
    "')": 5751,
    "third": 5752,
    "ĠUruguay": 5753,
    "Ġliber": 5754,
    "Ġlawn": 5755,
    "ĠGreg": 5756,
    "ĠTimber": 5757,
    "Ġdominates": 5758,
    "ĠEnough": 5759,
    "bd": 5760,
    "GRE": 5761,
    "Sund": 5762,
    "ĠVikings": 5763,
    "New": 5764,
    "ĠAthletic": 5765,
    "Your": 5766,
    "Ġraided": 5767,
    "service": 5768,
    "bound": 5769,
    "Ġvolumes": 5770,
    "ĠBuzzFeed": 5771,
    "ieri": 5772,
    "ĠPut": 5773,
    "ĠAndrews": 5774,
    "ordinate": 5775,
    "'s": 5776,
    "Ġdistinct": 5777,
    "rag": 5778,
    "enabled": 5779,
    "culture": 5780,
    "ouse": 5781,
    "ickets": 5782,
    "Ġmarches": 5783,
    "Ġventures": 5784,
    "aughed": 5785,
    "ĠED": 5786,
    "»¿": 5787,
    "Ġang": 5788,
    "ĠDP": 5789,
    "Ġenergy": 5790,
    "gencies": 5791,
    "Ġrab": 5792,
    "ĠPadres": 5793,
    "Ġpict": 5794,
    "Ġfan": 5795,
    "Ġtrips": 5796,
    "Ġknock": 5797,
    "Ġmodel": 5798,
    "ĠString": 5799,
    "Ġmotorcycle": 5800,
    "Ġstyles": 5801,
    "ĠDuterte": 5802,
    "Ġrealized": 5803,
    "Ġconsciously": 5804,
    "Ġnewsp": 5805,
    "ĠKling": 5806,
    "Ġwoes": 5807,
    "Close": 5808,
    "Ġrobber": 5809,
    "ovsky": 5810,
    "ĠAllies": 5811,
    "Ash": 5812,
    "Ġstroke": 5813,
    "ranked": 5814,
    "Ġ**": 5815,
    "Sim": 5816,
    "Ġencrypted": 5817,
    "Ġhighways": 5818,
    "ĠOpinion": 5819,
    "Indian": 5820,
    "Ġpopulist": 5821,
    "ĠIm": 5822,
    "iries": 5823,
    "Ġtext": 5824,
    "ĠMach": 5825,
    "iga": 5826,
    "Ġpartial": 5827,
    "ounge": 5828,
    "Ġpig": 5829,
    "ĠBi": 5830,
    "ĠSale": 5831,
    "READ": 5832,
    "walker": 5833,
    "ĠTaking": 5834,
    "ĠDie": 5835,
    "itations": 5836,
    "erc": 5837,
    "ĠStick": 5838,
    "Lou": 5839,
    "134": 5840,
    "ĠCAR": 5841,
    "sub": 5842,
    "Ġhottest": 5843,
    "ĠFro": 5844,
    "ĠGuys": 5845,
    "ĠMind": 5846,
    "writing": 5847,
    "Ġrelief": 5848,
    "Ġtherap": 5849,
    "ĠBrus": 5850,
    "Ġhungry": 5851,
    "Ġsexist": 5852,
    "Con": 5853,
    "ĠBalt": 5854,
    "Ġsuperhero": 5855,
    "Ġrankings": 5856,
    "Ġlightweight": 5857,
    "ĠAcross": 5858,
    "pected": 5859,
    "ĠFinals": 5860,
    "Ġvaccination": 5861,
    "mand": 5862,
    "ĠDad": 5863,
    "Ġvehicle": 5864,
    "ĠGre": 5865,
    "ĠCV": 5866,
    "ĠMill": 5867,
    "ĠHalifax": 5868,
    "ĠLife": 5869,
    "Ġ[...]": 5870,
    "ribution": 5871,
    "Ġrevers": 5872,
    "max": 5873,
    "grass": 5874,
    "ĠZimmerman": 5875,
    "ĠFitz": 5876,
    "Real": 5877,
    "Ġmandates": 5878,
    "Ġbuys": 5879,
    "yton": 5880,
    "Ġpainfully": 5881,
    "Ġrecording": 5882,
    "Ġsuffering": 5883,
    "Fair": 5884,
    "Ġrogue": 5885,
    "isi": 5886,
    "Ġawait": 5887,
    "Graph": 5888,
    "ite": 5889,
    "ĠAlliance": 5890,
    "Ġwarriors": 5891,
    "Ġproducer": 5892,
    "Ġcontracted": 5893,
    "ĠIz": 5894,
    "____": 5895,
    "Ġillegally": 5896,
    "Ġdrawn": 5897,
    "Ġexplode": 5898,
    "ĠHuman": 5899,
    "ond": 5900,
    "mph": 5901,
    "ey": 5902,
    "Screen": 5903,
    "air": 5904,
    "ĠBusiness": 5905,
    "Ġclimbed": 5906,
    "Ġmerchants": 5907,
    "Ġhomeless": 5908,
    "ech": 5909,
    "Ġbuildings": 5910,
    "tag": 5911,
    "ĠLet": 5912,
    "DER": 5913,
    "ĠHamas": 5914,
    "Ġold": 5915,
    "ĠDol": 5916,
    "ĠSheriff": 5917,
    "Ġenforced": 5918,
    "Ġadapting": 5919,
    "ĠLennon": 5920,
    "Ġprogramme": 5921,
    "CO": 5922,
    "ĠBrig": 5923,
    "Ġmetabol": 5924,
    "Ġ280": 5925,
    "tale": 5926,
    "Ġperman": 5927,
    "ĠCleveland": 5928,
    "Ġnegotiating": 5929,
    "ĠACA": 5930,
    "Ġlicens": 5931,
    "ĠSega": 5932,
    "Ġpolyg": 5933,
    "Ġescaped": 5934,
    "ĠWo": 5935,
    "ĠPant": 5936,
    "Ġshrine": 5937,
    "ĠWe": 5938,
    "ĠDav": 5939,
    "Ġcollect": 5940,
    "Ġengine": 5941,
    "Ġpools": 5942,
    "Ġexotic": 5943,
    "Ġregular": 5944,
    "sewhere": 5945,
    "Ġhaven": 5946,
    ")": 5947,
    "Ġmeanwhile": 5948,
    "Ġtandem": 5949,
    "soon": 5950,
    "uras": 5951,
    "ĠAnch": 5952,
    "ĠEthics": 5953,
    "Ġsectors": 5954,
    "inders": 5955,
    "ĠUSD": 5956,
    "ĠFernand": 5957,
    "Ġinsufficient": 5958,
    "Ġpunct": 5959,
    "Ġsin": 5960,
    "ĠRick": 5961,
    "abouts": 5962,
    "ĠCoke": 5963,
    "Ġbleak": 5964,
    "am": 5965,
    "Ġsuspension": 5966,
    "Ġvarieties": 5967,
    "Ġhaun": 5968,
    "del": 5969,
    "Ġproject": 5970,
    "ĠBing": 5971,
    "Ġhomosexual": 5972,
    "ĠMS": 5973,
    "ĠCH": 5974,
    "Ġelusive": 5975,
    "Ġautopsy": 5976,
    "February": 5977,
    "Wilson": 5978,
    "JC": 5979,
    "oids": 5980,
    "Ġembark": 5981,
    "!\"": 5982,
    "resh": 5983,
    "Ġpublications": 5984,
    "oman": 5985,
    "Ġdiscovers": 5986,
    "ĠMIN": 5987,
    "Co": 5988,
    "Employ": 5989,
    "Ġroutinely": 5990,
    "ĠJ": 5991,
    "aced": 5992,
    "ortunate": 5993,
    "identified": 5994,
    "Ġchoices": 5995,
    "ĠEst": 5996,
    "Ġaddresses": 5997,
    "Ruby": 5998,
    "Ġchatting": 5999,
    "Ġintellectual": 6000,
    "Ġcost": 6001,
    "Ġmarking": 6002,
    "':": 6003,
    "FE": 6004,
    "Ġgluten": 6005,
    "lib": 6006,
    "ARY": 6007,
    "ĠEvents": 6008,
    "Ġtaken": 6009,
    "Ġimportance": 6010,
    "atern": 6011,
    "ĠFac": 6012,
    "vasive": 6013,
    "pensive": 6014,
    "ĠIll": 6015,
    "ĠKenya": 6016,
    "Ġpropag": 6017,
    "Ġhelps": 6018,
    "Ġguarant": 6019,
    "ĠSevent": 6020,
    "culation": 6021,
    "ĠBat": 6022,
    "another": 6023,
    "ĠiPod": 6024,
    "ello": 6025,
    "ocumented": 6026,
    "Ġmortg": 6027,
    "Ġuneven": 6028,
    "Ġtunnel": 6029,
    "Ġairborne": 6030,
    "ĠTay": 6031,
    "Ġpatrons": 6032,
    "worked": 6033,
    "Ġorig": 6034,
    "Ġinadvertently": 6035,
    "Ġprecedent": 6036,
    "Ġwaiting": 6037,
    "Ġclarity": 6038,
    "ĠScorp": 6039,
    "ĠPedro": 6040,
    "ĠWhis": 6041,
    "Ġcharacterized": 6042,
    "ws": 6043,
    "Ġpuzzle": 6044,
    "igans": 6045,
    "Ġavoided": 6046,
    "ĠSE": 6047,
    "Ġsacks": 6048,
    "ĠNim": 6049,
    "ĠShooting": 6050,
    "Ġelements": 6051,
    "Ġcomics": 6052,
    "Ġfrightening": 6053,
    "Is": 6054,
    "ference": 6055,
    "ADE": 6056,
    "ĠLe": 6057,
    "Ġhotels": 6058,
    "Ġconjunction": 6059,
    "Ġrumor": 6060,
    "Ġsat": 6061,
    "Ġcorrespondent": 6062,
    "Ġtarget": 6063,
    "Ġviability": 6064,
    "Ġapplicable": 6065,
    "ĠLegal": 6066,
    "Ġlunch": 6067,
    "Ġjets": 6068,
    "ĠHA": 6069,
    "Ġfeeding": 6070,
    "iction": 6071,
    "Fit": 6072,
    "bour": 6073,
    "}{": 6074,
    "Ġincreases": 6075,
    "Ñİ": 6076,
    "ĠOdyssey": 6077,
    "Ġsecretary": 6078,
    "ĠURL": 6079,
    "ĠCl": 6080,
    "ĠDoe": 6081,
    "Ġinflamm": 6082,
    "les": 6083,
    "orical": 6084,
    "Ġmortar": 6085,
    "Ġfascist": 6086,
    "Ġshroud": 6087,
    "Ġplanting": 6088,
    "Ġslightly": 6089,
    "ĠHob": 6090,
    "Ġcandidates": 6091,
    "Ġflower": 6092,
    "Client": 6093,
    "ĠTodd": 6094,
    "ĠMessage": 6095,
    "Ġinformative": 6096,
    "Ġmistakenly": 6097,
    "ensus": 6098,
    "Ġ1970": 6099,
    "agine": 6100,
    "Ġorgan": 6101,
    "Ġrestricting": 6102,
    "f": 6103,
    "Ġpivot": 6104,
    "Ġsearch": 6105,
    "Ġalleged": 6106,
    "Rad": 6107,
    "oody": 6108,
    "ĠBerkeley": 6109,
    "Ġsauce": 6110,
    "Ġscrub": 6111,
    "Ġroller": 6112,
    "Ġdietary": 6113,
    "Ġrelies": 6114,
    "iffany": 6115,
    "ney": 6116,
    "ela": 6117,
    "Ġwart": 6118,
    "Ġcommittees": 6119,
    "Ġprime": 6120,
    "izophren": 6121,
    "ĠLil": 6122,
    "Ġcartels": 6123,
    "500": 6124,
    "Ġforged": 6125,
    "ĠVert": 6126,
    "Ġmedal": 6127,
    "Ġobligations": 6128,
    "gone": 6129,
    "oya": 6130,
    "oji": 6131,
    "Ġrooftop": 6132,
    "Ġunf": 6133,
    "Al": 6134,
    "Ġthreats": 6135,
    "Ġdeleg": 6136,
    "ournals": 6137,
    "ĠWatt": 6138,
    "Ġtoast": 6139,
    "Ġreminiscent": 6140,
    "Ġmarvel": 6141,
    "ĠStanford": 6142,
    "Ġrat": 6143,
    "Ġappoint": 6144,
    "Ġstruggled": 6145,
    "ĠTwitter": 6146,
    "Ġmyth": 6147,
    "ĠOrt": 6148,
    "ĠDru": 6149,
    "Ġfour": 6150,
    "Ġgrounds": 6151,
    "ĠArms": 6152,
    "Ġrollout": 6153,
    "Ġtransparent": 6154,
    "Ġhospitality": 6155,
    "aggering": 6156,
    "Ġmorning": 6157,
    "Ġ90": 6158,
    "Ġcann": 6159,
    "ste": 6160,
    "ĠLegendary": 6161,
    "ĠNYPD": 6162,
    "Ġfonts": 6163,
    "Ġgamble": 6164,
    "Ġwaiver": 6165,
    "Ġdisl": 6166,
    "asm": 6167,
    "ĠEsc": 6168,
    "rait": 6169,
    "ĠHistorical": 6170,
    "ĠNick": 6171,
    "ĠStef": 6172,
    "Ġcataly": 6173,
    "Ġsupernatural": 6174,
    "Ġ480": 6175,
    "ablished": 6176,
    "jamin": 6177,
    "Dar": 6178,
    "Ġstrength": 6179,
    "rior": 6180,
    "ĠOpp": 6181,
    "ulse": 6182,
    "Gal": 6183,
    "));": 6184,
    "forcement": 6185,
    "Ġbackground": 6186,
    "Ġgradually": 6187,
    "ĠBes": 6188,
    "Ġencro": 6189,
    "opathy": 6190,
    "15": 6191,
    "ĠFantastic": 6192,
    "Ġ2022": 6193,
    "select": 6194,
    "Ġenvelop": 6195,
    "lt": 6196,
    "Ġmoons": 6197,
    "ĠAbbey": 6198,
    "break": 6199,
    "Ġhabit": 6200,
    "Last": 6201,
    "ĠPersonally": 6202,
    "Ġprogrammes": 6203,
    "Ġrh": 6204,
    "Ġracially": 6205,
    "Ġlabs": 6206,
    "ĠAges": 6207,
    "Ġorganic": 6208,
    "fund": 6209,
    "Ġward": 6210,
    "ĠOctober": 6211,
    "versely": 6212,
    "Ġwet": 6213,
    "visor": 6214,
    "Ġlabeled": 6215,
    "Ġdissent": 6216,
    "Ġsetback": 6217,
    "Ġcompare": 6218,
    "Ġmessages": 6219,
    "ĠRupert": 6220,
    "Ġapparently": 6221,
    "ĠBitcoins": 6222,
    "ĠMen": 6223,
    "Ġconvicted": 6224,
    "Ġcontractors": 6225,
    "Ġdarker": 6226,
    "oks": 6227,
    "agar": 6228,
    "Ġunemployment": 6229,
    "Ġcoating": 6230,
    "KO": 6231,
    "ĠDesign": 6232,
    "Ġpossessed": 6233,
    "raf": 6234,
    "ĠSerbia": 6235,
    "Ġcheckpoints": 6236,
    "Ġrather": 6237,
    "Ġcompares": 6238,
    "Ġtremend": 6239,
    "Ġevac": 6240,
    "Ġsight": 6241,
    "Ġcontradictions": 6242,
    "ĠIraq": 6243,
    "ĠHam": 6244,
    "mentioned": 6245,
    "ĠKn": 6246,
    "Ġtor": 6247,
    "ĠDerrick": 6248,
    "Ġ1880": 6249,
    "mor": 6250,
    "ĠNorwegian": 6251,
    "Ġlux": 6252,
    "Ġshaking": 6253,
    "Ġlegitim": 6254,
    "Ġabundant": 6255,
    "Ġspirit": 6256,
    "Ġbillionaire": 6257,
    "Due": 6258,
    "igo": 6259,
    "ĠMil": 6260,
    "Ġfall": 6261,
    "eger": 6262,
    "ĠBad": 6263,
    "AR": 6264,
    "Ġallot": 6265,
    "Ġinjury": 6266,
    "Ġirrig": 6267,
    "Ġunstable": 6268,
    "Ġcoherent": 6269,
    "ents": 6270,
    "Ġtransplant": 6271,
    "Ġserious": 6272,
    "ĠEconomic": 6273,
    "Enter": 6274,
    "Ġindicates": 6275,
    "Ġaccessed": 6276,
    "ĠPerman": 6277,
    "ĠForce": 6278,
    "ĠMoh": 6279,
    "Ġcompeting": 6280,
    "Ġflo": 6281,
    "Ġdrift": 6282,
    "liminary": 6283,
    "Ġspawn": 6284,
    "Ġfiery": 6285,
    "Port": 6286,
    "osexual": 6287,
    "ĠCharlottesville": 6288,
    "Ġtrue": 6289,
    "rup": 6290,
    "Ġbabies": 6291,
    "Ġappalling": 6292,
    "ĠParliamentary": 6293,
    "Ġinex": 6294,
    "management": 6295,
    "ĠContest": 6296,
    "Ġaccordingly": 6297,
    "ĠLoss": 6298,
    "Ġphysician": 6299,
    "Ġcakes": 6300,
    "Ġvirtue": 6301,
    "ological": 6302,
    "Ġbeloved": 6303,
    "Ġacceler": 6304,
    "CH": 6305,
    "Ġrising": 6306,
    "Ġtalking": 6307,
    "Ġfail": 6308,
    "ĠWhatever": 6309,
    "IVE": 6310,
    "ĠTayyip": 6311,
    "ĠMayor": 6312,
    "thora": 6313,
    "ĠHarbaugh": 6314,
    "Ġreduces": 6315,
    "ĠBlocked": 6316,
    "Ġï¿½": 6317,
    ",âĢĻâĢĿ": 6318,
    "Ġessential": 6319,
    "ĠDev": 6320,
    "¼": 6321,
    "Ġhorror": 6322,
    "Ġrises": 6323,
    "ĠMexicans": 6324,
    "ĠPerhaps": 6325,
    "Ġservers": 6326,
    "Ġblah": 6327,
    "idge": 6328,
    "fol": 6329,
    "WH": 6330,
    "Ġupheld": 6331,
    "Ġamph": 6332,
    "Ġfiltering": 6333,
    "ributed": 6334,
    "Ġdragons": 6335,
    "ĠCentral": 6336,
    "Ġgrabbed": 6337,
    "ethical": 6338,
    "ĠSH": 6339,
    "ecd": 6340,
    "where": 6341,
    "Ġtheir": 6342,
    "Ġsur": 6343,
    "ract": 6344,
    "Ġhumble": 6345,
    "ĠHugo": 6346,
    "uth": 6347,
    "oo": 6348,
    "Even": 6349,
    "ĠMarc": 6350,
    "ĠCatch": 6351,
    "ĠBI": 6352,
    "ĠPett": 6353,
    "rovers": 6354,
    "uses": 6355,
    "ĠThai": 6356,
    "Ġperiodically": 6357,
    "Ġves": 6358,
    "Ġstagn": 6359,
    "Ġilleg": 6360,
    "Ġqueries": 6361,
    "Ġsidewalks": 6362,
    "104": 6363,
    "Ġrevision": 6364,
    "Ġfarms": 6365,
    ")-": 6366,
    "athetic": 6367,
    "ioxide": 6368,
    "Ġ35": 6369,
    "Ġoper": 6370,
    "Ġarc": 6371,
    "bitious": 6372,
    "Ġclasses": 6373,
    "Ġrefugees": 6374,
    "Star": 6375,
    "Ġabout": 6376,
    "Ġschol": 6377,
    "ĠVPN": 6378,
    "ual": 6379,
    "AN": 6380,
    "Ġhal": 6381,
    "andra": 6382,
    "ĠAlien": 6383,
    "Ġrounds": 6384,
    "Ã³n": 6385,
    "Þ": 6386,
    "ĠEle": 6387,
    "ĠArgentine": 6388,
    "Ġamount": 6389,
    "Recent": 6390,
    "ĠHoover": 6391,
    "Ġchancellor": 6392,
    "Ġ1936": 6393,
    "Ġblat": 6394,
    "Ġprivately": 6395,
    "Ġsandwic": 6396,
    "Ġplanetary": 6397,
    "Ġtro": 6398,
    "Ġreversal": 6399,
    "ĠCOL": 6400,
    "ĠBlank": 6401,
    "ntil": 6402,
    "ĠTerrit": 6403,
    "Ġneck": 6404,
    "ĠBarclays": 6405,
    ".âĢľ": 6406,
    "ĠHas": 6407,
    "ĠMurray": 6408,
    "Ġtaxing": 6409,
    "Ġbacking": 6410,
    "ĠEgyptians": 6411,
    "ĠEVER": 6412,
    "Ġwidening": 6413,
    "ocene": 6414,
    "Ġbundle": 6415,
    "oliberal": 6416,
    "Ġvigilant": 6417,
    "Ġprobes": 6418,
    "Ġconcerns": 6419,
    "Ġfiguring": 6420,
    "ĠVeg": 6421,
    "ĠBasically": 6422,
    "ĠFam": 6423,
    "Ġawkward": 6424,
    "Ġmotivation": 6425,
    "ĠFlip": 6426,
    "Ġcaus": 6427,
    "colored": 6428,
    "lat": 6429,
    "ĠCheney": 6430,
    "Ġindec": 6431,
    "ĠTerry": 6432,
    "ĠTechnology": 6433,
    "ĠHay": 6434,
    "WA": 6435,
    "Ġknocking": 6436,
    "Ġinvites": 6437,
    "Ġspice": 6438,
    "Ġindoor": 6439,
    "ometer": 6440,
    "Ġsuing": 6441,
    "ilant": 6442,
    "Ġexamined": 6443,
    "Ġfamed": 6444,
    "ĠDot": 6445,
    "Not": 6446,
    "becue": 6447,
    "Ġany": 6448,
    "Ġempty": 6449,
    ":": 6450,
    "Miss": 6451,
    "Ġautomated": 6452,
    "par": 6453,
    "Ġmember": 6454,
    "ysical": 6455,
    "Ġlocation": 6456,
    "Ġresist": 6457,
    "ĠUT": 6458,
    "Ġallege": 6459,
    "Ġaccidental": 6460,
    "Ġspecs": 6461,
    "56": 6462,
    "ĠSci": 6463,
    "Ġhubs": 6464,
    "Ġsod": 6465,
    "Ġboss": 6466,
    "Ġpest": 6467,
    "Ġgrat": 6468,
    "Ġwom": 6469,
    "Ġmoderate": 6470,
    "Ġall": 6471,
    "ĠWithout": 6472,
    "Mobile": 6473,
    "Ġreserve": 6474,
    "Ġbolster": 6475,
    "Ġanomaly": 6476,
    "etermined": 6477,
    "ĠNPC": 6478,
    "Ġmoney": 6479,
    "slist": 6480,
    "Fun": 6481,
    "Ġcan": 6482,
    "Ġinflux": 6483,
    "Ġsuburbs": 6484,
    "etus": 6485,
    "Ġaka": 6486,
    "Ġev": 6487,
    "Ġversions": 6488,
    "Ġsorted": 6489,
    "ctory": 6490,
    "Got": 6491,
    "Ġlo": 6492,
    "ĠOtherwise": 6493,
    "Ġpolished": 6494,
    "ench": 6495,
    "Ġseals": 6496,
    "ĠCD": 6497,
    "kg": 6498,
    "ushes": 6499,
    "ĠFusion": 6500,
    "Ġblink": 6501,
    "Ġnewslet": 6502,
    "Ġmisrepresent": 6503,
    "Ġrepeating": 6504,
    "Ġ2014": 6505,
    "ĠStation": 6506,
    "ĠDesigner": 6507,
    "ĠDi": 6508,
    "Ġshines": 6509,
    "Ġdisse": 6510,
    "sim": 6511,
    "ĠMSNBC": 6512,
    "Ġtangible": 6513,
    "Ġslump": 6514,
    "ĠJab": 6515,
    "ĠContinue": 6516,
    "ĠCompany": 6517,
    "Ġshaped": 6518,
    "Ġod": 6519,
    "Ġkm": 6520,
    "eland": 6521,
    "Sign": 6522,
    "ãģ£": 6523,
    "Ġchords": 6524,
    "ritis": 6525,
    "Ġcontem": 6526,
    "Ġhelicopter": 6527,
    "Ġmounting": 6528,
    "BC": 6529,
    "ching": 6530,
    "Nusra": 6531,
    "sell": 6532,
    "Ġadmiration": 6533,
    "ĠMets": 6534,
    "Ġforums": 6535,
    "Ġruling": 6536,
    "Ġfield": 6537,
    "image": 6538,
    "ĠTM": 6539,
    "ĠYork": 6540,
    "Ġalliances": 6541,
    "Ġcited": 6542,
    "ĠSimpson": 6543,
    "ĠPhase": 6544,
    "ĠShakespeare": 6545,
    "Ġkilograms": 6546,
    "content": 6547,
    "river": 6548,
    "ĠHERE": 6549,
    "rict": 6550,
    "smart": 6551,
    "Ã¨re": 6552,
    "irgin": 6553,
    "Imagine": 6554,
    "stairs": 6555,
    "Ġjeopardy": 6556,
    "Ġimpossible": 6557,
    "ĠBaltimore": 6558,
    "Ġcorrid": 6559,
    "Ġconsuming": 6560,
    "Ġphoto": 6561,
    "Control": 6562,
    "Ġvil": 6563,
    "Ġclearing": 6564,
    "Ġub": 6565,
    "Ġoutfit": 6566,
    "fe": 6567,
    "Ġcasualties": 6568,
    "Str": 6569,
    "Ġintercept": 6570,
    "Äį": 6571,
    "ĠBean": 6572,
    "Ġimmers": 6573,
    "Ġsket": 6574,
    "Ġderived": 6575,
    "written": 6576,
    "Ġgriev": 6577,
    "Ġextras": 6578,
    "Ġtoes": 6579,
    "ĠBrit": 6580,
    "ģ": 6581,
    "Ġcontentious": 6582,
    "Ġceremon": 6583,
    "umns": 6584,
    "ĠCanon": 6585,
    "ante": 6586,
    "Ġoutlines": 6587,
    "Ġimprove": 6588,
    "Ġcarrier": 6589,
    "Ġsacrificed": 6590,
    "OS": 6591,
    "Ġboo": 6592,
    "held": 6593,
    "End": 6594,
    "ĠMuslim": 6595,
    "Ġadds": 6596,
    "ĠFlynn": 6597,
    "220": 6598,
    "Ġaligned": 6599,
    "Ġcareer": 6600,
    "Ġaffiliate": 6601,
    "ĠTurnbull": 6602,
    "har": 6603,
    "Ġexempt": 6604,
    "Ġnewcom": 6605,
    "Ġadvancing": 6606,
    "once": 6607,
    "ĠTheatre": 6608,
    "ĠIncome": 6609,
    "ĠImperial": 6610,
    "nm": 6611,
    "Ġwhistle": 6612,
    "Ġremember": 6613,
    "orge": 6614,
    "aturally": 6615,
    "ĠNewman": 6616,
    "Ġimaginary": 6617,
    "Ġpharm": 6618,
    "ĠNewark": 6619,
    "ĠAtlantic": 6620,
    "Ġsurrendered": 6621,
    "Ġcand": 6622,
    "Ġwebs": 6623,
    "asonable": 6624,
    "ĠLithuania": 6625,
    "Ġindications": 6626,
    "asters": 6627,
    "ĠAvery": 6628,
    "Ġtorque": 6629,
    "Ġunderstood": 6630,
    "ã": 6631,
    "ura": 6632,
    "Snow": 6633,
    "Will": 6634,
    "ĠCard": 6635,
    "usra": 6636,
    "Ġnotified": 6637,
    "Ġnoon": 6638,
    "gger": 6639,
    "furt": 6640,
    "È": 6641,
    "Ġpitches": 6642,
    "ĠCaucus": 6643,
    "ĠBur": 6644,
    "Ġarche": 6645,
    "Ġcooking": 6646,
    "Ġkeen": 6647,
    "ĠIsraeli": 6648,
    "brance": 6649,
    "Ġpact": 6650,
    "TON": 6651,
    "Ġscar": 6652,
    "Ġoutskirts": 6653,
    "Ġaggress": 6654,
    "128": 6655,
    "Ġstanding": 6656,
    "ĠIncre": 6657,
    "Engine": 6658,
    "marked": 6659,
    "Ġdisappoint": 6660,
    "Ġdes": 6661,
    "quel": 6662,
    "Ġpractical": 6663,
    "Del": 6664,
    "Judge": 6665,
    "Ġresources": 6666,
    "Well": 6667,
    "ANT": 6668,
    "Ġharmless": 6669,
    "Ġcans": 6670,
    "create": 6671,
    "ĠCJ": 6672,
    "ulz": 6673,
    "Ġpetrol": 6674,
    "Ġharassment": 6675,
    "lation": 6676,
    "ĠNepal": 6677,
    "Her": 6678,
    "Others": 6679,
    "ĠAN": 6680,
    "ĠName": 6681,
    "Ġjersey": 6682,
    "phot": 6683,
    "Ġballistic": 6684,
    "plement": 6685,
    "MO": 6686,
    "Leaks": 6687,
    "95": 6688,
    "uties": 6689,
    "Ġexh": 6690,
    "ĠBatman": 6691,
    "Ġequation": 6692,
    "Ġpremium": 6693,
    "Ġdash": 6694,
    "Ġvalidate": 6695,
    "Ġcompanions": 6696,
    "Ġhis": 6697,
    "ĠOnce": 6698,
    "Ġtissue": 6699,
    "Ġparticipated": 6700,
    "Ġsacrifice": 6701,
    "Ġcostume": 6702,
    "ming": 6703,
    "Ġbin": 6704,
    "Ġsuggested": 6705,
    "ĠFirefox": 6706,
    "Figure": 6707,
    "Ġove": 6708,
    "Ġretweet": 6709,
    "ĠEFF": 6710,
    "ĠSleep": 6711,
    "NY": 6712,
    "street": 6713,
    "Ġliberty": 6714,
    "icating": 6715,
    "Î¿": 6716,
    "tax": 6717,
    "ĠDerek": 6718,
    "llington": 6719,
    "gage": 6720,
    "Ġelites": 6721,
    "Ġstarving": 6722,
    "Ġstoring": 6723,
    "ation": 6724,
    "Bern": 6725,
    "Ġsy": 6726,
    "Ġperme": 6727,
    "Ġlately": 6728,
    "Ġguy": 6729,
    "ĠDL": 6730,
    "tlet": 6731,
    "ĠLear": 6732,
    "Better": 6733,
    "incoln": 6734,
    "ĠMachine": 6735,
    "ĠTexas": 6736,
    "ĠAbbas": 6737,
    "Ġpract": 6738,
    "Ġdudes": 6739,
    "Ġjournal": 6740,
    "ĠCare": 6741,
    "Ġreapp": 6742,
    "lickr": 6743,
    "ructive": 6744,
    "ĠSirius": 6745,
    "ĠGam": 6746,
    "¸": 6747,
    "Qaida": 6748,
    "Ġdestination": 6749,
    "Mir": 6750,
    "Ġexceeding": 6751,
    "ĠMotorola": 6752,
    "ĠUltra": 6753,
    "ogenic": 6754,
    "Ġneighb": 6755,
    "Ġearlier": 6756,
    "Ġmicrobi": 6757,
    "Ġ80": 6758,
    "ĠVaugh": 6759,
    "Ġcommunicating": 6760,
    "ãģĨ": 6761,
    "elong": 6762,
    "Ġwage": 6763,
    "Ġpairs": 6764,
    "angel": 6765,
    "urity": 6766,
    "caps": 6767,
    "vant": 6768,
    "Ġattach": 6769,
    "ĠSamsung": 6770,
    "Ġepic": 6771,
    "ilia": 6772,
    "Ġentrepreneurs": 6773,
    "ĠOthers": 6774,
    "ĠGerald": 6775,
    "ĠSinger": 6776,
    "ĠArabian": 6777,
    "ĠCertainly": 6778,
    "vm": 6779,
    "Ġlistener": 6780,
    "ĠSure": 6781,
    "Ġattempted": 6782,
    "Map": 6783,
    "urations": 6784,
    "Ġammunition": 6785,
    "Dear": 6786,
    "geoning": 6787,
    "Ġreclaim": 6788,
    "ĠIce": 6789,
    "INAL": 6790,
    "Ġcoconut": 6791,
    "ĠConsidering": 6792,
    "Ġslick": 6793,
    "ĠMurd": 6794,
    "ĠMartian": 6795,
    "Ġmurdering": 6796,
    "Ġappre": 6797,
    "Ġemerged": 6798,
    "Ġclinical": 6799,
    "Ġcrafts": 6800,
    "Ġhypot": 6801,
    "ral": 6802,
    "ĠBar": 6803,
    "ĠDry": 6804,
    "Ġhistory": 6805,
    "ĠShel": 6806,
    "We": 6807,
    "Ge": 6808,
    "great": 6809,
    "Ġaction": 6810,
    "Ġignore": 6811,
    "ĠCo": 6812,
    "Ġlaunching": 6813,
    "Ġcommercially": 6814,
    "Ġconf": 6815,
    "';": 6816,
    "ĠQuick": 6817,
    "ĠKre": 6818,
    "Ġ1995": 6819,
    "Ġ700": 6820,
    "yle": 6821,
    "cip": 6822,
    "android": 6823,
    "lus": 6824,
    "Ġconspir": 6825,
    "ĠCEO": 6826,
    "ĠExper": 6827,
    "merce": 6828,
    "Ġillum": 6829,
    "Ġendured": 6830,
    "Ġbal": 6831,
    "ĠFilip": 6832,
    "Ġpul": 6833,
    "ĠTor": 6834,
    "Ġinfection": 6835,
    "borg": 6836,
    "ĠBegin": 6837,
    "Ġsizable": 6838,
    "Ġfals": 6839,
    "ĠICO": 6840,
    "volent": 6841,
    "Bat": 6842,
    "Ġpivotal": 6843,
    "ĠZomb": 6844,
    "Ġriders": 6845,
    "Ġrain": 6846,
    "tal": 6847,
    "olphins": 6848,
    "Ġattached": 6849,
    "Ġ60": 6850,
    "Ġgraph": 6851,
    "stage": 6852,
    "Ġpunched": 6853,
    "Build": 6854,
    "Eight": 6855,
    "agi": 6856,
    "Ġarchae": 6857,
    "Ġsouth": 6858,
    "ĠCB": 6859,
    "rit": 6860,
    "ĠCaf": 6861,
    "ĠMobile": 6862,
    "Ġimages": 6863,
    "agg": 6864,
    "Ġkil": 6865,
    "Ġaster": 6866,
    "Ġstormed": 6867,
    "Ġpermissions": 6868,
    "Sky": 6869,
    "cross": 6870,
    "ocy": 6871,
    "Ġencl": 6872,
    "Ġ__": 6873,
    "Ġmotive": 6874,
    "Ġheartbreaking": 6875,
    "********************************": 6876,
    "ĠRoberts": 6877,
    "kar": 6878,
    "rin": 6879,
    "umably": 6880,
    "current": 6881,
    "Ġprofile": 6882,
    "Ġdirectory": 6883,
    "for": 6884,
    "prov": 6885,
    "demand": 6886,
    "ĠStud": 6887,
    "Ġabstract": 6888,
    "UMP": 6889,
    "Page": 6890,
    "Ġinvestigator": 6891,
    "Games": 6892,
    "elly": 6893,
    "olds": 6894,
    "Ġbiom": 6895,
    "ĠMillion": 6896,
    "Ġorgans": 6897,
    "Ġactivate": 6898,
    "Ġtex": 6899,
    "ature": 6900,
    "ĠAndroid": 6901,
    "sk": 6902,
    "ĳ": 6903,
    "Pict": 6904,
    "ĠDam": 6905,
    "Frank": 6906,
    "ĠAristotle": 6907,
    "ibo": 6908,
    "ĠCF": 6909,
    "ava": 6910,
    "uffer": 6911,
    "Ġdoes": 6912,
    "Ġfighting": 6913,
    "ailable": 6914,
    "Ġhighlight": 6915,
    "ĠJohnson": 6916,
    "html": 6917,
    "ality": 6918,
    "ĠThat": 6919,
    "Ġdriveway": 6920,
    "ĠHO": 6921,
    "Ġdebut": 6922,
    "Ġexploration": 6923,
    "Ġclothing": 6924,
    "ous": 6925,
    "ĠYel": 6926,
    "Ġcustomer": 6927,
    "Ġtender": 6928,
    "sections": 6929,
    "rection": 6930,
    "Ġheadache": 6931,
    "à²": 6932,
    "['": 6933,
    "ingham": 6934,
    "CP": 6935,
    "iked": 6936,
    "Ġstirring": 6937,
    "Ġquake": 6938,
    "ĠÃ¤": 6939,
    "Ġcalorie": 6940,
    "ľ": 6941,
    "CB": 6942,
    "Ġboats": 6943,
    "Every": 6944,
    "xc": 6945,
    "ĠBelt": 6946,
    "Ġtightly": 6947,
    "etics": 6948,
    "ĠComedy": 6949,
    "Ġneeds": 6950,
    "Ġeasily": 6951,
    "Ġdiv": 6952,
    "ĠGP": 6953,
    "Ġelement": 6954,
    "games": 6955,
    "osph": 6956,
    "ĠDevin": 6957,
    "imin": 6958,
    "Ġoutsk": 6959,
    "Ġattributed": 6960,
    "Ġparticipants": 6961,
    "138": 6962,
    "ĠHow": 6963,
    "Ġtrial": 6964,
    "Ġsafe": 6965,
    "ĠKrug": 6966,
    "Ġentertain": 6967,
    "Ġfoc": 6968,
    "Ġeveryone": 6969,
    "ĠAmazon": 6970,
    "Ġfound": 6971,
    "Sov": 6972,
    "ter": 6973,
    "ĠTrans": 6974,
    "ĠMouse": 6975,
    "retty": 6976,
    "Ġwarrants": 6977,
    "Ġseem": 6978,
    "ĠChev": 6979,
    "Ġnude": 6980,
    "ĠReyn": 6981,
    "ire": 6982,
    "Ġemphasizing": 6983,
    "Ġgad": 6984,
    "Die": 6985,
    "sembly": 6986,
    "Ġcares": 6987,
    "ĠFle": 6988,
    "Ġlowered": 6989,
    "ĠLester": 6990,
    "Ġret": 6991,
    "Rock": 6992,
    "ifting": 6993,
    "Officials": 6994,
    "ween": 6995,
    "Ġacross": 6996,
    "Ġconsisting": 6997,
    "Ġtransfer": 6998,
    "Ġcreating": 6999,
    "Bring": 7000,
    "Ġbiodiversity": 7001,
    "omon": 7002,
    "ĠDec": 7003,
    "Ġnap": 7004,
    "emetery": 7005,
    "ĠClin": 7006,
    "Ġbasis": 7007,
    "liv": 7008,
    "ĠDebbie": 7009,
    "================": 7010,
    "Ġliking": 7011,
    "borough": 7012,
    "Ġsalvage": 7013,
    "Ġdecree": 7014,
    "ĠSong": 7015,
    "Ġcrowdfunding": 7016,
    "ĠNicarag": 7017,
    "ĠRud": 7018,
    "Ġnarc": 7019,
    "Ġ2017": 7020,
    "atured": 7021,
    "ĠMorm": 7022,
    "ĠGujarat": 7023,
    "aghd": 7024,
    "Ġ401": 7025,
    "Ġgrowing": 7026,
    "model": 7027,
    "ĠDE": 7028,
    "Ġ112": 7029,
    "Ġbelongs": 7030,
    "Ġdiscrimin": 7031,
    "Ġjudicial": 7032,
    "infect": 7033,
    "Ġdisregard": 7034,
    "Ġcarry": 7035,
    "ND": 7036,
    "Ġconsciousness": 7037,
    "Ġhandle": 7038,
    "Ġneighbourhood": 7039,
    "Ġeconom": 7040,
    "Ġechoed": 7041,
    "Ġresurrect": 7042,
    "hner": 7043,
    "quet": 7044,
    "American": 7045,
    "bon": 7046,
    "Ġdoub": 7047,
    "Ġconventions": 7048,
    "Ġdecade": 7049,
    "Ġclash": 7050,
    "ĠTurks": 7051,
    "Ġstacks": 7052,
    "dog": 7053,
    "ahl": 7054,
    "tesque": 7055,
    "itute": 7056,
    "Ġopen": 7057,
    "arrison": 7058,
    "Ġupgrading": 7059,
    "Ġcitizens": 7060,
    "ĠShip": 7061,
    "Ġproduce": 7062,
    "Ġ96": 7063,
    "Ġbreach": 7064,
    "Ġbigotry": 7065,
    "Ġassassination": 7066,
    "Ġtan": 7067,
    "deal": 7068,
    "andon": 7069,
    "Ġdelt": 7070,
    "Ġant": 7071,
    "Ġdis": 7072,
    "ĠMahm": 7073,
    "ĠBasic": 7074,
    "Ġthirty": 7075,
    "ĠEthiopia": 7076,
    "ĠMerc": 7077,
    "ĠSouth": 7078,
    "Ġunderwear": 7079,
    "ĠInternational": 7080,
    "Brit": 7081,
    "ĠTurns": 7082,
    "Ġmemo": 7083,
    "Ġeast": 7084,
    "Ġprolong": 7085,
    "Ġbun": 7086,
    "ĠSutton": 7087,
    "Ġmanaging": 7088,
    "note": 7089,
    "Ġwalking": 7090,
    "ĠLumia": 7091,
    "Ġutilities": 7092,
    "Ġapolog": 7093,
    "ACH": 7094,
    "Ġadren": 7095,
    "cycle": 7096,
    "Ġnull": 7097,
    "ĠTED": 7098,
    "Ġdance": 7099,
    "anchez": 7100,
    "Blue": 7101,
    "WC": 7102,
    "Ġwrap": 7103,
    "ĠEarl": 7104,
    "Ġste": 7105,
    "Drive": 7106,
    "Ġseries": 7107,
    "comes": 7108,
    "Ġraced": 7109,
    "ĠMourinho": 7110,
    "ĠSize": 7111,
    "ĠFlex": 7112,
    "igma": 7113,
    "Ġrailway": 7114,
    "istance": 7115,
    "Ġkinderg": 7116,
    "Ġskept": 7117,
    "Ġdumped": 7118,
    "Ġconstrain": 7119,
    "Ġreturn": 7120,
    "Okay": 7121,
    "ĠWHAT": 7122,
    "ĠGrill": 7123,
    "?âĢĿ": 7124,
    "ĠSpeaker": 7125,
    "Ġrecogn": 7126,
    "Ġpassages": 7127,
    "Ġbecom": 7128,
    "Talk": 7129,
    "Ġborrow": 7130,
    "Ġslic": 7131,
    "Ġsurround": 7132,
    "Ġheavyweight": 7133,
    "Ġdistances": 7134,
    "Ġ1942": 7135,
    "Ġnovels": 7136,
    "Ġbusinessmen": 7137,
    "oses": 7138,
    "Ġalternate": 7139,
    "Ġtaste": 7140,
    "ãĤĵ": 7141,
    "ĠPKK": 7142,
    "Ġesc": 7143,
    "ape": 7144,
    "Ġsmile": 7145,
    "Ġshower": 7146,
    "Unlike": 7147,
    "ĠDone": 7148,
    "Ġcompressed": 7149,
    "ners": 7150,
    "ĠBj": 7151,
    "Ġsend": 7152,
    "Ġbec": 7153,
    "ĠBB": 7154,
    "ctuary": 7155,
    "bot": 7156,
    "network": 7157,
    "Ġac": 7158,
    "Ġillicit": 7159,
    "ĠDaniels": 7160,
    "rien": 7161,
    "Ġsucks": 7162,
    "oys": 7163,
    "ref": 7164,
    "ĠAdvent": 7165,
    "Ġslip": 7166,
    "Ġfetus": 7167,
    "glass": 7168,
    "ĠLevi": 7169,
    "Ġundergone": 7170,
    "ĠMT": 7171,
    "Ġideals": 7172,
    "Ġdest": 7173,
    "Ġdevelopmental": 7174,
    "ĠTrust": 7175,
    "ĠBag": 7176,
    "Ġbeet": 7177,
    "Ġhind": 7178,
    "Ġtouring": 7179,
    "Ġrepeats": 7180,
    "Ġstunned": 7181,
    "Ġreference": 7182,
    "jud": 7183,
    "adh": 7184,
    "Ġpunitive": 7185,
    "gregated": 7186,
    "Ġmillion": 7187,
    "Ġsevere": 7188,
    "unicipal": 7189,
    "Ġcoincide": 7190,
    "Ġideology": 7191,
    "Ġsensation": 7192,
    "ĠUN": 7193,
    "Ġfifteen": 7194,
    "ĠFut": 7195,
    "Britain": 7196,
    "account": 7197,
    "Ġnarrowed": 7198,
    "ĠNath": 7199,
    "Ġfreezing": 7200,
    "attering": 7201,
    "idering": 7202,
    "ipp": 7203,
    "ancer": 7204,
    "Ġspecifications": 7205,
    "ds": 7206,
    "»": 7207,
    "Ġrolls": 7208,
    "Ġtype": 7209,
    "etz": 7210,
    "Ġincorporating": 7211,
    "Ġsidelined": 7212,
    "Ġapplicants": 7213,
    "Ġspectrum": 7214,
    "Ġtransforms": 7215,
    "Ġweekly": 7216,
    "Ġleak": 7217,
    "scient": 7218,
    "GN": 7219,
    "Ġlooming": 7220,
    "107": 7221,
    "Ġvent": 7222,
    "bsp": 7223,
    "Ġmort": 7224,
    "Ġbrains": 7225,
    "Hop": 7226,
    "Ġforgiveness": 7227,
    "puter": 7228,
    "Ġjumping": 7229,
    "Ġstone": 7230,
    "Ġpenal": 7231,
    "ĠKnox": 7232,
    "Ġpins": 7233,
    "Ġthankful": 7234,
    "Ġcryptocurrencies": 7235,
    "00": 7236,
    "Ġtemplates": 7237,
    "cester": 7238,
    "96": 7239,
    "Ġpictured": 7240,
    "efully": 7241,
    "hero": 7242,
    "iens": 7243,
    "Ġauction": 7244,
    "ĠClinical": 7245,
    "idis": 7246,
    "Ġsubstantive": 7247,
    "ĠSne": 7248,
    "Ġgovernments": 7249,
    "Ġsurve": 7250,
    "Ġproced": 7251,
    "ial": 7252,
    "ĠPi": 7253,
    "road": 7254,
    "Ġaff": 7255,
    "Ġunlike": 7256,
    "Ġversion": 7257,
    "ĠDEC": 7258,
    "Ġobstacles": 7259,
    "ĠLakers": 7260,
    "Ġpad": 7261,
    "ou": 7262,
    "Ġdull": 7263,
    "ĠWake": 7264,
    "ĠRaid": 7265,
    "ĠTerminal": 7266,
    "Ġmonths": 7267,
    "ĠUl": 7268,
    "Ġpipes": 7269,
    "1970": 7270,
    "iger": 7271,
    "ĠXML": 7272,
    "regular": 7273,
    "Ġe": 7274,
    "Ġlimited": 7275,
    "Ġ1962": 7276,
    "Ġgeometry": 7277,
    "inc": 7278,
    "ables": 7279,
    "ĠPrin": 7280,
    "ĠSebastian": 7281,
    "Ġevolution": 7282,
    "Ġbooked": 7283,
    "bas": 7284,
    "Ġsettlement": 7285,
    "ensual": 7286,
    "Ġshopping": 7287,
    "Ġacquisitions": 7288,
    "There": 7289,
    "Ġconfiguration": 7290,
    "ĠAntarctic": 7291,
    "ĠDiv": 7292,
    "enzie": 7293,
    "sen": 7294,
    "au": 7295,
    "Ġburglary": 7296,
    "Ġtrainers": 7297,
    "Ġarg": 7298,
    "Ġascend": 7299,
    "othe": 7300,
    "Ġsp": 7301,
    "ravity": 7302,
    "common": 7303,
    "Only": 7304,
    "Yet": 7305,
    "Ġinvesting": 7306,
    "Ġbeh": 7307,
    "ĠRecession": 7308,
    "Ġlean": 7309,
    "Ġassaulting": 7310,
    "Ġspirits": 7311,
    "Ġretains": 7312,
    "Ġamid": 7313,
    "Ġbubbles": 7314,
    "Ġcha": 7315,
    "Ġbargain": 7316,
    "ĠProjects": 7317,
    "azer": 7318,
    "Ġmedic": 7319,
    "Ġtweaks": 7320,
    "Ġbarbecue": 7321,
    "Ġcrypto": 7322,
    "craft": 7323,
    "Polit": 7324,
    "ĠPLAY": 7325,
    "Ġpartic": 7326,
    "Ġspicy": 7327,
    "Ġturbines": 7328,
    "Ġmog": 7329,
    "every": 7330,
    "Ġwondering": 7331,
    "Ġawful": 7332,
    "ĠCaesar": 7333,
    "ĠWith": 7334,
    "Ġcrashed": 7335,
    "Ġris": 7336,
    "Too": 7337,
    "Ġgam": 7338,
    "ui": 7339,
    "ĠMix": 7340,
    "Ġoverrun": 7341,
    "Ġlandscapes": 7342,
    "Ġinsisting": 7343,
    "ĠPu": 7344,
    "ĠThor": 7345,
    "Ġsacrificing": 7346,
    "Ġpipeline": 7347,
    "Ġsister": 7348,
    "ĠToday": 7349,
    "src": 7350,
    "Ġfilings": 7351,
    "ĠIrving": 7352,
    "ĠChampionship": 7353,
    "Ġreach": 7354,
    "engers": 7355,
    "Ġaspects": 7356,
    "Ġpredictable": 7357,
    "Americans": 7358,
    "Ġzip": 7359,
    "Ġconcentration": 7360,
    "Ġsuppression": 7361,
    "Ġarena": 7362,
    "Ġactions": 7363,
    "ĠContinental": 7364,
    "Ġaddiction": 7365,
    "Ġbreached": 7366,
    "Ġid": 7367,
    "Ġaccumulated": 7368,
    "txt": 7369,
    "ĠNevada": 7370,
    "Ġdeb": 7371,
    "Ġallies": 7372,
    "sle": 7373,
    "ĠBUT": 7374,
    "ĠCongress": 7375,
    "Ġmeteor": 7376,
    "ĠMason": 7377,
    "ĠKnight": 7378,
    "umping": 7379,
    "Ġimpression": 7380,
    "Mur": 7381,
    "Ġballot": 7382,
    "aded": 7383,
    "ĠChapter": 7384,
    "Af": 7385,
    "Ġlung": 7386,
    "omed": 7387,
    "od": 7388,
    "byn": 7389,
    ")/": 7390,
    "Ġintrodu": 7391,
    "Ġlikelihood": 7392,
    "areth": 7393,
    "ĠRenew": 7394,
    "ĠNeo": 7395,
    "ĠScreen": 7396,
    "ĠAgree": 7397,
    "Ġincreased": 7398,
    "Houston": 7399,
    "Ġindicating": 7400,
    "Click": 7401,
    "ĠEssex": 7402,
    "Ġassets": 7403,
    "Ġfocus": 7404,
    "Ġdignity": 7405,
    "Ġindictment": 7406,
    "stre": 7407,
    "Ġmorality": 7408,
    "ocument": 7409,
    "Ġgenerators": 7410,
    "TM": 7411,
    "Ġobject": 7412,
    "Ġf": 7413,
    "ą": 7414,
    "esome": 7415,
    "Ġundertaking": 7416,
    "ĠLower": 7417,
    "Ġinmates": 7418,
    "ĠSeahawks": 7419,
    "ided": 7420,
    "Ġhelicopters": 7421,
    "Ġrecorded": 7422,
    "ormally": 7423,
    "mem": 7424,
    "Ġspontaneous": 7425,
    "Ġactual": 7426,
    "Ġcomfortably": 7427,
    "ãģ¦": 7428,
    "slaught": 7429,
    "ropic": 7430,
    "Ġgenerosity": 7431,
    "Ġsourced": 7432,
    "ĠEagle": 7433,
    "ĠApache": 7434,
    "ĠWordPress": 7435,
    "iar": 7436,
    "Ġanimations": 7437,
    "\\)": 7438,
    "ĠSac": 7439,
    "Ġpred": 7440,
    "Ġencounters": 7441,
    "super": 7442,
    "efined": 7443,
    "Ġwicked": 7444,
    "Ġpilot": 7445,
    "Ġweakness": 7446,
    "ĠDh": 7447,
    "ĠIsle": 7448,
    "collar": 7449,
    "ĠWagner": 7450,
    "Ġscreenplay": 7451,
    "Ġyouths": 7452,
    "brid": 7453,
    "gre": 7454,
    "Ġterrified": 7455,
    "dig": 7456,
    "ĠTickets": 7457,
    "ĠPanther": 7458,
    "estinal": 7459,
    "Ġunp": 7460,
    "ĠFlight": 7461,
    "Ġoneself": 7462,
    "Ġretire": 7463,
    "Ġghost": 7464,
    "Ġshift": 7465,
    "Ġintimidate": 7466,
    "iance": 7467,
    "Ġoutset": 7468,
    "arently": 7469,
    "Ġcareg": 7470,
    "Ġallowed": 7471,
    "Ġhacker": 7472,
    "Ġhappening": 7473,
    "Ġnecessity": 7474,
    "Ġserum": 7475,
    "ĠZeal": 7476,
    "ĠTurkish": 7477,
    "Ġfeature": 7478,
    "Ġcharming": 7479,
    "Ġreceive": 7480,
    "haired": 7481,
    "ĠSU": 7482,
    "Ġinclined": 7483,
    "Wil": 7484,
    "ĠPie": 7485,
    "Ġglut": 7486,
    "Ġreported": 7487,
    "ĠDaesh": 7488,
    ")?": 7489,
    "ĠTwilight": 7490,
    "Dark": 7491,
    "minent": 7492,
    "ivery": 7493,
    "Ġcreative": 7494,
    "ĠN": 7495,
    "Ġslot": 7496,
    "igure": 7497,
    "Ġque": 7498,
    "Ġentit": 7499,
    "ĠBelg": 7500,
    "INT": 7501,
    "Ġinduced": 7502,
    "Ġmotors": 7503,
    "lower": 7504,
    "Ġhygiene": 7505,
    "Ġib": 7506,
    "Ġmeet": 7507,
    "ck": 7508,
    "Ġworkplace": 7509,
    "Ġmillennials": 7510,
    "Ġsuperstar": 7511,
    "thro": 7512,
    "Ġplanet": 7513,
    "Ġseniors": 7514,
    "aining": 7515,
    "ĠStorage": 7516,
    "oat": 7517,
    "Ġdraft": 7518,
    "imi": 7519,
    "§": 7520,
    "Ġprotested": 7521,
    "ĠWisconsin": 7522,
    "Ġregul": 7523,
    "angling": 7524,
    "ĠBerg": 7525,
    "ĠWS": 7526,
    "Ġlaun": 7527,
    "Ġflight": 7528,
    "Ġdirective": 7529,
    "ardon": 7530,
    "yson": 7531,
    "isconsin": 7532,
    "ĠPixel": 7533,
    "Ġstated": 7534,
    "Ġordinance": 7535,
    "odor": 7536,
    "Ġheads": 7537,
    "ď": 7538,
    "Ġyeast": 7539,
    "Ġdepartments": 7540,
    "phones": 7541,
    "Scott": 7542,
    "ĠFear": 7543,
    "Ġarchaeologists": 7544,
    "Ġcompleted": 7545,
    "ĠRobert": 7546,
    "beat": 7547,
    "Ġindustry": 7548,
    "akespe": 7549,
    "Ġmighty": 7550,
    "Ġcleaned": 7551,
    "ĠQuestions": 7552,
    "Imp": 7553,
    "Ġsignificant": 7554,
    "Ġproper": 7555,
    "chemical": 7556,
    "Ġaber": 7557,
    "Ġfiscal": 7558,
    "item": 7559,
    "ĠIrvine": 7560,
    "Ġstatist": 7561,
    "52": 7562,
    "Ġovercome": 7563,
    "1000": 7564,
    "ĠSymph": 7565,
    "Ġdistant": 7566,
    "repe": 7567,
    "Ġsights": 7568,
    "Listen": 7569,
    "IC": 7570,
    "Ġturnovers": 7571,
    "Ġestablish": 7572,
    "ĠMO": 7573,
    "Ġembedded": 7574,
    "ridges": 7575,
    "Ġcoordinates": 7576,
    "Ġstere": 7577,
    "Of": 7578,
    "Ġ82": 7579,
    "Enlarge": 7580,
    "ĠSuicide": 7581,
    "Ġovers": 7582,
    "Ġdeclared": 7583,
    "Ġappointed": 7584,
    "III": 7585,
    "vals": 7586,
    "Ġlined": 7587,
    "asse": 7588,
    "Ġwatched": 7589,
    "ĠInvestment": 7590,
    "Ġindicate": 7591,
    "Ġsubscript": 7592,
    "Watch": 7593,
    "Ġjurisdictions": 7594,
    "Ġsorrow": 7595,
    "Hall": 7596,
    "amins": 7597,
    "Ġfusion": 7598,
    "ldom": 7599,
    "Ġdiamonds": 7600,
    "Ġcomplain": 7601,
    "ĠFellow": 7602,
    "ĠTre": 7603,
    "isons": 7604,
    "ĠTob": 7605,
    "ĠIng": 7606,
    "Ġneocons": 7607,
    "Ġhostile": 7608,
    "Ġpeaks": 7609,
    "Ġlegend": 7610,
    "Ġcarn": 7611,
    "oll": 7612,
    "ĠDefensive": 7613,
    "ĠStockholm": 7614,
    "ĠMal": 7615,
    "Ġchickens": 7616,
    "ĠUI": 7617,
    "Ġnin": 7618,
    "ĠUSA": 7619,
    "Ġsleeping": 7620,
    "Ġmarginalized": 7621,
    "Wolf": 7622,
    "Ġhegem": 7623,
    "ĠApr": 7624,
    "Ġstarred": 7625,
    "Ġredes": 7626,
    "Ġ},": 7627,
    "Ġworthy": 7628,
    "Ġmasculinity": 7629,
    "Ġantidepress": 7630,
    "November": 7631,
    "omet": 7632,
    "ĠAbove": 7633,
    "achusetts": 7634,
    "ĠBom": 7635,
    "designed": 7636,
    "Ġgathering": 7637,
    "wig": 7638,
    "Ġinbox": 7639,
    "Ġdefinitions": 7640,
    "ĠEthereum": 7641,
    "Ġweb": 7642,
    "ĠFraz": 7643,
    "ppery": 7644,
    "Ġretaining": 7645,
    "ĠSingle": 7646,
    "ĠScore": 7647,
    "ĠBarcl": 7648,
    "ĠRemember": 7649,
    "ĠConway": 7650,
    "ĠDas": 7651,
    "Ġknees": 7652,
    "Ġblacks": 7653,
    "ĠMini": 7654,
    "Ġbytes": 7655,
    "----------------": 7656,
    "Ġhiding": 7657,
    "oters": 7658,
    "Ġtrained": 7659,
    "igated": 7660,
    "ĠAurora": 7661,
    "Ġhurts": 7662,
    "ĠReds": 7663,
    "Ġreasonable": 7664,
    "ĠComet": 7665,
    "ĠEric": 7666,
    "îĢ": 7667,
    "Ġoverhaul": 7668,
    "Ch": 7669,
    "ĠMary": 7670,
    "Ġsav": 7671,
    "ĠSupply": 7672,
    "Ġtaxpayers": 7673,
    "ĠCounter": 7674,
    "ĠMaz": 7675,
    "Ġindifferent": 7676,
    "ĠDrum": 7677,
    "Ġlaboratory": 7678,
    "afi": 7679,
    "Ġ1979": 7680,
    "Ġ<": 7681,
    "Ġtoys": 7682,
    "Ġexpression": 7683,
    "ĠFell": 7684,
    "Ġmassac": 7685,
    "Ġrevisions": 7686,
    "verning": 7687,
    "xy": 7688,
    "Ġfloating": 7689,
    "ĠAK": 7690,
    "Ġrevolutionary": 7691,
    "ĠBarnett": 7692,
    "ĠPradesh": 7693,
    "ĠAlaska": 7694,
    "bank": 7695,
    "enza": 7696,
    "Ġrecounts": 7697,
    "Ġecological": 7698,
    "Ġunderstandable": 7699,
    "Ġsc": 7700,
    "Ste": 7701,
    "ĠMiles": 7702,
    "ĠCameron": 7703,
    "Ġhopefully": 7704,
    "ĠPre": 7705,
    "Ġmarched": 7706,
    "Ĭ": 7707,
    "ĠAppeals": 7708,
    "ĠWeber": 7709,
    "School": 7710,
    "ĠCollection": 7711,
    "ĠScholars": 7712,
    "Ġgrocer": 7713,
    "ects": 7714,
    "Ġavid": 7715,
    "ĠFarage": 7716,
    "Ġsett": 7717,
    "Ġ750": 7718,
    "Ġsupport": 7719,
    "Seattle": 7720,
    "Ġvisited": 7721,
    "Ġindependents": 7722,
    "ucing": 7723,
    "Ġprotection": 7724,
    "Ġlen": 7725,
    "Ġbrought": 7726,
    "regist": 7727,
    "pered": 7728,
    "ĠVale": 7729,
    "aria": 7730,
    "spir": 7731,
    "wire": 7732,
    "ĠAmerican": 7733,
    "ĠSnake": 7734,
    "ĠTeen": 7735,
    "Ġbig": 7736,
    "Ġobese": 7737,
    "Ġsurprise": 7738,
    "Ġwhopping": 7739,
    "Ġplan": 7740,
    "Ġplethora": 7741,
    "Ġcruel": 7742,
    "Ġflashing": 7743,
    "ĠVehicle": 7744,
    "ĠWomen": 7745,
    "Ġpresidential": 7746,
    "Ġmaterial": 7747,
    "Ġdialogue": 7748,
    "folk": 7749,
    "Ġcarb": 7750,
    "Ġdegr": 7751,
    "ability": 7752,
    "ĠNZ": 7753,
    "Ġcarcin": 7754,
    "Ġgood": 7755,
    "Ġinh": 7756,
    "uc": 7757,
    "Ġtyranny": 7758,
    "ĠVel": 7759,
    "Author": 7760,
    "Ġshadows": 7761,
    "Ġmetab": 7762,
    "105": 7763,
    "Ġrecommendations": 7764,
    "ĠEmbassy": 7765,
    "ances": 7766,
    "ikes": 7767,
    "Pen": 7768,
    "ĠDecember": 7769,
    "ĠDonald": 7770,
    "},": 7771,
    "Chris": 7772,
    "Ġrenown": 7773,
    "ĠFantasy": 7774,
    "Ġflag": 7775,
    "fold": 7776,
    "ruly": 7777,
    "mitt": 7778,
    "ysis": 7779,
    "Ġreceptions": 7780,
    "OC": 7781,
    "Ġgoalkeeper": 7782,
    "Ġcommute": 7783,
    "olean": 7784,
    "Ġcrafted": 7785,
    "Ġcorrupted": 7786,
    "Ġlicence": 7787,
    "Ġhoney": 7788,
    "¥": 7789,
    "ggie": 7790,
    "ĠLiving": 7791,
    "ancies": 7792,
    "Ġtopping": 7793,
    "fit": 7794,
    "personal": 7795,
    "Ġboots": 7796,
    "Ġantib": 7797,
    "Ġparam": 7798,
    "ìĿ": 7799,
    "Ġformula": 7800,
    "vers": 7801,
    "Ġprovincial": 7802,
    "Ġhomers": 7803,
    "ĠSoul": 7804,
    "Ġrelocation": 7805,
    "Ġliberation": 7806,
    "ollen": 7807,
    "Ġbronze": 7808,
    "Ġfinally": 7809,
    "ivision": 7810,
    "Ġelig": 7811,
    "video": 7812,
    "Ġusually": 7813,
    "Ġbeen": 7814,
    "Ġinstitutions": 7815,
    "ĠDoug": 7816,
    "ĠCompetition": 7817,
    "ĠProbably": 7818,
    "Ġhops": 7819,
    "Ġarson": 7820,
    "Ġpartnered": 7821,
    "ounce": 7822,
    "put": 7823,
    "Ġconsequence": 7824,
    "Again": 7825,
    "åħ": 7826,
    "Ġstop": 7827,
    "Ġmassive": 7828,
    "Ġthrows": 7829,
    "let": 7830,
    "Ġblamed": 7831,
    "orate": 7832,
    "ĠFaith": 7833,
    "acer": 7834,
    "ĠBeauty": 7835,
    "ipedia": 7836,
    "Ġreddit": 7837,
    "ĠLions": 7838,
    "aved": 7839,
    "Henry": 7840,
    "shirt": 7841,
    "Ġcompression": 7842,
    "Ġfue": 7843,
    "ĠWhole": 7844,
    "ĠIntern": 7845,
    "label": 7846,
    "Mid": 7847,
    "assed": 7848,
    "Ġrose": 7849,
    "Ġdialect": 7850,
    "ĠSh": 7851,
    "Ġbullshit": 7852,
    "ĠNW": 7853,
    "Ġchemicals": 7854,
    "ĠEVERY": 7855,
    "Ġtwe": 7856,
    "Ġlessons": 7857,
    "able": 7858,
    "Def": 7859,
    "Ġbugs": 7860,
    "Ġresurg": 7861,
    "ĠAdvertisement": 7862,
    "iring": 7863,
    "Ġdun": 7864,
    "ĠLink": 7865,
    "Ġbend": 7866,
    "Ġstruck": 7867,
    "Ġviewer": 7868,
    "Ġsteadfast": 7869,
    "Ġbureau": 7870,
    "Ġpredictive": 7871,
    "Ġexciting": 7872,
    "Ġblackmail": 7873,
    "Ġfa": 7874,
    "lahoma": 7875,
    "reated": 7876,
    "Ġpops": 7877,
    "Ġhills": 7878,
    "Ġjustification": 7879,
    "stro": 7880,
    "Ġoccupying": 7881,
    "Ġuniverse": 7882,
    "rists": 7883,
    "Ġtapped": 7884,
    "Ġreprint": 7885,
    "ox": 7886,
    "Ġgimm": 7887,
    "ressive": 7888,
    "ĠOrd": 7889,
    "Ġsometime": 7890,
    "ĠUkrainian": 7891,
    "ĠRookie": 7892,
    "Ġwill": 7893,
    "Ġextraordinarily": 7894,
    "Ġdefensively": 7895,
    "Ġseizures": 7896,
    "Right": 7897,
    "ĠComputer": 7898,
    "ĠCourtesy": 7899,
    "ĠRam": 7900,
    "Chief": 7901,
    "umbl": 7902,
    "ce": 7903,
    "Ġleaned": 7904,
    "Ġinternational": 7905,
    "ĠBrady": 7906,
    "Mc": 7907,
    "Ġ1989": 7908,
    "igating": 7909,
    "arm": 7910,
    "ãģ¯": 7911,
    "ĠOracle": 7912,
    "Ùĩ": 7913,
    "Ġsplitting": 7914,
    "Ġathletes": 7915,
    "Ġ1932": 7916,
    "ĠDom": 7917,
    "ĠRand": 7918,
    "ĠFranco": 7919,
    "ĠLuc": 7920,
    "ĠGermany": 7921,
    "230": 7922,
    "jug": 7923,
    "ĠArlington": 7924,
    "racial": 7925,
    "Ġvaries": 7926,
    "Ġdemanded": 7927,
    "Ġdry": 7928,
    "Ġsubscribing": 7929,
    "min": 7930,
    "anic": 7931,
    "Ġovertime": 7932,
    "Acc": 7933,
    "Ġcelebration": 7934,
    "back": 7935,
    "Ġpy": 7936,
    "Ġtem": 7937,
    "atched": 7938,
    "ĠEve": 7939,
    "Ġhouses": 7940,
    "Ġdeclare": 7941,
    "ilater": 7942,
    "Ġperf": 7943,
    "Ġoscill": 7944,
    "Ġray": 7945,
    "ange": 7946,
    "mostly": 7947,
    "bone": 7948,
    "ĠLawrence": 7949,
    "ĠAward": 7950,
    "Ġcycle": 7951,
    "angerous": 7952,
    "isf": 7953,
    "Ġdeals": 7954,
    "Five": 7955,
    "ente": 7956,
    ").[": 7957,
    "ĠEver": 7958,
    "Ġ58": 7959,
    "Ġcognition": 7960,
    "ĠPione": 7961,
    "APP": 7962,
    "tics": 7963,
    "ĠBeta": 7964,
    "Ġarrangements": 7965,
    "Ġairplanes": 7966,
    "Ġlenses": 7967,
    "Ġvote": 7968,
    "Ġobserv": 7969,
    "ags": 7970,
    "Ġenh": 7971,
    "Ġretirement": 7972,
    "Ġinvestors": 7973,
    "Ġsuspicious": 7974,
    "ĠCanucks": 7975,
    "ĠMerrill": 7976,
    "safe": 7977,
    "Ġfox": 7978,
    "ĠLooking": 7979,
    "las": 7980,
    "Ġsampling": 7981,
    "Ġchaos": 7982,
    "Ġangles": 7983,
    "Ġrecognizable": 7984,
    "Ġacquisition": 7985,
    "ĠButter": 7986,
    "ĠPOLITICO": 7987,
    "ĠAnton": 7988,
    "Ġdebug": 7989,
    "Ġdeadliest": 7990,
    "Ġexempl": 7991,
    "Ġbeef": 7992,
    "Ġeats": 7993,
    "see": 7994,
    "Ġanother": 7995,
    "ened": 7996,
    "Ġsupreme": 7997,
    "Ġsuccessfully": 7998,
    "otes": 7999,
    "gar": 8000,
    "ĠReference": 8001,
    "thal": 8002,
    "ru": 8003,
    "168": 8004,
    "Ġcargo": 8005,
    "arrow": 8006,
    "energy": 8007,
    "ĠAdding": 8008,
    "ĠCurrent": 8009,
    "local": 8010,
    "Ġpaste": 8011,
    "Ġconsider": 8012,
    "Ġcharter": 8013,
    "Ġdestroys": 8014,
    "Ġforfeiture": 8015,
    "Ġflooded": 8016,
    "Ġbetrayed": 8017,
    "Ġchapters": 8018,
    "ĠLED": 8019,
    "Ġbounce": 8020,
    "Ġpetition": 8021,
    "arry": 8022,
    "ðŁ": 8023,
    "antry": 8024,
    "Ġvon": 8025,
    "Ġpassions": 8026,
    "anyahu": 8027,
    "Ġcompiled": 8028,
    "Ġdiscriminate": 8029,
    "Ġrepl": 8030,
    "Ġbrill": 8031,
    "ĠMetro": 8032,
    "ĠAx": 8033,
    "Ġmill": 8034,
    "SQL": 8035,
    "ĠAz": 8036,
    "ĠPyongyang": 8037,
    "ompson": 8038,
    "ucle": 8039,
    "Ġdevastated": 8040,
    "enders": 8041,
    "azy": 8042,
    "Ġtile": 8043,
    "Ġsche": 8044,
    "unky": 8045,
    "Ġmotorists": 8046,
    "Ġdie": 8047,
    "add": 8048,
    "ĠâĢĿ": 8049,
    "isch": 8050,
    "otte": 8051,
    "Ġcontam": 8052,
    "Ġartic": 8053,
    "arez": 8054,
    "ĠLucy": 8055,
    "ĠZuckerberg": 8056,
    "Ġgar": 8057,
    "Ġcoined": 8058,
    "Ġspokesman": 8059,
    "Ġbattleground": 8060,
    "lb": 8061,
    "Ġchamp": 8062,
    "Ġcontestants": 8063,
    "Ġtempor": 8064,
    "raham": 8065,
    "Boy": 8066,
    "ĠGreater": 8067,
    "ĠOpt": 8068,
    "Ġconservatives": 8069,
    "adas": 8070,
    "Ġidle": 8071,
    "ĠCouncil": 8072,
    "ards": 8073,
    "ĠHayden": 8074,
    "ĠTour": 8075,
    "ĠHuck": 8076,
    "pract": 8077,
    "ĠLad": 8078,
    "Ġsmart": 8079,
    "ĠTurk": 8080,
    "ĠResolution": 8081,
    "ĠCam": 8082,
    "cat": 8083,
    "ö": 8084,
    "SW": 8085,
    "them": 8086,
    "ingle": 8087,
    "Ġcontain": 8088,
    "ĠHealthcare": 8089,
    "Ġsham": 8090,
    "ubarak": 8091,
    "Ġgenerals": 8092,
    "Ġnort": 8093,
    "ĠSI": 8094,
    "ĠTriple": 8095,
    "Ġdowns": 8096,
    "outs": 8097,
    "Ġtests": 8098,
    "Ġunjust": 8099,
    "Ġcensus": 8100,
    "scars": 8101,
    "ĠBangladesh": 8102,
    "AFTA": 8103,
    "Ġtucked": 8104,
    "Ġimprisoned": 8105,
    "ĠEdwards": 8106,
    "Ġlou": 8107,
    "unningham": 8108,
    "Ġemotionally": 8109,
    "Ġblue": 8110,
    "ĠDowning": 8111,
    "Ġuniversally": 8112,
    "Ġgarlic": 8113,
    "Ġ2000": 8114,
    "Ġintegrated": 8115,
    "ichever": 8116,
    "Ġfence": 8117,
    "Jay": 8118,
    "ctors": 8119,
    "Ġremoval": 8120,
    "Bre": 8121,
    "ĠRuss": 8122,
    "ĠComments": 8123,
    "acked": 8124,
    "Ġoffs": 8125,
    "ĠSed": 8126,
    "Ġunions": 8127,
    "ĠHug": 8128,
    "Ġgratitude": 8129,
    "ITE": 8130,
    "buy": 8131,
    "Ġminions": 8132,
    "ingo": 8133,
    "BI": 8134,
    "Ġjazz": 8135,
    "ĠKom": 8136,
    "Ġ1914": 8137,
    "Ġkeywords": 8138,
    "FX": 8139,
    "Ġ61": 8140,
    "ĠPriv": 8141,
    "meric": 8142,
    "Ġcatalogue": 8143,
    "Ġimproves": 8144,
    "Ġnowhere": 8145,
    "ĠCardiff": 8146,
    "Ġpartly": 8147,
    "ĠPayne": 8148,
    "Ġstatic": 8149,
    "ĠTale": 8150,
    "ica": 8151,
    "Ġsurge": 8152,
    "Ġvirtually": 8153,
    "atical": 8154,
    "ility": 8155,
    "ĠLam": 8156,
    "ĠAC": 8157,
    "Ġprofession": 8158,
    "ĠCris": 8159,
    "ewater": 8160,
    "Ġsummon": 8161,
    "Ġcareers": 8162,
    "Ġviolent": 8163,
    "Ġsam": 8164,
    "ĠMcMahon": 8165,
    "Ġnostalgia": 8166,
    "ĠIN": 8167,
    "osi": 8168,
    "ipe": 8169,
    "sters": 8170,
    "Ger": 8171,
    "Ġgenerate": 8172,
    "Orig": 8173,
    "Ġworries": 8174,
    "early": 8175,
    "Ġriding": 8176,
    "ĠFinal": 8177,
    "thinking": 8178,
    "Luc": 8179,
    "Ġtreaty": 8180,
    "Ġ1946": 8181,
    "Ġmaxim": 8182,
    "Ġhelmet": 8183,
    "Ġmast": 8184,
    "Ġidentical": 8185,
    "Ġpastor": 8186,
    "ĠDerby": 8187,
    "ĠUnity": 8188,
    "Ġworn": 8189,
    "Ġvicious": 8190,
    "Ġparaly": 8191,
    "ĠOther": 8192,
    "riend": 8193,
    "Ġcried": 8194,
    "emet": 8195,
    "abis": 8196,
    "Ġoccupy": 8197,
    "Ġabolish": 8198,
    "ĠAust": 8199,
    "ĠBond": 8200,
    "ĠArchbishop": 8201,
    "hetics": 8202,
    "ultural": 8203,
    "nesota": 8204,
    "ĠChris": 8205,
    "ĠPierce": 8206,
    "Ġillustrates": 8207,
    "anks": 8208,
    "ĠRound": 8209,
    "Ġwrit": 8210,
    "Ġlivestock": 8211,
    "Ġfamily": 8212,
    "edia": 8213,
    "arted": 8214,
    "Ń": 8215,
    "Ġhike": 8216,
    "Ġnond": 8217,
    "Ġfig": 8218,
    "Ġplanes": 8219,
    "cill": 8220,
    "Ġnegatively": 8221,
    "ĠGates": 8222,
    "Ġdisqual": 8223,
    "Ġ40": 8224,
    "Ġrod": 8225,
    "ch": 8226,
    "Ġtermed": 8227,
    "Ġtricky": 8228,
    "nee": 8229,
    "Ġdenomin": 8230,
    "Ġterr": 8231,
    "Ġprofound": 8232,
    "Ġfirearm": 8233,
    "ighters": 8234,
    "Ġ1992": 8235,
    "Ġtraders": 8236,
    "Ġegreg": 8237,
    "Ġtraced": 8238,
    "Ġvacant": 8239,
    "ĠRepublican": 8240,
    "ĠAdelaide": 8241,
    "Ġmax": 8242,
    "ĠSuperior": 8243,
    "Ġepis": 8244,
    "Ġboarding": 8245,
    "Ġpriv": 8246,
    "Ġpouring": 8247,
    "Ġquestioned": 8248,
    "pleasant": 8249,
    "Ġ/*": 8250,
    "Ġdispersed": 8251,
    "Ġbodily": 8252,
    "Ġbounds": 8253,
    "horn": 8254,
    "Ġtries": 8255,
    "Ġsevent": 8256,
    "develop": 8257,
    "Ġrevive": 8258,
    "ĠToo": 8259,
    "Ġinterfere": 8260,
    "!]": 8261,
    "reedom": 8262,
    "Ġurgency": 8263,
    "ĠUFO": 8264,
    "mon": 8265,
    "ĠWrestling": 8266,
    ".(": 8267,
    "Ġcollaborate": 8268,
    "aus": 8269,
    "deep": 8270,
    "ML": 8271,
    "Ġcoat": 8272,
    "Ġguarantees": 8273,
    "Ġaut": 8274,
    "Ġplunged": 8275,
    "ĠClub": 8276,
    "Ġtemporarily": 8277,
    "comb": 8278,
    "Ġ1985": 8279,
    "Ġdocument": 8280,
    "ngth": 8281,
    "(": 8282,
    "Ġterritory": 8283,
    "ĠBelow": 8284,
    "tree": 8285,
    "ĠRosen": 8286,
    "Ġmonsters": 8287,
    "ndra": 8288,
    "ĠGreatest": 8289,
    "ĠTell": 8290,
    "ĠRef": 8291,
    "Own": 8292,
    "Ġdefiance": 8293,
    "Ġdeputies": 8294,
    "ĠAgency": 8295,
    "Ġcritics": 8296,
    "Ġanticipation": 8297,
    "1998": 8298,
    "cre": 8299,
    "Ġdinner": 8300,
    "Ġaccepting": 8301,
    "RC": 8302,
    "Ġarresting": 8303,
    "ĠJacob": 8304,
    "Ġdramatically": 8305,
    "Ġthrough": 8306,
    "Ġcontributing": 8307,
    "quire": 8308,
    "Ġcelebrations": 8309,
    "ĠMold": 8310,
    "gay": 8311,
    "DJ": 8312,
    "Ġfatalities": 8313,
    "ĠPig": 8314,
    "idav": 8315,
    "ymes": 8316,
    "Ġcontinent": 8317,
    "Ġstressful": 8318,
    "Ġfulf": 8319,
    "Ġperimeter": 8320,
    "ĠVill": 8321,
    "Ġrecomm": 8322,
    "rera": 8323,
    "Ġpeanut": 8324,
    "Email": 8325,
    "working": 8326,
    "noon": 8327,
    "Ġverify": 8328,
    "Ġrotation": 8329,
    "ĠKepler": 8330,
    "sequently": 8331,
    "Ġinadvert": 8332,
    "Ġpreval": 8333,
    "ĠProfessor": 8334,
    "GH": 8335,
    "ĠElite": 8336,
    "ovakia": 8337,
    "Ġ93": 8338,
    "Ġorchest": 8339,
    "tailed": 8340,
    "ary": 8341,
    "Ġacquire": 8342,
    "ĠCeltics": 8343,
    "ĠIowa": 8344,
    "Ġexch": 8345,
    "ĠLuther": 8346,
    "ĠIss": 8347,
    "Ġmans": 8348,
    "ast": 8349,
    "Ġemphasizes": 8350,
    "Mat": 8351,
    "Ġsubsc": 8352,
    "Ġinterfaces": 8353,
    "Ġbarr": 8354,
    "NET": 8355,
    "Ġintact": 8356,
    "Ġobserving": 8357,
    "owl": 8358,
    "Ġrefusing": 8359,
    "ĠRab": 8360,
    "aude": 8361,
    "Ġmissile": 8362,
    "ĠProp": 8363,
    "Ġinjection": 8364,
    "Ġstrategy": 8365,
    "Ġprovisions": 8366,
    "Ġorganizers": 8367,
    "andom": 8368,
    "keley": 8369,
    "Ġbackend": 8370,
    "Ġowner": 8371,
    "Ġ69": 8372,
    "Ġpushed": 8373,
    "ĠSqu": 8374,
    "ĠPicture": 8375,
    "750": 8376,
    "oney": 8377,
    "ignty": 8378,
    "ĠScots": 8379,
    "ĠWii": 8380,
    "Ġrecruiting": 8381,
    "Ġdislike": 8382,
    "Ġec": 8383,
    "aca": 8384,
    "Ġstuffed": 8385,
    "Record": 8386,
    "Ġdish": 8387,
    "Ġpunishing": 8388,
    "Ġfreshly": 8389,
    "ĠPerez": 8390,
    "ĠParadise": 8391,
    "Ġcommercial": 8392,
    "ouch": 8393,
    "OL": 8394,
    "het": 8395,
    "Russia": 8396,
    "Ġmeantime": 8397,
    "Ġfraught": 8398,
    "ords": 8399,
    "ups": 8400,
    "Ġphysicians": 8401,
    "Ġneed": 8402,
    "Ġgave": 8403,
    "apping": 8404,
    "Ġacron": 8405,
    "Ġreturns": 8406,
    "Ġtelevised": 8407,
    "n": 8408,
    "Ġbroken": 8409,
    "Ġrel": 8410,
    "Ġtheories": 8411,
    "play": 8412,
    "Ġpackage": 8413,
    "ĠDodgers": 8414,
    "writ": 8415,
    "Ġhatch": 8416,
    "otto": 8417,
    "ĠMattis": 8418,
    "Ġrepresentations": 8419,
    "Ġdisplay": 8420,
    "ĠBrooklyn": 8421,
    "Mark": 8422,
    "Ġsalt": 8423,
    "Ġconcurrent": 8424,
    "ĠRing": 8425,
    "dest": 8426,
    "ĠWhenever": 8427,
    "Ġhandler": 8428,
    "generated": 8429,
    "ECT": 8430,
    "Ġindoors": 8431,
    "Ġleave": 8432,
    "Ġauthorities": 8433,
    "ĠMack": 8434,
    "Ġobsession": 8435,
    "Ġdome": 8436,
    "dney": 8437,
    "ĠAhmad": 8438,
    "Ġcensorship": 8439,
    "Ġreplacement": 8440,
    "Ġpassport": 8441,
    "ĠBaby": 8442,
    "Ġ113": 8443,
    "Ġtackles": 8444,
    "onic": 8445,
    "ĠSurely": 8446,
    "dding": 8447,
    "Ġlakh": 8448,
    "its": 8449,
    "Ġacquiring": 8450,
    "Wood": 8451,
    "Louis": 8452,
    "ĠInitially": 8453,
    "beit": 8454,
    "âĢ¢âĢ¢": 8455,
    "ĠThompson": 8456,
    "Ġwines": 8457,
    "frame": 8458,
    "Ġult": 8459,
    "ĠGer": 8460,
    "ser": 8461,
    "ĠFree": 8462,
    "vertisements": 8463,
    "Ġconfront": 8464,
    "ĠWinston": 8465,
    "Ġcompl": 8466,
    "ĠJames": 8467,
    "ĠFlorida": 8468,
    "ĠItem": 8469,
    "send": 8470,
    "ulpt": 8471,
    "Ġspecialty": 8472,
    "Ġvirgin": 8473,
    "Ġembodied": 8474,
    "Ġincarcerated": 8475,
    ",": 8476,
    "Ġahead": 8477,
    "det": 8478,
    "Ġdich": 8479,
    "ĠRace": 8480,
    "umblr": 8481,
    "ĠArist": 8482,
    "icultural": 8483,
    "rites": 8484,
    "ĠMcK": 8485,
    "Ġcounterpart": 8486,
    "Ġtravelling": 8487,
    "Ġstylish": 8488,
    "ict": 8489,
    "Ġvalidity": 8490,
    "bomb": 8491,
    "lege": 8492,
    "ĠUltimately": 8493,
    "Ġrepair": 8494,
    "Ġcomplement": 8495,
    "Critics": 8496,
    "amph": 8497,
    "ĠJenny": 8498,
    "Ġsq": 8499,
    "Ġcontention": 8500,
    "ĠArray": 8501,
    "antically": 8502,
    "Ġwiki": 8503,
    "ĠTTC": 8504,
    "Ġsteel": 8505,
    "Ġpicks": 8506,
    "bert": 8507,
    "Ġexhausted": 8508,
    "ersion": 8509,
    "Ġenerg": 8510,
    "QL": 8511,
    "Ġlegislature": 8512,
    "135": 8513,
    "ĠCall": 8514,
    "whel": 8515,
    "Ġdischarged": 8516,
    "haus": 8517,
    "rand": 8518,
    "drug": 8519,
    "eros": 8520,
    "num": 8521,
    "uh": 8522,
    "ĠImpact": 8523,
    "Ġmarriage": 8524,
    "xx": 8525,
    "Ġcriticized": 8526,
    "Ġoriginated": 8527,
    "Ġcaused": 8528,
    "Ġpatches": 8529,
    "ĠAthe": 8530,
    "uador": 8531,
    "riel": 8532,
    "rend": 8533,
    "Ġtheological": 8534,
    "Ġresc": 8535,
    "semb": 8536,
    "Ġbonds": 8537,
    "ï¼Į": 8538,
    "Building": 8539,
    "Ġcable": 8540,
    "ĠBet": 8541,
    "ĠSport": 8542,
    "Ġchanting": 8543,
    "Ġphilos": 8544,
    "ardy": 8545,
    "ĠGad": 8546,
    "Ġviolated": 8547,
    "except": 8548,
    "arre": 8549,
    "ĠOpen": 8550,
    "ĠIF": 8551,
    "green": 8552,
    "Ġexisting": 8553,
    "Ġunheard": 8554,
    "Ġgall": 8555,
    "Ġcombust": 8556,
    "Ġengineer": 8557,
    "Ġup": 8558,
    "ĠÎ±": 8559,
    "Ġuncont": 8560,
    "Ġintentionally": 8561,
    "occupied": 8562,
    "Ġsou": 8563,
    "Ġperil": 8564,
    "Ġmonst": 8565,
    "uscript": 8566,
    "iots": 8567,
    "Ġgent": 8568,
    "oto": 8569,
    "Ġsources": 8570,
    "ĠAj": 8571,
    "Ġicy": 8572,
    "Ġiter": 8573,
    "Ġtreatment": 8574,
    "ĠDeath": 8575,
    "Ġunsub": 8576,
    "otton": 8577,
    "conf": 8578,
    "Ġbacteria": 8579,
    "Ġbonus": 8580,
    "pic": 8581,
    "Ġlinguistic": 8582,
    "Ġpartisans": 8583,
    "Ġanalog": 8584,
    "115": 8585,
    "Ġthreads": 8586,
    "Ġunofficial": 8587,
    "Ġtransitional": 8588,
    "Ġrated": 8589,
    "Ġamong": 8590,
    "Ġaccompanying": 8591,
    "Ġanticipate": 8592,
    "ĠUs": 8593,
    "Ġskeptical": 8594,
    "uder": 8595,
    "ĠMiami": 8596,
    "Ġsummoned": 8597,
    "meg": 8598,
    "oline": 8599,
    "Ġch": 8600,
    "arch": 8601,
    "cerpt": 8602,
    "Ġrupt": 8603,
    "oni": 8604,
    "Ġceasefire": 8605,
    "Ġpseudo": 8606,
    "ooting": 8607,
    "Ġlakes": 8608,
    "Ġ};": 8609,
    "Ġ1957": 8610,
    "ë": 8611,
    "Ġindependence": 8612,
    "Video": 8613,
    "Long": 8614,
    "Ġbenefits": 8615,
    "k": 8616,
    "Ġbase": 8617,
    "onies": 8618,
    "ĠAngular": 8619,
    "Ġchanged": 8620,
    "Ġguiding": 8621,
    "uman": 8622,
    "ĠWhen": 8623,
    "Ġbron": 8624,
    "Ġbrightest": 8625,
    "ĠDJ": 8626,
    "ĠOrganisation": 8627,
    "Ġimpressions": 8628,
    "Ġwarning": 8629,
    "ologist": 8630,
    "ĠWeb": 8631,
    "alo": 8632,
    "Ġplac": 8633,
    "Ġrefers": 8634,
    "Ġunveil": 8635,
    "ĠGod": 8636,
    "NOT": 8637,
    "ĠTs": 8638,
    "Ġbalanced": 8639,
    "Ġunb": 8640,
    "shoot": 8641,
    "ĠConserv": 8642,
    "Ġreassure": 8643,
    "ved": 8644,
    "Microsoft": 8645,
    "Ġversatile": 8646,
    "oufl": 8647,
    "ĠRP": 8648,
    "ography": 8649,
    "Contact": 8650,
    "Ġenthusi": 8651,
    "axies": 8652,
    "ĠBDS": 8653,
    "Ġexplo": 8654,
    "ĠGold": 8655,
    "Ġfinite": 8656,
    "Ġoutbreaks": 8657,
    "Ġdesignated": 8658,
    "ĠRising": 8659,
    "ĠEx": 8660,
    "Short": 8661,
    "acon": 8662,
    "Ġsustainability": 8663,
    "ĠInter": 8664,
    "ocated": 8665,
    "iche": 8666,
    "Ġfilmmakers": 8667,
    "Ġmerchandise": 8668,
    "ĠMcCl": 8669,
    "zz": 8670,
    "Former": 8671,
    "Age": 8672,
    "Ġexcellent": 8673,
    "ĠTownship": 8674,
    "Ġenzyme": 8675,
    "ĠKiller": 8676,
    "Editor": 8677,
    "Ġrobbed": 8678,
    "icago": 8679,
    "national": 8680,
    "being": 8681,
    "illion": 8682,
    "Ġlearns": 8683,
    "Ġdoc": 8684,
    "Aust": 8685,
    "oop": 8686,
    "orsi": 8687,
    "acas": 8688,
    "Ġflatten": 8689,
    "Ġdisrupted": 8690,
    "ĠBrad": 8691,
    "Ġlure": 8692,
    "ĠBra": 8693,
    "event": 8694,
    "ructions": 8695,
    "Ġ1080": 8696,
    "Ã£o": 8697,
    "ĠLouisiana": 8698,
    "Ġcoveted": 8699,
    "ĠBent": 8700,
    "ĠSM": 8701,
    "Ġsupposed": 8702,
    "Ġnewsletter": 8703,
    "Ġextremist": 8704,
    "Ġfeeds": 8705,
    "from": 8706,
    "Ġ131": 8707,
    "ĠBir": 8708,
    "Ġdelighted": 8709,
    "enses": 8710,
    "German": 8711,
    "ĠOri": 8712,
    "Ġvirtues": 8713,
    "ĠFAA": 8714,
    "ĠFranklin": 8715,
    "ĠSettings": 8716,
    "Ġcompound": 8717,
    "ĠCompanies": 8718,
    "ining": 8719,
    "yers": 8720,
    "ĠFeatures": 8721,
    "Ġoptim": 8722,
    "ĠTibet": 8723,
    "Ġneedle": 8724,
    "ĠNASCAR": 8725,
    "Another": 8726,
    "ĠCandy": 8727,
    "Ġbelieving": 8728,
    "Ġbliss": 8729,
    "Ġroasted": 8730,
    "epernick": 8731,
    "MAN": 8732,
    "ĠGT": 8733,
    "Ġ->": 8734,
    "SH": 8735,
    "Ġcontroversies": 8736,
    "Ġsensible": 8737,
    "existing": 8738,
    "Ġtense": 8739,
    "Ġcompatibility": 8740,
    "ĠMacDonald": 8741,
    "ules": 8742,
    "Ġsurvival": 8743,
    "gate": 8744,
    "Ġ39": 8745,
    "ĠIQ": 8746,
    "Ġtransmission": 8747,
    "gered": 8748,
    "Ġattention": 8749,
    "Ġindependent": 8750,
    "Ġpotato": 8751,
    "Ġcommissioner": 8752,
    "td": 8753,
    "Ġbullet": 8754,
    "oko": 8755,
    "ĠâĢĶ": 8756,
    "<|endoftext|>": 8757,
    "Ġreproductive": 8758,
    "Ġelsewhere": 8759,
    "ĠCarbon": 8760,
    "anni": 8761,
    "Ġtable": 8762,
    "iment": 8763,
    "Ġdisintegr": 8764,
    "Ġgender": 8765,
    "client": 8766,
    "Ġstatutes": 8767,
    "PO": 8768,
    "Ġmaybe": 8769,
    "ĠADHD": 8770,
    "Ġsto": 8771,
    "ĠGate": 8772,
    "anke": 8773,
    "Ġfulfill": 8774,
    "Ġstaffers": 8775,
    "Ġconfident": 8776,
    "ĠSur": 8777,
    "ĠGan": 8778,
    "Ġironic": 8779,
    "oga": 8780,
    "Ġconsoles": 8781,
    "Â·": 8782,
    "Each": 8783,
    "addy": 8784,
    "sequ": 8785,
    "Ġusual": 8786,
    "Ġtransitioning": 8787,
    "Ġsatirical": 8788,
    "Ġexample": 8789,
    "uable": 8790,
    "ocratic": 8791,
    "ĠCincinnati": 8792,
    "Ġfortress": 8793,
    "Ġcler": 8794,
    "Ġbillions": 8795,
    "Ġdenounced": 8796,
    "Ġspeaking": 8797,
    "Ġmin": 8798,
    "fall": 8799,
    "Ġfame": 8800,
    "Î¹": 8801,
    "uration": 8802,
    "Ġdean": 8803,
    "Ġvacation": 8804,
    "reams": 8805,
    "Ben": 8806,
    "hold": 8807,
    "Ġquantitative": 8808,
    "Ġvisible": 8809,
    "Ġdefault": 8810,
    "ĠNin": 8811,
    "Ġstakes": 8812,
    "Ġfortun": 8813,
    "indust": 8814,
    "Ġrelated": 8815,
    "Ġinterpretation": 8816,
    "Ġheights": 8817,
    "ĠLoren": 8818,
    "ĠStoke": 8819,
    "Ġmissiles": 8820,
    "Ġecosystem": 8821,
    "Ġcompetitor": 8822,
    "aterial": 8823,
    "rich": 8824,
    "ĠRiy": 8825,
    "Ġthin": 8826,
    "ĠJeffrey": 8827,
    "puted": 8828,
    "ĠPascal": 8829,
    "urer": 8830,
    "Score": 8831,
    "iso": 8832,
    "Ġpredator": 8833,
    "Ġdivision": 8834,
    "du": 8835,
    "References": 8836,
    "Ġdepartment": 8837,
    "Ġstatistically": 8838,
    "branded": 8839,
    "Ġsteady": 8840,
    "Head": 8841,
    "Ġperpetrators": 8842,
    "placed": 8843,
    "rets": 8844,
    "Ġwherever": 8845,
    "Ġbits": 8846,
    "Ġethical": 8847,
    "Ġlanguages": 8848,
    "ĠNaval": 8849,
    "ĠRedskins": 8850,
    "Ġmarketed": 8851,
    "Land": 8852,
    "rote": 8853,
    "Ġplacing": 8854,
    "ĠCooperation": 8855,
    "cles": 8856,
    "Ġimplies": 8857,
    "Ġplummet": 8858,
    "Ġcaut": 8859,
    "Ġirres": 8860,
    "Ġbecomes": 8861,
    "ories": 8862,
    "Ġbeers": 8863,
    "Ġjerseys": 8864,
    "inn": 8865,
    "enes": 8866,
    "Ġinstallations": 8867,
    "ĠGS": 8868,
    "ĠStrong": 8869,
    "Ġhacks": 8870,
    "amation": 8871,
    "ô": 8872,
    "ealous": 8873,
    "Ġnostal": 8874,
    "ĠNonetheless": 8875,
    "ĠGlobe": 8876,
    "ulin": 8877,
    "Ġexpans": 8878,
    "Ġbackward": 8879,
    "ĠTrend": 8880,
    "ĠStats": 8881,
    "ĠBraves": 8882,
    "shed": 8883,
    "icks": 8884,
    "ĠTheodore": 8885,
    "Ġ&": 8886,
    "Ġdecisive": 8887,
    "Ġblocks": 8888,
    "Ġchange": 8889,
    "target": 8890,
    "Ġtomatoes": 8891,
    "Ġhair": 8892,
    "omp": 8893,
    "Ġcoach": 8894,
    "und": 8895,
    "Ġallowing": 8896,
    "Ġresembling": 8897,
    "ĠAb": 8898,
    "Ġsideline": 8899,
    "Ġmathematic": 8900,
    "ricia": 8901,
    "Ġsupervisors": 8902,
    "Ġtobacco": 8903,
    "Ġvul": 8904,
    "aleigh": 8905,
    "133": 8906,
    "ĠEy": 8907,
    "Pad": 8908,
    "đ": 8909,
    "ĠPDF": 8910,
    "ĠCong": 8911,
    "Ġnas": 8912,
    "Ġrule": 8913,
    "Ġslogan": 8914,
    "irteen": 8915,
    "west": 8916,
    "LL": 8917,
    "ĠAdult": 8918,
    "artney": 8919,
    "Ġcondoms": 8920,
    "atures": 8921,
    "ĠPalin": 8922,
    "âĢĿâĢĶ": 8923,
    "Ġretaliation": 8924,
    "Ġstrangers": 8925,
    "Ġ6": 8926,
    "regn": 8927,
    "ĠJessica": 8928,
    "Ġcritique": 8929,
    "Ġoccupations": 8930,
    "aza": 8931,
    "Ġpromot": 8932,
    "Lay": 8933,
    "Ġwra": 8934,
    "Ġresolving": 8935,
    "Ġbreweries": 8936,
    "ĠLyon": 8937,
    "kell": 8938,
    "Ġextent": 8939,
    "Ġregulated": 8940,
    "letes": 8941,
    "Ġmolecules": 8942,
    "ĠBenn": 8943,
    "Leg": 8944,
    "ĠPent": 8945,
    "ĠUnknown": 8946,
    "ĠAlger": 8947,
    "Ġnation": 8948,
    "Ġage": 8949,
    "Ġaccomplished": 8950,
    "âĢ¦": 8951,
    "Ġsuperior": 8952,
    "ĠPP": 8953,
    "ĠSpanish": 8954,
    "Ġfourteen": 8955,
    "Ġwhich": 8956,
    "Ġartist": 8957,
    "ĠKoch": 8958,
    "Ġexecut": 8959,
    "anqu": 8960,
    "ĠSpe": 8961,
    "ĠTS": 8962,
    "Ġ52": 8963,
    "Japanese": 8964,
    "ĠGrad": 8965,
    "Ġintuition": 8966,
    "Ġproblems": 8967,
    "Ġfell": 8968,
    "¦": 8969,
    "Ġbadge": 8970,
    "Ġconnector": 8971,
    "ĠHurricane": 8972,
    "Ġvetting": 8973,
    "Ġwaste": 8974,
    "Ġcomposition": 8975,
    "Ġmechanical": 8976,
    "iba": 8977,
    "utan": 8978,
    "Ġsaving": 8979,
    "Ġapplaud": 8980,
    "ĠAfgh": 8981,
    "lene": 8982,
    "Ġreader": 8983,
    "cular": 8984,
    "Ġunivers": 8985,
    "ĠMorgan": 8986,
    "ĠCoul": 8987,
    "Ġfloat": 8988,
    "come": 8989,
    "ĠMarvin": 8990,
    "Ġreleased": 8991,
    "recogn": 8992,
    "Ġdispens": 8993,
    "Ġtyr": 8994,
    "Ġlimitations": 8995,
    "Ġcry": 8996,
    "Ġspecification": 8997,
    "Ġbolt": 8998,
    "ĠWash": 8999,
    "directed": 9000,
    "ĠPhotos": 9001,
    "Ġmean": 9002,
    "bing": 9003,
    "Ġtrusting": 9004,
    "inton": 9005,
    "ĠRelief": 9006,
    "uchi": 9007,
    "ĠPolice": 9008,
    "true": 9009,
    "ussed": 9010,
    "It": 9011,
    "ĠMR": 9012,
    "ÂĢÂ": 9013,
    "ĠTes": 9014,
    "gas": 9015,
    "Ġhumility": 9016,
    "ĠWild": 9017,
    "iology": 9018,
    "ĠProtect": 9019,
    "Ġatomic": 9020,
    "ĠLux": 9021,
    "Ġfires": 9022,
    "ĠTravis": 9023,
    "ĠSocialist": 9024,
    "July": 9025,
    "arcraft": 9026,
    "Ġsocieties": 9027,
    "ĠBird": 9028,
    "ori": 9029,
    "Ġcouch": 9030,
    "ĠBolton": 9031,
    "ĠCut": 9032,
    "ĠDana": 9033,
    "Ġconstituents": 9034,
    "Ġbench": 9035,
    "ĠSikh": 9036,
    "Ġsprint": 9037,
    "ights": 9038,
    "ptic": 9039,
    "Ġpg": 9040,
    "Ġsometimes": 9041,
    "IM": 9042,
    "ĠChall": 9043,
    "Ġnear": 9044,
    "Ġslippery": 9045,
    "ĠGet": 9046,
    "ĠRich": 9047,
    "raining": 9048,
    "alian": 9049,
    "Ġreality": 9050,
    "js": 9051,
    "occup": 9052,
    "Ġprinter": 9053,
    "ĠSpark": 9054,
    "Ġapproach": 9055,
    "Ġdistributions": 9056,
    "ĠWorlds": 9057,
    "Ġdragged": 9058,
    "Ġpredators": 9059,
    "Ġtrek": 9060,
    "tainment": 9061,
    "Ġinfant": 9062,
    "ĠChrysler": 9063,
    "ĠWatson": 9064,
    "who": 9065,
    "ĠDual": 9066,
    "uana": 9067,
    "Ġonstage": 9068,
    "ption": 9069,
    "Ġexpertise": 9070,
    "Ã³": 9071,
    "ead": 9072,
    "ĠFif": 9073,
    "olics": 9074,
    "Ġporch": 9075,
    "iably": 9076,
    "holders": 9077,
    "Ġdad": 9078,
    "Ġscor": 9079,
    "ĠSharia": 9080,
    "Ġdurability": 9081,
    "Ġrack": 9082,
    "Ġcaval": 9083,
    "Ġadequate": 9084,
    "ĠHud": 9085,
    "Ġselected": 9086,
    "Ġsweep": 9087,
    "Ġdefects": 9088,
    "Ġnationals": 9089,
    "):": 9090,
    "hey": 9091,
    "sac": 9092,
    "sor": 9093,
    "Fox": 9094,
    "Ġmagnificent": 9095,
    "went": 9096,
    "fet": 9097,
    "Ġneon": 9098,
    "Ġcosts": 9099,
    "ĠNight": 9100,
    "Ġrhyth": 9101,
    "Ġthrilled": 9102,
    "ban": 9103,
    "ĠDay": 9104,
    "ietal": 9105,
    "ĠMoon": 9106,
    "Ġcess": 9107,
    "Post": 9108,
    "ĠJosh": 9109,
    "BE": 9110,
    "anted": 9111,
    "Ġconsiderations": 9112,
    "gi": 9113,
    "Ġdebate": 9114,
    "chron": 9115,
    "iko": 9116,
    "Ġaesthetics": 9117,
    "Ġsection": 9118,
    "Ġver": 9119,
    "iott": 9120,
    "chedel": 9121,
    "Block": 9122,
    "Ġlacking": 9123,
    "ios": 9124,
    "Should": 9125,
    "Ġspy": 9126,
    "]:": 9127,
    "ĠLaure": 9128,
    "Ġarrived": 9129,
    "Haw": 9130,
    "apes": 9131,
    "uka": 9132,
    "Ġroutine": 9133,
    "Ġconv": 9134,
    "2019": 9135,
    "ĠObservatory": 9136,
    "Ġtrying": 9137,
    "Ġadmit": 9138,
    "ĠMohammed": 9139,
    "Ġmonthly": 9140,
    "Mass": 9141,
    "ence": 9142,
    "ĠVon": 9143,
    "Ġago": 9144,
    "Ġorthodox": 9145,
    "iral": 9146,
    "ĠExcept": 9147,
    "Ġapprove": 9148,
    "redit": 9149,
    "Ġfoster": 9150,
    "ĠLogan": 9151,
    "Ġdirections": 9152,
    "Fans": 9153,
    "Ġaffiliated": 9154,
    "ĠSep": 9155,
    "rikes": 9156,
    "Ġcopying": 9157,
    "Ġairspace": 9158,
    "Ġevening": 9159,
    "Neither": 9160,
    "ĠGPUs": 9161,
    "Ġbarg": 9162,
    "ĠTony": 9163,
    "3": 9164,
    "Ġvideot": 9165,
    "Ġaffordable": 9166,
    "rep": 9167,
    "Tony": 9168,
    "ivalent": 9169,
    "Ġincub": 9170,
    "Ġsty": 9171,
    "ð": 9172,
    "ĠUV": 9173,
    "lection": 9174,
    "Grand": 9175,
    "Ġincident": 9176,
    "Ġtedious": 9177,
    "Ġgenetically": 9178,
    "Ġtech": 9179,
    "bishop": 9180,
    "oneliness": 9181,
    "ĠTouch": 9182,
    "Ġleaks": 9183,
    "ĠCort": 9184,
    "Ġtechnical": 9185,
    "Ġwisely": 9186,
    "Ġmiserable": 9187,
    "Ġsummarized": 9188,
    "January": 9189,
    "Ġseeming": 9190,
    "ĠDep": 9191,
    "ĠÐ¿": 9192,
    "ĠProtection": 9193,
    "Ġamenities": 9194,
    "Ġbeach": 9195,
    "ĠGran": 9196,
    "ĠItalian": 9197,
    "ĠDawn": 9198,
    "ĠPTS": 9199,
    "ĠFA": 9200,
    "Ext": 9201,
    "ĠStatus": 9202,
    "Ġharmony": 9203,
    "Ġradioactive": 9204,
    "asant": 9205,
    "Ġdeeper": 9206,
    "ĠLove": 9207,
    "ĠMany": 9208,
    "azers": 9209,
    "Full": 9210,
    "Team": 9211,
    "ĠIndependence": 9212,
    "ĠTom": 9213,
    "As": 9214,
    "ge": 9215,
    "Ġ16": 9216,
    "Ġclarification": 9217,
    "Ġdishon": 9218,
    ").âĢĿ": 9219,
    "Ġare": 9220,
    "ĠCanberra": 9221,
    "ĠPokemon": 9222,
    "Ġ12": 9223,
    "ĠPr": 9224,
    "LAY": 9225,
    "Ġmeasured": 9226,
    "Ġtheft": 9227,
    "ctive": 9228,
    "hon": 9229,
    "ilibrium": 9230,
    "ĠAccountability": 9231,
    "Ġinvestigated": 9232,
    "Breaking": 9233,
    "ĠHamp": 9234,
    "Ġcitations": 9235,
    "Ġmaternal": 9236,
    "Ġincomp": 9237,
    "Ġfund": 9238,
    "ment": 9239,
    "Ġ2002": 9240,
    "AF": 9241,
    "ĠYard": 9242,
    "Ġtool": 9243,
    "Ġfilibuster": 9244,
    "ishi": 9245,
    "Ġhydra": 9246,
    "ãģ¾": 9247,
    "Ġgeography": 9248,
    "Ġvandal": 9249,
    "%).": 9250,
    "Ġlineback": 9251,
    "aft": 9252,
    "Ġhardship": 9253,
    "Ġconverting": 9254,
    "Ġexcellence": 9255,
    "Ġslipped": 9256,
    "RR": 9257,
    "lements": 9258,
    "essler": 9259,
    "ĠPrinceton": 9260,
    "ĠÐ¾": 9261,
    "Ġverses": 9262,
    "mines": 9263,
    "rans": 9264,
    "DE": 9265,
    "ĠRacing": 9266,
    "ĠChat": 9267,
    "Ġability": 9268,
    "ĠArabic": 9269,
    "aging": 9270,
    "Ġcash": 9271,
    "Lib": 9272,
    "],âĢĿ": 9273,
    "Ġauthenticity": 9274,
    "Ġindust": 9275,
    "Ġelectrons": 9276,
    "Law": 9277,
    "ĠGone": 9278,
    "Ġsweet": 9279,
    "Ġimplements": 9280,
    "Ġranged": 9281,
    "mare": 9282,
    "ĠBernard": 9283,
    "mediately": 9284,
    "Ġobjective": 9285,
    "ĠBrand": 9286,
    "ĠChristie": 9287,
    "Ġanonymously": 9288,
    "ĠGraph": 9289,
    "Ġonly": 9290,
    "Ġbogus": 9291,
    "ĠDepartment": 9292,
    "Ġplays": 9293,
    "heads": 9294,
    "ĠEgyptian": 9295,
    "Ġgrowers": 9296,
    "Ġfiling": 9297,
    "ĠProgressive": 9298,
    "ĠÐ½Ðµ": 9299,
    "ĠDayton": 9300,
    "adic": 9301,
    "Ġconstructed": 9302,
    "Marc": 9303,
    "ĠMore": 9304,
    "Ġwasting": 9305,
    "ze": 9306,
    "hyd": 9307,
    "story": 9308,
    "Ġobserves": 9309,
    "ĠTreat": 9310,
    "aped": 9311,
    "Ġdirt": 9312,
    "ibal": 9313,
    "ĠAdvance": 9314,
    "ag": 9315,
    "Ġcertification": 9316,
    "ĠMafia": 9317,
    "Ġsalv": 9318,
    "anda": 9319,
    "aun": 9320,
    "sson": 9321,
    "urn": 9322,
    "Ġmarital": 9323,
    "Ġmounted": 9324,
    "Ġimports": 9325,
    "Eric": 9326,
    "omer": 9327,
    "arters": 9328,
    "OR": 9329,
    "Ġassociations": 9330,
    "Ġagents": 9331,
    "ATE": 9332,
    "isol": 9333,
    "ĠLat": 9334,
    "Ġwanting": 9335,
    "Ġeagerly": 9336,
    "western": 9337,
    "ĠHarlem": 9338,
    "Chicago": 9339,
    "oples": 9340,
    "ĠFre": 9341,
    "Ġfrequency": 9342,
    "Ġrumored": 9343,
    "ĠWhile": 9344,
    "ĠJackson": 9345,
    "Ġdiscomfort": 9346,
    "¾": 9347,
    "ĠH": 9348,
    "bn": 9349,
    "Ġir": 9350,
    "ĠSay": 9351,
    "umbing": 9352,
    "rew": 9353,
    "Ġhealing": 9354,
    "Ġvaluation": 9355,
    "Ġartif": 9356,
    "CLA": 9357,
    "Ġhelm": 9358,
    "ĠPlatform": 9359,
    "aru": 9360,
    "Ġsilly": 9361,
    "ination": 9362,
    "Ġglad": 9363,
    "Ġwel": 9364,
    "Fi": 9365,
    "Ġcup": 9366,
    "Ġincomplete": 9367,
    "Ð½": 9368,
    "Ġexplanations": 9369,
    "Ġfreshman": 9370,
    "Ġactually": 9371,
    "ĠWarrior": 9372,
    "ĠClause": 9373,
    "ĠEvil": 9374,
    "Ġmoist": 9375,
    "pite": 9376,
    "Ġshiny": 9377,
    "ĠJoyce": 9378,
    "Pass": 9379,
    "Ġate": 9380,
    "Ġgone": 9381,
    "ĠMint": 9382,
    "ĠTar": 9383,
    "odka": 9384,
    "Ġmanifestation": 9385,
    "Ġhorizontal": 9386,
    "Ġtouch": 9387,
    "Ġsummed": 9388,
    "Ġtightening": 9389,
    "Ġconfir": 9390,
    "ĠPoor": 9391,
    "ĠLynn": 9392,
    "ĠJanet": 9393,
    "Ġinflammation": 9394,
    "Ġvisits": 9395,
    "Ġcultivation": 9396,
    "ĠBu": 9397,
    "¡": 9398,
    "ĠInvestig": 9399,
    "Ġtracking": 9400,
    "rong": 9401,
    "raw": 9402,
    "Ġancestral": 9403,
    "Ġhigher": 9404,
    "2005": 9405,
    "han": 9406,
    "mat": 9407,
    "Ġcommem": 9408,
    "ieve": 9409,
    "Ġfru": 9410,
    "Ġgrateful": 9411,
    "Ġglove": 9412,
    "Disc": 9413,
    "iti": 9414,
    "Ġlens": 9415,
    "Ġwilderness": 9416,
    "ĠFoster": 9417,
    "ĠStrike": 9418,
    "Ġscam": 9419,
    "ĠKing": 9420,
    "ĠYes": 9421,
    "ecause": 9422,
    "uating": 9423,
    "ĠHale": 9424,
    "ĠDance": 9425,
    "Ġcounted": 9426,
    "ĠDrake": 9427,
    "ĠNvidia": 9428,
    "Ġannounces": 9429,
    "Thread": 9430,
    "Water": 9431,
    "1994": 9432,
    "Ġmotorcy": 9433,
    "Ġmorale": 9434,
    "ks": 9435,
    "Ġoverth": 9436,
    "ĠSant": 9437,
    "RP": 9438,
    "Ġprotocol": 9439,
    "Ġextensive": 9440,
    "ĠHaiti": 9441,
    "Way": 9442,
    "Ġbenchmarks": 9443,
    "Ġemphasized": 9444,
    "Ġtranslations": 9445,
    "Ġhunting": 9446,
    "imagin": 9447,
    "master": 9448,
    "Ġcandle": 9449,
    "ĠLaden": 9450,
    "ĠEr": 9451,
    "Writing": 9452,
    "ĠStrat": 9453,
    "Ġdeclaring": 9454,
    "rath": 9455,
    "ÑĢÐµ": 9456,
    "Ġcredited": 9457,
    "ĠTechn": 9458,
    "ritical": 9459,
    "Ġassert": 9460,
    "Ġdispers": 9461,
    "Ġsexual": 9462,
    "v": 9463,
    "ĠVan": 9464,
    "racuse": 9465,
    "ĠHast": 9466,
    "ĠGrizz": 9467,
    "Ġstrip": 9468,
    "ĠUS": 9469,
    "olia": 9470,
    "Ġinvited": 9471,
    "ĠWinn": 9472,
    "ĠLakes": 9473,
    "inav": 9474,
    "iting": 9475,
    "ĠOL": 9476,
    "Ġtwentieth": 9477,
    "Ġblast": 9478,
    "Ġjugg": 9479,
    "Ġconclusion": 9480,
    "Ġpoke": 9481,
    "Ġrenting": 9482,
    "ighting": 9483,
    "BN": 9484,
    "ĠMr": 9485,
    "profile": 9486,
    "cot": 9487,
    "essors": 9488,
    "Bernie": 9489,
    "vo": 9490,
    "blue": 9491,
    "ĠBoyle": 9492,
    "ĠSilk": 9493,
    "Ġcrises": 9494,
    "vote": 9495,
    "ĠIo": 9496,
    "Ġaltercation": 9497,
    "ĠBBC": 9498,
    "Ġcrippling": 9499,
    "Ġdebates": 9500,
    "iberal": 9501,
    "ëĭ": 9502,
    "ĠCash": 9503,
    "Ġreinfor": 9504,
    "ĠComplete": 9505,
    "ĠSt": 9506,
    "ln": 9507,
    "Ġ270": 9508,
    "Ġgl": 9509,
    "affer": 9510,
    "ĠModern": 9511,
    "ĠComics": 9512,
    "Ġzu": 9513,
    "Ġappearing": 9514,
    "Ġsecrets": 9515,
    "Ġunders": 9516,
    "2010": 9517,
    "Asked": 9518,
    "uddled": 9519,
    "ird": 9520,
    "ĠAppro": 9521,
    "ĠOttoman": 9522,
    "Ġtraject": 9523,
    "ãĢ": 9524,
    "Ð¾Ð´": 9525,
    "through": 9526,
    "lected": 9527,
    "Ġspeeds": 9528,
    "ĠIS": 9529,
    "Ġcomprom": 9530,
    "ester": 9531,
    "strap": 9532,
    "ĠLucky": 9533,
    "ĠGilles": 9534,
    "Ġscream": 9535,
    "ĠJerry": 9536,
    "ĠMcKin": 9537,
    "ĠKnow": 9538,
    "ĠNear": 9539,
    "ographically": 9540,
    "Ġdiameter": 9541,
    "ĠTao": 9542,
    "Austral": 9543,
    "Ġbreed": 9544,
    "Section": 9545,
    "Ġcomposed": 9546,
    "ĠHudson": 9547,
    "Ě": 9548,
    "Besides": 9549,
    "Ġintensely": 9550,
    "position": 9551,
    "Ġpressure": 9552,
    "laughter": 9553,
    "Ġominous": 9554,
    "sole": 9555,
    "bery": 9556,
    "ĠKush": 9557,
    "ĠMo": 9558,
    "Ġshoe": 9559,
    "ĠJet": 9560,
    "HA": 9561,
    "ĠKhan": 9562,
    "650": 9563,
    "Ġcustom": 9564,
    "Ġease": 9565,
    "Ġacademia": 9566,
    "Ġstab": 9567,
    "rather": 9568,
    "ten": 9569,
    "Ġcurrents": 9570,
    "Ġlegislatures": 9571,
    "ĠFrontier": 9572,
    "ĠIM": 9573,
    "Ġnickel": 9574,
    "ĠLeg": 9575,
    "agrams": 9576,
    "ĠRice": 9577,
    "ĠHardy": 9578,
    "izing": 9579,
    "ĠMon": 9580,
    "ĠDictionary": 9581,
    "Ġelevator": 9582,
    "ĠStadium": 9583,
    "Sep": 9584,
    "Ġmocked": 9585,
    "artment": 9586,
    "Ġ1941": 9587,
    "bled": 9588,
    "miss": 9589,
    "Ġsixth": 9590,
    "ĠPull": 9591,
    "Ġtennis": 9592,
    "ĠSpicer": 9593,
    "Ġpunished": 9594,
    "tro": 9595,
    "Ġ1994": 9596,
    "Ġchildhood": 9597,
    "Andy": 9598,
    "Ġaw": 9599,
    "era": 9600,
    "Ġcleric": 9601,
    "Ġbalancing": 9602,
    "Ġlifts": 9603,
    "ĠSoros": 9604,
    "ĠFil": 9605,
    "ued": 9606,
    "Ġheav": 9607,
    "ÃŃn": 9608,
    "ĠFin": 9609,
    "Ġrouter": 9610,
    "Ġeager": 9611,
    "ounds": 9612,
    "teenth": 9613,
    "ĠWhere": 9614,
    "Ġactively": 9615,
    "ĠEqual": 9616,
    "07": 9617,
    "ya": 9618,
    "Ġbread": 9619,
    "Ban": 9620,
    "Ġhyster": 9621,
    "s": 9622,
    ",''": 9623,
    "ahn": 9624,
    "AG": 9625,
    "ĠIMA": 9626,
    "Ġremoved": 9627,
    "ĠSent": 9628,
    "bre": 9629,
    "Ġfishermen": 9630,
    "ther": 9631,
    "soever": 9632,
    "ĠSau": 9633,
    "Ġlicenses": 9634,
    "Ġdiscovery": 9635,
    "ĠFurthermore": 9636,
    "Ġpresents": 9637,
    "Ġtraits": 9638,
    "ĠFrancisco": 9639,
    "ondo": 9640,
    "ĠClinic": 9641,
    "ĠNX": 9642,
    "Ġton": 9643,
    "EW": 9644,
    "Dig": 9645,
    "ĠDri": 9646,
    "Ġmamm": 9647,
    "Ġfactions": 9648,
    "ĠBMW": 9649,
    "Ġsniff": 9650,
    "Case": 9651,
    "ĠVoters": 9652,
    "Ġpork": 9653,
    "Ġwhe": 9654,
    "GET": 9655,
    "ĠChes": 9656,
    "ĠOil": 9657,
    "Zero": 9658,
    "Ġmethane": 9659,
    "Ġcombination": 9660,
    "ĠMadrid": 9661,
    "itional": 9662,
    "Ġglass": 9663,
    "ĠLL": 9664,
    "idth": 9665,
    "good": 9666,
    "Ø§ÙĦ": 9667,
    "arma": 9668,
    "Ġhousehold": 9669,
    "stru": 9670,
    "ă": 9671,
    "ika": 9672,
    "Ġcryptocur": 9673,
    "hib": 9674,
    "Ġnights": 9675,
    "Ġartific": 9676,
    "MS": 9677,
    "ĠGree": 9678,
    "isitions": 9679,
    "assuming": 9680,
    "release": 9681,
    "Ġbeautiful": 9682,
    "Ġwashing": 9683,
    "Ġpoisoned": 9684,
    "ĠCant": 9685,
    "Ġ145": 9686,
    "Ġextra": 9687,
    "Ïģ": 9688,
    "Ġphysicists": 9689,
    "Ġrepealed": 9690,
    "Ġpenetrate": 9691,
    "Ġrethink": 9692,
    "ucking": 9693,
    "Ġmovement": 9694,
    "ĠZh": 9695,
    "lington": 9696,
    "ĠInstitutes": 9697,
    "Ġrelentlessly": 9698,
    "ĠPost": 9699,
    "Ġlapt": 9700,
    "ĠMilk": 9701,
    "Ġeven": 9702,
    "Ġclassified": 9703,
    "Ġsupervisor": 9704,
    "ĠFY": 9705,
    "Ġoppose": 9706,
    "flow": 9707,
    "Ġlinem": 9708,
    "Ġattend": 9709,
    "Var": 9710,
    "________________": 9711,
    "91": 9712,
    "lor": 9713,
    "andal": 9714,
    "ĠHonest": 9715,
    "ĠNortheast": 9716,
    "Hand": 9717,
    "follow": 9718,
    "Ġbubble": 9719,
    "Ġmaximize": 9720,
    "oust": 9721,
    "Ġfaint": 9722,
    "induced": 9723,
    "ĠKazakhstan": 9724,
    "angular": 9725,
    "Ġclaimed": 9726,
    "Ġstrengths": 9727,
    "ĠGriffin": 9728,
    "Ġharvesting": 9729,
    "amping": 9730,
    "Ġ120": 9731,
    "ĠThese": 9732,
    "Ġdeficits": 9733,
    "Ġtree": 9734,
    "ĠJuly": 9735,
    "ony": 9736,
    "driven": 9737,
    "OUND": 9738,
    "enn": 9739,
    "ĠRafael": 9740,
    "light": 9741,
    "Beyond": 9742,
    "Ġislands": 9743,
    "Ġmonit": 9744,
    "Ġaffection": 9745,
    "Ġcasually": 9746,
    "ocket": 9747,
    "Ġanything": 9748,
    "iana": 9749,
    "Ġopenings": 9750,
    "Ġcollaboration": 9751,
    "rule": 9752,
    "ĠApple": 9753,
    "of": 9754,
    "usa": 9755,
    "ĠBeing": 9756,
    "Ġshuttle": 9757,
    "show": 9758,
    "ugin": 9759,
    "Ġramifications": 9760,
    "Ġyours": 9761,
    "Ġexpands": 9762,
    "ĠER": 9763,
    "Ġlaunch": 9764,
    "Ġrevis": 9765,
    "Ġsold": 9766,
    "Ġsewage": 9767,
    "emy": 9768,
    "Ġpremiere": 9769,
    "Ġber": 9770,
    "Ġcartoons": 9771,
    "duino": 9772,
    "ain": 9773,
    "Ġcompan": 9774,
    "ĠPure": 9775,
    "ĠZombie": 9776,
    "Ġpressing": 9777,
    "Ġ::": 9778,
    "ĠDays": 9779,
    "Ġaer": 9780,
    "rought": 9781,
    "Ġgraphs": 9782,
    "Ġfolk": 9783,
    "ĠDwight": 9784,
    "âĢĿ:": 9785,
    "Ġdominant": 9786,
    "cond": 9787,
    "ungle": 9788,
    "Ġpersonally": 9789,
    "ade": 9790,
    "Ġcompared": 9791,
    "Ġhyd": 9792,
    "Ġlegislative": 9793,
    "xt": 9794,
    "ĠCha": 9795,
    "ĠUser": 9796,
    "Ġcoordinated": 9797,
    "Ġsmash": 9798,
    "Ġrulings": 9799,
    "Europe": 9800,
    "Ġforever": 9801,
    "Ġ160": 9802,
    "ork": 9803,
    "ĠCup": 9804,
    "Ġdevelops": 9805,
    "Ġequality": 9806,
    "Ġdispl": 9807,
    "Ġfe": 9808,
    "ĠAlex": 9809,
    "ĠBeyon": 9810,
    "Ġenrolled": 9811,
    "Ġconsist": 9812,
    "Ġmyriad": 9813,
    "Ġcontrovers": 9814,
    "ĠTribe": 9815,
    "Ġcasts": 9816,
    "Ġrecalls": 9817,
    "ĠClear": 9818,
    "âĢĿ?": 9819,
    "thought": 9820,
    "ĠNAACP": 9821,
    "Ġsatellite": 9822,
    "Ġecho": 9823,
    "Ġbel": 9824,
    "esty": 9825,
    ">>>>": 9826,
    "gering": 9827,
    "Ġlandslide": 9828,
    "Ġasked": 9829,
    "ĠTsar": 9830,
    "Ġsells": 9831,
    "Ġlengths": 9832,
    "June": 9833,
    "Ġlooked": 9834,
    "Ġpermit": 9835,
    "Ġvendors": 9836,
    "ĠScouts": 9837,
    "ĠKru": 9838,
    "Ġbackpack": 9839,
    "Ġinterpretations": 9840,
    "ĠMalays": 9841,
    "ĠMonster": 9842,
    "Ġsteam": 9843,
    "Ġepit": 9844,
    "aky": 9845,
    "Gall": 9846,
    "rig": 9847,
    "Ġgrammar": 9848,
    "chy": 9849,
    "rb": 9850,
    "Ġsince": 9851,
    "Ġhe": 9852,
    "onen": 9853,
    "Ġquot": 9854,
    "ĠEnd": 9855,
    "Tor": 9856,
    "Ġcornerback": 9857,
    "USE": 9858,
    "mp": 9859,
    "Ġdiscredit": 9860,
    "ANG": 9861,
    "Ġsibling": 9862,
    "arge": 9863,
    "Ġdonations": 9864,
    "Ġpm": 9865,
    "Ġgrades": 9866,
    "Ġmuch": 9867,
    "Ġflown": 9868,
    "Ġmembr": 9869,
    "Ġsuggesting": 9870,
    "ĠMeteor": 9871,
    "ĠJohn": 9872,
    "0001": 9873,
    "Ġholiday": 9874,
    "DA": 9875,
    "Ġ512": 9876,
    "Ġgrocery": 9877,
    "conscious": 9878,
    "Ġgu": 9879,
    "ker": 9880,
    "essential": 9881,
    "Ġmeasure": 9882,
    "Ġshakes": 9883,
    "ĠMagic": 9884,
    "series": 9885,
    "ĠLibya": 9886,
    "Ġletter": 9887,
    "Ġrains": 9888,
    "Ġphotography": 9889,
    "arded": 9890,
[...]
