{
    "Ġlegalized": 0,
    "Method": 1,
    "ĠCuban": 2,
    "Ġbelow": 3,
    "ĠIslamic": 4,
    "iel": 5,
    "Ġsun": 6,
    "ĠTuesday": 7,
    "Ġvisited": 8,
    "ĠExtra": 9,
    "wolves": 10,
    "ĠIndividual": 11,
    "ulled": 12,
    "Ġclust": 13,
    "productive": 14,
    "Ġspokeswoman": 15,
    "68": 16,
    "ĠWayne": 17,
    "Ġorche": 18,
    "Ġcoer": 19,
    "ĠResort": 20,
    "writers": 21,
    "ĠBald": 22,
    "ortunately": 23,
    "Ġtracker": 24,
    "utt": 25,
    "Ġhum": 26,
    "OUT": 27,
    "Ġborrowing": 28,
    "Care": 29,
    "eds": 30,
    "Ġspam": 31,
    "ource": 32,
    "ĠMississ": 33,
    "Ġpriest": 34,
    "Ġspiral": 35,
    "Ġlegally": 36,
    "Ġbets": 37,
    "geries": 38,
    "Ġbelie": 39,
    "Ġcollected": 40,
    "Ġrope": 41,
    "ĠSummary": 42,
    "ĠHungary": 43,
    "Ġmanner": 44,
    "Ġstructural": 45,
    "cow": 46,
    "entin": 47,
    "BR": 48,
    "ĠMcLaren": 49,
    "Ġivory": 50,
    "ertainly": 51,
    "Ġ!": 52,
    "Ġunrelated": 53,
    "Ġnause": 54,
    "ĠLouis": 55,
    "Ġinclined": 56,
    "ĠCapitals": 57,
    "Ġhope": 58,
    "ĠPenguins": 59,
    "Ġharass": 60,
    "Ġserve": 61,
    "!]": 62,
    "âĢ¦âĢ¦âĢ¦âĢ¦": 63,
    "Ġfitted": 64,
    "Ġemp": 65,
    "Ġetc": 66,
    "Land": 67,
    "ardy": 68,
    "ĠVanderbilt": 69,
    "Ġbachelor": 70,
    "Ġhacked": 71,
    "ĠNeal": 72,
    "Ġner": 73,
    "Ġideal": 74,
    "pelled": 75,
    "Hack": 76,
    "usr": 77,
    "ĠNon": 78,
    "pite": 79,
    "95": 80,
    "Ġrespectful": 81,
    "OND": 82,
    "oper": 83,
    "Ġtrip": 84,
    "ĠBox": 85,
    "Ġaffects": 86,
    "ooks": 87,
    "Ġbroader": 88,
    "Ġpredomin": 89,
    "Ġexercise": 90,
    "Ġrecounts": 91,
    "ouched": 92,
    "Ġhousehold": 93,
    "Ġinsert": 94,
    "Ġparan": 95,
    "ord": 96,
    "Ġ1940": 97,
    "Ġshorter": 98,
    "Ġscreens": 99,
    "Ġcollaborated": 100,
    "onest": 101,
    "Ġhears": 102,
    "ĠMyan": 103,
    "Ġgroom": 104,
    "Ġimplications": 105,
    "Ġcave": 106,
    "Ġreminiscent": 107,
    "ĠCavaliers": 108,
    "Ġaffirmative": 109,
    "ournals": 110,
    "iko": 111,
    "bel": 112,
    "ĠBrazilian": 113,
    "Ġinexpl": 114,
    "ĠTehran": 115,
    "Ġlovers": 116,
    "Ġmirror": 117,
    "istically": 118,
    "Ġinsider": 119,
    "ĠCavs": 120,
    "tta": 121,
    "omics": 122,
    "Ġsmaller": 123,
    "ĠGent": 124,
    "xc": 125,
    "Ġsickness": 126,
    "ĠHatch": 127,
    "ĠRefuge": 128,
    "500": 129,
    "ouses": 130,
    "Ġoccurred": 131,
    "Ġcruelty": 132,
    "OB": 133,
    "Ġthreatening": 134,
    "Ġcollaboration": 135,
    "ĠKurt": 136,
    "vest": 137,
    "ĠRomney": 138,
    "mostly": 139,
    "Ġpossibility": 140,
    "Cy": 141,
    "Ġmindful": 142,
    "atural": 143,
    "Vict": 144,
    "Ġenriched": 145,
    "Ġresemb": 146,
    "Ġdrives": 147,
    "itzer": 148,
    "ĠBeir": 149,
    "marked": 150,
    "Ġtumult": 151,
    "AF": 152,
    "ĠCPU": 153,
    "ackers": 154,
    "Ġ1952": 155,
    "comes": 156,
    "ĠWide": 157,
    "Ġvideot": 158,
    "Ġ02": 159,
    "ĠMedium": 160,
    "ipers": 161,
    "Ġrapp": 162,
    "ĠCorpor": 163,
    "enko": 164,
    "ww": 165,
    "ĠCable": 166,
    "alth": 167,
    "Ġcultiv": 168,
    "Ġdefinitely": 169,
    "ĠAmbassador": 170,
    "Ġhesitant": 171,
    "isance": 172,
    "Ġsteadfast": 173,
    "isa": 174,
    "Ġadds": 175,
    "Ġvictory": 176,
    "othy": 177,
    "Ġfundra": 178,
    "Ġmode": 179,
    "partisan": 180,
    "Rev": 181,
    "Ġancient": 182,
    "ĠManning": 183,
    "ĠTimothy": 184,
    "Ġc": 185,
    "Ġupward": 186,
    "Ġorientation": 187,
    "Ġmile": 188,
    "Ġsam": 189,
    "Ġempowered": 190,
    "Ġblaming": 191,
    "head": 192,
    "ĠRogue": 193,
    "Ġmoon": 194,
    "Ġ72": 195,
    "ĠMetropolitan": 196,
    "Ġdrank": 197,
    "Ġtattoo": 198,
    "ĠHills": 199,
    "Ġchemical": 200,
    "ĠRhod": 201,
    "Hub": 202,
    "ĠBell": 203,
    "affe": 204,
    "Ġbloc": 205,
    "ĠSK": 206,
    "raine": 207,
    "Ġfurther": 208,
    "Ġoverseeing": 209,
    "ĠOrb": 210,
    "ky": 211,
    "Ġchildhood": 212,
    "Ġunreliable": 213,
    "Ġtheory": 214,
    "jan": 215,
    "usp": 216,
    "Ġroom": 217,
    "Ġbrigade": 218,
    "CB": 219,
    "Ġabbre": 220,
    "Ġfreelance": 221,
    "not": 222,
    "Ġmalware": 223,
    "Ġpestic": 224,
    "ĠConstant": 225,
    "Ġnode": 226,
    "ĠLad": 227,
    "ĠHarper": 228,
    "Ġbiom": 229,
    "Ġdecreases": 230,
    "Ġceremonies": 231,
    "Ġlargely": 232,
    "ĠEFF": 233,
    "ĠBa": 234,
    "Ġearthquake": 235,
    "ĠRa": 236,
    "ĠSearch": 237,
    "Ġnowadays": 238,
    "Ġein": 239,
    "ĠBaseball": 240,
    "ĠDurant": 241,
    "Ġovercrowd": 242,
    "ĠComics": 243,
    "ĠSimilar": 244,
    "edia": 245,
    "Ġshrink": 246,
    "Ġbarred": 247,
    "iya": 248,
    "ĠRas": 249,
    "ĠHospital": 250,
    "Ġwealthy": 251,
    "Ġbul": 252,
    "Ġlaundry": 253,
    "Ġdeserved": 254,
    "ĠProducts": 255,
    "wed": 256,
    "Ġbrightness": 257,
    "olid": 258,
    "Ġremedies": 259,
    "ĠFull": 260,
    "Ġplasma": 261,
    "ĠAnth": 262,
    "al": 263,
    "Ġsubmar": 264,
    "Ġimmensely": 265,
    "Ġnort": 266,
    "ĠHC": 267,
    "KE": 268,
    "Ġturf": 269,
    "Ġrant": 270,
    "Ġtook": 271,
    "iced": 272,
    "Ġsuddenly": 273,
    "ĠPit": 274,
    "abeth": 275,
    "Ġkeyword": 276,
    "ĠGreenland": 277,
    "Ġbelonging": 278,
    "ĠAfghanistan": 279,
    "Ġpilot": 280,
    "ĠKhal": 281,
    "ĠInsp": 282,
    "Ġtruck": 283,
    "nery": 284,
    "ourt": 285,
    "utory": 286,
    "Ġmeaningful": 287,
    "iv": 288,
    "ĠAshe": 289,
    "ĠOFF": 290,
    "Ġcounties": 291,
    "Ġinstantly": 292,
    "ĠExcell": 293,
    "take": 294,
    "owers": 295,
    "management": 296,
    "Ġfinger": 297,
    "Ġbank": 298,
    "opa": 299,
    "Russian": 300,
    "Ġstops": 301,
    "Ra": 302,
    "Ġunex": 303,
    "Ġrus": 304,
    "osures": 305,
    "raud": 306,
    "mentia": 307,
    "ĠInfinity": 308,
    "ĠSafari": 309,
    "Ġpetition": 310,
    "Ġtheoretically": 311,
    "idious": 312,
    "liber": 313,
    "ĠPharm": 314,
    "Ñĥ": 315,
    "ĠMit": 316,
    "Ġlosers": 317,
    "ĠGitHub": 318,
    "Ġchemicals": 319,
    "Home": 320,
    "angles": 321,
    "Ġprivileged": 322,
    "Ġdelete": 323,
    "ensing": 324,
    "Ġhasn": 325,
    "ĠMeeting": 326,
    "Ġcoast": 327,
    "ĠTest": 328,
    "ordering": 329,
    "xxxx": 330,
    "Ġexterior": 331,
    "ĠHind": 332,
    "sim": 333,
    "Ġdepressing": 334,
    "Ġoccasions": 335,
    "2013": 336,
    "Ġrebels": 337,
    "Ġquarters": 338,
    "Ġnicotine": 339,
    "Ġonwards": 340,
    "iots": 341,
    "Ġcreatures": 342,
    "rovers": 343,
    "rey": 344,
    "ometimes": 345,
    "iry": 346,
    "ording": 347,
    "Ġacoustic": 348,
    "iatric": 349,
    "Ġenormously": 350,
    "Ġdisappointment": 351,
    "taker": 352,
    "ĠOwen": 353,
    "Ġclutch": 354,
    "accept": 355,
    "Ġmeth": 356,
    "109": 357,
    "force": 358,
    "Ġpatrons": 359,
    "erek": 360,
    "Ġwings": 361,
    "ĠSWAT": 362,
    "Ġdele": 363,
    "Ġtheft": 364,
    "Ġpackaged": 365,
    "rik": 366,
    "endez": 367,
    "Ġwandering": 368,
    "ĠTrudeau": 369,
    "ĠEmirates": 370,
    "ĠTS": 371,
    "ĠDe": 372,
    "ĠAgr": 373,
    "Ġindex": 374,
    "irgin": 375,
    "OH": 376,
    "Ġapprehend": 377,
    "ĠFBI": 378,
    "Ġsailed": 379,
    "Ġimpressed": 380,
    "ĠCru": 381,
    "Ġaccommodate": 382,
    "Ġpile": 383,
    "ĠLLC": 384,
    "ĠFusion": 385,
    "ĠLester": 386,
    "Ġnewsp": 387,
    "ĠMacron": 388,
    "ĠDoes": 389,
    "Ġplacement": 390,
    "ĠInside": 391,
    "ammar": 392,
    "ribute": 393,
    "Ġfeeling": 394,
    "Ġdestination": 395,
    "En": 396,
    "Ġgrew": 397,
    "Ġsides": 398,
    "Ġpublishing": 399,
    "Ġhomicides": 400,
    "pub": 401,
    "ĠSnyder": 402,
    "Ġ512": 403,
    "charg": 404,
    "Ġpsychologist": 405,
    "ĠTwitch": 406,
    "Ġflying": 407,
    "Ġstored": 408,
    "ĠÃ¤": 409,
    "seller": 410,
    "actly": 411,
    "Ġ175": 412,
    "Ġdirector": 413,
    "click": 414,
    "...]": 415,
    "Ġrelocated": 416,
    "Ġtrying": 417,
    "ĠAnn": 418,
    "Simon": 419,
    "Ġofficers": 420,
    "ĠAC": 421,
    "ansen": 422,
    "inez": 423,
    "aped": 424,
    "Ġblock": 425,
    "true": 426,
    "Born": 427,
    "ĠLink": 428,
    "ako": 429,
    "analysis": 430,
    "Ġtrailer": 431,
    "mt": 432,
    "ĠBull": 433,
    "Ġretains": 434,
    "ĠBuchanan": 435,
    "sels": 436,
    "Ev": 437,
    "Ġwarr": 438,
    "Williams": 439,
    "Ġincorporating": 440,
    "More": 441,
    "$": 442,
    "Click": 443,
    "scill": 444,
    "afety": 445,
    "ĠHTML": 446,
    "ĠDig": 447,
    "gom": 448,
    "ĠSergio": 449,
    "Ġclue": 450,
    "ĠAbstract": 451,
    "Ġhid": 452,
    "Ġelig": 453,
    "TION": 454,
    "Ġconfidentiality": 455,
    "Ġstomp": 456,
    "ĠBrom": 457,
    "ocks": 458,
    "Ġdisrupt": 459,
    "Exit": 460,
    "Ġallocated": 461,
    "Ġch": 462,
    "Ġpars": 463,
    "Ent": 464,
    "ĠLoad": 465,
    "Ġdemon": 466,
    "ribut": 467,
    "ordinary": 468,
    "Ġrisking": 469,
    "Ġpositives": 470,
    "ty": 471,
    "Ġprestige": 472,
    "Ġradicals": 473,
    "unless": 474,
    "ih": 475,
    "riers": 476,
    "ĠDEA": 477,
    "Ġintolerance": 478,
    "Ġdiscomfort": 479,
    "Ġbeet": 480,
    "Ġsometime": 481,
    "Egypt": 482,
    "Ġassess": 483,
    "Ġpe": 484,
    "Ġchassis": 485,
    "Ġrookie": 486,
    "Ġac": 487,
    "ĠJets": 488,
    "Ġwarmer": 489,
    "inces": 490,
    "ĠSleep": 491,
    "ĠForever": 492,
    "dogs": 493,
    "vere": 494,
    "Ġsust": 495,
    "Ġbat": 496,
    "Ġfant": 497,
    "ĠBrett": 498,
    "ation": 499,
    "Ġfrightening": 500,
    "ĠKon": 501,
    "Ġvetting": 502,
    "raph": 503,
    "ĠShadow": 504,
    "ixt": 505,
    "ĠWorlds": 506,
    "Ġbreached": 507,
    "Ġblessed": 508,
    "Ġparallel": 509,
    "Ġscales": 510,
    "ĠIX": 511,
    "Ġhis": 512,
    "ĠLower": 513,
    "ĠNortheast": 514,
    "umbling": 515,
    "Ġcaves": 516,
    "ĠSioux": 517,
    "Ġshaped": 518,
    "ĠKle": 519,
    "ristol": 520,
    "Which": 521,
    "ĠGandhi": 522,
    "Ġhorizont": 523,
    "Ġvastly": 524,
    "Ġeffective": 525,
    "Ġmigrant": 526,
    "ricia": 527,
    "ĠOri": 528,
    "ĠShakespeare": 529,
    "ĠVoice": 530,
    "Ġflux": 531,
    "ĠEssex": 532,
    "Ġlining": 533,
    "Ġears": 534,
    "Ġhurd": 535,
    "ĠPad": 536,
    "ead": 537,
    "Ġcricket": 538,
    "Ġvector": 539,
    "intage": 540,
    "ĠLevi": 541,
    "Ġecological": 542,
    "ĠStudy": 543,
    "Ġindictment": 544,
    "Ġlack": 545,
    "Ġrot": 546,
    "unicip": 547,
    "Ġgoaltender": 548,
    "R": 549,
    "Ġstates": 550,
    "Ġmemorial": 551,
    "making": 552,
    "ĠAmy": 553,
    "ĠNPC": 554,
    "Ġhapp": 555,
    "Ġsupported": 556,
    "Ġimagining": 557,
    "Ġplease": 558,
    "Ġediting": 559,
    "Ġreassuring": 560,
    "ĠUSB": 561,
    "Å¾": 562,
    "ailable": 563,
    "ĠRonald": 564,
    "Ġdiscuss": 565,
    "Ġmillions": 566,
    "Ġbathrooms": 567,
    "ymph": 568,
    "ĠRaqqa": 569,
    "table": 570,
    "Ġcellular": 571,
    "Ġunemploy": 572,
    "Ġbrink": 573,
    "Hundreds": 574,
    "Ġsilly": 575,
    "Ġunpredictable": 576,
    "ĠVice": 577,
    "kes": 578,
    "49": 579,
    "oice": 580,
    "Regardless": 581,
    "!!": 582,
    "Moore": 583,
    "ĠMarine": 584,
    "ĠDrive": 585,
    "Ġbeaut": 586,
    "flower": 587,
    "Ġre": 588,
    "Ġleaf": 589,
    "Ġhouses": 590,
    "Ġfluct": 591,
    "hol": 592,
    "iversary": 593,
    "ĠJazz": 594,
    "elve": 595,
    "330": 596,
    "ĠiPod": 597,
    "Ġdevastated": 598,
    "Ġmerchant": 599,
    "Ġpeers": 600,
    "Ġ81": 601,
    "Ġintroduction": 602,
    "ĠPradesh": 603,
    "ĠCrash": 604,
    "Ã¼r": 605,
    "iat": 606,
    "Ġaggrav": 607,
    "Ġcopied": 608,
    "inition": 609,
    "Ġregulating": 610,
    "ĠCrow": 611,
    "91": 612,
    "Ġuncertainty": 613,
    "Ġcoincide": 614,
    "ĠBTC": 615,
    "jud": 616,
    "Ġpreparing": 617,
    "ramento": 618,
    "ĠWal": 619,
    "Ġteachers": 620,
    "Ġlest": 621,
    "ĠPubl": 622,
    "Ġdecl": 623,
    "ĠEric": 624,
    "Ġfam": 625,
    "adium": 626,
    "pace": 627,
    "Type": 628,
    "ĠGand": 629,
    "Ġcontradiction": 630,
    "Ġfif": 631,
    "ĠJean": 632,
    "Ġlikewise": 633,
    "ĠPent": 634,
    "ovo": 635,
    "omore": 636,
    "Ġprove": 637,
    "Dem": 638,
    "Ġdream": 639,
    "ĠNCAA": 640,
    "Ġstorytelling": 641,
    "Ġlyn": 642,
    "ĠLah": 643,
    "Ġplastic": 644,
    "Ġcontainer": 645,
    "Ġvinyl": 646,
    "ĠÂ©": 647,
    "Ġsnaps": 648,
    "Ġproposition": 649,
    "Ġjar": 650,
    "Ġskinny": 651,
    "Un": 652,
    "Wh": 653,
    "ISS": 654,
    "Ġancestry": 655,
    "Ħ": 656,
    "Adv": 657,
    "Ġannoy": 658,
    "Ġtemperatures": 659,
    "Ġtraction": 660,
    "ĠWolver": 661,
    "Ġexactly": 662,
    "ĠLimb": 663,
    "???": 664,
    "Ġabnormal": 665,
    "Ġalerts": 666,
    "Ġsixty": 667,
    "Ġprior": 668,
    "Ġnuclear": 669,
    "ANN": 670,
    "Ġkissing": 671,
    "Ġatmospheric": 672,
    "apes": 673,
    "Ġscal": 674,
    "dc": 675,
    "Ġkm": 676,
    "Ġhousing": 677,
    "Ġscenery": 678,
    "ĠWade": 679,
    "Ġpayment": 680,
    "oving": 681,
    "Ġlocking": 682,
    "Ġplain": 683,
    "ĠAlger": 684,
    "Ġabolition": 685,
    "oys": 686,
    "character": 687,
    "uming": 688,
    "Ġfirsthand": 689,
    "Ġconsuming": 690,
    "resa": 691,
    "Ġcompliment": 692,
    "perties": 693,
    "rue": 694,
    "Da": 695,
    "ĠTrack": 696,
    "Ġjoins": 697,
    "Ġenthusiast": 698,
    "Ġgrants": 699,
    "Ġreferee": 700,
    "Starting": 701,
    "åı": 702,
    "Ġcomprises": 703,
    "Ġpreparation": 704,
    "cut": 705,
    "asp": 706,
    "Ġe": 707,
    "ĠRee": 708,
    "ĠCourse": 709,
    "Ġdisagrees": 710,
    "ĠFantasy": 711,
    "Ġenfor": 712,
    "Prov": 713,
    "scenes": 714,
    "Most": 715,
    "usters": 716,
    "Ġlogos": 717,
    "Ġconcluding": 718,
    "ĠVari": 719,
    "ĠParker": 720,
    "Ġvalued": 721,
    "âĹ": 722,
    "ĠProf": 723,
    "ĠMath": 724,
    "ĠEverett": 725,
    "Ġcalls": 726,
    "Ġportfol": 727,
    "Ġglorious": 728,
    "Labour": 729,
    "Ġaward": 730,
    "ĠUbisoft": 731,
    "Ġ\"\"": 732,
    "atism": 733,
    "ĠDistrict": 734,
    "Art": 735,
    "ĠOper": 736,
    "Ġparliament": 737,
    "Ġcont": 738,
    "Data": 739,
    "apped": 740,
    "Ġwarmth": 741,
    "Ġfoes": 742,
    "Ġdistributed": 743,
    "ĠNL": 744,
    "Ã©d": 745,
    "Ġinvestigator": 746,
    "ĠPhilippines": 747,
    "Ġethos": 748,
    "ĠAmerican": 749,
    "Ġdownload": 750,
    "ĠStock": 751,
    "Ġreplace": 752,
    "Ġopinion": 753,
    "ĠWon": 754,
    "Ġprovide": 755,
    "tv": 756,
    "Ġgrams": 757,
    "ĠCisco": 758,
    "Ġcoupled": 759,
    "Ġarcade": 760,
    "Ġsalvage": 761,
    "Ġremotely": 762,
    "Ġherbs": 763,
    "ĠDodd": 764,
    "Ġ360": 765,
    "Ġpolitically": 766,
    "ossier": 767,
    "ĠHezbollah": 768,
    "Ġpain": 769,
    "Ġprompt": 770,
    "Ġdivisions": 771,
    "umper": 772,
    "Ġunstable": 773,
    "ERN": 774,
    "Ġcheap": 775,
    "Ġpromises": 776,
    "Ġofficially": 777,
    "Ġheavyweight": 778,
    "Ġloops": 779,
    "146": 780,
    "ĠStan": 781,
    "Ġfishermen": 782,
    "bered": 783,
    "Ġmetaph": 784,
    "osoph": 785,
    "Ġcastle": 786,
    "ads": 787,
    "nut": 788,
    "ĠDutch": 789,
    "ru": 790,
    "MG": 791,
    "Ġdimension": 792,
    "ĠSmoke": 793,
    "Ġbodies": 794,
    "ĠOlympics": 795,
    "ĠCorey": 796,
    "imedia": 797,
    "die": 798,
    "ĠEra": 799,
    "Ġarche": 800,
    "uda": 801,
    "Ġviral": 802,
    "angel": 803,
    "Ġflat": 804,
    "ĠChocolate": 805,
    "Ġcreature": 806,
    "Ġenjoyed": 807,
    "ĠFischer": 808,
    "Ġ350": 809,
    "ĠKoch": 810,
    "Ġcouple": 811,
    "inst": 812,
    "ĠAlgeria": 813,
    "Change": 814,
    "ocused": 815,
    "Ġauthentic": 816,
    "Gall": 817,
    "ivers": 818,
    "Ġdomestic": 819,
    "ĠUniverse": 820,
    "Ġ126": 821,
    "Ī": 822,
    "ĠBlvd": 823,
    "ĠOR": 824,
    "ĠSpeech": 825,
    "Ġstimulus": 826,
    "Top": 827,
    "Ġdistracted": 828,
    "Ġrestaurant": 829,
    "ĠOntario": 830,
    "actory": 831,
    "ĠAM": 832,
    "addock": 833,
    "ĠProfessor": 834,
    "Someone": 835,
    "agen": 836,
    "bral": 837,
    "ĠHaving": 838,
    "Ġlooking": 839,
    "uscript": 840,
    "gh": 841,
    "ĠAllen": 842,
    "Ġattempt": 843,
    "Ġstap": 844,
    "Ġex": 845,
    "ANG": 846,
    "ĠEdmonton": 847,
    "Ġmarine": 848,
    "Ã¤": 849,
    "ĠAlb": 850,
    "Ġoutrageous": 851,
    "ĠStudios": 852,
    "Ġrehe": 853,
    "Ġfindings": 854,
    "ò": 855,
    "Ġviewpoint": 856,
    "Perhaps": 857,
    "ernand": 858,
    "Ġpension": 859,
    "Ġrecreational": 860,
    "ĠCambodia": 861,
    "Ġheight": 862,
    "Ġcollections": 863,
    "Prop": 864,
    "ĠFloyd": 865,
    "Ġvil": 866,
    "Ġgram": 867,
    "Ġstereotype": 868,
    "\",": 869,
    "Ġalright": 870,
    "Ġevidence": 871,
    "ĠSTAT": 872,
    "arch": 873,
    "son": 874,
    "heim": 875,
    "ö": 876,
    "oty": 877,
    "Ġcomponent": 878,
    "umni": 879,
    "ITION": 880,
    "ĠPony": 881,
    "Ġwelfare": 882,
    "Ġdisruptive": 883,
    "ĠVis": 884,
    "Ġstupid": 885,
    "Austral": 886,
    "ĠArm": 887,
    "Ġbulbs": 888,
    "Ġspin": 889,
    "ĠMedicaid": 890,
    "duino": 891,
    "lamm": 892,
    "ĠI": 893,
    "Ġshops": 894,
    "Ġresolved": 895,
    "Ġseas": 896,
    "ĠShutterstock": 897,
    "kinson": 898,
    "ĠTim": 899,
    "Ġpurposes": 900,
    "Ġdemanding": 901,
    "Ġhusbands": 902,
    "ĠII": 903,
    "]": 904,
    "her": 905,
    "Family": 906,
    "Ind": 907,
    "Ġpoet": 908,
    "Ġ3": 909,
    "Č": 910,
    "ĠLaun": 911,
    "ĠBosnia": 912,
    "Į": 913,
    "Ġstorm": 914,
    "IL": 915,
    "ĠTracy": 916,
    "Ġsurely": 917,
    "lights": 918,
    "ĠRidge": 919,
    "Ġlayoffs": 920,
    "ĠLI": 921,
    "ĠRoger": 922,
    "Cook": 923,
    "Ġapproaching": 924,
    "Ġoutgoing": 925,
    "Ð¾Ð²": 926,
    "Ġsufficiently": 927,
    "ĠKerry": 928,
    "?âĢĻ": 929,
    "Ġprevention": 930,
    "Ġmix": 931,
    "Ġpadd": 932,
    "ĠCharleston": 933,
    "TE": 934,
    "ĠRally": 935,
    "isition": 936,
    "ĠWu": 937,
    "Ġcloset": 938,
    "Ġtorn": 939,
    "Ġadmissions": 940,
    "Ġwilderness": 941,
    "ual": 942,
    "iciaries": 943,
    "Ġambient": 944,
    "ĠNR": 945,
    "ĠLaws": 946,
    "Ġstorage": 947,
    "axies": 948,
    "Ġdisplaying": 949,
    "ram": 950,
    "Ġoutfits": 951,
    "checked": 952,
    "ONE": 953,
    "Ġupstairs": 954,
    "eway": 955,
    "Ġsupers": 956,
    "Ġoutlining": 957,
    "Ġweaponry": 958,
    "ĠBC": 959,
    "Ġtweets": 960,
    "Ġteach": 961,
    "ergy": 962,
    "Ġretro": 963,
    "based": 964,
    "ĠPTSD": 965,
    "such": 966,
    "@@": 967,
    "Ġprospect": 968,
    "vet": 969,
    "plom": 970,
    "thanks": 971,
    "Ġ60": 972,
    "Number": 973,
    "DO": 974,
    "Ġburgers": 975,
    "Ġdiabetes": 976,
    "ĠÅ": 977,
    "ĠRum": 978,
    "Ġindoors": 979,
    "breaks": 980,
    "Ġupdate": 981,
    "Ġ43": 982,
    "Ġmakeshift": 983,
    "Ġslowly": 984,
    "ĠAbove": 985,
    "Ġunderneath": 986,
    "Ġaesthetics": 987,
    "ĠChancellor": 988,
    "Ġinsign": 989,
    "ente": 990,
    "ised": 991,
    "Ġhooked": 992,
    "Senate": 993,
    "Ġcites": 994,
    "Ġpuzzles": 995,
    "Ġbacks": 996,
    "acc": 997,
    "ques": 998,
    "Ġoutsk": 999,
    "lection": 1000,
    "Ġnets": 1001,
    "Ġclimax": 1002,
    "Ġlikelihood": 1003,
    "Ġterms": 1004,
    "Ġcoins": 1005,
    "Ġcrawl": 1006,
    "Ġsaturated": 1007,
    "ĠHoliday": 1008,
    "ĠParadise": 1009,
    "Ġconverted": 1010,
    "Ġprecursor": 1011,
    "Ġhomes": 1012,
    "Ġexclusively": 1013,
    "ĠNorthwestern": 1014,
    "other": 1015,
    "illa": 1016,
    "anti": 1017,
    "aughed": 1018,
    "Ġhard": 1019,
    "ĠCob": 1020,
    "Ġtried": 1021,
    "ĠLakers": 1022,
    "Ġportion": 1023,
    "128": 1024,
    "-$": 1025,
    "Ġbattled": 1026,
    "Ġrumours": 1027,
    "cf": 1028,
    "ĠMcF": 1029,
    "ishment": 1030,
    "Ġokay": 1031,
    "Ġpaint": 1032,
    "small": 1033,
    "Ġblogger": 1034,
    "Ġtowers": 1035,
    "Pierre": 1036,
    "Ġclicking": 1037,
    "ĠRocky": 1038,
    "Ġseaf": 1039,
    "People": 1040,
    "nom": 1041,
    "Ġfate": 1042,
    "ĠRomans": 1043,
    "ĠGW": 1044,
    "Ġ2017": 1045,
    "Ġproc": 1046,
    "Ġtrademark": 1047,
    "âĪĴ": 1048,
    "ĠZionist": 1049,
    "Ġjihad": 1050,
    "minist": 1051,
    "Ġphrases": 1052,
    "ĠMotorola": 1053,
    "olutions": 1054,
    "ichever": 1055,
    "Ġcohes": 1056,
    "ceptions": 1057,
    "Y": 1058,
    "Ġcro": 1059,
    "oldown": 1060,
    "oc": 1061,
    "Speed": 1062,
    "atar": 1063,
    "Pan": 1064,
    "edience": 1065,
    "Ġgru": 1066,
    "2012": 1067,
    "ĸ": 1068,
    "ustom": 1069,
    "lp": 1070,
    "Ġbackgrounds": 1071,
    "nton": 1072,
    "ĠÎ": 1073,
    "Ġpivot": 1074,
    "poor": 1075,
    "((": 1076,
    "innamon": 1077,
    "ĠFreedom": 1078,
    "Ġsupplements": 1079,
    "ĠKO": 1080,
    "ero": 1081,
    "atre": 1082,
    "ĠOdd": 1083,
    "ect": 1084,
    "ĠWP": 1085,
    "Ġtum": 1086,
    "icious": 1087,
    "Ġfog": 1088,
    "amera": 1089,
    "Ġregain": 1090,
    "Ġcrystall": 1091,
    "ĠHogan": 1092,
    "orses": 1093,
    "Ġrob": 1094,
    "ĠDiv": 1095,
    "Ġseparatists": 1096,
    "Ġlasted": 1097,
    "gression": 1098,
    "Ġindependents": 1099,
    "Ġ>>": 1100,
    "eh": 1101,
    "Ġarrivals": 1102,
    "ĠShortly": 1103,
    "ĠInternal": 1104,
    "obar": 1105,
    "Ġdep": 1106,
    "Ġatrocities": 1107,
    "Ġdece": 1108,
    "Ġtaking": 1109,
    "mail": 1110,
    "irc": 1111,
    "íķ": 1112,
    "ĠTL": 1113,
    "Ġafter": 1114,
    "Ġdiscourage": 1115,
    "Ġbra": 1116,
    "ichick": 1117,
    "vous": 1118,
    "Ġpublic": 1119,
    "ĠGTX": 1120,
    "ĠHammond": 1121,
    "ophile": 1122,
    "ades": 1123,
    "rowing": 1124,
    "Ġrecovering": 1125,
    "que": 1126,
    "Mind": 1127,
    "rael": 1128,
    "ĠCamer": 1129,
    "Ġweapon": 1130,
    "ams": 1131,
    "Ġmut": 1132,
    "Ġpent": 1133,
    "\"]": 1134,
    "ello": 1135,
    "Ġcertified": 1136,
    "Ġhyd": 1137,
    "Ġhide": 1138,
    "ĠTexas": 1139,
    "liable": 1140,
    "Ġchecking": 1141,
    "Ġeyeb": 1142,
    "ĠUk": 1143,
    "Ġprag": 1144,
    "aldi": 1145,
    "Ġweb": 1146,
    "Ġsequences": 1147,
    "cience": 1148,
    "Ġharmed": 1149,
    "Ġ2008": 1150,
    "icial": 1151,
    "Ġbreath": 1152,
    "vo": 1153,
    "Ġsupplied": 1154,
    "ructions": 1155,
    "Ġskewed": 1156,
    "================================": 1157,
    "Ġsalvation": 1158,
    "Ġheadset": 1159,
    "Ġportfolio": 1160,
    "Ġvicious": 1161,
    "mares": 1162,
    "ĠWer": 1163,
    "Ġboyfriend": 1164,
    "Ġammunition": 1165,
    "inals": 1166,
    "Ġrequests": 1167,
    "Ġcaught": 1168,
    "utable": 1169,
    "Ġsurgeries": 1170,
    "Ġinterpretation": 1171,
    "Ġporch": 1172,
    "Ġ[âĢ¦]": 1173,
    "ĠOpportunity": 1174,
    "ĠThese": 1175,
    "Ġvisual": 1176,
    "Ġcontinents": 1177,
    "Ġfabulous": 1178,
    "Ġpatriotism": 1179,
    "Ġauthor": 1180,
    "Ġreinforce": 1181,
    "Ġhorr": 1182,
    "Ġelders": 1183,
    "REAK": 1184,
    "Ġdonors": 1185,
    "Ġscrambling": 1186,
    "ĠWas": 1187,
    "ikers": 1188,
    "Ġstringent": 1189,
    "Ġathletic": 1190,
    "ĠBav": 1191,
    "Ġbullet": 1192,
    "olics": 1193,
    "Ġcomponents": 1194,
    "Ġfixtures": 1195,
    "ĠLikewise": 1196,
    "ĠMint": 1197,
    "ĠDHS": 1198,
    "Ġfarm": 1199,
    "Ġsegregation": 1200,
    "Ġclever": 1201,
    "Ġtant": 1202,
    "Ġstaple": 1203,
    "Ġoutweigh": 1204,
    "good": 1205,
    "Ġprospective": 1206,
    "Ġrecy": 1207,
    "given": 1208,
    "itol": 1209,
    "Ġexp": 1210,
    "Ġrejo": 1211,
    "Ġtransplant": 1212,
    "Ġmatch": 1213,
    "Western": 1214,
    "ugby": 1215,
    "mill": 1216,
    "Ġovert": 1217,
    "ICE": 1218,
    "Ġbolster": 1219,
    "a": 1220,
    "Ġkeep": 1221,
    "kers": 1222,
    "ĠPhone": 1223,
    "EE": 1224,
    "ĠLambert": 1225,
    "ĠÐ¿": 1226,
    "ORN": 1227,
    "Ġinhabited": 1228,
    "Battle": 1229,
    "orsi": 1230,
    "ĠTor": 1231,
    "Ġabruptly": 1232,
    "Ġdisbelief": 1233,
    "ĠSeason": 1234,
    "Ġrisky": 1235,
    "ĠKentucky": 1236,
    "Ġcalcul": 1237,
    "ĠOverall": 1238,
    "borne": 1239,
    "contin": 1240,
    "Ġlooming": 1241,
    "Ġinsights": 1242,
    "jack": 1243,
    "lik": 1244,
    "ye": 1245,
    "uten": 1246,
    "Ġremove": 1247,
    "Ġsolution": 1248,
    "Ġposting": 1249,
    "Ġdrastically": 1250,
    "Ġinteger": 1251,
    "Ġprostate": 1252,
    "Ġtends": 1253,
    "Ġ13": 1254,
    "Ġsphere": 1255,
    "Ġadvant": 1256,
    "ĠBush": 1257,
    "Ġfaults": 1258,
    "Ġfour": 1259,
    "ĠLeadership": 1260,
    "13": 1261,
    "Episode": 1262,
    "ĠFo": 1263,
    "maid": 1264,
    "ĠRepublicans": 1265,
    "redit": 1266,
    "Ġposted": 1267,
    "Ġpredec": 1268,
    "Ġcast": 1269,
    "Ġappar": 1270,
    "dri": 1271,
    "Queen": 1272,
    "ÑĢÐ¸": 1273,
    "kh": 1274,
    "bright": 1275,
    "Ġ1": 1276,
    "issance": 1277,
    "Ġsurve": 1278,
    "Ġmidterm": 1279,
    "Ġsuperv": 1280,
    "Ġcar": 1281,
    "Ġgears": 1282,
    "Ġinnocent": 1283,
    "Ste": 1284,
    "enery": 1285,
    "rint": 1286,
    "ience": 1287,
    "ĠSutton": 1288,
    "Ġbleeding": 1289,
    "Ġliberty": 1290,
    "ĠCarn": 1291,
    "Ġaccusations": 1292,
    "Ġindustries": 1293,
    "Ġrelations": 1294,
    "resolution": 1295,
    "ĠCraw": 1296,
    "Ġinvestig": 1297,
    "Ġpreach": 1298,
    "Ġdread": 1299,
    "nik": 1300,
    "Ġdividend": 1301,
    "ĠTh": 1302,
    "Ġrates": 1303,
    "Ġbenefits": 1304,
    "Ġdefenses": 1305,
    "Ġeggs": 1306,
    "Ġrotating": 1307,
    "ĠAdmir": 1308,
    "Ġinstruction": 1309,
    "arrass": 1310,
    "ĠItalian": 1311,
    "ĠAw": 1312,
    "Ġ\"[": 1313,
    "Ġpulse": 1314,
    "quet": 1315,
    "Think": 1316,
    "Stars": 1317,
    "Ġwhere": 1318,
    "zos": 1319,
    "Ġslate": 1320,
    "Islam": 1321,
    "Ġrace": 1322,
    "elected": 1323,
    "Ġintroduce": 1324,
    "idays": 1325,
    "ĠBengal": 1326,
    "Ġsuperst": 1327,
    "ĠSarah": 1328,
    "ĠVeterans": 1329,
    "Ġpoems": 1330,
    "Ġyielded": 1331,
    "Ġpresumed": 1332,
    "Ġanalyst": 1333,
    "Ġopt": 1334,
    "NN": 1335,
    "Ġpromise": 1336,
    "nell": 1337,
    "Ġcooperate": 1338,
    "Ġentrepreneurial": 1339,
    "Ġrealm": 1340,
    "described": 1341,
    "Ġsimpler": 1342,
    "HP": 1343,
    "ĠChristian": 1344,
    "Ġseat": 1345,
    "aghd": 1346,
    "Ġjudges": 1347,
    "Ġlyr": 1348,
    "none": 1349,
    "Ġexpecting": 1350,
    "Ġgle": 1351,
    "Ġdance": 1352,
    "ettes": 1353,
    "Ġpanc": 1354,
    "Inf": 1355,
    "Although": 1356,
    "Ġgreeted": 1357,
    "onds": 1358,
    "ĠEthereum": 1359,
    "Ġmysteries": 1360,
    "Ġclergy": 1361,
    "Ġexperimenting": 1362,
    "ĠChange": 1363,
    "ĠBerlin": 1364,
    "umer": 1365,
    "ĠTransportation": 1366,
    "Ġbetrayed": 1367,
    "Ġfilmed": 1368,
    "Ġsheep": 1369,
    "Ġimplication": 1370,
    "Ġmargin": 1371,
    "Ġsubpo": 1372,
    "Ġhouse": 1373,
    "Ġcatch": 1374,
    "Ġperce": 1375,
    "Ġweaknesses": 1376,
    "cery": 1377,
    "Ġbreed": 1378,
    "keeper": 1379,
    "Ġbroadly": 1380,
    "addafi": 1381,
    "ĠEd": 1382,
    "ĠArchitecture": 1383,
    "ĠPlat": 1384,
    "Ġexclus": 1385,
    "Ġinsufficient": 1386,
    "Script": 1387,
    "Ġpatents": 1388,
    "ĠEcho": 1389,
    "ST": 1390,
    "Ġinconvenience": 1391,
    "icating": 1392,
    "ĠInc": 1393,
    "toos": 1394,
    "ĠBlade": 1395,
    "115": 1396,
    "tic": 1397,
    "Ġuncond": 1398,
    "zer": 1399,
    "ĠCommunity": 1400,
    "Ġsquare": 1401,
    "Ġprofessor": 1402,
    "Ġpitching": 1403,
    "Ġaffair": 1404,
    "Ġpursued": 1405,
    "Ġskeptics": 1406,
    "Ġtry": 1407,
    "Ġdecline": 1408,
    "Download": 1409,
    "neg": 1410,
    "Ġdioxide": 1411,
    "Ġprice": 1412,
    "ĠFinancial": 1413,
    "Ġcoach": 1414,
    "Ġwoes": 1415,
    "power": 1416,
    "Ġenvironmentally": 1417,
    "AST": 1418,
    "Ġunsupported": 1419,
    "ĠLabour": 1420,
    "Ġrenowned": 1421,
    "Ġgates": 1422,
    "ĠEntertainment": 1423,
    "vi": 1424,
    "ĠRi": 1425,
    "Ġwater": 1426,
    "tical": 1427,
    "ĠForce": 1428,
    "«": 1429,
    "Ġbigot": 1430,
    "Ġsorted": 1431,
    "Ġdisturbed": 1432,
    "friend": 1433,
    "Ġfluid": 1434,
    "lda": 1435,
    "plex": 1436,
    "boy": 1437,
    "Ġ80": 1438,
    "ĠShaun": 1439,
    "ß": 1440,
    "Ġbig": 1441,
    "Ġposts": 1442,
    "idation": 1443,
    "Ġelastic": 1444,
    "Ġnarratives": 1445,
    "Ġguided": 1446,
    "Ġpace": 1447,
    "Ġreunited": 1448,
    "ĠSupporters": 1449,
    "Ġbeloved": 1450,
    "Three": 1451,
    "ile": 1452,
    "ĠCompetition": 1453,
    "Fin": 1454,
    "ĠAdelaide": 1455,
    "Value": 1456,
    "Ġ2013": 1457,
    "comp": 1458,
    "ĠIsrael": 1459,
    "itu": 1460,
    "Ġodor": 1461,
    "Sarah": 1462,
    "Ġfull": 1463,
    "ake": 1464,
    "Ġimplementation": 1465,
    "Ġwhales": 1466,
    "Page": 1467,
    "Ġmur": 1468,
    "Ġrenovation": 1469,
    "Ġamusement": 1470,
    "ĠHaiti": 1471,
    "Ġkid": 1472,
    "onia": 1473,
    "ĠLegisl": 1474,
    "oters": 1475,
    "athered": 1476,
    "],\"": 1477,
    "Ġstays": 1478,
    "Ġslapped": 1479,
    "Ġmeans": 1480,
    "Ġcinema": 1481,
    "Ġentr": 1482,
    "ĠTorah": 1483,
    "NS": 1484,
    "oli": 1485,
    "Ġiterations": 1486,
    "ĠOperating": 1487,
    "fortunately": 1488,
    "Ġsprint": 1489,
    "Ġna": 1490,
    "format": 1491,
    "secut": 1492,
    "official": 1493,
    "TC": 1494,
    "actor": 1495,
    "ĠWarren": 1496,
    "Clearly": 1497,
    "Ġgang": 1498,
    "ĠTestament": 1499,
    "Ġprohibit": 1500,
    "interest": 1501,
    "Ġshift": 1502,
    "Ġcommemor": 1503,
    "ĠInd": 1504,
    "wage": 1505,
    "Secretary": 1506,
    "Ġsunshine": 1507,
    "ĠFOR": 1508,
    "int": 1509,
    "Ġslammed": 1510,
    "ĠClient": 1511,
    "Ġabusing": 1512,
    "ĠKi": 1513,
    "ĠStrategy": 1514,
    "Ġunsuccessful": 1515,
    "Ġ1600": 1516,
    "ĠScientists": 1517,
    "attle": 1518,
    "Ġfug": 1519,
    "bell": 1520,
    "xual": 1521,
    "spe": 1522,
    "Sty": 1523,
    "hydro": 1524,
    "ĠCharacter": 1525,
    "Ġmeddling": 1526,
    "aily": 1527,
    "Ġbetween": 1528,
    "Ġtrop": 1529,
    "erman": 1530,
    "ĠGrande": 1531,
    "Ġuploaded": 1532,
    "Ġcontinuously": 1533,
    "Ġdiscont": 1534,
    "ĠDoc": 1535,
    "ĠVote": 1536,
    "155": 1537,
    "Ġsixteen": 1538,
    "onies": 1539,
    "ĠInspector": 1540,
    "orig": 1541,
    "Ġoverride": 1542,
    "Ġpersonality": 1543,
    "Ġdespair": 1544,
    "Ġqueue": 1545,
    "abul": 1546,
    "ude": 1547,
    "ĠBundy": 1548,
    "Ġeast": 1549,
    "Ġcompat": 1550,
    "Ġcuts": 1551,
    "Ġfirms": 1552,
    "Ġanalysed": 1553,
    "Ġmembrane": 1554,
    "Ġmechan": 1555,
    "azar": 1556,
    "ADVERTIS": 1557,
    "Ġrecess": 1558,
    "Ġ(\"": 1559,
    "ÃĤ": 1560,
    "Ġnational": 1561,
    "ĠMarket": 1562,
    "ĠCanter": 1563,
    "Ġfracture": 1564,
    "uant": 1565,
    "Ġcigar": 1566,
    "Ġaw": 1567,
    "Ġstaffing": 1568,
    "Ġfeds": 1569,
    "isly": 1570,
    "ĠFlood": 1571,
    "Ġfacilitated": 1572,
    "ĠFlorida": 1573,
    "Ġincred": 1574,
    "ĠByrne": 1575,
    "ĠErnest": 1576,
    "ahan": 1577,
    "ORY": 1578,
    "comment": 1579,
    "Ġonslaught": 1580,
    "Ġcorrelation": 1581,
    "Ġdifferences": 1582,
    "Additional": 1583,
    "ĠAffairs": 1584,
    "Ted": 1585,
    "bable": 1586,
    "Ġoverth": 1587,
    "Ġdressing": 1588,
    "Ġactivation": 1589,
    "ĠProsecutor": 1590,
    "Own": 1591,
    "Ġorganize": 1592,
    "Ġnood": 1593,
    "hew": 1594,
    "Ġblockbuster": 1595,
    "Ġcolumn": 1596,
    "ĠIranian": 1597,
    "Ġaddressed": 1598,
    "Ġmalt": 1599,
    "Ġburned": 1600,
    "ĠSix": 1601,
    "Ġcream": 1602,
    "Ġsocieties": 1603,
    "shake": 1604,
    "ĠEffect": 1605,
    "hel": 1606,
    "herent": 1607,
    "Ġmulti": 1608,
    "NL": 1609,
    "ĠSoviets": 1610,
    "poll": 1611,
    "ĠArg": 1612,
    "rav": 1613,
    "Ġreceiving": 1614,
    "ĠFont": 1615,
    "Ġbatter": 1616,
    "Ġlongest": 1617,
    "ĠPoly": 1618,
    "ĠBranch": 1619,
    "izzard": 1620,
    "ping": 1621,
    "Ġum": 1622,
    "Ġcounterparts": 1623,
    "Background": 1624,
    "Ġkilometres": 1625,
    "###": 1626,
    "Ġgut": 1627,
    "Ġstudent": 1628,
    "Ġmy": 1629,
    "Ġprevalence": 1630,
    "vic": 1631,
    "Ġon": 1632,
    "ilarly": 1633,
    "uctions": 1634,
    "icide": 1635,
    "onding": 1636,
    "Ġinternal": 1637,
    "iliary": 1638,
    "aun": 1639,
    "ĠFurther": 1640,
    "Ġroads": 1641,
    "Ġ1945": 1642,
    "Ġincl": 1643,
    "ongo": 1644,
    "Ġutil": 1645,
    "40": 1646,
    "ona": 1647,
    "ĠFalk": 1648,
    "Ġoccasional": 1649,
    "Ġcontinuity": 1650,
    "ĠHispanic": 1651,
    "Ġimpart": 1652,
    "system": 1653,
    "pan": 1654,
    "She": 1655,
    "Ġturn": 1656,
    "ĠSouthwest": 1657,
    "istance": 1658,
    "Ġreviews": 1659,
    "Ġlightly": 1660,
    "fore": 1661,
    "Ġremind": 1662,
    "kefeller": 1663,
    "ACK": 1664,
    "ĠAlbert": 1665,
    "ĠGriff": 1666,
    "ieves": 1667,
    "Ġdecreasing": 1668,
    "without": 1669,
    "Ġsurreal": 1670,
    "Tony": 1671,
    "76": 1672,
    "ĠPan": 1673,
    "bles": 1674,
    "again": 1675,
    "Ġnude": 1676,
    "14": 1677,
    "Ġlinking": 1678,
    "Ġexperiencing": 1679,
    "ples": 1680,
    "Ġgall": 1681,
    "Ġdoctors": 1682,
    "2007": 1683,
    "Ġprinter": 1684,
    "Ġparadise": 1685,
    "Ġdigitally": 1686,
    "chers": 1687,
    "YD": 1688,
    "My": 1689,
    "Half": 1690,
    "fight": 1691,
    "ĠGins": 1692,
    "Mur": 1693,
    "ĠRegional": 1694,
    "Ġinjection": 1695,
    "Ġmar": 1696,
    "Ġgh": 1697,
    "Ġchore": 1698,
    "appro": 1699,
    "Ġfranchises": 1700,
    "ĠJudge": 1701,
    "Ġirrit": 1702,
    "ults": 1703,
    "Ġwake": 1704,
    "ERC": 1705,
    "Ġconsequence": 1706,
    "param": 1707,
    "Prince": 1708,
    "active": 1709,
    "Bon": 1710,
    "ĠSlav": 1711,
    "Ġplots": 1712,
    "Ġresume": 1713,
    "ĠModern": 1714,
    "ĠTian": 1715,
    "Ġpromot": 1716,
    "ĠAut": 1717,
    "ols": 1718,
    "ĠMis": 1719,
    "ago": 1720,
    "ĠRX": 1721,
    "Status": 1722,
    "Ġtipped": 1723,
    "Ġimplement": 1724,
    "|": 1725,
    "Ġbother": 1726,
    "since": 1727,
    "Ġdouble": 1728,
    "ĠBehavior": 1729,
    "Ġpositive": 1730,
    "Sk": 1731,
    "keeping": 1732,
    "ĠDH": 1733,
    "ĠCanon": 1734,
    "OME": 1735,
    "cision": 1736,
    "Ġarchitecture": 1737,
    "Ġunhappy": 1738,
    "Ġracing": 1739,
    "pound": 1740,
    "ECD": 1741,
    "Ġstage": 1742,
    "Ġdaunting": 1743,
    "ĠCarson": 1744,
    "ĠConstruction": 1745,
    "Ġcred": 1746,
    "ĠAndre": 1747,
    "ĠSounds": 1748,
    "Ġbog": 1749,
    "ĠThing": 1750,
    "ĠMW": 1751,
    "ĠSomali": 1752,
    "ĠRecession": 1753,
    "ĠAthens": 1754,
    "ĠSnap": 1755,
    "Ġmounting": 1756,
    "Ġparamed": 1757,
    "ĠWWII": 1758,
    "oples": 1759,
    "arel": 1760,
    "Ġcav": 1761,
    "Ġmanaged": 1762,
    "Ġ56": 1763,
    "pp": 1764,
    "Ġexposed": 1765,
    "Ġwagon": 1766,
    "Ġsituation": 1767,
    "Ġru": 1768,
    "EST": 1769,
    "Ġsparked": 1770,
    "uth": 1771,
    "bing": 1772,
    "Ġcontested": 1773,
    "Ġmonthly": 1774,
    "ogene": 1775,
    "Ġouts": 1776,
    "ocrat": 1777,
    "Ġ124": 1778,
    "ĠGPS": 1779,
    "đ": 1780,
    "Ġhed": 1781,
    "odore": 1782,
    "ĠÏ": 1783,
    "with": 1784,
    "Ġrelates": 1785,
    "never": 1786,
    "Ġunemployed": 1787,
    "illing": 1788,
    "fin": 1789,
    "oral": 1790,
    "Ġassembled": 1791,
    "ĠMt": 1792,
    "Ġbadge": 1793,
    "Ġoptimal": 1794,
    "ĠBolton": 1795,
    "Ġeventual": 1796,
    "ĠPhilosophy": 1797,
    "Ġtapped": 1798,
    "files": 1799,
    "ĠMann": 1800,
    "ĠTay": 1801,
    "Ġgive": 1802,
    "orie": 1803,
    "Ġsustainable": 1804,
    "Ġorganizational": 1805,
    "ĠGrimm": 1806,
    "ĠMusk": 1807,
    "tw": 1808,
    "Ġ(#": 1809,
    "Ġbursts": 1810,
    "ĠAfgh": 1811,
    "Ġpos": 1812,
    "Ġreminding": 1813,
    "ĠFantastic": 1814,
    "Ġrid": 1815,
    "MI": 1816,
    "ĠCand": 1817,
    "Ġfeud": 1818,
    "AR": 1819,
    "Ġorigin": 1820,
    "owitz": 1821,
    "Ġassault": 1822,
    "iah": 1823,
    "gomery": 1824,
    "query": 1825,
    "olved": 1826,
    "Â¢": 1827,
    "git": 1828,
    "ĠNit": 1829,
    "Ġprin": 1830,
    "HO": 1831,
    "Ġdiscovery": 1832,
    "Ġfrequently": 1833,
    "Ġgolf": 1834,
    "Ġpersecuted": 1835,
    "ĠSor": 1836,
    "Ġsubsequ": 1837,
    "ĠHole": 1838,
    "PDATE": 1839,
    "202": 1840,
    "waves": 1841,
    "ĠFreud": 1842,
    "Ġunderwear": 1843,
    "amps": 1844,
    "Ġphases": 1845,
    "Donald": 1846,
    "ĠWaters": 1847,
    "Ġtorrent": 1848,
    "ĠFury": 1849,
    "ORS": 1850,
    "Ġconfinement": 1851,
    "Ġshout": 1852,
    "Ġsoccer": 1853,
    "strom": 1854,
    "ĠValley": 1855,
    "Ġranges": 1856,
    "Ġtou": 1857,
    "Ġwrist": 1858,
    "ĠAnton": 1859,
    "k": 1860,
    "Ġbreeding": 1861,
    "uta": 1862,
    "ĠGrad": 1863,
    "ĠCOM": 1864,
    "03": 1865,
    "Chief": 1866,
    "ĠEs": 1867,
    "Ġmerits": 1868,
    "PP": 1869,
    "ocalypse": 1870,
    "Ġacknow": 1871,
    "shaped": 1872,
    "Ġpleasant": 1873,
    "ĠStew": 1874,
    "Move": 1875,
    "stasy": 1876,
    "ĠTeams": 1877,
    "Ġsupervision": 1878,
    "Ġartistic": 1879,
    "Ġinvasive": 1880,
    "Ġdecorated": 1881,
    "etus": 1882,
    "inth": 1883,
    "Coll": 1884,
    "oody": 1885,
    "ote": 1886,
    "Ġtradition": 1887,
    "ĠGlass": 1888,
    "Ġthreat": 1889,
    "Ġscholars": 1890,
    "orrow": 1891,
    "ĠWeapon": 1892,
    "Ġnegotiated": 1893,
    "Ġpresumptive": 1894,
    "Ġinjury": 1895,
    "ĠProcess": 1896,
    "ogenous": 1897,
    "ĠMichel": 1898,
    "Ġstudios": 1899,
    "âĢ¢": 1900,
    "Ġrehabilitation": 1901,
    "ascus": 1902,
    "hani": 1903,
    "grade": 1904,
    "Ġcop": 1905,
    "Ġcops": 1906,
    "Ġmandatory": 1907,
    "ambled": 1908,
    "Ġconstructor": 1909,
    "Ġacting": 1910,
    "Ġdrunk": 1911,
    "rug": 1912,
    "andom": 1913,
    "eal": 1914,
    "ĠSalman": 1915,
    "ĠYet": 1916,
    "ocations": 1917,
    "Ġsurpass": 1918,
    "Ġheritage": 1919,
    "Ġpassages": 1920,
    "Ġmotorists": 1921,
    "Ġreluctance": 1922,
    "ments": 1923,
    "ĠPain": 1924,
    "aukee": 1925,
    "Ġdinosaurs": 1926,
    "Ġlos": 1927,
    "Ġtechnically": 1928,
    "agne": 1929,
    "Wind": 1930,
    "co": 1931,
    "Ġviewed": 1932,
    "Pa": 1933,
    "Ġmodify": 1934,
    "Ġappearing": 1935,
    "isp": 1936,
    "Ġlobbyist": 1937,
    "isode": 1938,
    "Ġdisappearance": 1939,
    "dir": 1940,
    "include": 1941,
    "Ġpsych": 1942,
    "Ġlawn": 1943,
    "Ġserving": 1944,
    "Ġfired": 1945,
    "';": 1946,
    "Mod": 1947,
    "client": 1948,
    "Ġless": 1949,
    "~": 1950,
    "umbai": 1951,
    "online": 1952,
    "ĠDec": 1953,
    "usions": 1954,
    "ĠBel": 1955,
    "ulators": 1956,
    "Ġpetty": 1957,
    "ĠDarwin": 1958,
    "ĠMorm": 1959,
    "ĠFreder": 1960,
    "Brown": 1961,
    "Ġposture": 1962,
    "ĠEve": 1963,
    "Ġtossed": 1964,
    "ĠGarc": 1965,
    "ĠKoreans": 1966,
    "German": 1967,
    "Ġvictim": 1968,
    "aturing": 1969,
    "Ġcolored": 1970,
    "Ġsucc": 1971,
    "ĠFranklin": 1972,
    "Ġputting": 1973,
    "Ve": 1974,
    "ilion": 1975,
    "ropri": 1976,
    "ĠCommun": 1977,
    "ribe": 1978,
    "ĠTraff": 1979,
    "ĠCreation": 1980,
    "LINE": 1981,
    "isms": 1982,
    "ĠAndreas": 1983,
    "Ġfleeing": 1984,
    "height": 1985,
    "Ġessay": 1986,
    "ĠWebsite": 1987,
    "ĠSHA": 1988,
    "Ġleap": 1989,
    "Ġbabies": 1990,
    "ĠSyria": 1991,
    "Ġimmunity": 1992,
    "iam": 1993,
    "atorium": 1994,
    "Ġprud": 1995,
    "ugin": 1996,
    "Ġscient": 1997,
    "bart": 1998,
    "Ġgrass": 1999,
    "ĠLinks": 2000,
    "Ġmarker": 2001,
    "cd": 2002,
    "ished": 2003,
    "buquerque": 2004,
    "ĠHi": 2005,
    "Ġmis": 2006,
    "ĠSilk": 2007,
    "Ġpreaching": 2008,
    "ĠBarr": 2009,
    "oca": 2010,
    "istas": 2011,
    "Ġmultitude": 2012,
    "Ġbre": 2013,
    "Ġ93": 2014,
    "Ġcholesterol": 2015,
    "Ġmaking": 2016,
    ":\\": 2017,
    "ĠSher": 2018,
    "ĠGalaxy": 2019,
    "Ult": 2020,
    "Ġagency": 2021,
    "Ġacademy": 2022,
    "Ġfuels": 2023,
    "ĠMoz": 2024,
    "inations": 2025,
    "Ġtrap": 2026,
    "Ġscrub": 2027,
    "Ġdirty": 2028,
    "ĠImages": 2029,
    "Ġbrewing": 2030,
    "Ġtranslating": 2031,
    "estine": 2032,
    "Join": 2033,
    "âĸĪâĸĪâĸĪâĸĪ": 2034,
    "ĠBang": 2035,
    "mond": 2036,
    "ĠSpeaker": 2037,
    "yard": 2038,
    "Ġnodd": 2039,
    "ĠCount": 2040,
    "tab": 2041,
    "Ġfound": 2042,
    "Ġprostitutes": 2043,
    "ÂĴ": 2044,
    "Ġknowing": 2045,
    "Ġdairy": 2046,
    "selves": 2047,
    "ĠCode": 2048,
    "intelligence": 2049,
    "ĠJennings": 2050,
    "field": 2051,
    "Ġsubmission": 2052,
    "Ġneedle": 2053,
    "Hopefully": 2054,
    "lia": 2055,
    "Hist": 2056,
    "Ġrefuse": 2057,
    "ĠFREE": 2058,
    "WC": 2059,
    "Ġthou": 2060,
    "Ġviolates": 2061,
    "Ġ49": 2062,
    "Ġcartels": 2063,
    "Ġguarantees": 2064,
    "Ġweight": 2065,
    "ĠDesigner": 2066,
    "ĠSeth": 2067,
    "Frank": 2068,
    "liest": 2069,
    "Link": 2070,
    "Ġplayful": 2071,
    "Ġweekly": 2072,
    "Ġdwind": 2073,
    "ĠDiaz": 2074,
    "Ġdam": 2075,
    "<": 2076,
    "Ġbo": 2077,
    "Ġaltar": 2078,
    "Ġdisagree": 2079,
    "ĠHannah": 2080,
    "Ġglasses": 2081,
    "Ġdelays": 2082,
    "Ġbeh": 2083,
    "Ġmaximum": 2084,
    "ryption": 2085,
    "ĠProgram": 2086,
    "ĠÂ£": 2087,
    "Ġinnings": 2088,
    "Ġdiagnostic": 2089,
    "abinet": 2090,
    "ateral": 2091,
    "Ġresear": 2092,
    "Ġcontraception": 2093,
    "Ġfridge": 2094,
    "cher": 2095,
    "ĠInstead": 2096,
    "Ġtribute": 2097,
    "Ġmicrobi": 2098,
    "Ġsav": 2099,
    "Ġcareg": 2100,
    "Ġposed": 2101,
    "Ġ1953": 2102,
    "carbon": 2103,
    "Ġstarts": 2104,
    "ĠClear": 2105,
    "ĠCRE": 2106,
    "ĠNicole": 2107,
    "uled": 2108,
    "Ġpresentations": 2109,
    "Ġinstru": 2110,
    "Ġvoy": 2111,
    "ĠJefferson": 2112,
    "aria": 2113,
    "Ġbehaviour": 2114,
    "ĠOrange": 2115,
    "utes": 2116,
    "Ġtestified": 2117,
    "aker": 2118,
    "indust": 2119,
    "Details": 2120,
    "escope": 2121,
    "eat": 2122,
    "Ben": 2123,
    "ĠKill": 2124,
    "ĠMechan": 2125,
    "phot": 2126,
    "Ġreceptor": 2127,
    "inally": 2128,
    "Ġtested": 2129,
    "Ġrefined": 2130,
    "gard": 2131,
    "Ġshirt": 2132,
    "ild": 2133,
    "ĠLog": 2134,
    "Ġconsiders": 2135,
    "ĠShip": 2136,
    "ĠPerry": 2137,
    "Ġjumped": 2138,
    "Ġindoor": 2139,
    "ĠSherlock": 2140,
    "119": 2141,
    "Ġseparation": 2142,
    "aired": 2143,
    "Rob": 2144,
    "Ġhacker": 2145,
    "Ġthunder": 2146,
    "ĠAirbnb": 2147,
    "Ġtakeover": 2148,
    "Ġdeserving": 2149,
    "bor": 2150,
    "ĠCaval": 2151,
    "Ġcontradictions": 2152,
    "Ġmoons": 2153,
    "ĠPokÃ©mon": 2154,
    "riched": 2155,
    "aed": 2156,
    "ĠComplete": 2157,
    "Ġunrest": 2158,
    "Ġluxury": 2159,
    "Ġmotivation": 2160,
    "entials": 2161,
    "Ġenlarge": 2162,
    "Ġpuck": 2163,
    "Ġinflu": 2164,
    "Ġaugmented": 2165,
    "andon": 2166,
    "Ġpractical": 2167,
    "ĠSoft": 2168,
    "Ġfavourite": 2169,
    "Ġ(Â£": 2170,
    "iversity": 2171,
    "Cap": 2172,
    "oner": 2173,
    "Ġlegalize": 2174,
    "lement": 2175,
    "Ġultimately": 2176,
    "atories": 2177,
    "ĠTrust": 2178,
    "From": 2179,
    "Ġorganised": 2180,
    "Ġlitigation": 2181,
    "1992": 2182,
    "Ġreach": 2183,
    "ĠTall": 2184,
    "umbered": 2185,
    "Ġ***": 2186,
    "Ġsons": 2187,
    "ĠTang": 2188,
    "ller": 2189,
    "venant": 2190,
    "cars": 2191,
    "Ġundocumented": 2192,
    "illon": 2193,
    "ĠSporting": 2194,
    "Ġinvoke": 2195,
    "icz": 2196,
    "Ġhandy": 2197,
    "Ġcitizenship": 2198,
    "Ùİ": 2199,
    "Ġmicrobes": 2200,
    "induced": 2201,
    "ĠFac": 2202,
    "Ġrational": 2203,
    "Ġexceed": 2204,
    "Ġwield": 2205,
    "ze": 2206,
    "ĠDream": 2207,
    "Fix": 2208,
    "Ġcells": 2209,
    "ĠIg": 2210,
    "Ġcapability": 2211,
    "Ġassign": 2212,
    "Ġprosecut": 2213,
    "58": 2214,
    "Ġdemocrat": 2215,
    "ĠFang": 2216,
    "ĠPlayStation": 2217,
    "Ġpodium": 2218,
    "ĠDatabase": 2219,
    "Ġimmoral": 2220,
    "ĠMotion": 2221,
    "Frame": 2222,
    "Ġresponding": 2223,
    "Ġglowing": 2224,
    "Ġbike": 2225,
    "ĠSpider": 2226,
    "mes": 2227,
    "Ġlogo": 2228,
    "ĠVisual": 2229,
    "Ġboycott": 2230,
    "ĠAHL": 2231,
    "ĠFortune": 2232,
    "Ġarmed": 2233,
    "bra": 2234,
    "ĠHope": 2235,
    "urity": 2236,
    "Ġneglect": 2237,
    "Ġbenign": 2238,
    "levard": 2239,
    "ĠWorth": 2240,
    "Radio": 2241,
    "Ġ@": 2242,
    "Ġ.": 2243,
    "Â®": 2244,
    "ĠPh": 2245,
    "Ġtreats": 2246,
    "iche": 2247,
    "Ġthirteen": 2248,
    "Ġconditioned": 2249,
    "Ġassertions": 2250,
    "ains": 2251,
    "Ġrespects": 2252,
    "ital": 2253,
    "assuming": 2254,
    "Ġflooded": 2255,
    "Ġshop": 2256,
    "Ġwives": 2257,
    "ĠArlington": 2258,
    "urance": 2259,
    "Ġfreedoms": 2260,
    "Ġincon": 2261,
    "Lim": 2262,
    "ĠPutin": 2263,
    "oco": 2264,
    "Ġloosely": 2265,
    "Ġinex": 2266,
    "ĠFlag": 2267,
    "Ġforbidden": 2268,
    "Ġvolley": 2269,
    "Ġfragments": 2270,
    "Ġremoval": 2271,
    "ĠTX": 2272,
    "Ġhovering": 2273,
    "Ġheadquarters": 2274,
    "Ġsprawling": 2275,
    "Ġwonders": 2276,
    "ĠRosa": 2277,
    "Ġstrongly": 2278,
    "Ġreference": 2279,
    "osaurs": 2280,
    "Ġtalks": 2281,
    "umb": 2282,
    "ĠVirgin": 2283,
    "gel": 2284,
    "istry": 2285,
    "Ġovertime": 2286,
    "¹": 2287,
    "Ġmedicine": 2288,
    "kel": 2289,
    "igion": 2290,
    "Man": 2291,
    "Ġunle": 2292,
    "style": 2293,
    "Ġlex": 2294,
    "Ġannoun": 2295,
    "touch": 2296,
    "Ġepisode": 2297,
    "giving": 2298,
    "Ġcontributes": 2299,
    "atern": 2300,
    "isations": 2301,
    "Ġaggress": 2302,
    "Ġdisruption": 2303,
    "Advertisement": 2304,
    "ĠPsychology": 2305,
    "Ġhunter": 2306,
    "ĠNag": 2307,
    "ĠTas": 2308,
    "ĠCream": 2309,
    "Ġnov": 2310,
    "organized": 2311,
    "ĠLie": 2312,
    "utch": 2313,
    "Inter": 2314,
    "Ġplanted": 2315,
    "olt": 2316,
    "portion": 2317,
    "Ġparticle": 2318,
    "ansas": 2319,
    "Ġamend": 2320,
    "Ġhaul": 2321,
    "otherapy": 2322,
    "],": 2323,
    "Ġ21": 2324,
    "ĠWould": 2325,
    "ĠNord": 2326,
    "elsen": 2327,
    "Ġstat": 2328,
    "Ġnoisy": 2329,
    "link": 2330,
    "Ġround": 2331,
    "Ġeval": 2332,
    "ĠSub": 2333,
    "ĠAustrian": 2334,
    "erald": 2335,
    "ĠCO": 2336,
    "ĠPrest": 2337,
    "ĠPod": 2338,
    "Ġhashtag": 2339,
    "Ho": 2340,
    "ysc": 2341,
    "idis": 2342,
    "Ġphysicists": 2343,
    "ulous": 2344,
    "ĠFE": 2345,
    "Ġrepaired": 2346,
    "(\"": 2347,
    "oggle": 2348,
    "Ã§": 2349,
    "Ġchefs": 2350,
    "Ġcontractor": 2351,
    "ĠSev": 2352,
    "Max": 2353,
    "ĠArmenia": 2354,
    "Ġinfinite": 2355,
    "growing": 2356,
    "ĠVive": 2357,
    "ĠTrade": 2358,
    "Ġspeculative": 2359,
    "Going": 2360,
    "rÃ©": 2361,
    "Ġconglomer": 2362,
    "Ġindicted": 2363,
    "justice": 2364,
    "Ġadul": 2365,
    "9": 2366,
    "rational": 2367,
    "ĠNept": 2368,
    "Kh": 2369,
    "ĠComic": 2370,
    "umped": 2371,
    "riel": 2372,
    "Ġduel": 2373,
    "tails": 2374,
    "ides": 2375,
    "ĠBaker": 2376,
    "Ġappliances": 2377,
    "Ġobviously": 2378,
    "Ġparadigm": 2379,
    "ĠCanad": 2380,
    "ĠAlexander": 2381,
    "Ġmotives": 2382,
    "Ġowning": 2383,
    "Australian": 2384,
    "span": 2385,
    "ĠCorner": 2386,
    "oby": 2387,
    "South": 2388,
    "Ġriots": 2389,
    "Ġmarrying": 2390,
    "arest": 2391,
    "erals": 2392,
    "Ġviol": 2393,
    "ĠAntonio": 2394,
    "ĠEgg": 2395,
    "Ġalgorithms": 2396,
    "ĠAU": 2397,
    "ĠPink": 2398,
    "cutting": 2399,
    "ĠFinal": 2400,
    "ulty": 2401,
    "Ġantibiot": 2402,
    "ĠAnim": 2403,
    "ĠConsumer": 2404,
    "zes": 2405,
    "Super": 2406,
    "ĠSimilarly": 2407,
    "iami": 2408,
    "Ġthereof": 2409,
    "ĠGOODMAN": 2410,
    "Ġmm": 2411,
    "âĢĻ)": 2412,
    "Ġfavour": 2413,
    "Doc": 2414,
    "ĠIPv": 2415,
    "ĠMaya": 2416,
    "Ġinfluenced": 2417,
    "Ġprolet": 2418,
    "Ġmortality": 2419,
    "Ġmocked": 2420,
    "Ġquantify": 2421,
    "thinkable": 2422,
    "direct": 2423,
    "Ġupside": 2424,
    "ĠPhoenix": 2425,
    "Ġbet": 2426,
    "Ġnil": 2427,
    "Ġengulf": 2428,
    "rim": 2429,
    "Ġliv": 2430,
    "Ġmeter": 2431,
    "Ġlecture": 2432,
    "Ġsavvy": 2433,
    "Ġinterpreter": 2434,
    "Ġnoble": 2435,
    "ĠHodg": 2436,
    "Ġinterviewed": 2437,
    "ĠBased": 2438,
    "Ġ39": 2439,
    "Ġdrove": 2440,
    "Ġrepression": 2441,
    "ĠProfile": 2442,
    "ĠCeltic": 2443,
    "Ġverte": 2444,
    "Ġinforms": 2445,
    "usalem": 2446,
    "ĠUnderstanding": 2447,
    "Ġdisappro": 2448,
    "Ġ--": 2449,
    "intendent": 2450,
    "ĠCITY": 2451,
    "ĠGal": 2452,
    "Ġoften": 2453,
    "Ġdriver": 2454,
    "ĠHirosh": 2455,
    "Ġlargest": 2456,
    "ĠMal": 2457,
    "found": 2458,
    "black": 2459,
    "Black": 2460,
    "ancial": 2461,
    "ascript": 2462,
    "ali": 2463,
    "atts": 2464,
    "];": 2465,
    "ĠInfantry": 2466,
    "performing": 2467,
    "ĠAAP": 2468,
    "ĠDelhi": 2469,
    "Ġterrit": 2470,
    "ĠAbbott": 2471,
    "Ġyield": 2472,
    "Ġproblems": 2473,
    "pared": 2474,
    "ĠMort": 2475,
    "ĠBent": 2476,
    "ĠDor": 2477,
    "Ġxen": 2478,
    "ĠGael": 2479,
    "Ġtenants": 2480,
    "Ġmean": 2481,
    "riv": 2482,
    "Ġprotest": 2483,
    "ĠBradford": 2484,
    "Ġeasily": 2485,
    "ĠHair": 2486,
    "Ġchick": 2487,
    "Ġreform": 2488,
    "ĠCaption": 2489,
    "Ġpolitics": 2490,
    "ĠStreet": 2491,
    "har": 2492,
    "crime": 2493,
    "Ġgold": 2494,
    "ĠISO": 2495,
    "Ġinfantry": 2496,
    "ar": 2497,
    "Ġbare": 2498,
    "Ġfres": 2499,
    "quez": 2500,
    "Ġcompar": 2501,
    "Ġ09": 2502,
    "certain": 2503,
    "Ġprofessors": 2504,
    "oph": 2505,
    "Ã¥": 2506,
    "ĠMonument": 2507,
    "ĠZion": 2508,
    "Ġrays": 2509,
    "ÃĥÃĤÃĥÃĤÃĥÃĤÃĥÃĤ": 2510,
    "allow": 2511,
    "Ġalcohol": 2512,
    "Ġtactics": 2513,
    "Ġseven": 2514,
    "ĠARM": 2515,
    "Ġneuro": 2516,
    "Group": 2517,
    "Ġborough": 2518,
    "avez": 2519,
    "Ġregression": 2520,
    "Ġrolling": 2521,
    "Ever": 2522,
    "ricted": 2523,
    "Gate": 2524,
    "ushing": 2525,
    "Ġpurported": 2526,
    "Ġwhiskey": 2527,
    "Ġcert": 2528,
    "ĠChi": 2529,
    "ĠOregon": 2530,
    "feeding": 2531,
    "ĠChang": 2532,
    "ĠHut": 2533,
    "Tell": 2534,
    "Ġparents": 2535,
    "Ġclaim": 2536,
    "idency": 2537,
    "Ġcd": 2538,
    "Ġatmosp": 2539,
    "Ġtreatment": 2540,
    "Ġauthorization": 2541,
    "Well": 2542,
    "Ð¶": 2543,
    "ĠCEOs": 2544,
    "Ã©": 2545,
    "02": 2546,
    "Ġgardens": 2547,
    "abytes": 2548,
    "ĠMcGu": 2549,
    "iances": 2550,
    "Ġassociations": 2551,
    "Ġdispatch": 2552,
    "ceans": 2553,
    "icon": 2554,
    "ĠClock": 2555,
    "ĠMary": 2556,
    "Ġheaders": 2557,
    "icker": 2558,
    "ĠSure": 2559,
    "Ġimpair": 2560,
    "Fall": 2561,
    "Ġmov": 2562,
    "ndering": 2563,
    "62": 2564,
    "Ġbur": 2565,
    "ĠAtmosp": 2566,
    "Ġmakes": 2567,
    "Ġstretched": 2568,
    "ifferent": 2569,
    "Ġmig": 2570,
    "Ġstability": 2571,
    "Ġsummon": 2572,
    "Ġbeyond": 2573,
    "ĠSingapore": 2574,
    "members": 2575,
    "atel": 2576,
    "lling": 2577,
    "ĠRoss": 2578,
    "Ġju": 2579,
    "Jason": 2580,
    "otton": 2581,
    "Ġplot": 2582,
    "NOT": 2583,
    "AD": 2584,
    "ruption": 2585,
    "ĠScar": 2586,
    "Ġgravitational": 2587,
    "Field": 2588,
    "Ġredes": 2589,
    "Ġintends": 2590,
    "Ġthy": 2591,
    "Ġsystematically": 2592,
    "ĠYemen": 2593,
    "olester": 2594,
    "RED": 2595,
    "ĠAbdullah": 2596,
    "Ġpistol": 2597,
    "pron": 2598,
    "inqu": 2599,
    "Ġindividually": 2600,
    "Ġadopted": 2601,
    "atility": 2602,
    "forestation": 2603,
    "erts": 2604,
    "Ġlunch": 2605,
    "Ġtherapy": 2606,
    "Ġgluc": 2607,
    "Ġhires": 2608,
    "Ġrelent": 2609,
    "esity": 2610,
    "Ġcandidate": 2611,
    "hyd": 2612,
    "ĠPalm": 2613,
    "sworth": 2614,
    "Ġhybrid": 2615,
    "workers": 2616,
    "Ġheard": 2617,
    "ĠPosition": 2618,
    "digit": 2619,
    "Ġamenities": 2620,
    "Ġimpaired": 2621,
    "stown": 2622,
    "ersion": 2623,
    "Ġjournalists": 2624,
    "ĠCharg": 2625,
    "Ġunintended": 2626,
    "ĠVik": 2627,
    "ĠBu": 2628,
    "Ġsuperhero": 2629,
    "Mil": 2630,
    "Word": 2631,
    "War": 2632,
    "105": 2633,
    "gradation": 2634,
    "verse": 2635,
    "Ġvital": 2636,
    "isha": 2637,
    "ĠKaepernick": 2638,
    "ium": 2639,
    "ĠNevertheless": 2640,
    "ystem": 2641,
    "Ġsid": 2642,
    "ĠLance": 2643,
    "boys": 2644,
    "Ġdone": 2645,
    "riber": 2646,
    "Ġchurches": 2647,
    "ĠNoel": 2648,
    "Ġphotography": 2649,
    "Ġissuing": 2650,
    "idelines": 2651,
    "video": 2652,
    "Ġreporter": 2653,
    "Ġelements": 2654,
    "Ġhelic": 2655,
    "ĠBowman": 2656,
    "ĠUSDA": 2657,
    "Ġrecommends": 2658,
    "Ġsensor": 2659,
    "Ġcover": 2660,
    "Ġdefin": 2661,
    "ighth": 2662,
    "com": 2663,
    "ĠAst": 2664,
    "ĠSold": 2665,
    "few": 2666,
    "enly": 2667,
    "Ġunrealistic": 2668,
    "Ġaccelerated": 2669,
    "Ġrooted": 2670,
    "ĠThan": 2671,
    "Ġterrified": 2672,
    "Ġliterally": 2673,
    "ĠHarden": 2674,
    "Ġfav": 2675,
    "Ġcovers": 2676,
    "Obviously": 2677,
    "Ġprejudice": 2678,
    "Ġrad": 2679,
    "Ġoutlined": 2680,
    "Ġexotic": 2681,
    "Ġseveral": 2682,
    "ĠEv": 2683,
    "ĠLG": 2684,
    "whel": 2685,
    "emin": 2686,
    "ĠPhoto": 2687,
    "foo": 2688,
    "ĠCh": 2689,
    "IAN": 2690,
    "mage": 2691,
    "ĠNature": 2692,
    "rastructure": 2693,
    "Ġinevitably": 2694,
    "aq": 2695,
    "inem": 2696,
    "aba": 2697,
    "ĠUt": 2698,
    "Ġaid": 2699,
    "hattan": 2700,
    "techn": 2701,
    "nex": 2702,
    "Democrats": 2703,
    "ĠJer": 2704,
    "Ġscrew": 2705,
    "Ġinnoc": 2706,
    "Ġdisclosed": 2707,
    "ĠBroad": 2708,
    "Ġprohibition": 2709,
    "Ġpublisher": 2710,
    "ĠTT": 2711,
    "Ġ41": 2712,
    "ĠCoin": 2713,
    "ĠMobile": 2714,
    "Example": 2715,
    "player": 2716,
    "ĠSilver": 2717,
    "Outside": 2718,
    "230": 2719,
    "ĠStap": 2720,
    "ĠHugo": 2721,
    "uties": 2722,
    "Ġcharacteristic": 2723,
    "Ġintervene": 2724,
    "ĠSharon": 2725,
    "ĠGri": 2726,
    "Ġsafely": 2727,
    "Ġperipher": 2728,
    "ĠFROM": 2729,
    "ĠMarsh": 2730,
    "ummer": 2731,
    "ĠMaz": 2732,
    "zo": 2733,
    "ĠRew": 2734,
    "ĠSuns": 2735,
    "Ġsynchron": 2736,
    "ĠJihad": 2737,
    "Ġadjacent": 2738,
    "Ġpartnership": 2739,
    "Ġraises": 2740,
    "ulation": 2741,
    "Ġyelled": 2742,
    "Ġassumptions": 2743,
    "ĠMall": 2744,
    "ĠCap": 2745,
    "arlier": 2746,
    "Ġstanding": 2747,
    "Ġdoing": 2748,
    "Ġcontinually": 2749,
    "Ġamph": 2750,
    "Ġlaun": 2751,
    "Ġslides": 2752,
    "Ġresilient": 2753,
    "Exp": 2754,
    "ĠForward": 2755,
    "spoken": 2756,
    "osit": 2757,
    "kees": 2758,
    "leted": 2759,
    "lav": 2760,
    "ĠEasy": 2761,
    "Roy": 2762,
    "Ġremembering": 2763,
    "ĠBruno": 2764,
    "MT": 2765,
    "ĠLegal": 2766,
    "ĠHour": 2767,
    "Ġbapt": 2768,
    "Ġrestrict": 2769,
    "Ġmeaning": 2770,
    "andra": 2771,
    "Ġpilots": 2772,
    "arus": 2773,
    "Ġpockets": 2774,
    "ĠMcMahon": 2775,
    "Ġpossess": 2776,
    "Ġacademia": 2777,
    "erers": 2778,
    "ĠLAN": 2779,
    "Ġalign": 2780,
    "pty": 2781,
    "Ġshook": 2782,
    "ĠPodcast": 2783,
    "ensitive": 2784,
    "Ġphone": 2785,
    "Ġdrilling": 2786,
    "Ġhemisphere": 2787,
    "ĠUnivers": 2788,
    "Ġaggressively": 2789,
    "ĠDrake": 2790,
    "Ġdestined": 2791,
    "Ġaverages": 2792,
    "ĠCody": 2793,
    "uren": 2794,
    "ĠCU": 2795,
    "owell": 2796,
    "ĠRecords": 2797,
    "Film": 2798,
    "ĠCenters": 2799,
    "Earth": 2800,
    "ocumented": 2801,
    "chie": 2802,
    "roup": 2803,
    "Ġcel": 2804,
    "Ġdefender": 2805,
    "imination": 2806,
    "poons": 2807,
    "ĠBurns": 2808,
    "±": 2809,
    "Ġvaried": 2810,
    "Ġpatron": 2811,
    "represent": 2812,
    "Ġteeth": 2813,
    "ĠBelle": 2814,
    "Ġmer": 2815,
    "ĠCarrie": 2816,
    "Ĭ": 2817,
    "ĠTerrorism": 2818,
    "Ġtrafficking": 2819,
    "ĠTan": 2820,
    "Ġresidual": 2821,
    "Ġcertain": 2822,
    "Ġprosperity": 2823,
    "ĠTweet": 2824,
    "resses": 2825,
    "Ġchang": 2826,
    "Ġconsidered": 2827,
    "Ġcoveted": 2828,
    "Ã¼": 2829,
    "ĠMol": 2830,
    "Ġchatting": 2831,
    "significant": 2832,
    "Ġgrape": 2833,
    "Ä": 2834,
    "Ġface": 2835,
    "Ġbeautiful": 2836,
    "ĠNelson": 2837,
    "proof": 2838,
    "Ú": 2839,
    "Robert": 2840,
    "G": 2841,
    "Ġfinanced": 2842,
    "Ġdensity": 2843,
    "ĠCC": 2844,
    "ors": 2845,
    "Ġterminate": 2846,
    "Ġremote": 2847,
    "ĠCliff": 2848,
    "ovan": 2849,
    "ĠWITH": 2850,
    "Ġphotographers": 2851,
    "croft": 2852,
    "Ġassaults": 2853,
    "Ġoutright": 2854,
    "ĠResolution": 2855,
    "look": 2856,
    "Ļ": 2857,
    "Ġexplosive": 2858,
    "Ġsixth": 2859,
    "Ġthermal": 2860,
    "sson": 2861,
    "ĠWeap": 2862,
    "ervice": 2863,
    "Ġoriginal": 2864,
    "Ġexplan": 2865,
    "Ġple": 2866,
    "://": 2867,
    "ĠCommission": 2868,
    "Ġgarage": 2869,
    "380": 2870,
    "Ġimagine": 2871,
    "ffield": 2872,
    "Ö": 2873,
    "Ġaffected": 2874,
    "ĠZimmer": 2875,
    "ĠSil": 2876,
    "ĠEmploy": 2877,
    "ĠWinner": 2878,
    "GL": 2879,
    "ratt": 2880,
    "ĠSolutions": 2881,
    "ĠLA": 2882,
    "izoph": 2883,
    "Ġpaved": 2884,
    "inj": 2885,
    "Ruby": 2886,
    "ĠCatch": 2887,
    "Ġapolog": 2888,
    "Ġfacial": 2889,
    "Ġhandgun": 2890,
    "Ġfloods": 2891,
    "Ġsign": 2892,
    "Ġfinally": 2893,
    "Ġsc": 2894,
    "Ġconsolidation": 2895,
    "Ġhandful": 2896,
    "Ġinstruments": 2897,
    "Ġdisappears": 2898,
    "ĠTarget": 2899,
    "Ġguidelines": 2900,
    "verage": 2901,
    "Ġarbit": 2902,
    "Ġproceeds": 2903,
    "ĠPayne": 2904,
    "ĠScript": 2905,
    "Ġshock": 2906,
    "ĠHash": 2907,
    "ĠM": 2908,
    "ciation": 2909,
    "adena": 2910,
    "manned": 2911,
    "iveness": 2912,
    "Ġsoldier": 2913,
    "bd": 2914,
    "Ġexpire": 2915,
    "either": 2916,
    "iate": 2917,
    "habi": 2918,
    "rad": 2919,
    "ĠWrestling": 2920,
    "Ġhorizon": 2921,
    "Chris": 2922,
    "ese": 2923,
    "Ġretailers": 2924,
    "Ġmisdem": 2925,
    "Ġindefinitely": 2926,
    "Ġgraz": 2927,
    "eddy": 2928,
    "ĠVol": 2929,
    "Ġdisc": 2930,
    "Ġstainless": 2931,
    "Ġcoconut": 2932,
    "asa": 2933,
    "ĠArbor": 2934,
    "Ġold": 2935,
    "ĠCastle": 2936,
    "deter": 2937,
    "Blue": 2938,
    "Joseph": 2939,
    "Ġinsanity": 2940,
    "Ġadm": 2941,
    "Ġwww": 2942,
    "Ġsober": 2943,
    "Ġsexy": 2944,
    "Wik": 2945,
    "Ġdelivering": 2946,
    "Investigators": 2947,
    "Ġpromoter": 2948,
    "Ġclusters": 2949,
    "mines": 2950,
    "ĠJinping": 2951,
    "Ġpresent": 2952,
    "Luc": 2953,
    "ĠNapoleon": 2954,
    "Ġcool": 2955,
    "owntown": 2956,
    "Tex": 2957,
    "Ġdoubtful": 2958,
    "ĠRadeon": 2959,
    "fig": 2960,
    "ĠBas": 2961,
    "issue": 2962,
    "Ġmayors": 2963,
    "much": 2964,
    "esteem": 2965,
    "ĠGaming": 2966,
    "º": 2967,
    "ranean": 2968,
    "Ġdaylight": 2969,
    "Ġaudiences": 2970,
    "Ġswitches": 2971,
    "uan": 2972,
    "ĠLex": 2973,
    "Ġentreprene": 2974,
    "Ġcampaigning": 2975,
    "Ġfrightened": 2976,
    "Ġ1969": 2977,
    "ĠClare": 2978,
    "uther": 2979,
    "ĠCanberra": 2980,
    "utral": 2981,
    "frequ": 2982,
    "Ġmakeup": 2983,
    "bast": 2984,
    "ĠMob": 2985,
    "Ġtouch": 2986,
    "Ġfrozen": 2987,
    "ĠGeForce": 2988,
    "ĠLion": 2989,
    "Ġteam": 2990,
    "Ġinsecurity": 2991,
    "Ġpressed": 2992,
    "Ġtwitter": 2993,
    "Ġ101": 2994,
    "Ġconcludes": 2995,
    "Ġsanction": 2996,
    "ercise": 2997,
    "ĠHy": 2998,
    "itiveness": 2999,
    "ĠBurning": 3000,
    "Ġappreciated": 3001,
    "Ġmyths": 3002,
    "themed": 3003,
    "Ġbribes": 3004,
    "Putin": 3005,
    "Ġworth": 3006,
    "Ġclam": 3007,
    "Ġaimed": 3008,
    "132": 3009,
    "Ġburns": 3010,
    "ĠEPA": 3011,
    "Upon": 3012,
    "RNA": 3013,
    "Ġachievement": 3014,
    "ĠWord": 3015,
    "Ġaer": 3016,
    "ĠCustom": 3017,
    "ĠOak": 3018,
    "ĠBelt": 3019,
    "ĠKra": 3020,
    "))": 3021,
    "ĠVancouver": 3022,
    "kish": 3023,
    "estic": 3024,
    "Ġsur": 3025,
    "ĠKam": 3026,
    "ĠNigerian": 3027,
    "ĠAdministration": 3028,
    "Ġdependencies": 3029,
    "Ġowed": 3030,
    "Ġinn": 3031,
    "ĠCharlottesville": 3032,
    "Ġessence": 3033,
    "Ġdiscredited": 3034,
    "Ġdie": 3035,
    "Ġbarr": 3036,
    "ĠDictionary": 3037,
    "ĠNational": 3038,
    "Ġconsumption": 3039,
    "Ġblade": 3040,
    "offs": 3041,
    "ĠGET": 3042,
    "Ġnotorious": 3043,
    "ĠFlames": 3044,
    "ishing": 3045,
    "Ġoccurring": 3046,
    "Ġbad": 3047,
    "Ġam": 3048,
    "sometimes": 3049,
    "ĠOklahoma": 3050,
    "ump": 3051,
    "bil": 3052,
    "Ġfundamental": 3053,
    "Ġelectronics": 3054,
    "Ġreally": 3055,
    "âĢ¦]": 3056,
    "awks": 3057,
    "Ġwomen": 3058,
    "Ġavatar": 3059,
    "Cl": 3060,
    "Le": 3061,
    "Once": 3062,
    "ĠRichmond": 3063,
    "Ġmemes": 3064,
    "Ġreuse": 3065,
    "Houston": 3066,
    "Ġ+=": 3067,
    "igators": 3068,
    "ampionship": 3069,
    "ĠWikipedia": 3070,
    "ĠFedora": 3071,
    "280": 3072,
    "Ġtaxpayer": 3073,
    "ĠDion": 3074,
    "Ġsparking": 3075,
    "Ġanticipated": 3076,
    "ĠDragon": 3077,
    "Ġoddly": 3078,
    "Ġenforcement": 3079,
    "Ġbip": 3080,
    "ĠFrame": 3081,
    "Ġfemales": 3082,
    "ĠAbu": 3083,
    "ġ": 3084,
    "ondon": 3085,
    "ĠJersey": 3086,
    "uu": 3087,
    "Result": 3088,
    "atti": 3089,
    "Ġdisli": 3090,
    "annie": 3091,
    "Ġhumorous": 3092,
    ";": 3093,
    "Direct": 3094,
    "ĠBj": 3095,
    "ĠSom": 3096,
    "ĠIrving": 3097,
    "ĠCorbyn": 3098,
    "perhaps": 3099,
    "EX": 3100,
    "Ġsorts": 3101,
    "Ġbeautifully": 3102,
    "Ġjurisdiction": 3103,
    "iates": 3104,
    "bley": 3105,
    "ĠAndrew": 3106,
    "EA": 3107,
    "lled": 3108,
    "Ġcombinations": 3109,
    "ĠArch": 3110,
    "Ġrelief": 3111,
    "ĠSit": 3112,
    "imm": 3113,
    "Ġwish": 3114,
    "ĠAnyone": 3115,
    "isse": 3116,
    "ĠSharp": 3117,
    "Ġmurd": 3118,
    "Ġtaxing": 3119,
    "Ġknock": 3120,
    "ĠProtestant": 3121,
    "ĠDetails": 3122,
    "lopp": 3123,
    "article": 3124,
    "Ġoptimization": 3125,
    "ĠDro": 3126,
    "Ġproposal": 3127,
    "Ġbuzz": 3128,
    "Ġwave": 3129,
    "Stack": 3130,
    "Ġedited": 3131,
    "Ġliabilities": 3132,
    "Ġwage": 3133,
    "Ġhopeful": 3134,
    "omi": 3135,
    "ĠNick": 3136,
    "Ġplug": 3137,
    "ĠMel": 3138,
    "BO": 3139,
    "Ġreplacement": 3140,
    "Ġexploits": 3141,
    "ĠObamacare": 3142,
    "Ġarrests": 3143,
    "orts": 3144,
    "Ġalignment": 3145,
    "utenant": 3146,
    "Ġmanuscript": 3147,
    "di": 3148,
    "ĠBahrain": 3149,
    "Ġdressed": 3150,
    "asm": 3151,
    "Ġprofiles": 3152,
    "Ġcheat": 3153,
    "ĠSto": 3154,
    "jriwal": 3155,
    "ĠLO": 3156,
    "Ġspiritual": 3157,
    "Ġsubsidy": 3158,
    "ĠRetail": 3159,
    "ĠEvidence": 3160,
    "Ġshares": 3161,
    "Ġdangerously": 3162,
    "Ġhike": 3163,
    "ĠCave": 3164,
    "Ġincremental": 3165,
    "Ġresponse": 3166,
    "Ġballoons": 3167,
    "iller": 3168,
    "Ġ1880": 3169,
    "Ġcand": 3170,
    "370": 3171,
    "ospital": 3172,
    "Ġsanct": 3173,
    "Ġcorporations": 3174,
    "Ġdisposable": 3175,
    "ĠXP": 3176,
    "Ġwheel": 3177,
    "Ġdrained": 3178,
    "Ġfit": 3179,
    "Ġopposing": 3180,
    "Ġspelling": 3181,
    "ĠAmeric": 3182,
    "Ġcredentials": 3183,
    "acceptable": 3184,
    "Ġminiature": 3185,
    "Wed": 3186,
    "kind": 3187,
    "Ġfading": 3188,
    "Ġconstitute": 3189,
    "ĠRookie": 3190,
    "agar": 3191,
    "Ġsinger": 3192,
    "ĠBer": 3193,
    "Ġscoop": 3194,
    "coll": 3195,
    "Ġfrustrations": 3196,
    "Ġterritorial": 3197,
    "ĠTet": 3198,
    "Ġthroat": 3199,
    "iza": 3200,
    "Ġpeaceful": 3201,
    "Ġhallway": 3202,
    "Ġlandmark": 3203,
    "ins": 3204,
    "Ġlaw": 3205,
    "åħ": 3206,
    "Ġallocate": 3207,
    "Ġphoto": 3208,
    "cier": 3209,
    "ĠYeah": 3210,
    "ĠSpeed": 3211,
    "Ġasserts": 3212,
    "FS": 3213,
    "ught": 3214,
    "Ġbloody": 3215,
    "ĠAside": 3216,
    "pect": 3217,
    "ĠNSW": 3218,
    "Ġsol": 3219,
    "Ġcubic": 3220,
    "uggage": 3221,
    "Ġdiscipl": 3222,
    "ĠLear": 3223,
    "Ġproud": 3224,
    "ĠWriters": 3225,
    "ĠReg": 3226,
    "ĠNaval": 3227,
    "Ġscan": 3228,
    "Ġshortfall": 3229,
    "Ġlif": 3230,
    "Ġhighly": 3231,
    "file": 3232,
    "Ġcompens": 3233,
    "Ġnotoriously": 3234,
    "ravo": 3235,
    "ĠMadrid": 3236,
    "ĠOlson": 3237,
    "Ġrestaur": 3238,
    "ĠArena": 3239,
    "Ġexem": 3240,
    "ĠArabic": 3241,
    "Ġexceptional": 3242,
    "Child": 3243,
    "Ġlouder": 3244,
    "Ġzomb": 3245,
    "Ġvalid": 3246,
    "ĠCanada": 3247,
    "enh": 3248,
    "artisan": 3249,
    "inges": 3250,
    "orton": 3251,
    "Ġaging": 3252,
    "Ġthriller": 3253,
    "ĠCBS": 3254,
    "orter": 3255,
    "Ġcontrols": 3256,
    "Ġunions": 3257,
    "ĠNic": 3258,
    "pler": 3259,
    "ĠâĢľ": 3260,
    "ĠSmith": 3261,
    "ex": 3262,
    "Ġpave": 3263,
    "ĠBaghd": 3264,
    "Ġgenet": 3265,
    "Ġplanes": 3266,
    "ĠElder": 3267,
    "ara": 3268,
    "gre": 3269,
    "Welcome": 3270,
    "Ġcenter": 3271,
    "Ġsafer": 3272,
    "Ġthanked": 3273,
    "umbles": 3274,
    "Ġcoal": 3275,
    "Ġbackground": 3276,
    "Ġambig": 3277,
    "âĦ": 3278,
    "Added": 3279,
    "Ġeven": 3280,
    "Pacific": 3281,
    "Ġrestraining": 3282,
    "jah": 3283,
    "ĠLu": 3284,
    "gly": 3285,
    "backed": 3286,
    "ĠHalloween": 3287,
    "oser": 3288,
    "ertain": 3289,
    "andum": 3290,
    "Ġ400": 3291,
    "Ġaction": 3292,
    "tz": 3293,
    "Ġdrift": 3294,
    "Ġoverweight": 3295,
    "Ġoverall": 3296,
    "atible": 3297,
    "ĠNice": 3298,
    "Ġabused": 3299,
    "ĠChile": 3300,
    "Ġtips": 3301,
    "Ġappealing": 3302,
    "art": 3303,
    "stal": 3304,
    "ĠUp": 3305,
    "Ġstud": 3306,
    "Ġinfringement": 3307,
    "iew": 3308,
    "Pr": 3309,
    "let": 3310,
    "Ġdissent": 3311,
    "Ġdealing": 3312,
    "Wednesday": 3313,
    "anol": 3314,
    "Ġsci": 3315,
    "Ġ270": 3316,
    "ĠLow": 3317,
    "Ġflagged": 3318,
    "Ġconclusion": 3319,
    "Ġstronger": 3320,
    "Ġbright": 3321,
    "Ġuphill": 3322,
    "Ġ155": 3323,
    "borg": 3324,
    "Ġpolls": 3325,
    "quart": 3326,
    "Ġanom": 3327,
    "ĠCinema": 3328,
    "itutional": 3329,
    "Ġsync": 3330,
    "Ġutilizing": 3331,
    "ĠYorker": 3332,
    "Ġsuffer": 3333,
    "Ġstairs": 3334,
    "Ġstruck": 3335,
    "ĠClearly": 3336,
    "General": 3337,
    "phones": 3338,
    "Ġhonest": 3339,
    "Begin": 3340,
    "Ġtribunal": 3341,
    "Ġchairs": 3342,
    "Ġhadn": 3343,
    "iqu": 3344,
    "âĢľ": 3345,
    "amb": 3346,
    "odi": 3347,
    "orem": 3348,
    "Ġfarming": 3349,
    "Ġtune": 3350,
    "Ġunanimous": 3351,
    "ucks": 3352,
    "Ġmutually": 3353,
    "Ġmother": 3354,
    "serving": 3355,
    "Ġfeas": 3356,
    "Ġprovider": 3357,
    "Ġantibiotic": 3358,
    "bard": 3359,
    "Ġreferences": 3360,
    "Ġbrush": 3361,
    "Ġfallout": 3362,
    "ĠHD": 3363,
    "Ġdesk": 3364,
    "ĠNight": 3365,
    "Thursday": 3366,
    "ĠEx": 3367,
    "points": 3368,
    "ĠDemocratic": 3369,
    "Ġintrinsic": 3370,
    "Ġlen": 3371,
    "enny": 3372,
    "ixels": 3373,
    "Ġcoff": 3374,
    "Ġfantastic": 3375,
    "87": 3376,
    "Ġnatives": 3377,
    "ĠA": 3378,
    "Ġgor": 3379,
    "Ġfrontier": 3380,
    "Ġdeb": 3381,
    "ĠRepublican": 3382,
    "ĠRescue": 3383,
    "âĹı": 3384,
    "Ġanchor": 3385,
    "Ġstruggles": 3386,
    "Ġphysic": 3387,
    "sea": 3388,
    "Ġharder": 3389,
    "Ġbay": 3390,
    "Ġawareness": 3391,
    "ĠMarx": 3392,
    "Ġtimetable": 3393,
    "ĠWeight": 3394,
    "ĠBasically": 3395,
    "Ġscant": 3396,
    "ĠMex": 3397,
    "Ġpriced": 3398,
    "Ġphysicist": 3399,
    "ĠDayton": 3400,
    "Ġrifle": 3401,
    "spin": 3402,
    "ĠLuke": 3403,
    "sewhere": 3404,
    "izzy": 3405,
    "aves": 3406,
    "Imagine": 3407,
    "Ã¸": 3408,
    "turned": 3409,
    "Ġicy": 3410,
    "Ġeuros": 3411,
    "Scient": 3412,
    "Ġsalmon": 3413,
    "Ġensued": 3414,
    "ĠAbb": 3415,
    "Ġ->": 3416,
    "ĠIce": 3417,
    "utz": 3418,
    "Ġshall": 3419,
    "rc": 3420,
    "Time": 3421,
    "Four": 3422,
    "Ġabducted": 3423,
    "Ġdistant": 3424,
    "Ġlacked": 3425,
    "Ġrecognized": 3426,
    "ĠRecently": 3427,
    "usk": 3428,
    "ĠFior": 3429,
    "iph": 3430,
    "Ġdash": 3431,
    "Ġrun": 3432,
    "ĠJourney": 3433,
    "Ġegregious": 3434,
    "ocate": 3435,
    "ĠThough": 3436,
    "youtube": 3437,
    "ĠDrop": 3438,
    "grand": 3439,
    "Ġquota": 3440,
    "the": 3441,
    "ds": 3442,
    "High": 3443,
    "ĠIndust": 3444,
    "Ġturt": 3445,
    "ĠNear": 3446,
    "ocene": 3447,
    "Ġirregular": 3448,
    "Ġpros": 3449,
    "Ġpray": 3450,
    "Ġ1996": 3451,
    "urer": 3452,
    "Ġmodifications": 3453,
    "mun": 3454,
    "igating": 3455,
    "ĠInfinite": 3456,
    "ĠChip": 3457,
    "ĠHidden": 3458,
    "eeks": 3459,
    "Ġsadd": 3460,
    "Ġamnesty": 3461,
    "Ġswung": 3462,
    "Ġwould": 3463,
    "Ġdominant": 3464,
    "isans": 3465,
    "Ġsuggestions": 3466,
    "Ġchess": 3467,
    "ĠJur": 3468,
    "Ġshoot": 3469,
    "Ġtransforming": 3470,
    "atum": 3471,
    "Ġaccidental": 3472,
    "Ġultimate": 3473,
    "Ġthin": 3474,
    "amins": 3475,
    "mental": 3476,
    "icials": 3477,
    "flation": 3478,
    "ĠWings": 3479,
    "ationally": 3480,
    "Ġdelicious": 3481,
    "Ġculinary": 3482,
    "Ġinject": 3483,
    "ischer": 3484,
    "nce": 3485,
    "Ġestate": 3486,
    "friendly": 3487,
    "Ġbetrayal": 3488,
    "cause": 3489,
    "Ġneatly": 3490,
    "Ġwrest": 3491,
    "Ġmicrow": 3492,
    "div": 3493,
    "Ġdownright": 3494,
    "Ġspare": 3495,
    "ĠTowers": 3496,
    "Ġadvert": 3497,
    "akh": 3498,
    "Ġcamera": 3499,
    "Ġpatrol": 3500,
    "Ġcircumvent": 3501,
    "Mus": 3502,
    "Ġmechanic": 3503,
    "ĠListen": 3504,
    "ignant": 3505,
    "ĠConservatives": 3506,
    "igen": 3507,
    "Engine": 3508,
    "Ġspokes": 3509,
    "ĠColbert": 3510,
    "ĠMom": 3511,
    "edIn": 3512,
    "Ġnoticeably": 3513,
    "Ġcorrel": 3514,
    "ULL": 3515,
    "Ġwhich": 3516,
    "critical": 3517,
    "ĠMean": 3518,
    "greg": 3519,
    "ĠIbrahim": 3520,
    "Ġstep": 3521,
    "Ġattacker": 3522,
    "stanbul": 3523,
    "pically": 3524,
    "Ġrationale": 3525,
    "itionally": 3526,
    "Ġrenewable": 3527,
    "AZ": 3528,
    "email": 3529,
    "ĠSie": 3530,
    "orted": 3531,
    "KY": 3532,
    "Ġmetic": 3533,
    "Ġgrapp": 3534,
    "Ġfield": 3535,
    "oe": 3536,
    "Ġovercome": 3537,
    "ĠConnect": 3538,
    "ĠSur": 3539,
    "Ġappealed": 3540,
    "ĠUncle": 3541,
    "Ġyourselves": 3542,
    "ottest": 3543,
    "lessly": 3544,
    "Ġgains": 3545,
    "Ġpurpose": 3546,
    "Ġhobby": 3547,
    "olves": 3548,
    "ĠJag": 3549,
    "ĠPoc": 3550,
    "ĠMarch": 3551,
    "ĠTheatre": 3552,
    "ilem": 3553,
    "ĠSoc": 3554,
    "ĠUg": 3555,
    "ĠTwilight": 3556,
    "ĠPupp": 3557,
    "Ġsemin": 3558,
    "Ġrelie": 3559,
    "Ġsliding": 3560,
    "Ġreduce": 3561,
    "Ġcomplaints": 3562,
    "ĠTransit": 3563,
    "iction": 3564,
    "ĠAngular": 3565,
    "izing": 3566,
    "ĠMir": 3567,
    "Ù": 3568,
    "pin": 3569,
    "Ġtravelling": 3570,
    "aret": 3571,
    "TS": 3572,
    "regon": 3573,
    "Ġfert": 3574,
    "alities": 3575,
    "Ġbigotry": 3576,
    "glass": 3577,
    "Ġeleven": 3578,
    "tem": 3579,
    "ĠMarijuana": 3580,
    "Ġundertake": 3581,
    "Ġfountain": 3582,
    "û": 3583,
    "umph": 3584,
    "Ġannex": 3585,
    "Qaida": 3586,
    "ifting": 3587,
    "Ġstrategies": 3588,
    "Ġcommanding": 3589,
    "Ġfiguring": 3590,
    "ĠBurlington": 3591,
    "ks": 3592,
    "ĠSunni": 3593,
    "anted": 3594,
    "Ġspecial": 3595,
    "ĠWarner": 3596,
    "wo": 3597,
    "Ġprocess": 3598,
    "ĠBuilding": 3599,
    "acters": 3600,
    "ĠCH": 3601,
    "Ġsuggest": 3602,
    "ĠRid": 3603,
    "ĠRoute": 3604,
    "Ġdisable": 3605,
    "ĠChapman": 3606,
    "Ġfewer": 3607,
    "ĠRhodes": 3608,
    "Ġslain": 3609,
    "celer": 3610,
    "ĠRapt": 3611,
    "Ġmanufact": 3612,
    "mong": 3613,
    "ĠGul": 3614,
    "ĠTories": 3615,
    "mentation": 3616,
    "Ġmater": 3617,
    "ĠHeritage": 3618,
    "eding": 3619,
    "er": 3620,
    "ĠThursday": 3621,
    "ĠSystem": 3622,
    "edge": 3623,
    "kan": 3624,
    "ĠIranians": 3625,
    ")?": 3626,
    "Ġspawn": 3627,
    "Ġemulate": 3628,
    "ĠPriebus": 3629,
    "Ġillnesses": 3630,
    "ustainable": 3631,
    "ĠPra": 3632,
    "istine": 3633,
    "Ġacquire": 3634,
    "Ġcommittees": 3635,
    "rest": 3636,
    "Ġpsychedel": 3637,
    "Ġholidays": 3638,
    "Ġcollaborating": 3639,
    "Ġwartime": 3640,
    "Ġhoney": 3641,
    "uded": 3642,
    "Adam": 3643,
    "Ġpressures": 3644,
    "ĠGC": 3645,
    "ĠGeorgian": 3646,
    "aniel": 3647,
    "Ġpin": 3648,
    "Ġcreators": 3649,
    "ĠLith": 3650,
    "nerg": 3651,
    "ĠClinical": 3652,
    "itated": 3653,
    "ured": 3654,
    "Ġterr": 3655,
    "ĠMcL": 3656,
    "Ġjudge": 3657,
    "Ġreboot": 3658,
    "********************************": 3659,
    "Ġfocus": 3660,
    "Ġtread": 3661,
    "Ġliberal": 3662,
    "Ġcele": 3663,
    "Ġgrain": 3664,
    "Pack": 3665,
    "Ġcommons": 3666,
    "Ġripping": 3667,
    "Ġaligned": 3668,
    "ĠKh": 3669,
    "Ġprescriptions": 3670,
    "ouncing": 3671,
    "ĠBecome": 3672,
    "Ġencounters": 3673,
    "LP": 3674,
    "Ġseizures": 3675,
    "Ġcriticised": 3676,
    "Ġdistributors": 3677,
    "Ġarriving": 3678,
    "Ġradioactive": 3679,
    "ĠWillie": 3680,
    "ayer": 3681,
    "elli": 3682,
    "Ġintens": 3683,
    "Ġsmoking": 3684,
    "Ġidentified": 3685,
    "Tem": 3686,
    "short": 3687,
    "Ġvolunteer": 3688,
    "________": 3689,
    "ily": 3690,
    "Ġcharacterized": 3691,
    "ĠDist": 3692,
    "avin": 3693,
    "Professor": 3694,
    "Ġreper": 3695,
    "Ġcommissioner": 3696,
    "âĢĺ": 3697,
    "ige": 3698,
    "ilda": 3699,
    "Ġasthma": 3700,
    "ĠGolf": 3701,
    "ocker": 3702,
    "Ġfairy": 3703,
    "Ġquiet": 3704,
    "umm": 3705,
    "Ġdoctor": 3706,
    "Ġarchitectural": 3707,
    "kens": 3708,
    "Ġbuilder": 3709,
    "Ġcontrovers": 3710,
    "Ġdevelops": 3711,
    "Ġrelocation": 3712,
    "Ġdisadvant": 3713,
    "Ġmade": 3714,
    "Ġcorpor": 3715,
    "Ġcontaminated": 3716,
    "Ġwhatever": 3717,
    "chell": 3718,
    "Ġastronomers": 3719,
    "Ġspans": 3720,
    "ĠDee": 3721,
    "Ġadvisors": 3722,
    "Ġstadiums": 3723,
    "ĠPolit": 3724,
    "Ġliqu": 3725,
    "ĠMAN": 3726,
    "ĠDef": 3727,
    "ĠDenis": 3728,
    "Ġbypass": 3729,
    "Ġchange": 3730,
    "cyclop": 3731,
    "ĠPsych": 3732,
    "Ġstaunch": 3733,
    "ĠMattis": 3734,
    "Ġcommanders": 3735,
    "ized": 3736,
    "ĠGeographic": 3737,
    "Ġ104": 3738,
    "Ġpatent": 3739,
    "NY": 3740,
    "Ġ),": 3741,
    "ĠInitially": 3742,
    "owns": 3743,
    "Ġrepublic": 3744,
    "ĠGill": 3745,
    "ĠNA": 3746,
    "Ġnomine": 3747,
    "ĠFun": 3748,
    "ĠDort": 3749,
    "ĠNBA": 3750,
    "CNN": 3751,
    "Ġinval": 3752,
    "Ġknockout": 3753,
    "Ġamen": 3754,
    "Ġf": 3755,
    "Ġensure": 3756,
    "Ġrents": 3757,
    "vert": 3758,
    "Ġstarving": 3759,
    "ĠÂ°": 3760,
    "Ġ86": 3761,
    "Ġcircle": 3762,
    "Side": 3763,
    "!!!": 3764,
    "aunch": 3765,
    "ĠFest": 3766,
    "Ġfailures": 3767,
    "Ġcaring": 3768,
    "pi": 3769,
    "ĠMach": 3770,
    "Ġcomp": 3771,
    "omsky": 3772,
    "Ġmed": 3773,
    "ĠOver": 3774,
    "Ġcrit": 3775,
    "23": 3776,
    "ĠIS": 3777,
    "ĠLud": 3778,
    "elin": 3779,
    "ĠIndians": 3780,
    "âĢĻ.": 3781,
    "Ġ401": 3782,
    "Ġbehav": 3783,
    "Ġinvaded": 3784,
    "Ġguild": 3785,
    "Ġtrack": 3786,
    "ĠiTunes": 3787,
    "Ġinsulting": 3788,
    "aca": 3789,
    "lf": 3790,
    "Ġworms": 3791,
    "Ġeducating": 3792,
    "closed": 3793,
    "oot": 3794,
    "Ġn": 3795,
    "Ġst": 3796,
    "Ġdiffere": 3797,
    "ĠCrit": 3798,
    "ĠECB": 3799,
    "Ġmagn": 3800,
    "Ġsessions": 3801,
    "eping": 3802,
    "Ġdeeply": 3803,
    "Ġfixing": 3804,
    "ĠWS": 3805,
    "ĠFe": 3806,
    "Ġwidget": 3807,
    "Ġweird": 3808,
    "Ġstrive": 3809,
    "Ġcoherent": 3810,
    "vey": 3811,
    "Ġholders": 3812,
    "Ġanalytics": 3813,
    "Ġadvancing": 3814,
    "Ġdisl": 3815,
    "Ġcrap": 3816,
    "Äį": 3817,
    "running": 3818,
    "Ġtissue": 3819,
    "ĠSochi": 3820,
    "Ġlamp": 3821,
    "ĠGuate": 3822,
    "ĠIng": 3823,
    "alone": 3824,
    "Ġbranch": 3825,
    "Ġ131": 3826,
    "Ġratios": 3827,
    "ĠDocker": 3828,
    "essa": 3829,
    "aving": 3830,
    "Ġenjoyment": 3831,
    "ARD": 3832,
    "CL": 3833,
    "ĠTerms": 3834,
    "Ġnecessarily": 3835,
    "Ġbreeds": 3836,
    "ĠLuck": 3837,
    ".*": 3838,
    "Ari": 3839,
    "Ġrespect": 3840,
    "ĠCentral": 3841,
    "ESS": 3842,
    "ĠMichele": 3843,
    "ost": 3844,
    "Ġreasonable": 3845,
    "ĠGrim": 3846,
    "ĠFlores": 3847,
    "Ġpuls": 3848,
    "ĠCE": 3849,
    "Ġsurprising": 3850,
    "ĠUSSR": 3851,
    "Ġprom": 3852,
    "Ġpreviously": 3853,
    "urst": 3854,
    "ĠWalsh": 3855,
    "Ġspouse": 3856,
    "ways": 3857,
    "orum": 3858,
    "Ġcomrades": 3859,
    "ĠJackie": 3860,
    "Alan": 3861,
    "green": 3862,
    "ĠVenezuelan": 3863,
    "Ġbattery": 3864,
    "ĠBucks": 3865,
    "AW": 3866,
    "ORE": 3867,
    "ournament": 3868,
    "Ġbudget": 3869,
    "ĠCe": 3870,
    "NG": 3871,
    "Ì": 3872,
    "ĠMarines": 3873,
    "Ġkilling": 3874,
    "Ġcorps": 3875,
    "Ġconditional": 3876,
    "ĠTrend": 3877,
    "Ġrelation": 3878,
    "ĠMed": 3879,
    "Ġben": 3880,
    "Ġpools": 3881,
    "artment": 3882,
    "Ġsystematic": 3883,
    "Ġconfession": 3884,
    "rians": 3885,
    "Ġspicy": 3886,
    "Ġguessed": 3887,
    "ĠPin": 3888,
    "Ġgr": 3889,
    "Ġlingu": 3890,
    "Ġ1970": 3891,
    "ĠBulgar": 3892,
    "Ġdistinctive": 3893,
    "Ġbump": 3894,
    "Ġemissions": 3895,
    "ĠRider": 3896,
    "ĠKy": 3897,
    "ĠRiot": 3898,
    "Ġtrainer": 3899,
    "Ġminority": 3900,
    "Inside": 3901,
    "ĠHeroes": 3902,
    "issa": 3903,
    "Ġbacter": 3904,
    "Ġpairing": 3905,
    "ĠBug": 3906,
    "iola": 3907,
    "Ġwelf": 3908,
    "ĠHan": 3909,
    "ĠPDT": 3910,
    "ĠTrue": 3911,
    "ĠBitcoin": 3912,
    "ĠCrimea": 3913,
    "Ġskins": 3914,
    "ione": 3915,
    "Ġfronts": 3916,
    "ĠMilwaukee": 3917,
    "ĠHQ": 3918,
    "Ġmill": 3919,
    "Ġpundits": 3920,
    "Ġleaks": 3921,
    "ange": 3922,
    "Ġpioneer": 3923,
    "Seven": 3924,
    "ĠWalter": 3925,
    "Ġintro": 3926,
    "Ġstop": 3927,
    "ĠÑģ": 3928,
    "Ġsinister": 3929,
    "ifer": 3930,
    "ĠElliott": 3931,
    "ĠLeo": 3932,
    "ĠElon": 3933,
    "Review": 3934,
    "Ġtram": 3935,
    "Semitic": 3936,
    "Ġobs": 3937,
    "ĠAchie": 3938,
    "ition": 3939,
    "Ġcompe": 3940,
    "cester": 3941,
    "Ġhorizontal": 3942,
    "Ġsurrender": 3943,
    "ĠTesting": 3944,
    "cribed": 3945,
    "ĠAndy": 3946,
    "Ġpursuit": 3947,
    "1994": 3948,
    "ĠWiki": 3949,
    "Ġwanting": 3950,
    "ĠMac": 3951,
    "Ġvariations": 3952,
    "ĠNate": 3953,
    "ĠAv": 3954,
    "isk": 3955,
    "Ġcollect": 3956,
    "Ġfinalized": 3957,
    "ĠCran": 3958,
    "ithe": 3959,
    "Ġadding": 3960,
    "ĠOnline": 3961,
    "abetes": 3962,
    "Te": 3963,
    "alys": 3964,
    "Ġproportion": 3965,
    "uterte": 3966,
    "GF": 3967,
    "ĠRivera": 3968,
    "Ġbenchmarks": 3969,
    "des": 3970,
    "Ġhp": 3971,
    "lications": 3972,
    "ĠGE": 3973,
    "Ġsever": 3974,
    "Ġtackles": 3975,
    "inke": 3976,
    "Ġcertificates": 3977,
    "riages": 3978,
    "President": 3979,
    "Ġregistered": 3980,
    "Ġmocking": 3981,
    "Ġsacrifice": 3982,
    "Total": 3983,
    "Ġcounselor": 3984,
    "assadors": 3985,
    "ying": 3986,
    "Ġwilling": 3987,
    "con": 3988,
    "erem": 3989,
    "ĠGroups": 3990,
    "Ġproprietary": 3991,
    "Ġconnect": 3992,
    "mercial": 3993,
    "ĠParliament": 3994,
    "IM": 3995,
    "ĠLoc": 3996,
    "Ġculp": 3997,
    "Ġrack": 3998,
    "Ġdonate": 3999,
    "andi": 4000,
    "CS": 4001,
    "Ġmisses": 4002,
    "Ġdean": 4003,
    "Ġwild": 4004,
    "ĠNokia": 4005,
    "ction": 4006,
    "net": 4007,
    "Ġsketch": 4008,
    "Ġregion": 4009,
    "ĠBoulder": 4010,
    "ĠCommons": 4011,
    "PD": 4012,
    "Ġcanon": 4013,
    "Ġconfigure": 4014,
    "Ġsided": 4015,
    "agine": 4016,
    "pl": 4017,
    "ĠHat": 4018,
    "ĠShop": 4019,
    "tri": 4020,
    "olog": 4021,
    "Ġwebsite": 4022,
    "Nick": 4023,
    "Ġnotices": 4024,
    "Fun": 4025,
    "Ġrespected": 4026,
    "Ġet": 4027,
    "Ġhorror": 4028,
    "ĠID": 4029,
    "ĠHom": 4030,
    "west": 4031,
    "ier": 4032,
    "Ġanimated": 4033,
    "Ġdid": 4034,
    "etti": 4035,
    "Hay": 4036,
    "asant": 4037,
    "ĠML": 4038,
    "ĠGreek": 4039,
    "Fact": 4040,
    "ĠDw": 4041,
    "Ġrepresentations": 4042,
    "ĠDEC": 4043,
    "icians": 4044,
    "Ġstaying": 4045,
    "Ġaccountable": 4046,
    "ĠGabriel": 4047,
    "Drive": 4048,
    "Ġshopping": 4049,
    "Ġattract": 4050,
    "ĠAuthor": 4051,
    "',": 4052,
    "ĠRockets": 4053,
    "Ġsurgical": 4054,
    "Ġlatest": 4055,
    "Ġimpulse": 4056,
    "Ġmathem": 4057,
    "Ġprotein": 4058,
    "rists": 4059,
    "Ġ205": 4060,
    "Øª": 4061,
    "Ġconco": 4062,
    "Ġlicense": 4063,
    "INE": 4064,
    "ĠDeveloper": 4065,
    "Ġbrief": 4066,
    "onic": 4067,
    "Daniel": 4068,
    "lear": 4069,
    "ĠSans": 4070,
    "Ġpirates": 4071,
    "ĠPrince": 4072,
    "UCK": 4073,
    "Ġunveiling": 4074,
    "Ġlisteners": 4075,
    "Ġcoercion": 4076,
    "ĠSD": 4077,
    "adi": 4078,
    "Ġgreenhouse": 4079,
    "elf": 4080,
    "Ġbasically": 4081,
    "Ġplea": 4082,
    "Ġquickly": 4083,
    "ĠMcCain": 4084,
    "Have": 4085,
    "Ġhowever": 4086,
    "ronics": 4087,
    "ĠJustin": 4088,
    "U": 4089,
    "Ġcompensate": 4090,
    "ĠSty": 4091,
    "ĠWales": 4092,
    "ANC": 4093,
    "aucus": 4094,
    "ĠTODAY": 4095,
    "ĠRaiders": 4096,
    "ĠPvP": 4097,
    "UG": 4098,
    "ĠWebster": 4099,
    "ę": 4100,
    "ĠLiberty": 4101,
    "jpg": 4102,
    "dan": 4103,
    "Ãº": 4104,
    "ĠBates": 4105,
    "Ġembarked": 4106,
    "ĠERA": 4107,
    "Ġparach": 4108,
    "ãĤ¤": 4109,
    "Ġstudies": 4110,
    "Ġpredators": 4111,
    "Ġcommerce": 4112,
    "Ġdeficit": 4113,
    "ãģĭ": 4114,
    "Ġoun": 4115,
    "ĠMaybe": 4116,
    "coins": 4117,
    "Ġtemporal": 4118,
    "GP": 4119,
    "Ġmeetings": 4120,
    "Ġactions": 4121,
    "Ġunleash": 4122,
    "Ġmuscles": 4123,
    "rugged": 4124,
    "ĠGen": 4125,
    "Ġhindsight": 4126,
    "Ġmortgage": 4127,
    "current": 4128,
    "Ġdebris": 4129,
    "Ġgunmen": 4130,
    "rule": 4131,
    "Ġuncovered": 4132,
    "Ġchlor": 4133,
    "ĠElectric": 4134,
    "amboo": 4135,
    "Ġworker": 4136,
    "Ġactivate": 4137,
    "no": 4138,
    "indal": 4139,
    "Ġdirective": 4140,
    "Ġstopped": 4141,
    "ĠHarry": 4142,
    "Stand": 4143,
    "Ġchoose": 4144,
    "ĠÐ·": 4145,
    "î": 4146,
    "JS": 4147,
    "ĠBronx": 4148,
    "Ġcurtain": 4149,
    "ĠTC": 4150,
    "if": 4151,
    "ĠSaudis": 4152,
    "Ġconver": 4153,
    "Ġchaos": 4154,
    "ĠHague": 4155,
    "ific": 4156,
    "Ġovernight": 4157,
    "ĠHand": 4158,
    "ĠMarkets": 4159,
    "Ġstr": 4160,
    "Ġcleaner": 4161,
    "ĠHay": 4162,
    "ĠJal": 4163,
    "lymp": 4164,
    "ĠList": 4165,
    "ĠChavez": 4166,
    "Ġpeasants": 4167,
    "Ġmagazines": 4168,
    "ĠRevel": 4169,
    "ĠEqu": 4170,
    "Jim": 4171,
    "ĠChris": 4172,
    "Previous": 4173,
    "Ġhighlight": 4174,
    "ĠCowboys": 4175,
    "ecd": 4176,
    "Ġgraphs": 4177,
    "ĠHayden": 4178,
    "urg": 4179,
    "ĠDu": 4180,
    "Ð»Ð°": 4181,
    "bul": 4182,
    "OK": 4183,
    "Ġdebut": 4184,
    "ĠBrexit": 4185,
    "onen": 4186,
    "gov": 4187,
    "ORD": 4188,
    "Ġjournals": 4189,
    "Ġoppressed": 4190,
    "ĠWI": 4191,
    "Ġfails": 4192,
    "comed": 4193,
    "ethe": 4194,
    "Ġen": 4195,
    "lot": 4196,
    "orough": 4197,
    "Ġtangible": 4198,
    "Ġchron": 4199,
    "ĠTED": 4200,
    "Ġimaging": 4201,
    "Journal": 4202,
    "ĠProtection": 4203,
    "Ġlung": 4204,
    "Ġdisciplinary": 4205,
    "Ġs": 4206,
    "Ġdrum": 4207,
    "Ġreacts": 4208,
    "ĠNULL": 4209,
    "ĠSebast": 4210,
    "NET": 4211,
    "ĠTouch": 4212,
    "Ġtrips": 4213,
    "Ġtransit": 4214,
    "ati": 4215,
    "itious": 4216,
    "Ġrevolutionary": 4217,
    "oman": 4218,
    "Ġeruption": 4219,
    "Ġflawed": 4220,
    "Ć": 4221,
    "ĠLuna": 4222,
    "Ġlawsuits": 4223,
    "Ġplunged": 4224,
    "Ġconditions": 4225,
    "ĠGuinness": 4226,
    "Ġtradem": 4227,
    "Ġbillionaires": 4228,
    "ĠEthics": 4229,
    "Ġlions": 4230,
    "ĠAward": 4231,
    "Ġproductivity": 4232,
    "Ġalgorithm": 4233,
    "ĠSex": 4234,
    "Ġguess": 4235,
    "Ġscrolling": 4236,
    "ul": 4237,
    "ĠStones": 4238,
    "Ùĩ": 4239,
    "Ġdazz": 4240,
    "tain": 4241,
    "Ġpushed": 4242,
    "Ġsad": 4243,
    "Ġ?": 4244,
    "shoot": 4245,
    "Authorities": 4246,
    "Ġjerseys": 4247,
    "Ġlust": 4248,
    "Ġbetray": 4249,
    "aks": 4250,
    "Ġindepend": 4251,
    "Personal": 4252,
    "orer": 4253,
    "Ġrealized": 4254,
    "Ġpatch": 4255,
    "ĠAustin": 4256,
    "Ġwife": 4257,
    "ĠNato": 4258,
    "Ġbridge": 4259,
    "lash": 4260,
    "most": 4261,
    "Ġcutting": 4262,
    "Ġcontainers": 4263,
    "ĠGund": 4264,
    "Ġarson": 4265,
    "ĠAbrams": 4266,
    "Ġfut": 4267,
    "Ġcondol": 4268,
    "ĠArms": 4269,
    "ries": 4270,
    "ploy": 4271,
    "ka": 4272,
    "Ġ2011": 4273,
    "ĠÎ²": 4274,
    "Ġcomput": 4275,
    "lat": 4276,
    "Ġdistressed": 4277,
    "ĠKas": 4278,
    "Ġtissues": 4279,
    "ĠTact": 4280,
    "Ġmaintained": 4281,
    "wart": 4282,
    "Ġsupermarket": 4283,
    "Ġadministrator": 4284,
    "ĠHog": 4285,
    "Ġ650": 4286,
    "erer": 4287,
    "Ġthugs": 4288,
    "oded": 4289,
    "ĠItal": 4290,
    "Ġisn": 4291,
    "Ġhug": 4292,
    "Ġdiligence": 4293,
    "Ġfarewell": 4294,
    "ĠMans": 4295,
    "elaide": 4296,
    "Ġ\\(": 4297,
    "ĠGlen": 4298,
    "255": 4299,
    "ative": 4300,
    "Ġ44": 4301,
    "Ġrealities": 4302,
    "Ġmisled": 4303,
    "atable": 4304,
    "Ġprohibiting": 4305,
    "alis": 4306,
    "Ġbody": 4307,
    "Ġmelted": 4308,
    "Ġfixture": 4309,
    "ĠCON": 4310,
    "Ġpacket": 4311,
    "Ġbreaking": 4312,
    "ĠRB": 4313,
    "ĠLE": 4314,
    "142": 4315,
    "ĠSchedule": 4316,
    "olf": 4317,
    "Ġnavy": 4318,
    "Ġdonation": 4319,
    "Ġing": 4320,
    "ainted": 4321,
    "Daily": 4322,
    "ard": 4323,
    "Su": 4324,
    "af": 4325,
    "Ġ1993": 4326,
    "fashioned": 4327,
    "Ġbesie": 4328,
    "Ġcoord": 4329,
    "Turn": 4330,
    "Ġnumbered": 4331,
    "Ġpuzz": 4332,
    "Ġfertility": 4333,
    "ĠEST": 4334,
    "Ġcomfortable": 4335,
    "ĠRams": 4336,
    "Ġjustify": 4337,
    "ĠFramework": 4338,
    "ĠYas": 4339,
    "Ġclin": 4340,
    "Äģ": 4341,
    "Ġproceeded": 4342,
    "med": 4343,
    "Ġunfairly": 4344,
    "Ġpurple": 4345,
    "ĠStewart": 4346,
    "ĠSel": 4347,
    "ĠHeaven": 4348,
    "Element": 4349,
    "Ġreflects": 4350,
    "dream": 4351,
    "Ġsurrounding": 4352,
    "ĠFort": 4353,
    "Thanks": 4354,
    "Ġcumulative": 4355,
    "Mart": 4356,
    "urities": 4357,
    "ancy": 4358,
    "Ġforces": 4359,
    "ĠDaddy": 4360,
    "Ġasserted": 4361,
    "Ġoutput": 4362,
    "got": 4363,
    "][": 4364,
    "Ġaided": 4365,
    "Ġstern": 4366,
    "ĠAdv": 4367,
    "ĠArizona": 4368,
    "ĠSociety": 4369,
    "Ġsusp": 4370,
    "29": 4371,
    "Ġmo": 4372,
    "Ġrankings": 4373,
    "Ġble": 4374,
    "Ġapartheid": 4375,
    "ĠSCP": 4376,
    "ification": 4377,
    "Ġbout": 4378,
    "Ġshifting": 4379,
    "EP": 4380,
    "ai": 4381,
    "Ġnevertheless": 4382,
    "Ġslogan": 4383,
    "ĠThere": 4384,
    "cular": 4385,
    "ĠMalaysian": 4386,
    "Ġstress": 4387,
    ">>>>": 4388,
    "Ġnickname": 4389,
    "itute": 4390,
    "soc": 4391,
    "Ġot": 4392,
    "Ġvirt": 4393,
    "Ġbeer": 4394,
    "Following": 4395,
    "Ġborrowers": 4396,
    "Ġroyal": 4397,
    "irming": 4398,
    "Ġadvances": 4399,
    "ĠWILL": 4400,
    "ĠBMW": 4401,
    "achusetts": 4402,
    "Ġmotorcy": 4403,
    "compl": 4404,
    "Occ": 4405,
    "ĠNatalie": 4406,
    "Article": 4407,
    "==": 4408,
    "ĠMuslim": 4409,
    "Ġserver": 4410,
    "REE": 4411,
    "Ġly": 4412,
    "ĠRand": 4413,
    "Ġvulnerability": 4414,
    "acon": 4415,
    "ĠPresidential": 4416,
    "ĠArabs": 4417,
    "Ã¨re": 4418,
    "Ġintend": 4419,
    "Ġextension": 4420,
    "date": 4421,
    "rets": 4422,
    "Ġvolcan": 4423,
    "Ġmanages": 4424,
    "Ġthanks": 4425,
    "Ġ'": 4426,
    "Ġlow": 4427,
    "Ġpartnered": 4428,
    "option": 4429,
    "Ġresponsive": 4430,
    "Ġqualify": 4431,
    "Ġdisgrace": 4432,
    "ĠReturn": 4433,
    "ĠMcC": 4434,
    "ĠCongressional": 4435,
    "Ġtransparent": 4436,
    "Ġpossible": 4437,
    "ĠCopyright": 4438,
    "did": 4439,
    "Ġemerges": 4440,
    "ĠVen": 4441,
    "Ġassessments": 4442,
    "ines": 4443,
    "Ġeligible": 4444,
    "Ġleaked": 4445,
    "Ġattracts": 4446,
    "ĠWeiss": 4447,
    "ĠJavascript": 4448,
    "Ġchall": 4449,
    "Ġadamant": 4450,
    "Ġslee": 4451,
    "Ġpup": 4452,
    "Hit": 4453,
    "Ġcomputer": 4454,
    "ilit": 4455,
    "Ġleaving": 4456,
    "Ġdiscovers": 4457,
    "urable": 4458,
    "Ġswamp": 4459,
    "Ġamendment": 4460,
    "Ġmapping": 4461,
    "Bernie": 4462,
    "ink": 4463,
    "Ġcrimin": 4464,
    "yll": 4465,
    "Ġsupposed": 4466,
    "Ġdopamine": 4467,
    "Ġdrowned": 4468,
    "Ġop": 4469,
    "Coin": 4470,
    "REL": 4471,
    "-": 4472,
    "Ġinadequ": 4473,
    "shadow": 4474,
    "ĠLatinos": 4475,
    "Ġroot": 4476,
    "perm": 4477,
    "Ġmemories": 4478,
    "Ġamount": 4479,
    "Ġ320": 4480,
    "Ġalliances": 4481,
    "rington": 4482,
    "Ġentity": 4483,
    "Ġsomeone": 4484,
    "ĠRolling": 4485,
    "Ġcolonial": 4486,
    "ouns": 4487,
    "Ġswitching": 4488,
    "Ġcandle": 4489,
    "Ġregions": 4490,
    "irl": 4491,
    "ĠPath": 4492,
    "Ġsucceeds": 4493,
    "Ġexpenditures": 4494,
    "Ġcous": 4495,
    "Getting": 4496,
    "ĠCor": 4497,
    "Ġweaker": 4498,
    "Ġfunc": 4499,
    "Ġoutskirts": 4500,
    "isl": 4501,
    "Ġgather": 4502,
    "Ġscale": 4503,
    "Ġlonely": 4504,
    "ĠLam": 4505,
    "ĠRight": 4506,
    "Ġresponsibility": 4507,
    "ĠSpace": 4508,
    "arma": 4509,
    "angling": 4510,
    "Ġreckless": 4511,
    "Ġsomewhat": 4512,
    "Ġensl": 4513,
    "ĠKlan": 4514,
    "ĠCly": 4515,
    "Ġfats": 4516,
    "Ġupdates": 4517,
    "Ġrenewables": 4518,
    "cano": 4519,
    "Ġupdating": 4520,
    "Ġbranches": 4521,
    "Ġno": 4522,
    "Ġeverything": 4523,
    "Ġassembly": 4524,
    "jamin": 4525,
    "reshold": 4526,
    "ĠMUST": 4527,
    "Ġdepression": 4528,
    "Ġboiled": 4529,
    "ĠJill": 4530,
    "ĠMediterranean": 4531,
    "Ġpriorities": 4532,
    "onymous": 4533,
    "IND": 4534,
    "rating": 4535,
    "when": 4536,
    "ursion": 4537,
    "ĠCohen": 4538,
    "Ġsoundtrack": 4539,
    "Ġencourages": 4540,
    "ĠTap": 4541,
    "Ġ109": 4542,
    "Ġcostly": 4543,
    "rod": 4544,
    "Ġtrees": 4545,
    "ause": 4546,
    "Ġsaga": 4547,
    "inel": 4548,
    "Ġeight": 4549,
    "Ġstructured": 4550,
    "audi": 4551,
    "Ġprevailed": 4552,
    "ĠMatch": 4553,
    "shire": 4554,
    "Ġcooperative": 4555,
    "witzer": 4556,
    "Ġer": 4557,
    "Writ": 4558,
    "ahoo": 4559,
    "ĠBros": 4560,
    "Ġ1948": 4561,
    "ĠInvestigation": 4562,
    "Ġconscience": 4563,
    "Ġaut": 4564,
    "Ġbits": 4565,
    "Ġembargo": 4566,
    "yer": 4567,
    "Ġfox": 4568,
    "annah": 4569,
    "Ġmercy": 4570,
    "ĠSharia": 4571,
    "erve": 4572,
    "oppable": 4573,
    "Ġwooden": 4574,
    "oi": 4575,
    "kill": 4576,
    "Ġmarch": 4577,
    "Ġschol": 4578,
    "aki": 4579,
    "ric": 4580,
    "Ġexempl": 4581,
    "Ġcomfort": 4582,
    "Ġenem": 4583,
    "Ġawaiting": 4584,
    "Ġredd": 4585,
    "Ġpersecut": 4586,
    "Ġslid": 4587,
    "ĠQuestions": 4588,
    "Book": 4589,
    "ĠMajority": 4590,
    "Ġjudgment": 4591,
    "Ġdomains": 4592,
    "Congress": 4593,
    "Ġgrap": 4594,
    "Ġfluctuations": 4595,
    "Ġinability": 4596,
    "Ġintrigued": 4597,
    "Ġguaranteed": 4598,
    "osterone": 4599,
    "Ġnoticeable": 4600,
    "ĠEuropa": 4601,
    "ĠSanta": 4602,
    "Ġdefer": 4603,
    "ĠVin": 4604,
    "ĠBoehner": 4605,
    "Ġwizard": 4606,
    "Ġconsolidate": 4607,
    "Ġintrodu": 4608,
    "Ġ42": 4609,
    "ĠMade": 4610,
    "Ġpamph": 4611,
    "Ġforms": 4612,
    "ĠFa": 4613,
    "ĠHerman": 4614,
    "aved": 4615,
    "ĠChamber": 4616,
    "ĠLub": 4617,
    "ĠFood": 4618,
    "Mom": 4619,
    "Ġtelephone": 4620,
    "ĠCommunist": 4621,
    "ĠSixth": 4622,
    "Ġexploring": 4623,
    "ĠUr": 4624,
    "Ġcooper": 4625,
    "Ġpink": 4626,
    "illo": 4627,
    "Ġsou": 4628,
    "Ġcasually": 4629,
    "Ġobey": 4630,
    "ĠBasketball": 4631,
    "Ġjudgments": 4632,
    "itarian": 4633,
    "Ġmobile": 4634,
    "ĠLamp": 4635,
    "ĠRen": 4636,
    "Ġfrust": 4637,
    "Ġdefects": 4638,
    "Ġoccasion": 4639,
    "Ġwines": 4640,
    "ĠPik": 4641,
    "ĠGra": 4642,
    "as": 4643,
    "ĠUC": 4644,
    "Ġcance": 4645,
    "Ġaddictive": 4646,
    "asers": 4647,
    "Ġtal": 4648,
    "Ġaffiliates": 4649,
    "ross": 4650,
    "Fl": 4651,
    "DA": 4652,
    "į": 4653,
    "sil": 4654,
    "Ġabuses": 4655,
    "Ġplace": 4656,
    "ritz": 4657,
    "ĠMillion": 4658,
    "Ġpoll": 4659,
    "Ġpinned": 4660,
    "Ġdiff": 4661,
    "tarians": 4662,
    "Ġimpe": 4663,
    "otta": 4664,
    "Ġrefres": 4665,
    "ĠLucas": 4666,
    "ĠTrial": 4667,
    "Õ": 4668,
    "ĠValencia": 4669,
    "Ġroutines": 4670,
    "Ġfracking": 4671,
    "Ġdominates": 4672,
    "Ġmosquit": 4673,
    "Ġsuff": 4674,
    "inding": 4675,
    "Ġbitcoins": 4676,
    "eval": 4677,
    "Ġw": 4678,
    "ĠMoney": 4679,
    "ą": 4680,
    "Ġadventure": 4681,
    "efeated": 4682,
    "Ġoct": 4683,
    "Ġunaff": 4684,
    "Ġconven": 4685,
    "Ġfollowing": 4686,
    "Russ": 4687,
    "Ġ]": 4688,
    "Ġinnovative": 4689,
    "olo": 4690,
    "Ġpackages": 4691,
    "Ġ1500": 4692,
    "Ġderiv": 4693,
    "Ġwebsites": 4694,
    "ardon": 4695,
    "ĠREUTERS": 4696,
    "LAND": 4697,
    "Ġgoof": 4698,
    "aney": 4699,
    "rez": 4700,
    "Ġpersistence": 4701,
    "Ġkicking": 4702,
    "Since": 4703,
    "Ġpurs": 4704,
    "Ġhon": 4705,
    "Ġ1984": 4706,
    "ĠIR": 4707,
    "Ġwh": 4708,
    "Ġgrand": 4709,
    "Ġworthy": 4710,
    "Ġtermin": 4711,
    "Ġtreason": 4712,
    "eches": 4713,
    "ĠUnion": 4714,
    "Ġhassle": 4715,
    "Ġcollaborators": 4716,
    "Ġhappiness": 4717,
    "Ġeditions": 4718,
    "Ġleaves": 4719,
    "ĠNASA": 4720,
    "izophren": 4721,
    "ĠAway": 4722,
    "Ġcorro": 4723,
    "Ġpulls": 4724,
    "ĠFunction": 4725,
    "Mic": 4726,
    "false": 4727,
    "ĠJohnston": 4728,
    "ĠØ": 4729,
    "ĠOs": 4730,
    "Rel": 4731,
    "Ġhilar": 4732,
    "Ġstudying": 4733,
    "Ġpunitive": 4734,
    "Ġfetch": 4735,
    "ĠScalia": 4736,
    "ĠInn": 4737,
    "Ġwax": 4738,
    "growth": 4739,
    "Ġtar": 4740,
    "Ġherb": 4741,
    "ĠDash": 4742,
    "arity": 4743,
    "Main": 4744,
    "ĠArea": 4745,
    "Ġgran": 4746,
    "Ġber": 4747,
    "Ġsubway": 4748,
    "Ġstumble": 4749,
    "Ġfreaking": 4750,
    "lig": 4751,
    "ĠAssange": 4752,
    "planned": 4753,
    "Age": 4754,
    "ilitation": 4755,
    "discipl": 4756,
    "Ġtotally": 4757,
    "aned": 4758,
    "ĠNW": 4759,
    "Ġrevised": 4760,
    "roads": 4761,
    "ounter": 4762,
    "Ġauthorize": 4763,
    "Ġapartment": 4764,
    "Ġjournalism": 4765,
    "Ġtimed": 4766,
    "Ġprincip": 4767,
    "Ġinteractive": 4768,
    "Ãĥ": 4769,
    "imeters": 4770,
    "Matt": 4771,
    "Ġstrength": 4772,
    "epernick": 4773,
    "Ġchant": 4774,
    "Ġscientist": 4775,
    "Ġshapes": 4776,
    "ĠGeneva": 4777,
    "Ġampl": 4778,
    "ARK": 4779,
    "ued": 4780,
    "onge": 4781,
    "Ġvibr": 4782,
    "Ġcommun": 4783,
    ".": 4784,
    "cl": 4785,
    "Ġautistic": 4786,
    "Ġfellow": 4787,
    "auth": 4788,
    "Ter": 4789,
    "ĠSinai": 4790,
    "ĠGiul": 4791,
    "Information": 4792,
    "hero": 4793,
    "Ġate": 4794,
    "ĠChristina": 4795,
    "ĠImmigration": 4796,
    "Ġtherap": 4797,
    "Ïģ": 4798,
    "Creat": 4799,
    "ĠBuck": 4800,
    "Ġhost": 4801,
    "Ġdiscard": 4802,
    "Ġpublicity": 4803,
    "Ġpledges": 4804,
    "Ġhappily": 4805,
    "ĠTalking": 4806,
    "ĠGun": 4807,
    "ĠFlorence": 4808,
    "ĠProgress": 4809,
    "Ġpubl": 4810,
    "ĠForeign": 4811,
    "lifting": 4812,
    "ĠPor": 4813,
    "Ġpecul": 4814,
    "Ġpoisoned": 4815,
    "Ġtechnician": 4816,
    "Ġathe": 4817,
    "Ġvictorious": 4818,
    "izable": 4819,
    "Ġpropos": 4820,
    "Ġrecognizes": 4821,
    "Ġlanding": 4822,
    "ĠMut": 4823,
    "Ġexplaining": 4824,
    "Ġ1917": 4825,
    "Ġpills": 4826,
    "uddy": 4827,
    "Ġpenal": 4828,
    "Ġseaw": 4829,
    "iment": 4830,
    "ĠPhysics": 4831,
    "Ġcollateral": 4832,
    "Ġsupremacist": 4833,
    "ĠCFL": 4834,
    "ĠColombia": 4835,
    "vals": 4836,
    "Ġpossessions": 4837,
    "Ġwrote": 4838,
    "total": 4839,
    "..........": 4840,
    "Ġinitiative": 4841,
    "Ġbargain": 4842,
    "ĠWOR": 4843,
    "onal": 4844,
    "sis": 4845,
    "?\"": 4846,
    "Ġenrich": 4847,
    "Ġharsh": 4848,
    "king": 4849,
    "Money": 4850,
    "Ġconceptual": 4851,
    "Ġdemise": 4852,
    "Ġrecovered": 4853,
    "ĠIan": 4854,
    "rophe": 4855,
    "ĠFab": 4856,
    "Ġdeny": 4857,
    "brance": 4858,
    "ĠSUV": 4859,
    "ĠSpain": 4860,
    "rov": 4861,
    "Ġarr": 4862,
    "Ġtowel": 4863,
    "ĠIssue": 4864,
    "Ġfraud": 4865,
    "played": 4866,
    "sic": 4867,
    "Ġconsisting": 4868,
    "ĠCalif": 4869,
    "Ġcivilians": 4870,
    "Ġpreliminary": 4871,
    "Ġother": 4872,
    "ĠSnow": 4873,
    "ĠLocation": 4874,
    "Gi": 4875,
    "alle": 4876,
    "ĠGPUs": 4877,
    "ĠFilip": 4878,
    "Ġturbo": 4879,
    "Ġfresh": 4880,
    "afi": 4881,
    "Ġphenomenon": 4882,
    "Ġconcept": 4883,
    "Ġsqueezed": 4884,
    "Ġmainland": 4885,
    "Ġpainful": 4886,
    "hem": 4887,
    "ĠReady": 4888,
    "ĠWard": 4889,
    "Ġexit": 4890,
    "id": 4891,
    "+,": 4892,
    "ĠClose": 4893,
    "USD": 4894,
    "bands": 4895,
    "HH": 4896,
    "ĠSalvador": 4897,
    "Ġpi": 4898,
    "Ġjournal": 4899,
    "je": 4900,
    "ĠRam": 4901,
    "ĠPartnership": 4902,
    "Ġbunk": 4903,
    "au": 4904,
    "ĠLindsay": 4905,
    "Thread": 4906,
    "Ġcouncill": 4907,
    "Ġcompiling": 4908,
    "ĠExaminer": 4909,
    "),âĢĿ": 4910,
    "ĠVictoria": 4911,
    "Ġblasted": 4912,
    "Ġmobility": 4913,
    "apture": 4914,
    "ĠOd": 4915,
    "Ġbooked": 4916,
    "Ġenv": 4917,
    "Officers": 4918,
    "Enjoy": 4919,
    "Ġskilled": 4920,
    "ĠDivine": 4921,
    "Ġdwarf": 4922,
    "eps": 4923,
    "Ġmystery": 4924,
    "Ġencro": 4925,
    "formers": 4926,
    "ĠEmpire": 4927,
    "Ġhence": 4928,
    "Ġthereby": 4929,
    "Ġvis": 4930,
    "Ġeconomics": 4931,
    "pat": 4932,
    "Ġslogans": 4933,
    "ĠQaeda": 4934,
    "ĠElliot": 4935,
    "Ġreactor": 4936,
    "ĠLiga": 4937,
    "Åį": 4938,
    "Ġdictators": 4939,
    "Ġsli": 4940,
    "ĠSail": 4941,
    "Ġimpacted": 4942,
    "Ġstressful": 4943,
    "Ġput": 4944,
    "ido": 4945,
    "atsu": 4946,
    "ĠDemp": 4947,
    "asonable": 4948,
    "Ġfacebook": 4949,
    "Ġdare": 4950,
    "Ġhandler": 4951,
    "ĠSprings": 4952,
    "Ġprank": 4953,
    "Ġpatriarch": 4954,
    "Ġcm": 4955,
    "J": 4956,
    "ĠPerman": 4957,
    "ĠGiuliani": 4958,
    "Ġfirm": 4959,
    "Ġunmanned": 4960,
    "Ġdisproportion": 4961,
    "Ġamongst": 4962,
    "Ġapples": 4963,
    "Ġrevisions": 4964,
    "fund": 4965,
    "deep": 4966,
    "journal": 4967,
    "Ġsanctions": 4968,
    "ĠHelen": 4969,
    "Ġviewer": 4970,
    "Ġstartling": 4971,
    "Ġlapt": 4972,
    "Ġrepeating": 4973,
    "ĠHist": 4974,
    "Ġeighth": 4975,
    "ĠWA": 4976,
    "fed": 4977,
    "omination": 4978,
    "ACA": 4979,
    "Ġselecting": 4980,
    "afia": 4981,
    "acity": 4982,
    "ves": 4983,
    "fitting": 4984,
    "Ġforming": 4985,
    "Remember": 4986,
    "ĠRat": 4987,
    "Ġperipheral": 4988,
    "ĠSha": 4989,
    "Ly": 4990,
    "Ġguts": 4991,
    "ĠPhillips": 4992,
    "Ġclassic": 4993,
    "ĠAllow": 4994,
    "Ġprotester": 4995,
    "SE": 4996,
    "Ã©s": 4997,
    "stakes": 4998,
    "Ġbri": 4999,
    "Ġconstitutional": 5000,
    "ĠHoly": 5001,
    "âĺħ": 5002,
    "Ġdelt": 5003,
    "Ġnewspapers": 5004,
    "Ġresurg": 5005,
    "¿": 5006,
    "AGE": 5007,
    "ĠQu": 5008,
    "raf": 5009,
    "ĠQuint": 5010,
    "Ā": 5011,
    "($": 5012,
    "ird": 5013,
    "eight": 5014,
    "Ġimagined": 5015,
    "Ġconducted": 5016,
    "Ġfees": 5017,
    "ĠDucks": 5018,
    "ĠKim": 5019,
    "ĠEld": 5020,
    "Ġgathered": 5021,
    "Ġparallels": 5022,
    "Ġ32": 5023,
    "Ġspared": 5024,
    "Ġallied": 5025,
    "ĠOrganisation": 5026,
    "ĠDACA": 5027,
    "Ġmail": 5028,
    "¤": 5029,
    "Ġsodium": 5030,
    "ĠBudd": 5031,
    "IO": 5032,
    "out": 5033,
    "anie": 5034,
    "Ġreck": 5035,
    "Chicago": 5036,
    "ĠDoug": 5037,
    "1993": 5038,
    "ĠGret": 5039,
    "ĠVenezuel": 5040,
    "ĠSherman": 5041,
    "Ġincarcerated": 5042,
    "ĠSelf": 5043,
    "ride": 5044,
    "Ġrevival": 5045,
    "Ġjuven": 5046,
    "ĠCome": 5047,
    "Ġdrawings": 5048,
    "Ġexacerbated": 5049,
    "nergy": 5050,
    "ĠFl": 5051,
    "ĠTripoli": 5052,
    "Ġneocons": 5053,
    "ben": 5054,
    "ovak": 5055,
    "Ġcrowd": 5056,
    "Ġcondo": 5057,
    "ĠThinking": 5058,
    "Ġfoc": 5059,
    "text": 5060,
    "iries": 5061,
    "will": 5062,
    "kov": 5063,
    "Ġindirectly": 5064,
    "Ø§": 5065,
    "querque": 5066,
    "Ġtreaty": 5067,
    "Ġmatrix": 5068,
    "Ġadvisor": 5069,
    "Ġassisting": 5070,
    "âĢĶâĢĶâĢĶâĢĶâĢĶâĢĶâĢĶâĢĶ": 5071,
    "iber": 5072,
    "ĠSubaru": 5073,
    "Ġpenalty": 5074,
    "Ġcompliant": 5075,
    "ĠTo": 5076,
    "Ġapologies": 5077,
    "Secret": 5078,
    "Ġsuperiority": 5079,
    "ĠRudy": 5080,
    "zsche": 5081,
    "ĠEc": 5082,
    "lege": 5083,
    "ĠQuad": 5084,
    "Ġmere": 5085,
    "ĠOpening": 5086,
    "Ġgigantic": 5087,
    "ĠRose": 5088,
    "Ãª": 5089,
    "umber": 5090,
    "Ġprost": 5091,
    "Ġdecisions": 5092,
    "room": 5093,
    "107": 5094,
    "ĠâĢ¦": 5095,
    "Ġidentify": 5096,
    "Mel": 5097,
    "Ġgems": 5098,
    "ĠCage": 5099,
    "ĠBru": 5100,
    "ĠSeahawks": 5101,
    "Ġcombine": 5102,
    "Ġobscure": 5103,
    "ĠUSA": 5104,
    "ACH": 5105,
    "Ġcustom": 5106,
    "Ġcaliber": 5107,
    "ĠEU": 5108,
    "ĠJedi": 5109,
    "ĠEnter": 5110,
    "ĠHours": 5111,
    "Ġwell": 5112,
    "urt": 5113,
    "Ġrendering": 5114,
    "ĠErn": 5115,
    "Ġanalyze": 5116,
    "ĠNora": 5117,
    "Ġassigned": 5118,
    "Ġdemonstration": 5119,
    "Ġcritically": 5120,
    "hod": 5121,
    "á": 5122,
    "Ġgubernatorial": 5123,
    "Ġblog": 5124,
    "gar": 5125,
    "ĠKazakh": 5126,
    "Ġoperator": 5127,
    "Ġcontributor": 5128,
    "Ġgarbage": 5129,
    "ĠKids": 5130,
    "Ep": 5131,
    "Ġdisappointed": 5132,
    "Ġrefund": 5133,
    "aucuses": 5134,
    "000": 5135,
    "Ġreload": 5136,
    "||": 5137,
    "ĠScots": 5138,
    "Sure": 5139,
    "Ġvalues": 5140,
    "Ġexpressions": 5141,
    "Ġparanoia": 5142,
    "ĠMarc": 5143,
    "rawl": 5144,
    "enn": 5145,
    "Ġresc": 5146,
    "Ġimmigrant": 5147,
    "Ġrescued": 5148,
    "ĠAnders": 5149,
    "Ġwarned": 5150,
    "Ġpassing": 5151,
    "ĠSpencer": 5152,
    "ĠLTE": 5153,
    "Start": 5154,
    "Ġgives": 5155,
    "ĠRome": 5156,
    "ĠPilot": 5157,
    "Ġgoverning": 5158,
    "Ġfreed": 5159,
    "Tech": 5160,
    "ĠRights": 5161,
    "Ġhearts": 5162,
    "Water": 5163,
    "Ġimmigration": 5164,
    "mson": 5165,
    "re": 5166,
    "ē": 5167,
    "Ġsem": 5168,
    "Ġcigarette": 5169,
    "Ġignorance": 5170,
    "ĠMichelle": 5171,
    "tering": 5172,
    "Ġdoubled": 5173,
    "atics": 5174,
    "GI": 5175,
    "ĠManit": 5176,
    "Ġsome": 5177,
    "owship": 5178,
    "Ġcompete": 5179,
    "rian": 5180,
    "Ġregret": 5181,
    "Students": 5182,
    "tech": 5183,
    "rone": 5184,
    "ĠRober": 5185,
    "Ġstatic": 5186,
    "Ġimped": 5187,
    "Ġacross": 5188,
    "Ġpod": 5189,
    "Ġcombining": 5190,
    "Ġreporting": 5191,
    "dule": 5192,
    "Ġfunn": 5193,
    "ĠInst": 5194,
    "ULT": 5195,
    "Ġfaction": 5196,
    "ĠBase": 5197,
    "ĠCAR": 5198,
    "ĠAk": 5199,
    "els": 5200,
    "ĠJoseph": 5201,
    "Ġchamber": 5202,
    "ampion": 5203,
    "ĠChester": 5204,
    "rehens": 5205,
    "Ġenvironmentalists": 5206,
    "Ġaug": 5207,
    "ĠFX": 5208,
    "ĠBlair": 5209,
    "Ġburger": 5210,
    "caster": 5211,
    "Ġesp": 5212,
    "ĠOmar": 5213,
    "Ġsimplest": 5214,
    "ĠFound": 5215,
    "ĠSolomon": 5216,
    "Ġhung": 5217,
    "Ġwit": 5218,
    "Ġ150": 5219,
    "ĠClo": 5220,
    "MON": 5221,
    "Work": 5222,
    "hal": 5223,
    "Ġart": 5224,
    "Ġtile": 5225,
    "ĠAbbey": 5226,
    "Ġincorporates": 5227,
    "Ġreceivers": 5228,
    "Ġhappens": 5229,
    "ijing": 5230,
    "Ġstories": 5231,
    "Ġworldwide": 5232,
    "ĠProtest": 5233,
    "09": 5234,
    "ikhail": 5235,
    "ĠTillerson": 5236,
    "Ġtherefore": 5237,
    "vm": 5238,
    "round": 5239,
    "il": 5240,
    "Ġsteep": 5241,
    "Ġconventions": 5242,
    "ĠCron": 5243,
    "Ġoper": 5244,
    "Ġstopping": 5245,
    "Ġbuilders": 5246,
    "ĠISI": 5247,
    "ĠPatch": 5248,
    "Ġplag": 5249,
    "Ġenvironment": 5250,
    "ĠAlonso": 5251,
    "tarian": 5252,
    "Ġview": 5253,
    "ĠError": 5254,
    "ĠNot": 5255,
    "Ġrecruits": 5256,
    "Incre": 5257,
    "thought": 5258,
    "ularly": 5259,
    "ĠRoth": 5260,
    "ĠHale": 5261,
    "Ġstockp": 5262,
    "PM": 5263,
    "ke": 5264,
    "duc": 5265,
    "Ġfirmware": 5266,
    "Ġroller": 5267,
    "Ġbrow": 5268,
    "Ġscratch": 5269,
    "ĠMartian": 5270,
    "Follow": 5271,
    "Ġcompiler": 5272,
    "ĠGot": 5273,
    "Ġprize": 5274,
    "Ġprompting": 5275,
    "burgh": 5276,
    "GW": 5277,
    "Ġproject": 5278,
    ")/": 5279,
    "Ġdoubling": 5280,
    "Ġmush": 5281,
    "ĠRT": 5282,
    "ums": 5283,
    "Ġwatches": 5284,
    "rage": 5285,
    "Ġimposing": 5286,
    "Ġstrengthen": 5287,
    "Ġcultivate": 5288,
    "Ġrub": 5289,
    "cro": 5290,
    "Ġpretending": 5291,
    "uc": 5292,
    "ilty": 5293,
    "ĠValve": 5294,
    "save": 5295,
    "Ġposition": 5296,
    "Ġsimulate": 5297,
    "Ġdinner": 5298,
    "Ġinterceptions": 5299,
    "Ġstalled": 5300,
    "Ġreflecting": 5301,
    "Ġsummoned": 5302,
    "guy": 5303,
    "åĪ": 5304,
    "Ġdisqual": 5305,
    "Ġviolating": 5306,
    "Ġpostseason": 5307,
    "rimination": 5308,
    "Ġuranium": 5309,
    "wd": 5310,
    "Æ": 5311,
    "clusion": 5312,
    "Ġboxes": 5313,
    "ĠSomalia": 5314,
    "Ġcried": 5315,
    "Ġtakes": 5316,
    "ĠDon": 5317,
    "Ġrequest": 5318,
    "Reddit": 5319,
    "ication": 5320,
    "åĲ": 5321,
    "cept": 5322,
    "irth": 5323,
    "raig": 5324,
    "Ġunique": 5325,
    "Ġdecor": 5326,
    "erville": 5327,
    "ĠPed": 5328,
    "ĠHighlights": 5329,
    "Ġphr": 5330,
    "ĠHorizon": 5331,
    "icio": 5332,
    "ĠGulf": 5333,
    "ĠArcade": 5334,
    "hole": 5335,
    "obil": 5336,
    "ĠKashmir": 5337,
    "19": 5338,
    "ĠChristians": 5339,
    "olding": 5340,
    "ios": 5341,
    "ĠAnch": 5342,
    "Ġspill": 5343,
    "Ġaddicted": 5344,
    "Ġpoint": 5345,
    "ĠBuch": 5346,
    "Andrew": 5347,
    "Ġlibertarians": 5348,
    "Ġsurprises": 5349,
    "ĠPars": 5350,
    "Ġsheriff": 5351,
    "irlines": 5352,
    "Ġbombs": 5353,
    "ĠOccupy": 5354,
    "bid": 5355,
    "Ġtrading": 5356,
    "Ġspending": 5357,
    "ovy": 5358,
    "Ġspir": 5359,
    "Ġtsun": 5360,
    "Check": 5361,
    "Ġcharts": 5362,
    "Ġgeography": 5363,
    "AG": 5364,
    "Ġknew": 5365,
    "correct": 5366,
    "ĠBaldwin": 5367,
    "ĠPopulation": 5368,
    "athon": 5369,
    "ĠNebraska": 5370,
    "ĠJacob": 5371,
    "Ġhat": 5372,
    "Ġversions": 5373,
    "boards": 5374,
    "Ġimaginary": 5375,
    "Ġunderstands": 5376,
    "Ġtally": 5377,
    "irtual": 5378,
    "ĠJosÃ©": 5379,
    "Ġcrank": 5380,
    "inion": 5381,
    "ony": 5382,
    "Ġsynthes": 5383,
    "ĠPeak": 5384,
    "Ġsynd": 5385,
    "Ġviolate": 5386,
    "ĠEastern": 5387,
    "ĠDemon": 5388,
    "ire": 5389,
    "ĠDi": 5390,
    "Ġworship": 5391,
    "ĠCrowd": 5392,
    "roid": 5393,
    "mart": 5394,
    "ABC": 5395,
    "Ġdishon": 5396,
    "Ġmoment": 5397,
    "slaught": 5398,
    "esc": 5399,
    "ĠEstonia": 5400,
    "ronic": 5401,
    "Ð»": 5402,
    "Maybe": 5403,
    "Ã±": 5404,
    "Ġhemp": 5405,
    "ron": 5406,
    "Ġimagery": 5407,
    "ĠSadd": 5408,
    "Ġsame": 5409,
    "ah": 5410,
    "wik": 5411,
    "Ġ1910": 5412,
    "Ġargued": 5413,
    "Pl": 5414,
    "Ġgag": 5415,
    "Ġlosing": 5416,
    "Ġvanished": 5417,
    "ĠLittle": 5418,
    "ush": 5419,
    "Ġcul": 5420,
    ".;": 5421,
    "ĠUltimate": 5422,
    "Ġcontracting": 5423,
    "ilities": 5424,
    "icia": 5425,
    "Ġdistributor": 5426,
    "Ġdestroyed": 5427,
    "mine": 5428,
    "sw": 5429,
    "Ġdeclines": 5430,
    "Ġcapacities": 5431,
    "iform": 5432,
    "Ġshocking": 5433,
    "ĠAuthority": 5434,
    "Ġresent": 5435,
    "Ġtighter": 5436,
    "ĠThus": 5437,
    "etary": 5438,
    "Ġunm": 5439,
    "ĠKC": 5440,
    "ĠRev": 5441,
    "Ġversatility": 5442,
    "Ġecosystem": 5443,
    "Ġaff": 5444,
    "Ġblockchain": 5445,
    "Ġprediction": 5446,
    "Ġsecret": 5447,
    "ĠSMS": 5448,
    "Ġforfeiture": 5449,
    "sey": 5450,
    "ths": 5451,
    "ĠStay": 5452,
    "Ġvegetarian": 5453,
    "orneys": 5454,
    "essler": 5455,
    "Ġsnapshot": 5456,
    "Ġouting": 5457,
    "ĠEssentially": 5458,
    "Ġcommence": 5459,
    ".[": 5460,
    "Ġagrees": 5461,
    "Ġchill": 5462,
    "half": 5463,
    "Ġail": 5464,
    "ĠScreen": 5465,
    "ĠSri": 5466,
    "inction": 5467,
    "Ġrecommendation": 5468,
    "Ġtea": 5469,
    "sett": 5470,
    "Ġbattling": 5471,
    "Ġpetrol": 5472,
    "Ġemph": 5473,
    "Ġmedals": 5474,
    "Ġclut": 5475,
    "Ġextrad": 5476,
    "Ġsurvivors": 5477,
    "Ġbuilds": 5478,
    "six": 5479,
    "ĠMyth": 5480,
    "Station": 5481,
    "compet": 5482,
    "ĠLara": 5483,
    "ijuana": 5484,
    "bin": 5485,
    "Ġpunishment": 5486,
    "Ġseized": 5487,
    "Ġhistoric": 5488,
    "ĠKind": 5489,
    "also": 5490,
    "rons": 5491,
    "ĠAlvarez": 5492,
    "ĠRh": 5493,
    "ÙĦ": 5494,
    "ms": 5495,
    "Ġoccurs": 5496,
    "Ġretros": 5497,
    "ĠTheodore": 5498,
    "atican": 5499,
    "Ġchickens": 5500,
    "ĠByz": 5501,
    "ĠBall": 5502,
    "Ġdocumentary": 5503,
    "Ġhero": 5504,
    "erie": 5505,
    "Ġdefined": 5506,
    "Ġsued": 5507,
    "Nobody": 5508,
    "def": 5509,
    "actic": 5510,
    "ĠContact": 5511,
    "Ġextremes": 5512,
    "oqu": 5513,
    "Ġreminded": 5514,
    "IE": 5515,
    "Ġtrio": 5516,
    "ĠImpact": 5517,
    "uesday": 5518,
    "Ġintelligent": 5519,
    "ĠSupport": 5520,
    "Query": 5521,
    "ĠDallas": 5522,
    "Ġcontrace": 5523,
    "Ġbias": 5524,
    "Ġchances": 5525,
    "Ġflew": 5526,
    "Sar": 5527,
    "Ġ53": 5528,
    "Ġinvested": 5529,
    "ĠNoah": 5530,
    "Ġgoing": 5531,
    "Ġhalt": 5532,
    "Ġtiss": 5533,
    "Ġsniff": 5534,
    "ĠEgypt": 5535,
    "Ġhimself": 5536,
    "ĠName": 5537,
    "Ġafford": 5538,
    "Dav": 5539,
    "mother": 5540,
    "ĠPom": 5541,
    "Ġrepercussions": 5542,
    "Ġtasty": 5543,
    "bone": 5544,
    "Ġgra": 5545,
    "Ġstaffers": 5546,
    "Ġguid": 5547,
    "ĠKnown": 5548,
    "ĠUm": 5549,
    "original": 5550,
    "Ġkingdom": 5551,
    "wide": 5552,
    "Ġslated": 5553,
    "Ġsettlers": 5554,
    "umatic": 5555,
    "Ġpleading": 5556,
    "ĠResponse": 5557,
    "Ġshown": 5558,
    "Ġuniverse": 5559,
    "chant": 5560,
    "Ġshattered": 5561,
    "ĠAcademy": 5562,
    "Ġsank": 5563,
    "uncture": 5564,
    "Ġacknowledging": 5565,
    "Ġexploited": 5566,
    "Ġpurp": 5567,
    "Ġrepro": 5568,
    "ÑĮ": 5569,
    "ulse": 5570,
    "Ġcompletely": 5571,
    "Ġcommunal": 5572,
    "Ġresearcher": 5573,
    "ãĥ¼ãĥ": 5574,
    "Andy": 5575,
    "ĠZur": 5576,
    "Ġlanguage": 5577,
    "Ġnormal": 5578,
    "Ġplacebo": 5579,
    "Ġtalents": 5580,
    "ĠTaking": 5581,
    "Ġstepping": 5582,
    ">>": 5583,
    "Ġspoken": 5584,
    "Ġwhose": 5585,
    "Ġteen": 5586,
    "ĠKan": 5587,
    "ĠCD": 5588,
    "Ġnewly": 5589,
    "ĠWrit": 5590,
    "Ġcared": 5591,
    "Ġmask": 5592,
    "ĠNichols": 5593,
    "2002": 5594,
    "Ġ180": 5595,
    "Ġreception": 5596,
    "ĠGOP": 5597,
    "iological": 5598,
    "orn": 5599,
    "ldon": 5600,
    "Ġchopped": 5601,
    "Ġdividing": 5602,
    "Ġmor": 5603,
    "ph": 5604,
    "ĠBob": 5605,
    "Create": 5606,
    "Ġheir": 5607,
    "fax": 5608,
    "elson": 5609,
    "Fort": 5610,
    "92": 5611,
    "Ġprecious": 5612,
    "ĠVegan": 5613,
    "Ġgrin": 5614,
    "Ġdays": 5615,
    "Ġfeminine": 5616,
    "gg": 5617,
    "abil": 5618,
    "ert": 5619,
    "Ġtub": 5620,
    "odo": 5621,
    "uring": 5622,
    "Sch": 5623,
    "ata": 5624,
    "Ġpartnering": 5625,
    "ĠProblem": 5626,
    "Ġdiver": 5627,
    "Ġsuffers": 5628,
    "Ġinherently": 5629,
    "Will": 5630,
    "Ġweighed": 5631,
    "Ġmeters": 5632,
    "Turkey": 5633,
    "Ġnightmare": 5634,
    "Ġlimbs": 5635,
    "Ġexecutions": 5636,
    "Ġripe": 5637,
    "Ġsunset": 5638,
    "ĠAlz": 5639,
    "Ġpiracy": 5640,
    "Ġefficiently": 5641,
    "ilater": 5642,
    "Ġstickers": 5643,
    "Ġmemor": 5644,
    "umbing": 5645,
    "AV": 5646,
    "Ġtutorial": 5647,
    "Law": 5648,
    "Ġappeals": 5649,
    "ylum": 5650,
    "developed": 5651,
    "ĠJanuary": 5652,
    "Ġhorses": 5653,
    "Ġimmortal": 5654,
    "Ġreplica": 5655,
    "ĠEt": 5656,
    "ĠKathleen": 5657,
    "Ġbehavioral": 5658,
    "micro": 5659,
    "lementary": 5660,
    "Ġinterfering": 5661,
    "Ġcatalogue": 5662,
    "Ġexacerb": 5663,
    "ĠFilm": 5664,
    "Ġviewers": 5665,
    "Ġdual": 5666,
    "ĠMuk": 5667,
    "Ġunfolding": 5668,
    "Prot": 5669,
    "Ġvoted": 5670,
    "ĠJeff": 5671,
    "ĠAZ": 5672,
    "Ġtrigger": 5673,
    "Ġdiss": 5674,
    "Ġincomplete": 5675,
    "ario": 5676,
    "Ġfastest": 5677,
    "enos": 5678,
    "Ġremn": 5679,
    "Ġslower": 5680,
    "Scott": 5681,
    "Ġprofound": 5682,
    "ÂĢ": 5683,
    "Ĵ": 5684,
    "Ġassociate": 5685,
    "Ġmagical": 5686,
    "lins": 5687,
    "ĠBears": 5688,
    "ĠMonetary": 5689,
    "ository": 5690,
    "neys": 5691,
    "Russia": 5692,
    "LL": 5693,
    "ĠVoy": 5694,
    "obs": 5695,
    "Staff": 5696,
    "l": 5697,
    "Ġdimin": 5698,
    "Ġreigning": 5699,
    "Ġunwit": 5700,
    "ĠSince": 5701,
    "ĠMix": 5702,
    "ĠMeg": 5703,
    "ĠAlive": 5704,
    "ĠMont": 5705,
    "ĠBrew": 5706,
    "rd": 5707,
    "á¹": 5708,
    "Ġhosting": 5709,
    "casting": 5710,
    "English": 5711,
    "Ġsignific": 5712,
    "Sher": 5713,
    "Ġvain": 5714,
    "Text": 5715,
    "ĠMoss": 5716,
    "Ġsympt": 5717,
    "ĠIn": 5718,
    "ĠChristine": 5719,
    "Ġperforming": 5720,
    "ĠAngela": 5721,
    "month": 5722,
    "leck": 5723,
    "Ġshells": 5724,
    "Ġspar": 5725,
    "Ġkeeper": 5726,
    "Ġmedicines": 5727,
    "Ġsquarely": 5728,
    "Ġharmful": 5729,
    "Ġplus": 5730,
    "ategory": 5731,
    "ĠLock": 5732,
    "arcer": 5733,
    "GET": 5734,
    "ĠIf": 5735,
    "ĠYour": 5736,
    "Ġliked": 5737,
    "Ġpledged": 5738,
    "56": 5739,
    "Ġsector": 5740,
    "ĠOf": 5741,
    "personal": 5742,
    "Ġsevered": 5743,
    "Ġtransformed": 5744,
    "Ġabstraction": 5745,
    "Ġstill": 5746,
    "Ġassistant": 5747,
    "pod": 5748,
    "Ġobject": 5749,
    "ĠMcCarthy": 5750,
    "Ġappropriately": 5751,
    "ĠDiam": 5752,
    "Ġmultip": 5753,
    "Uk": 5754,
    "101": 5755,
    "mis": 5756,
    "Ġembarrassment": 5757,
    "Ġclassrooms": 5758,
    "Ġsectarian": 5759,
    "mined": 5760,
    "Ġdiversity": 5761,
    "ĠLes": 5762,
    "default": 5763,
    "Ġjoined": 5764,
    "Ġlia": 5765,
    "ĠPlain": 5766,
    "umes": 5767,
    "----------------------------------------------------------------": 5768,
    "ĠKen": 5769,
    "help": 5770,
    "Ġhated": 5771,
    "ez": 5772,
    "group": 5773,
    "Ġprofessionals": 5774,
    "Ġretail": 5775,
    "Ġtransitioning": 5776,
    "ĠRuss": 5777,
    "iffe": 5778,
    "ĠChain": 5779,
    "jet": 5780,
    "ĠExecutive": 5781,
    "Ġabout": 5782,
    "Ġlight": 5783,
    "Ġsecretive": 5784,
    "ure": 5785,
    "Ġduo": 5786,
    "ĠWill": 5787,
    "Ġversus": 5788,
    "ausible": 5789,
    "Ġlesbians": 5790,
    "five": 5791,
    "Ġcauses": 5792,
    "í": 5793,
    "ignty": 5794,
    "veillance": 5795,
    "Ġdefiant": 5796,
    "fan": 5797,
    "ĠPract": 5798,
    "Ġripped": 5799,
    "Ġmir": 5800,
    "mic": 5801,
    "ĠPatri": 5802,
    "Ġdangerous": 5803,
    "ormally": 5804,
    "ĠCharge": 5805,
    "ĠMr": 5806,
    "Ġus": 5807,
    "JC": 5808,
    "ĠLine": 5809,
    "forth": 5810,
    "Ġexited": 5811,
    "Ġsum": 5812,
    "mount": 5813,
    "Ġseemed": 5814,
    "Ġhey": 5815,
    "Ġmerging": 5816,
    "Ġcess": 5817,
    "ĠGriffin": 5818,
    "haired": 5819,
    "Ġpremier": 5820,
    "130": 5821,
    "Ġproceedings": 5822,
    "ĠVPN": 5823,
    "ÑģÐº": 5824,
    "ĠKu": 5825,
    "Ġfunds": 5826,
    "Sm": 5827,
    "nder": 5828,
    "EW": 5829,
    "Ġdemonstrating": 5830,
    "Jose": 5831,
    "arks": 5832,
    "Ġpictured": 5833,
    "Ġhottest": 5834,
    "Ġropes": 5835,
    "Ġadministered": 5836,
    "HL": 5837,
    "Ġanyone": 5838,
    "ĠSign": 5839,
    "ĠSqu": 5840,
    "Ġweak": 5841,
    "Ġendorse": 5842,
    "FB": 5843,
    "Ġdramatically": 5844,
    "Ġmilk": 5845,
    "Ġabandon": 5846,
    "Phot": 5847,
    "Ġconflicting": 5848,
    "Hon": 5849,
    "ĠFifth": 5850,
    "ĠFrost": 5851,
    "Ġinitially": 5852,
    "Ġwherever": 5853,
    "Ġrespir": 5854,
    "Ġattendant": 5855,
    "'": 5856,
    "ĠBrend": 5857,
    "Ġtil": 5858,
    "Ġlearnt": 5859,
    "aunted": 5860,
    "Ġreactionary": 5861,
    "Ġtopping": 5862,
    "iny": 5863,
    "ĠLyft": 5864,
    "ĠAdobe": 5865,
    "aws": 5866,
    "Ġmigrants": 5867,
    "Error": 5868,
    "Ġbrig": 5869,
    "Ġlean": 5870,
    "Ġsoldiers": 5871,
    "Ġtranslations": 5872,
    "ĠStur": 5873,
    "ĠPR": 5874,
    "ĠCoal": 5875,
    "uber": 5876,
    "Ġinfluenza": 5877,
    "ĠWendy": 5878,
    "ĠMovement": 5879,
    "Thomas": 5880,
    "Ġstock": 5881,
    "Ġremark": 5882,
    "Ġonions": 5883,
    "ĠBS": 5884,
    "Ġenduring": 5885,
    "regn": 5886,
    "Ad": 5887,
    "Ġembarrass": 5888,
    "Ġstart": 5889,
    "ĠVisa": 5890,
    "Ġlibraries": 5891,
    "ĠErik": 5892,
    "Ġclub": 5893,
    "waukee": 5894,
    "Ġ12": 5895,
    "Way": 5896,
    "Ġlever": 5897,
    "Ġactivists": 5898,
    "Ġpiss": 5899,
    "Ġinflict": 5900,
    "ĠCheney": 5901,
    "ĠDisneyland": 5902,
    "Ġrupe": 5903,
    "random": 5904,
    "Ġrebuild": 5905,
    "Ġtim": 5906,
    "Ġsubsidiary": 5907,
    "Ġhiding": 5908,
    "Activity": 5909,
    "ĠImm": 5910,
    "Ġgods": 5911,
    "ĠFair": 5912,
    "uild": 5913,
    "obby": 5914,
    "NC": 5915,
    "Ġelder": 5916,
    "Ġrelaxed": 5917,
    "eting": 5918,
    "CBS": 5919,
    "Ġcriminal": 5920,
    "ãģ¾": 5921,
    "Request": 5922,
    "ifty": 5923,
    "Ġdry": 5924,
    "Map": 5925,
    "rh": 5926,
    "âĢĻ,": 5927,
    "Ġclan": 5928,
    "Ġobsolete": 5929,
    "Ġ111": 5930,
    "Ġschools": 5931,
    "Ġanswers": 5932,
    "isc": 5933,
    "Ġfocal": 5934,
    "Ġblow": 5935,
    "ĠCelsius": 5936,
    "Ġsore": 5937,
    "ĠJamaica": 5938,
    "ĠCricket": 5939,
    "EMENT": 5940,
    "Ġmaxim": 5941,
    "Ġfelt": 5942,
    "ĠBir": 5943,
    "Ġwondered": 5944,
    "ically": 5945,
    "Ġethnic": 5946,
    "Ġrevolutions": 5947,
    "À": 5948,
    "acco": 5949,
    "Ġplatforms": 5950,
    "Ġisolated": 5951,
    "Ġsponsors": 5952,
    "Ġapproval": 5953,
    "ed": 5954,
    "forms": 5955,
    "Ġbold": 5956,
    "rament": 5957,
    "ĠPhilly": 5958,
    "ĠVictory": 5959,
    "Ġsegregated": 5960,
    "teenth": 5961,
    "ĠReserve": 5962,
    "Ġdevotion": 5963,
    "ĠShi": 5964,
    "Ġcenturies": 5965,
    "bits": 5966,
    "Ġorganis": 5967,
    "Never": 5968,
    "ilogy": 5969,
    "cript": 5970,
    "Ġaspir": 5971,
    "ĠIraqis": 5972,
    "oons": 5973,
    "Further": 5974,
    "ĠFollow": 5975,
    "Ġconsiderations": 5976,
    "Ġblame": 5977,
    "ĠDarkness": 5978,
    "ĠMessenger": 5979,
    "Ġcooperation": 5980,
    "Ġcaucus": 5981,
    "Ġconfused": 5982,
    "Media": 5983,
    "ivo": 5984,
    "Ġrose": 5985,
    "Ġineffective": 5986,
    "Ġambiguous": 5987,
    "hum": 5988,
    "Ġstrengthening": 5989,
    "Ġoperating": 5990,
    "iterranean": 5991,
    "ls": 5992,
    "town": 5993,
    "Ġrefusal": 5994,
    "ĠSame": 5995,
    "sequ": 5996,
    "Ġcrucial": 5997,
    "Ġpowder": 5998,
    "apper": 5999,
    "Ġrichest": 6000,
    "ĠSurely": 6001,
    "Available": 6002,
    "Iran": 6003,
    "Ġbitcoin": 6004,
    "Ġashes": 6005,
    "Ġamusing": 6006,
    "Ġgoats": 6007,
    "ĠBCE": 6008,
    "ution": 6009,
    "Ġdeprived": 6010,
    "ĠHof": 6011,
    "ovych": 6012,
    "Ġdrastic": 6013,
    "pes": 6014,
    "Ġincumbent": 6015,
    "Writing": 6016,
    "Ġcrossed": 6017,
    "adequ": 6018,
    "inda": 6019,
    "ĠSpecies": 6020,
    "ĠHispan": 6021,
    "Ġbrowser": 6022,
    "Ġspl": 6023,
    "ĠAt": 6024,
    "Ġunsure": 6025,
    "Ġdysfunctional": 6026,
    "Ġstrengthened": 6027,
    "ĠZeal": 6028,
    "ĠBroncos": 6029,
    "Ġcouch": 6030,
    "Ġgot": 6031,
    "Ġward": 6032,
    "ĠLiqu": 6033,
    "Ġnewspaper": 6034,
    "Ġdetained": 6035,
    "inton": 6036,
    "Ġliterature": 6037,
    "Ġorbital": 6038,
    "inch": 6039,
    "Ġnan": 6040,
    "ĠEdward": 6041,
    "ĠDarren": 6042,
    "Ġbumper": 6043,
    "ĠHuffPost": 6044,
    "yn": 6045,
    "Ġteaches": 6046,
    "Everybody": 6047,
    "ĠMain": 6048,
    "Ġdealt": 6049,
    "ĠMaver": 6050,
    "icle": 6051,
    "Ġmash": 6052,
    "ĠAverage": 6053,
    "ĠAng": 6054,
    "pecting": 6055,
    "ension": 6056,
    "pher": 6057,
    "Ġbegun": 6058,
    "odus": 6059,
    "Ġscripts": 6060,
    "astical": 6061,
    "Calif": 6062,
    "amping": 6063,
    "undreds": 6064,
    "Ġvom": 6065,
    "ĠBattalion": 6066,
    "ore": 6067,
    "Ġartic": 6068,
    "om": 6069,
    "ĠClintons": 6070,
    "era": 6071,
    "Ġfra": 6072,
    "ason": 6073,
    "atter": 6074,
    "esar": 6075,
    "xd": 6076,
    "Ġdirectors": 6077,
    "Ġoffended": 6078,
    "balls": 6079,
    "Ġboots": 6080,
    "Ġartist": 6081,
    ",''": 6082,
    "ay": 6083,
    "ĠTa": 6084,
    "Ġreps": 6085,
    "icks": 6086,
    "Ġswelling": 6087,
    "Ġpath": 6088,
    "Ġinfection": 6089,
    "ĠMaine": 6090,
    "ĠSalt": 6091,
    "quote": 6092,
    ".âĢĿ": 6093,
    "ĠGaza": 6094,
    "Members": 6095,
    "Ġbetting": 6096,
    "ĠHed": 6097,
    "ships": 6098,
    "ĠTaylor": 6099,
    "Đ": 6100,
    "Ġrac": 6101,
    "Ġurine": 6102,
    "Ġstandard": 6103,
    "ĠThree": 6104,
    "Ġusual": 6105,
    "Ġmos": 6106,
    "Ast": 6107,
    "Ġmoves": 6108,
    "Ġclot": 6109,
    "Ġinstead": 6110,
    "Ġdefenseman": 6111,
    "Ġwording": 6112,
    "Ġhelmets": 6113,
    "ĠGrant": 6114,
    "ophob": 6115,
    "Ġscratching": 6116,
    "amp": 6117,
    "pleasant": 6118,
    "ĠSaints": 6119,
    "ifier": 6120,
    "ryan": 6121,
    "KK": 6122,
    "ĠSection": 6123,
    "ĠHig": 6124,
    "Jack": 6125,
    "ĠBorder": 6126,
    "Ġbroken": 6127,
    "Ġrepr": 6128,
    "Ġmagnetic": 6129,
    "Ġprejud": 6130,
    "Ġdecide": 6131,
    "Ġsom": 6132,
    "Ġpione": 6133,
    "ĠRafael": 6134,
    "Ġperpetrators": 6135,
    "Ġrepl": 6136,
    "ĠÃ": 6137,
    "Ġcultural": 6138,
    "reamed": 6139,
    "Ġinstability": 6140,
    "eno": 6141,
    "Ġvalue": 6142,
    "cipled": 6143,
    "icient": 6144,
    "Ġcontroller": 6145,
    "Ġcontinues": 6146,
    "Ġmilit": 6147,
    "Ġknocking": 6148,
    "ĠBast": 6149,
    "Ġrecount": 6150,
    "ĠEC": 6151,
    "ĠMalt": 6152,
    "Ġadapted": 6153,
    "gue": 6154,
    "Ġencountered": 6155,
    "only": 6156,
    "ĠDown": 6157,
    "cerpt": 6158,
    "ITH": 6159,
    "âĸĪâĸĪ": 6160,
    "Ġworkouts": 6161,
    "Ġschedules": 6162,
    "Ġtouchdown": 6163,
    "Ġpassports": 6164,
    "conference": 6165,
    "icing": 6166,
    "Ġdebate": 6167,
    "ĠBal": 6168,
    "Ġheavier": 6169,
    "ĠMC": 6170,
    "Ġprison": 6171,
    "Ġ103": 6172,
    "ĠCIA": 6173,
    "ĠThor": 6174,
    "READ": 6175,
    "ĠRepresentative": 6176,
    "Ġacron": 6177,
    "Ġmiles": 6178,
    "reams": 6179,
    "Ġordin": 6180,
    "Ġarray": 6181,
    "Ġhacking": 6182,
    "ĠEnd": 6183,
    "hill": 6184,
    "Ġunderwater": 6185,
    "ĠRapid": 6186,
    "ania": 6187,
    "Ġsentenced": 6188,
    "ackets": 6189,
    "lessness": 6190,
    "ĠRaleigh": 6191,
    "ĠSpring": 6192,
    "Ġdefend": 6193,
    "Ġtotaling": 6194,
    "Nothing": 6195,
    "Ġtourist": 6196,
    "Ġfeeds": 6197,
    ".'âĢĿ": 6198,
    "ĠNetherlands": 6199,
    "Ġoverdose": 6200,
    "ĠCancer": 6201,
    "ĠBelgian": 6202,
    "Ġpit": 6203,
    "ĠBernie": 6204,
    "amm": 6205,
    "very": 6206,
    "Ġovershadow": 6207,
    "Action": 6208,
    "ĠPHP": 6209,
    "ology": 6210,
    "Ġthings": 6211,
    "Ġinaug": 6212,
    "Ġego": 6213,
    "Ġimpat": 6214,
    "Ġcat": 6215,
    "Ġessential": 6216,
    "Ġgener": 6217,
    "IR": 6218,
    "Ġpen": 6219,
    "Ball": 6220,
    "Ġvaries": 6221,
    "ikh": 6222,
    "Ġmarry": 6223,
    "125": 6224,
    "Ġfarmers": 6225,
    "ĠCuba": 6226,
    "Ġmyster": 6227,
    "Ġassim": 6228,
    "Ġassignments": 6229,
    "Ġremoves": 6230,
    "Ġforecasts": 6231,
    "Ġpleaded": 6232,
    "Plan": 6233,
    "Ġmaternal": 6234,
    "ĠColombian": 6235,
    "ĠMaterial": 6236,
    "Ġselfie": 6237,
    "Ġadmission": 6238,
    "Ġsenate": 6239,
    "Ġinv": 6240,
    "Ġlethal": 6241,
    "Ġwears": 6242,
    "encer": 6243,
    "ĠMarcus": 6244,
    "ĠJake": 6245,
    "Ġstaging": 6246,
    "Ġimplicitly": 6247,
    "ĠStaff": 6248,
    "Europe": 6249,
    "ĠFIFA": 6250,
    "Ġpal": 6251,
    "Ġcarefully": 6252,
    "Ġimpover": 6253,
    "Ġphilanthrop": 6254,
    "Ġcontinuous": 6255,
    "Ġproblematic": 6256,
    "Ġexploded": 6257,
    "ĠAdding": 6258,
    "NEW": 6259,
    "rend": 6260,
    "Ġblank": 6261,
    "Ġke": 6262,
    "Ġfalling": 6263,
    "rolled": 6264,
    "imon": 6265,
    "Ġquote": 6266,
    "ĠAdded": 6267,
    "January": 6268,
    "Ġconsulting": 6269,
    "Ġdeterrent": 6270,
    "Ġnew": 6271,
    "onduct": 6272,
    "religious": 6273,
    "Ġverses": 6274,
    "Ġequality": 6275,
    "Ġsher": 6276,
    "film": 6277,
    "ĠSi": 6278,
    "Ġattempts": 6279,
    "Dam": 6280,
    "Ġcompatibility": 6281,
    "Ġwaved": 6282,
    "Ġsingers": 6283,
    "ipt": 6284,
    "vd": 6285,
    "ĠFacility": 6286,
    "KR": 6287,
    "Ġemphasize": 6288,
    "Ġdies": 6289,
    "ritical": 6290,
    "If": 6291,
    "Ġhttps": 6292,
    "ĠLeader": 6293,
    "Ġlob": 6294,
    "ĠRow": 6295,
    "Ġmand": 6296,
    "ĠAddress": 6297,
    "Ġspelled": 6298,
    "Ġdecreased": 6299,
    "color": 6300,
    "Ġextrem": 6301,
    "Copyright": 6302,
    "ĠApps": 6303,
    "ĠSatan": 6304,
    "GEL": 6305,
    "chain": 6306,
    "ccess": 6307,
    "ĠKong": 6308,
    "Ġindicators": 6309,
    "incoln": 6310,
    "ween": 6311,
    "ĠCelebr": 6312,
    "ected": 6313,
    "ĠFast": 6314,
    "ĠOS": 6315,
    "Ġmadness": 6316,
    "Ġbosses": 6317,
    "Ġteaser": 6318,
    "nyder": 6319,
    "Ġimpro": 6320,
    "ĠMorales": 6321,
    "Ġincoming": 6322,
    "Ġslack": 6323,
    "Ġbureau": 6324,
    "ĠW": 6325,
    "Ġdetective": 6326,
    "ĠMat": 6327,
    "Ġint": 6328,
    "ict": 6329,
    "public": 6330,
    "Ġparish": 6331,
    "Ġ600": 6332,
    "ĠBanks": 6333,
    "natural": 6334,
    "Ġserv": 6335,
    "Ġcattle": 6336,
    "ĠRelease": 6337,
    "Ġpretext": 6338,
    "Ġdisrespect": 6339,
    "oxy": 6340,
    "ĠThanks": 6341,
    "chem": 6342,
    "Ġlimitations": 6343,
    "iking": 6344,
    "ĠCord": 6345,
    "Ġfrequency": 6346,
    "ĠLang": 6347,
    "Ġoperations": 6348,
    "Ġdefeated": 6349,
    "Ġfrustrating": 6350,
    "Ġcosmic": 6351,
    "ĠMad": 6352,
    "live": 6353,
    "success": 6354,
    "Ġcheering": 6355,
    "flow": 6356,
    "ĠTumblr": 6357,
    "Ġawe": 6358,
    "raper": 6359,
    "Ġwatchdog": 6360,
    "ashion": 6361,
    "amin": 6362,
    "abe": 6363,
    "Ġdefinitions": 6364,
    "isco": 6365,
    "first": 6366,
    "ĠNepal": 6367,
    "middle": 6368,
    "Ġjustified": 6369,
    "Ġapologize": 6370,
    "Ġstressed": 6371,
    "Ġoutward": 6372,
    "Ġ1920": 6373,
    "Ġproble": 6374,
    "Ġtear": 6375,
    "arte": 6376,
    "Ġbraz": 6377,
    "Ġunnoticed": 6378,
    "Ġbott": 6379,
    "Being": 6380,
    "ĠUnblock": 6381,
    "ĠCrime": 6382,
    "evil": 6383,
    "ĠBroadcasting": 6384,
    "Ġruled": 6385,
    "Ġlevy": 6386,
    "vised": 6387,
    "Ġpolling": 6388,
    "Ġkill": 6389,
    "avy": 6390,
    "rentice": 6391,
    "Ġban": 6392,
    "Ġabd": 6393,
    "Ġfootball": 6394,
    "fd": 6395,
    "Ġgro": 6396,
    "Night": 6397,
    "ĠEmails": 6398,
    "Ġsiege": 6399,
    "ĠResearchers": 6400,
    "Ġcompute": 6401,
    "ĠStack": 6402,
    "isconsin": 6403,
    "ĠDenver": 6404,
    "ĠAgreement": 6405,
    "Connell": 6406,
    "esy": 6407,
    "ĠOpportun": 6408,
    "itional": 6409,
    "Ġnorthern": 6410,
    "Ġforum": 6411,
    "ĠNew": 6412,
    "Ġelic": 6413,
    "ĠFukushima": 6414,
    "unicipality": 6415,
    "etermined": 6416,
    "Ġproved": 6417,
    "usable": 6418,
    "How": 6419,
    "Franc": 6420,
    "Ġbackend": 6421,
    "Ġbuyer": 6422,
    "Ġstrateg": 6423,
    "Ġfuel": 6424,
    "Ġprovinces": 6425,
    "ĠLemon": 6426,
    "Ġplate": 6427,
    "ĠAbraham": 6428,
    "ĠMurd": 6429,
    "oso": 6430,
    "Ġcocktail": 6431,
    "ĠThrough": 6432,
    "ĠMaxwell": 6433,
    "Ġcredible": 6434,
    "oric": 6435,
    "holder": 6436,
    "Ġemailed": 6437,
    ";[": 6438,
    "Ġcabinet": 6439,
    "ĠOP": 6440,
    "ry": 6441,
    "ĠMitt": 6442,
    "Ġpornography": 6443,
    "ĠMonday": 6444,
    "Ġpresenter": 6445,
    "Ġspilled": 6446,
    "culation": 6447,
    "ĠDest": 6448,
    "ĠBass": 6449,
    "iz": 6450,
    "almost": 6451,
    "Ġhistories": 6452,
    "M": 6453,
    "ĠBet": 6454,
    "ĠSinclair": 6455,
    "Ġguiding": 6456,
    "ĠGust": 6457,
    "omorph": 6458,
    "unit": 6459,
    "Ġautobiography": 6460,
    "Ġaccompanied": 6461,
    "Ġquery": 6462,
    "Ð±": 6463,
    "oro": 6464,
    "ocolate": 6465,
    "Ġmana": 6466,
    "Ġbrass": 6467,
    "Ġcrossing": 6468,
    "Ġineff": 6469,
    "Ġrepresentative": 6470,
    "Ġcollapse": 6471,
    "Ġunic": 6472,
    "Ġexciting": 6473,
    "Ġscream": 6474,
    "Ġsteam": 6475,
    "ĠCoffee": 6476,
    "ĠScientology": 6477,
    "athy": 6478,
    "ĠMoto": 6479,
    "ev": 6480,
    "ĠPet": 6481,
    "Ġamended": 6482,
    "Ġspheres": 6483,
    "Ġintentions": 6484,
    "ĠUTC": 6485,
    "Ġlayout": 6486,
    "Ġunderestimated": 6487,
    "Ġshine": 6488,
    "2017": 6489,
    "ĠDow": 6490,
    "Ġdisappear": 6491,
    "eff": 6492,
    "Ġincluded": 6493,
    "Ġtourists": 6494,
    "arms": 6495,
    "Ġcohort": 6496,
    "Ġplayoff": 6497,
    "Ġspreading": 6498,
    "Ġglaring": 6499,
    "edo": 6500,
    "breaking": 6501,
    "illian": 6502,
    "Ġsy": 6503,
    "ĠPresident": 6504,
    "ocr": 6505,
    "Ġevacuation": 6506,
    "Ġnin": 6507,
    "INT": 6508,
    "aternity": 6509,
    "Ġsk": 6510,
    "Ġfavorable": 6511,
    "Ġrugby": 6512,
    "Ġdistrust": 6513,
    "ĠCaldwell": 6514,
    "ĠProjects": 6515,
    "ĠPyongyang": 6516,
    "Ġonline": 6517,
    "ċ": 6518,
    "Ken": 6519,
    "ĠWorking": 6520,
    "Ġ..": 6521,
    "Ġconstituted": 6522,
    "mingham": 6523,
    "release": 6524,
    "ĠScout": 6525,
    "ĠTerrit": 6526,
    "Ġpolicing": 6527,
    "ĠCad": 6528,
    "ĠPorter": 6529,
    "ĠOl": 6530,
    "Ġmeantime": 6531,
    "ools": 6532,
    "Ġcollabor": 6533,
    "Ġalien": 6534,
    "Hello": 6535,
    "Ġopposition": 6536,
    "'s": 6537,
    "ACT": 6538,
    "Ġfifteen": 6539,
    "Ġbroker": 6540,
    "b": 6541,
    "Ġexamines": 6542,
    "ĠAlaska": 6543,
    "imet": 6544,
    "Ġissu": 6545,
    "mph": 6546,
    "Ġflank": 6547,
    "ĠGateway": 6548,
    "Ġroll": 6549,
    "ĠTA": 6550,
    "ulas": 6551,
    "Ġsending": 6552,
    "nia": 6553,
    "Conservative": 6554,
    "Ġfire": 6555,
    "Ġupheld": 6556,
    "Ġaircraft": 6557,
    "ĠJupiter": 6558,
    "Ġdeficiencies": 6559,
    "ĠBM": 6560,
    "Ġcopy": 6561,
    "Ġderive": 6562,
    "vers": 6563,
    "science": 6564,
    "Ġannouncing": 6565,
    "ĠGan": 6566,
    ",'\"": 6567,
    "arak": 6568,
    "Ġcour": 6569,
    "ĠHas": 6570,
    "ĠPie": 6571,
    "Ġfurn": 6572,
    "pen": 6573,
    "org": 6574,
    "card": 6575,
    "Ġsalaries": 6576,
    "Ġtelevised": 6577,
    "ĠMang": 6578,
    "Ġend": 6579,
    "Ġenterprises": 6580,
    "ĠSSL": 6581,
    "Ġimprov": 6582,
    "Ġwhite": 6583,
    "Ġ2012": 6584,
    "Ġspeak": 6585,
    "Ġlobbied": 6586,
    "Ġcrackdown": 6587,
    "Ġblasts": 6588,
    "Ġrelevant": 6589,
    "vote": 6590,
    "Ġacceler": 6591,
    "====": 6592,
    "Ġvel": 6593,
    "Ġshooting": 6594,
    "Ġremarked": 6595,
    "ordered": 6596,
    "bi": 6597,
    "ĠReligious": 6598,
    "ously": 6599,
    "ãĢ": 6600,
    "ĠJudy": 6601,
    "ĠEM": 6602,
    "ĠCollins": 6603,
    "Ġha": 6604,
    "ĠO": 6605,
    "Ġparental": 6606,
    "ê": 6607,
    "imately": 6608,
    "Ġhometown": 6609,
    "Ġopen": 6610,
    "41": 6611,
    "Ġfilter": 6612,
    "Ġadopting": 6613,
    "Canada": 6614,
    "Ġcareers": 6615,
    "ĠWater": 6616,
    "Ġwinners": 6617,
    "Ġcontracted": 6618,
    "Ġsidelines": 6619,
    "Lou": 6620,
    "ĠPrinc": 6621,
    "ĠChelsea": 6622,
    "TF": 6623,
    "Ġallegations": 6624,
    "until": 6625,
    "Ġsectors": 6626,
    "ĠMurder": 6627,
    "aut": 6628,
    "ading": 6629,
    "Ġautism": 6630,
    "Ġbats": 6631,
    "Ġlar": 6632,
    "Ġaltogether": 6633,
    "Ġhor": 6634,
    "ĠHave": 6635,
    "ĠNGO": 6636,
    "ĠBusiness": 6637,
    "Ġextraordinary": 6638,
    "Ġconvin": 6639,
    "Ġdefinitive": 6640,
    "Ġneighborhood": 6641,
    "Ġparagraphs": 6642,
    "ĠMao": 6643,
    "Ġco": 6644,
    "Ġenormous": 6645,
    "ĠLiberia": 6646,
    "Ġslowdown": 6647,
    "Ġrebuilt": 6648,
    "ricanes": 6649,
    "Ġdata": 6650,
    "ordinate": 6651,
    "Ġtrick": 6652,
    "Ġadvoc": 6653,
    "ĠIRA": 6654,
    "reens": 6655,
    "ĠFirst": 6656,
    "ĠTerror": 6657,
    "Broad": 6658,
    "Ġqualified": 6659,
    "ĠTelegraph": 6660,
    "anguage": 6661,
    "Ġcompulsory": 6662,
    "rath": 6663,
    "Ġreviewing": 6664,
    "oug": 6665,
    "ĠNad": 6666,
    "Ġrelevance": 6667,
    "ĠE": 6668,
    "ĠEmmanuel": 6669,
    "Ġstretch": 6670,
    "long": 6671,
    "ĠBeyon": 6672,
    "ĠMelbourne": 6673,
    "raining": 6674,
    "ucci": 6675,
    "ĠRud": 6676,
    "Ġattacked": 6677,
    "me": 6678,
    "The": 6679,
    "Ġfunctionality": 6680,
    "ĠEVERY": 6681,
    "Ġpersonal": 6682,
    "Ġathletes": 6683,
    "Ġaccumulated": 6684,
    "Ġneed": 6685,
    "Ġscript": 6686,
    "Ġcage": 6687,
    "ĠBring": 6688,
    "ĠRobbie": 6689,
    "ĠWars": 6690,
    "image": 6691,
    "Ġprojects": 6692,
    "eals": 6693,
    "Ġmourning": 6694,
    "ĠPS": 6695,
    "done": 6696,
    "Ġbelong": 6697,
    "ise": 6698,
    "Ġgenerations": 6699,
    "Ġdisabled": 6700,
    "ĠWoods": 6701,
    "ave": 6702,
    "Ġlegend": 6703,
    "Del": 6704,
    "Ġost": 6705,
    "aware": 6706,
    "Ġjet": 6707,
    "Ġescort": 6708,
    "Ġnervous": 6709,
    "Ġevolve": 6710,
    "Shell": 6711,
    "Ġweigh": 6712,
    "Ġcamp": 6713,
    "Ġbelt": 6714,
    "ĠStatement": 6715,
    "Ġimperfect": 6716,
    "ĠObservatory": 6717,
    "Ġscans": 6718,
    "Ġreinfor": 6719,
    "Has": 6720,
    "iani": 6721,
    "ĠTele": 6722,
    "Ġdetail": 6723,
    "ĠEyes": 6724,
    "ean": 6725,
    "anye": 6726,
    "Ġpositioned": 6727,
    "Ġkick": 6728,
    "Ġcode": 6729,
    "ĠShock": 6730,
    "Self": 6731,
    "ĠAs": 6732,
    "Ġflashes": 6733,
    "Ġencouraging": 6734,
    "ĠMet": 6735,
    "ĠUnfortunately": 6736,
    "Ġlobbying": 6737,
    "Ġrepresentation": 6738,
    "ĠPokemon": 6739,
    "ĠLeafs": 6740,
    "ĠTea": 6741,
    "ĠTrad": 6742,
    "Ġcapita": 6743,
    "ĠRabbit": 6744,
    "Ġcoral": 6745,
    "Ġperformer": 6746,
    "Ġbl": 6747,
    "iter": 6748,
    "ĠTake": 6749,
    "Ġafore": 6750,
    "Ġinfluences": 6751,
    "Ġworked": 6752,
    "Great": 6753,
    "Ġexchange": 6754,
    "Ġcarry": 6755,
    "Ġscroll": 6756,
    "ĠThrones": 6757,
    "Ġ1800": 6758,
    "ĠRepublic": 6759,
    "ij": 6760,
    "Ġcompr": 6761,
    "ĠScientific": 6762,
    "Ġenumer": 6763,
    "Ġaccurate": 6764,
    "cies": 6765,
    "Ġprecip": 6766,
    "Ġchannels": 6767,
    "Ġfortunate": 6768,
    "urp": 6769,
    "ĠAT": 6770,
    "opes": 6771,
    "ĠWake": 6772,
    "ĠSaunders": 6773,
    "ĠShel": 6774,
    "Ġdup": 6775,
    "hurst": 6776,
    "Ġforecast": 6777,
    "Ġsl": 6778,
    "ĠRica": 6779,
    "TER": 6780,
    "ĠRecovery": 6781,
    "Ġstrings": 6782,
    "Ġanswering": 6783,
    "Ġfer": 6784,
    "Ġslash": 6785,
    "ĠSnapchat": 6786,
    "ĠKrug": 6787,
    "ĠBangladesh": 6788,
    "Ġloved": 6789,
    "afe": 6790,
    "Ġjournalistic": 6791,
    "Ġdeclined": 6792,
    "ĠExtreme": 6793,
    "Ġsabotage": 6794,
    "enburg": 6795,
    "Ġ1967": 6796,
    "Ġtam": 6797,
    "James": 6798,
    "ĠIGN": 6799,
    "Ġnortheastern": 6800,
    "unciation": 6801,
    "Ġstrat": 6802,
    "Ġmatching": 6803,
    "miss": 6804,
    "ĠBot": 6805,
    "ĠTah": 6806,
    "Ġexhib": 6807,
    "ĠPlatinum": 6808,
    "ĠMO": 6809,
    "Ġpowerhouse": 6810,
    "Ps": 6811,
    "Ġfederal": 6812,
    "ĠRel": 6813,
    "Ġconquered": 6814,
    "ct": 6815,
    "ĠRest": 6816,
    "Ġdeveloping": 6817,
    "USE": 6818,
    "ĠMile": 6819,
    "Ġinjust": 6820,
    "opyright": 6821,
    "ĠDisney": 6822,
    "ĠQatar": 6823,
    "Ġba": 6824,
    "Ġachieve": 6825,
    "Long": 6826,
    "Ð´": 6827,
    "ĠHispanics": 6828,
    "arrett": 6829,
    "Ġsummary": 6830,
    "ĠMale": 6831,
    "Ġranked": 6832,
    "ĠSaf": 6833,
    "ĠSusan": 6834,
    "Ġregulated": 6835,
    "Ġinserted": 6836,
    "Ġnewsletter": 6837,
    "ĠTrans": 6838,
    "olitan": 6839,
    "Ġdrivers": 6840,
    "gently": 6841,
    "ĠNov": 6842,
    "Ġuse": 6843,
    "Ġvict": 6844,
    "Ġreapp": 6845,
    "Ġadvance": 6846,
    "arson": 6847,
    "ĠGin": 6848,
    "Content": 6849,
    "ĠBoost": 6850,
    "ĠHugh": 6851,
    "©": 6852,
    "anded": 6853,
    "eenth": 6854,
    "Ġfaced": 6855,
    "ĠScha": 6856,
    "ĠBan": 6857,
    "Ġpartly": 6858,
    "Ġdebates": 6859,
    "Ġseekers": 6860,
    "Ġtuning": 6861,
    "ĠBluetooth": 6862,
    "isted": 6863,
    "Ġinflic": 6864,
    "Ġmembers": 6865,
    "Ġintimidation": 6866,
    "Ġautonomous": 6867,
    "Ġflo": 6868,
    "Ġmigrate": 6869,
    "ĠPa": 6870,
    "ĠLiv": 6871,
    "Ġher": 6872,
    "Ġwid": 6873,
    "Ġspiders": 6874,
    "ithmetic": 6875,
    "Ġpesticides": 6876,
    "ĠTrib": 6877,
    "Ġlasting": 6878,
    "ĠCool": 6879,
    "Ġproposed": 6880,
    "ĠJin": 6881,
    "ĠWebb": 6882,
    "ng": 6883,
    "ealous": 6884,
    "Ġhig": 6885,
    "ecause": 6886,
    "Ġformer": 6887,
    "arious": 6888,
    "ga": 6889,
    "tered": 6890,
    "Ġblonde": 6891,
    "sound": 6892,
    "Ġtomatoes": 6893,
    "ĪĴ": 6894,
    "world": 6895,
    "ĠDalton": 6896,
    "opoly": 6897,
    "Ġcriticized": 6898,
    "ogle": 6899,
    "renches": 6900,
    "ĠDogs": 6901,
    "Ġcounting": 6902,
    "Ġlowering": 6903,
    "Ð¿": 6904,
    "Ġconverts": 6905,
    "Ġrewarded": 6906,
    "Ġthorough": 6907,
    "ĠLL": 6908,
    "ono": 6909,
    "DE": 6910,
    "Ġ58": 6911,
    "ivists": 6912,
    "Ġhopes": 6913,
    "Ġmemory": 6914,
    "Ġcommodity": 6915,
    "ĠCritics": 6916,
    "Ġwet": 6917,
    "Ġboundary": 6918,
    "ĠRES": 6919,
    "ained": 6920,
    "ĠUV": 6921,
    "Ġhex": 6922,
    "ĠNeither": 6923,
    "Ġdarker": 6924,
    "oids": 6925,
    "Ġportrait": 6926,
    "Ġwiki": 6927,
    "par": 6928,
    "abbing": 6929,
    "Ġsuspend": 6930,
    "oring": 6931,
    "ĠMessage": 6932,
    "ĠDaesh": 6933,
    "dam": 6934,
    "Ġmatters": 6935,
    "Ġsmall": 6936,
    "Ġbaff": 6937,
    "ĠCatherine": 6938,
    "Ġmeas": 6939,
    "Ġpediatric": 6940,
    "ĠLoren": 6941,
    "ĠFactor": 6942,
    "65": 6943,
    "ĠBo": 6944,
    "Ġdeparture": 6945,
    "Hi": 6946,
    "ĠPol": 6947,
    "Ġdisregard": 6948,
    "Ġpreferred": 6949,
    "Ġautonom": 6950,
    "Ġnotable": 6951,
    "older": 6952,
    "ĠHank": 6953,
    "ĠJazeera": 6954,
    "Ġdil": 6955,
    "Ġhydro": 6956,
    "Ġaerial": 6957,
    "Ġsex": 6958,
    "uckland": 6959,
    "ITY": 6960,
    "ulatory": 6961,
    "rome": 6962,
    "earance": 6963,
    "Ġdeploying": 6964,
    "male": 6965,
    "rested": 6966,
    "mittee": 6967,
    "aven": 6968,
    "Ġmorp": 6969,
    "Ġusually": 6970,
    "Ġparking": 6971,
    ".âĢĿ)": 6972,
    "Ġ*/": 6973,
    "ĠKes": 6974,
    "ournal": 6975,
    "ĠCance": 6976,
    "Ġtechnical": 6977,
    "Ġcodes": 6978,
    "Ġlitter": 6979,
    "ĠGraham": 6980,
    "Ġoy": 6981,
    "Ġbreak": 6982,
    "thia": 6983,
    "ĠMN": 6984,
    "ĠCarly": 6985,
    "Ġacademics": 6986,
    "Ġallowing": 6987,
    "Ġvir": 6988,
    "Ġmemorable": 6989,
    "Node": 6990,
    "Ġgraphene": 6991,
    "Ġwarehouse": 6992,
    "ĠEddie": 6993,
    "sens": 6994,
    "ilated": 6995,
    "Ġmounted": 6996,
    "ignt": 6997,
    "der": 6998,
    "Ġcongest": 6999,
    "Ġ220": 7000,
    "Ġpresumably": 7001,
    "Ġess": 7002,
    "ences": 7003,
    "Ġowner": 7004,
    "Ġnearby": 7005,
    "fired": 7006,
    "ĠAppeals": 7007,
    "ÙĬ": 7008,
    "Ġmathematic": 7009,
    "Ġcollectors": 7010,
    "ĠQualcomm": 7011,
    "Ġblessing": 7012,
    "Ġparenting": 7013,
    "Ġbasic": 7014,
    "ĠCollect": 7015,
    "itage": 7016,
    "IME": 7017,
    "r": 7018,
    "train": 7019,
    "Aug": 7020,
    "Ġobligations": 7021,
    "Ġpotentially": 7022,
    "Ġmusician": 7023,
    "Ġoutraged": 7024,
    "Ġdispar": 7025,
    "Ġsevent": 7026,
    "private": 7027,
    "ĠStrat": 7028,
    "ĠDelaware": 7029,
    "Ġshortly": 7030,
    "ĠTyson": 7031,
    "Ġvacant": 7032,
    "Ġexcellence": 7033,
    "ĠTonight": 7034,
    "Ġanalogy": 7035,
    "Ġchimpanz": 7036,
    "cur": 7037,
    "Ġfluids": 7038,
    "Ġmud": 7039,
    "ĠMuhammad": 7040,
    "ĠOculus": 7041,
    "ice": 7042,
    "Ġmediocre": 7043,
    "Ġprofess": 7044,
    "Ġb": 7045,
    "Ġcontamination": 7046,
    "Ġthose": 7047,
    "Ġbrokers": 7048,
    "Ġmentally": 7049,
    "Ġins": 7050,
    "Ġdissemin": 7051,
    "2003": 7052,
    "ĠEvans": 7053,
    "ibly": 7054,
    "Ġseparated": 7055,
    "Ġcater": 7056,
    "Ġprevented": 7057,
    "ographical": 7058,
    "ĠDamascus": 7059,
    "¬": 7060,
    "Ġlegit": 7061,
    "Ġvariability": 7062,
    "Ġhim": 7063,
    "Ġdropping": 7064,
    "Ġorganizers": 7065,
    "Ġfaculty": 7066,
    "Prom": 7067,
    "Ġelementary": 7068,
    "ational": 7069,
    "ĠSister": 7070,
    "Ġcinem": 7071,
    "ĠGors": 7072,
    "ĠSuper": 7073,
    "ĠTom": 7074,
    "ĠQU": 7075,
    "adjusted": 7076,
    "Ġscore": 7077,
    "arten": 7078,
    "Ġeventually": 7079,
    "Ġtitled": 7080,
    "funded": 7081,
    "Ġqui": 7082,
    "Ġrecruiting": 7083,
    "ĠKid": 7084,
    "Ġresembles": 7085,
    "Ġrings": 7086,
    "ĠAFL": 7087,
    "Ġautomatically": 7088,
    "Ġprevious": 7089,
    "Ġtyping": 7090,
    "ealing": 7091,
    "Analysis": 7092,
    "Ġothers": 7093,
    "hered": 7094,
    "Ġreminder": 7095,
    "Ġblowing": 7096,
    "Ġwells": 7097,
    "Ġtemporarily": 7098,
    "Ġcongestion": 7099,
    "Ġproposals": 7100,
    "Ġstrategic": 7101,
    "Ġmushroom": 7102,
    "Rober": 7103,
    "Ġsands": 7104,
    "Mer": 7105,
    "Ġ": 7106,
    "Ġpatriot": 7107,
    "Ġfearful": 7108,
    "ĠStarr": 7109,
    "atus": 7110,
    "ĠKnox": 7111,
    "Ġunderstand": 7112,
    "mination": 7113,
    "Ġband": 7114,
    "Day": 7115,
    "Ġendanger": 7116,
    "ĠTw": 7117,
    "ĠEuro": 7118,
    "ĠOttawa": 7119,
    "Ġhumanitarian": 7120,
    "Ġthieves": 7121,
    "ĠLuxem": 7122,
    "EMA": 7123,
    "Ġdrilled": 7124,
    "Ġmom": 7125,
    "Ġdisability": 7126,
    "ugg": 7127,
    "Ġpatience": 7128,
    "Ġrecru": 7129,
    "Ġfool": 7130,
    "clusive": 7131,
    "collar": 7132,
    "facing": 7133,
    "cats": 7134,
    "Ġwhispered": 7135,
    "brand": 7136,
    "uddle": 7137,
    "runner": 7138,
    "xy": 7139,
    "ĠGST": 7140,
    "Ġkiller": 7141,
    "Along": 7142,
    "ĠOdyssey": 7143,
    "Ġexecutives": 7144,
    "they": 7145,
    "hold": 7146,
    "Ġski": 7147,
    "Ġimmedi": 7148,
    "acle": 7149,
    "Ġyields": 7150,
    "ĠOpposition": 7151,
    "Ġcharacterization": 7152,
    "party": 7153,
    "Ġcir": 7154,
    "Ġtreasure": 7155,
    "Ġincapable": 7156,
    "op": 7157,
    "berto": 7158,
    "Ġcomprise": 7159,
    "UK": 7160,
    "Ġagricultural": 7161,
    "ĠNak": 7162,
    "ĠNAACP": 7163,
    "ugh": 7164,
    "Ġscarce": 7165,
    "Ne": 7166,
    "Ġfiery": 7167,
    "ĠHood": 7168,
    "Ġshit": 7169,
    "Ġfinishes": 7170,
    "Ġinflamm": 7171,
    "quite": 7172,
    "ĠMarian": 7173,
    "ĠBirds": 7174,
    "fil": 7175,
    "Ġraced": 7176,
    "Probably": 7177,
    "Ġstereo": 7178,
    "ĠVision": 7179,
    "Ġbelieve": 7180,
    "Ġhoax": 7181,
    "Ġsteak": 7182,
    "Ġdownt": 7183,
    "Ã§Ã£o": 7184,
    "Ġalbeit": 7185,
    "alla": 7186,
    "Ġassert": 7187,
    "Ġshame": 7188,
    "Ġdismant": 7189,
    "uffed": 7190,
    "vertisements": 7191,
    "Ġgrounds": 7192,
    "Ġ06": 7193,
    "erved": 7194,
    "Ġdying": 7195,
    "ĠOpen": 7196,
    "ĠMonst": 7197,
    "Ge": 7198,
    "Ġachie": 7199,
    "Ġguidance": 7200,
    "Ġpermanent": 7201,
    "Ġconj": 7202,
    "Was": 7203,
    "usa": 7204,
    "Ġmovements": 7205,
    "Ġunsub": 7206,
    "Ġfutile": 7207,
    "ix": 7208,
    "Ġsmartphone": 7209,
    "Ġantagon": 7210,
    "Ġunacceptable": 7211,
    "Ġkilometers": 7212,
    "ĠTickets": 7213,
    "osph": 7214,
    "ussen": 7215,
    "Ġlets": 7216,
    "Ġlur": 7217,
    "Ġvalidate": 7218,
    "Ġmanif": 7219,
    "Ġcra": 7220,
    "ĠCell": 7221,
    "IZ": 7222,
    "ĠTurks": 7223,
    "obile": 7224,
    "Ġ20": 7225,
    "Ġcurrent": 7226,
    "Ġsoap": 7227,
    "Ġsubmarine": 7228,
    "ĠSequ": 7229,
    "ounce": 7230,
    "Ġswimming": 7231,
    "ĠLuis": 7232,
    "ĠYaz": 7233,
    "ĠLB": 7234,
    "Sham": 7235,
    "syn": 7236,
    "akespe": 7237,
    "Ġswallow": 7238,
    "ĠClippers": 7239,
    "ĠNAFTA": 7240,
    "ĠInstall": 7241,
    "ĠMMA": 7242,
    "Ġassured": 7243,
    "Ġtranscription": 7244,
    "stone": 7245,
    "Ġaide": 7246,
    "Ġmodeled": 7247,
    "DAY": 7248,
    "Ġrepealed": 7249,
    "Rog": 7250,
    "Ġbeta": 7251,
    "aptic": 7252,
    "Ġforgiven": 7253,
    "Ġoperatives": 7254,
    "Ġaltering": 7255,
    "Ġjointly": 7256,
    "Ġamp": 7257,
    "irection": 7258,
    "over": 7259,
    "ĠLarry": 7260,
    "Ġvib": 7261,
    "taking": 7262,
    "Wil": 7263,
    "etroit": 7264,
    "elt": 7265,
    "OUR": 7266,
    "Ġsummar": 7267,
    "formed": 7268,
    "ought": 7269,
    "dney": 7270,
    "ICA": 7271,
    "ĠArs": 7272,
    "olithic": 7273,
    "umbs": 7274,
    "Ġeither": 7275,
    "Ġil": 7276,
    "ANS": 7277,
    "Ġbaby": 7278,
    "Ġinquiries": 7279,
    "Ð¹": 7280,
    "Cru": 7281,
    "idan": 7282,
    "Ġbuilding": 7283,
    "Ġresidents": 7284,
    "ADVERTISEMENT": 7285,
    "Ġcommon": 7286,
    "Ġfil": 7287,
    "Ġcheaper": 7288,
    "Ġvessels": 7289,
    "rella": 7290,
    "Ġservice": 7291,
    "ablish": 7292,
    "velop": 7293,
    "ĠGrand": 7294,
    "Ġdivided": 7295,
    "txt": 7296,
    "Ġstrik": 7297,
    "ĠAzerbaijan": 7298,
    "ĠRunner": 7299,
    "âĢľ[": 7300,
    "ĠSuarez": 7301,
    "54": 7302,
    "Ġtyp": 7303,
    "Sc": 7304,
    "Public": 7305,
    "ĠAqu": 7306,
    "Ġreconcile": 7307,
    "Ġviability": 7308,
    "Ġvolatility": 7309,
    "Ġtherm": 7310,
    "ĠRaw": 7311,
    "Ġglove": 7312,
    "Ġtypes": 7313,
    "Ġreacted": 7314,
    "Ġboot": 7315,
    "Ġglance": 7316,
    "gener": 7317,
    "57": 7318,
    "ĠKepler": 7319,
    "Ġignored": 7320,
    "ĠCanadian": 7321,
    "ship": 7322,
    "Ġacquitted": 7323,
    "Ġworthless": 7324,
    "Ġnurt": 7325,
    "Ġcooperating": 7326,
    "aints": 7327,
    "Ġambulance": 7328,
    "Ġprotecting": 7329,
    "Ġ128": 7330,
    "ĠNZ": 7331,
    "ĠCameron": 7332,
    "Ġtrauma": 7333,
    "Ġrec": 7334,
    "emale": 7335,
    "OC": 7336,
    "ÐµÑĤ": 7337,
    "Tax": 7338,
    "ĠDam": 7339,
    "Ġprotected": 7340,
    "metry": 7341,
    "Ġconvoy": 7342,
    "Ġrespons": 7343,
    "press": 7344,
    "Ġconflict": 7345,
    "odes": 7346,
    "eger": 7347,
    "Ġrural": 7348,
    "iott": 7349,
    "Ġpossessed": 7350,
    "pick": 7351,
    "after": 7352,
    "Ġanonymous": 7353,
    "ĠMead": 7354,
    "Ġdebacle": 7355,
    "angular": 7356,
    "Ġreactors": 7357,
    "Ġeconomists": 7358,
    "Ġvampire": 7359,
    "fe": 7360,
    "Ġhormones": 7361,
    "ĠCB": 7362,
    "ĠAthletic": 7363,
    "Ġsufficient": 7364,
    "Ġcrises": 7365,
    "ĠEnlight": 7366,
    "ĠDuc": 7367,
    "Ġtrig": 7368,
    "Ġmatt": 7369,
    "Ġlucky": 7370,
    "Ġagree": 7371,
    "Ġexperienced": 7372,
    "IP": 7373,
    "Ġfather": 7374,
    "Ġsympath": 7375,
    "ĠVillage": 7376,
    "ĠThose": 7377,
    "Dis": 7378,
    "Ġstolen": 7379,
    "thodox": 7380,
    "Ġdocumented": 7381,
    "Ġadaptations": 7382,
    "Ġrespond": 7383,
    "Net": 7384,
    "ĠLeone": 7385,
    "isation": 7386,
    "Ġvirtual": 7387,
    "ĠFalcon": 7388,
    "otional": 7389,
    "Ġprobability": 7390,
    "Ġpackets": 7391,
    "Ġharm": 7392,
    "zi": 7393,
    "Ġspecs": 7394,
    "mot": 7395,
    "Ġplaybook": 7396,
    "Ġcompress": 7397,
    "Ġopioid": 7398,
    "['": 7399,
    "Ġnot": 7400,
    "Ġadvis": 7401,
    "¨": 7402,
    "Ġcaffeine": 7403,
    "Ġsporting": 7404,
    "Ġneurological": 7405,
    "min": 7406,
    "Ġidentical": 7407,
    "Ġeman": 7408,
    "ĠIntercept": 7409,
    "ĠLibertarian": 7410,
    "Ġsmugg": 7411,
    "hedral": 7412,
    "Ġretaining": 7413,
    "Ġelites": 7414,
    "ĠJac": 7415,
    "ĠEarn": 7416,
    "Sum": 7417,
    "Ġplayback": 7418,
    "Ġmog": 7419,
    "ĠMore": 7420,
    "Ġlots": 7421,
    "Ġreferend": 7422,
    "Ġinherited": 7423,
    "Ġdigging": 7424,
    "Ġdu": 7425,
    "Ġstabbed": 7426,
    "Ġfibers": 7427,
    "Ġshipment": 7428,
    "Ġcasualties": 7429,
    "Muslim": 7430,
    "supported": 7431,
    "ikes": 7432,
    "ĠHulu": 7433,
    "ÏĦ": 7434,
    "Ġpounds": 7435,
    "Ġenvironments": 7436,
    "Ġeducated": 7437,
    "Ġ74": 7438,
    "Ġcit": 7439,
    "Ġthrowing": 7440,
    "Ġcharges": 7441,
    "According": 7442,
    "ardo": 7443,
    "Ġtroubling": 7444,
    "Ġentirety": 7445,
    "ĠPalestinians": 7446,
    "Ġdivers": 7447,
    "covered": 7448,
    "Ġdevote": 7449,
    "Ġbed": 7450,
    "ĠKeynes": 7451,
    "acial": 7452,
    "ĠBucc": 7453,
    "Ġconcerned": 7454,
    "dig": 7455,
    "ĠPeru": 7456,
    "Ġrobots": 7457,
    "existing": 7458,
    "ĠTurkey": 7459,
    "ideos": 7460,
    "Fans": 7461,
    "ĠPas": 7462,
    "Ġhypot": 7463,
    "ĠHop": 7464,
    "Ġactors": 7465,
    "Ġdissatisf": 7466,
    "inating": 7467,
    "Ġimplying": 7468,
    "ĠBengals": 7469,
    "project": 7470,
    "Ġnine": 7471,
    "err": 7472,
    "ĠDesign": 7473,
    "lected": 7474,
    "Ġinitiate": 7475,
    "Ġinvestors": 7476,
    "Ġroadmap": 7477,
    "Ar": 7478,
    "Ġdear": 7479,
    "Ġspreadsheet": 7480,
    "Ġguerr": 7481,
    "Ġinsist": 7482,
    "inated": 7483,
    "oles": 7484,
    "Ġappear": 7485,
    "Ġerad": 7486,
    "inkle": 7487,
    "Ġhomeowners": 7488,
    "yang": 7489,
    "Bat": 7490,
    "ages": 7491,
    "ĠDot": 7492,
    "ĠBird": 7493,
    "Ġhourly": 7494,
    "ĠIB": 7495,
    "Ġaest": 7496,
    "ĠLords": 7497,
    "odge": 7498,
    "Ġtestify": 7499,
    "Ġbec": 7500,
    "Ġbottle": 7501,
    "ĠFTC": 7502,
    "Ġanch": 7503,
    "rne": 7504,
    "ĠET": 7505,
    "ĠHos": 7506,
    "ĠRobin": 7507,
    "rupt": 7508,
    "Sunday": 7509,
    "Ġtender": 7510,
    "Ġtelev": 7511,
    "Tele": 7512,
    "uate": 7513,
    "of": 7514,
    "Ġtape": 7515,
    "uns": 7516,
    "ĠKobe": 7517,
    "Ġsurprisingly": 7518,
    "umps": 7519,
    "Ġsightings": 7520,
    "Ġwra": 7521,
    "Ġkernel": 7522,
    "Ġtract": 7523,
    "Ġver": 7524,
    "159": 7525,
    "ellar": 7526,
    "Ġmeasure": 7527,
    "vertising": 7528,
    "Ġmum": 7529,
    "ĠMcN": 7530,
    "Ġbreat": 7531,
    "ĠTechnologies": 7532,
    "Ġerr": 7533,
    "acket": 7534,
    "Ġ255": 7535,
    "ĠMets": 7536,
    "Ġcrack": 7537,
    "Ġaddict": 7538,
    "Ġpathetic": 7539,
    "Ġpict": 7540,
    "Ġingredient": 7541,
    "Ġace": 7542,
    "Ġcomr": 7543,
    "Ġgraduates": 7544,
    "jav": 7545,
    "Ġhier": 7546,
    "50": 7547,
    "Ġamong": 7548,
    "aming": 7549,
    "Ġactivities": 7550,
    "phies": 7551,
    "Ġrallying": 7552,
    "jri": 7553,
    "Ġthree": 7554,
    "Ġsurvived": 7555,
    "ĠHuff": 7556,
    "Ġatmosphere": 7557,
    "Ġseparatist": 7558,
    "imposed": 7559,
    "Ġmount": 7560,
    "Ġisolate": 7561,
    "Ġtoken": 7562,
    ".)": 7563,
    "Ġmem": 7564,
    "Ġhect": 7565,
    "Ġmoving": 7566,
    "ĠEduc": 7567,
    "Carl": 7568,
    "ĠMod": 7569,
    "ĠKr": 7570,
    "Roman": 7571,
    "ĠWorse": 7572,
    "ĠThings": 7573,
    "Ġcough": 7574,
    "ĠVirt": 7575,
    "Ġreleases": 7576,
    "oom": 7577,
    "ani": 7578,
    "along": 7579,
    "league": 7580,
    "col": 7581,
    "ultan": 7582,
    "Ġdamned": 7583,
    "Ġgrade": 7584,
    "Ġconfidence": 7585,
    "Ġturning": 7586,
    "AU": 7587,
    "Ġexplains": 7588,
    "cht": 7589,
    "Ġlegitimate": 7590,
    "ĠInt": 7591,
    "ĠDragons": 7592,
    "Ġ28": 7593,
    "Court": 7594,
    "usted": 7595,
    "Ġdeter": 7596,
    "Ġdesperate": 7597,
    "Ġinjuring": 7598,
    "ablished": 7599,
    "ĠRift": 7600,
    "ĠData": 7601,
    "ĠDisease": 7602,
    "ĠBundes": 7603,
    "Ġbio": 7604,
    "Ġdetr": 7605,
    "Ġcu": 7606,
    "Ġliable": 7607,
    "An": 7608,
    "Ġequals": 7609,
    "Ġwindow": 7610,
    "Ġburgl": 7611,
    "Ġdoes": 7612,
    "ochond": 7613,
    "VP": 7614,
    "ovie": 7615,
    "ĠAND": 7616,
    "ollar": 7617,
    "138": 7618,
    "Ġsilicon": 7619,
    "Ġincentives": 7620,
    "Ġlore": 7621,
    "ĠBeh": 7622,
    "Ġworld": 7623,
    "Ġsensors": 7624,
    "Ġrenders": 7625,
    "ĠCongress": 7626,
    "Ġerased": 7627,
    "Ġtrain": 7628,
    "Ġfun": 7629,
    "pril": 7630,
    "anth": 7631,
    "Ġcosm": 7632,
    "ĠSen": 7633,
    "Ġcasting": 7634,
    "ande": 7635,
    "ĠK": 7636,
    "Ġavoid": 7637,
    "ravity": 7638,
    "Ġsweat": 7639,
    "Mobile": 7640,
    "Ġdiscarded": 7641,
    "nm": 7642,
    "Ġfat": 7643,
    "ĠPict": 7644,
    "mans": 7645,
    "ield": 7646,
    "ental": 7647,
    "ĠMaher": 7648,
    "ĠClark": 7649,
    "ĠUK": 7650,
    "ĠHitch": 7651,
    "berger": 7652,
    "âĢĵâĢĵ": 7653,
    "Ġdrinking": 7654,
    "âĢĿ?": 7655,
    "Ġlone": 7656,
    "Ġcelebrities": 7657,
    "ĠBrendan": 7658,
    "ascist": 7659,
    "ĠSat": 7660,
    "ĠTravis": 7661,
    "Wal": 7662,
    "ĠNath": 7663,
    "ĠProvidence": 7664,
    "Ġspies": 7665,
    "ĠSy": 7666,
    "Ġpneum": 7667,
    "u": 7668,
    "ĠEllison": 7669,
    "Ġ73": 7670,
    "ĠAsh": 7671,
    "Reg": 7672,
    "tlement": 7673,
    "ĠBlake": 7674,
    "ĠNOR": 7675,
    "])": 7676,
    "unky": 7677,
    "Ġabilities": 7678,
    "Ġbuildings": 7679,
    "Ġsigns": 7680,
    "ollywood": 7681,
    "Ġstyl": 7682,
    "Ġnegotiations": 7683,
    "Ġdiscour": 7684,
    "Ġdeck": 7685,
    "Ġalternatives": 7686,
    "Ġpopped": 7687,
    "ĠWizards": 7688,
    "ĠTournament": 7689,
    "ĠCall": 7690,
    "Ġmic": 7691,
    "ĠBDS": 7692,
    "Ġalpha": 7693,
    "Ġattributed": 7694,
    "cop": 7695,
    "bably": 7696,
    "Ġdisguise": 7697,
    "Ġautobi": 7698,
    "Ġmaterials": 7699,
    "Ġinvestigations": 7700,
    "Ġhear": 7701,
    "hement": 7702,
    "Ġmonumental": 7703,
    "si": 7704,
    "ĠSol": 7705,
    "ĠQueen": 7706,
    "trained": 7707,
    "Ġspeed": 7708,
    "Ġentrepreneurs": 7709,
    "ĠMessi": 7710,
    "Ġapprove": 7711,
    "Ġcompromising": 7712,
    "Ġsource": 7713,
    "asting": 7714,
    "aining": 7715,
    "Something": 7716,
    "Ġkeeps": 7717,
    "Ġcraz": 7718,
    "Ġpage": 7719,
    "Ġadmire": 7720,
    "âĢ³": 7721,
    "Ġtelescope": 7722,
    "Ġadverse": 7723,
    "Ġroster": 7724,
    "Ġintuitive": 7725,
    "Ġcry": 7726,
    "Ġbombers": 7727,
    "Ġevaluated": 7728,
    "anche": 7729,
    "ĠFi": 7730,
    "Ġcarve": 7731,
    "Ġenhanced": 7732,
    "ĠWait": 7733,
    "Ġambition": 7734,
    "Ġrocket": 7735,
    "Ġsister": 7736,
    "ĠEnvironmental": 7737,
    "ĠOg": 7738,
    "ĠActually": 7739,
    "Ġpot": 7740,
    "ĠWindows": 7741,
    "ĠFol": 7742,
    "ĠEle": 7743,
    "ĠRena": 7744,
    "oard": 7745,
    "ĠPacific": 7746,
    "ĠBasic": 7747,
    "Ġdish": 7748,
    "Ġbroadcasts": 7749,
    "Ġslap": 7750,
    "Ġrecalled": 7751,
    "aho": 7752,
    "Ġpassword": 7753,
    "Ġgreatly": 7754,
    "Ġcorners": 7755,
    "resh": 7756,
    "ambers": 7757,
    "Ġbehind": 7758,
    "wartz": 7759,
    "lene": 7760,
    "Ġaccommodation": 7761,
    "Ġdecentral": 7762,
    "conscious": 7763,
    "Ġmessages": 7764,
    "Ġwrongdoing": 7765,
    "ĠTeh": 7766,
    "ĠHear": 7767,
    "iano": 7768,
    "ĠWhe": 7769,
    "changing": 7770,
    "Ġunderstood": 7771,
    "ĠBroadway": 7772,
    "Lev": 7773,
    "Ġcultivated": 7774,
    "×Ļ": 7775,
    "Ġtension": 7776,
    "ĠWyoming": 7777,
    "Quest": 7778,
    "ĠWhereas": 7779,
    "Disp": 7780,
    "ĠSpart": 7781,
    "acker": 7782,
    "Ġads": 7783,
    "ant": 7784,
    "Ġtrailing": 7785,
    "Ġproliferation": 7786,
    "Ġrealizing": 7787,
    "Az": 7788,
    "bilt": 7789,
    "ĠDog": 7790,
    "Ġupd": 7791,
    "profile": 7792,
    "atered": 7793,
    "Ġdiffer": 7794,
    "UM": 7795,
    "ĠVoting": 7796,
    "izer": 7797,
    "reek": 7798,
    "Ġsignificance": 7799,
    "Ġadam": 7800,
    "Ġes": 7801,
    "ground": 7802,
    "Ġelectricity": 7803,
    "worker": 7804,
    "ĠPanthers": 7805,
    "Ġlarg": 7806,
    "?'": 7807,
    "Ġfo": 7808,
    "Ġpeculiar": 7809,
    "ined": 7810,
    "Ġhands": 7811,
    "ĠCritical": 7812,
    "Ġawaken": 7813,
    "Ġspectators": 7814,
    "normal": 7815,
    "fter": 7816,
    "Ġprosecutor": 7817,
    "Ġcontem": 7818,
    "Ġwarrants": 7819,
    "drive": 7820,
    "Ġexternal": 7821,
    "ĠConnor": 7822,
    "ĠDevice": 7823,
    "ĠCas": 7824,
    "Ġretweet": 7825,
    "ĠCyprus": 7826,
    "Ġve": 7827,
    "Ġ1962": 7828,
    "Ġminorities": 7829,
    "AT": 7830,
    "ĠDerby": 7831,
    "Ġcount": 7832,
    "ĠMountains": 7833,
    "Ġexercised": 7834,
    "ills": 7835,
    "ned": 7836,
    "»¿": 7837,
    "URE": 7838,
    "mat": 7839,
    "bury": 7840,
    "Ġupgrade": 7841,
    "Ġê": 7842,
    "ĠLithuania": 7843,
    "Imp": 7844,
    "Ġranc": 7845,
    "Ġawait": 7846,
    "ĠSup": 7847,
    "Ġpri": 7848,
    "Her": 7849,
    "ĠIntegr": 7850,
    "Ġfingerprints": 7851,
    "Ġdop": 7852,
    "ĠLeonard": 7853,
    "Ġseafood": 7854,
    "Ġintercourse": 7855,
    "Ġsack": 7856,
    "Ġembark": 7857,
    "ĠStra": 7858,
    "Ġintercept": 7859,
    "ãĥ": 7860,
    "Ġdemocracies": 7861,
    "ĠHiggins": 7862,
    "wan": 7863,
    "ĠZucker": 7864,
    "ĠHughes": 7865,
    "Ġdrums": 7866,
    "Ġbugs": 7867,
    "Ġbicycles": 7868,
    "\"": 7869,
    "ĠMic": 7870,
    "ĠDj": 7871,
    "ĠSaud": 7872,
    "Ġshipments": 7873,
    "Ġheated": 7874,
    "ode": 7875,
    "Ġrockets": 7876,
    "Impro": 7877,
    "fat": 7878,
    "sponsored": 7879,
    "ANT": 7880,
    "Ġcross": 7881,
    "Ġinteraction": 7882,
    "Ġfortun": 7883,
    "ability": 7884,
    "Ġrather": 7885,
    "Internet": 7886,
    "Ġgeographical": 7887,
    "Ġsettle": 7888,
    "Ġtendencies": 7889,
    "Ġenhancing": 7890,
    "rients": 7891,
    "Ġhorsepower": 7892,
    "terior": 7893,
    "GRE": 7894,
    "Ġwolf": 7895,
    "Ġruling": 7896,
    "'m": 7897,
    "Ġsurvive": 7898,
    "ĠOrt": 7899,
    "Ġcarp": 7900,
    "Ġquestioning": 7901,
    "ling": 7902,
    "Ġrestore": 7903,
    "ĠPlanet": 7904,
    "Ġrelies": 7905,
    "Ġsupervisor": 7906,
    "ĠConsult": 7907,
    "Ġconsidering": 7908,
    "last": 7909,
    "ĠPage": 7910,
    "Ġweighing": 7911,
    "Ġtarget": 7912,
    "ĠJohnny": 7913,
    "Ġhoused": 7914,
    "Ġash": 7915,
    "ĠSays": 7916,
    "ETH": 7917,
    "Ġbeaches": 7918,
    "Ġpigs": 7919,
    "Ġorganisations": 7920,
    "itting": 7921,
    "Ġteasp": 7922,
    "Ġsouthern": 7923,
    "Ġsophomore": 7924,
    "Ã«": 7925,
    "ĠCold": 7926,
    "tern": 7927,
    "akin": 7928,
    "Ġtranspl": 7929,
    "ov": 7930,
    "Ġchim": 7931,
    "Ġdelivered": 7932,
    "WA": 7933,
    "Ġcounty": 7934,
    "ĠHab": 7935,
    "Ġpolitely": 7936,
    "ĠÐ¾": 7937,
    "AS": 7938,
    "athetic": 7939,
    "Ġterminal": 7940,
    "opening": 7941,
    "Ġlooks": 7942,
    "ĠYahoo": 7943,
    "Ġdefy": 7944,
    "Sn": 7945,
    "Ġenz": 7946,
    "ĠColonel": 7947,
    "Ġlearns": 7948,
    "ĠWeapons": 7949,
    "ĠTR": 7950,
    "amped": 7951,
    "Ġpublications": 7952,
    "Reilly": 7953,
    "ĠOrtiz": 7954,
    "Ġaccompl": 7955,
    "Ġinstances": 7956,
    "Ġdefendants": 7957,
    "Ġpast": 7958,
    "Ġreturned": 7959,
    "loc": 7960,
    "mod": 7961,
    "bo": 7962,
    "Ġexperience": 7963,
    "Ġfirearms": 7964,
    "char": 7965,
    "Ġcombines": 7966,
    "ĠKurds": 7967,
    "Ġmus": 7968,
    "Air": 7969,
    "Ġstretching": 7970,
    "lov": 7971,
    "Ġbrowse": 7972,
    "Ġcurric": 7973,
    "145": 7974,
    "ĠHum": 7975,
    "Ġfactual": 7976,
    "ĠPos": 7977,
    "Ġtasked": 7978,
    "inness": 7979,
    "ĠPL": 7980,
    "ictionary": 7981,
    "ĠBaptist": 7982,
    "Econom": 7983,
    "Ġdilem": 7984,
    "opal": 7985,
    "ĠTurnbull": 7986,
    "KA": 7987,
    "Ġreson": 7988,
    "ĠREL": 7989,
    "Ġsucceed": 7990,
    "xton": 7991,
    "person": 7992,
    "Ġfart": 7993,
    "Ġis": 7994,
    "Ġamid": 7995,
    "assy": 7996,
    "Ġfund": 7997,
    "ĠCreator": 7998,
    "agg": 7999,
    "ĠNEWS": 8000,
    "ny": 8001,
    "ĠTask": 8002,
    "ĠJP": 8003,
    "istle": 8004,
    "Wood": 8005,
    "Ġnewsletters": 8006,
    "wire": 8007,
    "Ġoneself": 8008,
    "Ġprayer": 8009,
    "Ġonly": 8010,
    "ĠPengu": 8011,
    "Ġregistry": 8012,
    "Ġdiscussions": 8013,
    "ï¼": 8014,
    "Paul": 8015,
    "Ġproduced": 8016,
    "Ġcrosses": 8017,
    "Ġ900": 8018,
    "1": 8019,
    "ĠOlsen": 8020,
    "ĠCom": 8021,
    "ĠRadio": 8022,
    "Ġquart": 8023,
    "Ġearlier": 8024,
    "liners": 8025,
    "Ġdamages": 8026,
    "ĠJudaism": 8027,
    "ifted": 8028,
    "IB": 8029,
    "Ġnominations": 8030,
    "Ġmanageable": 8031,
    "Ġfem": 8032,
    "ropolis": 8033,
    "charging": 8034,
    "Ġdiplomat": 8035,
    "Ġtiers": 8036,
    "ĠProducer": 8037,
    "ĠTribune": 8038,
    "ĠWatts": 8039,
    "ĠForbes": 8040,
    "Ġdifficulties": 8041,
    "lly": 8042,
    "Ġcautioned": 8043,
    "UPDATE": 8044,
    "ĠFraz": 8045,
    "Ġtexture": 8046,
    "Ġstayed": 8047,
    "Ġpurity": 8048,
    "iors": 8049,
    "bourne": 8050,
    "fits": 8051,
    "ctr": 8052,
    "Ġexpresses": 8053,
    "Ġunbeat": 8054,
    "athing": 8055,
    "Ġprecautions": 8056,
    "Ġvisible": 8057,
    "Ġpul": 8058,
    "nee": 8059,
    "on": 8060,
    "ĠWeekend": 8061,
    "author": 8062,
    "ĠGreeks": 8063,
    "Ġignoring": 8064,
    "aping": 8065,
    "Ġsacrificed": 8066,
    "ĠLegend": 8067,
    "Ġext": 8068,
    "OO": 8069,
    "Ġequally": 8070,
    "Ġmessy": 8071,
    "Ġprofiling": 8072,
    "ĠScotia": 8073,
    "Ġlobby": 8074,
    "Ġinternally": 8075,
    "frame": 8076,
    "Return": 8077,
    "ĠTD": 8078,
    "ĠâĢķ": 8079,
    "Ġcommunic": 8080,
    "iley": 8081,
    "missions": 8082,
    "ĠPierce": 8083,
    "adan": 8084,
    "le": 8085,
    "Ġsizes": 8086,
    "Ġspark": 8087,
    "ĠJud": 8088,
    "venge": 8089,
    "ashes": 8090,
    "cific": 8091,
    "ĠS": 8092,
    "Ġsexuality": 8093,
    "ĠTHAT": 8094,
    "ĠUnder": 8095,
    "ĠInteractive": 8096,
    "keley": 8097,
    "ĠSyri": 8098,
    "Us": 8099,
    "ĠV": 8100,
    "Ġdisasters": 8101,
    "Ġintellectuals": 8102,
    "ulture": 8103,
    "Ġbak": 8104,
    "ĠHammer": 8105,
    "Ġoccurrence": 8106,
    "Ġretailer": 8107,
    "itational": 8108,
    "Ġcompile": 8109,
    "Ġunarmed": 8110,
    "ĠJavaScript": 8111,
    "Ġ-->": 8112,
    "Mos": 8113,
    "Ġofficials": 8114,
    "ĠNeo": 8115,
    "ĠCoch": 8116,
    "ra": 8117,
    "ney": 8118,
    "Ġprocurement": 8119,
    "ĠIll": 8120,
    "ĠSeven": 8121,
    "Ġinstalling": 8122,
    "It": 8123,
    "Ġshade": 8124,
    "Ġpopular": 8125,
    "igious": 8126,
    "Written": 8127,
    "Ġ#": 8128,
    "ĠVault": 8129,
    "Ġexecuting": 8130,
    "Ġoutdated": 8131,
    "ĠRooney": 8132,
    "ĠAch": 8133,
    "Ġprosecutions": 8134,
    "Ġtaste": 8135,
    "apego": 8136,
    "Ġfailure": 8137,
    "ĠRogers": 8138,
    "Ġremedy": 8139,
    "ĠTodd": 8140,
    "ĠFrequ": 8141,
    "ĠOfficers": 8142,
    "ĠSometimes": 8143,
    "Ġmetro": 8144,
    "Ġshaking": 8145,
    "ĠMonaco": 8146,
    "hour": 8147,
    "ĠGuatemala": 8148,
    "Ġbeforehand": 8149,
    "Ġhabits": 8150,
    "opus": 8151,
    "ĠRevenue": 8152,
    "Ġclaims": 8153,
    "Ġpilgr": 8154,
    "anger": 8155,
    "Ġconsumers": 8156,
    "Ġlateral": 8157,
    "ĠLGBTQ": 8158,
    "ĠDeutsche": 8159,
    "ril": 8160,
    "Ġquestioned": 8161,
    "onna": 8162,
    "Ġremained": 8163,
    "Ġloyalty": 8164,
    "rencies": 8165,
    "ileaks": 8166,
    "Ġtournaments": 8167,
    "Ġrevol": 8168,
    "ounded": 8169,
    "Ġbreakout": 8170,
    "entric": 8171,
    "Ġpleasure": 8172,
    "ĠÂ·": 8173,
    "ĠSword": 8174,
    "Ġdisg": 8175,
    "works": 8176,
    "atever": 8177,
    "Ġdisillusion": 8178,
    "ĠHillary": 8179,
    "emic": 8180,
    "Ġdeclining": 8181,
    "third": 8182,
    "Ġlimit": 8183,
    "Ġtrave": 8184,
    "ĠContin": 8185,
    "Ġinvention": 8186,
    "Ġgrocer": 8187,
    "Ġguy": 8188,
    "ĠHond": 8189,
    "ivid": 8190,
    "Ġbehavior": 8191,
    "Ġunc": 8192,
    "Ġ:=": 8193,
    "Ġundec": 8194,
    "Ġseism": 8195,
    "peace": 8196,
    "yle": 8197,
    "ĠTop": 8198,
    "ĠUnic": 8199,
    "into": 8200,
    "Ġempowering": 8201,
    "ipping": 8202,
    "Ġoffensive": 8203,
    "Ġtomato": 8204,
    "Ġdevices": 8205,
    "umat": 8206,
    "Ġflav": 8207,
    "ĠHarlem": 8208,
    "Ġmonkeys": 8209,
    "Ġvolunteers": 8210,
    "05": 8211,
    "ĠAdditional": 8212,
    "ĠÂ»": 8213,
    "Ġscam": 8214,
    "horn": 8215,
    "Ġspoilers": 8216,
    "Ġfeeding": 8217,
    "Ġunpredict": 8218,
    "Ġpossesses": 8219,
    "Ġvehicle": 8220,
    "Ġextraordinarily": 8221,
    "Ġsavage": 8222,
    "Ġpicking": 8223,
    "DT": 8224,
    "icult": 8225,
    "Ġabsolute": 8226,
    "gether": 8227,
    "Ġdaring": 8228,
    "etro": 8229,
    "ickets": 8230,
    "Ġcorrespondence": 8231,
    "Ġfiles": 8232,
    "Ġcruise": 8233,
    "Ġprocesses": 8234,
    "ĠKickstarter": 8235,
    "udge": 8236,
    "ysical": 8237,
    "True": 8238,
    "Another": 8239,
    "ĠAvengers": 8240,
    "Ġghosts": 8241,
    "Ġinterfere": 8242,
    "ĠSheldon": 8243,
    "ĠColl": 8244,
    "Ġhesitate": 8245,
    "hetto": 8246,
    "Ġdim": 8247,
    "Ġnominal": 8248,
    "ĠManual": 8249,
    "Ġneut": 8250,
    "ronting": 8251,
    "Ġ/>": 8252,
    "Ġprices": 8253,
    "Ġplays": 8254,
    "ĠeSports": 8255,
    "ximately": 8256,
    "ival": 8257,
    "Ġhavoc": 8258,
    "Ġbaseline": 8259,
    "Ġinclude": 8260,
    "ĠNEW": 8261,
    "Ġtrib": 8262,
    "asking": 8263,
    "Ġbishops": 8264,
    "ĠNazis": 8265,
    "Over": 8266,
    "Ġthis": 8267,
    "Ġinstant": 8268,
    "usra": 8269,
    "Ġmogul": 8270,
    "Ġhypothesis": 8271,
    "ĠSpike": 8272,
    "ciples": 8273,
    "ĠQuinn": 8274,
    "wal": 8275,
    "ĠGreens": 8276,
    "Ġsailing": 8277,
    "Ġdamage": 8278,
    "Ġflex": 8279,
    "':": 8280,
    "Ġsap": 8281,
    "Ġchannel": 8282,
    "Ġappointments": 8283,
    "ĠMiss": 8284,
    "ORT": 8285,
    "ĠEdge": 8286,
    "ĠDNC": 8287,
    "Ġchapter": 8288,
    "Ġbeliefs": 8289,
    "Ġbehaving": 8290,
    "viol": 8291,
    "Ġpoetry": 8292,
    "FI": 8293,
    "Ġphilosopher": 8294,
    "Ġcope": 8295,
    "ĠDespite": 8296,
    "orse": 8297,
    "Ġtex": 8298,
    "urring": 8299,
    "ĠAlto": 8300,
    "Ġadolesc": 8301,
    "vard": 8302,
    "ĠUW": 8303,
    "Ġcommonplace": 8304,
    "Ġabstract": 8305,
    "Ġder": 8306,
    "Jonathan": 8307,
    "ĠOrche": 8308,
    "Gener": 8309,
    "sector": 8310,
    "ĠWork": 8311,
    "Large": 8312,
    "Ĥ": 8313,
    "Ġbrill": 8314,
    "Ġwhip": 8315,
    "ĠJulius": 8316,
    "oses": 8317,
    "ĠQB": 8318,
    "ĠISIS": 8319,
    "Ġdespite": 8320,
    "Ġunlock": 8321,
    "issan": 8322,
    "Ġ(": 8323,
    "ĠMoreover": 8324,
    "Ŀ": 8325,
    "Ġinspections": 8326,
    "Ġro": 8327,
    "Ġdating": 8328,
    "Ġvou": 8329,
    "âĢĿ),": 8330,
    "ĠEag": 8331,
    "unity": 8332,
    "Ġinterrupted": 8333,
    "ĠAuthorities": 8334,
    "Ġresignation": 8335,
    "recogn": 8336,
    "Ġparticipation": 8337,
    "ĠRec": 8338,
    "ĠJuda": 8339,
    "ĠPRO": 8340,
    "Ġob": 8341,
    "Ġequipment": 8342,
    "ften": 8343,
    "Ġacknowledges": 8344,
    "Ġfront": 8345,
    "Ins": 8346,
    "ĠAB": 8347,
    "ibrary": 8348,
    "Ġunderstandably": 8349,
    "Ġdesper": 8350,
    "ĠOrigin": 8351,
    "Ġconsecutive": 8352,
    "ĠSEAL": 8353,
    "Ġbullpen": 8354,
    "Ġtolerant": 8355,
    "Ġswim": 8356,
    "Ġrain": 8357,
    "ĠNaj": 8358,
    "Ġdiet": 8359,
    "ĠAdam": 8360,
    "Ġconsistent": 8361,
    "ĠAV": 8362,
    "Ġvideos": 8363,
    "agent": 8364,
    "Ġinsurgency": 8365,
    "Ġthoughtful": 8366,
    "Ġdeficits": 8367,
    "Ġpasswords": 8368,
    "urch": 8369,
    "Ġcredits": 8370,
    "Ġforfe": 8371,
    "ĠFeb": 8372,
    "ĠRoh": 8373,
    "zens": 8374,
    "ĠMitchell": 8375,
    "Ġsupervisors": 8376,
    "wa": 8377,
    "Ġtesting": 8378,
    "Ġincompetent": 8379,
    "nick": 8380,
    "Ġtid": 8381,
    "Ġmild": 8382,
    "herty": 8383,
    "ĠHon": 8384,
    "anto": 8385,
    "Ġclips": 8386,
    "Ġtimes": 8387,
    "ics": 8388,
    "Ġspecify": 8389,
    "Ġarc": 8390,
    "Ġborrow": 8391,
    "Ġshelter": 8392,
    "ĠEug": 8393,
    "Ġhobb": 8394,
    "Ġmast": 8395,
    "ocide": 8396,
    "Ġhorns": 8397,
    "Ġprepar": 8398,
    "Ġfame": 8399,
    "Ġ240": 8400,
    "ĠEmmy": 8401,
    "Ġaddiction": 8402,
    "Ġger": 8403,
    "Ġdefaults": 8404,
    "ĠWATCH": 8405,
    "ĠDM": 8406,
    "Ġplugged": 8407,
    "Ġinstit": 8408,
    "Ġrunners": 8409,
    "Ġdiscounts": 8410,
    "untary": 8411,
    "ĠMuch": 8412,
    "ĠArist": 8413,
    "OD": 8414,
    "Ġwoods": 8415,
    "Ġhealing": 8416,
    "ĠMatt": 8417,
    "SS": 8418,
    "icip": 8419,
    "Ġdrones": 8420,
    "incinn": 8421,
    "day": 8422,
    "Ġresh": 8423,
    "Ġhamstring": 8424,
    "ĠReply": 8425,
    "ĠGuard": 8426,
    "Ġmeanwhile": 8427,
    "Ġturned": 8428,
    "omers": 8429,
    "ames": 8430,
    "Ġmosquito": 8431,
    "Ġeuth": 8432,
    "ĠCl": 8433,
    "Ġimprisoned": 8434,
    "Ġrabbit": 8435,
    "Ġimpeachment": 8436,
    "ĠDuty": 8437,
    "Ġlaunching": 8438,
    "Ġchecked": 8439,
    "ancies": 8440,
    "quire": 8441,
    "ĠBarclays": 8442,
    "Ġsnap": 8443,
    "java": 8444,
    "Ġmentioning": 8445,
    "Ġstore": 8446,
    "emade": 8447,
    "Ġsure": 8448,
    "Ġgn": 8449,
    "aucas": 8450,
    "ļ": 8451,
    "pre": 8452,
    "th": 8453,
    "walks": 8454,
    "ĠJames": 8455,
    "ĠClub": 8456,
    "Ġcompleted": 8457,
    "Ġcorrespond": 8458,
    "Ġregisters": 8459,
    "ĠDLC": 8460,
    "pad": 8461,
    "ifle": 8462,
    "sylv": 8463,
    "ĠOct": 8464,
    "Ġexecution": 8465,
    "paralle": 8466,
    "ĠKol": 8467,
    "Ġtoilet": 8468,
    "pers": 8469,
    "astrous": 8470,
    "ĠSavage": 8471,
    "left": 8472,
    "fi": 8473,
    "Ġblew": 8474,
    "ĠRodgers": 8475,
    "Ġharassed": 8476,
    "Ġskepticism": 8477,
    "Ha": 8478,
    "Ġintegrity": 8479,
    "ĠTPP": 8480,
    "Ġcan": 8481,
    "Ġå": 8482,
    "Ġconf": 8483,
    "Ġsecurity": 8484,
    "Ġcommands": 8485,
    "ÑĨ": 8486,
    "lined": 8487,
    "irlfriend": 8488,
    "Ġoccupied": 8489,
    "Ġreproduced": 8490,
    "Ġpatient": 8491,
    "ĠColon": 8492,
    "Ġdirects": 8493,
    "ĠBard": 8494,
    "Ġset": 8495,
    "ĠArsenal": 8496,
    "Ġones": 8497,
    "amo": 8498,
    "yers": 8499,
    "Ġdisconnect": 8500,
    "sh": 8501,
    "ĠNazi": 8502,
    "Ġprogression": 8503,
    "George": 8504,
    "Ġmalicious": 8505,
    "ÅŁ": 8506,
    "ĠRegister": 8507,
    "âĢ¦": 8508,
    "rency": 8509,
    "oto": 8510,
    "Ġclassmates": 8511,
    "ashtra": 8512,
    "Ġtraced": 8513,
    "Ġrebuilding": 8514,
    "sters": 8515,
    "ointed": 8516,
    "ĠRon": 8517,
    "Ġneighbor": 8518,
    "Ġdisdain": 8519,
    "ĠCatalan": 8520,
    "ouk": 8521,
    "Ġdudes": 8522,
    "ĠDS": 8523,
    "ĠApr": 8524,
    "Ġrotate": 8525,
    "ħ": 8526,
    "regular": 8527,
    "Ġsophisticated": 8528,
    "ĠTable": 8529,
    "Ġexplanation": 8530,
    "Ġtorture": 8531,
    "ĠJack": 8532,
    "lein": 8533,
    "Ġsamples": 8534,
    "Ġpork": 8535,
    "Ġpoorest": 8536,
    "ĠKR": 8537,
    "Ġpotential": 8538,
    "Ġoversee": 8539,
    "ĠMaid": 8540,
    "Ġmatter": 8541,
    "Ġinsect": 8542,
    "broken": 8543,
    "Ġwithout": 8544,
    "ĠMarlins": 8545,
    "Ġefficacy": 8546,
    "lahoma": 8547,
    "Ġmisunder": 8548,
    "ĠChurch": 8549,
    "Ġcoming": 8550,
    "Ġprotested": 8551,
    "Ġblocks": 8552,
    "Ġengage": 8553,
    "elo": 8554,
    "station": 8555,
    "Ġact": 8556,
    "uder": 8557,
    "CE": 8558,
    "otype": 8559,
    "Ġblue": 8560,
    "Ġsettlement": 8561,
    "Ġquir": 8562,
    "former": 8563,
    "Ġsucceeded": 8564,
    "hard": 8565,
    "zing": 8566,
    "Ġproportions": 8567,
    "Ġreferencing": 8568,
    "Ġdesignated": 8569,
    "Ġsexual": 8570,
    "ĠVM": 8571,
    "),[": 8572,
    "Ġallegation": 8573,
    "Jes": 8574,
    "Ġmentioned": 8575,
    "ĠChinese": 8576,
    "Ġchaotic": 8577,
    "¥": 8578,
    "amine": 8579,
    "Ġdenying": 8580,
    "ĠStill": 8581,
    "gia": 8582,
    "Ġneeding": 8583,
    "74": 8584,
    "Ġcrashes": 8585,
    "Ġslaughter": 8586,
    "ĠRub": 8587,
    "Ġdepressed": 8588,
    "ĠPearl": 8589,
    "Ġthigh": 8590,
    "Ġwaterfront": 8591,
    "ĠKat": 8592,
    "Ġtogether": 8593,
    "ĠRP": 8594,
    "plan": 8595,
    "Ġregrets": 8596,
    "Ġshoppers": 8597,
    "Ġfaith": 8598,
    "Ġheels": 8599,
    "ĠNewsletter": 8600,
    "Ġmisuse": 8601,
    "Ġsections": 8602,
    "ĠBrennan": 8603,
    "efficient": 8604,
    "Ġrecruit": 8605,
    "Through": 8606,
    "special": 8607,
    "APD": 8608,
    "Ġpremature": 8609,
    "Ñħ": 8610,
    "Ġ(âĢľ": 8611,
    "Ġreduced": 8612,
    ".\"": 8613,
    "earing": 8614,
    "Ġmicrosc": 8615,
    "Ġnodes": 8616,
    "Ġtennis": 8617,
    "Ġenemy": 8618,
    "ĠCreat": 8619,
    "Ġtweet": 8620,
    "Ġradio": 8621,
    "Ġstreets": 8622,
    "Ġhilarious": 8623,
    "Ġapps": 8624,
    "11": 8625,
    "Ġ450": 8626,
    "ĠCPS": 8627,
    "resent": 8628,
    "ĠStanford": 8629,
    "Ġdebit": 8630,
    "Ï": 8631,
    "ĠOctober": 8632,
    "à²": 8633,
    "rt": 8634,
    "ĠFrancis": 8635,
    "Ġpolicymakers": 8636,
    "ivals": 8637,
    "Ġphenomena": 8638,
    "Ġlives": 8639,
    "ĠOwens": 8640,
    "ĠImp": 8641,
    "iolet": 8642,
    "Ġsquat": 8643,
    "Ġnobody": 8644,
    "350": 8645,
    "ises": 8646,
    "lder": 8647,
    "Late": 8648,
    "Ġexploiting": 8649,
    "Senior": 8650,
    "million": 8651,
    "Ġ67": 8652,
    "Ġallerg": 8653,
    "ported": 8654,
    "ĠEye": 8655,
    "Ġdistricts": 8656,
    "Ġendurance": 8657,
    "Ġabrupt": 8658,
    "Ġoverview": 8659,
    "çļ": 8660,
    "Ġidentification": 8661,
    "ĠRoc": 8662,
    "Ġpointing": 8663,
    "ĠBour": 8664,
    "ĠDylan": 8665,
    "Ġduplicate": 8666,
    "Ġreconsider": 8667,
    "Ġloc": 8668,
    "Third": 8669,
    "Ġfinalists": 8670,
    "Ġcameo": 8671,
    "Ġlaughing": 8672,
    "uly": 8673,
    "Ġbones": 8674,
    "Ġultras": 8675,
    "Ġmascul": 8676,
    "ĠTier": 8677,
    "Ġshoes": 8678,
    "ĠMcCon": 8679,
    "Martin": 8680,
    "ĠCreed": 8681,
    "Ġnatural": 8682,
    "ftime": 8683,
    "ĠPhotoshop": 8684,
    "Ġprioritize": 8685,
    "ĠAren": 8686,
    "ĠSpicer": 8687,
    "ĠTak": 8688,
    "Ġculture": 8689,
    "itant": 8690,
    "Ġ84": 8691,
    "ĠSky": 8692,
    "htm": 8693,
    "articles": 8694,
    "ĠFDA": 8695,
    "Ġinaccur": 8696,
    "Ġmal": 8697,
    "Buy": 8698,
    "Ġtons": 8699,
    "Peter": 8700,
    "Ġfaulty": 8701,
    "onder": 8702,
    "Ġgamer": 8703,
    "Ġseverely": 8704,
    "Ġdefeat": 8705,
    "ĠRus": 8706,
    "Ġanticipation": 8707,
    "Ġsucks": 8708,
    "ihar": 8709,
    "Ġgenome": 8710,
    "Ġalarm": 8711,
    "Ġlifespan": 8712,
    "Ġpregn": 8713,
    "ockets": 8714,
    "Ã´": 8715,
    "Ġunderest": 8716,
    "Ġknocked": 8717,
    "ĠIndependence": 8718,
    "Ġobtaining": 8719,
    "Ġinsists": 8720,
    "Ġverify": 8721,
    "Ġdiscretion": 8722,
    "igate": 8723,
    "Ġunexpectedly": 8724,
    "cont": 8725,
    "Ġclause": 8726,
    "Ġseamless": 8727,
    "Ġiss": 8728,
    "55": 8729,
    "Ġoxide": 8730,
    "ĠClause": 8731,
    "Ġunavailable": 8732,
    "RB": 8733,
    "ĠJ": 8734,
    "adows": 8735,
    "inker": 8736,
    "Ġtrunk": 8737,
    "atic": 8738,
    "ĠJas": 8739,
    "ahon": 8740,
    "Ġnotify": 8741,
    "orthy": 8742,
    "local": 8743,
    "Ġstudio": 8744,
    ".âĢĶ": 8745,
    "ĠHawaii": 8746,
    "Ġbiblical": 8747,
    "All": 8748,
    "Ġpresenting": 8749,
    "lar": 8750,
    "ĠBoyd": 8751,
    "aconian": 8752,
    "ë": 8753,
    "Ġinteractions": 8754,
    "ĠÃ®": 8755,
    "ludes": 8756,
    "ĠMand": 8757,
    "fires": 8758,
    "Ġlast": 8759,
    "ĠKushner": 8760,
    "Ġtimber": 8761,
    "Ġarrangement": 8762,
    "Ġdiscipline": 8763,
    "ĠPolicy": 8764,
    "Ġflip": 8765,
    "Ġimproved": 8766,
    "egu": 8767,
    "ĠTransport": 8768,
    "Ġpracticed": 8769,
    "lla": 8770,
    "ĠPhillip": 8771,
    "Ġlion": 8772,
    "Ġupgr": 8773,
    "igated": 8774,
    "Ġquant": 8775,
    "nesday": 8776,
    "Ġevents": 8777,
    "Ġstreng": 8778,
    "Ġadded": 8779,
    "####": 8780,
    "ĠCrisis": 8781,
    "ativity": 8782,
    "py": 8783,
    "Ġelsewhere": 8784,
    "eer": 8785,
    "unning": 8786,
    "Ġlegal": 8787,
    "Saudi": 8788,
    "Fre": 8789,
    "Ġinterests": 8790,
    "Ġrandom": 8791,
    "Ġrefresh": 8792,
    "lio": 8793,
    "Ġprayers": 8794,
    "Ġeffic": 8795,
    "coming": 8796,
    "Ġfulf": 8797,
    "ĠFR": 8798,
    "ĠCarpenter": 8799,
    "Ġbroadcast": 8800,
    "Ġsevere": 8801,
    "Ġscrutiny": 8802,
    "Ġcapac": 8803,
    "connect": 8804,
    "Prime": 8805,
    "inspired": 8806,
    "Ġentertainment": 8807,
    "ob": 8808,
    "dep": 8809,
    "Thousands": 8810,
    "Ġpool": 8811,
    "Continue": 8812,
    "ĠPublic": 8813,
    "ĠSamuel": 8814,
    "ervation": 8815,
    "ĠR": 8816,
    "loading": 8817,
    "),": 8818,
    "ĠPistons": 8819,
    "stein": 8820,
    "Ġtel": 8821,
    "Ġcerebral": 8822,
    "pecially": 8823,
    "Ġderivatives": 8824,
    "shield": 8825,
    "ÏĤ": 8826,
    "ror": 8827,
    "ĠKatz": 8828,
    "orest": 8829,
    "Ġunilateral": 8830,
    "Ġ88": 8831,
    "Ġbooming": 8832,
    "Ġnostal": 8833,
    "tenance": 8834,
    "ĠLite": 8835,
    "astern": 8836,
    "Ġdisastrous": 8837,
    "aders": 8838,
    "Ġcontro": 8839,
    "Ġduties": 8840,
    "semble": 8841,
    "ĠPanel": 8842,
    "umably": 8843,
    "Ġtextbooks": 8844,
    "Ġnutrition": 8845,
    "gian": 8846,
    "Ġambassador": 8847,
    "icit": 8848,
    "Ġroute": 8849,
    "ĠDOM": 8850,
    "ĠPyrrha": 8851,
    "ĠSquare": 8852,
    "ãģĻ": 8853,
    "rup": 8854,
    "PDF": 8855,
    "Stock": 8856,
    "Ġphysiological": 8857,
    "vette": 8858,
    "Ġtraditional": 8859,
    "Ġflatten": 8860,
    "ĠTayyip": 8861,
    "ĠHamilton": 8862,
    "ĠThat": 8863,
    "Ġgrey": 8864,
    "260": 8865,
    "Ġslick": 8866,
    "Ġcotton": 8867,
    "Ġtorque": 8868,
    "Ġholog": 8869,
    "MO": 8870,
    "Ġriding": 8871,
    "ag": 8872,
    "Travel": 8873,
    "ingle": 8874,
    "Ġcharity": 8875,
    "len": 8876,
    "Ġindications": 8877,
    "Ġarticulated": 8878,
    "Ġstone": 8879,
    "Ġsubt": 8880,
    "Ġstudy": 8881,
    "Ġvoluntarily": 8882,
    "Ġhad": 8883,
    "Friend": 8884,
    "inois": 8885,
    "ĠGive": 8886,
    "ĠParish": 8887,
    "ĠKorea": 8888,
    "ĠDebbie": 8889,
    "nn": 8890,
    "Ġdisease": 8891,
    "Ġretreat": 8892,
    "Ġverse": 8893,
    "Ġtenth": 8894,
    "Ġquantitative": 8895,
    "Ġpassed": 8896,
    "ÂĢÂĻ": 8897,
    "Ġbrain": 8898,
    "Ġguarantee": 8899,
    "orthern": 8900,
    "Ġrulers": 8901,
    "jug": 8902,
    "Ġsciences": 8903,
    "stack": 8904,
    "Ġreg": 8905,
    "EO": 8906,
    "ĠWitt": 8907,
    "Ġgallons": 8908,
    "Ġstigma": 8909,
    "Ġquasi": 8910,
    "Ġfusion": 8911,
    "ulating": 8912,
    "corn": 8913,
    "ĠCannon": 8914,
    "Ġhow": 8915,
    "Ġcongressman": 8916,
    "Ġbelieving": 8917,
    "ĠCreative": 8918,
    "ĠAc": 8919,
    "Ġseparating": 8920,
    "Ġvice": 8921,
    "ĠIrvine": 8922,
    "ĠShort": 8923,
    "Ġsurpr": 8924,
    "EN": 8925,
    "ĠGilles": 8926,
    "ĠRubin": 8927,
    "Talk": 8928,
    "ĠSpecial": 8929,
    "cium": 8930,
    "ĠPrincess": 8931,
    "icked": 8932,
    "hma": 8933,
    "Ġcorridors": 8934,
    "Ġsecretary": 8935,
    "ĠStanley": 8936,
    "Ġaccurately": 8937,
    "Ġrejecting": 8938,
    "odies": 8939,
    "Ġwest": 8940,
    "orient": 8941,
    "Ġbull": 8942,
    "ha": 8943,
    "Ġdesignation": 8944,
    "Ġsplitting": 8945,
    "Ġwip": 8946,
    "Ġviolence": 8947,
    "Ġ05": 8948,
    "umping": 8949,
    "Ġende": 8950,
    "jin": 8951,
    "Ġcents": 8952,
    "Many": 8953,
    "Critics": 8954,
    "rep": 8955,
    "Ġpissed": 8956,
    "ĠManitoba": 8957,
    "Ġmakers": 8958,
    "Ġhome": 8959,
    "Ġnightclub": 8960,
    "orous": 8961,
    "ogram": 8962,
    "ĠLoop": 8963,
    "billion": 8964,
    "Ġcamping": 8965,
    "ack": 8966,
    "Ġalphabet": 8967,
    "Ġbackup": 8968,
    "Ġliquor": 8969,
    "Ġfisher": 8970,
    "Ġprescribed": 8971,
    "Ġjob": 8972,
    "ATCH": 8973,
    "ĠCz": 8974,
    "Ġrequirements": 8975,
    "reated": 8976,
    "64": 8977,
    "red": 8978,
    "posts": 8979,
    "Ġsilent": 8980,
    "obic": 8981,
    "Â»": 8982,
    "ich": 8983,
    "Ġsimilarity": 8984,
    "Ġsensation": 8985,
    "Ġbillionaire": 8986,
    "hen": 8987,
    "Ġecology": 8988,
    "Ġnetworks": 8989,
    "rill": 8990,
    "Ġperforms": 8991,
    "Show": 8992,
    "Ġarsenal": 8993,
    "Ġoverwhelming": 8994,
    "ovakia": 8995,
    "ĠStanton": 8996,
    "Ġreplaces": 8997,
    "ĠMarie": 8998,
    "anim": 8999,
    "ocracies": 9000,
    "Ġphon": 9001,
    "Ġpanel": 9002,
    "Ġfoss": 9003,
    "oux": 9004,
    "Ġrebell": 9005,
    "Ġmake": 9006,
    "ira": 9007,
    "oa": 9008,
    "Ġfluor": 9009,
    "ĠTwin": 9010,
    "Ġwant": 9011,
    "ĠJackson": 9012,
    "holders": 9013,
    "Health": 9014,
    "Ġmosquitoes": 9015,
    "Ġsurvey": 9016,
    "Ġ2016": 9017,
    "tion": 9018,
    "Ġneighborhoods": 9019,
    "Ġtrek": 9020,
    "ĠIncre": 9021,
    "ocking": 9022,
    "Ġregulate": 9023,
    "Ġsoon": 9024,
    "Ġnumerous": 9025,
    "Later": 9026,
    "ended": 9027,
    "Ġcommitting": 9028,
    "izza": 9029,
    "Apple": 9030,
    "Ġprinciples": 9031,
    "focused": 9032,
    "Ġfeaturing": 9033,
    "Ġrecurring": 9034,
    "cip": 9035,
    "London": 9036,
    "Ġpirate": 9037,
    "ĠDebor": 9038,
    "âĤ¬": 9039,
    "ĠCrypt": 9040,
    "ĠQur": 9041,
    "Ġretrieved": 9042,
    "Ġtheirs": 9043,
    "ĠBatt": 9044,
    "ĠTree": 9045,
    "Ġcrystal": 9046,
    "arians": 9047,
    "member": 9048,
    "Ġwhereby": 9049,
    "ĠMask": 9050,
    "Ġfueled": 9051,
    "ĠDirect": 9052,
    "Ġchambers": 9053,
    "iversal": 9054,
    "Ġdiscourse": 9055,
    "ĠEnc": 9056,
    "ĠCaribbean": 9057,
    "Ġgrasp": 9058,
    "volent": 9059,
    "Ġhomework": 9060,
    "Mean": 9061,
    "Ġ260": 9062,
    "Ġarts": 9063,
    "Ġexplos": 9064,
    "Ġsuprem": 9065,
    "Ġweap": 9066,
    "ination": 9067,
    "Ġnuts": 9068,
    "Ġdisgr": 9069,
    "food": 9070,
    "Ġinvoked": 9071,
    "Ġstormed": 9072,
    "Ġ''": 9073,
    "ĠTexans": 9074,
    "Ess": 9075,
    "INAL": 9076,
    "Ġwine": 9077,
    "ĠDON": 9078,
    "Char": 9079,
    "Ġprocessed": 9080,
    "strong": 9081,
    "ĠNarendra": 9082,
    "ker": 9083,
    "Ġcouldn": 9084,
    "Ġpiano": 9085,
    "Ġnewborn": 9086,
    "run": 9087,
    "Ġstun": 9088,
    "orge": 9089,
    "ĠNS": 9090,
    "ooter": 9091,
    "oooo": 9092,
    "document": 9093,
    "Ġinterf": 9094,
    "ĠPl": 9095,
    "Ġrecordings": 9096,
    "Ġmature": 9097,
    "ĠGriffith": 9098,
    "Ġhe": 9099,
    "âĢĶ": 9100,
    "!âĢĿ": 9101,
    "Ġdescend": 9102,
    "Nusra": 9103,
    "Ġshaft": 9104,
    "Ġupgrades": 9105,
    "Ġsynthesis": 9106,
    "ĠGiov": 9107,
    "ĠFashion": 9108,
    "ĠAtt": 9109,
    "Ġdeparted": 9110,
    "Ġwouldn": 9111,
    "Ġhelicop": 9112,
    "/-": 9113,
    "anners": 9114,
    "Ġintended": 9115,
    "Ġdiscover": 9116,
    "Central": 9117,
    "ĠCu": 9118,
    "Ġpsychic": 9119,
    "arty": 9120,
    "\\)": 9121,
    "Ġgal": 9122,
    "Ġlengthy": 9123,
    "ĠJD": 9124,
    "Ġweakening": 9125,
    "Ġarchaeologists": 9126,
    "ores": 9127,
    "be": 9128,
    "many": 9129,
    "ĠVersion": 9130,
    "Ġhospitalized": 9131,
    "Cre": 9132,
    "Ġ95": 9133,
    "Ġescape": 9134,
    "Ġexplores": 9135,
    "bled": 9136,
    "Ġheart": 9137,
    "Ġintimacy": 9138,
    "isal": 9139,
    "Ġnutritional": 9140,
    "Ġattracted": 9141,
    "ĠShapiro": 9142,
    "assion": 9143,
    "GR": 9144,
    "Ġadjustment": 9145,
    "upload": 9146,
    "Courtesy": 9147,
    "Ġhaz": 9148,
    "Ġsimulations": 9149,
    "ĠSoul": 9150,
    "NBA": 9151,
    "Ġdeserves": 9152,
    "Ġtale": 9153,
    "Ġthumb": 9154,
    "rific": 9155,
    "ir": 9156,
    "Ġequations": 9157,
    "Ġhoping": 9158,
    "ĠLeh": 9159,
    "Ł": 9160,
    "ĠAnt": 9161,
    "ĠPreview": 9162,
    "inav": 9163,
    "Ġiniti": 9164,
    "umption": 9165,
    "informed": 9166,
    "Ġintelligence": 9167,
    "ĠHighway": 9168,
    "VM": 9169,
    "tingly": 9170,
    "Ġpushing": 9171,
    "ĠWalk": 9172,
    "Ġescalate": 9173,
    "ĠHoover": 9174,
    "ĠJoel": 9175,
    "Ed": 9176,
    "Second": 9177,
    "ĠWit": 9178,
    "liness": 9179,
    "Ġeste": 9180,
    "ĠJessica": 9181,
    "Ġcollecting": 9182,
    "Ġprohibited": 9183,
    "Ġverbal": 9184,
    "Jeff": 9185,
    "zel": 9186,
    "uster": 9187,
    "ĠRot": 9188,
    "Ġworm": 9189,
    "ĠVladimir": 9190,
    "ĠScient": 9191,
    "å®": 9192,
    "mult": 9193,
    "Ġadjusted": 9194,
    "esis": 9195,
    "Ġ138": 9196,
    "Que": 9197,
    "elfare": 9198,
    "Ġregarded": 9199,
    "Ġpeasant": 9200,
    "Ġillustration": 9201,
    "Ġcalib": 9202,
    "Ġexpl": 9203,
    "Ġexport": 9204,
    "ĠBible": 9205,
    "Ġmagnificent": 9206,
    "Ġtransferred": 9207,
    "aston": 9208,
    "ĠSpecifically": 9209,
    "Ġtoll": 9210,
    "Ġpermission": 9211,
    "Ġemergence": 9212,
    "porting": 9213,
    "secutive": 9214,
    "ĠBra": 9215,
    "Ġdepth": 9216,
    "Ġassumption": 9217,
    "SU": 9218,
    "Ġdynamics": 9219,
    "Ġhospitals": 9220,
    "Ġsigh": 9221,
    "Ġ125": 9222,
    "atal": 9223,
    "bane": 9224,
    "Ġtraditions": 9225,
    "ĠHence": 9226,
    "Ġoverc": 9227,
    "ĠAppeal": 9228,
    "Ġbald": 9229,
    "Ġbelieves": 9230,
    "hes": 9231,
    "Ġrecords": 9232,
    "Ġappointed": 9233,
    "Ġradi": 9234,
    "Ãł": 9235,
    "Met": 9236,
    "Hy": 9237,
    "Ġstarred": 9238,
    "aper": 9239,
    "Ġasked": 9240,
    "Ġscheduled": 9241,
    "Ġstay": 9242,
    "ĠSa": 9243,
    "Ġmandated": 9244,
    "engine": 9245,
    "Ġspite": 9246,
    "ĠLanka": 9247,
    "Ġcompeting": 9248,
    "ĠJump": 9249,
    "Ġfail": 9250,
    "Ġwithdrew": 9251,
    "arry": 9252,
    "ĠExc": 9253,
    "Ġfeature": 9254,
    "ĠSergeant": 9255,
    "ĠOptions": 9256,
    "Ġdenounced": 9257,
    "Ġconstructing": 9258,
    "Ġseeds": 9259,
    "Ġstret": 9260,
    "ĠDelivery": 9261,
    "ĠToy": 9262,
    "nsic": 9263,
    "ĠDems": 9264,
    "ĠWong": 9265,
    "Ġadvers": 9266,
    "Ġtempting": 9267,
    "Ġ1915": 9268,
    "Ġconnects": 9269,
    "ĠDoor": 9270,
    "Ġcompel": 9271,
    "ishes": 9272,
    "ĠGIF": 9273,
    "ĠCruise": 9274,
    "Ġunrestricted": 9275,
    "Ġ85": 9276,
    "Ġcurriculum": 9277,
    "Ġproport": 9278,
    "ĠGMT": 9279,
    "leys": 9280,
    "ocamp": 9281,
    "Ġï¿½": 9282,
    "Ġfoot": 9283,
    "ĠMississippi": 9284,
    "Ġshowcase": 9285,
    "IGN": 9286,
    "Ġcock": 9287,
    "Ġeff": 9288,
    "Ġreside": 9289,
    "Ġswall": 9290,
    "Ġbase": 9291,
    "Ġstresses": 9292,
    "hea": 9293,
    "Ġatheist": 9294,
    "houses": 9295,
    "Ġsoft": 9296,
    "Ġsteering": 9297,
    "Ġstating": 9298,
    "story": 9299,
    "coal": 9300,
    "Ġdetermine": 9301,
    "Ġcomplementary": 9302,
    "Ġfeatured": 9303,
    "secution": 9304,
    "Ġexplicit": 9305,
    "arin": 9306,
    "Ġending": 9307,
    "ician": 9308,
    "ĠKaiser": 9309,
    "UP": 9310,
    "ĠPi": 9311,
    "Ġrests": 9312,
    "Ġcluster": 9313,
    "azingly": 9314,
    "Ġcoating": 9315,
    "Ġcomple": 9316,
    "amoto": 9317,
    "umed": 9318,
    "ĠStat": 9319,
    "Ġdeputies": 9320,
    "Ġartificial": 9321,
    "Ġcoinc": 9322,
    "ĠJenkins": 9323,
    "SP": 9324,
    "Ġinfections": 9325,
    "uge": 9326,
    "ĠViet": 9327,
    "ĠTobacco": 9328,
    "ĠOtto": 9329,
    "ĠCoach": 9330,
    "Ġlicens": 9331,
    "ĠPicture": 9332,
    "Ġtenure": 9333,
    "urd": 9334,
    "Ġoath": 9335,
    "Ġformerly": 9336,
    "arm": 9337,
    "ĠCec": 9338,
    "Ġstatistical": 9339,
    "Ġspecialist": 9340,
    "Ġmoral": 9341,
    "Ġzu": 9342,
    "ĠMU": 9343,
    "ruit": 9344,
    "Ġpalace": 9345,
    "Ġopin": 9346,
    "Ġanxious": 9347,
    "Ġexpense": 9348,
    "Ġsupport": 9349,
    "otive": 9350,
    "Ġclarified": 9351,
    "Ġwreckage": 9352,
    "Ġveh": 9353,
    "Ġsuspended": 9354,
    "ription": 9355,
    "Ġconnecting": 9356,
    "8": 9357,
    "ociated": 9358,
    "activ": 9359,
    "Wild": 9360,
    "cn": 9361,
    "ants": 9362,
    "Ġconsist": 9363,
    "ĠMiy": 9364,
    "Ġrom": 9365,
    "ĠEngineer": 9366,
    "Ġbecome": 9367,
    "Ġtroubled": 9368,
    "Ġnut": 9369,
    "Ġundertaking": 9370,
    "ĠÐ±": 9371,
    "ĠWelsh": 9372,
    "Ġweaken": 9373,
    "ĠNorris": 9374,
    "ĠPlains": 9375,
    "ĠHamp": 9376,
    "Ġforced": 9377,
    "Ġexplosions": 9378,
    "Ġenvisioned": 9379,
    "ĠEngland": 9380,
    "ĠNumber": 9381,
    "ĠPatricia": 9382,
    "Ġconfronted": 9383,
    "Ok": 9384,
    "Ġpack": 9385,
    "Ġcliff": 9386,
    "ĠHub": 9387,
    "Ġanthrop": 9388,
    "Ġraces": 9389,
    "onst": 9390,
    "Ġagendas": 9391,
    "ĠSupp": 9392,
    "Ġsystemic": 9393,
    "Ġrolls": 9394,
    "Ġmarvel": 9395,
    "Assad": 9396,
    "DM": 9397,
    "ĠExchange": 9398,
    "izarre": 9399,
    "ĠPlatform": 9400,
    "Ġsensitivity": 9401,
    "Ġsafest": 9402,
    "Ġhistorian": 9403,
    "Ġritual": 9404,
    "Ġchair": 9405,
    "ĠRespons": 9406,
    "ĠXI": 9407,
    "Ġfeather": 9408,
    "ĠAuto": 9409,
    "ĠJam": 9410,
    "Ġthe": 9411,
    "Ġtha": 9412,
    "minent": 9413,
    "ĠOakland": 9414,
    "ensor": 9415,
    "Ġamazing": 9416,
    "ĠÃ®n": 9417,
    "Ġspectacular": 9418,
    "Ġcreates": 9419,
    "Ġappearances": 9420,
    "52": 9421,
    "ilateral": 9422,
    "users": 9423,
    "Ġserial": 9424,
    "ren": 9425,
    "Ġarrow": 9426,
    "series": 9427,
    "Ġ1961": 9428,
    "lls": 9429,
    "Ġmathemat": 9430,
    "Ġ195": 9431,
    "Ġoxy": 9432,
    "ĠOpt": 9433,
    "ĠUsing": 9434,
    "uing": 9435,
    "ĠNow": 9436,
    "Ġtougher": 9437,
    "Ġdepartments": 9438,
    "Ġplague": 9439,
    "Ġindicate": 9440,
    "oria": 9441,
    "azing": 9442,
    "Ġinconsistent": 9443,
    "Ġmillenn": 9444,
    "Ġmerely": 9445,
    "Ġendorsement": 9446,
    "meg": 9447,
    "road": 9448,
    "Ġ27": 9449,
    "Ġnarcotics": 9450,
    "Ġsupplier": 9451,
    "Ġregistration": 9452,
    "Ġwords": 9453,
    "ĠAfter": 9454,
    "dollar": 9455,
    "Ġtempt": 9456,
    "ĠTelescope": 9457,
    "Ġsimilarities": 9458,
    "Ġostensibly": 9459,
    "akens": 9460,
    "ĠDod": 9461,
    "ble": 9462,
    "leen": 9463,
    "Amazon": 9464,
    "ĠGL": 9465,
    "Ġspring": 9466,
    "Certainly": 9467,
    "Ġstatements": 9468,
    "ĠIND": 9469,
    "Ġspecifically": 9470,
    "Ġaffinity": 9471,
    "--": 9472,
    "iverse": 9473,
    "ĠCuomo": 9474,
    "Ġrugged": 9475,
    "ward": 9476,
    "Ġpoisoning": 9477,
    "Operation": 9478,
    "ĠMike": 9479,
    "Ġrealise": 9480,
    "Ġcommentators": 9481,
    "ĠDrew": 9482,
    "Ġjoke": 9483,
    "ally": 9484,
    "ĠFri": 9485,
    "Ġhungry": 9486,
    "ĠMess": 9487,
    "wen": 9488,
    "Ġrights": 9489,
    "Ġembr": 9490,
    "pent": 9491,
    "raction": 9492,
    "ĠComet": 9493,
    "ĠPub": 9494,
    "Ġnecess": 9495,
    "Ġrealism": 9496,
    "ĠCourt": 9497,
    "ailed": 9498,
    "Ġconfronting": 9499,
    "Ġhurry": 9500,
    "ĠWind": 9501,
    "anging": 9502,
    "Ġnation": 9503,
    "Ġmodified": 9504,
    "ĠMali": 9505,
    "Ġconsumer": 9506,
    "ĠAmendment": 9507,
    "fare": 9508,
    "ĠGuards": 9509,
    "Ġprocedure": 9510,
    "Ġconcepts": 9511,
    "Ġapplicant": 9512,
    "ĠBeer": 9513,
    "¯": 9514,
    "Client": 9515,
    "Wolf": 9516,
    "ĠRays": 9517,
    "Ġincluding": 9518,
    "Ġacqu": 9519,
    "isch": 9520,
    "adata": 9521,
    "ĠOscar": 9522,
    "Ġstub": 9523,
    "obo": 9524,
    "ĠTomb": 9525,
    "ograp": 9526,
    "Ġorgan": 9527,
    "Ġminds": 9528,
    "Ġwaste": 9529,
    "ec": 9530,
    "itic": 9531,
    "Ġthemes": 9532,
    "Ġanten": 9533,
    "Ġsoaring": 9534,
    "Ġreward": 9535,
    "ĠWhitney": 9536,
    "Ġrepository": 9537,
    "ĠReport": 9538,
    "Ġfar": 9539,
    "Ġtourn": 9540,
    "eder": 9541,
    "ĠBeaut": 9542,
    "Ġdisconnected": 9543,
    "Ġvar": 9544,
    "iw": 9545,
    "Ġsimulated": 9546,
    "Ġemployer": 9547,
    "ĠNation": 9548,
    "ĠPut": 9549,
    "ĠAN": 9550,
    "nesota": 9551,
    "ĠFinnish": 9552,
    "dead": 9553,
    "Ġbreasts": 9554,
    "ĠRep": 9555,
    "Sorry": 9556,
    "Ġunlaw": 9557,
    "Ġskies": 9558,
    "ĠÍ": 9559,
    "ĠZe": 9560,
    "producing": 9561,
    "ioned": 9562,
    "deal": 9563,
    "×": 9564,
    "ĠRab": 9565,
    "Hun": 9566,
    "Ġpresented": 9567,
    "Ġrecre": 9568,
    "Ġcampaigners": 9569,
    "Ġsle": 9570,
    "Ġpremiered": 9571,
    "breaker": 9572,
    "Core": 9573,
    "ĠClemson": 9574,
    "start": 9575,
    "ĠJennifer": 9576,
    "Ġpictures": 9577,
    "Ġrepay": 9578,
    "itars": 9579,
    "Ġbeverages": 9580,
    "ĠPort": 9581,
    "ĠNonetheless": 9582,
    "umin": 9583,
    "/.": 9584,
    "ĠBB": 9585,
    "Ġslowing": 9586,
    "Ġbr": 9587,
    "ĠWatt": 9588,
    "ĠGeorge": 9589,
    "Ġups": 9590,
    "atellite": 9591,
    "ĠUSC": 9592,
    "urers": 9593,
    "Gl": 9594,
    "Ġdownloading": 9595,
    "Ġbargaining": 9596,
    "status": 9597,
    "DI": 9598,
    "perature": 9599,
    "Ġlinger": 9600,
    "Ġhorrible": 9601,
    "ĠVince": 9602,
    "ogo": 9603,
    "Ġkilograms": 9604,
    "archy": 9605,
    "Ġnamely": 9606,
    "Ġnegotiation": 9607,
    "âĢĿ,": 9608,
    "ĠPett": 9609,
    "ĠSpringfield": 9610,
    "way": 9611,
    "Ġinterval": 9612,
    "Ġgem": 9613,
    "Ġobservations": 9614,
    "agogue": 9615,
    "Ġ1958": 9616,
    "ĠInto": 9617,
    "lied": 9618,
    "Ġwiped": 9619,
    "Ġoriginally": 9620,
    "Ġcollapsing": 9621,
    "Arthur": 9622,
    "idas": 9623,
    "ĠIMF": 9624,
    "ĠIndonesia": 9625,
    "Ġsums": 9626,
    "Ġwent": 9627,
    "Ġrhetoric": 9628,
    "orm": 9629,
    "Ġsyndrome": 9630,
    "amount": 9631,
    "Ġnoise": 9632,
    "ĠYorkers": 9633,
    "Ġwithdrawing": 9634,
    "court": 9635,
    "Ġ1912": 9636,
    "Ġmethods": 9637,
    "Product": 9638,
    "ĠKaplan": 9639,
    "Ġsuits": 9640,
    "ired": 9641,
    "ĠMassachusetts": 9642,
    "ĠâĢ¢": 9643,
    "Ġminimal": 9644,
    "BN": 9645,
    "Ġministry": 9646,
    "ĠKaz": 9647,
    "Ġsituated": 9648,
    "Ġinvol": 9649,
    "Scroll": 9650,
    "ourse": 9651,
    "Ġalerted": 9652,
    "Ġfactories": 9653,
    "Ġcargo": 9654,
    "ĠG": 9655,
    "ĠBe": 9656,
    "ĠAtlanta": 9657,
    "Ġdiameter": 9658,
    "Ġabove": 9659,
    "Ġblamed": 9660,
    "ashed": 9661,
    "assad": 9662,
    "Ġ1931": 9663,
    "McC": 9664,
    "ĠSerbian": 9665,
    "Ang": 9666,
    "ipped": 9667,
    "ja": 9668,
    "Ġspikes": 9669,
    "soever": 9670,
    "asted": 9671,
    "ousands": 9672,
    "ĠMyers": 9673,
    "Ġincreases": 9674,
    "Ġrude": 9675,
    "Ġfloat": 9676,
    "Ġbill": 9677,
    "Ġschedul": 9678,
    "ĠPAC": 9679,
    "inos": 9680,
    "Enlarge": 9681,
    "Mac": 9682,
    "ĠJoint": 9683,
    "folk": 9684,
    "Ġdataset": 9685,
    "ĠAnniversary": 9686,
    "Ġpet": 9687,
    "Ġupset": 9688,
    "Ġfeared": 9689,
    "netic": 9690,
    "Ġsto": 9691,
    "ĠGreene": 9692,
    "Ġinhib": 9693,
    "Ġpayroll": 9694,
    "Ġmold": 9695,
    "Ġmilestone": 9696,
    "ĠScore": 9697,
    "Ġsummit": 9698,
    "Ġdunk": 9699,
    "Ġannoyed": 9700,
    "Ġethical": 9701,
    "verted": 9702,
    "kt": 9703,
    "ĠJane": 9704,
    "Ġresurrect": 9705,
    "steps": 9706,
    "ĠOriginally": 9707,
    "jas": 9708,
    "ĠNolan": 9709,
    "Î±": 9710,
    "Ġvandal": 9711,
    "ĠPunk": 9712,
    "Ġdated": 9713,
    "ĠBrazil": 9714,
    "Ġprostitution": 9715,
    "Ġbrackets": 9716,
    "Ġbackwards": 9717,
    "Ġtypical": 9718,
    "Ġphones": 9719,
    "ocument": 9720,
    "rou": 9721,
    "ĠCain": 9722,
    "Ġsprings": 9723,
    "ĠNASCAR": 9724,
    "ĠBern": 9725,
    "Ġ1932": 9726,
    "Ġaren": 9727,
    "Ġgenerators": 9728,
    "Ġseller": 9729,
    "Ġleads": 9730,
    "ĠSyracuse": 9731,
    "ĠPur": 9732,
    "Ġbelief": 9733,
    "Ġcoded": 9734,
    "Ġgreat": 9735,
    "Ġcreate": 9736,
    "Ġshooter": 9737,
    "Ġchurch": 9738,
    "cr": 9739,
    "Ġarmy": 9740,
    "ĠGolden": 9741,
    "team": 9742,
    "TON": 9743,
    "Ġgeopolitical": 9744,
    "izz": 9745,
    "Ġholding": 9746,
    "Ġfrom": 9747,
    "ĠEmma": 9748,
    "olan": 9749,
    "ĠHannity": 9750,
    "ldom": 9751,
    "ĠClin": 9752,
    "Ġformula": 9753,
    "Ġechoes": 9754,
    "Ġemitted": 9755,
    "Ġgraffiti": 9756,
    "Ġsatur": 9757,
    "Ġimports": 9758,
    "Ġinterfaces": 9759,
    "piring": 9760,
    "Ġaccessory": 9761,
    ".''": 9762,
    "Via": 9763,
    "103": 9764,
    "ĠOnt": 9765,
    "Ġmating": 9766,
    "ionage": 9767,
    "ĠBO": 9768,
    "Ġbol": 9769,
    "Ġdoubt": 9770,
    "Ġmonit": 9771,
    "Ġwisely": 9772,
    "ĠWH": 9773,
    "ĠColor": 9774,
    "ĠAP": 9775,
    "Ġnitrogen": 9776,
    "Ġcheating": 9777,
    "Ġthankfully": 9778,
    "Ġreduces": 9779,
    "RS": 9780,
    "Ġquarterback": 9781,
    "Ġseverity": 9782,
    "Ġefficiency": 9783,
    "ĠHel": 9784,
    "icago": 9785,
    "ĠBesides": 9786,
    "ĠPost": 9787,
    "imo": 9788,
    "Ġcopying": 9789,
    "urrection": 9790,
    "Ġcarpet": 9791,
    "450": 9792,
    "ensus": 9793,
    "ĠJared": 9794,
    "Ġconsultants": 9795,
    "ĠAdvertisement": 9796,
    "Ġper": 9797,
    "lasses": 9798,
    "Ġforever": 9799,
    "ĠShow": 9800,
    "ĠBark": 9801,
    "?": 9802,
    "Ġrecounted": 9803,
    "Ġlabs": 9804,
    "Ġbored": 9805,
    "Ġwond": 9806,
    "Ġexploration": 9807,
    "Ġassum": 9808,
    "Ġwor": 9809,
    "ĠHyde": 9810,
    "ĠBreitbart": 9811,
    "ĠVa": 9812,
    "Ġmanipulated": 9813,
    "Ġspecimens": 9814,
    "Monday": 9815,
    "SA": 9816,
    "Ġtutorials": 9817,
    "Ġopio": 9818,
    "Ð½": 9819,
    "Ġskip": 9820,
    "Ġtasted": 9821,
    "Ġmanufacturing": 9822,
    "Ġitself": 9823,
    "ĠAssessment": 9824,
    "Ġassociates": 9825,
    "ooth": 9826,
    "Ġrhyth": 9827,
    "Ġwatch": 9828,
    "null": 9829,
    "Ġsuggestion": 9830,
    "Ġproperty": 9831,
    "Ġstarting": 9832,
    "Ġdubious": 9833,
    "legal": 9834,
    "ĠQuran": 9835,
    "ĠIstanbul": 9836,
    "Ġdynam": 9837,
    "Ġdoctr": 9838,
    "ĠSinger": 9839,
    "Ġbiased": 9840,
    "port": 9841,
    "Ġbun": 9842,
    "Ill": 9843,
    "Ġresemble": 9844,
    "wear": 9845,
    "Ġcustomize": 9846,
    "onomous": 9847,
    "rick": 9848,
    "user": 9849,
    "Ġalleges": 9850,
    "alking": 9851,
    "olation": 9852,
    "large": 9853,
    "Ġleftist": 9854,
    "Ġmilitias": 9855,
    "aken": 9856,
    "Ġframing": 9857,
    "Ġrandomized": 9858,
    "1997": 9859,
    "iating": 9860,
    "Ġdr": 9861,
    "Ġrede": 9862,
    "Ġexerc": 9863,
    "ĠTheir": 9864,
    "uck": 9865,
    "Mad": 9866,
    "Ġwitch": 9867,
    "Ġideological": 9868,
    "Ġreopened": 9869,
    "Earlier": 9870,
    "mate": 9871,
    "ĠDark": 9872,
    "vious": 9873,
    "Ġlandscape": 9874,
    "Ġcer": 9875,
    "Ġclock": 9876,
    "Ġtroubles": 9877,
[...]
