{
    "Ā": 0,
    "Ġsteth": 1,
    "Ġbeen": 2,
    "Ġmuch": 3,
    "Ġbellies": 4,
    "Ġdeterm": 5,
    "Robby": 6,
    "Ġcoffee": 7,
    "ĠSnowy": 8,
    "Ġalien": 9,
    "Ġbamboo": 10,
    "Ġwoof": 11,
    "Ġpoem": 12,
    "Ġsobbing": 13,
    "Ġlily": 14,
    "ĠJan": 15,
    "Tommy": 16,
    "ĠTrue": 17,
    "Ġdived": 18,
    "Ġtag": 19,
    "Ġgrin": 20,
    "Ġbarn": 21,
    "iggly": 22,
    "Ġforce": 23,
    "ĠNice": 24,
    "Ġstrip": 25,
    "Ġquit": 26,
    "Ġcollect": 27,
    "Ġnever": 28,
    "Sue": 29,
    "Ġgrill": 30,
    "Ġdemanding": 31,
    "Ġswap": 32,
    "Ġshone": 33,
    "Ġpracticing": 34,
    "Sun": 35,
    "Ġsolve": 36,
    "Ġtoes": 37,
    "Ġ1": 38,
    "Ġhearing": 39,
    "ê": 40,
    "th": 41,
    "Ġmeadows": 42,
    "ĠChristmas": 43,
    "ĠEnd": 44,
    "ĠLola": 45,
    "Ġstrongest": 46,
    "bers": 47,
    "unt": 48,
    "Ġpaintbrush": 49,
    "ĠTina": 50,
    "Ġdrove": 51,
    "eropl": 52,
    "xy": 53,
    "Ġfigure": 54,
    "Ġpolish": 55,
    "Ġrobin": 56,
    "\\": 57,
    "Ġcapt": 58,
    "Ġcombed": 59,
    "Ġcomple": 60,
    "Ġsending": 61,
    "Ġport": 62,
    "Ġlands": 63,
    "Ġriverbank": 64,
    "Ġattitude": 65,
    "Ġhut": 66,
    "Ġbuy": 67,
    "Ġslap": 68,
    "Ü": 69,
    "uly": 70,
    "Ġdropping": 71,
    "Ġchicken": 72,
    "Ġpeek": 73,
    "Ġtidy": 74,
    "htub": 75,
    "ooks": 76,
    "bert": 77,
    "ĠJohnson": 78,
    "ighting": 79,
    "ould": 80,
    ";": 81,
    "1": 82,
    "Ġcastle": 83,
    "Ġhive": 84,
    "rance": 85,
    "Ġmesmer": 86,
    "ĠJ": 87,
    "rework": 88,
    "unny": 89,
    "Ġkneeling": 90,
    "Ġconvers": 91,
    "zes": 92,
    "ĠSpeedy": 93,
    "Ġpolished": 94,
    "ĠMousy": 95,
    "Ġactivity": 96,
    "Ġexact": 97,
    "Ġurged": 98,
    "Ġcou": 99,
    "Ġplain": 100,
    "Ġseveral": 101,
    "Ġcheek": 102,
    "Ġpuzzles": 103,
    "ĠIs": 104,
    "rough": 105,
    "night": 106,
    "ĠBetsy": 107,
    "Ġhandful": 108,
    "Ġwatering": 109,
    "udd": 110,
    "Ġlawn": 111,
    "ĠStill": 112,
    "Ġkicking": 113,
    "Ġbike": 114,
    "sm": 115,
    "Ġhatch": 116,
    "ĠMix": 117,
    "Ġbikes": 118,
    "Ġpants": 119,
    "Ġgifted": 120,
    "elia": 121,
    "Ġclassroom": 122,
    "Ġmagn": 123,
    "Ġhealing": 124,
    "Ġstaying": 125,
    "Ġeggs": 126,
    "Ġdiscussing": 127,
    "Ġmarriage": 128,
    "Ġrains": 129,
    "Ġnights": 130,
    "Ġchamber": 131,
    "iet": 132,
    "igzag": 133,
    "Ġmyself": 134,
    "Ġreceived": 135,
    "Ġargument": 136,
    "ĠMother": 137,
    "Ġpause": 138,
    "sol": 139,
    "Ġbrought": 140,
    "Ġplanes": 141,
    "Ġargued": 142,
    "Ġheaven": 143,
    "Ġcartoons": 144,
    "Ġdefinitely": 145,
    "Ġcomm": 146,
    "repe": 147,
    "aisies": 148,
    "Ġcrane": 149,
    "choo": 150,
    "Ġramp": 151,
    "Ġoutfits": 152,
    "ĠSplash": 153,
    "Ġprayers": 154,
    "Ġmoo": 155,
    "Ġsharp": 156,
    "ĠChicky": 157,
    "Ġsails": 158,
    "Ġrespectful": 159,
    "Isn": 160,
    "ugged": 161,
    "Ġdelight": 162,
    "Ġmuddy": 163,
    "Ġonwards": 164,
    "Ġwaffle": 165,
    "acles": 166,
    "Ġmeadow": 167,
    "Someone": 168,
    "Ġshook": 169,
    "Ġjellyfish": 170,
    "Ġpool": 171,
    "Ġunknown": 172,
    "Ġpokes": 173,
    "smelling": 174,
    "Ġ''": 175,
    "Ġbell": 176,
    "Ġordered": 177,
    "Ġrequest": 178,
    "Ġpans": 179,
    "Ġanger": 180,
    "ĠSu": 181,
    "Ġbag": 182,
    "Ġcamping": 183,
    "aving": 184,
    "Keep": 185,
    "Ġmedal": 186,
    "ĠMeg": 187,
    "Ġey": 188,
    "Ġreceive": 189,
    "e": 190,
    "Ġrivers": 191,
    "Ġreunited": 192,
    "urp": 193,
    "Ġplucked": 194,
    "ound": 195,
    "Ġadult": 196,
    "Ġhaving": 197,
    "ĠMelissa": 198,
    "a": 199,
    "ĠMary": 200,
    "eth": 201,
    "Ġbracelet": 202,
    "Ġspaceship": 203,
    "Ġforgetting": 204,
    "Bounce": 205,
    "my": 206,
    "Who": 207,
    "Ġgrocer": 208,
    "ĠEveryone": 209,
    "reed": 210,
    "Ġsomeday": 211,
    "ides": 212,
    "Ġotters": 213,
    "Ġrealizes": 214,
    "ears": 215,
    "Ġbadly": 216,
    "Ġcoolest": 217,
    "Ġappro": 218,
    "ĠRita": 219,
    "uck": 220,
    "Ġrins": 221,
    "Ġhumans": 222,
    "Ġdisturb": 223,
    "Ġharb": 224,
    "Ġwing": 225,
    "Ġbattle": 226,
    "Ġtrap": 227,
    "Ġplanted": 228,
    "Ġchildren": 229,
    "Ġunfamiliar": 230,
    "ar": 231,
    "ĠLaser": 232,
    "Ġto": 233,
    "ĠTilly": 234,
    "Ġvo": 235,
    "ont": 236,
    "igi": 237,
    "Meow": 238,
    "¬": 239,
    "uke": 240,
    "Ġapp": 241,
    "Ġpackages": 242,
    "ĠUse": 243,
    "ĠHere": 244,
    "Ġsounds": 245,
    "Ġwindowsill": 246,
    "Ġsuccessful": 247,
    "ĠWil": 248,
    "ight": 249,
    "Ġcour": 250,
    "Ġslimy": 251,
    "Ġsnowy": 252,
    "ĠFix": 253,
    "Ġstones": 254,
    "Ġrhin": 255,
    "Ġprecious": 256,
    "ddy": 257,
    "Ġsto": 258,
    "Ġbride": 259,
    "Ġzip": 260,
    "ĠBig": 261,
    "Ġglitt": 262,
    "ĠDavey": 263,
    "edy": 264,
    "Ġbruises": 265,
    "ĠBooks": 266,
    "ĠNobody": 267,
    "Ġsqueaky": 268,
    "lu": 269,
    "Ġjeep": 270,
    "Ġfascinated": 271,
    "Anne": 272,
    "ĠOr": 273,
    "Ġfight": 274,
    "Ġmailing": 275,
    "Ġdraws": 276,
    "Great": 277,
    "ĠBu": 278,
    "Ġcomput": 279,
    "Ġparked": 280,
    "xu": 281,
    "bb": 282,
    "ĠR": 283,
    "Ġtong": 284,
    "Ġcrystal": 285,
    "arac": 286,
    "ocular": 287,
    "Ġcowboys": 288,
    "Ġlocked": 289,
    "Ġrolling": 290,
    "Binky": 291,
    "Ġgift": 292,
    "Wiggly": 293,
    "Ġreluctantly": 294,
    "Ġencouragement": 295,
    "Ġmagnif": 296,
    "Ġflames": 297,
    "Ġencourage": 298,
    "Jimmy": 299,
    "Ġwrapper": 300,
    "Ġgreat": 301,
    "abby": 302,
    "Ġpowder": 303,
    "Ġpeeking": 304,
    "Ġpop": 305,
    "Ġoxygen": 306,
    "Ġglobe": 307,
    "pa": 308,
    "Yuck": 309,
    "ĠM": 310,
    "ĠPandy": 311,
    "Ġsnowballs": 312,
    "Ġslower": 313,
    "Ġpipes": 314,
    "Ġdolphins": 315,
    "Ġpeeked": 316,
    "igator": 317,
    "oby": 318,
    "ball": 319,
    "Ġrefused": 320,
    "zen": 321,
    "uddy": 322,
    "Ġchooses": 323,
    "ition": 324,
    "Ġlearns": 325,
    "Cl": 326,
    "Ġbreaths": 327,
    "eal": 328,
    "Ġunderstanding": 329,
    "ame": 330,
    "ĠJe": 331,
    "Ġsends": 332,
    "Ġmessages": 333,
    "¶": 334,
    "Ġcourt": 335,
    "Ġpolitely": 336,
    "Ġwebs": 337,
    "ues": 338,
    "Ġgetting": 339,
    "ĠSquirrel": 340,
    "Ġblinked": 341,
    "Ġtuck": 342,
    "Ġresponsib": 343,
    "Ġbreakfast": 344,
    "?\".": 345,
    "Ġyoung": 346,
    "mb": 347,
    "Ġwatermelon": 348,
    "Ġforgi": 349,
    "amp": 350,
    "eed": 351,
    "Ġtramp": 352,
    "Ġhide": 353,
    "Ġlump": 354,
    "Ġtaller": 355,
    "ium": 356,
    "ĠLilly": 357,
    "Ġchefs": 358,
    "Ġmos": 359,
    "Ġvibr": 360,
    "Ġstretch": 361,
    "Ġlet": 362,
    "Ġfence": 363,
    "Ġweeks": 364,
    "ey": 365,
    "Ġaston": 366,
    "Annie": 367,
    "Ġsauce": 368,
    "Ġshin": 369,
    "Ġbrushes": 370,
    "side": 371,
    "Under": 372,
    "Ġemer": 373,
    "Ġjolly": 374,
    "Ġsquishy": 375,
    "Ġtriang": 376,
    "Spike": 377,
    "ċ": 378,
    "ĠTess": 379,
    "Ġnear": 380,
    "Ġclosing": 381,
    "Goodnight": 382,
    "Ġhunters": 383,
    "Ġsupply": 384,
    "Ġexpert": 385,
    "Ġmagnet": 386,
    "Ġappl": 387,
    "Ġmints": 388,
    "lied": 389,
    "Ġpromises": 390,
    "over": 391,
    "Ġraindr": 392,
    "covered": 393,
    "Ġstrawberry": 394,
    "Ġballs": 395,
    "Ġstanding": 396,
    "ushed": 397,
    "Ġenergy": 398,
    "Lulu": 399,
    "ĠPeter": 400,
    "Ġmama": 401,
    "Ġdamage": 402,
    "ired": 403,
    "gg": 404,
    "Vroom": 405,
    "rill": 406,
    "ĠDuck": 407,
    "Ġhunter": 408,
    "ĠTessa": 409,
    "Ġgent": 410,
    "Ġcircles": 411,
    "Ġfluttering": 412,
    "Ġbalancing": 413,
    "way": 414,
    "Ġtools": 415,
    "Ġrocks": 416,
    "Ġshrunk": 417,
    "Ġbark": 418,
    "ground": 419,
    "anut": 420,
    "Ġflip": 421,
    "Make": 422,
    "ef": 423,
    "ince": 424,
    "Ġte": 425,
    "Ġbelongs": 426,
    "Ġstroll": 427,
    "Ġplayhouse": 428,
    "Bee": 429,
    "Ġcracked": 430,
    "ĠChirp": 431,
    "Ġwadd": 432,
    "Lena": 433,
    "Ġdraw": 434,
    "Ġbudge": 435,
    "Ġpartic": 436,
    "elcome": 437,
    "ĠBuddy": 438,
    "Ġwr": 439,
    "Ġfut": 440,
    "Ġmelons": 441,
    "Ġsave": 442,
    "Ġcheerfully": 443,
    "ī": 444,
    "ĠAna": 445,
    "ĠAnimals": 446,
    "Ġobserve": 447,
    "John": 448,
    "Ģ": 449,
    "Ġzoom": 450,
    "Ġthanked": 451,
    "Ġcut": 452,
    "Ġturtle": 453,
    "unately": 454,
    "Ġcaused": 455,
    "Ġdisagreement": 456,
    "Ġtask": 457,
    "uct": 458,
    "Î": 459,
    "Ġcoin": 460,
    "First": 461,
    "icious": 462,
    "Ġmoment": 463,
    "ines": 464,
    "iant": 465,
    "Ġbravely": 466,
    "Ġaeropl": 467,
    "Ġzebra": 468,
    "Ġwhispering": 469,
    "Teddy": 470,
    "med": 471,
    "Ġlizard": 472,
    "Ġschool": 473,
    "Ġdug": 474,
    "Fine": 475,
    "Ġdarlings": 476,
    "Ġquieter": 477,
    "Ġbee": 478,
    "Ġhurricane": 479,
    "Ġclean": 480,
    "chen": 481,
    "steps": 482,
    "Ġdi": 483,
    "Ġbeing": 484,
    "Ġoffering": 485,
    "Ġbump": 486,
    "artled": 487,
    "byes": 488,
    "Ġdir": 489,
    "pl": 490,
    "Ġyourself": 491,
    "č": 492,
    "ve": 493,
    "ecca": 494,
    "ĠDoctor": 495,
    "Ġtouched": 496,
    "Ġtexture": 497,
    "Ġwanting": 498,
    "Ġused": 499,
    "de": 500,
    "Ġcuriosity": 501,
    "ĠBubba": 502,
    "Ġac": 503,
    "Ġstamped": 504,
    "Ġsimple": 505,
    "ĠPatty": 506,
    "ĠLiam": 507,
    "Ġescape": 508,
    "Ġcreams": 509,
    "Ġpoking": 510,
    "Ġobser": 511,
    "Ġsh": 512,
    "Ġright": 513,
    "Ġpoke": 514,
    "Á": 515,
    "Ġprovide": 516,
    "ading": 517,
    "ver": 518,
    "ĠPine": 519,
    "Ġlawy": 520,
    "Ġapple": 521,
    "See": 522,
    "Ġrisk": 523,
    "Ġsweetie": 524,
    "¥": 525,
    "Ġsparkle": 526,
    "Qu": 527,
    "Ī": 528,
    "Ġwears": 529,
    "Ġenergetic": 530,
    "Ġspotted": 531,
    "lers": 532,
    "ordinary": 533,
    "Th": 534,
    "ĠBetty": 535,
    "ĠZip": 536,
    "ĠAc": 537,
    "Ġcomplained": 538,
    "Ġser": 539,
    "From": 540,
    "fit": 541,
    "Ġremembering": 542,
    "Ġgas": 543,
    "aura": 544,
    "Ġplane": 545,
    "Ġpopping": 546,
    "pper": 547,
    "Ġmarkers": 548,
    "isions": 549,
    "Inside": 550,
    "Ġbalanced": 551,
    "¡": 552,
    "Ġbetween": 553,
    "Sophia": 554,
    "Ġhiss": 555,
    "ot": 556,
    "Ġenvironment": 557,
    "Ġsqu": 558,
    "Ġdoorstep": 559,
    "Ġgreen": 560,
    "read": 561,
    "ĠFox": 562,
    "Baby": 563,
    "hed": 564,
    "Both": 565,
    "Ġaunt": 566,
    "Ġinvisible": 567,
    "ous": 568,
    "ĠDad": 569,
    "Ġmule": 570,
    "Ġpiggy": 571,
    "Ġhonest": 572,
    "ture": 573,
    "Ġgrandpa": 574,
    "Ġscale": 575,
    "Ġexpression": 576,
    "Ġdiscuss": 577,
    "Ġflat": 578,
    "ĠRara": 579,
    "Ġburied": 580,
    "Ġno": 581,
    "Ġexploded": 582,
    "Ġroaring": 583,
    "Ġboo": 584,
    "ĠHurry": 585,
    "ĠLet": 586,
    "ĠFin": 587,
    "da": 588,
    "Ġbirds": 589,
    "Surpr": 590,
    "Ġexplorer": 591,
    "Ġtricycle": 592,
    "Ġdev": 593,
    "Ġfond": 594,
    "Ġplanning": 595,
    "Ġneighbor": 596,
    "son": 597,
    "Ġcausing": 598,
    "ĠFrankie": 599,
    "Ġcotton": 600,
    "Ġpandas": 601,
    "Ġscrat": 602,
    "ĠYesterday": 603,
    "cean": 604,
    "af": 605,
    "Did": 606,
    "adually": 607,
    "D": 608,
    "Ġchuck": 609,
    "Ġcamel": 610,
    "Ġknocked": 611,
    "vroom": 612,
    "Ġadvent": 613,
    "Ġseparated": 614,
    "well": 615,
    "ĠGracie": 616,
    "Ġswall": 617,
    "Climb": 618,
    "Ġdeserved": 619,
    "Co": 620,
    "Mmm": 621,
    "cker": 622,
    "ning": 623,
    "Ġweighed": 624,
    "Ġdeserve": 625,
    "Ġvolcano": 626,
    "Ġgra": 627,
    "ully": 628,
    "cher": 629,
    "ĠEventually": 630,
    "Ġstrange": 631,
    "Ġrespect": 632,
    "Ġma": 633,
    "Ġavoid": 634,
    "isapp": 635,
    "Ġsing": 636,
    "Ġgifts": 637,
    "Ġch": 638,
    "Ġshot": 639,
    "Ġreason": 640,
    "Ġenvious": 641,
    "ĠFlo": 642,
    "ĠTom": 643,
    "Matt": 644,
    "rin": 645,
    "Ē": 646,
    "Ġpipe": 647,
    "Ġlevel": 648,
    "Ġtaped": 649,
    "arlotte": 650,
    "irm": 651,
    "oph": 652,
    "Le": 653,
    "Ġending": 654,
    "Ġpup": 655,
    "ider": 656,
    "Ġbless": 657,
    "Ġstret": 658,
    "Ġter": 659,
    "Jen": 660,
    "phant": 661,
    "Ġlab": 662,
    "ĠBr": 663,
    "Ġbasketball": 664,
    "Ġscraped": 665,
    "Ġnurses": 666,
    "Ġtrick": 667,
    "uno": 668,
    "imi": 669,
    "ĠSnap": 670,
    "Ġpossible": 671,
    "ise": 672,
    "Ġweigh": 673,
    "ĠSomet": 674,
    "Ġclosely": 675,
    "eer": 676,
    "pite": 677,
    "use": 678,
    "Ġfire": 679,
    "z": 680,
    "Mad": 681,
    "ut": 682,
    "iggie": 683,
    "Ġtheirs": 684,
    "Ġfat": 685,
    "Ġconcer": 686,
    "Ġaway": 687,
    "Ġmud": 688,
    "prints": 689,
    "ĠShelly": 690,
    "aurant": 691,
    "Ġarrive": 692,
    "chor": 693,
    "Ġdears": 694,
    "ĠRudy": 695,
    "Ġpounced": 696,
    "Ġarmchair": 697,
    "Hello": 698,
    "ler": 699,
    "Ġflavor": 700,
    "Ġlungs": 701,
    "bles": 702,
    "Ġmarshmallows": 703,
    "Ġtown": 704,
    "Ġpermitted": 705,
    "Mon": 706,
    "Ġsoccer": 707,
    "Ġtrying": 708,
    "Ġtowels": 709,
    "uce": 710,
    "Ġfamily": 711,
    "Adam": 712,
    "lph": 713,
    "Ġrecogn": 714,
    "Ġcuri": 715,
    "Ġintroduced": 716,
    "ody": 717,
    "Ġsplashing": 718,
    "omed": 719,
    "Ġparty": 720,
    "Ġhears": 721,
    "Ġghost": 722,
    "ĠJet": 723,
    "Ġjumped": 724,
    "ĠBarky": 725,
    "Ġdrift": 726,
    "Ġgor": 727,
    "Ġmuscle": 728,
    "ĠGoodbye": 729,
    "One": 730,
    "Ġpurse": 731,
    "Ġsens": 732,
    "Ġcollected": 733,
    "ĠAnother": 734,
    "Ġrub": 735,
    "ĠBarry": 736,
    "was": 737,
    "Ġcake": 738,
    "Ġclumsy": 739,
    "Ahoy": 740,
    "Ġtodd": 741,
    "utes": 742,
    "Ġunpacking": 743,
    "Ġairplane": 744,
    "Ġkicked": 745,
    "Ġhold": 746,
    "ging": 747,
    "bl": 748,
    "Ġpretending": 749,
    "Ġhedgehog": 750,
    "ber": 751,
    "Ġpiano": 752,
    "urity": 753,
    "ĠTippy": 754,
    "Rob": 755,
    "ĠTweet": 756,
    "Ġlie": 757,
    "Ġnasty": 758,
    "Ġolives": 759,
    "Ġstom": 760,
    "Millie": 761,
    "ĠFlap": 762,
    "Ġspaghetti": 763,
    "Ġce": 764,
    "Ġblankets": 765,
    "Ġbye": 766,
    "Ġhill": 767,
    "scape": 768,
    "Ġfrowning": 769,
    "Ġwhoosh": 770,
    "Ġdrawer": 771,
    "Ġcoop": 772,
    "Ġsquee": 773,
    "Ġsuns": 774,
    "Ġnormal": 775,
    "rian": 776,
    "Ġhates": 777,
    "ĠQu": 778,
    "al": 779,
    "Cra": 780,
    "Ġforgotten": 781,
    "Ġonions": 782,
    "Ġfleas": 783,
    "zy": 784,
    "ĠGo": 785,
    "Ġhairy": 786,
    "Ġprotected": 787,
    "anta": 788,
    "Ġsafely": 789,
    "Ġhop": 790,
    "Ġweaker": 791,
    "Momo": 792,
    "Ġfocused": 793,
    "dge": 794,
    "Ġdresser": 795,
    "aptain": 796,
    "Ġloops": 797,
    "Ġsincere": 798,
    "Ġsquares": 799,
    "ĠMum": 800,
    "Achoo": 801,
    "Ġgroups": 802,
    "Ġshoot": 803,
    "venir": 804,
    "Ġbrus": 805,
    "Ġhot": 806,
    "Ġafterwards": 807,
    "Ġdo": 808,
    "Ġthroat": 809,
    "Ġpinch": 810,
    "Or": 811,
    "cket": 812,
    "Ġflew": 813,
    "Ġprotect": 814,
    "Ġrainbows": 815,
    "Ø": 816,
    "Ġfrom": 817,
    "Ġyawn": 818,
    "ĠSquee": 819,
    "yal": 820,
    "Ġsunscreen": 821,
    "Ġmarking": 822,
    "Ġstall": 823,
    "eorge": 824,
    "iam": 825,
    "Â": 826,
    "ĠWendy": 827,
    "Ġclut": 828,
    "ĠOlly": 829,
    "Ġdangers": 830,
    "Ġfield": 831,
    "Ġfascinating": 832,
    "Ġmate": 833,
    "Ġelephant": 834,
    "Ġweather": 835,
    "Í": 836,
    "ĠMegan": 837,
    "tain": 838,
    "Ġnapping": 839,
    "Ġgrapes": 840,
    "lcano": 841,
    "Ġsailors": 842,
    "ĠRu": 843,
    "asy": 844,
    "Ġscur": 845,
    "Ġhorses": 846,
    "Ġwar": 847,
    "Ġsofter": 848,
    "Ġlift": 849,
    "ĠX": 850,
    "Ġposes": 851,
    "Ġencount": 852,
    "Ġchoices": 853,
    "ĠWorking": 854,
    "Ġstorekeeper": 855,
    "Ġkeeping": 856,
    "Ġwithout": 857,
    "ĠĠ": 858,
    "Ġpointy": 859,
    "free": 860,
    "Ġlost": 861,
    "Ġenjoying": 862,
    "Ġjoined": 863,
    "ae": 864,
    "nament": 865,
    "Ġsk": 866,
    "ellow": 867,
    "Ġbridge": 868,
    "cited": 869,
    "Ġreturning": 870,
    "Ġlistened": 871,
    "Ġzooming": 872,
    "ety": 873,
    "Ġforeshadow": 874,
    "getic": 875,
    "Ġwis": 876,
    "Ġknives": 877,
    "ici": 878,
    "Ġit": 879,
    "its": 880,
    "ĠElle": 881,
    "Ġswim": 882,
    "Ġpose": 883,
    "Ġyarn": 884,
    "Ġrobot": 885,
    "ĠAmy": 886,
    "asty": 887,
    "Ġinchworm": 888,
    "Ġgum": 889,
    "Ġhonk": 890,
    "Ġunexpected": 891,
    "Ġwashes": 892,
    "ĠWhich": 893,
    "Ġexam": 894,
    "Maria": 895,
    "Ġa": 896,
    "amiliar": 897,
    "Ġnoticing": 898,
    "Ġuniform": 899,
    "Ġlon": 900,
    "iving": 901,
    "itting": 902,
    "Ġif": 903,
    "ship": 904,
    "Ġknowledge": 905,
    "row": 906,
    "ĠJane": 907,
    "Mike": 908,
    "place": 909,
    "·": 910,
    "Ġgenerous": 911,
    "Ġnightmare": 912,
    "ec": 913,
    "Ġlaser": 914,
    "wel": 915,
    "Ġchores": 916,
    "Tuna": 917,
    "Ġskunk": 918,
    "Ġgazing": 919,
    "osaur": 920,
    "noon": 921,
    "Ġdiscoveries": 922,
    "ĠBun": 923,
    "Ġdeclared": 924,
    "Ġgo": 925,
    "ist": 926,
    "Ġthere": 927,
    "look": 928,
    "Ġdanc": 929,
    "Ġstepped": 930,
    "ĠMo": 931,
    "Ġsprink": 932,
    "Ġopport": 933,
    "Ġspins": 934,
    "so": 935,
    "cho": 936,
    "Ġbeat": 937,
    "ash": 938,
    "upid": 939,
    "Ġvi": 940,
    "Sh": 941,
    "Ġstool": 942,
    "ala": 943,
    "ú": 944,
    "Ġhero": 945,
    "water": 946,
    "Ġribbit": 947,
    "Ġrings": 948,
    "Ġtruck": 949,
    "ĠMagic": 950,
    "Ġshocked": 951,
    "riger": 952,
    "Ġstructures": 953,
    "Ġaccident": 954,
    "cycle": 955,
    "Ġwarnings": 956,
    "Ġward": 957,
    "Ġmed": 958,
    "Ġsandwiches": 959,
    "ĠHops": 960,
    "Curious": 961,
    "Maddy": 962,
    "Ġcuc": 963,
    "Ġcreations": 964,
    "lls": 965,
    "lier": 966,
    "ĠCats": 967,
    "Ġflashes": 968,
    "So": 969,
    "Ġgear": 970,
    "Ġinclude": 971,
    "Ġenjoyable": 972,
    "ĠJazz": 973,
    "Ġboom": 974,
    "Ġcooked": 975,
    "Ġtrail": 976,
    "Ġwashing": 977,
    "Ġwere": 978,
    "Ġquite": 979,
    "Ġexhausted": 980,
    "Ġboots": 981,
    "ĠThat": 982,
    "Ġreplied": 983,
    "Ġche": 984,
    "Ġclothes": 985,
    "Ġfuzzy": 986,
    "rigerator": 987,
    "Use": 988,
    "Ġflipped": 989,
    "Ġinsp": 990,
    "Ġrespond": 991,
    "ouse": 992,
    "ĠSnake": 993,
    "Ġrips": 994,
    "Timmy": 995,
    "Ġjo": 996,
    "iece": 997,
    "cuse": 998,
    "Ġe": 999,
    "Ġangrily": 1000,
    "sw": 1001,
    "Ġtap": 1002,
    "oceros": 1003,
    "Ġproperly": 1004,
    "3": 1005,
    "lf": 1006,
    "Ġstu": 1007,
    "Ġlabels": 1008,
    "Ġdoing": 1009,
    "ĠMoppy": 1010,
    "ĠSque": 1011,
    "Ġdar": 1012,
    "Ġtool": 1013,
    "Ġexchange": 1014,
    "cie": 1015,
    "ded": 1016,
    "Ġpaddle": 1017,
    "Ġadding": 1018,
    "Ġdrown": 1019,
    "opl": 1020,
    "Ġbite": 1021,
    "Ġpanic": 1022,
    "ĠSuzie": 1023,
    "Ġsewed": 1024,
    "Ġhumming": 1025,
    "oys": 1026,
    "ĠWoo": 1027,
    "Share": 1028,
    "Ġmeeting": 1029,
    "eared": 1030,
    "ache": 1031,
    "Kitty": 1032,
    "ĠSt": 1033,
    "Ġmermaid": 1034,
    "Ġtiny": 1035,
    "llo": 1036,
    "endant": 1037,
    "Ġcupboard": 1038,
    "av": 1039,
    "ĠBob": 1040,
    "Ġsettle": 1041,
    "Ġsingers": 1042,
    "Ġlogs": 1043,
    "ĠSteven": 1044,
    "ĠSpe": 1045,
    "Ġcushion": 1046,
    "Ġtra": 1047,
    "Ġhunting": 1048,
    "Hoppy": 1049,
    "amil": 1050,
    "ĠC": 1051,
    "Ġteacher": 1052,
    "â": 1053,
    "ĠUni": 1054,
    "oth": 1055,
    "ĠWilliam": 1056,
    "work": 1057,
    "Ġyesterday": 1058,
    "Ġnumbered": 1059,
    "ren": 1060,
    "Ġrunning": 1061,
    "Ġgot": 1062,
    "Ġhead": 1063,
    "ke": 1064,
    "ĠCoal": 1065,
    "Ġenemies": 1066,
    "ĠGl": 1067,
    "Ġcorrect": 1068,
    "ĠSay": 1069,
    "ped": 1070,
    "Ġstuck": 1071,
    "ss": 1072,
    "L": 1073,
    "Ġlazy": 1074,
    "Ġblouse": 1075,
    "Ġsteady": 1076,
    "Ġingred": 1077,
    "ark": 1078,
    "Ġperf": 1079,
    "x": 1080,
    "Ġstorms": 1081,
    "Ġbeh": 1082,
    "Ġmonster": 1083,
    "Ġawful": 1084,
    "Ġbelt": 1085,
    "me": 1086,
    "ĠSammy": 1087,
    "No": 1088,
    "Ġforgiving": 1089,
    "Ġglows": 1090,
    "Ġquickly": 1091,
    "Ġholds": 1092,
    "Ġpee": 1093,
    "Ġpopcorn": 1094,
    "Ġdam": 1095,
    "Ġwouldn": 1096,
    "Ġcarefully": 1097,
    "Ġmistakes": 1098,
    "Ġlicks": 1099,
    "Ġcalls": 1100,
    "Ġsipped": 1101,
    "Ġwid": 1102,
    "Ribbit": 1103,
    "Ġsunglasses": 1104,
    "Ġchairs": 1105,
    "Ġchewing": 1106,
    "Ġparticular": 1107,
    "iny": 1108,
    "Ġheroes": 1109,
    "Ġcraw": 1110,
    "Ġreminded": 1111,
    "ĠJackie": 1112,
    "Bubbles": 1113,
    "Welcome": 1114,
    "Ġingredients": 1115,
    "Ġsoaking": 1116,
    "Ġt": 1117,
    "ause": 1118,
    "Ġdaddy": 1119,
    "ĠBoom": 1120,
    "Ġprun": 1121,
    "ĠPh": 1122,
    "Ġfan": 1123,
    "Ġsandwich": 1124,
    "Daddy": 1125,
    "Ġmicrow": 1126,
    "eration": 1127,
    "Ġostrich": 1128,
    "Ġtip": 1129,
    "Ġfle": 1130,
    "Ġperforming": 1131,
    "Ġdrowned": 1132,
    "Eventually": 1133,
    "®": 1134,
    "Ġhills": 1135,
    "Ġdolphin": 1136,
    "¿": 1137,
    "Ġyelled": 1138,
    "Ġalligators": 1139,
    "eet": 1140,
    "Ġcampfire": 1141,
    "yard": 1142,
    "ĠCher": 1143,
    "Ġsever": 1144,
    "Ġseconds": 1145,
    "Ġboy": 1146,
    "Ğ": 1147,
    "ious": 1148,
    "Ġgrandson": 1149,
    "Ĭ": 1150,
    "Ġdrops": 1151,
    "Ġships": 1152,
    "Even": 1153,
    "Ġfew": 1154,
    "Ġsecrets": 1155,
    "bed": 1156,
    "ountain": 1157,
    "Ġgoat": 1158,
    "Ġmeans": 1159,
    "icer": 1160,
    "opes": 1161,
    "Ġtablet": 1162,
    "Ġowner": 1163,
    "Ġfixed": 1164,
    "erly": 1165,
    "Ġsucceed": 1166,
    "Ġrealizing": 1167,
    "Ġbutterflies": 1168,
    "ĠHowever": 1169,
    "Ġmineral": 1170,
    "codile": 1171,
    "Che": 1172,
    "ĠBye": 1173,
    "bly": 1174,
    "ado": 1175,
    "ia": 1176,
    "Got": 1177,
    "Ġeager": 1178,
    "Ġfollowing": 1179,
    "Ġhighest": 1180,
    "ak": 1181,
    "Ġincred": 1182,
    "Ġmiddle": 1183,
    "Ġmoat": 1184,
    "Ġplugged": 1185,
    "ĠQuacky": 1186,
    "Ġdeaf": 1187,
    "Ġclue": 1188,
    "I": 1189,
    "where": 1190,
    "Ġher": 1191,
    "Ġdancing": 1192,
    "Ġache": 1193,
    "Ġsomething": 1194,
    "Ġbacks": 1195,
    "rench": 1196,
    "Ġfix": 1197,
    "Ġshed": 1198,
    "urnit": 1199,
    "Ġaffect": 1200,
    "And": 1201,
    "ĠRemember": 1202,
    "ĠHelping": 1203,
    "sh": 1204,
    "Ġreturned": 1205,
    "ĠBoun": 1206,
    "Ġbodies": 1207,
    "apers": 1208,
    "rag": 1209,
    "cus": 1210,
    "ĠToby": 1211,
    "Ġstraw": 1212,
    "Y": 1213,
    "Ù": 1214,
    "ĠNutty": 1215,
    "ĠCally": 1216,
    "ĠWink": 1217,
    "Ġbrush": 1218,
    "Ġperfume": 1219,
    "aded": 1220,
    "Ġwaddled": 1221,
    "ĠLight": 1222,
    "ĠTommy": 1223,
    "Ġshimmering": 1224,
    "ite": 1225,
    "Ġtrust": 1226,
    "Ġhoo": 1227,
    "Ġsupplies": 1228,
    "Ġsigh": 1229,
    "Ġserving": 1230,
    "Ġrever": 1231,
    "ĠPut": 1232,
    "Ġafternoon": 1233,
    "angle": 1234,
    "tle": 1235,
    "Ġking": 1236,
    "am": 1237,
    "em": 1238,
    "Ġarrives": 1239,
    "Ġcomets": 1240,
    "Ġsadly": 1241,
    "Ġdot": 1242,
    "Ġeld": 1243,
    "Ġexactly": 1244,
    "Ġtantrum": 1245,
    "Ġcaptain": 1246,
    "Ġrelaxing": 1247,
    "Ġwinds": 1248,
    "ote": 1249,
    "Ġhippos": 1250,
    "Ġtissue": 1251,
    "iginal": 1252,
    "Ġsandcastles": 1253,
    "Kate": 1254,
    "Ċ": 1255,
    "Ġaround": 1256,
    "Ġheavy": 1257,
    "Ġwish": 1258,
    "Ġcaution": 1259,
    "Ġpears": 1260,
    "ucky": 1261,
    "comfortable": 1262,
    "Ġshrimp": 1263,
    "ĠCars": 1264,
    "Ġgrat": 1265,
    "ield": 1266,
    "Ġeff": 1267,
    "Ġbumps": 1268,
    "Ġrods": 1269,
    "Ġcloudy": 1270,
    "ĠBall": 1271,
    "Ġdod": 1272,
    "Ġknow": 1273,
    "Ġtypes": 1274,
    "wards": 1275,
    "Fred": 1276,
    "Ġstraight": 1277,
    "Ġannoying": 1278,
    "Ġdark": 1279,
    "Ġsw": 1280,
    "Ġquietly": 1281,
    "agull": 1282,
    "Ġthank": 1283,
    "Ġwardrobe": 1284,
    "Ġswallow": 1285,
    "ued": 1286,
    "Ġpointing": 1287,
    "Ġhow": 1288,
    "Maybe": 1289,
    "Chirpy": 1290,
    "Ġmoonlight": 1291,
    "Ġocean": 1292,
    "Ġcentre": 1293,
    "Ġjoins": 1294,
    "edding": 1295,
    "Ġgen": 1296,
    "Ġsoap": 1297,
    "Ġcrackers": 1298,
    "7": 1299,
    "Ġburns": 1300,
    "Ġpeered": 1301,
    "Ġenough": 1302,
    "stick": 1303,
    "Ġmenu": 1304,
    "Ġcarrying": 1305,
    "ph": 1306,
    "Ġactiv": 1307,
    "Ġrow": 1308,
    "Ġcloth": 1309,
    "Ġundone": 1310,
    "Ġsquaw": 1311,
    "Ġforest": 1312,
    "Ġpassport": 1313,
    "yle": 1314,
    "Mummy": 1315,
    "Ġexcitement": 1316,
    "Ġexc": 1317,
    "ĠBill": 1318,
    "eese": 1319,
    "ĠMissile": 1320,
    "col": 1321,
    "ipment": 1322,
    "sters": 1323,
    "Ġnail": 1324,
    "sit": 1325,
    "E": 1326,
    "Ġtoddler": 1327,
    "Ġdisagree": 1328,
    "Ġlistens": 1329,
    "Ġshattered": 1330,
    "ĠTake": 1331,
    "Ġmeant": 1332,
    "Ġgiggles": 1333,
    "cient": 1334,
    "Ġneighbourhood": 1335,
    "Ġpurred": 1336,
    "Ġcont": 1337,
    "Ġcoloring": 1338,
    "arent": 1339,
    "ead": 1340,
    "Ġarms": 1341,
    "aids": 1342,
    "Ġbarking": 1343,
    "ated": 1344,
    "izza": 1345,
    "Ġsock": 1346,
    "abelle": 1347,
    "Ġceiling": 1348,
    "Ġrack": 1349,
    "Ġtents": 1350,
    "asp": 1351,
    "Ġbreeze": 1352,
    "ĠSnowman": 1353,
    "neath": 1354,
    "ĠScissors": 1355,
    "ĠPo": 1356,
    "Ġocc": 1357,
    "Ġpanda": 1358,
    "fish": 1359,
    "Ġbre": 1360,
    "ser": 1361,
    "Today": 1362,
    "Ġgarbage": 1363,
    "Ġdin": 1364,
    "Ġmonsters": 1365,
    "Ġopen": 1366,
    "ol": 1367,
    "Ġhoping": 1368,
    "Ġoutdo": 1369,
    "Ġspirit": 1370,
    "Ġcon": 1371,
    "Ġret": 1372,
    "Ġpurr": 1373,
    "Ġax": 1374,
    "ummies": 1375,
    "ĠFel": 1376,
    "ost": 1377,
    "ceed": 1378,
    "ĠMaisy": 1379,
    "Ġheels": 1380,
    "Ġbull": 1381,
    "oke": 1382,
    "Give": 1383,
    "Not": 1384,
    "Ġleop": 1385,
    "Mandy": 1386,
    "Ġquick": 1387,
    "Ġpersist": 1388,
    "Ġwhistles": 1389,
    "Ġdessert": 1390,
    "Ġburrow": 1391,
    "Ġmouse": 1392,
    "ĠFlopsy": 1393,
    "Ġpistol": 1394,
    "ĠBerry": 1395,
    "Ġstro": 1396,
    "All": 1397,
    "Ġneigh": 1398,
    "Ġcereal": 1399,
    "ĠYes": 1400,
    "istory": 1401,
    "Ġbadger": 1402,
    "Ġtimer": 1403,
    "ick": 1404,
    "Ġbrother": 1405,
    "ĠTe": 1406,
    "plash": 1407,
    "Ġsnug": 1408,
    "this": 1409,
    "Ġsnowmen": 1410,
    "Ġbinoculars": 1411,
    "Ġlights": 1412,
    "Ġsweeter": 1413,
    "ble": 1414,
    "ĠSince": 1415,
    "ictionary": 1416,
    "Ġteaches": 1417,
    "Ġout": 1418,
    "Ġev": 1419,
    "Ġworth": 1420,
    "joy": 1421,
    "Ġwishing": 1422,
    "Ġcushions": 1423,
    "Pip": 1424,
    "Ġfactory": 1425,
    "Bluey": 1426,
    "Ġlanding": 1427,
    "ĠDin": 1428,
    "Ġrubbish": 1429,
    "Ġclass": 1430,
    "Ġjogging": 1431,
    "Ġcrayon": 1432,
    "Ġpeck": 1433,
    "ē": 1434,
    "ĕ": 1435,
    "ĠRobbie": 1436,
    "ĠHor": 1437,
    "ĠJim": 1438,
    "Ġroad": 1439,
    "eor": 1440,
    "ored": 1441,
    "Ġmatters": 1442,
    "ĠPippin": 1443,
    "rat": 1444,
    "Ġdestroyed": 1445,
    "Kids": 1446,
    "Ġfastest": 1447,
    "Ġdipped": 1448,
    "ĠLater": 1449,
    "Ġjack": 1450,
    "Ġdidn": 1451,
    "Ġstepping": 1452,
    "Ġgolf": 1453,
    "Ġballoon": 1454,
    "Bobby": 1455,
    "ment": 1456,
    "Ġyog": 1457,
    "Ġslapping": 1458,
    "Ġspade": 1459,
    "ĠZigzag": 1460,
    "ĠWolf": 1461,
    "Ġcloses": 1462,
    "Ġbackpacks": 1463,
    "Ġset": 1464,
    "Ġshrink": 1465,
    "ĠGerry": 1466,
    "illed": 1467,
    "Ġsupporting": 1468,
    "Ġlanded": 1469,
    "Ġprove": 1470,
    "Ġgrowling": 1471,
    "Ġweeds": 1472,
    "Ġsped": 1473,
    "Ġthan": 1474,
    "Ġbugs": 1475,
    "Ġothers": 1476,
    "yth": 1477,
    "Ġbookshe": 1478,
    "Ġwrinkled": 1479,
    "Ġsmelling": 1480,
    "bie": 1481,
    "Ġover": 1482,
    "Happy": 1483,
    "ant": 1484,
    "ĠTiger": 1485,
    "upt": 1486,
    "Ġrout": 1487,
    "Ġwalk": 1488,
    "Ġbal": 1489,
    "Ġthroughout": 1490,
    "ifully": 1491,
    "Ġback": 1492,
    "Ġearned": 1493,
    "Ġplastic": 1494,
    "Ġsoftened": 1495,
    "Ġdisaster": 1496,
    "Ġsniffed": 1497,
    "omet": 1498,
    "Ġlettuce": 1499,
    "Ġenemy": 1500,
    "Ġlull": 1501,
    "fl": 1502,
    "pecting": 1503,
    "low": 1504,
    "Ġslide": 1505,
    "Ġtheater": 1506,
    "Ġsmashed": 1507,
    "Ġget": 1508,
    "asmine": 1509,
    "Ġpoor": 1510,
    "Ġcoug": 1511,
    "Moo": 1512,
    "ĠTimmy": 1513,
    "Ġfurther": 1514,
    "alley": 1515,
    "Ġpolishing": 1516,
    "Ġpatches": 1517,
    "ĠMolly": 1518,
    "Ġgives": 1519,
    "cy": 1520,
    "Ġtr": 1521,
    "ĠBuzz": 1522,
    "Leave": 1523,
    "Ġwounds": 1524,
    "Ġinvites": 1525,
    "Ġwhy": 1526,
    "Ġcomplain": 1527,
    "Ġthump": 1528,
    "Ġbri": 1529,
    "Ġmoon": 1530,
    "Ġbe": 1531,
    "Ġmountain": 1532,
    "Ġplayer": 1533,
    "Ġnumbers": 1534,
    "cu": 1535,
    "Ġforests": 1536,
    "Ġmark": 1537,
    "Ġsmelly": 1538,
    "ipop": 1539,
    "Ġass": 1540,
    "Ġrelie": 1541,
    "Ġsource": 1542,
    "und": 1543,
    "ress": 1544,
    "Silly": 1545,
    "ĠLu": 1546,
    "Ġple": 1547,
    "Ġartist": 1548,
    "Ġrun": 1549,
    "aff": 1550,
    "ĠTurtle": 1551,
    "ossible": 1552,
    "ĠKevin": 1553,
    "Ġbrakes": 1554,
    "Ġbookcase": 1555,
    "Ġcontinue": 1556,
    "Ġwidened": 1557,
    "Ġbuilt": 1558,
    "Ġbutterf": 1559,
    "Back": 1560,
    "erg": 1561,
    "vy": 1562,
    "But": 1563,
    "Ġcrib": 1564,
    "Ġcolor": 1565,
    "anced": 1566,
    "Ġstrawberries": 1567,
    "?\"": 1568,
    "Ġwatching": 1569,
    "Ġwait": 1570,
    "Ġhatched": 1571,
    "Mat": 1572,
    "Ġsuccessfully": 1573,
    "Ġstart": 1574,
    "ĠNo": 1575,
    "Ġtemp": 1576,
    "Ġprune": 1577,
    "sp": 1578,
    "Ġkeep": 1579,
    "Ġbelongings": 1580,
    "ual": 1581,
    "Ġharsh": 1582,
    "ee": 1583,
    "Ġoverwhel": 1584,
    "Ġbuckle": 1585,
    "ĠKids": 1586,
    "Ġmeets": 1587,
    "ĠSocky": 1588,
    "Ġmassage": 1589,
    "Ġambulance": 1590,
    "Ġflight": 1591,
    "Ġfree": 1592,
    "Ġleopard": 1593,
    "Ġhelper": 1594,
    "Ġcrack": 1595,
    "Ġbuildings": 1596,
    "Ġkid": 1597,
    "ĠAt": 1598,
    "OO": 1599,
    "Ġstrength": 1600,
    "enty": 1601,
    "Ġdesserts": 1602,
    "Ġbehaviour": 1603,
    "ĠSh": 1604,
    "Ġhappiness": 1605,
    "to": 1606,
    "Ġcast": 1607,
    "Ġnotes": 1608,
    "Ġswirl": 1609,
    "Ġsill": 1610,
    "Ġtalking": 1611,
    "Ġmop": 1612,
    "ĠWhen": 1613,
    "Ġanywhere": 1614,
    "ĠMine": 1615,
    "Ġbeetle": 1616,
    "ssible": 1617,
    "Ġlook": 1618,
    "Ġdire": 1619,
    "Ġstuffing": 1620,
    "ĠKim": 1621,
    "stairs": 1622,
    "ĠSeeing": 1623,
    "Ġrumble": 1624,
    "Þ": 1625,
    "Ġinterested": 1626,
    "Ġbats": 1627,
    "Ġcous": 1628,
    "Jul": 1629,
    "ĠStop": 1630,
    "Ġboats": 1631,
    "dam": 1632,
    "Ġhanding": 1633,
    "istol": 1634,
    "Ġremind": 1635,
    "Ġsnapping": 1636,
    "Ġsick": 1637,
    "Ġok": 1638,
    "Ġpeople": 1639,
    "Ġbuzz": 1640,
    "Ġtrains": 1641,
    "ggles": 1642,
    "Ġbaths": 1643,
    "Ġsle": 1644,
    "Ġexplorers": 1645,
    "Ġlively": 1646,
    "Ġreindeer": 1647,
    "Ġimport": 1648,
    "Ġpetals": 1649,
    "Ġo": 1650,
    "Ġreminds": 1651,
    "iron": 1652,
    "dies": 1653,
    "Ġcub": 1654,
    "Ġwand": 1655,
    "Ġkindly": 1656,
    "Ġpar": 1657,
    "ã": 1658,
    "Ġchopped": 1659,
    "Is": 1660,
    "Ġtips": 1661,
    "Ġthreads": 1662,
    "Once": 1663,
    "ase": 1664,
    "Ġchess": 1665,
    "keeper": 1666,
    "Ġentered": 1667,
    "Ġparticularly": 1668,
    "Ġseesaw": 1669,
    "ye": 1670,
    "Ġchanging": 1671,
    "Ġmo": 1672,
    "!": 1673,
    "Ġguys": 1674,
    "Ġupside": 1675,
    "Ġtwirling": 1676,
    "Ġconfl": 1677,
    "Ġshyly": 1678,
    "Ġseagulls": 1679,
    "iver": 1680,
    "Ġchest": 1681,
    "Ġjunk": 1682,
    "Ġkick": 1683,
    "Ġrowed": 1684,
    "co": 1685,
    "Ġfing": 1686,
    "Ġsupport": 1687,
    "Ġknot": 1688,
    "Ġcrashed": 1689,
    "Ġpermit": 1690,
    "band": 1691,
    "chie": 1692,
    "Ġpoppies": 1693,
    "Ġhe": 1694,
    "Ġhusband": 1695,
    "Ġhelped": 1696,
    "Ġweighs": 1697,
    "Ġtrue": 1698,
    "ĠZ": 1699,
    "Ġgathering": 1700,
    "Ġpig": 1701,
    "Ġpenny": 1702,
    "Ġbur": 1703,
    "Ġcamera": 1704,
    "Fire": 1705,
    "Ġhope": 1706,
    "isted": 1707,
    "ĠOnly": 1708,
    "Ġbravery": 1709,
    "ĠCarla": 1710,
    "ĠSe": 1711,
    "Ġstarting": 1712,
    "ĠRun": 1713,
    "Ġdriving": 1714,
    "rier": 1715,
    "Ġcops": 1716,
    "Ġwhite": 1717,
    "ĠSleepy": 1718,
    "Ġrazor": 1719,
    "Ġunless": 1720,
    "Sharing": 1721,
    "Ġfollowed": 1722,
    "ime": 1723,
    "Ġreind": 1724,
    "orter": 1725,
    "cakes": 1726,
    "Ġdetermined": 1727,
    "Ġfisher": 1728,
    "Ġgracefully": 1729,
    "ished": 1730,
    "Ġones": 1731,
    "Ġsquirrel": 1732,
    "Ready": 1733,
    "Ġjewel": 1734,
    "ł": 1735,
    "Ġlined": 1736,
    "ate": 1737,
    "az": 1738,
    "Ġink": 1739,
    "ecause": 1740,
    "Ġpirate": 1741,
    "Ġscoops": 1742,
    "Ġagree": 1743,
    "s": 1744,
    "ĠMomma": 1745,
    "Ġsubway": 1746,
    "Ġlem": 1747,
    "Ġloo": 1748,
    "seum": 1749,
    "Ġscreaming": 1750,
    "ĠThanks": 1751,
    "Ġhurried": 1752,
    "¼": 1753,
    "Ġhudd": 1754,
    "ertain": 1755,
    "Ġlanguage": 1756,
    "Ġregretted": 1757,
    "Ġsleds": 1758,
    "Ġknocks": 1759,
    "used": 1760,
    "Ġbuilder": 1761,
    "Ġcere": 1762,
    "Ġdrums": 1763,
    "ĠYellow": 1764,
    "Ġspilled": 1765,
    "Ġcollap": 1766,
    "ĠAndrew": 1767,
    "tuce": 1768,
    "aty": 1769,
    "Ġy": 1770,
    "Ġanx": 1771,
    "Ġwarmed": 1772,
    "Ġawake": 1773,
    "iss": 1774,
    "Ġbags": 1775,
    "Ġscrewdriver": 1776,
    "ĠTuesday": 1777,
    "Miss": 1778,
    "ĠPr": 1779,
    "ting": 1780,
    "ect": 1781,
    "Ġscientist": 1782,
    "fted": 1783,
    "Ġsnort": 1784,
    "ĠHorsie": 1785,
    "Ġsize": 1786,
    "Ġumbre": 1787,
    "Hannah": 1788,
    "Ġopened": 1789,
    "Ġjoyful": 1790,
    "Ġprot": 1791,
    "Fr": 1792,
    "âĢĶ": 1793,
    "Thomas": 1794,
    "Ġgets": 1795,
    "ĠJax": 1796,
    "Ġhist": 1797,
    "ĠKn": 1798,
    "Ġfilled": 1799,
    "dile": 1800,
    "Ġpowers": 1801,
    "Ġend": 1802,
    "Ġlamp": 1803,
    "Ġyet": 1804,
    "Ġtelescope": 1805,
    "Ġgrown": 1806,
    "Ġpast": 1807,
    "aster": 1808,
    "Ġconquered": 1809,
    "Ġwaded": 1810,
    "ing": 1811,
    "Ġloud": 1812,
    "Ġlibrarian": 1813,
    "Ġneedles": 1814,
    "Ġstick": 1815,
    "Ġne": 1816,
    "Ġthankful": 1817,
    "Ġamazing": 1818,
    "Ġsailing": 1819,
    "Ġwaking": 1820,
    "Ġrestore": 1821,
    "Ġword": 1822,
    "Ġembarrassed": 1823,
    "Ġflash": 1824,
    "Ġburning": 1825,
    "Ġprickly": 1826,
    "ĠTre": 1827,
    "um": 1828,
    "Ġcrashing": 1829,
    "Ġzebras": 1830,
    "ĠDeal": 1831,
    "Ġtal": 1832,
    "Ġmet": 1833,
    "Ġdrives": 1834,
    "Ġdriver": 1835,
    "oc": 1836,
    "Ġstayed": 1837,
    "hel": 1838,
    "ving": 1839,
    "Ġfinger": 1840,
    "Ġscooped": 1841,
    "Ġcraft": 1842,
    "Ġab": 1843,
    "ĠSo": 1844,
    "Ġcurly": 1845,
    "ĠLots": 1846,
    "Ġcautiously": 1847,
    "Ġfiremen": 1848,
    "Ġswooped": 1849,
    "Ġtoward": 1850,
    "Ġefforts": 1851,
    "ĠMag": 1852,
    "Ġalligator": 1853,
    "Ġgroaned": 1854,
    "Ġstores": 1855,
    "Ġstone": 1856,
    "ays": 1857,
    "Sometimes": 1858,
    "Ġactor": 1859,
    "Ġdust": 1860,
    "Ġbefore": 1861,
    "how": 1862,
    "Fin": 1863,
    "Ġspoke": 1864,
    "Ġboat": 1865,
    "Everything": 1866,
    "Ġag": 1867,
    "etter": 1868,
    "illie": 1869,
    "Ġzookeeper": 1870,
    "Ġsafer": 1871,
    "Ġcozy": 1872,
    "ĠRace": 1873,
    "ĠZoom": 1874,
    "Ġtrou": 1875,
    "ĠCh": 1876,
    "Ġinse": 1877,
    "Ġespecially": 1878,
    "uel": 1879,
    "ednesday": 1880,
    "Ġopening": 1881,
    "Benny": 1882,
    "other": 1883,
    "Ġbold": 1884,
    "Ġcookie": 1885,
    "Ġseas": 1886,
    "aint": 1887,
    "Ġcorn": 1888,
    "Ġgold": 1889,
    "Ġangel": 1890,
    "anda": 1891,
    "ñ": 1892,
    "Ġtasty": 1893,
    "Ġcollar": 1894,
    "Ġplayd": 1895,
    "laire": 1896,
    "Ġwolves": 1897,
    "Ġhappy": 1898,
    "ĠHolly": 1899,
    "Ġcall": 1900,
    "Ġfurious": 1901,
    "Ġhonking": 1902,
    "»": 1903,
    "Ġeasy": 1904,
    "Ġtempted": 1905,
    "Ġcoo": 1906,
    "Ġbeloved": 1907,
    "Ġsank": 1908,
    "Ġtreehouse": 1909,
    "Ġslithered": 1910,
    "Ġstudying": 1911,
    "rest": 1912,
    "Ġtwists": 1913,
    "oney": 1914,
    "Ġhooks": 1915,
    "Ġprotecting": 1916,
    "enry": 1917,
    "ĠQueen": 1918,
    "Ġwarrior": 1919,
    "Magic": 1920,
    "Ľ": 1921,
    "Ġdid": 1922,
    "kay": 1923,
    "ĠNe": 1924,
    "zie": 1925,
    "Ġforgave": 1926,
    "ming": 1927,
    "Ġbed": 1928,
    "Ġvalue": 1929,
    "ĠPiggy": 1930,
    "Ġstay": 1931,
    "Ġwealth": 1932,
    "ĠAlice": 1933,
    "ible": 1934,
    "Ġsquare": 1935,
    "ayla": 1936,
    "Ġbarely": 1937,
    "Ġimage": 1938,
    "Ġgigg": 1939,
    "Ġcomplaining": 1940,
    "ĠU": 1941,
    "Ġsuffer": 1942,
    "--": 1943,
    "cess": 1944,
    "Ġclaws": 1945,
    "Ġquest": 1946,
    "Ġice": 1947,
    "Ġbelow": 1948,
    "ĠClara": 1949,
    "ĠWill": 1950,
    "ike": 1951,
    "ĠUp": 1952,
    "Ġhangs": 1953,
    "Ġplanting": 1954,
    "Ġfier": 1955,
    "Ġrely": 1956,
    "Ġcelery": 1957,
    "round": 1958,
    "ling": 1959,
    "Ġwhispered": 1960,
    "Ġmakeup": 1961,
    "snap": 1962,
    "Ġheavier": 1963,
    "Ġrealize": 1964,
    "etch": 1965,
    "Ġtoilet": 1966,
    "Ġbat": 1967,
    "Ġav": 1968,
    "Ġco": 1969,
    "ĠW": 1970,
    "Ġadventur": 1971,
    "Ġshovels": 1972,
    "luffy": 1973,
    "Ġlake": 1974,
    "op": 1975,
    "Ġforgets": 1976,
    "umbled": 1977,
    "Ġhelpless": 1978,
    "ĠBeep": 1979,
    "Ġbees": 1980,
    "Ġcenter": 1981,
    "Ġcaterpillar": 1982,
    "Ġbitten": 1983,
    "Ġbecome": 1984,
    "ĠJosh": 1985,
    "Ġballoons": 1986,
    "Ġgoose": 1987,
    "Ġfabric": 1988,
    "iggles": 1989,
    "olog": 1990,
    "Tina": 1991,
    "ief": 1992,
    "Ġitems": 1993,
    "Cindy": 1994,
    "ink": 1995,
    "ĠLucy": 1996,
    "ric": 1997,
    "Jack": 1998,
    "ĠFifi": 1999,
    "Ġmemory": 2000,
    "Ġyum": 2001,
    "Ġattempt": 2002,
    "ation": 2003,
    "rent": 2004,
    "illy": 2005,
    "Ġthink": 2006,
    "Ġhome": 2007,
    "Ġsym": 2008,
    "arp": 2009,
    "Ġsupp": 2010,
    "Ġwigg": 2011,
    "Ray": 2012,
    "ĠGlow": 2013,
    "Ġrefrigerator": 2014,
    "Em": 2015,
    "fived": 2016,
    "Ġteasing": 2017,
    "Lucy": 2018,
    "ustr": 2019,
    "Ġmusician": 2020,
    "V": 2021,
    "Ĳ": 2022,
    "art": 2023,
    "Ġenth": 2024,
    "Ġpeas": 2025,
    "oug": 2026,
    "Ġexciting": 2027,
    "et": 2028,
    "Ġshooting": 2029,
    "ĠMatt": 2030,
    "Ġfollows": 2031,
    "Ġbook": 2032,
    "Ġsports": 2033,
    "Ġrobots": 2034,
    "adabra": 2035,
    "ibb": 2036,
    "Ġeat": 2037,
    "Ġshady": 2038,
    "isdom": 2039,
    "ĠElsie": 2040,
    "Ġknowled": 2041,
    "ĠRaven": 2042,
    "Ġclose": 2043,
    "\"": 2044,
    "Ġsmell": 2045,
    "Ġmarried": 2046,
    "Ġgrassy": 2047,
    "Ġpedal": 2048,
    "Ġshortcut": 2049,
    "Ġdiamond": 2050,
    "Ġcell": 2051,
    "6": 2052,
    "Ġbushes": 2053,
    "Ġecho": 2054,
    "Ġtracks": 2055,
    "orth": 2056,
    "Do": 2057,
    "ĠMilly": 2058,
    "Ġdisplayed": 2059,
    "Ġapplause": 2060,
    "Ġminute": 2061,
    "Ġjoyfully": 2062,
    "Ġgooey": 2063,
    "Bless": 2064,
    "ĠDid": 2065,
    "ions": 2066,
    "Ġwip": 2067,
    "Frank": 2068,
    "Ġducks": 2069,
    "Ġunlock": 2070,
    "Ġresponsible": 2071,
    "Ġlit": 2072,
    "rs": 2073,
    "Ġparties": 2074,
    "Ġgather": 2075,
    "inal": 2076,
    "Ġthr": 2077,
    "Ġsad": 2078,
    "Ġsees": 2079,
    "Ġtaste": 2080,
    "ity": 2081,
    "Ġcost": 2082,
    "urse": 2083,
    "verse": 2084,
    "Ġpolice": 2085,
    "Ġoccas": 2086,
    "chievous": 2087,
    "Ġapology": 2088,
    "Ġgerms": 2089,
    "Playing": 2090,
    "vering": 2091,
    "Ġfaced": 2092,
    "oose": 2093,
    "Ġallow": 2094,
    "ara": 2095,
    "Ġgu": 2096,
    "Ġimportant": 2097,
    "Ġbitter": 2098,
    "Ġcave": 2099,
    "Ġdelic": 2100,
    "more": 2101,
    "Ġlikes": 2102,
    "Ġswims": 2103,
    "Ġcome": 2104,
    "Ġwrink": 2105,
    "Ġadd": 2106,
    "ott": 2107,
    "Ġlung": 2108,
    "Ġhoops": 2109,
    "Ġwhimp": 2110,
    "Ġentire": 2111,
    "Ġyummiest": 2112,
    "Papa": 2113,
    "Ġinteresting": 2114,
    "Ġgrand": 2115,
    "ĠThunder": 2116,
    "Ġmaker": 2117,
    "ĠJul": 2118,
    "Ġrocked": 2119,
    "ecting": 2120,
    "Ġwizard": 2121,
    "esome": 2122,
    "Ġtide": 2123,
    "Ġsnar": 2124,
    "Ġbubbling": 2125,
    "Ġstamps": 2126,
    "Ġlo": 2127,
    "Ġbananas": 2128,
    "Ġresisted": 2129,
    "atter": 2130,
    "Ġbelieved": 2131,
    "Ġluckily": 2132,
    "Ġpatient": 2133,
    "ĠFido": 2134,
    "Ġworst": 2135,
    "Ġexploration": 2136,
    "÷": 2137,
    "Ġcertain": 2138,
    "Ġisland": 2139,
    "Ġcro": 2140,
    "Ġsuffered": 2141,
    "Ġcartoon": 2142,
    "Ġtonight": 2143,
    "Ë": 2144,
    "ĠSp": 2145,
    "Everyone": 2146,
    "ĠLinda": 2147,
    "Ġannounced": 2148,
    "Ġhair": 2149,
    "ĠBiggie": 2150,
    "riage": 2151,
    "Mr": 2152,
    "ĠTo": 2153,
    "Ġfetch": 2154,
    "Ġhate": 2155,
    "Ġimpro": 2156,
    "ĠDavid": 2157,
    "Rose": 2158,
    "ĠWhoever": 2159,
    "Ġperched": 2160,
    "Jan": 2161,
    "Ġlive": 2162,
    "ffee": 2163,
    "Ġsooner": 2164,
    "Ġbelonged": 2165,
    "Ġbutterfly": 2166,
    "Ġpuzz": 2167,
    "Ġcryst": 2168,
    "ĠSharing": 2169,
    "Ġstains": 2170,
    "Ġbald": 2171,
    "Ġbasket": 2172,
    "ĠFloppy": 2173,
    "Ġwings": 2174,
    "ĠGreen": 2175,
    "Ġbossy": 2176,
    "scar": 2177,
    "Ġmajest": 2178,
    "Ġcompet": 2179,
    "Ġpebble": 2180,
    "ĠFriends": 2181,
    "Rain": 2182,
    "=": 2183,
    "Ġcard": 2184,
    "Ġpaints": 2185,
    "Ġang": 2186,
    "ason": 2187,
    "Ġflag": 2188,
    "Yes": 2189,
    "uddles": 2190,
    "Ġfolded": 2191,
    "oh": 2192,
    "ĠRiri": 2193,
    "Ġroar": 2194,
    "Ġsaf": 2195,
    "Ġhello": 2196,
    "Ġtarget": 2197,
    "Ġsailed": 2198,
    ".\"": 2199,
    "Ġsel": 2200,
    "Ġsunflowers": 2201,
    "armer": 2202,
    "ĠRes": 2203,
    "Ġweren": 2204,
    "ħ": 2205,
    "riend": 2206,
    "Ġpeanut": 2207,
    "Ġreass": 2208,
    "of": 2209,
    "ĠIn": 2210,
    "Ġtwink": 2211,
    "Ġexplor": 2212,
    "Ġaut": 2213,
    "Ġcheaper": 2214,
    "andy": 2215,
    "Ġencou": 2216,
    "Rosie": 2217,
    "ĠJoan": 2218,
    "Ġzipping": 2219,
    "Ġclimbs": 2220,
    "Ġabout": 2221,
    "Ġworker": 2222,
    "Ġwe": 2223,
    "Ġghosts": 2224,
    "lace": 2225,
    "Ġlongest": 2226,
    "Ġsand": 2227,
    "ĠPinchy": 2228,
    "Ġchopping": 2229,
    "ą": 2230,
    "ĠBrown": 2231,
    "Ġair": 2232,
    "Ġremoved": 2233,
    "Ġrescue": 2234,
    "Before": 2235,
    "Ġbrick": 2236,
    "ĠSlinky": 2237,
    "Ġday": 2238,
    "Ġsofa": 2239,
    "Ġsnail": 2240,
    "Lisa": 2241,
    "Ġautomobiles": 2242,
    "Ġlick": 2243,
    "ĠSuper": 2244,
    "Grow": 2245,
    "Ġcase": 2246,
    "oto": 2247,
    "ĠImmediately": 2248,
    "Ġdem": 2249,
    "Ġsunf": 2250,
    "ssess": 2251,
    "Ġfills": 2252,
    "Freddy": 2253,
    "Ġdef": 2254,
    "Ġgif": 2255,
    "Ġsurprised": 2256,
    "Ġsniffs": 2257,
    "ĠL": 2258,
    "Ġcalm": 2259,
    "ĠSuzy": 2260,
    "Ġadmir": 2261,
    "aur": 2262,
    "Ġfairy": 2263,
    "Ġmov": 2264,
    "Ġwhoever": 2265,
    "Daisy": 2266,
    "retty": 2267,
    "Ġpink": 2268,
    "'ll": 2269,
    "Ġwisely": 2270,
    "Ġbelieving": 2271,
    "Ġglided": 2272,
    "À": 2273,
    "Ġcat": 2274,
    "Ġyoun": 2275,
    "Ġresc": 2276,
    "lephant": 2277,
    "Ġvisitors": 2278,
    "Ġcrickets": 2279,
    "Ġpaint": 2280,
    "Ġlast": 2281,
    "emy": 2282,
    "Ġcelebr": 2283,
    "Ġglad": 2284,
    "Ġknows": 2285,
    "ĠCow": 2286,
    "Ġspecial": 2287,
    "ales": 2288,
    "Ġsafari": 2289,
    "ĠMax": 2290,
    "Ġhooves": 2291,
    "Ġhorns": 2292,
    "Ġtorn": 2293,
    "ushes": 2294,
    "Ġgrinned": 2295,
    "Ġrides": 2296,
    "Ġmelts": 2297,
    "Ġbuilders": 2298,
    "ĠBubu": 2299,
    "Ġbuses": 2300,
    "Ġsandcastle": 2301,
    "ĠLike": 2302,
    "ĠHer": 2303,
    "ĠE": 2304,
    "Ġdriveway": 2305,
    "Ġarrived": 2306,
    "Ġconflict": 2307,
    "Ġlollipop": 2308,
    "Ġexamined": 2309,
    "Ġdarkness": 2310,
    "Ġflashed": 2311,
    "Ġturned": 2312,
    "Ġlike": 2313,
    "Ġarea": 2314,
    "ove": 2315,
    "Ġgranddaughter": 2316,
    "ure": 2317,
    "Ġord": 2318,
    "rmomet": 2319,
    "Ġprevent": 2320,
    "Ġaddress": 2321,
    "Ġfurniture": 2322,
    "³": 2323,
    "9": 2324,
    "Ġme": 2325,
    "Ġhappens": 2326,
    "Splash": 2327,
    "own": 2328,
    "ppy": 2329,
    "Ġcolorful": 2330,
    "Ġmane": 2331,
    "ended": 2332,
    "Ġstud": 2333,
    "Ġacting": 2334,
    "Ġfig": 2335,
    "Ġitself": 2336,
    "ato": 2337,
    "Ġnails": 2338,
    "ob": 2339,
    "Ġcompass": 2340,
    "Ġland": 2341,
    "Ġbit": 2342,
    "Ġguitars": 2343,
    "ever": 2344,
    "Ġoffer": 2345,
    "Ġshoulder": 2346,
    "Ġswitched": 2347,
    "Ġnets": 2348,
    "Ġfloat": 2349,
    "Ġanyway": 2350,
    "Ġresponded": 2351,
    "Ġamong": 2352,
    "angaroo": 2353,
    "allen": 2354,
    "Ġmelon": 2355,
    "Ġcush": 2356,
    "Ġplace": 2357,
    "Ġcr": 2358,
    "Ġthing": 2359,
    "sers": 2360,
    "Ġcoup": 2361,
    "Ġbru": 2362,
    "Ġbackward": 2363,
    "Ġtrusting": 2364,
    "Ġpretends": 2365,
    "what": 2366,
    "ibbit": 2367,
    "Ġelf": 2368,
    "Ġpushes": 2369,
    "Josh": 2370,
    "Ġpackage": 2371,
    "ĠAbigail": 2372,
    "Ġeffort": 2373,
    "Ġbrothers": 2374,
    "Ġjug": 2375,
    "Ġman": 2376,
    "Ġflour": 2377,
    "Katie": 2378,
    "Jill": 2379,
    "Carl": 2380,
    "Ġopinions": 2381,
    "Ġparks": 2382,
    "emies": 2383,
    "ĠMatilda": 2384,
    "Ġtrade": 2385,
    "Ġtwir": 2386,
    "Ġcrystals": 2387,
    "Eat": 2388,
    "Ġtalk": 2389,
    "Pinky": 2390,
    "wise": 2391,
    "cond": 2392,
    "selves": 2393,
    "Ġmessy": 2394,
    "Ġregular": 2395,
    "Ġdelay": 2396,
    "Ġbeamed": 2397,
    "Mother": 2398,
    "Ġtriangle": 2399,
    "Ġquilt": 2400,
    "ien": 2401,
    "Ġmailbox": 2402,
    "Ġdoesn": 2403,
    "Ġdrop": 2404,
    "Ġbeads": 2405,
    "ĠTiny": 2406,
    "Let": 2407,
    "Ġdiscovered": 2408,
    "Ġinst": 2409,
    "ide": 2410,
    "Ġthought": 2411,
    "Ġshout": 2412,
    "ittens": 2413,
    "Ġostriches": 2414,
    "Ġmovie": 2415,
    "Ġcuriously": 2416,
    "Ġkites": 2417,
    "²": 2418,
    "Ġlose": 2419,
    "anging": 2420,
    "alous": 2421,
    "ighed": 2422,
    "Ġpat": 2423,
    "Ġskin": 2424,
    "Squ": 2425,
    "Ġbirdc": 2426,
    "ĠJanie": 2427,
    "Sandy": 2428,
    "Ġpigeons": 2429,
    "Ġmen": 2430,
    "Ġroutine": 2431,
    "ters": 2432,
    "ced": 2433,
    "Polly": 2434,
    "Ġhomes": 2435,
    "Ġnearby": 2436,
    "Ġtake": 2437,
    "Ġkids": 2438,
    "ella": 2439,
    "Zip": 2440,
    "men": 2441,
    "Ġadventures": 2442,
    "ĠNut": 2443,
    "ize": 2444,
    "rosc": 2445,
    "ophie": 2446,
    "otte": 2447,
    "Ġfireworks": 2448,
    "Ġbully": 2449,
    "Ġsweat": 2450,
    "ĠHarry": 2451,
    "Ġfl": 2452,
    "Ġfound": 2453,
    "Quack": 2454,
    "Ġcamp": 2455,
    "Ġwondered": 2456,
    "shine": 2457,
    "Ġcan": 2458,
    "Ġrolled": 2459,
    "ĠIts": 2460,
    "pp": 2461,
    "Ġsor": 2462,
    "¾": 2463,
    "Ġfam": 2464,
    "Ġmat": 2465,
    "ĠCatty": 2466,
    "Ġmeow": 2467,
    "irac": 2468,
    "owl": 2469,
    "igh": 2470,
    "ower": 2471,
    "Ġcomfortable": 2472,
    "Ġswept": 2473,
    "Ġcourage": 2474,
    "5": 2475,
    "Ġdoors": 2476,
    "ė": 2477,
    "ind": 2478,
    "Ġemp": 2479,
    "Ġhorri": 2480,
    "get": 2481,
    "Ġcongratul": 2482,
    "Ġwant": 2483,
    "Ġre": 2484,
    "ĠMrs": 2485,
    "Ġbanana": 2486,
    "ĠExcited": 2487,
    "Ġrhinoceros": 2488,
    "Ġtorto": 2489,
    "Ġembra": 2490,
    "Ġbehind": 2491,
    "?": 2492,
    "Ġgrow": 2493,
    "Ġsold": 2494,
    "Ġcough": 2495,
    "/": 2496,
    "Ġshower": 2497,
    "eep": 2498,
    "ĠVroom": 2499,
    "Ġstretches": 2500,
    "oot": 2501,
    "Ġforever": 2502,
    "Ġperformance": 2503,
    "Ġhairdress": 2504,
    "ĠKing": 2505,
    "Ġsweater": 2506,
    "Ġpuff": 2507,
    "Ġvet": 2508,
    "izzes": 2509,
    "Ġsmaller": 2510,
    "Ġhim": 2511,
    "Ġidea": 2512,
    "Ġteleph": 2513,
    "Ġact": 2514,
    "Ġobedient": 2515,
    "ĠYou": 2516,
    "ilk": 2517,
    "Ġmixed": 2518,
    "Ġwarm": 2519,
    "Ġbows": 2520,
    "Ġresponsibility": 2521,
    "ĠSleep": 2522,
    "Ġliving": 2523,
    "Ġthread": 2524,
    "oon": 2525,
    "Ġapologize": 2526,
    "Ġvictory": 2527,
    "Ġwoken": 2528,
    "Ġupset": 2529,
    "Ġhouses": 2530,
    "Ġminds": 2531,
    "asers": 2532,
    "Ġbackpack": 2533,
    "Ġseparating": 2534,
    "Ġworry": 2535,
    "ĠBloom": 2536,
    "Ġzero": 2537,
    "ŀ": 2538,
    "Ġmake": 2539,
    "Ġconcerned": 2540,
    "icopter": 2541,
    "Joey": 2542,
    "ities": 2543,
    "ĠLouise": 2544,
    "Ġsolution": 2545,
    "Ġlaid": 2546,
    "Ġtying": 2547,
    "Ġenc": 2548,
    "hic": 2549,
    "Ġimpressed": 2550,
    "Ġborrow": 2551,
    "Ġincre": 2552,
    "Ġsweeties": 2553,
    "Ġsilly": 2554,
    "ĠIce": 2555,
    "pr": 2556,
    "Ġguests": 2557,
    "Ġsadness": 2558,
    "Ġnicest": 2559,
    "Ġbus": 2560,
    "Ġyoga": 2561,
    "ĠRoo": 2562,
    "ĠIsn": 2563,
    "Ġpoked": 2564,
    "Later": 2565,
    "Ġtoy": 2566,
    "Ġseaweed": 2567,
    "Ġbeaver": 2568,
    "erry": 2569,
    "Ġclaps": 2570,
    "ourn": 2571,
    "Ġcras": 2572,
    "ormous": 2573,
    "Ġradishes": 2574,
    "Ġswir": 2575,
    "Ġsword": 2576,
    "ĠChr": 2577,
    "aspoon": 2578,
    "Ġignorant": 2579,
    "Ġleast": 2580,
    "Ġluckiest": 2581,
    "Ġstartled": 2582,
    "Ġrelease": 2583,
    "Ġsuitcase": 2584,
    "ĠDotty": 2585,
    "Ġnearest": 2586,
    "bbing": 2587,
    "ĠWin": 2588,
    "Ġwaff": 2589,
    "adium": 2590,
    "Ġknight": 2591,
    "lebr": 2592,
    "Ġattempts": 2593,
    "!\"": 2594,
    "Ġrich": 2595,
    "Ġsticking": 2596,
    "Ġkn": 2597,
    "Ġunpack": 2598,
    "Ġbottles": 2599,
    "Ġrep": 2600,
    "Ġgrant": 2601,
    "Ġyucky": 2602,
    "Ġnoises": 2603,
    "Ġflock": 2604,
    "ĠLia": 2605,
    "Ġamazed": 2606,
    "Ġwhich": 2607,
    "Ġbuckles": 2608,
    "Ġtoolbox": 2609,
    "alth": 2610,
    "Always": 2611,
    "Ġdanger": 2612,
    "Ġfather": 2613,
    "Ġexch": 2614,
    "Ġinsect": 2615,
    "They": 2616,
    "Ġstar": 2617,
    "Ġlecture": 2618,
    "Ġimagine": 2619,
    "ories": 2620,
    "ellie": 2621,
    "Ġthrone": 2622,
    "Grandma": 2623,
    "Ġbanging": 2624,
    "Ol": 2625,
    "Ġwraps": 2626,
    "Big": 2627,
    "ĠMaddy": 2628,
    "Ġtaught": 2629,
    "amma": 2630,
    "Ġing": 2631,
    "Ġshivered": 2632,
    "Ġclick": 2633,
    "Ġspring": 2634,
    "Ġpaws": 2635,
    "Ġproperty": 2636,
    "cious": 2637,
    "gly": 2638,
    "ĠBones": 2639,
    "Ġfloors": 2640,
    "Ġrotting": 2641,
    "Ġwaved": 2642,
    "Ġra": 2643,
    "Ġvillage": 2644,
    "Ġhurting": 2645,
    "Fl": 2646,
    "ĠRuff": 2647,
    "ouched": 2648,
    "airy": 2649,
    "Ġpor": 2650,
    "á": 2651,
    "Ġbreathe": 2652,
    "Ġmagnifying": 2653,
    "Ġhig": 2654,
    "Ġthis": 2655,
    "ank": 2656,
    "N": 2657,
    "den": 2658,
    "Ġvery": 2659,
    "box": 2660,
    "Rocky": 2661,
    "Ġdisagreed": 2662,
    "Ġaccom": 2663,
    "Ġhers": 2664,
    "Ġorganizing": 2665,
    "ĠRainbow": 2666,
    "Ġprod": 2667,
    "Emma": 2668,
    "Ġtogether": 2669,
    "render": 2670,
    "Ġnests": 2671,
    "Ġext": 2672,
    "Ġsnuggled": 2673,
    "Ġchasing": 2674,
    "Ġswam": 2675,
    "Sadly": 2676,
    "ĠThank": 2677,
    "Ġadmire": 2678,
    "dest": 2679,
    "Ġmoms": 2680,
    "ait": 2681,
    "An": 2682,
    "Ġstopped": 2683,
    ">": 2684,
    "Ġsuggested": 2685,
    "Go": 2686,
    "ĠFu": 2687,
    "igers": 2688,
    "Ġpalm": 2689,
    "Ġstrang": 2690,
    "Ġsteering": 2691,
    "Ġslip": 2692,
    "Ġnapped": 2693,
    "ret": 2694,
    "Ġnurse": 2695,
    "idge": 2696,
    "Ġmotorcycle": 2697,
    "Ġpleaded": 2698,
    "fere": 2699,
    "Ġcompetitive": 2700,
    "Ġafraid": 2701,
    "Ġsquir": 2702,
    "Ġthumb": 2703,
    "Ġwork": 2704,
    "What": 2705,
    "ĠGabby": 2706,
    "Ġgym": 2707,
    "val": 2708,
    "but": 2709,
    "ĠMina": 2710,
    "ĠInside": 2711,
    "Ġwalks": 2712,
    "oe": 2713,
    "Ġignored": 2714,
    "Ġconc": 2715,
    "Ġwelcoming": 2716,
    "lease": 2717,
    "!'": 2718,
    "ently": 2719,
    "ster": 2720,
    "Ġdemanded": 2721,
    "Ġveggies": 2722,
    "ĠElly": 2723,
    "Č": 2724,
    "Ġwill": 2725,
    "Ġsong": 2726,
    "Ella": 2727,
    "Ġexit": 2728,
    "most": 2729,
    "Ġburger": 2730,
    "Ġrespons": 2731,
    "Ġhurts": 2732,
    "ree": 2733,
    "Ġhum": 2734,
    "Ġmater": 2735,
    "Ġcaught": 2736,
    "Ġsimp": 2737,
    "Ġun": 2738,
    "Well": 2739,
    "ĠBouncy": 2740,
    "Ġodd": 2741,
    "ĠDay": 2742,
    "He": 2743,
    "Ġsticker": 2744,
    "Ġallowing": 2745,
    "ĠBug": 2746,
    "ĠRos": 2747,
    "ĠTip": 2748,
    "ĠGreeny": 2749,
    "ĠBiggy": 2750,
    "joyed": 2751,
    "Ġmer": 2752,
    "urkey": 2753,
    "Ġstared": 2754,
    "Ġdropped": 2755,
    "Okay": 2756,
    "Ġashtray": 2757,
    "Ġimagined": 2758,
    "Ġshowed": 2759,
    "Ġtoothbrush": 2760,
    "Ġstacking": 2761,
    "olin": 2762,
    "Ġdestroying": 2763,
    "To": 2764,
    "Ġbang": 2765,
    "ĠBy": 2766,
    "Ġcarries": 2767,
    "Ġpatients": 2768,
    "Ġfavorite": 2769,
    "Ġurge": 2770,
    "Ġhimself": 2771,
    "Ġexperiences": 2772,
    "ĠCircle": 2773,
    "Ġdaisy": 2774,
    "Ġdangerous": 2775,
    "Ġcherries": 2776,
    "Ġonto": 2777,
    "Ġpl": 2778,
    "Ġregret": 2779,
    "Ġraccoon": 2780,
    "ashed": 2781,
    "Fifi": 2782,
    "ized": 2783,
    "Ġrecorded": 2784,
    "Ġtow": 2785,
    "Ġfurry": 2786,
    "Ġcustomers": 2787,
    "Ġwins": 2788,
    "Ġstruck": 2789,
    "Ġliquid": 2790,
    "Ġinvit": 2791,
    "ached": 2792,
    "ĠBibi": 2793,
    "oof": 2794,
    "Ġsugar": 2795,
    "Ġstupid": 2796,
    "Ġdedic": 2797,
    "ĠLenny": 2798,
    "Ġstealing": 2799,
    "Ġfocus": 2800,
    "rr": 2801,
    "ĠSilver": 2802,
    "Susan": 2803,
    "Ġtrotted": 2804,
    "Ġnorm": 2805,
    "Found": 2806,
    "Ġrebu": 2807,
    "ĠTim": 2808,
    "ĠTara": 2809,
    "Ġsights": 2810,
    "Ġtouching": 2811,
    "ĠGus": 2812,
    "Ġabove": 2813,
    "Ġpets": 2814,
    "Ġelse": 2815,
    "Ġdrivers": 2816,
    "ĠHoppy": 2817,
    "Me": 2818,
    "Ġdoves": 2819,
    "cut": 2820,
    "Ġparts": 2821,
    "Ġfestival": 2822,
    "Ġyours": 2823,
    "Ġpant": 2824,
    "Ġinstrument": 2825,
    "indr": 2826,
    "Ġhook": 2827,
    "ĠSteve": 2828,
    "Ġperformed": 2829,
    "ub": 2830,
    "Ġmoney": 2831,
    "ĠThings": 2832,
    "Ġmyster": 2833,
    "ĠLuckily": 2834,
    "Ġvisited": 2835,
    "Ġpinching": 2836,
    "ula": 2837,
    "ven": 2838,
    "Ġaim": 2839,
    "Linda": 2840,
    "Ġtummies": 2841,
    "cer": 2842,
    "Ġspoil": 2843,
    "Ġflutter": 2844,
    "Ġbedroom": 2845,
    "Near": 2846,
    "Ġmes": 2847,
    "pen": 2848,
    "Ġunlocking": 2849,
    "Hurry": 2850,
    "Ġbookshelf": 2851,
    "Ġteeth": 2852,
    "Ġbowls": 2853,
    "Ġexplore": 2854,
    "izzy": 2855,
    "Ġyelling": 2856,
    "Bunny": 2857,
    "During": 2858,
    "Nina": 2859,
    "age": 2860,
    "¯": 2861,
    "Ġgained": 2862,
    "Ġinches": 2863,
    "Ġrainbow": 2864,
    "Ġaud": 2865,
    "Ġlar": 2866,
    "Ġkay": 2867,
    "eterinarian": 2868,
    "Ġpuppets": 2869,
    "Ġmicroscope": 2870,
    "Ġshaking": 2871,
    "Ġfears": 2872,
    "oun": 2873,
    "Ġasking": 2874,
    "Ġdiscovery": 2875,
    "ô": 2876,
    "Ġlifting": 2877,
    "Ġbeginning": 2878,
    "Ġteach": 2879,
    "na": 2880,
    "Ķ": 2881,
    "ding": 2882,
    "David": 2883,
    "Ex": 2884,
    "ĠLove": 2885,
    "orry": 2886,
    "Ġbattery": 2887,
    "Ġsink": 2888,
    "Ġtires": 2889,
    ".": 2890,
    "Ġswaying": 2891,
    "ir": 2892,
    "Ġgasps": 2893,
    "Deal": 2894,
    "Ġremove": 2895,
    "Ġglimmering": 2896,
    "ĠFishy": 2897,
    "Ġsplas": 2898,
    "Ġyummy": 2899,
    "Ġforgiveness": 2900,
    "ĠOlive": 2901,
    "Ġforgive": 2902,
    "ĠDolly": 2903,
    "Ġplaces": 2904,
    "Ġquarreled": 2905,
    "Ġcoal": 2906,
    "Ġsuch": 2907,
    "Ġbec": 2908,
    "Ġemerged": 2909,
    "Ġasks": 2910,
    "Ġsmile": 2911,
    "Ġground": 2912,
    "Sara": 2913,
    "uffin": 2914,
    "andas": 2915,
    "Ġslipped": 2916,
    "Ġfade": 2917,
    "Ġcontainer": 2918,
    "Remy": 2919,
    "ĠRia": 2920,
    "Ġquiet": 2921,
    "Ġdistance": 2922,
    "Ġsurroundings": 2923,
    "Ġvendor": 2924,
    "Ġsport": 2925,
    "Ġpeel": 2926,
    "ĠTwo": 2927,
    "asha": 2928,
    "Ġimproved": 2929,
    "4": 2930,
    "Ġsweet": 2931,
    "Ġrainy": 2932,
    "ull": 2933,
    "Ġspeaks": 2934,
    "ingly": 2935,
    "erm": 2936,
    "Ġrubbed": 2937,
    "Ġdesigned": 2938,
    "ĠQuack": 2939,
    "Ġquack": 2940,
    "Ġtoss": 2941,
    "Ġstri": 2942,
    "Ġbouncy": 2943,
    "Ġfr": 2944,
    "Ġtray": 2945,
    "<": 2946,
    "2": 2947,
    "ashing": 2948,
    "Ġtaken": 2949,
    "Ġjourney": 2950,
    "Ġpecked": 2951,
    "ĠRicky": 2952,
    "yond": 2953,
    "Ġcheers": 2954,
    "ĠRufus": 2955,
    "8": 2956,
    "Ġgrasshopper": 2957,
    "Ġmum": 2958,
    "Ġkeys": 2959,
    "Ġdrank": 2960,
    "Ġgray": 2961,
    "Ġcheered": 2962,
    "Ġzoomed": 2963,
    "Ġnotice": 2964,
    "outh": 2965,
    "Ġside": 2966,
    "Ġripped": 2967,
    "ĠH": 2968,
    "Ġmoves": 2969,
    "Ġcostumes": 2970,
    "rrr": 2971,
    "Ġmeasured": 2972,
    "vice": 2973,
    "Ġliked": 2974,
    "Ġsleeps": 2975,
    "Ġwobble": 2976,
    "Ġpaper": 2977,
    "Ġmiller": 2978,
    "Ġwaste": 2979,
    "Ġdragons": 2980,
    "Ġdecorations": 2981,
    "ĠFroggy": 2982,
    "Ġfeathers": 2983,
    "Ġreverse": 2984,
    "Ġhouse": 2985,
    "erp": 2986,
    "seek": 2987,
    "Ġobjects": 2988,
    "Ġrobber": 2989,
    "Ġrin": 2990,
    "artin": 2991,
    "?\",": 2992,
    "Ġstain": 2993,
    "iversity": 2994,
    "Ġwinners": 2995,
    "case": 2996,
    "Ġmild": 2997,
    "Ġway": 2998,
    "ĠTruck": 2999,
    "Ġchubby": 3000,
    "Ġearn": 3001,
    "Ġbeak": 3002,
    "Ġbooks": 3003,
    "Ġdan": 3004,
    "Ġvideos": 3005,
    "Ġwiped": 3006,
    "ĠDanny": 3007,
    "Ġcoral": 3008,
    "ried": 3009,
    "ĠĊĠ": 3010,
    "ĠMabel": 3011,
    "ĠSugar": 3012,
    "vant": 3013,
    "Ġsunrise": 3014,
    "Ĥ": 3015,
    "Ġthough": 3016,
    "f": 3017,
    "Ġorgan": 3018,
    "lor": 3019,
    "Ġprank": 3020,
    "and": 3021,
    "Ġcopied": 3022,
    "Ġdeal": 3023,
    "ctor": 3024,
    "ĠMicroscope": 3025,
    "Ġarrows": 3026,
    "ĠLi": 3027,
    "Ġlarger": 3028,
    "irsty": 3029,
    "Ġstings": 3030,
    "Ġheat": 3031,
    "Ġjoke": 3032,
    "Ġclimbed": 3033,
    "Ġbeard": 3034,
    "Ġtax": 3035,
    "hero": 3036,
    "Ġquizzes": 3037,
    "Ġpedals": 3038,
    "ry": 3039,
    "Ġdisob": 3040,
    "gest": 3041,
    "Ġcatch": 3042,
    "Ġgrumpy": 3043,
    "Ġnose": 3044,
    "jo": 3045,
    "ĠLizzy": 3046,
    "Ġteac": 3047,
    "Ġplates": 3048,
    "Ġdial": 3049,
    "Ġbatter": 3050,
    "Ġscream": 3051,
    "Ġfalls": 3052,
    "ths": 3053,
    "oor": 3054,
    "Ġseeking": 3055,
    "Ġgiraffes": 3056,
    "Ġsiblings": 3057,
    "Ġdis": 3058,
    "Ġbr": 3059,
    "ĠBessie": 3060,
    "iew": 3061,
    "known": 3062,
    "Ġmatched": 3063,
    "Ġtomorrow": 3064,
    "ri": 3065,
    "ĠNothing": 3066,
    "Ġbelts": 3067,
    "Ġwaffles": 3068,
    "Ġconsequ": 3069,
    "Ġproject": 3070,
    "mbers": 3071,
    "arrass": 3072,
    "Ġweapon": 3073,
    "Ġshinier": 3074,
    "pping": 3075,
    "ĠRob": 3076,
    "ĠPaws": 3077,
    "Ġraking": 3078,
    "Ġherself": 3079,
    "Ġsuperhero": 3080,
    "est": 3081,
    "Ġcomet": 3082,
    "Ġspeed": 3083,
    "Ġspreading": 3084,
    "Ġwow": 3085,
    "Rex": 3086,
    "Ġold": 3087,
    "Ġheel": 3088,
    "ĠHippy": 3089,
    "Ġblocks": 3090,
    "Ġpotato": 3091,
    "Ġaboard": 3092,
    "Ġstove": 3093,
    "Ġsurfboard": 3094,
    "Re": 3095,
    "Ġbunnies": 3096,
    "Ġseem": 3097,
    "Ġspr": 3098,
    "Ġsunflower": 3099,
    "[": 3100,
    "Ġdisplay": 3101,
    "Bird": 3102,
    "Ġalmost": 3103,
    "ĠEveryday": 3104,
    "Ġtongues": 3105,
    "Ġsongs": 3106,
    "Ġlightning": 3107,
    "Ġtwisting": 3108,
    "Ġrid": 3109,
    "ĠMimi": 3110,
    "el": 3111,
    "Ġexamp": 3112,
    "Ġsc": 3113,
    "Ġbrains": 3114,
    "Ġattem": 3115,
    "Ġju": 3116,
    "ife": 3117,
    "Ġfro": 3118,
    "uest": 3119,
    "Ġgoats": 3120,
    "X": 3121,
    "nic": 3122,
    "î": 3123,
    "ĠClimb": 3124,
    "ĠAlf": 3125,
    "Ġnuzz": 3126,
    "Ġvis": 3127,
    "Ġvanish": 3128,
    "Ġserved": 3129,
    "Ġlaying": 3130,
    "Abracadabra": 3131,
    "Ġladder": 3132,
    "vel": 3133,
    "Ġslipping": 3134,
    "Ġplan": 3135,
    "Ġlaw": 3136,
    "Ġstacked": 3137,
    "ft": 3138,
    "Ġreads": 3139,
    "ris": 3140,
    "Ġrescuing": 3141,
    "Ġgrassho": 3142,
    "!âĢĻ": 3143,
    "Catch": 3144,
    "ways": 3145,
    "Ġcustomer": 3146,
    "ient": 3147,
    "Ġtremble": 3148,
    "asure": 3149,
    "Ġdrawings": 3150,
    "Ġsweaty": 3151,
    "Ġflowers": 3152,
    "Ġmill": 3153,
    "Ġmay": 3154,
    "Ball": 3155,
    "Ġfoggy": 3156,
    "Ġsun": 3157,
    "Ġspilling": 3158,
    "Ġgraceful": 3159,
    "Ġclo": 3160,
    "Ġri": 3161,
    "ĠMoo": 3162,
    "Ġfrost": 3163,
    "Ġwhisp": 3164,
    "Ġeveryone": 3165,
    "Ġspray": 3166,
    "ĠSorry": 3167,
    "umpet": 3168,
    "Ġincredible": 3169,
    "anger": 3170,
    "Ġladyb": 3171,
    "ĠBeaky": 3172,
    "mates": 3173,
    "ĠLife": 3174,
    "ts": 3175,
    "Ġlent": 3176,
    "Ġprog": 3177,
    "Ġcarp": 3178,
    "ine": 3179,
    "Ġpige": 3180,
    "Ġhipp": 3181,
    "Ġfoods": 3182,
    "Ġrockets": 3183,
    "oll": 3184,
    "ĠTweetie": 3185,
    "Ġteaspoon": 3186,
    "ĠTammy": 3187,
    "Ġvacation": 3188,
    "Ġstat": 3189,
    "Bug": 3190,
    "flowers": 3191,
    "Ġeating": 3192,
    "right": 3193,
    "irrel": 3194,
    "ĠBoth": 3195,
    "gr": 3196,
    "«": 3197,
    "Together": 3198,
    "ject": 3199,
    "Ġaisle": 3200,
    "chan": 3201,
    "Ġtextures": 3202,
    "Ġwooden": 3203,
    "Ġpopular": 3204,
    "Ġnew": 3205,
    "Ġtoo": 3206,
    "Ġant": 3207,
    "isty": 3208,
    "Ġbo": 3209,
    "Ġhissing": 3210,
    "Ġapproach": 3211,
    "Ġsweetly": 3212,
    "Ġstage": 3213,
    "uzz": 3214,
    "Steve": 3215,
    "under": 3216,
    "Ġloop": 3217,
    "Ġplanets": 3218,
    "Ġimp": 3219,
    "Ĵ": 3220,
    "Ġfarmer": 3221,
    "Ġofficer": 3222,
    "ĠFly": 3223,
    "Ġsearch": 3224,
    "Ġdisag": 3225,
    "Ġclearing": 3226,
    "Ġtemper": 3227,
    "Ġstacks": 3228,
    "Ġimagination": 3229,
    "Ġgrandparent": 3230,
    "ĠSmoke": 3231,
    "Ġpretended": 3232,
    "ĠLightning": 3233,
    "Ġsled": 3234,
    "Ġslice": 3235,
    "ĠRay": 3236,
    "Ġkeeps": 3237,
    "Snow": 3238,
    "Ġuniverse": 3239,
    "Ġruns": 3240,
    "Ġwood": 3241,
    "Ġbanged": 3242,
    "ier": 3243,
    "Ġmugs": 3244,
    "uctantly": 3245,
    "Ġfluffy": 3246,
    "Ġfaces": 3247,
    "Ġflea": 3248,
    "|": 3249,
    "Ġgirls": 3250,
    "Ġcap": 3251,
    "Ġweekend": 3252,
    "ĠAll": 3253,
    "Ġworld": 3254,
    "Ġke": 3255,
    "Ġroses": 3256,
    "Ġshining": 3257,
    "Ġcooking": 3258,
    "ë": 3259,
    "Ġvroom": 3260,
    "Mommy": 3261,
    "Ġface": 3262,
    "ĠTooth": 3263,
    "Ġspice": 3264,
    "Ġbecoming": 3265,
    "ĠOl": 3266,
    "Ġmustache": 3267,
    "Ġcomp": 3268,
    "Ġsty": 3269,
    "Never": 3270,
    "ĠMae": 3271,
    "Ġuseful": 3272,
    "Ġwonders": 3273,
    "Ġtricky": 3274,
    "Ġcrawling": 3275,
    "}": 3276,
    "Ġphotos": 3277,
    "Ġcontent": 3278,
    "ĠWhile": 3279,
    "Ġblin": 3280,
    "ĠDoes": 3281,
    "Ġhanded": 3282,
    "Ġtall": 3283,
    "Zoom": 3284,
    "gan": 3285,
    "Ġmedicine": 3286,
    "Ġfolds": 3287,
    "ilt": 3288,
    "n": 3289,
    "Ġplease": 3290,
    "Ġrisks": 3291,
    "oline": 3292,
    "cept": 3293,
    "Ġsecond": 3294,
    "ĠCan": 3295,
    "Ġenviron": 3296,
    "Ġsplashed": 3297,
    "¦": 3298,
    "Ġcelebrating": 3299,
    "ip": 3300,
    "Ġwheels": 3301,
    "ĠWisdom": 3302,
    "Ġdrag": 3303,
    "Ġyard": 3304,
    "Mar": 3305,
    "no": 3306,
    "ually": 3307,
    "Jake": 3308,
    "Ġmarbles": 3309,
    "Ġmiserable": 3310,
    "'d": 3311,
    "Ġflame": 3312,
    "ĠUnder": 3313,
    "an": 3314,
    "ĠRuby": 3315,
    "Ġignore": 3316,
    "int": 3317,
    "Ġfixer": 3318,
    "Ġnotebook": 3319,
    "lets": 3320,
    "Ġdrawn": 3321,
    "xygen": 3322,
    "Ġreappeared": 3323,
    "ĠRosa": 3324,
    "Ġdig": 3325,
    "Ġlong": 3326,
    "Ġkitchen": 3327,
    "Ġmagaz": 3328,
    "ĠJamie": 3329,
    "Ġsituation": 3330,
    "Ġbeam": 3331,
    "Ġbeach": 3332,
    "emon": 3333,
    "Ġhelmets": 3334,
    "Ġamaz": 3335,
    "Ġthrows": 3336,
    "Ġinstr": 3337,
    "Ġsan": 3338,
    "Ġgest": 3339,
    "ĠZog": 3340,
    "ĠJason": 3341,
    "ĠSmith": 3342,
    "ĠMaddie": 3343,
    "ĠNick": 3344,
    "order": 3345,
    "Ġturtles": 3346,
    "Ġgarden": 3347,
    "Ġtook": 3348,
    "Ġrain": 3349,
    "Ġcarried": 3350,
    "Ġsparkly": 3351,
    "Ġfishing": 3352,
    "Ġsneaky": 3353,
    "Ġdull": 3354,
    "Ġplaydate": 3355,
    "ĠWho": 3356,
    "Ġwre": 3357,
    "Ġpic": 3358,
    "Ġwolf": 3359,
    "alph": 3360,
    "Ġjudge": 3361,
    "Ġtrucks": 3362,
    "Ġwatered": 3363,
    "Ġhappening": 3364,
    "Ġsug": 3365,
    "Ġfork": 3366,
    "aa": 3367,
    "bee": 3368,
    "getable": 3369,
    "Ġmirr": 3370,
    "Ġpatch": 3371,
    "ĠHelp": 3372,
    "Ġsurf": 3373,
    "Ġapart": 3374,
    "iz": 3375,
    "ĠDaisy": 3376,
    "ĠAsh": 3377,
    "Ġhon": 3378,
    "Ġsteal": 3379,
    "Ġeast": 3380,
    "ctory": 3381,
    "Ġmosquitoes": 3382,
    "rel": 3383,
    "Ġindepend": 3384,
    "Ġpour": 3385,
    "Ġfrustration": 3386,
    "ident": 3387,
    "Ġsweep": 3388,
    "ord": 3389,
    "Ġalert": 3390,
    "Ġmaze": 3391,
    "ĠBro": 3392,
    "Ġseparate": 3393,
    "fortunately": 3394,
    "Ġuses": 3395,
    "Ġnapkins": 3396,
    "Ġstretched": 3397,
    "Ġwash": 3398,
    "Ġgrandparents": 3399,
    "Why": 3400,
    "Ġtied": 3401,
    "Ġhides": 3402,
    "ĠStella": 3403,
    "Ġmagical": 3404,
    "Ġchain": 3405,
    "sequ": 3406,
    "Ġinjured": 3407,
    "Gina": 3408,
    "ĠSadie": 3409,
    "Ġworries": 3410,
    "F": 3411,
    "ibbles": 3412,
    "ust": 3413,
    "Ġbought": 3414,
    "Ġshared": 3415,
    "all": 3416,
    "Elly": 3417,
    "enny": 3418,
    "Ġplants": 3419,
    "Ġlicense": 3420,
    "Ġnewfound": 3421,
    "Ġtroubled": 3422,
    "Ġcans": 3423,
    "Ġl": 3424,
    "Ġbabies": 3425,
    "ĠMarie": 3426,
    "ured": 3427,
    "ĠBaa": 3428,
    "Ġinvited": 3429,
    "Ġchew": 3430,
    "Ġscoop": 3431,
    "Ġtremb": 3432,
    "ent": 3433,
    "andra": 3434,
    "anish": 3435,
    "Ġarr": 3436,
    "ath": 3437,
    "Ġfu": 3438,
    "Ġdollars": 3439,
    "ĠDino": 3440,
    "ĠElsa": 3441,
    "Ġje": 3442,
    "ises": 3443,
    "Ġlines": 3444,
    "ear": 3445,
    "Ġrob": 3446,
    "Ġproblem": 3447,
    "Ġstories": 3448,
    "Ġoven": 3449,
    "Ġnumber": 3450,
    "Ġblooming": 3451,
    "ĠPer": 3452,
    "ĳ": 3453,
    "Ġuns": 3454,
    "Ġchose": 3455,
    "The": 3456,
    "Ġlowered": 3457,
    "ĠSadly": 3458,
    "nger": 3459,
    "urry": 3460,
    "Get": 3461,
    "Ġrare": 3462,
    "heart": 3463,
    "Ġsailboat": 3464,
    "Ġblock": 3465,
    "ur": 3466,
    "Ġcandies": 3467,
    "Ġsurfed": 3468,
    "Ġcubs": 3469,
    "Ġperm": 3470,
    "Ġgrace": 3471,
    "Ġchocolate": 3472,
    "Ġpres": 3473,
    "Ann": 3474,
    "Ġbicycles": 3475,
    "ifer": 3476,
    "onnie": 3477,
    "Ġw": 3478,
    "Ġmoral": 3479,
    "Ġexperience": 3480,
    "im": 3481,
    "Ġlime": 3482,
    "Ġstruggle": 3483,
    "Ġzigzag": 3484,
    "ľ": 3485,
    "ents": 3486,
    "ope": 3487,
    "ĠWould": 3488,
    "Chloe": 3489,
    "Ġsp": 3490,
    "Ġprop": 3491,
    "nies": 3492,
    "obile": 3493,
    "Ġhesit": 3494,
    "elope": 3495,
    "ments": 3496,
    "Ġrather": 3497,
    "ĠHar": 3498,
    "ĠBirdie": 3499,
    "Jessica": 3500,
    "Some": 3501,
    "Ġoil": 3502,
    "ĠUniversity": 3503,
    "ume": 3504,
    "ca": 3505,
    "ĠEvery": 3506,
    "Ġnibb": 3507,
    "Don": 3508,
    "Ġfamilies": 3509,
    "Ġfis": 3510,
    "shadow": 3511,
    "Ġnecklace": 3512,
    "Ġbroke": 3513,
    "Ġdisgusting": 3514,
    "Ġdays": 3515,
    "Ġastronauts": 3516,
    "Ġalive": 3517,
    "ĠJohnny": 3518,
    "ĠRosie": 3519,
    "Ġsurface": 3520,
    "Ġpilot": 3521,
    "Are": 3522,
    "ugar": 3523,
    "Ġflavors": 3524,
    "Ġwaters": 3525,
    "ĠDot": 3526,
    "our": 3527,
    "ĠPip": 3528,
    "Ġdisappointment": 3529,
    "rum": 3530,
    "Ġsil": 3531,
    "Ġloading": 3532,
    "ĠPhil": 3533,
    "Ġfinishes": 3534,
    "ĠAn": 3535,
    "Ġhaven": 3536,
    "Ġpatience": 3537,
    "Ġneed": 3538,
    "Ġitem": 3539,
    "Ġhoped": 3540,
    "Yum": 3541,
    "se": 3542,
    "Ġpressing": 3543,
    "Ġdecided": 3544,
    "Ġanxious": 3545,
    "Ġcl": 3546,
    "ongratul": 3547,
    "Ġsco": 3548,
    "Ġstranger": 3549,
    "Ġdinner": 3550,
    "Ġriver": 3551,
    "ĠBubbles": 3552,
    "imes": 3553,
    "Ġshirts": 3554,
    "Ġlace": 3555,
    "Ġmom": 3556,
    "Ġaliens": 3557,
    "Ġpocket": 3558,
    "Ġexplo": 3559,
    "Ġbug": 3560,
    "Ġprepared": 3561,
    "rons": 3562,
    "Ġonly": 3563,
    "Tim": 3564,
    "ĠSundays": 3565,
    "Ġletter": 3566,
    "Ġfash": 3567,
    "Ġbut": 3568,
    "Ġdinosaur": 3569,
    "Ġtightly": 3570,
    "Ġticket": 3571,
    "Ġreveal": 3572,
    "Ġwinked": 3573,
    "ĠPenny": 3574,
    "ita": 3575,
    "ĠNora": 3576,
    "It": 3577,
    "!âĢĿ": 3578,
    "Ġsqueaked": 3579,
    "Ġcloset": 3580,
    "Ġtongue": 3581,
    "Ġbothered": 3582,
    "ĠBoo": 3583,
    "Ġneighbours": 3584,
    "itude": 3585,
    "Ġuniforms": 3586,
    "Ġresist": 3587,
    "Ġdigging": 3588,
    "Ġargu": 3589,
    "fort": 3590,
    "Ġswung": 3591,
    "Ġanswers": 3592,
    "Ġignor": 3593,
    "Ġdreamt": 3594,
    "Ġcaterpillars": 3595,
    "Ġfooled": 3596,
    "Ġspits": 3597,
    "pril": 3598,
    "Ġcook": 3599,
    "Ġof": 3600,
    "ĠFairy": 3601,
    "Ġtune": 3602,
    "Ġhelp": 3603,
    "Ġshallow": 3604,
    "Ħ": 3605,
    "imon": 3606,
    "Ġintrigued": 3607,
    "Ġfore": 3608,
    "years": 3609,
    "Ġropes": 3610,
    "Ġpromise": 3611,
    "đ": 3612,
    "Ġcash": 3613,
    "Ġb": 3614,
    "Ġstopping": 3615,
    "Ġswapped": 3616,
    "Ġchecks": 3617,
    "please": 3618,
    "Ġha": 3619,
    "arrow": 3620,
    "Ġhid": 3621,
    "Ġgiggled": 3622,
    "Thank": 3623,
    "Ġrefuse": 3624,
    "hest": 3625,
    "Ġtwinkling": 3626,
    "ß": 3627,
    "qu": 3628,
    "Ġwiggle": 3629,
    "Ġcompletely": 3630,
    "Ġlip": 3631,
    "Ġn": 3632,
    "achel": 3633,
    "We": 3634,
    "Ġcastles": 3635,
    "Ġsmartest": 3636,
    "Luna": 3637,
    "Ġsalad": 3638,
    "ison": 3639,
    "Ġgroom": 3640,
    "Ġlarge": 3641,
    "Ġladybug": 3642,
    "Ġchild": 3643,
    "Ġsuff": 3644,
    "Ouch": 3645,
    "ĠPet": 3646,
    "ĠWe": 3647,
    "ĠSk": 3648,
    "Ġgrandchild": 3649,
    "Ġtested": 3650,
    "Ġreward": 3651,
    "Ġsniff": 3652,
    "arning": 3653,
    "Ġgently": 3654,
    "Ġyears": 3655,
    "Ġsquirrels": 3656,
    "un": 3657,
    "Ġcirc": 3658,
    "Ġcrossing": 3659,
    "Ġintelligent": 3660,
    "k": 3661,
    "Ġgrape": 3662,
    "ĠThere": 3663,
    "Ġanticipation": 3664,
    "eah": 3665,
    "Ġflow": 3666,
    "Ġlemons": 3667,
    "ĠZara": 3668,
    "Ġcompassionate": 3669,
    "ĠSofty": 3670,
    "Ġbeetles": 3671,
    "Ġwhole": 3672,
    "Ġlying": 3673,
    "Liz": 3674,
    "Ġthey": 3675,
    "Ġtears": 3676,
    "Ġmush": 3677,
    "Ġwhenever": 3678,
    "hings": 3679,
    "lter": 3680,
    "Ġtravel": 3681,
    "Ġfilms": 3682,
    "Ġpill": 3683,
    "Ġgotten": 3684,
    "ingo": 3685,
    "ĠReliable": 3686,
    "Finally": 3687,
    "Ġwin": 3688,
    "iced": 3689,
    "Ġboards": 3690,
    "Ġgiggling": 3691,
    "Ġdelayed": 3692,
    "Ġforehead": 3693,
    "Ġinspired": 3694,
    "ild": 3695,
    "ĠJo": 3696,
    "atient": 3697,
    "Ġthorns": 3698,
    "uit": 3699,
    "apped": 3700,
    "ĠEddie": 3701,
    "Ġscene": 3702,
    "ucet": 3703,
    "Ġsaw": 3704,
    "Ġblank": 3705,
    "ain": 3706,
    "llas": 3707,
    "Ġpec": 3708,
    "Ġarrest": 3709,
    "ĠK": 3710,
    "isible": 3711,
    "azor": 3712,
    "Ġinclu": 3713,
    "į": 3714,
    "Ġpaid": 3715,
    "umes": 3716,
    "Ġfamiliar": 3717,
    "hole": 3718,
    "ĠPat": 3719,
    "ĠHappy": 3720,
    "ĠTh": 3721,
    "Ġrefres": 3722,
    "ĠTw": 3723,
    "araway": 3724,
    "Ġli": 3725,
    "ĠO": 3726,
    "dd": 3727,
    "en": 3728,
    "Ġprevented": 3729,
    "Sammy": 3730,
    "Harry": 3731,
    "Ġdelighted": 3732,
    "Ġfields": 3733,
    "ĠTrucky": 3734,
    "Ġlaughed": 3735,
    "Ġtrip": 3736,
    "is": 3737,
    "ĠSusan": 3738,
    "Frog": 3739,
    "ome": 3740,
    "arden": 3741,
    "Ġbadge": 3742,
    "Ġpoint": 3743,
    "Ġoak": 3744,
    "Ġoutfit": 3745,
    "Ġgesture": 3746,
    "Ġwagon": 3747,
    "Ġtri": 3748,
    "acing": 3749,
    "ĠOf": 3750,
    "expected": 3751,
    ",\"": 3752,
    "ĠSky": 3753,
    "Ġzoo": 3754,
    "Ġsupplied": 3755,
    "Ġbusy": 3756,
    "cident": 3757,
    "ilet": 3758,
    "Ġcleaned": 3759,
    "yes": 3760,
    "Ġap": 3761,
    "mother": 3762,
    "Ġbeet": 3763,
    "Zara": 3764,
    "Ġneighb": 3765,
    "ĠRing": 3766,
    "Ġreassured": 3767,
    "o": 3768,
    "Ġgun": 3769,
    "Ġpoints": 3770,
    "Ġwrist": 3771,
    "Sure": 3772,
    "Ġringing": 3773,
    "Ñ": 3774,
    "oggy": 3775,
    "Ġsip": 3776,
    "Ġaff": 3777,
    "Ġwildflowers": 3778,
    "ĠAb": 3779,
    "apping": 3780,
    "urple": 3781,
    "urt": 3782,
    "ĠUncle": 3783,
    "ange": 3784,
    "Ġguitar": 3785,
    "Ġputs": 3786,
    "Ġruin": 3787,
    "Ġcomfort": 3788,
    "icorn": 3789,
    "Ġbrightest": 3790,
    "Ġdepend": 3791,
    "Ô": 3792,
    "bell": 3793,
    "Ġcubes": 3794,
    "Ġdisg": 3795,
    "Ġro": 3796,
    "ishes": 3797,
    "Ġscattered": 3798,
    "Ġhands": 3799,
    "Ġencouraged": 3800,
    "Ġknees": 3801,
    "Mikey": 3802,
    "Ġfirefight": 3803,
    "Ġtelevision": 3804,
    "Ġcannot": 3805,
    "arky": 3806,
    "ounced": 3807,
    "Ġwrench": 3808,
    "Ġproudly": 3809,
    "Ġpeaches": 3810,
    "Ġbaa": 3811,
    "Ġj": 3812,
    "Ġpencil": 3813,
    "coa": 3814,
    "Ġcashier": 3815,
    "Ġblocking": 3816,
    "pped": 3817,
    "irt": 3818,
    "Time": 3819,
    "Ġworking": 3820,
    "Ġclicked": 3821,
    "Ġhappen": 3822,
    "Ġstubb": 3823,
    "Ġnames": 3824,
    "ĠFlicker": 3825,
    "ifi": 3826,
    "ane": 3827,
    "ĠRolly": 3828,
    "stead": 3829,
    "worm": 3830,
    "Ġskipped": 3831,
    "Ġtunnel": 3832,
    "Ġfallen": 3833,
    "ĠTriangle": 3834,
    "umb": 3835,
    "ĠHelen": 3836,
    "Ġbeaut": 3837,
    "Ġpian": 3838,
    "Ġpeacefully": 3839,
    "Ġlisten": 3840,
    "Ġvide": 3841,
    "erk": 3842,
    "pit": 3843,
    "Ġlaundry": 3844,
    "Ġtoast": 3845,
    "Ġfires": 3846,
    "Ġraced": 3847,
    "Ġmodel": 3848,
    "Ġeng": 3849,
    "ĠShare": 3850,
    "Ġval": 3851,
    "Ġscar": 3852,
    "Ġpattern": 3853,
    "Andy": 3854,
    "Ġmountains": 3855,
    "the": 3856,
    "Ġuntangle": 3857,
    "os": 3858,
    "Ġpro": 3859,
    "ĠRe": 3860,
    "Ġevery": 3861,
    "Ġnetwork": 3862,
    "aid": 3863,
    "cles": 3864,
    "ĠDaddy": 3865,
    "Ġwishes": 3866,
    "Ġamount": 3867,
    "Ġreached": 3868,
    "Ġcounted": 3869,
    "Choo": 3870,
    "Ġbeaks": 3871,
    "ets": 3872,
    "Ġspots": 3873,
    "ĠOw": 3874,
    "Ġwhisper": 3875,
    "Ġrele": 3876,
    "Ġste": 3877,
    "Ġpizz": 3878,
    "ening": 3879,
    "Ġembarrass": 3880,
    "Ġiron": 3881,
    "Ġtraveled": 3882,
    "Ġsweetest": 3883,
    "Ġskirt": 3884,
    "ĠFrom": 3885,
    "Ġunp": 3886,
    "llie": 3887,
    "ward": 3888,
    "Ġslam": 3889,
    "ā": 3890,
    "ĠJessie": 3891,
    "Ġresp": 3892,
    "Ġhelping": 3893,
    "Ġuniver": 3894,
    "v": 3895,
    "Ġand": 3896,
    "Ġvanished": 3897,
    "Ġhis": 3898,
    "Ġcuddle": 3899,
    "Ġreapp": 3900,
    "Ġcutting": 3901,
    "Ġthings": 3902,
    "Ġresults": 3903,
    "ummer": 3904,
    "ĠLooking": 3905,
    "ĠCat": 3906,
    "Ġfun": 3907,
    "Ġpicks": 3908,
    "Ġgenie": 3909,
    "Ġhug": 3910,
    "Ġtilted": 3911,
    "Ġmaster": 3912,
    "ĠCoco": 3913,
    "Ġmesmerized": 3914,
    "Ġsupported": 3915,
    "Can": 3916,
    "Ġcheap": 3917,
    "Ġraked": 3918,
    "Ġknee": 3919,
    "Ġsail": 3920,
    "Ġholiday": 3921,
    "w": 3922,
    "Ġtraveling": 3923,
    "Ġunable": 3924,
    ":": 3925,
    "Ġdifferences": 3926,
    "Ġcrowd": 3927,
    "Ġstickers": 3928,
    "found": 3929,
    "Ġshy": 3930,
    "Each": 3931,
    "pected": 3932,
    "ntil": 3933,
    "Ġscurrying": 3934,
    "Ġmerma": 3935,
    "Ġbears": 3936,
    "om": 3937,
    "Ġpo": 3938,
    "Ġharmless": 3939,
    "Ġline": 3940,
    "Ġgroceries": 3941,
    "Ġhoses": 3942,
    "Ġsudden": 3943,
    "Ġide": 3944,
    "Ġjazz": 3945,
    "Ġgame": 3946,
    "Ġbathe": 3947,
    "Ġdep": 3948,
    "Ġfrustrated": 3949,
    "Ġsew": 3950,
    "ĠQ": 3951,
    "Ġgoodies": 3952,
    "Ġvalu": 3953,
    "amed": 3954,
    "Ġforgiven": 3955,
    "Ġhomework": 3956,
    "Ġbehave": 3957,
    "ork": 3958,
    "ĠMila": 3959,
    "Ġtails": 3960,
    "Ġflapping": 3961,
    "web": 3962,
    "quake": 3963,
    "looking": 3964,
    "Ġinsects": 3965,
    "Ġsub": 3966,
    "Ġteapot": 3967,
    "amond": 3968,
    "Ġpri": 3969,
    "ĠMark": 3970,
    "inary": 3971,
    "H": 3972,
    "Ġnaps": 3973,
    "ĠQuickly": 3974,
    "Ġeveryday": 3975,
    "Karen": 3976,
    "Ġmommies": 3977,
    "Ġsyrup": 3978,
    "Ġlegs": 3979,
    "ĠWithout": 3980,
    "Ġtwisted": 3981,
    "Ġcudd": 3982,
    "ĠTuna": 3983,
    "ĠStan": 3984,
    "Ġrubber": 3985,
    "oy": 3986,
    "Ġcouldn": 3987,
    "Ġfoam": 3988,
    "uffy": 3989,
    "Ġvehicles": 3990,
    "y": 3991,
    "Ġcone": 3992,
    "Ġexplaining": 3993,
    "Ġspike": 3994,
    "Ġsurpr": 3995,
    "ý": 3996,
    "ĠFoxy": 3997,
    "Ą": 3998,
    "Ġwrote": 3999,
    "rophone": 4000,
    "ĠPrin": 4001,
    "Ġpa": 4002,
    "Ġextra": 4003,
    "Ġtank": 4004,
    "Ġreg": 4005,
    "Ġsorting": 4006,
    "Ġfront": 4007,
    "K": 4008,
    "ĠZiggy": 4009,
    "Ġdishwasher": 4010,
    "urb": 4011,
    "ĠHeli": 4012,
    "Ġbeehive": 4013,
    "Ġbrand": 4014,
    "eat": 4015,
    "Ġpick": 4016,
    "Ġpassing": 4017,
    "Ġdance": 4018,
    "Ġbelieve": 4019,
    "Ġbouncing": 4020,
    "aught": 4021,
    "ĠMikey": 4022,
    "ht": 4023,
    "Ġhapp": 4024,
    "Ġcher": 4025,
    "Ġmiss": 4026,
    "rig": 4027,
    "Ġpleased": 4028,
    "Ġpots": 4029,
    "Ġseats": 4030,
    "Ġtwin": 4031,
    "ĠSw": 4032,
    "ĠEric": 4033,
    "ipper": 4034,
    "Ġtunes": 4035,
    "ĠNina": 4036,
    "Ġse": 4037,
    "Ġlifted": 4038,
    "Ġprovided": 4039,
    "Ġsobbed": 4040,
    "í": 4041,
    "Ġnice": 4042,
    "Ġguards": 4043,
    "Ġtastes": 4044,
    "Ġteachers": 4045,
    "icate": 4046,
    "ĠMixie": 4047,
    "Ġbuttons": 4048,
    "Ġstole": 4049,
    "Ġlessons": 4050,
    "ĠGood": 4051,
    "Ġbathed": 4052,
    "Ġguilty": 4053,
    "Ġglass": 4054,
    "Ġprize": 4055,
    "Ġapologized": 4056,
    "Ġshrug": 4057,
    "Ġmarry": 4058,
    "Ġpuck": 4059,
    "Ġspears": 4060,
    "Ġwilling": 4061,
    "ĠRatty": 4062,
    "Ġcandy": 4063,
    "Ġtrunk": 4064,
    "Ġvines": 4065,
    "Ġnoticed": 4066,
    "Ġsilver": 4067,
    "arm": 4068,
    "lex": 4069,
    "ess": 4070,
    "quest": 4071,
    "Ġmummy": 4072,
    "Ġba": 4073,
    "azz": 4074,
    "Ġawesome": 4075,
    "Ġrel": 4076,
    "as": 4077,
    "Ġdelivering": 4078,
    "Ġnibbled": 4079,
    "Ġadm": 4080,
    "ĠRight": 4081,
    "Ġbreathing": 4082,
    "Ġthieves": 4083,
    "Ġskull": 4084,
    "Ġfive": 4085,
    "Ġcrouched": 4086,
    "Ġwra": 4087,
    "Ġexpensive": 4088,
    "Ros": 4089,
    "Ġexamine": 4090,
    "Ġcrushed": 4091,
    "Ġsteep": 4092,
    "Ġfireflies": 4093,
    "Ġbowing": 4094,
    "Ġsnowman": 4095,
    "alend": 4096,
    "screen": 4097,
    "ult": 4098,
    "Ġlighter": 4099,
    "Ġbury": 4100,
    "ĠBe": 4101,
    "Ġranger": 4102,
    "Ġcocoon": 4103,
    "vest": 4104,
    "Ġsweaters": 4105,
    "ĠTurt": 4106,
    "sey": 4107,
    "Ġelderly": 4108,
    "Ġchanged": 4109,
    "Ġrooms": 4110,
    "Ġdiscussed": 4111,
    "ĠGold": 4112,
    "Ġpeace": 4113,
    "Ġstrings": 4114,
    "Ġcrazy": 4115,
    "ĠPop": 4116,
    "Ġbu": 4117,
    "Ġstumbled": 4118,
    "erable": 4119,
    "Ġoutdoors": 4120,
    "Ġpriv": 4121,
    "Ġscurry": 4122,
    "_": 4123,
    "Ġsuperheroes": 4124,
    "Ġcelebration": 4125,
    "ĠWhat": 4126,
    "thing": 4127,
    "ames": 4128,
    "Ġlucky": 4129,
    "Ġluxury": 4130,
    "creams": 4131,
    "Ġbrushed": 4132,
    "Ġjoy": 4133,
    "Ġshake": 4134,
    "!âĢĿ.": 4135,
    "Ġcrossed": 4136,
    "Ġhiding": 4137,
    "Guess": 4138,
    "Ġper": 4139,
    "Ġtiptoed": 4140,
    "Sally": 4141,
    "Ġtugging": 4142,
    "Ġnation": 4143,
    "Ġinstead": 4144,
    "Thanks": 4145,
    "ĠAdam": 4146,
    "saw": 4147,
    "ichael": 4148,
    "aug": 4149,
    "Ġlearn": 4150,
    "ĠAbi": 4151,
    "ĠFe": 4152,
    "ĠAli": 4153,
    "els": 4154,
    "Ġoff": 4155,
    "Ġstruggling": 4156,
    "Ġactive": 4157,
    "ats": 4158,
    "ill": 4159,
    "do": 4160,
    "Ġcandles": 4161,
    "Ġweight": 4162,
    "Ġremain": 4163,
    "Ġhor": 4164,
    "&": 4165,
    "Ġpopsic": 4166,
    "Ġbeyond": 4167,
    "Ġforgot": 4168,
    "Ġsnowball": 4169,
    "alm": 4170,
    "Ġshoots": 4171,
    "Ġdrying": 4172,
    "Whenever": 4173,
    "ĠHel": 4174,
    "Ġknife": 4175,
    "Ġpen": 4176,
    "Ġ3": 4177,
    "Suddenly": 4178,
    "Ġspo": 4179,
    "ĩ": 4180,
    "Ġsaus": 4181,
    "Ġthanking": 4182,
    "aste": 4183,
    "ĠBenny": 4184,
    "Ġclay": 4185,
    "Ġeye": 4186,
    "Ġshelf": 4187,
    "bbles": 4188,
    "Ġast": 4189,
    "Ġfierce": 4190,
    "land": 4191,
    "Ġtrees": 4192,
    "Ġhidden": 4193,
    "ĠD": 4194,
    "Ġhorn": 4195,
    "ĠZoe": 4196,
    "Ġpointed": 4197,
    "Of": 4198,
    "Ġscared": 4199,
    "Ġweird": 4200,
    "ĠHave": 4201,
    "Ġpastry": 4202,
    "ĠSomeone": 4203,
    "Ġunite": 4204,
    "Anna": 4205,
    "ndma": 4206,
    "Ġterrible": 4207,
    "R": 4208,
    "Ġcom": 4209,
    "ĠF": 4210,
    "Ġpumpkin": 4211,
    "ĠNow": 4212,
    "ion": 4213,
    "Ġbubb": 4214,
    "Ġstubborn": 4215,
    "Run": 4216,
    "Ġparted": 4217,
    "Ġkeeper": 4218,
    "Ġappreciated": 4219,
    "Ĺ": 4220,
    "Ġsomet": 4221,
    "unch": 4222,
    "alloween": 4223,
    "storm": 4224,
    "stand": 4225,
    "Ġteased": 4226,
    "Outside": 4227,
    "reg": 4228,
    "Ġgaze": 4229,
    "ĠCarl": 4230,
    "ĠElla": 4231,
    "asis": 4232,
    "ĠBluey": 4233,
    "Ġpractice": 4234,
    "Ġflexible": 4235,
    "Ġpuddles": 4236,
    "yler": 4237,
    "ĠWednesday": 4238,
    "Ġease": 4239,
    "Doggy": 4240,
    "Ġbranch": 4241,
    "Lila": 4242,
    "Ġcousin": 4243,
    "Ġguesses": 4244,
    "aped": 4245,
    "Doctor": 4246,
    "Ġdistant": 4247,
    "that": 4248,
    "ĠOut": 4249,
    "Ġsurely": 4250,
    "Ġpopped": 4251,
    "Ġdogs": 4252,
    "ď": 4253,
    "Ġdads": 4254,
    "Ġeverybody": 4255,
    "Ġblamed": 4256,
    "Ġpeppers": 4257,
    "Ġanyone": 4258,
    "ining": 4259,
    "jest": 4260,
    "ĠSc": 4261,
    "Out": 4262,
    "Whose": 4263,
    "Ġmaterial": 4264,
    "Ġcoins": 4265,
    "ĠHold": 4266,
    "ĠSasha": 4267,
    "Billy": 4268,
    "Ġdestro": 4269,
    "ushing": 4270,
    "Car": 4271,
    "ffic": 4272,
    "ĠPen": 4273,
    "Ġsqueak": 4274,
    "Suzy": 4275,
    "Ġvisits": 4276,
    "Ġfrozen": 4277,
    "Ġspiders": 4278,
    "Ġcame": 4279,
    "Ġstatue": 4280,
    "Ġcolors": 4281,
    "ĠSee": 4282,
    "ĠClaire": 4283,
    "Ç": 4284,
    "Ġaf": 4285,
    "ilo": 4286,
    "Ġspeaking": 4287,
    "Ted": 4288,
    "°": 4289,
    "ups": 4290,
    "Ġwith": 4291,
    "Ah": 4292,
    "ĠOld": 4293,
    "Ġnods": 4294,
    "ĠLee": 4295,
    "Ġrewarded": 4296,
    "Ġloves": 4297,
    "Ġcreativity": 4298,
    "oring": 4299,
    "Ġwitch": 4300,
    "nt": 4301,
    "Ġtunnels": 4302,
    "very": 4303,
    "Ġvoices": 4304,
    "ĠWiggly": 4305,
    "Ġwiser": 4306,
    "Ġmodest": 4307,
    "Ġprincesses": 4308,
    "line": 4309,
    "Ġtin": 4310,
    "Ġthoughts": 4311,
    "ĠMr": 4312,
    "Ġdefin": 4313,
    "Ġdishes": 4314,
    "Ġjobs": 4315,
    "Ġremained": 4316,
    "Ġrem": 4317,
    "Ġmarks": 4318,
    "Birdy": 4319,
    "Put": 4320,
    "Surrender": 4321,
    "Ġmeasure": 4322,
    "ĠJon": 4323,
    "Ġhummed": 4324,
    "arlie": 4325,
    "Ġcareful": 4326,
    "Ġrows": 4327,
    "Ġmeows": 4328,
    "Ġawoke": 4329,
    "Ġrecognize": 4330,
    "Ġpond": 4331,
    "ĠWhite": 4332,
    "Ġsandcast": 4333,
    "Ġthrowing": 4334,
    "Ġbaker": 4335,
    "Ġmiles": 4336,
    "otter": 4337,
    "Ġjumping": 4338,
    "ĠYoga": 4339,
    "Ġkingdom": 4340,
    "Ġhopeful": 4341,
    "Joy": 4342,
    "Ġautomobile": 4343,
    "ĠFelix": 4344,
    "Ġbanan": 4345,
    "Ġbrace": 4346,
    "ccer": 4347,
    "Just": 4348,
    "Ġeyes": 4349,
    "Ġstaring": 4350,
    "Ġdesks": 4351,
    "Ġmonth": 4352,
    "Ġsheet": 4353,
    "Ġur": 4354,
    "Ġeverything": 4355,
    "ĠFinally": 4356,
    "fter": 4357,
    "zz": 4358,
    "Ġcompetition": 4359,
    "Ġwhist": 4360,
    "Ġnibble": 4361,
    "Ġtempting": 4362,
    "Ġshows": 4363,
    "Ġmessage": 4364,
    "Ġmight": 4365,
    "Ġcre": 4366,
    "Ġnovels": 4367,
    "Ġbecause": 4368,
    "Ġblanket": 4369,
    "Ġlaught": 4370,
    "Ġbites": 4371,
    "Ġaccompl": 4372,
    "Ġshadows": 4373,
    "Ġdess": 4374,
    "Ġpage": 4375,
    "poison": 4376,
    "vet": 4377,
    "Ġfinal": 4378,
    "Ġlocal": 4379,
    "Ġpoems": 4380,
    "T": 4381,
    "Ġsafe": 4382,
    "Ġmodels": 4383,
    "Ġbelong": 4384,
    "off": 4385,
    "Ġsmiles": 4386,
    "irr": 4387,
    "Ġdecorated": 4388,
    "Ġthemselves": 4389,
    "Ġpit": 4390,
    "Days": 4391,
    "able": 4392,
    "Ġtables": 4393,
    "Ġapproached": 4394,
    ")": 4395,
    "Ġumbrellas": 4396,
    "Ġgoing": 4397,
    "Ġpictures": 4398,
    "Ġmeat": 4399,
    "Ġpout": 4400,
    "ily": 4401,
    "ĠCare": 4402,
    "ack": 4403,
    "ld": 4404,
    "umbers": 4405,
    "Ġflap": 4406,
    "Ġcopy": 4407,
    "are": 4408,
    "Ġpeep": 4409,
    "ards": 4410,
    "¨": 4411,
    "Ġtasks": 4412,
    "Ġbare": 4413,
    "Ġsoapy": 4414,
    "Ġuniversity": 4415,
    "Ġexpect": 4416,
    "Ġscri": 4417,
    "Ġpalace": 4418,
    "Ġperson": 4419,
    "ĠSandy": 4420,
    "iling": 4421,
    "Ġexploring": 4422,
    "ĠPast": 4423,
    "Ġexplored": 4424,
    "Ġvan": 4425,
    "Ġsneezing": 4426,
    "Ġbooth": 4427,
    "Ġrumbling": 4428,
    "Ġlifts": 4429,
    "roken": 4430,
    "Ġtrot": 4431,
    "ast": 4432,
    "Pandy": 4433,
    "Ġcow": 4434,
    "@": 4435,
    "Dad": 4436,
    "rigued": 4437,
    "Ġfruits": 4438,
    "Like": 4439,
    "Ġwrapped": 4440,
    "Ġspoons": 4441,
    "Remember": 4442,
    "Ġrevealed": 4443,
    "solutely": 4444,
    "keleton": 4445,
    "Ġworkers": 4446,
    "Beep": 4447,
    "Ġpunishment": 4448,
    "Ġbath": 4449,
    "Ġcir": 4450,
    "Ġignoring": 4451,
    "Ġthen": 4452,
    "Ġpouch": 4453,
    "Ġhelps": 4454,
    "Ġscamp": 4455,
    "Ġsternly": 4456,
    "Ġconsider": 4457,
    "Ġtops": 4458,
    "ĠFlora": 4459,
    "Ġprince": 4460,
    "Ġstolen": 4461,
    "aughty": 4462,
    "Ġsays": 4463,
    "Ġcho": 4464,
    "glasses": 4465,
    "ĠEmmy": 4466,
    "Ï": 4467,
    "why": 4468,
    "Ġshined": 4469,
    "Ġby": 4470,
    "Ġknots": 4471,
    "Ġfoxes": 4472,
    "ĠTV": 4473,
    "Ġjudges": 4474,
    "Ġcust": 4475,
    "Ġrecord": 4476,
    "ĠBert": 4477,
    "ial": 4478,
    "hello": 4479,
    "Ġsniffled": 4480,
    "Ġbegged": 4481,
    "Ġbetter": 4482,
    "Ġencountered": 4483,
    "ulif": 4484,
    "Ġpeeled": 4485,
    "Ġtroubles": 4486,
    "be": 4487,
    "ake": 4488,
    "Ġforts": 4489,
    "Ġdesigns": 4490,
    "aisy": 4491,
    "Dog": 4492,
    "allow": 4493,
    "Ġvine": 4494,
    "Ġpoin": 4495,
    "Ġshoe": 4496,
    "ĠBet": 4497,
    "gie": 4498,
    "Ġjumper": 4499,
    "Ġseemed": 4500,
    "Ġpajamas": 4501,
    "Ġdictionary": 4502,
    "ĠTears": 4503,
    "Ġdesk": 4504,
    "Ġchair": 4505,
    "Ġfunn": 4506,
    "Ġpolar": 4507,
    "Ġgrass": 4508,
    "thank": 4509,
    "Ġspear": 4510,
    "Ġsprang": 4511,
    "Ġding": 4512,
    "Ġbuck": 4513,
    "Ġraven": 4514,
    "Ġsense": 4515,
    "Ġluck": 4516,
    "ĠBonnie": 4517,
    "Ġcurtain": 4518,
    "Ġred": 4519,
    "ĠWh": 4520,
    "Ġstronger": 4521,
    "alf": 4522,
    "Ġbeauty": 4523,
    "Ġtreated": 4524,
    "stri": 4525,
    "Ġwho": 4526,
    "Ġangrier": 4527,
    "br": 4528,
    "Ġsafety": 4529,
    "Ġkittens": 4530,
    "ĠThe": 4531,
    "Ġwags": 4532,
    "Ġbran": 4533,
    "Ġcounter": 4534,
    "Ġadventurous": 4535,
    "Ġumbrella": 4536,
    "ampoo": 4537,
    "Ġcertainly": 4538,
    "Ġdock": 4539,
    "Ġscarf": 4540,
    "prin": 4541,
    "Ġdetails": 4542,
    "ĠPuppy": 4543,
    "avid": 4544,
    "Ġsnugg": 4545,
    "Jo": 4546,
    "ĠRel": 4547,
    "Ġimaginary": 4548,
    "Ġmarket": 4549,
    "Ġyawning": 4550,
    "Ġslammed": 4551,
    "ĠPenelope": 4552,
    "Ġcross": 4553,
    "Ġscrews": 4554,
    "Ġsitting": 4555,
    "Sam": 4556,
    "My": 4557,
    "Ġgrateful": 4558,
    "Ġhose": 4559,
    "Ġhelicopter": 4560,
    "kn": 4561,
    "Ġdentist": 4562,
    "Ġgames": 4563,
    "end": 4564,
    "ĠDave": 4565,
    "Ġobeyed": 4566,
    "Ġseek": 4567,
    "Ġsandy": 4568,
    "Ġfamous": 4569,
    "Ġhits": 4570,
    "Ġmanage": 4571,
    "fore": 4572,
    "ĠSure": 4573,
    "ĺ": 4574,
    "Ġhen": 4575,
    "Ġscare": 4576,
    "Ġjam": 4577,
    "ĠFinny": 4578,
    "Ġglowed": 4579,
    "Ġgobbled": 4580,
    "Jamie": 4581,
    "ĠCD": 4582,
    "itted": 4583,
    "Ġwonderful": 4584,
    "Ġaccomplishment": 4585,
    "Nice": 4586,
    "Honey": 4587,
    "lem": 4588,
    "Ġthrough": 4589,
    "Ġunw": 4590,
    "Ġplayground": 4591,
    "Ġsky": 4592,
    "~": 4593,
    "Jess": 4594,
    "po": 4595,
    "Ġmasks": 4596,
    "entr": 4597,
    "Ġsorry": 4598,
    "Ġdigs": 4599,
    "Ġchatting": 4600,
    "Ġbeep": 4601,
    "ĠDee": 4602,
    "Ġwhip": 4603,
    "ĠDaniel": 4604,
    "Ġevent": 4605,
    "Ġthud": 4606,
    "Ġgrowls": 4607,
    "Ġwarning": 4608,
    "Ġwest": 4609,
    "ĠJake": 4610,
    "Ġnatur": 4611,
    "Ġobe": 4612,
    "Ġkicks": 4613,
    "Ġrepeating": 4614,
    "Ġrescued": 4615,
    "Danny": 4616,
    "ib": 4617,
    "Ġguest": 4618,
    "Ġgeese": 4619,
    "Ġvisit": 4620,
    "Ġtickling": 4621,
    "Ġplans": 4622,
    "Only": 4623,
    "Ġgoo": 4624,
    "ĠThomas": 4625,
    "Owl": 4626,
    "Ġhealed": 4627,
    "Ġloose": 4628,
    "Ġtickles": 4629,
    "ale": 4630,
    "ĠKiki": 4631,
    "Ġshare": 4632,
    "Ġmeowing": 4633,
    "ĠMaya": 4634,
    "Ġaudience": 4635,
    "Ġtummy": 4636,
    "ĠAmber": 4637,
    "ĠDespite": 4638,
    "Ġmonkeys": 4639,
    "Toby": 4640,
    "Ġspent": 4641,
    "Ġthirsty": 4642,
    "Ġmarch": 4643,
    "Ġthoughtful": 4644,
    "Ġdiving": 4645,
    "lly": 4646,
    "Ġicky": 4647,
    "Charlie": 4648,
    "Speedy": 4649,
    "Ġjud": 4650,
    "Ġsame": 4651,
    "par": 4652,
    "ĠLittle": 4653,
    "Ġgonna": 4654,
    "elt": 4655,
    "imp": 4656,
    "vers": 4657,
    "Ġedge": 4658,
    "Ġhitting": 4659,
    "Ġcups": 4660,
    "Ġartwork": 4661,
    "Ġfinish": 4662,
    "Ġtoys": 4663,
    "Ġwag": 4664,
    "Ġletters": 4665,
    "ġ": 4666,
    "Ġbiting": 4667,
    "ask": 4668,
    "Ġchilly": 4669,
    "con": 4670,
    "Ġoriginal": 4671,
    "Ġduring": 4672,
    "Ġacts": 4673,
    "Ġtraffic": 4674,
    "Ġwrap": 4675,
    "Ġbean": 4676,
    "ud": 4677,
    "Ġtub": 4678,
    "weet": 4679,
    "Ġpitch": 4680,
    "Ġlow": 4681,
    "Ġswords": 4682,
    "Ġspikes": 4683,
    "ĠHoney": 4684,
    "Ġcopper": 4685,
    "Ġchick": 4686,
    "Õ": 4687,
    "Ġdesign": 4688,
    "Ġrunner": 4689,
    "in": 4690,
    "ccol": 4691,
    "Boys": 4692,
    "Ġwarned": 4693,
    "Ġcleans": 4694,
    "Ġugly": 4695,
    "j": 4696,
    "ĠJoke": 4697,
    "mble": 4698,
    "Ġtwel": 4699,
    "Ġmister": 4700,
    "Ġwreck": 4701,
    "Paul": 4702,
    "ĠSarah": 4703,
    "Ġcricket": 4704,
    "ĠHope": 4705,
    "..": 4706,
    "Ġsmelt": 4707,
    "ere": 4708,
    "Ġyourselves": 4709,
    "Ġendings": 4710,
    "Ġwink": 4711,
    "Ġmisses": 4712,
    "Ġstretchy": 4713,
    "Ġcoat": 4714,
    "Ġbits": 4715,
    "Ġwisdom": 4716,
    "Ġhanger": 4717,
    "ap": 4718,
    "Ġspec": 4719,
    "Ġd": 4720,
    "udge": 4721,
    "Ġfrosting": 4722,
    "thy": 4723,
    "ited": 4724,
    "ĠBella": 4725,
    "Ġinvitation": 4726,
    "ĠMilo": 4727,
    "Ġcooed": 4728,
    "Ġpulled": 4729,
    "ĠReddy": 4730,
    "hood": 4731,
    "Ġcherry": 4732,
    "Ġjob": 4733,
    "attered": 4734,
    "ĠGiant": 4735,
    "Ġrobbers": 4736,
    "Ġspoiled": 4737,
    "Ġtweet": 4738,
    "ï": 4739,
    "ĠBuzzy": 4740,
    "Ġtwenty": 4741,
    "Ġconfused": 4742,
    "ĠPup": 4743,
    "Ġmommy": 4744,
    "Ġkeyhole": 4745,
    "Ġtrave": 4746,
    "Ġaccidents": 4747,
    "Ġhungry": 4748,
    "Ġparent": 4749,
    "Ġcheck": 4750,
    "ĠOver": 4751,
    "Ġtroll": 4752,
    "Ġgrabbed": 4753,
    "Ġwelcomed": 4754,
    "Ġan": 4755,
    "Ġvase": 4756,
    "Ġcob": 4757,
    "Ġfoot": 4758,
    "Ġreturn": 4759,
    "ĠYet": 4760,
    "anwhile": 4761,
    "Ġdecide": 4762,
    "Ġlater": 4763,
    "ic": 4764,
    "Ġclum": 4765,
    "However": 4766,
    "ouquet": 4767,
    "ĠPink": 4768,
    "reverse": 4769,
    "Ġtelephone": 4770,
    "board": 4771,
    "Ġdolls": 4772,
    "hile": 4773,
    "Ġouch": 4774,
    "uses": 4775,
    "Ġcons": 4776,
    "ari": 4777,
    "Ġoverwhelmed": 4778,
    "Ġpops": 4779,
    "Ġmeowed": 4780,
    "ĠAnd": 4781,
    "Ġbunny": 4782,
    "Ġsticky": 4783,
    "m": 4784,
    "c": 4785,
    "bbed": 4786,
    "Tr": 4787,
    "Ġpraying": 4788,
    "Ġfloor": 4789,
    ",": 4790,
    "Ġplot": 4791,
    "Ġchallenge": 4792,
    "Ġtasting": 4793,
    "Jessie": 4794,
    "ans": 4795,
    "Ġaccomplish": 4796,
    "uggles": 4797,
    "ay": 4798,
    "ulu": 4799,
    "Ġblew": 4800,
    "ĠWooly": 4801,
    "Ġdeser": 4802,
    "Dan": 4803,
    "Ġfloats": 4804,
    "og": 4805,
    "Ġfearful": 4806,
    "aker": 4807,
    "isc": 4808,
    "Ġpack": 4809,
    "Ġsisters": 4810,
    "Ġparents": 4811,
    "Ġpassengers": 4812,
    "Ġequipment": 4813,
    "Ġempty": 4814,
    "Ġcarrots": 4815,
    "Ġsailor": 4816,
    "Ġnoodles": 4817,
    "Ġtempt": 4818,
    "ĠChew": 4819,
    "Ġstirs": 4820,
    "Ġpurrs": 4821,
    "Ġchase": 4822,
    "Ġotherwise": 4823,
    "Ġlist": 4824,
    "Ġzooms": 4825,
    "(": 4826,
    "Ġresponse": 4827,
    "ĠMan": 4828,
    "Ġpuddle": 4829,
    "iky": 4830,
    "ĠNever": 4831,
    "Ġdespite": 4832,
    "elling": 4833,
    "five": 4834,
    "ness": 4835,
    "Ġrising": 4836,
    "Ġappreci": 4837,
    "Ġspoiling": 4838,
    "Snowy": 4839,
    "lyn": 4840,
    "Ġlots": 4841,
    "uxu": 4842,
    "ĠFrog": 4843,
    "Ġresult": 4844,
    "Ġsoft": 4845,
    "ze": 4846,
    "Ollie": 4847,
    "Ġ2": 4848,
    "que": 4849,
    "ĠWhere": 4850,
    "Ġtidied": 4851,
    "Im": 4852,
    "ĠSally": 4853,
    "Ġvict": 4854,
    "ĠVicky": 4855,
    "Ġlim": 4856,
    "ĠBehind": 4857,
    "Ġhat": 4858,
    "Ġboring": 4859,
    "ided": 4860,
    "urricane": 4861,
    "Ġrac": 4862,
    "Ġleak": 4863,
    "?'": 4864,
    "Ġbench": 4865,
    "Ġneeds": 4866,
    "Ġstew": 4867,
    "Rachel": 4868,
    "Ġavocados": 4869,
    "Ġpassed": 4870,
    "Ġheading": 4871,
    "Ġaw": 4872,
    "Pepper": 4873,
    "Ġzipper": 4874,
    "Ġcollapsed": 4875,
    "Ġripp": 4876,
    "ct": 4877,
    "Ġinvitations": 4878,
    "ish": 4879,
    "Ġroars": 4880,
    "p": 4881,
    "ne": 4882,
    "Ġfaster": 4883,
    "Ġshooed": 4884,
    "urch": 4885,
    "ĠDodo": 4886,
    "Ġpastries": 4887,
    "Ġslapped": 4888,
    "kin": 4889,
    "Ġbott": 4890,
    "Ġsmo": 4891,
    "Ġnatural": 4892,
    "Ġloyalty": 4893,
    "Ġtwinkle": 4894,
    "Ġsnow": 4895,
    "Ġmagic": 4896,
    "irth": 4897,
    "Ġbank": 4898,
    "Ġpark": 4899,
    "Ġstre": 4900,
    "Oops": 4901,
    "Ġposter": 4902,
    "Ġseller": 4903,
    "Ġwrite": 4904,
    "Ġattic": 4905,
    "Ġborrowed": 4906,
    "Ġtail": 4907,
    "ĠRabbit": 4908,
    "Ġcube": 4909,
    "Ġargum": 4910,
    "Listen": 4911,
    "Ġtwist": 4912,
    "Mo": 4913,
    "Ġguy": 4914,
    "Ġcontro": 4915,
    "ĠTree": 4916,
    "Ġarrow": 4917,
    "Ġcovered": 4918,
    "Ġprepare": 4919,
    "izing": 4920,
    "Ġsay": 4921,
    "Ġbowed": 4922,
    "Ġkitten": 4923,
    "Ġel": 4924,
    "Ġbathrobe": 4925,
    "rie": 4926,
    "Ġglued": 4927,
    "Ġmatching": 4928,
    "Ġgap": 4929,
    "Ġball": 4930,
    "one": 4931,
    "Ġcouple": 4932,
    "İ": 4933,
    "ching": 4934,
    "Ġtoaster": 4935,
    "rnie": 4936,
    "ĠMad": 4937,
    "Ġsurround": 4938,
    "Ġpress": 4939,
    "Ġturning": 4940,
    "Ġcomputers": 4941,
    "âĢĿ.": 4942,
    "Ġlabel": 4943,
    "Ġpushed": 4944,
    "Ġinterest": 4945,
    "body": 4946,
    "ragile": 4947,
    "ĠMia": 4948,
    "Ġenjoy": 4949,
    "Ġcracks": 4950,
    "ĠP": 4951,
    "ĠPark": 4952,
    "Ġad": 4953,
    "Ġribb": 4954,
    "als": 4955,
    "oni": 4956,
    "Mum": 4957,
    "Ġsmall": 4958,
    "Alex": 4959,
    "Ġtubes": 4960,
    "Ġlooked": 4961,
    "vator": 4962,
    "ck": 4963,
    "stop": 4964,
    "ĠPinky": 4965,
    "ĠTyler": 4966,
    "Zoomy": 4967,
    "Ġdifference": 4968,
    "ĠUntil": 4969,
    "Ġanswering": 4970,
    "Find": 4971,
    "Ġswing": 4972,
    "fused": 4973,
    "ĠCoby": 4974,
    "ax": 4975,
    "Ġstomped": 4976,
    "Ġrepeats": 4977,
    "ĠCandy": 4978,
    "nn": 4979,
    "Buzz": 4980,
    "Ġweapons": 4981,
    "Ġhun": 4982,
    "Ġfil": 4983,
    "ĠBuster": 4984,
    "Ġswamp": 4985,
    "Henry": 4986,
    "usted": 4987,
    "Ġquarreling": 4988,
    "Ì": 4989,
    "sn": 4990,
    "Ń": 4991,
    "Ġtwinkled": 4992,
    "ĠMany": 4993,
    "Two": 4994,
    "Ġhappier": 4995,
    "Milly": 4996,
    "Ġfed": 4997,
    "Ġbegin": 4998,
    "Ġclassmates": 4999,
    "Ġlap": 5000,
    "Ġscold": 5001,
    "Ġqu": 5002,
    "Ġblueberries": 5003,
    "ĠS": 5004,
    "ophone": 5005,
    "Ġjewels": 5006,
    "Ġbluebird": 5007,
    "Ġplayed": 5008,
    "Ġenvelopes": 5009,
    "Ġthird": 5010,
    "Ġaxe": 5011,
    "Ġenjoyed": 5012,
    "Ġperfectly": 5013,
    "Ġpostman": 5014,
    "Ġham": 5015,
    "Their": 5016,
    "imed": 5017,
    "Ġstomp": 5018,
    "Ġclub": 5019,
    "Ġchat": 5020,
    "Ġplaytime": 5021,
    "Ġfought": 5022,
    "Ġfries": 5023,
    "ony": 5024,
    "athy": 5025,
    "Ġchipmunk": 5026,
    "Buzzy": 5027,
    "Ġsmart": 5028,
    "Ġalways": 5029,
    "Ġdolph": 5030,
    "ility": 5031,
    "ention": 5032,
    "Ġfarthest": 5033,
    "Ġdiary": 5034,
    "Instead": 5035,
    "Un": 5036,
    "Ġcrow": 5037,
    "Ġpretty": 5038,
    "Ġmanager": 5039,
    "Ġmarching": 5040,
    "Gigi": 5041,
    "Ġsprinkled": 5042,
    "st": 5043,
    "Ġnight": 5044,
    "Ġlollipops": 5045,
    "Ġcandle": 5046,
    "Ġjail": 5047,
    "Ġprick": 5048,
    "Ġwinter": 5049,
    "Ġchange": 5050,
    "ool": 5051,
    "Ġpaw": 5052,
    "Sad": 5053,
    "ins": 5054,
    "match": 5055,
    "Ġsatisfied": 5056,
    "ĠCook": 5057,
    "Ĉ": 5058,
    "Ġfarther": 5059,
    "ĠMillie": 5060,
    "Ġsoda": 5061,
    "Ġbenches": 5062,
    "A": 5063,
    "Ġjust": 5064,
    "Ġwee": 5065,
    "Ġanticip": 5066,
    "Soon": 5067,
    "ĠRyan": 5068,
    "ney": 5069,
    "Ġusing": 5070,
    "ough": 5071,
    "Ġmissing": 5072,
    "Ġbigger": 5073,
    "Ġpudd": 5074,
    "Ġmoments": 5075,
    "ealing": 5076,
    "Ġwheat": 5077,
    "Ġflaps": 5078,
    "Ġrelief": 5079,
    "Ġcolourful": 5080,
    "Ġare": 5081,
    "Ġbring": 5082,
    "Ġfingers": 5083,
    "Ġcroak": 5084,
    "itten": 5085,
    "This": 5086,
    "Julia": 5087,
    "Ġpounds": 5088,
    "Ġenthusia": 5089,
    "Does": 5090,
    "Ġsandpit": 5091,
    "Ġchallenges": 5092,
    "Ġbl": 5093,
    "Ġkit": 5094,
    "reen": 5095,
    "ung": 5096,
    "Ġlife": 5097,
    "Ġpu": 5098,
    "Ġbarks": 5099,
    "Ġintroduce": 5100,
    "ood": 5101,
    "jamas": 5102,
    "Ġfavour": 5103,
    "Ġwept": 5104,
    "Ġneither": 5105,
    "Ġhanging": 5106,
    "Ġchecking": 5107,
    "self": 5108,
    "ĠRavi": 5109,
    "Ġhardly": 5110,
    "Ġworried": 5111,
    "Ġwor": 5112,
    "Ġow": 5113,
    "Ġtricks": 5114,
    "Ġhas": 5115,
    "Ġweep": 5116,
    "Ġbars": 5117,
    "Ġdeeply": 5118,
    "Ġfancy": 5119,
    "Ġpicked": 5120,
    "ĠĊ": 5121,
    "Ġelectric": 5122,
    "Ġhesitated": 5123,
    "ĠLizzie": 5124,
    "Ġremem": 5125,
    "aroo": 5126,
    "Ġdr": 5127,
    "Ġinsisted": 5128,
    "Ġpers": 5129,
    "act": 5130,
    "Ġflick": 5131,
    "Ġunz": 5132,
    "Ġalso": 5133,
    "Ġexerc": 5134,
    "r": 5135,
    "Ġcovers": 5136,
    "Ġfinishing": 5137,
    "Ġsits": 5138,
    "ĠBad": 5139,
    "Ġingredient": 5140,
    "Ġpin": 5141,
    "Ġcooler": 5142,
    "ĠSlowly": 5143,
    "Ġfull": 5144,
    "Ġlicking": 5145,
    "ĠInch": 5146,
    "Ġpigeon": 5147,
    "Ġsleeping": 5148,
    "Ġpearl": 5149,
    "ĠEat": 5150,
    "ĠChirpy": 5151,
    "Ġsea": 5152,
    "ĠSome": 5153,
    "Ġglared": 5154,
    "Ġtriangles": 5155,
    "Ġfall": 5156,
    "Ġstudents": 5157,
    "Ġprin": 5158,
    "Ġwider": 5159,
    "Ġprunes": 5160,
    "Ġcauliflower": 5161,
    "Ġmessed": 5162,
    "ĠDucky": 5163,
    "mare": 5164,
    "Leo": 5165,
    "Ġspicy": 5166,
    "mer": 5167,
    "Ġshell": 5168,
    "Ġstirred": 5169,
    "Ġoften": 5170,
    "Ġbrings": 5171,
    "Ġmember": 5172,
    "Ġyumm": 5173,
    "ina": 5174,
    "Ġesc": 5175,
    "Lucky": 5176,
    "Ġnur": 5177,
    "Roar": 5178,
    "Ġnightmares": 5179,
    "ensive": 5180,
    "ĠNear": 5181,
    "Ġguessing": 5182,
    "Ġopera": 5183,
    "Ġfell": 5184,
    "Ġfilthy": 5185,
    "Ġlaughs": 5186,
    "ddie": 5187,
    "ĠJen": 5188,
    "ready": 5189,
    "É": 5190,
    "Ġtreasure": 5191,
    "ĠZack": 5192,
    "Ġcloud": 5193,
    "antastic": 5194,
    "Ġtomato": 5195,
    "Ġcomforted": 5196,
    "Ġwasting": 5197,
    "Ġchin": 5198,
    "Ġdragon": 5199,
    "ract": 5200,
    "Ġinto": 5201,
    "ived": 5202,
    "Ru": 5203,
    "Ġmarked": 5204,
    "Ġchased": 5205,
    "Ġkangaroos": 5206,
    "Ġsett": 5207,
    "Ġon": 5208,
    "Ġshopping": 5209,
    "ĠHopper": 5210,
    "ĠDog": 5211,
    "Ġdoctors": 5212,
    "Ġvowed": 5213,
    "Ġgrandmother": 5214,
    "Emily": 5215,
    "Ġlaugh": 5216,
    "ĠWinky": 5217,
    "Ġbeef": 5218,
    "Ġfollow": 5219,
    "Ġroll": 5220,
    "ister": 5221,
    "Ä": 5222,
    "Ġpump": 5223,
    "U": 5224,
    "ĠBlink": 5225,
    "Ġdirection": 5226,
    "Ġbloomed": 5227,
    "Ġmar": 5228,
    "ĠPuffy": 5229,
    "Ġsquashes": 5230,
    "Ġhedge": 5231,
    "#": 5232,
    "ym": 5233,
    "bang": 5234,
    "Ġnewspapers": 5235,
    "ĠSal": 5236,
    "Ġlearner": 5237,
    "ved": 5238,
    "Ġthumbs": 5239,
    "ĠOutside": 5240,
    "ĠInstead": 5241,
    "Ġemergen": 5242,
    "wk": 5243,
    "Ġhesitant": 5244,
    "nded": 5245,
    "htray": 5246,
    "Ġdear": 5247,
    "ĠJulia": 5248,
    "ful": 5249,
    "Ġfest": 5250,
    "Ġintroduc": 5251,
    "Ġbear": 5252,
    "Ġfunny": 5253,
    "Ġknit": 5254,
    "Ġcrying": 5255,
    "Ġdifferent": 5256,
    "Watch": 5257,
    "ssy": 5258,
    "ĠRazor": 5259,
    "Wait": 5260,
    "Ġsunlight": 5261,
    "her": 5262,
    "ĠRoger": 5263,
    "Ġshorts": 5264,
    "Chicky": 5265,
    "Ġg": 5266,
    "asses": 5267,
    "Ġres": 5268,
    "Ġthrilled": 5269,
    "ig": 5270,
    "Ġcart": 5271,
    "Ġmedic": 5272,
    "Ġbutter": 5273,
    "Ġbone": 5274,
    "Ġlistening": 5275,
    "Ġcards": 5276,
    "Ġcape": 5277,
    "Ġtour": 5278,
    "Ġconvin": 5279,
    "out": 5280,
    "Ġfishes": 5281,
    "Ġpunish": 5282,
    "ang": 5283,
    "Ġagreed": 5284,
    "Ġswirls": 5285,
    "Ġsix": 5286,
    "ĠBobo": 5287,
    "Ġstretching": 5288,
    "Ġstrong": 5289,
    "On": 5290,
    "Ġdifficult": 5291,
    "Ġbrown": 5292,
    "ĠWhistle": 5293,
    "ĠClean": 5294,
    "Ġunderwater": 5295,
    "cky": 5296,
    "ila": 5297,
    "Ġz": 5298,
    "Ġkitty": 5299,
    "ĠBear": 5300,
    "Ġdestination": 5301,
    "Ġign": 5302,
    "Ġtex": 5303,
    "Ġswallowed": 5304,
    "Ġsetting": 5305,
    "Ġflav": 5306,
    "Ġintrod": 5307,
    "lves": 5308,
    "Ġits": 5309,
    "Ġhand": 5310,
    "Ġactions": 5311,
    "ĠIm": 5312,
    "Ġcustom": 5313,
    "ļ": 5314,
    "Ġfaded": 5315,
    "Ġincreasing": 5316,
    "airs": 5317,
    "ned": 5318,
    "Ġconfidence": 5319,
    "ĠAnt": 5320,
    "Ġloved": 5321,
    "Ġpennies": 5322,
    "irst": 5323,
    "Ġsne": 5324,
    "Ġsometime": 5325,
    "Ġways": 5326,
    "eb": 5327,
    "mm": 5328,
    "ement": 5329,
    "Ġscram": 5330,
    "Ġgranted": 5331,
    "weed": 5332,
    "ĠKit": 5333,
    "Ġtast": 5334,
    "Ġmysteries": 5335,
    "Ġsatisfaction": 5336,
    "per": 5337,
    "Ġvisiting": 5338,
    "Ġvaluable": 5339,
    "Ġfavourite": 5340,
    "Ġinvite": 5341,
    "Ġcelebrated": 5342,
    "iff": 5343,
    "Ġconqu": 5344,
    "ķ": 5345,
    "ĠOxy": 5346,
    "ĠEliza": 5347,
    "Ġcommun": 5348,
    "Ġmine": 5349,
    "bu": 5350,
    "Ġam": 5351,
    "Ġsneeze": 5352,
    "Ġtwisty": 5353,
    "ĠViolet": 5354,
    "Ġsucceeded": 5355,
    "immering": 5356,
    "Ġsweets": 5357,
    "Ġdra": 5358,
    "Ġchirped": 5359,
    "rilliant": 5360,
    "Ġpanicked": 5361,
    "Ġteaching": 5362,
    "iform": 5363,
    "Ġpract": 5364,
    "Ġguess": 5365,
    "Ġlions": 5366,
    "sess": 5367,
    "Ġwore": 5368,
    "Ġsoared": 5369,
    "Friends": 5370,
    "Ġstare": 5371,
    "Ġsettled": 5372,
    "Ġsaved": 5373,
    "Ú": 5374,
    "Ġwhile": 5375,
    "ĠSpark": 5376,
    "ĠKate": 5377,
    "Ġmatch": 5378,
    "Ġscra": 5379,
    "Ġrepair": 5380,
    "Ġairpl": 5381,
    "lay": 5382,
    "Ġcup": 5383,
    "aven": 5384,
    "Ġsquish": 5385,
    "racadabra": 5386,
    "Ġshelves": 5387,
    "Lily": 5388,
    "Ġinvest": 5389,
    "Sorry": 5390,
    "ance": 5391,
    "Ġcuts": 5392,
    "Ġhurry": 5393,
    "Ruby": 5394,
    "inda": 5395,
    "ens": 5396,
    "rage": 5397,
    "Ġspraying": 5398,
    ",'": 5399,
    "ĠHe": 5400,
    "Ġlever": 5401,
    "Ġbunch": 5402,
    "Ġdesper": 5403,
    "day": 5404,
    "Ġbeautifully": 5405,
    "Ġobject": 5406,
    "Ġele": 5407,
    "Ġcatches": 5408,
    "Ġlouder": 5409,
    "ĠZero": 5410,
    "Kiki": 5411,
    "Ġbloom": 5412,
    "Ġmixing": 5413,
    "ĠChrist": 5414,
    "Ġcott": 5415,
    "Ġbead": 5416,
    "Ġunt": 5417,
    "ĠGeorge": 5418,
    "ĠWoof": 5419,
    "Ġsoup": 5420,
    "fied": 5421,
    "Ġlangu": 5422,
    "Ġsqueeze": 5423,
    "Ġdarker": 5424,
    "uff": 5425,
    "vered": 5426,
    "£": 5427,
    "Ġblue": 5428,
    "unity": 5429,
    "Ġbirdcage": 5430,
    "Ġlid": 5431,
    "Ġsquished": 5432,
    "ĠZipper": 5433,
    "Ġtricked": 5434,
    "Ġprobably": 5435,
    "ĠGrandpa": 5436,
    "father": 5437,
    "Ġcheese": 5438,
    "ray": 5439,
    "Ġwasn": 5440,
    "Ġspace": 5441,
    "Ġboun": 5442,
    "Ġtrumpet": 5443,
    "Ġwatch": 5444,
    "Ġsmelled": 5445,
    "ĠMonster": 5446,
    "Ġr": 5447,
    "ge": 5448,
    "Ġgazed": 5449,
    "Ġstarted": 5450,
    "ester": 5451,
    "del": 5452,
    "Ġcurt": 5453,
    "Ġkings": 5454,
    "ĠMaybe": 5455,
    "ĠPick": 5456,
    "Ġinc": 5457,
    "Jon": 5458,
    "Snap": 5459,
    "Ġwife": 5460,
    "Ġalong": 5461,
    "owed": 5462,
    "Ġshelter": 5463,
    "Ġtrapped": 5464,
    "Ġwiping": 5465,
    "Ġspong": 5466,
    "Ġcatching": 5467,
    "Ġegg": 5468,
    "Ġcomplete": 5469,
    "Ġmissed": 5470,
    "Ġthanks": 5471,
    "Ġcircus": 5472,
    "Ġfairies": 5473,
    "Ġexpected": 5474,
    "Ġthe": 5475,
    "icing": 5476,
    "Ġclerk": 5477,
    "Ġsquealed": 5478,
    "Ġboxes": 5479,
    "ĠTry": 5480,
    "yd": 5481,
    "Ġdeserves": 5482,
    "ĠRock": 5483,
    "Ġpepper": 5484,
    "Ġthem": 5485,
    "Ġloving": 5486,
    "Ġbakery": 5487,
    "Ġimpressive": 5488,
    "Ġfalling": 5489,
    "Ġmeet": 5490,
    "Ġshivering": 5491,
    "Ġshares": 5492,
    "Ġthreat": 5493,
    "arry": 5494,
    "Ġdeed": 5495,
    "ssss": 5496,
    "Ġlending": 5497,
    "Ġsparks": 5498,
    "ousy": 5499,
    "Ġmonths": 5500,
    "Ġordinary": 5501,
    "ĠFighting": 5502,
    "Ġdet": 5503,
    "Ġpancakes": 5504,
    "Ġalright": 5505,
    "Ġmarve": 5506,
    "irl": 5507,
    "Ġwelcome": 5508,
    "Ġbrushing": 5509,
    "etty": 5510,
    "Ġmystery": 5511,
    "Ġrough": 5512,
    "ĠOliver": 5513,
    "Tom": 5514,
    "Ġtwo": 5515,
    "Ġsang": 5516,
    "gen": 5517,
    "Ġash": 5518,
    "Ġlemonade": 5519,
    "Ġsings": 5520,
    "ĠSpeed": 5521,
    "ĠSara": 5522,
    "Ġlanguages": 5523,
    "Ġputting": 5524,
    "Ġrake": 5525,
    "ĠChewy": 5526,
    "Ġdirt": 5527,
    "Abby": 5528,
    "Ġhearts": 5529,
    "Ġrobe": 5530,
    "ĠOllie": 5531,
    "Ġstra": 5532,
    "Ġfigures": 5533,
    "Ġtipto": 5534,
    "ĠHow": 5535,
    "Ġwithin": 5536,
    "Ġfootball": 5537,
    "inking": 5538,
    "Ġhard": 5539,
    "Ġsocks": 5540,
    "Julie": 5541,
    "Ġinside": 5542,
    "Ġboard": 5543,
    "'.": 5544,
    "ĠKip": 5545,
    "Ġsnakes": 5546,
    "nam": 5547,
    "Ġdream": 5548,
    "'s": 5549,
    "Ġshrank": 5550,
    "ĠWhenever": 5551,
    "Sc": 5552,
    "Ġtapping": 5553,
    "Ġdetermination": 5554,
    "Ġnood": 5555,
    "Ġhelicopters": 5556,
    "Ġmistake": 5557,
    "Ġcheering": 5558,
    "itt": 5559,
    "Ġmerry": 5560,
    "Ġtapped": 5561,
    "abies": 5562,
    "everse": 5563,
    "Ġsack": 5564,
    ".'\"": 5565,
    "ĠBoat": 5566,
    "Ġcaring": 5567,
    "ĠHannah": 5568,
    "orsie": 5569,
    "ĠTiti": 5570,
    "Ġawhile": 5571,
    "ĠFollow": 5572,
    "Ġsmallest": 5573,
    "Ġonward": 5574,
    "Ġstructure": 5575,
    "Ġmakes": 5576,
    "Ġcrocodiles": 5577,
    "ù": 5578,
    "Ġfountain": 5579,
    "ª": 5580,
    "Ġzips": 5581,
    "Ġcupcake": 5582,
    "Ġturkey": 5583,
    "ience": 5584,
    "Come": 5585,
    "Ġneighborhood": 5586,
    "Ġpumpkins": 5587,
    "Ġbuddy": 5588,
    "Ġlearned": 5589,
    "Ġtickled": 5590,
    "Ġfresh": 5591,
    "ĠLila": 5592,
    "Ġx": 5593,
    "Ġbarked": 5594,
    "lowers": 5595,
    "ĠStar": 5596,
    "Ġscore": 5597,
    "ator": 5598,
    "Ġdec": 5599,
    "Ġmanag": 5600,
    "ĠTime": 5601,
    "Ġstitches": 5602,
    "Ġready": 5603,
    "Ġgenerosity": 5604,
    "Ġsharks": 5605,
    "ĠAl": 5606,
    "Ġpieces": 5607,
    "Ġracing": 5608,
    "Ġtreat": 5609,
    "coon": 5610,
    "Ġwoodcut": 5611,
    "Ġpole": 5612,
    "ĠAlthough": 5613,
    "Ġmatt": 5614,
    "Ġreun": 5615,
    "Ġnicer": 5616,
    "Our": 5617,
    "ĠNot": 5618,
    "Ġhugged": 5619,
    "Ġshore": 5620,
    "ips": 5621,
    "Being": 5622,
    "ĠTwist": 5623,
    "ails": 5624,
    "Ġsacks": 5625,
    "Ġlaund": 5626,
    "Ġgener": 5627,
    "Ġpuppy": 5628,
    "kins": 5629,
    "live": 5630,
    "Ġrabbit": 5631,
    "Ġsnapped": 5632,
    "Ġadmiration": 5633,
    "Ġseven": 5634,
    "ĠComet": 5635,
    "Ġcable": 5636,
    "Ġfireman": 5637,
    "Ġbackwards": 5638,
    "Ġsilence": 5639,
    "Ġspinning": 5640,
    "Ġrail": 5641,
    "ĠAng": 5642,
    "ĠStitch": 5643,
    "Ġties": 5644,
    "ner": 5645,
    "Ġspid": 5646,
    "ĠSharp": 5647,
    "Ġtre": 5648,
    "Ġfluttered": 5649,
    "Ġstep": 5650,
    "Ġrule": 5651,
    "atur": 5652,
    "Ġmap": 5653,
    "Ġhosp": 5654,
    "iday": 5655,
    "Ġobserved": 5656,
    "Ġpecks": 5657,
    "ĭ": 5658,
    "Ġk": 5659,
    "ĠTony": 5660,
    "Ġsomeone": 5661,
    "pack": 5662,
    "Ġsurvive": 5663,
    "ĠMa": 5664,
    "Ġhockey": 5665,
    "Ġreminder": 5666,
    "ending": 5667,
    "Ġevening": 5668,
    "Ġbreat": 5669,
    "Ġgrabbing": 5670,
    "host": 5671,
    "Ġsnowfl": 5672,
    "Su": 5673,
    "Ġbra": 5674,
    "ered": 5675,
    "Ġthose": 5676,
    "welcome": 5677,
    "Fly": 5678,
    "Ġcoming": 5679,
    "ĠPe": 5680,
    "ĠGod": 5681,
    "Ġjealous": 5682,
    "Ġdownstairs": 5683,
    "ary": 5684,
    "Ġelevator": 5685,
    "ah": 5686,
    "Ġmast": 5687,
    "Ġunderstood": 5688,
    "Ġcompl": 5689,
    "Ġsque": 5690,
    "Here": 5691,
    "Ġwa": 5692,
    "cessary": 5693,
    "Ġhere": 5694,
    "Ġbushy": 5695,
    "Ġwandering": 5696,
    "Ġterrified": 5697,
    "ĠSun": 5698,
    "Ġcity": 5699,
    "hi": 5700,
    "Ġprincess": 5701,
    "Ġhider": 5702,
    "Ġpushing": 5703,
    "Ġstack": 5704,
    "rise": 5705,
    "ĠJacky": 5706,
    "Ġdancers": 5707,
    "ctions": 5708,
    "idey": 5709,
    "Ġofficers": 5710,
    "Ġbecame": 5711,
    "Ġworked": 5712,
    "Ġcliff": 5713,
    "Ġdragged": 5714,
    "Unfortunately": 5715,
    "Ġvegetable": 5716,
    "Ġaprons": 5717,
    "Ġcharac": 5718,
    "Ġunf": 5719,
    "Amy": 5720,
    "Ġcool": 5721,
    "ĠGra": 5722,
    "Ġcompeting": 5723,
    "Ġchirping": 5724,
    "Ġheld": 5725,
    "Ġpainful": 5726,
    "Ġdro": 5727,
    "Ġcuddled": 5728,
    "ĠTomorrow": 5729,
    "Đ": 5730,
    "iled": 5731,
    "lish": 5732,
    "iti": 5733,
    "ongrat": 5734,
    "Where": 5735,
    "ibi": 5736,
    "ĠFl": 5737,
    "Play": 5738,
    "ĠAngel": 5739,
    "Ġmanaged": 5740,
    "seph": 5741,
    "û": 5742,
    "Ġashamed": 5743,
    "Ġjelly": 5744,
    "Ġminutes": 5745,
    "Ġbarrel": 5746,
    "ungle": 5747,
    "Ġindeed": 5748,
    "Ġremembered": 5749,
    "ĠMole": 5750,
    "Ġsmiled": 5751,
    "Dr": 5752,
    "ĠBeing": 5753,
    "Ġslept": 5754,
    "Ġhol": 5755,
    "Ġpine": 5756,
    "ĠWo": 5757,
    "Ġblackboard": 5758,
    "Ġshine": 5759,
    "Ġnectar": 5760,
    "ĠBlue": 5761,
    "Ġscient": 5762,
    "ĠBub": 5763,
    "Ġbase": 5764,
    "Ġbacked": 5765,
    "Ġhesitation": 5766,
    "Ġpus": 5767,
    "ĠFish": 5768,
    "Ġagre": 5769,
    "Ġminding": 5770,
    "aper": 5771,
    "Ġturt": 5772,
    "±": 5773,
    "Ġresting": 5774,
    "Ġelbow": 5775,
    "Ġthat": 5776,
    "ern": 5777,
    "Ġbricks": 5778,
    "Ġgiggle": 5779,
    "Ġrope": 5780,
    "h": 5781,
    "Ġpenguins": 5782,
    "cked": 5783,
    "Ġaccept": 5784,
    "Ġcent": 5785,
    "Ġwelc": 5786,
    "Ġclimbing": 5787,
    "uggage": 5788,
    "parent": 5789,
    "ĠWith": 5790,
    "Ġmass": 5791,
    "Ġride": 5792,
    "Ġround": 5793,
    "Ġpencils": 5794,
    "Ġproblems": 5795,
    "iers": 5796,
    "Ġnicely": 5797,
    "Ġfrog": 5798,
    "Gr": 5799,
    "Ġbegan": 5800,
    "ubby": 5801,
    "ĠFreddie": 5802,
    "rap": 5803,
    "ĠFr": 5804,
    "Ġrealised": 5805,
    "aring": 5806,
    "Ġfood": 5807,
    "Ġyach": 5808,
    "ĠMummy": 5809,
    "Ġrequested": 5810,
    "Ġgrumbled": 5811,
    "Ġunhappy": 5812,
    "eremy": 5813,
    "Ġharder": 5814,
    "ĠSlow": 5815,
    "ounce": 5816,
    "Ġgardener": 5817,
    "ix": 5818,
    "er": 5819,
    "Ĝ": 5820,
    "Ġmall": 5821,
    "Ġdon": 5822,
    "Ġswings": 5823,
    "Ġwants": 5824,
    "Ġlog": 5825,
    "ĠLaura": 5826,
    "ĠN": 5827,
    "ĠAccidents": 5828,
    "Ġfab": 5829,
    "Ġrefreshed": 5830,
    "Ġcareless": 5831,
    "Every": 5832,
    "Ġpad": 5833,
    "pan": 5834,
    "Ġstor": 5835,
    "Ġhall": 5836,
    "uster": 5837,
    "ĠFor": 5838,
    "Ġchickens": 5839,
    "Ġblocked": 5840,
    "ĠLaw": 5841,
    "Ġwhistling": 5842,
    "Ġshr": 5843,
    "ag": 5844,
    "Ġslides": 5845,
    "Ġimag": 5846,
    "anny": 5847,
    ".âĢĿ": 5848,
    "bbers": 5849,
    "Ġusually": 5850,
    "Ring": 5851,
    "itely": 5852,
    "iction": 5853,
    "sc": 5854,
    "Ġtwigs": 5855,
    "Ġourselves": 5856,
    "Ġworm": 5857,
    "vous": 5858,
    "ppers": 5859,
    "Ġpony": 5860,
    "Ġuncle": 5861,
    "Ġsneezed": 5862,
    "Ġplate": 5863,
    "Ġglo": 5864,
    "Coco": 5865,
    "Ġstation": 5866,
    "aches": 5867,
    "Ġsway": 5868,
    "Ġstop": 5869,
    "Ġavailable": 5870,
    "Ġfinds": 5871,
    "ĠCar": 5872,
    "Lou": 5873,
    "Ġkisses": 5874,
    "Buddy": 5875,
    "Ġcostume": 5876,
    "ete": 5877,
    "Ġsaid": 5878,
    "Ġbuzzing": 5879,
    "ĠPig": 5880,
    "Ġpur": 5881,
    "ĠSophie": 5882,
    "ĠCaptain": 5883,
    "Ġrece": 5884,
    "ĠJacob": 5885,
    "Ġoverw": 5886,
    "ĠSkip": 5887,
    "Penny": 5888,
    "elle": 5889,
    "Ġhours": 5890,
    "Ġleave": 5891,
    "ults": 5892,
    "Ġkey": 5893,
    "Ġson": 5894,
    "Ġchicks": 5895,
    "Ġsnaps": 5896,
    "ĠTra": 5897,
    "Ġtreats": 5898,
    "Ġtroph": 5899,
    "Ġseagull": 5900,
    "Ġpacking": 5901,
    "Ġitch": 5902,
    "Ġrag": 5903,
    "Ġgorilla": 5904,
    "Ġcobweb": 5905,
    "Ġunited": 5906,
    "ĠTeddy": 5907,
    "Ġshap": 5908,
    "Ġsnap": 5909,
    "ĠAshley": 5910,
    "´": 5911,
    "Ĩ": 5912,
    "Ġs": 5913,
    "Ġm": 5914,
    "Ġnet": 5915,
    "cil": 5916,
    "Ġyaw": 5917,
    "ĠJump": 5918,
    "Pippin": 5919,
    "Ġcongratulated": 5920,
    "ĠSunday": 5921,
    "Ġcur": 5922,
    "come": 5923,
    "Ġmemories": 5924,
    "Ġclear": 5925,
    "tha": 5926,
    "Ġstomach": 5927,
    "Ġroads": 5928,
    "Max": 5929,
    "Ġsecurity": 5930,
    "il": 5931,
    "Ġwedding": 5932,
    "Ġclearly": 5933,
    "Ġcomputer": 5934,
    "Ġshock": 5935,
    "Ġcourageous": 5936,
    "Mary": 5937,
    "Ġsparkles": 5938,
    "llow": 5939,
    "Ġacted": 5940,
    "riends": 5941,
    "Ġblows": 5942,
    "Ġbas": 5943,
    "Ġappearance": 5944,
    "ĠSofia": 5945,
    "Ġpain": 5946,
    "Ġdisco": 5947,
    "rey": 5948,
    "Ġde": 5949,
    "ĠAmanda": 5950,
    "Ġsprout": 5951,
    "Ġdip": 5952,
    "ĠTweety": 5953,
    "ð": 5954,
    "Ġdel": 5955,
    "Ġnavy": 5956,
    "Ġnodded": 5957,
    "arge": 5958,
    "ĠWant": 5959,
    "ĠMindy": 5960,
    "Ġflood": 5961,
    "ĠGrace": 5962,
    "Ġcautious": 5963,
    "Ġwinner": 5964,
    "Ă": 5965,
    "Ġstudied": 5966,
    "Ġfault": 5967,
    "Ġburgers": 5968,
    "Boo": 5969,
    "Ġrespected": 5970,
    "Ġnecks": 5971,
    "Ġvehic": 5972,
    "ĠMiss": 5973,
    "Ġcount": 5974,
    "Ġbeans": 5975,
    "Ġwhine": 5976,
    "Ġcouch": 5977,
    "ighing": 5978,
    "Ġsaving": 5979,
    "Ġjets": 5980,
    "itter": 5981,
    "inny": 5982,
    "Ġnothing": 5983,
    "Excited": 5984,
    "ked": 5985,
    "Ġtype": 5986,
    "Ġdinosaurs": 5987,
    "Ġhang": 5988,
    "Ahh": 5989,
    "aws": 5990,
    "Ġselfish": 5991,
    "Ġcuddles": 5992,
    "ĠCrab": 5993,
    "Ð": 5994,
    "Ġfoolish": 5995,
    "Ġowns": 5996,
    "Ġoranges": 5997,
    "ĠLuna": 5998,
    "Ġtwins": 5999,
    "ople": 6000,
    "rn": 6001,
    "omeday": 6002,
    "Ġbeating": 6003,
    "Ġhigh": 6004,
    "Ġabo": 6005,
    "Please": 6006,
    "Squeaky": 6007,
    "Ġdied": 6008,
    "Ġpoppy": 6009,
    "Ġrespon": 6010,
    "Ġ": 6011,
    "Bo": 6012,
    "not": 6013,
    "zoom": 6014,
    "Ġneedle": 6015,
    "Ġhopped": 6016,
    "Ġsupposed": 6017,
    "Ġgoals": 6018,
    "Ġcreat": 6019,
    "Ġgoodness": 6020,
    "Ġsadder": 6021,
    "ĠFlick": 6022,
    "Ġcray": 6023,
    "Ġdots": 6024,
    "ĠGranny": 6025,
    "ÿ": 6026,
    "Ġgood": 6027,
    "Ġcream": 6028,
    "ĠPoppy": 6029,
    "Ġgre": 6030,
    "ĠSpike": 6031,
    "Ġgrip": 6032,
    "õ": 6033,
    "ĠBilly": 6034,
    "Ġideas": 6035,
    "ancy": 6036,
    "How": 6037,
    "isten": 6038,
    "urrender": 6039,
    "Ġimpatient": 6040,
    "Ġhealthy": 6041,
    "Ġvill": 6042,
    "Ġpebb": 6043,
    "Ġcontrol": 6044,
    "Ġwarmly": 6045,
    "angled": 6046,
    "Ġbackyard": 6047,
    "ĠRuth": 6048,
    "Ġinsist": 6049,
    "Ġcrowded": 6050,
    "Ġacross": 6051,
    "omb": 6052,
    "Ġsurrender": 6053,
    "Ġshould": 6054,
    "Ġfake": 6055,
    "Ġfarmers": 6056,
    "Ġclot": 6057,
    "Ġhoop": 6058,
    "ally": 6059,
    "Ġrust": 6060,
    "Ġcurtains": 6061,
    "Ġcomes": 6062,
    "ign": 6063,
    "Ġsting": 6064,
    "?!\"": 6065,
    "Ġthree": 6066,
    "ĠShadow": 6067,
    "Ġjoining": 6068,
    "Ġinstrum": 6069,
    "Ġmailed": 6070,
    "Ġbracelets": 6071,
    "Ġtoday": 6072,
    "Ġsoak": 6073,
    "quet": 6074,
    "Ġtrembled": 6075,
    "Ġthrill": 6076,
    "Ġupstairs": 6077,
    "Ġhospital": 6078,
    "rup": 6079,
    "Ġoldest": 6080,
    "Ġdiscover": 6081,
    "Ġtopp": 6082,
    "Ġlosing": 6083,
    "ĠFriend": 6084,
    "ĠJaney": 6085,
    "ĠChloe": 6086,
    "ĠFred": 6087,
    "Ġavoc": 6088,
    "Ġhel": 6089,
    "Ġcol": 6090,
    "Ġclos": 6091,
    "Ġfeeding": 6092,
    "Ġsolving": 6093,
    "l": 6094,
    "kelly": 6095,
    "Ġvalued": 6096,
    "ĠStartled": 6097,
    "Ġmysterious": 6098,
    "Ġsoldiers": 6099,
    "llen": 6100,
    "Ġpaused": 6101,
    "Ġgiraffe": 6102,
    "Ġpresents": 6103,
    "rick": 6104,
    "ile": 6105,
    "Ġp": 6106,
    "udden": 6107,
    "Ġshark": 6108,
    "Ġpossess": 6109,
    "Ġspeeding": 6110,
    "Ġcircle": 6111,
    "Ġpeaceful": 6112,
    "Ġpockets": 6113,
    "Ġshoes": 6114,
    "Ġarranged": 6115,
    "ĠI": 6116,
    "ĠGray": 6117,
    "osed": 6118,
    "Ġlipstick": 6119,
    "Ġheal": 6120,
    "Ġreflection": 6121,
    "Ġoasis": 6122,
    "rass": 6123,
    "ĠBubb": 6124,
    "!\",": 6125,
    "Ġdancer": 6126,
    "va": 6127,
    "Ġspe": 6128,
    "Ġastronaut": 6129,
    "cl": 6130,
    "Ġunderneath": 6131,
    "Ġdisappeared": 6132,
    "Ġherbs": 6133,
    "Ġmore": 6134,
    "abbit": 6135,
    "Ġblowing": 6136,
    "ica": 6137,
    "Ġpainting": 6138,
    "Ġguessed": 6139,
    "Ġfroze": 6140,
    "Ġspills": 6141,
    "Ġblonde": 6142,
    "Ġbel": 6143,
    "Ġarg": 6144,
    "Mark": 6145,
    "Ġchirp": 6146,
    "Ġask": 6147,
    "Ġteam": 6148,
    "Ġsure": 6149,
    "ĠCut": 6150,
    "Ġshrugged": 6151,
    "ly": 6152,
    "Spot": 6153,
    "Ġwhale": 6154,
    "ĠWonder": 6155,
    "Ġbreak": 6156,
    "Ġleg": 6157,
    "ĠShe": 6158,
    "Ġsell": 6159,
    "è": 6160,
    "Ġsighed": 6161,
    "undred": 6162,
    "good": 6163,
    "Ġunwra": 6164,
    "ieves": 6165,
    "Ġowned": 6166,
    "Ġgrowled": 6167,
    "avy": 6168,
    "Ġradish": 6169,
    "Ġspringing": 6170,
    "Ġprettier": 6171,
    "Ġgathered": 6172,
    "Ġzookeepers": 6173,
    "Ġsat": 6174,
    "In": 6175,
    "ero": 6176,
    "ĠFarmer": 6177,
    "ĠOh": 6178,
    "Ġearly": 6179,
    "Ġseeker": 6180,
    "ĠJulie": 6181,
    "aul": 6182,
    "Ġstriking": 6183,
    "Ġdoll": 6184,
    "ĠNancy": 6185,
    "Ġmelted": 6186,
    "ĠKatie": 6187,
    "Ġpride": 6188,
    "Ġparade": 6189,
    "Ġrepl": 6190,
    "Ġgrab": 6191,
    "Should": 6192,
    "Ġachieved": 6193,
    "Ġenthusiastic": 6194,
    "Ġoffice": 6195,
    "Ġchanges": 6196,
    "lew": 6197,
    "Ġsoftly": 6198,
    "Ġ10": 6199,
    "Ġcompetit": 6200,
    "Ġcontest": 6201,
    "§": 6202,
    "Ġtwirled": 6203,
    "Ġproper": 6204,
    "ĠFiona": 6205,
    "Ġyelp": 6206,
    "shmallow": 6207,
    "Ġty": 6208,
    "Ġfragile": 6209,
    "Ġpouring": 6210,
    "Ok": 6211,
    "Ġtalent": 6212,
    "des": 6213,
    "ĠAbby": 6214,
    "Ġbeaming": 6215,
    "ĠFlop": 6216,
    "Ġracer": 6217,
    "Ġcause": 6218,
    "ĠAlong": 6219,
    "Ġgoodbye": 6220,
    "Ġarguing": 6221,
    "ĠCurious": 6222,
    "ĠRon": 6223,
    "Ġchoo": 6224,
    "Ġwords": 6225,
    "Ġsear": 6226,
    "Ġfine": 6227,
    "Meanwhile": 6228,
    "Ġskipping": 6229,
    "Ġmoder": 6230,
    "ĠMint": 6231,
    "oss": 6232,
    "Ġdeeper": 6233,
    "Ġberry": 6234,
    "althy": 6235,
    "Ġshouting": 6236,
    "by": 6237,
    "ĠMore": 6238,
    "Ġben": 6239,
    "munk": 6240,
    "à": 6241,
    "Ġdisappointed": 6242,
    "kend": 6243,
    "Ġstrum": 6244,
    "Ġeas": 6245,
    "Ġreading": 6246,
    "Ġshouldn": 6247,
    "Ġrained": 6248,
    "Uncle": 6249,
    "ugg": 6250,
    "ĠCari": 6251,
    "Ġfins": 6252,
    "ĠMaria": 6253,
    "ĠWell": 6254,
    "Ġcloths": 6255,
    "Ġstair": 6256,
    "Ġglittering": 6257,
    "Ġbird": 6258,
    "Ġsteak": 6259,
    "working": 6260,
    "Ġtie": 6261,
    "ow": 6262,
    "Ġdollar": 6263,
    "ĠNurse": 6264,
    "dy": 6265,
    "Ġhad": 6266,
    "iles": 6267,
    "Ġtoppings": 6268,
    "Ġconfident": 6269,
    "Ġmag": 6270,
    "Ow": 6271,
    "Bob": 6272,
    "Ġweak": 6273,
    "icking": 6274,
    "Three": 6275,
    "Ġsuggestion": 6276,
    "ĠLou": 6277,
    "Ġincluded": 6278,
    "Ġmis": 6279,
    "umm": 6280,
    "Ġmedals": 6281,
    "Ġdie": 6282,
    "ĠOwl": 6283,
    "Ġtomatoes": 6284,
    "Ġtrain": 6285,
    "Ġbest": 6286,
    "Tony": 6287,
    "ĠHo": 6288,
    "Ġcrew": 6289,
    "icked": 6290,
    "Ġapples": 6291,
    "Ġstun": 6292,
    "Ġsnat": 6293,
    "ng": 6294,
    "ggy": 6295,
    "Ġnaughty": 6296,
    "ĠWhy": 6297,
    "Ġcold": 6298,
    "Ġcoats": 6299,
    "Ġswimmer": 6300,
    "ĠPeople": 6301,
    "Ġprinting": 6302,
    "Ġsoon": 6303,
    "Ġquestioned": 6304,
    "Ġcounting": 6305,
    "Ġslow": 6306,
    "Ġadded": 6307,
    "Ġboss": 6308,
    "Ġcleared": 6309,
    "Ġreversed": 6310,
    "ivery": 6311,
    "Ġtalks": 6312,
    "Ġpotatoes": 6313,
    "Ġturn": 6314,
    "Ġours": 6315,
    "Ġcam": 6316,
    "ĠSparkle": 6317,
    "ĠRub": 6318,
    "Ġpositive": 6319,
    "Ġstethoscope": 6320,
    "Ġself": 6321,
    "Zero": 6322,
    "rm": 6323,
    "ĠPeep": 6324,
    "Ġreaches": 6325,
    "washer": 6326,
    "Ġfaint": 6327,
    "itty": 6328,
    "Momma": 6329,
    "Ġearth": 6330,
    "Mama": 6331,
    "È": 6332,
    "ĠMommy": 6333,
    "ĠStep": 6334,
    "Ġlooks": 6335,
    "Ġpastels": 6336,
    "Ġhawk": 6337,
    "ama": 6338,
    "Ġhelmet": 6339,
    "Ġcactus": 6340,
    "Ġconcentr": 6341,
    "?âĢĿ": 6342,
    "sed": 6343,
    "Ġcreek": 6344,
    "Ġerasers": 6345,
    "ĠPatch": 6346,
    "Ġcloser": 6347,
    "Ġscrew": 6348,
    "Ġappear": 6349,
    "Ġfright": 6350,
    "Ġsurprising": 6351,
    "ĠCharlie": 6352,
    "Ġachie": 6353,
    "Ġsee": 6354,
    "unes": 6355,
    "aps": 6356,
    "Cat": 6357,
    "shm": 6358,
    "ave": 6359,
    "Ġtop": 6360,
    "oop": 6361,
    "Ġknocking": 6362,
    "Ġpapa": 6363,
    "aybe": 6364,
    "Ġwobbled": 6365,
    "ĠTaking": 6366,
    "Ġweeping": 6367,
    "Ġtry": 6368,
    "Ġcowb": 6369,
    "Ġwalked": 6370,
    "Ġexclaimed": 6371,
    "Ġmicrowave": 6372,
    "Ġarm": 6373,
    "Ġmail": 6374,
    "ĠAnn": 6375,
    "Ġso": 6376,
    "Ġunique": 6377,
    "Ġowners": 6378,
    "Michael": 6379,
    "Ġmad": 6380,
    "Ġblack": 6381,
    "Ġtw": 6382,
    "Ġdrawers": 6383,
    "Ġhoriz": 6384,
    "ĠLeave": 6385,
    "Ġtease": 6386,
    "Ġlead": 6387,
    "Ġwound": 6388,
    "Ġminded": 6389,
    "Ġfog": 6390,
    "Ew": 6391,
    "Ġbending": 6392,
    "Ġwandered": 6393,
    "nder": 6394,
    "Û": 6395,
    "Ġrepairing": 6396,
    "ĠGilly": 6397,
    "chanic": 6398,
    "Ġsuccess": 6399,
    "Ġcrowns": 6400,
    "Ġaccidentally": 6401,
    "ĠKaty": 6402,
    "ummy": 6403,
    "ĠJilly": 6404,
    "Ġraising": 6405,
    "Ġunl": 6406,
    "Ã": 6407,
    "Ġanimal": 6408,
    "W": 6409,
    "Ġfriendships": 6410,
    "ĠNext": 6411,
    "...": 6412,
    "Ġfuture": 6413,
    "Ġcoach": 6414,
    "ĠEva": 6415,
    "Ġbund": 6416,
    "Ġent": 6417,
    "Ġanytime": 6418,
    "fully": 6419,
    "Ġflute": 6420,
    "Ġwinding": 6421,
    "ops": 6422,
    "Ġspell": 6423,
    "Ġleapt": 6424,
    "Ġfaith": 6425,
    "Ġfridge": 6426,
    "uddenly": 6427,
    "Ġtornado": 6428,
    "Ġgi": 6429,
    "Ġapron": 6430,
    "Ġwander": 6431,
    "re": 6432,
    "Ġpresses": 6433,
    "Ġsour": 6434,
    "ĠSusie": 6435,
    "issors": 6436,
    "Ġpoison": 6437,
    "Ġremembers": 6438,
    "Bang": 6439,
    "nd": 6440,
    "ĠHoot": 6441,
    "Ġhugs": 6442,
    "kele": 6443,
    "Ġtravelling": 6444,
    "ten": 6445,
    "Ġmath": 6446,
    "year": 6447,
    "Ġinsisting": 6448,
    "ĠBen": 6449,
    "Ġthrown": 6450,
    "Ġcreative": 6451,
    "aser": 6452,
    "Ġbow": 6453,
    "ĠSoon": 6454,
    "anges": 6455,
    "ies": 6456,
    "pec": 6457,
    "Ġmaybe": 6458,
    "Ġwild": 6459,
    "Wow": 6460,
    "reek": 6461,
    "ĠBl": 6462,
    "Ġpuzzle": 6463,
    "ĠKayla": 6464,
    "Ġdirtier": 6465,
    "Ġafford": 6466,
    "ĠAre": 6467,
    "Ġnews": 6468,
    "Ġlamb": 6469,
    "Ġorange": 6470,
    "Ġstuffed": 6471,
    "on": 6472,
    "Ġsprayed": 6473,
    "Ġyouth": 6474,
    "icy": 6475,
    "ĠPepper": 6476,
    "Ġopportunity": 6477,
    "ĠTri": 6478,
    "Ġrushed": 6479,
    "Ġshe": 6480,
    "Ġokay": 6481,
    "anna": 6482,
    "igning": 6483,
    "ailable": 6484,
    "issa": 6485,
    "Ġaside": 6486,
    "ĠGina": 6487,
    "ĠToo": 6488,
    "inkle": 6489,
    "Ġpatted": 6490,
    "utter": 6491,
    "isses": 6492,
    "ĠAlways": 6493,
    "Whiskers": 6494,
    "Ġwearing": 6495,
    "Ġduckling": 6496,
    "ě": 6497,
    "Ġbake": 6498,
    "Ġprizes": 6499,
    "Ġden": 6500,
    "ó": 6501,
    "Ġworn": 6502,
    "Ġpuppet": 6503,
    "ĠHenry": 6504,
    "Stay": 6505,
    "Ġbeg": 6506,
    "Ġforget": 6507,
    "Ġplayful": 6508,
    "erries": 6509,
    "Ġtwirl": 6510,
    "Ġuncomfortable": 6511,
    "Ġcrumb": 6512,
    "Ġtore": 6513,
    "head": 6514,
    "Olive": 6515,
    "ĠPlaying": 6516,
    "Ġtractor": 6517,
    "Ġshiny": 6518,
    "Ġnot": 6519,
    "Now": 6520,
    "Ġbicycle": 6521,
    "ĠThey": 6522,
    "awn": 6523,
    "Ġapolog": 6524,
    "ĠMonkey": 6525,
    "led": 6526,
    "affle": 6527,
    "Ġtelling": 6528,
    "Ġsoil": 6529,
    "ma": 6530,
    "Ġbent": 6531,
    "Beth": 6532,
    "ido": 6533,
    "Ġmuffin": 6534,
    "ream": 6535,
    "Ġunicorn": 6536,
    "Ġgloves": 6537,
    "Ġraise": 6538,
    "iable": 6539,
    "ĠAndy": 6540,
    "ĠLeo": 6541,
    "Ġsuggest": 6542,
    "Arrr": 6543,
    "man": 6544,
    "Ġstill": 6545,
    "ings": 6546,
    "Ġsouvenir": 6547,
    "ucy": 6548,
    "Ġshave": 6549,
    "ĠBee": 6550,
    "Ġgrows": 6551,
    "Ġfirefly": 6552,
    "Ġgoodbyes": 6553,
    "Ġscampered": 6554,
    "Ġfreeze": 6555,
    "Ġph": 6556,
    "Ġhowever": 6557,
    "Ġscissors": 6558,
    "Ġmission": 6559,
    "ĠRain": 6560,
    "Ġstroke": 6561,
    "Ġrelaxed": 6562,
    "Ġbroccoli": 6563,
    "ilities": 6564,
    "appy": 6565,
    "Ġwig": 6566,
    "Ġsnowflakes": 6567,
    "Ġrecognized": 6568,
    "½": 6569,
    "Ġfit": 6570,
    "Ġwhiskers": 6571,
    "ĠWhee": 6572,
    "Ġkissing": 6573,
    "raid": 6574,
    "Ġbin": 6575,
    "Ġbuckled": 6576,
    "ro": 6577,
    "Ġcomf": 6578,
    "i": 6579,
    "Q": 6580,
    "Ġcord": 6581,
    "Ġcheat": 6582,
    "Ġtiger": 6583,
    "Ġhorizon": 6584,
    "Ġglowing": 6585,
    "Ġmeals": 6586,
    "essie": 6587,
    "Still": 6588,
    "Ġwoke": 6589,
    "Ġshrinking": 6590,
    "Ġsnee": 6591,
    "Ġmice": 6592,
    "Ġcact": 6593,
    "Br": 6594,
    "Ġteams": 6595,
    "Ġcomb": 6596,
    "Ġmarker": 6597,
    "Ġcosy": 6598,
    "Ġagainst": 6599,
    "unnies": 6600,
    "ĠPinch": 6601,
    "Ġdesperate": 6602,
    "Ġsigns": 6603,
    "ulb": 6604,
    "ĠOff": 6605,
    "Ġvelvet": 6606,
    "ken": 6607,
    "Ġunderstand": 6608,
    "Ġcontin": 6609,
    "walk": 6610,
    "eath": 6611,
    "annah": 6612,
    "ately": 6613,
    "Ġvillag": 6614,
    "ipp": 6615,
    "u": 6616,
    "Ġlearning": 6617,
    "Ġrecipe": 6618,
    "Ġnod": 6619,
    "Ġclouds": 6620,
    "Ġcompete": 6621,
    "Ġrustling": 6622,
    "ĠCra": 6623,
    "affes": 6624,
    "air": 6625,
    "People": 6626,
    "Ġate": 6627,
    "Ġmic": 6628,
    "Ġcheerful": 6629,
    "^": 6630,
    "Ġtaking": 6631,
    "Little": 6632,
    "iv": 6633,
    "Ġgall": 6634,
    "Ġscratches": 6635,
    "Ġsplashes": 6636,
    "Ġyour": 6637,
    "Ġglue": 6638,
    "Ġpurp": 6639,
    "Ġspend": 6640,
    "ĠChick": 6641,
    "Ġhangers": 6642,
    "lle": 6643,
    "inch": 6644,
    "Ġostri": 6645,
    "Ġcries": 6646,
    "inted": 6647,
    "cope": 6648,
    "amboo": 6649,
    "Ġrays": 6650,
    "unk": 6651,
    "Ġrul": 6652,
    "Ġdisappearing": 6653,
    "Ġprints": 6654,
    "Ġleans": 6655,
    "Ġfrown": 6656,
    "ĠAlex": 6657,
    "Ġas": 6658,
    "Ġsheep": 6659,
    "Ġsunshine": 6660,
    "ais": 6661,
    "Ġnewsp": 6662,
    "Ġsizes": 6663,
    "ik": 6664,
    "ased": 6665,
    "Ġdeter": 6666,
    "ĠJody": 6667,
    "Ġspells": 6668,
    "Ġafar": 6669,
    "Ġweap": 6670,
    "Baa": 6671,
    "Ġclips": 6672,
    "Ġsnake": 6673,
    "Ġrefreshing": 6674,
    "Ġtells": 6675,
    "ĠClose": 6676,
    "ĠThose": 6677,
    "Ġchallen": 6678,
    "fa": 6679,
    "Ġsteel": 6680,
    "anie": 6681,
    "etah": 6682,
    "Bu": 6683,
    "Ġpuppies": 6684,
    "Ġsqueezed": 6685,
    "Ġsteps": 6686,
    "boo": 6687,
    "Afterwards": 6688,
    "Finn": 6689,
    "Ġcarts": 6690,
    "ĠRusty": 6691,
    "Dino": 6692,
    "Ġhaird": 6693,
    "Ġventured": 6694,
    "ĠSqueaky": 6695,
    "Ġrubbing": 6696,
    "he": 6697,
    "ering": 6698,
    "bye": 6699,
    "ĠIzzy": 6700,
    "Ġc": 6701,
    "Ġscrub": 6702,
    "Ġleft": 6703,
    "or": 6704,
    "ppies": 6705,
    "Ġhappened": 6706,
    "Ġkind": 6707,
    "ĠSl": 6708,
    "Ġdress": 6709,
    "Ooh": 6710,
    "Ġrepeated": 6711,
    "ĠJenna": 6712,
    "ell": 6713,
    "ict": 6714,
    "Ġtried": 6715,
    "Ġdizzy": 6716,
    "Ġvinegar": 6717,
    "ĠYummy": 6718,
    "Ġmint": 6719,
    "Ġfelt": 6720,
    "Ġreal": 6721,
    "Ġsoaked": 6722,
    "Ġpicnic": 6723,
    "Ġwindy": 6724,
    "Ġpassports": 6725,
    "Ġbig": 6726,
    "Ġpale": 6727,
    "Ġairport": 6728,
    "Ġscreamed": 6729,
    "zzy": 6730,
    "Ġroots": 6731,
    "Ġvests": 6732,
    "Ġdou": 6733,
    "aged": 6734,
    "Ġgolden": 6735,
    "ael": 6736,
    "Ġtaxi": 6737,
    "Ġattach": 6738,
    "Ġpre": 6739,
    "Ġobserving": 6740,
    "Ġable": 6741,
    "Ġdaring": 6742,
    "antha": 6743,
    "Joe": 6744,
    "Ġis": 6745,
    "After": 6746,
    "Ġenter": 6747,
    "Ġadds": 6748,
    "ĠBumpy": 6749,
    "ĠInky": 6750,
    "red": 6751,
    "Ġdoorbell": 6752,
    "ĠShark": 6753,
    "Ġjet": 6754,
    "Ġpunished": 6755,
    "Bobo": 6756,
    "ĠWilly": 6757,
    "ĠUn": 6758,
    "ĠRh": 6759,
    "Oh": 6760,
    "Stop": 6761,
    "ĠBut": 6762,
    "Ġdemand": 6763,
    "ocked": 6764,
    "Ġcolour": 6765,
    "Ġhappiest": 6766,
    "ther": 6767,
    "Ġnote": 6768,
    "Ġengine": 6769,
    "ucked": 6770,
    "ĠSometimes": 6771,
    "g": 6772,
    "Ġonce": 6773,
    "ĠVivi": 6774,
    "ĠRalph": 6775,
    "Ġthorn": 6776,
    "Ġdrum": 6777,
    "Ġmilk": 6778,
    "ce": 6779,
    "Ġraining": 6780,
    "Ġthinks": 6781,
    "Ġtiss": 6782,
    "ettle": 6783,
    "Ġdecoration": 6784,
    "Ġviolin": 6785,
    "ĠLion": 6786,
    "Ġmiracle": 6787,
    "Ġpenguin": 6788,
    "Woof": 6789,
    "ger": 6790,
    "Ġmarvel": 6791,
    "Ġpengu": 6792,
    "Yeah": 6793,
    "ating": 6794,
    "Ġbehaved": 6795,
    "Ġner": 6796,
    "Ġshampoo": 6797,
    "ĠAlly": 6798,
    "×": 6799,
    "gl": 6800,
    "Bella": 6801,
    "Ġorder": 6802,
    "isa": 6803,
    "Ġbandages": 6804,
    "lt": 6805,
    "Ġstrike": 6806,
    "Ġcorner": 6807,
    "Ġgrocery": 6808,
    "Ġcuddly": 6809,
    "¸": 6810,
    "Ġsqueal": 6811,
    "Ġsnack": 6812,
    "oger": 6813,
    "ĠEliz": 6814,
    "Want": 6815,
    "Ġexha": 6816,
    "Ġmach": 6817,
    "Ġreef": 6818,
    "Ġtem": 6819,
    "Ġvend": 6820,
    "hing": 6821,
    "ĠJojo": 6822,
    "Ġspl": 6823,
    "Ġtid": 6824,
    "Ġhear": 6825,
    "ny": 6826,
    "Ġdoctor": 6827,
    "Ġpush": 6828,
    "Ġzipp": 6829,
    "Ġmissile": 6830,
    "Ġpersistence": 6831,
    "dom": 6832,
    "ĠFreddy": 6833,
    "ater": 6834,
    "Ġwell": 6835,
    "Ġveil": 6836,
    "Ġbrilliant": 6837,
    "Moral": 6838,
    "Ġlaughter": 6839,
    "Ġblow": 6840,
    "Ġdelicate": 6841,
    "ĠToto": 6842,
    "Ġruler": 6843,
    "using": 6844,
    "oin": 6845,
    "Ġmechanic": 6846,
    "Ġsuc": 6847,
    "Luckily": 6848,
    "Ġhonesty": 6849,
    "Ġfriendly": 6850,
    "ones": 6851,
    "ĠFuzzy": 6852,
    "ĠSir": 6853,
    "ĠCara": 6854,
    "Ġcolours": 6855,
    "Ġscowl": 6856,
    "ĠHis": 6857,
    "Ġen": 6858,
    "ĠThis": 6859,
    "Ġacorn": 6860,
    "oomy": 6861,
    "ision": 6862,
    "Ġjump": 6863,
    "Ġsight": 6864,
    "aren": 6865,
    "Ġsausages": 6866,
    "Ġgrandma": 6867,
    "ĠThen": 6868,
    "Ġchop": 6869,
    "Ġknown": 6870,
    "iens": 6871,
    "ted": 6872,
    "ĠCharlotte": 6873,
    "'m": 6874,
    "Ġapplauding": 6875,
    "Ġwat": 6876,
    "rot": 6877,
    "Ġhunt": 6878,
    "Ġunderground": 6879,
    "Ġimprove": 6880,
    "Ġwallet": 6881,
    "Ġspin": 6882,
    "Ġacce": 6883,
    "child": 6884,
    "Ġopinion": 6885,
    "Ġdecor": 6886,
    "una": 6887,
    "Ġer": 6888,
    "Ġdeliver": 6889,
    "Ġbrave": 6890,
    "ippy": 6891,
    "Ġreply": 6892,
    "Ġwh": 6893,
    "Ġchalk": 6894,
    "ron": 6895,
    "orking": 6896,
    "Ġgiven": 6897,
    "onna": 6898,
    "Ġdri": 6899,
    "Ġbaby": 6900,
    "Sarah": 6901,
    "Hold": 6902,
    "Ġstyles": 6903,
    "Ġpun": 6904,
    "Ġspread": 6905,
    "Ġyellow": 6906,
    "Ġpersistent": 6907,
    "Excuse": 6908,
    "chief": 6909,
    "ump": 6910,
    "ĠZee": 6911,
    "Ġfi": 6912,
    "Ġgone": 6913,
    "Ġsolved": 6914,
    "ĠHop": 6915,
    "Ġpromised": 6916,
    "Ġmaps": 6917,
    "Ġoysters": 6918,
    "ĠSamantha": 6919,
    "Ġmel": 6920,
    "Ġlend": 6921,
    "Ġphones": 6922,
    "Ġmattered": 6923,
    "Ġenv": 6924,
    "ados": 6925,
    "Ġangry": 6926,
    "Ġprob": 6927,
    "ĠHug": 6928,
    "ĠSing": 6929,
    "Ġbillboard": 6930,
    "Ġunsure": 6931,
    "ĠBaby": 6932,
    "Ġsirens": 6933,
    "pe": 6934,
    "Ġzigzags": 6935,
    "ĠPeace": 6936,
    "Ġscores": 6937,
    "raged": 6938,
    "Ġneeded": 6939,
    "fic": 6940,
    "Ġbicy": 6941,
    "Ġrecommended": 6942,
    "Ġlower": 6943,
    "Ġrushing": 6944,
    "Ġholding": 6945,
    "Ġsearching": 6946,
    "Ġburying": 6947,
    "ube": 6948,
    "Ġstood": 6949,
    "Ġsnorted": 6950,
    "Danger": 6951,
    "Ro": 6952,
    "hny": 6953,
    "Ġdependable": 6954,
    "ed": 6955,
    "Ġeverywhere": 6956,
    "Ġattract": 6957,
    "Ġagrees": 6958,
    "ebecca": 6959,
    "res": 6960,
    "Ġphot": 6961,
    "Ġstuff": 6962,
    "Ġsnuck": 6963,
    "Ġmeal": 6964,
    "Sleep": 6965,
    "æ": 6966,
    "Ġstreets": 6967,
    "Pete": 6968,
    "Ġcovering": 6969,
    "Ġgrabs": 6970,
    "ond": 6971,
    "Ġgive": 6972,
    "ĠEach": 6973,
    "Ġruff": 6974,
    "Ġdefeated": 6975,
    "Ġcute": 6976,
    "Ġcle": 6977,
    "Ġdanced": 6978,
    "ext": 6979,
    "Ġmade": 6980,
    "cused": 6981,
    "Ġgem": 6982,
    "Ġchewed": 6983,
    "Take": 6984,
    "Ġgate": 6985,
    "Ġcollecting": 6986,
    "Ġexpl": 6987,
    "Ġraft": 6988,
    "ğ": 6989,
    "Ġgoodnight": 6990,
    "Ó": 6991,
    "Ġcri": 6992,
    "vent": 6993,
    "Ġsandbox": 6994,
    "Ġrug": 6995,
    "Ġstarfish": 6996,
    "ĠCuddles": 6997,
    "usan": 6998,
    "Ġyelped": 6999,
    "Ġup": 7000,
    "Ġdrinking": 7001,
    "leep": 7002,
    "ccoli": 7003,
    "Ġsend": 7004,
    "Ġscen": 7005,
    "Ġmot": 7006,
    "Ġwondering": 7007,
    "Ġscrambled": 7008,
    "Ġcreep": 7009,
    "Ġwaiter": 7010,
    "Ġh": 7011,
    "Wh": 7012,
    "Grandpa": 7013,
    "ĠSpirit": 7014,
    "Ġgreet": 7015,
    "Ġheart": 7016,
    "Ġedges": 7017,
    "Ġfreez": 7018,
    "Ġbubble": 7019,
    "repeat": 7020,
    "Ġalready": 7021,
    "brush": 7022,
    "Ġpebbles": 7023,
    "Ġsqueezing": 7024,
    "Ġbread": 7025,
    "Ġprayed": 7026,
    "Ġapologised": 7027,
    "Ġstamp": 7028,
    "Ġstory": 7029,
    "Ġdetect": 7030,
    "Ġkilled": 7031,
    "Ġlimp": 7032,
    "Ġquar": 7033,
    "Ġearthquake": 7034,
    "ĠMatch": 7035,
    "Ġripe": 7036,
    "Ġgoal": 7037,
    "Ġphone": 7038,
    "oman": 7039,
    "Ġcarpet": 7040,
    "ć": 7041,
    "rosty": 7042,
    "ĠLung": 7043,
    "ĠVelvet": 7044,
    "Ġansw": 7045,
    "Ġdisappear": 7046,
    "ĠBecause": 7047,
    "Ġat": 7048,
    "Ġleaking": 7049,
    "Ellie": 7050,
    "Ġfirm": 7051,
    "Ġdamaged": 7052,
    "As": 7053,
    "Ġlied": 7054,
    "ulpture": 7055,
    "Ġyacht": 7056,
    "iolet": 7057,
    "ĠRobby": 7058,
    "Ġdumb": 7059,
    "Close": 7060,
    "Ġtruly": 7061,
    "xible": 7062,
    "ĠEmily": 7063,
    "Ġsleepy": 7064,
    "Ġscolds": 7065,
    "ani": 7066,
    "Ġmoved": 7067,
    "Ġbends": 7068,
    "Ġv": 7069,
    "akes": 7070,
    "Ġmesses": 7071,
    "gy": 7072,
    "Ġrode": 7073,
    "Bear": 7074,
    "Because": 7075,
    "ebook": 7076,
    "irts": 7077,
    "ĠSte": 7078,
    "ģ": 7079,
    "Ġbringing": 7080,
    "Ġcra": 7081,
    "Ġins": 7082,
    "le": 7083,
    "aghetti": 7084,
    "Shoo": 7085,
    "Ġyes": 7086,
    "ĠOpen": 7087,
    "...\"": 7088,
    "Ġpainter": 7089,
    "Ġjournal": 7090,
    "orn": 7091,
    "it": 7092,
    "ragon": 7093,
    "avi": 7094,
    "sorry": 7095,
    "`": 7096,
    "ĠAfter": 7097,
    "Surprise": 7098,
    "ĠGary": 7099,
    "Ġblond": 7100,
    "ĠMomo": 7101,
    "ĠYour": 7102,
    "Ġpouted": 7103,
    "Ġscrewd": 7104,
    "Ġchoose": 7105,
    "Ġlock": 7106,
    "Ġshade": 7107,
    "Ġgr": 7108,
    "Ġeaten": 7109,
    "Ġintellig": 7110,
    "George": 7111,
    "ĠCo": 7112,
    "Ġsunset": 7113,
    "Ġlips": 7114,
    "Ġscooters": 7115,
    "Wally": 7116,
    "Ġblinking": 7117,
    "aved": 7118,
    "Ġfirefighters": 7119,
    "Slow": 7120,
    "ventually": 7121,
    "ĠWait": 7122,
    "ĠMake": 7123,
    "ĠOur": 7124,
    "Ġclapped": 7125,
    "Ġserious": 7126,
    "Ġtickets": 7127,
    "Ġmembers": 7128,
    "ipes": 7129,
    "Ġheard": 7130,
    "Ġharm": 7131,
    "Ġquacked": 7132,
    "Ġsausage": 7133,
    "ĠMixy": 7134,
    "Ġlapt": 7135,
    "ü": 7136,
    "Ġsore": 7137,
    "ĠWally": 7138,
    "Ġjugg": 7139,
    "ept": 7140,
    "Ġcurious": 7141,
    "unnel": 7142,
    "Ch": 7143,
    "Ġhit": 7144,
    "ĠTia": 7145,
    "Ġmayor": 7146,
    "Ġbud": 7147,
    "pted": 7148,
    "Ġpol": 7149,
    "Ġwrapping": 7150,
    "Ġdrew": 7151,
    "Ġvideo": 7152,
    "Ġnoon": 7153,
    "ĠJelly": 7154,
    "Ġeven": 7155,
    "Ġdreams": 7156,
    "era": 7157,
    "Ġscattering": 7158,
    "Ġnoisy": 7159,
    "Ġspot": 7160,
    "ular": 7161,
    "ĠRobert": 7162,
    "ha": 7163,
    "Ġfantastic": 7164,
    "aced": 7165,
    "Ġstrangers": 7166,
    "ush": 7167,
    "Ġporch": 7168,
    "ebra": 7169,
    "Ġshouted": 7170,
    "ugging": 7171,
    "Ġfort": 7172,
    "ĠIcy": 7173,
    "Ġstadium": 7174,
    "imb": 7175,
    "Ġnuts": 7176,
    "Ġtutor": 7177,
    "ĥ": 7178,
    "ĠElephant": 7179,
    "Ġstripes": 7180,
    "Ġleaf": 7181,
    "Ġread": 7182,
    "Ġkinds": 7183,
    "Ġkneeled": 7184,
    "amie": 7185,
    "Ġclosed": 7186,
    "ĠOK": 7187,
    "Ġtravelled": 7188,
    "Ava": 7189,
    "Ġtheir": 7190,
    "Ġcrisp": 7191,
    "ĠMouse": 7192,
    "Ġflies": 7193,
    "Lia": 7194,
    "Ġim": 7195,
    "Ġmelody": 7196,
    "Ġjacket": 7197,
    "Ġdrinks": 7198,
    "Ġspit": 7199,
    "Ġfool": 7200,
    "Ġcarrot": 7201,
    "Ġfind": 7202,
    "Ġgates": 7203,
    "ky": 7204,
    "Ġrocking": 7205,
    "Ġage": 7206,
    "Ġbottle": 7207,
    "ĠHerb": 7208,
    "Ġwinning": 7209,
    "Ġboil": 7210,
    "Ġdive": 7211,
    "Ġpeanuts": 7212,
    "ĠGill": 7213,
    "Ġlaces": 7214,
    "Ġleather": 7215,
    "uper": 7216,
    "Ġlearnt": 7217,
    "uppy": 7218,
    "Ġlicked": 7219,
    "Ġnecklaces": 7220,
    "boards": 7221,
    "ĠAnnabelle": 7222,
    "ners": 7223,
    "Ġsteam": 7224,
    "Ġthunder": 7225,
    "Ġforward": 7226,
    "com": 7227,
    "Ġreliable": 7228,
    "Ġlad": 7229,
    "Ġtickle": 7230,
    "Johnny": 7231,
    "Ġharbor": 7232,
    "Ġstars": 7233,
    "Ġbleed": 7234,
    "ctric": 7235,
    "Ġcompanion": 7236,
    "ipe": 7237,
    "Ġfold": 7238,
    "Ġeight": 7239,
    "Ġzipped": 7240,
    "Ġtransform": 7241,
    "solut": 7242,
    "Ġdirty": 7243,
    "Ġjog": 7244,
    "ĠLulu": 7245,
    "ĠListen": 7246,
    "Jump": 7247,
    "Ġsoaring": 7248,
    "Spe": 7249,
    "Ġsorts": 7250,
    "ĠEd": 7251,
    "Those": 7252,
    "Ġtight": 7253,
    "Ġalarm": 7254,
    "Abigail": 7255,
    "vision": 7256,
    "itched": 7257,
    "hn": 7258,
    "Ġdiscovering": 7259,
    "Ġpupil": 7260,
    "Ġpermission": 7261,
    "Ġatt": 7262,
    "ĠFlutter": 7263,
    "Ġdrifted": 7264,
    "Ġfirefighter": 7265,
    "etchup": 7266,
    "Ġbiggest": 7267,
    "bble": 7268,
    "Ġting": 7269,
    "idy": 7270,
    "river": 7271,
    "uing": 7272,
    "Ġasked": 7273,
    "erest": 7274,
    "Yummy": 7275,
    "Ġgroup": 7276,
    "ul": 7277,
    "reci": 7278,
    "corn": 7279,
    "Ġkissed": 7280,
    "Ġpracticed": 7281,
    "Ġsneaked": 7282,
    "Ġund": 7283,
    "ra": 7284,
    "ĠLand": 7285,
    "aky": 7286,
    "Ġcountries": 7287,
    "Ġspark": 7288,
    "Ġcared": 7289,
    "Gra": 7290,
    "ola": 7291,
    "Ġfarm": 7292,
    "Ġsoldier": 7293,
    "Ġbeneath": 7294,
    "Ġmonkey": 7295,
    "ember": 7296,
    "Ġpeach": 7297,
    "Ġconvinced": 7298,
    "uring": 7299,
    "Ġbush": 7300,
    "Ġcrunch": 7301,
    "ĠPipp": 7302,
    "Am": 7303,
    "Ġpull": 7304,
    "Open": 7305,
    "Ġgrowing": 7306,
    "Ġrhythm": 7307,
    "Ġdigg": 7308,
    "Sp": 7309,
    "Ġmany": 7310,
    "Ġahead": 7311,
    "Ġmem": 7312,
    "Ġwagging": 7313,
    "Ġimaginations": 7314,
    "abel": 7315,
    "aturday": 7316,
    "Ġmor": 7317,
    "Ġincrease": 7318,
    "Ġbaked": 7319,
    "Ġbond": 7320,
    "Ġsnowflake": 7321,
    "ĠPolly": 7322,
    "ĠEx": 7323,
    "Ġsuck": 7324,
    "Ġscarecrow": 7325,
    "Ġmoons": 7326,
    "Ġpleasure": 7327,
    "go": 7328,
    "Ġcoughed": 7329,
    "Ġpassenger": 7330,
    "Ġar": 7331,
    "Ġve": 7332,
    "Shh": 7333,
    "Ġbrain": 7334,
    "Ġwiz": 7335,
    "Ġscratch": 7336,
    "Ġplayroom": 7337,
    "ĠPoor": 7338,
    "ouraged": 7339,
    "Ġcleaner": 7340,
    "ĠCle": 7341,
    "Ġclapping": 7342,
    "Mia": 7343,
    "usion": 7344,
    "Ġyield": 7345,
    "Ġque": 7346,
    "Ġmust": 7347,
    "Ġmuff": 7348,
    "ibly": 7349,
    "ian": 7350,
    "ĠSue": 7351,
    "Ġwo": 7352,
    "Ġbucket": 7353,
    "Ġhealthier": 7354,
    "Ġcafe": 7355,
    "Ġshrugs": 7356,
    "Yesterday": 7357,
    "Ġcaulif": 7358,
    "Shrink": 7359,
    "Ġless": 7360,
    "ĉ": 7361,
    "Tilly": 7362,
    "Ġsatisfa": 7363,
    "Ġflower": 7364,
    "Ġworms": 7365,
    "ory": 7366,
    "Ġmosquito": 7367,
    "iskers": 7368,
    "Ġglee": 7369,
    "Ġcolder": 7370,
    "ĠCr": 7371,
    "Susie": 7372,
    "ĠChip": 7373,
    "Ġtries": 7374,
    "Ġmatey": 7375,
    "Ġsearched": 7376,
    "ose": 7377,
    "Ġanchor": 7378,
    "Ġeither": 7379,
    "Ġthicker": 7380,
    "Ġblown": 7381,
    "Ġlibrary": 7382,
    "Ġchews": 7383,
    "Ġplay": 7384,
    "Ġmuseum": 7385,
    "Ġcroaked": 7386,
    "Ġsleep": 7387,
    "Ab": 7388,
    "Ġrad": 7389,
    "ĠBirds": 7390,
    "Ġtrusts": 7391,
    "Ġjing": 7392,
    "Ġbox": 7393,
    "Ġled": 7394,
    "Ġants": 7395,
    "Ġswimsuit": 7396,
    "',": 7397,
    "rec": 7398,
    "ĠMoon": 7399,
    "Ġimproving": 7400,
    "ror": 7401,
    "ff": 7402,
    "Ġluggage": 7403,
    "Ġends": 7404,
    "Ġmy": 7405,
    "Ġhonks": 7406,
    "Ġsuit": 7407,
    "Ġfaraway": 7408,
    "Ġrocket": 7409,
    "cake": 7410,
    "ittle": 7411,
    "Ġex": 7412,
    "eve": 7413,
    "Ġkept": 7414,
    "Ġrelax": 7415,
    "Ġpaintings": 7416,
    "illa": 7417,
    "Ġnewspaper": 7418,
    "ĠOne": 7419,
    "irit": 7420,
    "Ġscratching": 7421,
    "Ġawe": 7422,
    "Ġposit": 7423,
    "J": 7424,
    "ĠToys": 7425,
    "ĠAnimal": 7426,
    "Ġlotion": 7427,
    "Robbie": 7428,
    "Next": 7429,
    "cuss": 7430,
    "asket": 7431,
    "Ġdestroy": 7432,
    "Ġdifferently": 7433,
    "Ġloaded": 7434,
    "bit": 7435,
    "Ġoy": 7436,
    "Ġbro": 7437,
    "Ġsometimes": 7438,
    "Ġincluding": 7439,
    "Ġrang": 7440,
    "Ġfif": 7441,
    "Ġexercise": 7442,
    "ĠIt": 7443,
    "Ġmomma": 7444,
    "Ġshorter": 7445,
    "Ġblast": 7446,
    "Ġmunched": 7447,
    "ĠWhiskers": 7448,
    "ĠPot": 7449,
    "Ġmotion": 7450,
    "Ġexplained": 7451,
    "Ġdist": 7452,
    "spec": 7453,
    "uckily": 7454,
    "Ġbeautiful": 7455,
    "Ġcoll": 7456,
    "mie": 7457,
    "©": 7458,
    "Ġsounded": 7459,
    "Ġind": 7460,
    "Ġcountry": 7461,
    "Ġclock": 7462,
    "beep": 7463,
    "fall": 7464,
    "Ġradio": 7465,
    "Ġswimsuits": 7466,
    "Ġraindrops": 7467,
    "Ġannoyed": 7468,
    "Hi": 7469,
    "Ġfur": 7470,
    "Ġnapkin": 7471,
    "ĠAnnie": 7472,
    "Ġpray": 7473,
    "Ġslid": 7474,
    "ail": 7475,
    "Ġpilots": 7476,
    "rob": 7477,
    "Ġsighs": 7478,
    "Ġsnip": 7479,
    "Ġsol": 7480,
    "Ġdonkey": 7481,
    "Ġwrong": 7482,
    "fast": 7483,
    "Ġcreatures": 7484,
    "Ġconnected": 7485,
    "Ġus": 7486,
    "ĠBang": 7487,
    "ĠSweet": 7488,
    "Ġoh": 7489,
    "ĠToday": 7490,
    "bage": 7491,
    "rew": 7492,
    "Ġicy": 7493,
    "eterin": 7494,
    "Ġstrips": 7495,
    "ecture": 7496,
    "Ġcalled": 7497,
    "ĠBrownie": 7498,
    "oral": 7499,
    "nna": 7500,
    "ĠBess": 7501,
    "Ġtangled": 7502,
    "Jerry": 7503,
    "Ġchurch": 7504,
    "ĠZippy": 7505,
    "Ġblueberry": 7506,
    "Ġother": 7507,
    "Ġglow": 7508,
    "Ġfeeling": 7509,
    "Ġhotel": 7510,
    "Ġanswer": 7511,
    "ĠEllie": 7512,
    "Ġspeaker": 7513,
    "Ġmean": 7514,
    "Ġinviting": 7515,
    "pect": 7516,
    "Ġill": 7517,
    "Ġyounger": 7518,
    "ctop": 7519,
    "Ġfolding": 7520,
    "Ġnoses": 7521,
    "ĠWhale": 7522,
    "Ġskeleton": 7523,
    "Ġsqueezes": 7524,
    "Ġpigs": 7525,
    "Ġappreciate": 7526,
    "Ġsilent": 7527,
    "Ġchocol": 7528,
    "Ġsir": 7529,
    "Ġpillows": 7530,
    "ooky": 7531,
    "Ġshh": 7532,
    "Ġfist": 7533,
    "Ġhated": 7534,
    "ilot": 7535,
    "Ġbuild": 7536,
    "Ġdisobey": 7537,
    "Ġcaterpill": 7538,
    "ĠâĢ": 7539,
    "Ġexper": 7540,
    "Ġsur": 7541,
    "Ġgasped": 7542,
    "Sw": 7543,
    "ĠRed": 7544,
    "Lizzy": 7545,
    "Ġhopping": 7546,
    "Ġplug": 7547,
    "Ġponies": 7548,
    "Mabel": 7549,
    "Ġimpossible": 7550,
    "zag": 7551,
    "Ġlic": 7552,
    "Ġguardian": 7553,
    "+": 7554,
    "Ġteles": 7555,
    "Ġalthough": 7556,
    "Ġpiece": 7557,
    "osity": 7558,
    "iona": 7559,
    "Ġwaves": 7560,
    "Ġreplace": 7561,
    "Ġthrow": 7562,
    "izzie": 7563,
    "Ġcreation": 7564,
    "Ġjuicy": 7565,
    "Ġdecl": 7566,
    "Ġspeak": 7567,
    "Ġterri": 7568,
    "astic": 7569,
    "Ġteddy": 7570,
    "May": 7571,
    "Ġjogged": 7572,
    "Ġfrowned": 7573,
    "Ġcowboy": 7574,
    "gar": 7575,
    "ab": 7576,
    "Ġhood": 7577,
    "Ġmotor": 7578,
    "Tweet": 7579,
    "Ġrebuild": 7580,
    "Ġoffered": 7581,
    "Fluffy": 7582,
    "Ġfa": 7583,
    "bbled": 7584,
    "Ġlies": 7585,
    "Ġlaptop": 7586,
    "udged": 7587,
    "Ġfair": 7588,
    "Ġdisagreeing": 7589,
    "endy": 7590,
    "Ġboth": 7591,
    "unn": 7592,
    "umbling": 7593,
    "erpiece": 7594,
    "pop": 7595,
    "Ġfetched": 7596,
    "Ġimmediately": 7597,
    "shaped": 7598,
    "Ġlear": 7599,
    "sity": 7600,
    "ora": 7601,
    "any": 7602,
    "ĠPretty": 7603,
    "Ġuse": 7604,
    "Ġwheel": 7605,
    "ĠPapa": 7606,
    "ades": 7607,
    "Ġflying": 7608,
    "Ġseals": 7609,
    "ĠLena": 7610,
    "Ġpicture": 7611,
    "Ġshiver": 7612,
    "ĠFirst": 7613,
    "Ġreminding": 7614,
    "Ġcupcakes": 7615,
    "Ġcomfy": 7616,
    "Ġyielded": 7617,
    "ĠJerry": 7618,
    "Ġcows": 7619,
    "Ġfrightened": 7620,
    "Ġrules": 7621,
    "ĠMama": 7622,
    "Ġfaucet": 7623,
    "Ġroof": 7624,
    "cidents": 7625,
    "elieve": 7626,
    "ĠSmo": 7627,
    "Ġtower": 7628,
    "Ġsomewhere": 7629,
    "ably": 7630,
    "zing": 7631,
    "Ġpie": 7632,
    "Ġfav": 7633,
    "Ġbreaks": 7634,
    "Ġbounce": 7635,
    "Ġslipp": 7636,
    "ĠCloud": 7637,
    "Ġcrabs": 7638,
    "Jacob": 7639,
    "ĠAuntie": 7640,
    "Ġpays": 7641,
    "ulf": 7642,
    "Ġheads": 7643,
    "Ġnone": 7644,
    "!'.": 7645,
    "ĠOkay": 7646,
    "Ġwould": 7647,
    "ĠEls": 7648,
    "Ġmug": 7649,
    "Ġpurpose": 7650,
    "Ġsuits": 7651,
    "Ġsecure": 7652,
    "ĠSnow": 7653,
    "Jane": 7654,
    "Ġspoon": 7655,
    "ĠHenny": 7656,
    "Ġboys": 7657,
    "ĠApp": 7658,
    "Ġador": 7659,
    "ĠWater": 7660,
    "Ġpressed": 7661,
    "Ġneighbour": 7662,
    "Ġmats": 7663,
    "roscope": 7664,
    "Ġtesting": 7665,
    "urpr": 7666,
    "Very": 7667,
    "Ġspies": 7668,
    "Ġleaned": 7669,
    "Fish": 7670,
    "<|endoftext|>": 7671,
    "Į": 7672,
    "ĠJean": 7673,
    "Ġtwice": 7674,
    "Ġevil": 7675,
    "erc": 7676,
    "aby": 7677,
    "ĠEverywhere": 7678,
    "ĠJimmy": 7679,
    "ĠJill": 7680,
    "immer": 7681,
    "Ġbend": 7682,
    "Ġtube": 7683,
    "Ġtortoise": 7684,
    "Ġyear": 7685,
    "Ġservant": 7686,
    "ites": 7687,
    "ĠJess": 7688,
    "ather": 7689,
    "Ġscored": 7690,
    "Ġhopes": 7691,
    "ĠBounce": 7692,
    "epend": 7693,
    "Ġinvent": 7694,
    "eddy": 7695,
    "ep": 7696,
    "ĠJay": 7697,
    "ĠBefore": 7698,
    "ĠSophia": 7699,
    "Ġfar": 7700,
    "Ġneck": 7701,
    "Ġeats": 7702,
    "orrow": 7703,
    "Ġmittens": 7704,
    "Ġhardest": 7705,
    "ĠMat": 7706,
    "Ġmind": 7707,
    "Ġgain": 7708,
    "Ġstream": 7709,
    "Ġtucked": 7710,
    "Jeff": 7711,
    "Ġyoungest": 7712,
    "Ġtough": 7713,
    "gether": 7714,
    "Ġgar": 7715,
    "Ġfirework": 7716,
    "ĠJames": 7717,
    "Ġbleeding": 7718,
    "Ġpies": 7719,
    "Dear": 7720,
    "Ġsent": 7721,
    "Ġrepeat": 7722,
    "Ġmelt": 7723,
    "Slowly": 7724,
    "Ġhonked": 7725,
    "atch": 7726,
    "Ġbreathed": 7727,
    "Ġship": 7728,
    "ĠAunt": 7729,
    "tock": 7730,
    "ĠDina": 7731,
    "ĠHello": 7732,
    "ĠBinky": 7733,
    "guess": 7734,
    "ied": 7735,
    "irthday": 7736,
    "Ġlevers": 7737,
    "Ġechoed": 7738,
    "Ġloudest": 7739,
    "Ġwatermel": 7740,
    "Ġwarn": 7741,
    "ĠOtherwise": 7742,
    "Ġprint": 7743,
    "Ġfish": 7744,
    "Ġseason": 7745,
    "Ġmitten": 7746,
    "ĠOnce": 7747,
    "Ġnervous": 7748,
    "Ġswe": 7749,
    "Ġknob": 7750,
    "Ġdecision": 7751,
    "rmometer": 7752,
    "Ġwarmth": 7753,
    "ĠSpot": 7754,
    "ute": 7755,
    "Ġexams": 7756,
    "ĊĊ": 7757,
    "ĠSuddenly": 7758,
    "Ġwool": 7759,
    "Ġlawyer": 7760,
    "Ġchoosing": 7761,
    "unched": 7762,
    "Ġyawned": 7763,
    "orm": 7764,
    "Ġadults": 7765,
    "ady": 7766,
    "Ġaction": 7767,
    "Ġone": 7768,
    "Ġmorning": 7769,
    "Follow": 7770,
    "Ġbound": 7771,
    "gers": 7772,
    "au": 7773,
    "Ġstyle": 7774,
    "Ġfet": 7775,
    "Ġsus": 7776,
    "Ġgasp": 7777,
    "Ġigloo": 7778,
    "ĠJenny": 7779,
    "ort": 7780,
    "Ġenormous": 7781,
    "Ġtowers": 7782,
    "Ġtim": 7783,
    "Ġjackets": 7784,
    "at": 7785,
    "Ġbeds": 7786,
    "Ġinvestigate": 7787,
    "Ġunfair": 7788,
    "ations": 7789,
    "Ġhus": 7790,
    "though": 7791,
    "ery": 7792,
    "ĠDon": 7793,
    "Ġcreak": 7794,
    "robe": 7795,
    "Ď": 7796,
    "Ġworks": 7797,
    "Ġed": 7798,
    "Ġbottom": 7799,
    "Ġsmooth": 7800,
    "Ġhave": 7801,
    "acob": 7802,
    "uth": 7803,
    "Ġblooms": 7804,
    "Ġkite": 7805,
    "ĠOrange": 7806,
    "Ġwakes": 7807,
    "¹": 7808,
    "Rock": 7809,
    "Ġroared": 7810,
    "emma": 7811,
    "Ġwas": 7812,
    "Ġpretend": 7813,
    "ction": 7814,
    "Ġaren": 7815,
    "Ġtossing": 7816,
    "'.\"": 7817,
    "cery": 7818,
    "njoy": 7819,
    "Mom": 7820,
    "retch": 7821,
    "elie": 7822,
    "Ġsalty": 7823,
    "bank": 7824,
    "ĠDoggy": 7825,
    "Ġimages": 7826,
    "Ġgod": 7827,
    "Ġwhen": 7828,
    "Ġquestions": 7829,
    "Ġbutton": 7830,
    "Ġmirror": 7831,
    "Ġsister": 7832,
    "ø": 7833,
    "ĠJune": 7834,
    "inger": 7835,
    "Ġfigured": 7836,
    "onies": 7837,
    "Sunny": 7838,
    "ers": 7839,
    "Ġcharming": 7840,
    "Ġpound": 7841,
    "Ġsurprise": 7842,
    "Ġsharing": 7843,
    "Ġcooperate": 7844,
    "Ġfurt": 7845,
    "rod": 7846,
    "Ġcrept": 7847,
    "Ġcand": 7848,
    "Ha": 7849,
    "Ġconversation": 7850,
    "Ġtalented": 7851,
    "Ġastonished": 7852,
    "Ġperform": 7853,
    "ĠTwinkle": 7854,
    "Ġsorted": 7855,
    "Ġbarber": 7856,
    "Ġtale": 7857,
    "Ġrock": 7858,
    "Å": 7859,
    "%": 7860,
    "Ġpuzzled": 7861,
    "$": 7862,
    "Ġdesperately": 7863,
    "Ġwanted": 7864,
    "Ġbehavior": 7865,
    "ĠPrince": 7866,
    "Ġroom": 7867,
    "Ġsome": 7868,
    "aze": 7869,
    "Ġgl": 7870,
    "Ġnosy": 7871,
    "Ġhour": 7872,
    "sses": 7873,
    "Ġsymbol": 7874,
    "Sm": 7875,
    "ĠBobbie": 7876,
    "ĠSunny": 7877,
    "ĵ": 7878,
    "Ġrested": 7879,
    "Ġwaits": 7880,
    "Ġwob": 7881,
    "Ġornament": 7882,
    "Ġhops": 7883,
    "Ġhealth": 7884,
    "Ġdisturbing": 7885,
    "Ġsmells": 7886,
    "Ġamused": 7887,
    "opter": 7888,
    "Ġtugged": 7889,
    "Ġwhat": 7890,
    "aver": 7891,
    "Ġmention": 7892,
    "Ġborn": 7893,
    "Ġtearing": 7894,
    "pot": 7895,
    "rom": 7896,
    "Ġsnatched": 7897,
    "Ġbalance": 7898,
    "Ġmovements": 7899,
    "Ġfeed": 7900,
    "Ġcalmly": 7901,
    "ĠQuick": 7902,
    "agine": 7903,
    "Ġconn": 7904,
    "ĠGigi": 7905,
    "Ġbrid": 7906,
    "Ġsiren": 7907,
    "pt": 7908,
    "omas": 7909,
    "aut": 7910,
    "ĠChess": 7911,
    "Ġpeeks": 7912,
    "Ġequ": 7913,
    "Ġbrighter": 7914,
    "Will": 7915,
    "Ġinvestig": 7916,
    "ocer": 7917,
    "Ġbulbs": 7918,
    "Ġwriter": 7919,
    "Ġsmoke": 7920,
    "Ġprettiest": 7921,
    "Ġdecid": 7922,
    "obody": 7923,
    "Ġpatiently": 7924,
    "Nothing": 7925,
    "isp": 7926,
    "Ġstern": 7927,
    "At": 7928,
    "Ġband": 7929,
    "Ö": 7930,
    "Ġloses": 7931,
    "ĠLook": 7932,
    "Ġshakes": 7933,
    "Ġwipes": 7934,
    "Ġlot": 7935,
    "pid": 7936,
    "Jim": 7937,
    "Ġexcept": 7938,
    "Ġstops": 7939,
    "Ġth": 7940,
    "Ġslowly": 7941,
    "Ġtear": 7942,
    "ana": 7943,
    "Ġrabbits": 7944,
    "Ġinter": 7945,
    "Ġdragonfly": 7946,
    "Ġbak": 7947,
    "ac": 7948,
    "Ġlonger": 7949,
    "Ġyou": 7950,
    "Ġwriggled": 7951,
    "Ġpapers": 7952,
    "unday": 7953,
    "Ġprice": 7954,
    "ĠG": 7955,
    "Ġpart": 7956,
    "Ġtrembling": 7957,
    "Ġbreaking": 7958,
    "Ġwatches": 7959,
    "ature": 7960,
    "Ġexpecting": 7961,
    "Ġcabinet": 7962,
    "Ġcorners": 7963,
    "Ġbaking": 7964,
    "Ġelephants": 7965,
    "Ġinf": 7966,
    "Ġbandage": 7967,
    "Ġcomforting": 7968,
    "Ġbinocular": 7969,
    "Ġexcitedly": 7970,
    "Ġpastel": 7971,
    "Ġmuscles": 7972,
    "Ġminer": 7973,
    "ę": 7974,
    "Ġexp": 7975,
    "¤": 7976,
    "imal": 7977,
    "Ġdisturbed": 7978,
    "ĠCopper": 7979,
    "ĠBunny": 7980,
    "Ġcaw": 7981,
    "Ġstays": 7982,
    "Ġfixing": 7983,
    "Ġhairdresser": 7984,
    "Ġcorrectly": 7985,
    "ore": 7986,
    "Ġtrips": 7987,
    "\",": 7988,
    "Ġprep": 7989,
    "Ġtours": 7990,
    "Ġsewing": 7991,
    "ek": 7992,
    "Ġnine": 7993,
    "Mrs": 7994,
    "abra": 7995,
    "Ġwhe": 7996,
    "Ġextraordinary": 7997,
    "Ġf": 7998,
    "Ġrepe": 7999,
    "Ġwindow": 8000,
    "Ducky": 8001,
    "Ġnobody": 8002,
    "amb": 8003,
    "hog": 8004,
    "Ġunus": 8005,
    "Ġcakes": 8006,
    "Ġpicnics": 8007,
    "ock": 8008,
    "ape": 8009,
    "Ġais": 8010,
    "Ġpal": 8011,
    "Ġracers": 8012,
    "aken": 8013,
    "Alright": 8014,
    "Behind": 8015,
    "Ć": 8016,
    "Ġdeer": 8017,
    "His": 8018,
    "OK": 8019,
    "Ġwet": 8020,
    "tt": 8021,
    "Ġjoin": 8022,
    "Ġmatches": 8023,
    "ĠShow": 8024,
    "Ġjumps": 8025,
    "Ġtakes": 8026,
    "Red": 8027,
    "Ġscares": 8028,
    "Ġsoot": 8029,
    "Ġbelie": 8030,
    "imney": 8031,
    "Ġsuper": 8032,
    "Ġwindows": 8033,
    "Ġpair": 8034,
    "you": 8035,
    "Ġpet": 8036,
    "veal": 8037,
    "Ġaeroplanes": 8038,
    "Ġfrustr": 8039,
    "ommend": 8040,
    "Ġqueens": 8041,
    "lcan": 8042,
    "Ġwriting": 8043,
    "Ġburst": 8044,
    "Ġrainco": 8045,
    "Ġpile": 8046,
    "ĠOtto": 8047,
    "oming": 8048,
    "Ġpens": 8049,
    "Blue": 8050,
    "Ġpotion": 8051,
    "Ġalone": 8052,
    "Ġnamed": 8053,
    "Ġwent": 8054,
    "Ġfrogs": 8055,
    "Finny": 8056,
    "ie": 8057,
    "Ġwarmer": 8058,
    "Ġforg": 8059,
    "Ġanymore": 8060,
    "Ġfisherman": 8061,
    "Ġcreated": 8062,
    "oud": 8063,
    "Ġmachines": 8064,
    "*": 8065,
    "Ġslither": 8066,
    "Fo": 8067,
    "ĠTheir": 8068,
    "Ġmushrooms": 8069,
    "Ġnect": 8070,
    "omes": 8071,
    "specially": 8072,
    "Ġdefe": 8073,
    "Ġscurried": 8074,
    "ĠGrandma": 8075,
    "Ġvegg": 8076,
    "Z": 8077,
    "bby": 8078,
    "Ġpraised": 8079,
    "Ġfre": 8080,
    "þ": 8081,
    "ade": 8082,
    "ĠMe": 8083,
    "Ġgust": 8084,
    "Ġkne": 8085,
    "ĠRose": 8086,
    "Ġyells": 8087,
    "]": 8088,
    "Ġwobbly": 8089,
    "Ġdoor": 8090,
    "Ġstrugg": 8091,
    "Ġnearly": 8092,
    "Ġnoise": 8093,
    "Ġpolite": 8094,
    "ĠBo": 8095,
    "Ġpainted": 8096,
    "Ġsatis": 8097,
    "lc": 8098,
    "Ġtoug": 8099,
    "time": 8100,
    "Ġleap": 8101,
    "Ġfriendship": 8102,
    "Ġspy": 8103,
    "Ġeventually": 8104,
    "la": 8105,
    "ĠMom": 8106,
    "Ġleaves": 8107,
    "ton": 8108,
    "Ġswo": 8109,
    "Ġmother": 8110,
    "Ġfast": 8111,
    "Ġdisobeyed": 8112,
    "Ġdare": 8113,
    "Ġcooper": 8114,
    "Ġraces": 8115,
    "ĠJolly": 8116,
    "angu": 8117,
    "cycles": 8118,
    "Tw": 8119,
    "Ġcreamy": 8120,
    "Ġcontinued": 8121,
    "Ġguarding": 8122,
    "Ġmood": 8123,
    "cat": 8124,
    "Ġguard": 8125,
    "Ġfashion": 8126,
    "Ġheartbroken": 8127,
    "Ġfacts": 8128,
    "Ġjungle": 8129,
    "aye": 8130,
    "Ġmus": 8131,
    "Sweet": 8132,
    "Ġhats": 8133,
    "ĠJoy": 8134,
    "Ġmix": 8135,
    "Ġactually": 8136,
    "ı": 8137,
    "Ġscrubbed": 8138,
    "Ġindependent": 8139,
    "Ġbumped": 8140,
    "ammy": 8141,
    "Ġcares": 8142,
    "Ġpowerful": 8143,
    "Ġreversing": 8144,
    "ĠJoe": 8145,
    "rect": 8146,
    "ĠSwim": 8147,
    "Ġgarage": 8148,
    "ĠAnna": 8149,
    "-": 8150,
    "Ġrubb": 8151,
    "ors": 8152,
    "Ġcarry": 8153,
    "Ġeach": 8154,
    "Ġrusty": 8155,
    "hee": 8156,
    "Ġgreedy": 8157,
    "Ġovercome": 8158,
    "Ġitchy": 8159,
    "dle": 8160,
    "Ġcardboard": 8161,
    "Luke": 8162,
    "Ġcluck": 8163,
    "Ġcried": 8164,
    "Tara": 8165,
    "O": 8166,
    "Ġlion": 8167,
    "Ġlava": 8168,
    "ined": 8169,
    "ĠSpidey": 8170,
    "Ġasleep": 8171,
    "olly": 8172,
    "Ġfavor": 8173,
    "{": 8174,
    "elly": 8175,
    "rink": 8176,
    "Ġpret": 8177,
    "Ġunder": 8178,
    "G": 8179,
    "ĠGet": 8180,
    "Ġwoods": 8181,
    "Ġjourneys": 8182,
    "arn": 8183,
    "Ġswollen": 8184,
    "Ġknowing": 8185,
    "Ġcane": 8186,
    "Ġdresses": 8187,
    "chool": 8188,
    "Ġfour": 8189,
    "Ġdances": 8190,
    "Ġknock": 8191,
    "Ġhumble": 8192,
    "Ġowl": 8193,
    "Ġclowns": 8194,
    "Ġflo": 8195,
    "usia": 8196,
    "Any": 8197,
    "Ġcoloured": 8198,
    "ucture": 8199,
    "Ġdaughter": 8200,
    "old": 8201,
    "iscuit": 8202,
    "Ġsurprises": 8203,
    "Ġpupp": 8204,
    "Ġlibr": 8205,
    "ĠEverybody": 8206,
    "hind": 8207,
    "freeze": 8208,
    "Ġbouquet": 8209,
    "ĠEarth": 8210,
    "ĠLe": 8211,
    "ĠMy": 8212,
    "Ġleash": 8213,
    "Ġincreased": 8214,
    "When": 8215,
    "Ġsweetheart": 8216,
    "Ġann": 8217,
    "Ġseasons": 8218,
    "Ġnovel": 8219,
    "Ę": 8220,
    "umpy": 8221,
    "Ġsmiling": 8222,
    "Ġtowel": 8223,
    "ĠA": 8224,
    "Ġheight": 8225,
    "Ġshapes": 8226,
    "Ġtape": 8227,
    "Ġfreed": 8228,
    "Ġstem": 8229,
    "Ġescap": 8230,
    "Ġtele": 8231,
    "colored": 8232,
    "Hey": 8233,
    "ì": 8234,
    "Ġseeds": 8235,
    "Ġwire": 8236,
    "Ġpaths": 8237,
    "Ġmold": 8238,
    "Ġleader": 8239,
    "Ġdiscouraged": 8240,
    "Ġhappily": 8241,
    "Then": 8242,
    "Somet": 8243,
    "Ġshown": 8244,
    "if": 8245,
    "Ġoverjoyed": 8246,
    "arter": 8247,
    "Ġpetting": 8248,
    "Ġpass": 8249,
    "Ġheaded": 8250,
    "Ġstreng": 8251,
    "Ġcabin": 8252,
    "irring": 8253,
    "tern": 8254,
    "Ġmasterpiece": 8255,
    "Ġhotter": 8256,
    "ophia": 8257,
    "Ġflowing": 8258,
    "ĠWise": 8259,
    "Ġfear": 8260,
    "Ġpadd": 8261,
    "ĠSnuggles": 8262,
    "Ġseashe": 8263,
    "Ġaloud": 8264,
    "Ġspill": 8265,
    "Zoe": 8266,
    "Ġloyal": 8267,
    "Ġrefle": 8268,
    "Ġfeet": 8269,
    "Betty": 8270,
    "ages": 8271,
    "Lilly": 8272,
    "ĠPam": 8273,
    "Ġcrawled": 8274,
    "Ġcond": 8275,
    "Ġpost": 8276,
    "ĠJoey": 8277,
    "elp": 8278,
    "Ġten": 8279,
    "Ġgro": 8280,
    "itch": 8281,
    "Ġcalendar": 8282,
    "Ġany": 8283,
    "Ġem": 8284,
    "Ġsimply": 8285,
    "Ġbar": 8286,
    "Ġunpacked": 8287,
    "ĠSam": 8288,
    "Ġtrophy": 8289,
    "oup": 8290,
    "Ġfeast": 8291,
    "ĠLily": 8292,
    "Ġwhistled": 8293,
    "lled": 8294,
    "Ġsunny": 8295,
    "Bad": 8296,
    "ĠGogo": 8297,
    "Ġlaug": 8298,
    "Ġfreedom": 8299,
    "Ġdesigning": 8300,
    "Ġsmiley": 8301,
    "Ġhur": 8302,
    "Ġburn": 8303,
    "Ġpulls": 8304,
    "ueen": 8305,
    "Ġhallway": 8306,
    "oosh": 8307,
    "Ġswans": 8308,
    "Ġstands": 8309,
    "Ġwhatever": 8310,
    "Ġthermometer": 8311,
    "Ġtrusted": 8312,
    "Ġmanners": 8313,
    "Ġskills": 8314,
    "Ġvent": 8315,
    "Ġsets": 8316,
    "Ġstruggled": 8317,
    "ter": 8318,
    "Ġhung": 8319,
    "Ġscreen": 8320,
    "Ġ\"": 8321,
    "Ġchases": 8322,
    "Ġwaterfall": 8323,
    "Ġsmarter": 8324,
    "ĠFlappy": 8325,
    "ĠFrosty": 8326,
    "Ġtable": 8327,
    "war": 8328,
    "Ġsurv": 8329,
    "Ġemergency": 8330,
    "Ġguide": 8331,
    "ĠLiz": 8332,
    "Ġwonder": 8333,
    "ard": 8334,
    "form": 8335,
    "isy": 8336,
    "ĠRemy": 8337,
    "Ġsquinted": 8338,
    "acy": 8339,
    "Ġthrew": 8340,
    "ä": 8341,
    "Ġtrouble": 8342,
    "Ġwide": 8343,
    "Ġthu": 8344,
    "That": 8345,
    "Ġpoliceman": 8346,
    "Ġsponge": 8347,
    "osen": 8348,
    "Bessie": 8349,
    "Ġpirates": 8350,
    "ude": 8351,
    "Ġappreciation": 8352,
    "Ġmouths": 8353,
    "Ġbirdhouse": 8354,
    "You": 8355,
    "Ġlove": 8356,
    "Ġteamwork": 8357,
    "Ġrat": 8358,
    "ĠMartha": 8359,
    "ĊĠ": 8360,
    "ĠSqu": 8361,
    "Ġdared": 8362,
    "Ġdecides": 8363,
    "Ġbad": 8364,
    "Ġcalmer": 8365,
    "Ġshort": 8366,
    "ĠKaren": 8367,
    "Ġwalls": 8368,
    "Ġstore": 8369,
    "quito": 8370,
    "ĠEven": 8371,
    "By": 8372,
    "Ġrider": 8373,
    "Ġgentle": 8374,
    "Ġseal": 8375,
    "chair": 8376,
    "ĠCome": 8377,
    "Ġbridges": 8378,
    "Ġsliding": 8379,
    "lee": 8380,
    "ĠTerry": 8381,
    "Ġbothering": 8382,
    "Ġkinder": 8383,
    "Ġslips": 8384,
    "mbre": 8385,
    "Ġjoking": 8386,
    "Ġleaving": 8387,
    "Ġsidewalk": 8388,
    "Ġplaying": 8389,
    "Ġrevealing": 8390,
    "Ġcousins": 8391,
    "Ġplaced": 8392,
    "ĠMon": 8393,
    "Ġmirac": 8394,
    "emember": 8395,
    "Ġconf": 8396,
    "Ġpoured": 8397,
    "Ġfact": 8398,
    "meow": 8399,
    "Ġmindful": 8400,
    "Ġspider": 8401,
    "Ł": 8402,
    "Ġquarrel": 8403,
    "Ġability": 8404,
    "Ġsomebody": 8405,
    "Ġfeather": 8406,
    "Ġwall": 8407,
    "!\".": 8408,
    "Ġsurfing": 8409,
    "ĠGrumpy": 8410,
    "Ġbraver": 8411,
    "ĠPuff": 8412,
    "Ġsolut": 8413,
    "Ġnature": 8414,
    "Ġcab": 8415,
    "Mimi": 8416,
    "Kim": 8417,
    "Ġ-": 8418,
    "Ġpepperoni": 8419,
    "ĠFluffy": 8420,
    "Ġspat": 8421,
    "Ġseriously": 8422,
    "ared": 8423,
    "Ġgrate": 8424,
    "Ġplayers": 8425,
    "asing": 8426,
    "Ġmarshmallow": 8427,
    "Ġneare": 8428,
    "Ġshoulders": 8429,
    "cast": 8430,
    "Ġhurt": 8431,
    "Ġdent": 8432,
    "iches": 8433,
    "Yay": 8434,
    "Sque": 8435,
    "Ġbalan": 8436,
    "edic": 8437,
    "Ġhoney": 8438,
    "Ġtimes": 8439,
    "Ġchosen": 8440,
    "Ġdrive": 8441,
    "Ġrude": 8442,
    "Ġgreeted": 8443,
    "Ġotter": 8444,
    "Ġmentioned": 8445,
    "Ġpeeped": 8446,
    "Ġpresent": 8447,
    "Ġantic": 8448,
    "Ġsalon": 8449,
    "urniture": 8450,
    "Ġexcite": 8451,
    "Ġshells": 8452,
    "Ġfireplace": 8453,
    "ĠFinn": 8454,
    "Ġmovies": 8455,
    "Ġnest": 8456,
    "Ġribbon": 8457,
    "ates": 8458,
    "Ġcutter": 8459,
    "io": 8460,
    "ots": 8461,
    "Ġguit": 8462,
    "Ġshops": 8463,
    "cks": 8464,
    "Ġprov": 8465,
    "Ġshield": 8466,
    "ĠCl": 8467,
    "ence": 8468,
    "Ġinfant": 8469,
    "Ġwater": 8470,
    "Ġmighty": 8471,
    "Ġuntil": 8472,
    "Ġencouraging": 8473,
    "Ġpalms": 8474,
    "der": 8475,
    "Ġdelivery": 8476,
    "ĠMar": 8477,
    "Ġpills": 8478,
    "sie": 8479,
    "Ġspaces": 8480,
    "Ġlimes": 8481,
    "Toys": 8482,
    "Ġvanilla": 8483,
    "Ġhoc": 8484,
    "Ġart": 8485,
    "Ġimagining": 8486,
    "Ġtire": 8487,
    "Ġattaching": 8488,
    "cc": 8489,
    "arl": 8490,
    "Ġmatter": 8491,
    "Ġcu": 8492,
    "Ġchecked": 8493,
    "Ġcar": 8494,
    "Ġrelieved": 8495,
    "Ġshirt": 8496,
    "Mittens": 8497,
    "ĠPete": 8498,
    "Ġwoman": 8499,
    "Ġoctopus": 8500,
    "Ġdate": 8501,
    "ndpa": 8502,
    "ĠPl": 8503,
    "Ġstatues": 8504,
    "Ġchimney": 8505,
    "Aunt": 8506,
    "Ġachieve": 8507,
    "oey": 8508,
    "ogo": 8509,
    "Ġsho": 8510,
    "Ġdisc": 8511,
    "Al": 8512,
    "Ġrise": 8513,
    "Ġliqu": 8514,
    "Ġdressing": 8515,
    "ĠWoolly": 8516,
    "ou": 8517,
    "Tree": 8518,
    "Ġcrab": 8519,
    "Ġdough": 8520,
    "ores": 8521,
    "Ġemb": 8522,
    "Ġpeacock": 8523,
    "onest": 8524,
    "ission": 8525,
    "Ġmetal": 8526,
    "Ġleaning": 8527,
    "More": 8528,
    "Ġadorable": 8529,
    "ĠT": 8530,
    "Ġspun": 8531,
    "Ġmoving": 8532,
    "iki": 8533,
    "iest": 8534,
    "Ġshovel": 8535,
    "Ġblink": 8536,
    "Ġslices": 8537,
    "Ġanswered": 8538,
    "Ġpinched": 8539,
    "Ġqueen": 8540,
    "Ġbumpy": 8541,
    "Ġmuster": 8542,
    "icky": 8543,
    "Freeze": 8544,
    "ich": 8545,
    "Ġadmired": 8546,
    "Ġclown": 8547,
    "Ġprinter": 8548,
    "ĠBree": 8549,
    "Ġcharm": 8550,
    "ĠâĢĶ": 8551,
    "ĠJack": 8552,
    "Ġfootsteps": 8553,
    "Ġfe": 8554,
    "aghett": 8555,
    "Ġquestion": 8556,
    "dding": 8557,
    "ĠKay": 8558,
    "Ġsm": 8559,
    "ivia": 8560,
    "ĠRobo": 8561,
    "Ġlunchtime": 8562,
    "Ġskip": 8563,
    "Ġencourag": 8564,
    "Maya": 8565,
    "berries": 8566,
    "Ġadmiring": 8567,
    "Too": 8568,
    "ĠDr": 8569,
    "rily": 8570,
    "Ġsensation": 8571,
    "ho": 8572,
    "Ġappeared": 8573,
    "ense": 8574,
    "arth": 8575,
    "Ġolive": 8576,
    "Ġattached": 8577,
    "âĢ¦": 8578,
    "Ġsniffing": 8579,
    "iar": 8580,
    "ĠButter": 8581,
    "alk": 8582,
    "Ġhisses": 8583,
    "Ġsy": 8584,
    "ito": 8585,
    "oga": 8586,
    "Ġbeanstalk": 8587,
    "Ġslippery": 8588,
    "Ġcontain": 8589,
    "Ġrubs": 8590,
    "Ġshaped": 8591,
    "Ġjars": 8592,
    "Ġdog": 8593,
    "Ġimportance": 8594,
    "Ġbowl": 8595,
    "Ġtowns": 8596,
    "Ġtooth": 8597,
    "Ġentrance": 8598,
    "Ġicing": 8599,
    "Ġcheated": 8600,
    "Ġunwrapped": 8601,
    "sy": 8602,
    "Ġfinally": 8603,
    "Ġdressed": 8604,
    "Ġribbons": 8605,
    "Ġfits": 8606,
    "Ġshow": 8607,
    "Ġpetted": 8608,
    "Ġrhino": 8609,
    "umber": 8610,
    "Ġlaughing": 8611,
    "let": 8612,
    "Ġcalend": 8613,
    "Something": 8614,
    "Ġlumber": 8615,
    "Ġwhimpered": 8616,
    "ĠPippa": 8617,
    "Ġwhispers": 8618,
    "racted": 8619,
    "Ġletting": 8620,
    "Whee": 8621,
    "Ġchip": 8622,
    "Ġquacks": 8623,
    "Ġclues": 8624,
    "Ġremote": 8625,
    "Ġeagerly": 8626,
    "Ġspices": 8627,
    "atie": 8628,
    "Ġornaments": 8629,
    "Ġcompan": 8630,
    "ĠTell": 8631,
    "Ġhuman": 8632,
    "Ġsnuggle": 8633,
    "len": 8634,
    "Ġla": 8635,
    "Ġfilm": 8636,
    "ouch": 8637,
    "Ġannoy": 8638,
    "Ġgave": 8639,
    "ley": 8640,
    "Ļ": 8641,
    "Ġbranches": 8642,
    "Ġwrit": 8643,
    "fire": 8644,
    "ĠAmelia": 8645,
    "Ġpleas": 8646,
    "Ġcelebrate": 8647,
    "Ġtumbled": 8648,
    "µ": 8649,
    "Good": 8650,
    "itches": 8651,
    "Ġvegetables": 8652,
    "ĠDara": 8653,
    "ĠPaul": 8654,
    "Ġcells": 8655,
    "ĠFaye": 8656,
    "Ġscratched": 8657,
    "Ġseeing": 8658,
    "ĠAr": 8659,
    "Ġpillow": 8660,
    "Ġjuice": 8661,
    "Ġcrumbs": 8662,
    "ĠOt": 8663,
    "Ġconnect": 8664,
    "Ġusual": 8665,
    "Ġpupils": 8666,
    "Ġtasted": 8667,
    "Ġflips": 8668,
    "iggy": 8669,
    "Ġcompassion": 8670,
    "hew": 8671,
    "Ġwashed": 8672,
    "Ġhigher": 8673,
    "Ġob": 8674,
    "Poppy": 8675,
    "Ġhar": 8676,
    "Ġjokes": 8677,
    "Ġseed": 8678,
    "Ġfly": 8679,
    "ĠThese": 8680,
    "ls": 8681,
    "Ġdried": 8682,
    "ĠIron": 8683,
    "Ġattractive": 8684,
    "Ġacorns": 8685,
    "omp": 8686,
    "Ġmagazines": 8687,
    "Ġtraps": 8688,
    "Ġvisitor": 8689,
    "Ġwished": 8690,
    "Ġunderstands": 8691,
    "Ġgir": 8692,
    "Hope": 8693,
    "ries": 8694,
    "play": 8695,
    "llipop": 8696,
    "ĠJessica": 8697,
    "Ġcookies": 8698,
    "Ġunderst": 8699,
    "Ġnervously": 8700,
    "Ġpassen": 8701,
    "Ġreach": 8702,
    "ĠMel": 8703,
    "ĠJohn": 8704,
    "Ġdecisions": 8705,
    "Ġstable": 8706,
    "Ġsplash": 8707,
    "'re": 8708,
    "Ġkangaroo": 8709,
    "Ġvel": 8710,
    "Ġtests": 8711,
    "Nick": 8712,
    "Ġdisgust": 8713,
    "Ġfor": 8714,
    "Ġjewelry": 8715,
    "Ġrice": 8716,
    "Bow": 8717,
    "Ġhalves": 8718,
    "Ġminerals": 8719,
    "Ġtwig": 8720,
    "Ġlovely": 8721,
    "Ġstitch": 8722,
    "Ġprett": 8723,
    "Ġbreath": 8724,
    "iger": 8725,
    "ace": 8726,
    "Ġsquash": 8727,
    "Ġfile": 8728,
    "ĠBeth": 8729,
    "Ġforks": 8730,
    "ĠOn": 8731,
    "ĠOther": 8732,
    "Ġmu": 8733,
    "iley": 8734,
    "Ġpoop": 8735,
    "Ġdrain": 8736,
    "Ġwhistle": 8737,
    "Ġexplain": 8738,
    "Ġwind": 8739,
    "stalk": 8740,
    "Ġmelting": 8741,
    "ĠSad": 8742,
    "ĠMandy": 8743,
    "ĠRachel": 8744,
    "Ġlandscape": 8745,
    "Ġnext": 8746,
    "erpill": 8747,
    "Ġinstruct": 8748,
    "Ġshall": 8749,
    "Ġlonely": 8750,
    "Ġoffic": 8751,
    "Ġwiggled": 8752,
    "q": 8753,
    "Ġtom": 8754,
    "Ġble": 8755,
    "ĠJumpy": 8756,
    "Ġelectricity": 8757,
    "Ġcrawls": 8758,
    "Ġproviding": 8759,
    "Ġcover": 8760,
    "ĠAs": 8761,
    "Ġlesson": 8762,
    "ĠGr": 8763,
    "Ġpaddled": 8764,
    "Ġpatterns": 8765,
    "Ġmeasuring": 8766,
    "agic": 8767,
    "Ġorganized": 8768,
    "Ġever": 8769,
    "ĠFind": 8770,
    "house": 8771,
    "Ġholes": 8772,
    "Ġhadn": 8773,
    "Ġknobs": 8774,
    "Ġinj": 8775,
    "Ġwon": 8776,
    "Ġhissed": 8777,
    "Ġplant": 8778,
    "Ġhaircuts": 8779,
    "uc": 8780,
    "Ġbiscuit": 8781,
    "ring": 8782,
    "Ġgross": 8783,
    "ĠDe": 8784,
    "ĠEmma": 8785,
    "Ġbrightly": 8786,
    "ially": 8787,
    "Ġoat": 8788,
    "Ġfilling": 8789,
    "adow": 8790,
    "Ġall": 8791,
    "Ġdown": 8792,
    "Ġear": 8793,
    "Ġwasted": 8794,
    "Ġsurrendered": 8795,
    "Ġburned": 8796,
    "Ġtil": 8797,
    "Ġgiving": 8798,
    "ă": 8799,
    "Ġlistener": 8800,
    "Æ": 8801,
    "Ġraincoat": 8802,
    "Ġunh": 8803,
    "antly": 8804,
    "Ġunfortunately": 8805,
    "Ġgratitude": 8806,
    "keepers": 8807,
    "Ġbother": 8808,
    "ook": 8809,
    "ch": 8810,
    "ĠFle": 8811,
    "ĠWaffle": 8812,
    "pes": 8813,
    "stic": 8814,
    "ĠCici": 8815,
    "str": 8816,
    "Ġwipe": 8817,
    "ĠZoey": 8818,
    "Ġsigning": 8819,
    "Ġseat": 8820,
    "rious": 8821,
    "Ġmaterials": 8822,
    "Ġthick": 8823,
    "Ġsprinkles": 8824,
    "Ġfreezing": 8825,
    "Ġbathroom": 8826,
    "Ġtigers": 8827,
    "hen": 8828,
    "Ġwaist": 8829,
    "Ġswimming": 8830,
    "Ġmixer": 8831,
    "Ġlets": 8832,
    "Ġhundred": 8833,
    "Ġpir": 8834,
    "Ġframe": 8835,
    "Ġkayak": 8836,
    "'t": 8837,
    "utor": 8838,
    "ythm": 8839,
    "Ġfreezer": 8840,
    "Ġfin": 8841,
    "ĠBra": 8842,
    "Goodbye": 8843,
    "Ġblushed": 8844,
    "Ġclip": 8845,
    "aughter": 8846,
    "Ġparrot": 8847,
    "Ġtug": 8848,
    "Ġscru": 8849,
    "Ġgardens": 8850,
    "ised": 8851,
    "Ġst": 8852,
    "broken": 8853,
    "Ġrh": 8854,
    "Suzie": 8855,
    "ortunately": 8856,
    "Ġcla": 8857,
    "ello": 8858,
    "bird": 8859,
    "Ġbaseball": 8860,
    "Ġdiamonds": 8861,
    "ellig": 8862,
    "Ġoccasion": 8863,
    "Ġwagged": 8864,
    "Ġinstruments": 8865,
    "Ġmischievous": 8866,
    "Ġglittered": 8867,
    "Lizzie": 8868,
    "Ġswan": 8869,
    "rac": 8870,
    "bbie": 8871,
    "Ġfirst": 8872,
    "Ġdisagre": 8873,
    "ivi": 8874,
    "ival": 8875,
    "Ġshouts": 8876,
    "With": 8877,
    "irpy": 8878,
    "fus": 8879,
    "Ġpurple": 8880,
    "Ġeag": 8881,
    "Tiny": 8882,
    "loe": 8883,
    "Ġsa": 8884,
    "Ġworse": 8885,
    "Ġscreams": 8886,
    "Ġtrigger": 8887,
    "Ġhorse": 8888,
    "Ġdusty": 8889,
    "Ġfamil": 8890,
    "Ġlived": 8891,
    "Ġstudy": 8892,
    "Ġstring": 8893,
    "mies": 8894,
    "Ġdodged": 8895,
    "P": 8896,
    "Ġsparkled": 8897,
    "Ġcheetah": 8898,
    "Ġforth": 8899,
    "Ġastron": 8900,
    "Ġburnt": 8901,
    "Ġbecomes": 8902,
    "boat": 8903,
    "Ġshut": 8904,
    "Ġtold": 8905,
    "Ġtar": 8906,
    "Ġsparkling": 8907,
    "Ġblood": 8908,
    "ĠDo": 8909,
    "Ġcop": 8910,
    "Ġexperienced": 8911,
    "Ġknew": 8912,
    "Ġsigned": 8913,
    "Ralph": 8914,
    "Ġcracker": 8915,
    "usie": 8916,
    "bled": 8917,
    "Pipp": 8918,
    "ĠBlinky": 8919,
    "Ġank": 8920,
    "Ġtemperature": 8921,
    "Ġancient": 8922,
    "Ġcalmed": 8923,
    "Ġspooky": 8924,
    "Ġcapes": 8925,
    "Ġsaying": 8926,
    "Ġbusiness": 8927,
    "app": 8928,
    "Ġrestaurant": 8929,
    "Ġsquirted": 8930,
    "Ġperfect": 8931,
    "Ġmon": 8932,
    "Ġgroan": 8933,
    "affe": 8934,
    "Ġvac": 8935,
    "Ġalley": 8936,
    "Ġchee": 8937,
    "Ġtouches": 8938,
    "ĠBird": 8939,
    "Ġexamining": 8940,
    "M": 8941,
    "dded": 8942,
    "Ġadmit": 8943,
    "ĠLoop": 8944,
    "Ġbeeped": 8945,
    "fortable": 8946,
    "Ġnodding": 8947,
    "aking": 8948,
    "while": 8949,
    "Ġbounced": 8950,
    "usty": 8951,
    "Ġliz": 8952,
    "ĠTogether": 8953,
    "ĠâĢĺ": 8954,
    "Ġattention": 8955,
    "Ġstir": 8956,
    "Ġrush": 8957,
    "umble": 8958,
    "Ġinv": 8959,
    "ty": 8960,
    "Ġwatched": 8961,
    "Ġho": 8962,
    "Ġserve": 8963,
    "ĠJudy": 8964,
    "medi": 8965,
    "ween": 8966,
    "Ġscales": 8967,
    "Ġglob": 8968,
    "Ġherb": 8969,
    "ò": 8970,
    "Ġpicking": 8971,
    "Ġgrowl": 8972,
    "Ġcrown": 8973,
    "ĠDare": 8974,
    "Ġcats": 8975,
    "Ġearlier": 8976,
    "Ġswayed": 8977,
    "Ġglitter": 8978,
    "sty": 8979,
    "Ġweighing": 8980,
    "Ġflashlight": 8981,
    "ĠDuke": 8982,
    "Ġjoked": 8983,
    "Froggy": 8984,
    "Ġexercises": 8985,
    "Ġsinger": 8986,
    "ĠHi": 8987,
    "Ġobey": 8988,
    "wh": 8989,
    "ars": 8990,
    "Ġlean": 8991,
    "Ġsells": 8992,
    "Ġupon": 8993,
    "Ġplays": 8994,
    "Ġsuddenly": 8995,
    "Look": 8996,
    "oscope": 8997,
    "Ġunusual": 8998,
    "Ġu": 8999,
    "Ġreaching": 9000,
    "ross": 9001,
    "Ġnowhere": 9002,
    "Ġcalling": 9003,
    "å": 9004,
    "Wake": 9005,
    "Ġsneak": 9006,
    "Ġrotten": 9007,
    "Ġwhined": 9008,
    "Ġcaut": 9009,
    "Ġyell": 9010,
    "Ġhole": 9011,
    "Ġstirring": 9012,
    "Ġago": 9013,
    "Ġsneaks": 9014,
    "Ġig": 9015,
    "Ŀ": 9016,
    "Ġfiles": 9017,
    "Ġoppos": 9018,
    "âĢľ": 9019,
    "ged": 9020,
    "Ġform": 9021,
    "Ġflown": 9022,
    "Ġsit": 9023,
    "erts": 9024,
    "ours": 9025,
    "Ġdove": 9026,
    "Ġclap": 9027,
    "ĠKeep": 9028,
    "Ġdisappoin": 9029,
    "Ġfart": 9030,
    "Ġbroom": 9031,
    "Ġdoes": 9032,
    "Ġdes": 9033,
    "ination": 9034,
    "Ġthin": 9035,
    "iting": 9036,
    "gu": 9037,
    "Ġsituations": 9038,
    "Ġintelligence": 9039,
    "Ġuntied": 9040,
    "ĠEm": 9041,
    "Ġreplaced": 9042,
    "Ġadventure": 9043,
    "Ġrose": 9044,
    "Ġsandw": 9045,
    "Ġglove": 9046,
    "Ġsides": 9047,
    "Ġthief": 9048,
    "ith": 9049,
    "Ġcobwebs": 9050,
    "ert": 9051,
    "Ġallowed": 9052,
    "isk": 9053,
    "Ġhelpful": 9054,
    "xt": 9055,
    "Ġwoodcutter": 9056,
    "iddle": 9057,
    "Hmm": 9058,
    "Ġdiffere": 9059,
    "Ġstreamers": 9060,
    "Ġfox": 9061,
    "Ġhips": 9062,
    "Her": 9063,
    "Ġfeelings": 9064,
    "ass": 9065,
    "Ġshopkeeper": 9066,
    "Ò": 9067,
    "James": 9068,
    "istle": 9069,
    "ĠToot": 9070,
    "Ġcreating": 9071,
    "ĠHalloween": 9072,
    "ĠMath": 9073,
    "Ġmixture": 9074,
    "Ġtwelve": 9075,
    "Ġour": 9076,
    "iness": 9077,
    "Ġfeels": 9078,
    "Ġnut": 9079,
    "ising": 9080,
    "ĠSomething": 9081,
    "Ġenthusiasm": 9082,
    "Ġmost": 9083,
    "ipped": 9084,
    "izes": 9085,
    "une": 9086,
    "Ġskill": 9087,
    "ĠBeef": 9088,
    "Ġnow": 9089,
    "Ġoutside": 9090,
    "Ġorganize": 9091,
    "ĠSparky": 9092,
    "Ġintently": 9093,
    "ĠBop": 9094,
    "ĠMichael": 9095,
    "Ġfo": 9096,
    "Ġoats": 9097,
    "Ġtreasures": 9098,
    "Ġslim": 9099,
    "Ġdrink": 9100,
    "ĠSof": 9101,
    "jam": 9102,
    "Ġmagazine": 9103,
    "Ġhuge": 9104,
    "Ġclimb": 9105,
    "Ġcrocodile": 9106,
    "ĠAg": 9107,
    "S": 9108,
    "d": 9109,
    "Ġpath": 9110,
    "Ġbirthday": 9111,
    "Ġmove": 9112,
    "ug": 9113,
    "aked": 9114,
    "Ġdecorate": 9115,
    "Ġposs": 9116,
    "Ġlocks": 9117,
    "arted": 9118,
    "ĠChris": 9119,
    "Ġgiant": 9120,
    "Ġthro": 9121,
    "Ġdisapp": 9122,
    "Ġexcited": 9123,
    "Ġscr": 9124,
    "Ġpower": 9125,
    "Ġlaws": 9126,
    "Ġ'": 9127,
    "Ġbright": 9128,
    "Ġhugging": 9129,
    "Ġsale": 9130,
    "Ġreleased": 9131,
    "t": 9132,
    "ĠLarry": 9133,
    "Ġfights": 9134,
    "Ġfriend": 9135,
    "Ġenvelope": 9136,
    "Ġaimed": 9137,
    "ĠTed": 9138,
    "Ġchocolates": 9139,
    "Ġscent": 9140,
    "dog": 9141,
    "Which": 9142,
    "ivity": 9143,
    "Ġaeroplane": 9144,
    "Ġstreet": 9145,
    "ital": 9146,
    "Ġcourse": 9147,
    "Really": 9148,
    "here": 9149,
    "Ġactivities": 9150,
    "ĠBow": 9151,
    "Ġbubbly": 9152,
    "Many": 9153,
    "Ġwritten": 9154,
    "lest": 9155,
    "Ġwal": 9156,
    "Ġdeep": 9157,
    "Kayla": 9158,
    "lower": 9159,
    "ĠAny": 9160,
    "Ġjourn": 9161,
    "Ġcrops": 9162,
    "Ġdrawing": 9163,
    "Ġtrash": 9164,
    "ĠRover": 9165,
    "Ġor": 9166,
    "ĠChe": 9167,
    "Ġdoggy": 9168,
    "Ġdecorating": 9169,
    "ĠRich": 9170,
    "St": 9171,
    "Ġbor": 9172,
    "Ġscarves": 9173,
    "Ġdry": 9174,
    "Ý": 9175,
    "espite": 9176,
    "ach": 9177,
    "ĠPlay": 9178,
    "Ġkneel": 9179,
    "Dave": 9180,
    "Bill": 9181,
    "Ġdaisies": 9182,
    "aw": 9183,
    "ĠSqueak": 9184,
    "Ġleading": 9185,
    "Ġpr": 9186,
    "Ġcompany": 9187,
    "hett": 9188,
    "Ġcleaning": 9189,
    "Ġrestored": 9190,
    "ĠLuc": 9191,
    "lo": 9192,
    "ĠGive": 9193,
    "anged": 9194,
    "Ġaware": 9195,
    "iful": 9196,
    "Ġdif": 9197,
    "Ġmarched": 9198,
    "These": 9199,
    "ashes": 9200,
    "Ġwave": 9201,
    "Ġrails": 9202,
    "ilty": 9203,
    "Ġaccepted": 9204,
    "Ġafter": 9205,
    "Ġspiky": 9206,
    "Ġcones": 9207,
    "lies": 9208,
    "Ġmodern": 9209,
    "Ġengines": 9210,
    "Ġnam": 9211,
    "bling": 9212,
    "Ġfasc": 9213,
    "key": 9214,
    "Ġmin": 9215,
    "Ġscolded": 9216,
    "Ġwhales": 9217,
    "Ġformed": 9218,
    "ĠNavy": 9219,
    "Ġtree": 9220,
    "Ġseen": 9221,
    "ĠSimon": 9222,
    "ĠEnjoy": 9223,
    "evin": 9224,
    "Ġeagle": 9225,
    "Ġtrack": 9226,
    "ons": 9227,
    "Ġpizzas": 9228,
    "Ė": 9229,
    "Ġrewarding": 9230,
    "Sn": 9231,
    "ong": 9232,
    "ĠWatch": 9233,
    "Ġtalents": 9234,
    "mers": 9235,
    "ĠRoar": 9236,
    "ither": 9237,
    "Ġluxu": 9238,
    "âĢĿ": 9239,
    "reeze": 9240,
    "Ġpra": 9241,
    "Ġwine": 9242,
    "ĠSpicy": 9243,
    "Ġweek": 9244,
    "Ġcrayons": 9245,
    "Ġbuckets": 9246,
    "Ġpulling": 9247,
    "Ġfever": 9248,
    "Ġroot": 9249,
    "Ġcounts": 9250,
    "Ġchance": 9251,
    "Ġcharge": 9252,
    "Ġunlo": 9253,
    "ena": 9254,
    "Ġsheets": 9255,
    "Ġtalked": 9256,
    "Ġsteer": 9257,
    "ĠLuke": 9258,
    "otten": 9259,
    "Ġplenty": 9260,
    "Ġscooter": 9261,
    "Ġdish": 9262,
    "Ġcharacters": 9263,
    "Ġhammer": 9264,
    "Ġcrunchy": 9265,
    "Ġpearls": 9266,
    "acked": 9267,
    "Ġwear": 9268,
    "Ġkiss": 9269,
    "een": 9270,
    "udy": 9271,
    "Ġhandsome": 9272,
    "atty": 9273,
    "Ġfrowns": 9274,
    "Ġsi": 9275,
    "ĠOlivia": 9276,
    "Ġdiffic": 9277,
    "Ġmagician": 9278,
    "ĠMarch": 9279,
    "Ġbumping": 9280,
    "Ġpasses": 9281,
    "Ġlunch": 9282,
    "bul": 9283,
    "ç": 9284,
    "fe": 9285,
    "ĠDan": 9286,
    "ĠJenn": 9287,
    "ipping": 9288,
    "Ġexpress": 9289,
    "Ġtraded": 9290,
    "Ġimpress": 9291,
    "Ġcreature": 9292,
    "Ġcooks": 9293,
    "Ġapplaud": 9294,
    "Ġsu": 9295,
    "Ġtime": 9296,
    "Ġpiles": 9297,
    "gry": 9298,
    "Ġhalf": 9299,
    "urn": 9300,
    "Ġskirts": 9301,
    "romise": 9302,
    "Ġbelly": 9303,
    "Ġcrash": 9304,
    "Ġfloating": 9305,
    "ids": 9306,
    "Ġowls": 9307,
    "Ġshines": 9308,
    "Sophie": 9309,
    "Ġdest": 9310,
    "Ġvoice": 9311,
    "ĠRollie": 9312,
    "b": 9313,
    "yl": 9314,
    "les": 9315,
    "Ġref": 9316,
    "oom": 9317,
    "Ġrod": 9318,
    "ili": 9319,
    "anted": 9320,
    "Ġrest": 9321,
    "ĠMike": 9322,
    "Since": 9323,
    "Ġwhines": 9324,
    "Ġjar": 9325,
    "Ġattacked": 9326,
    "Ġvest": 9327,
    "Claire": 9328,
    "step": 9329,
    "lling": 9330,
    "Ġdelicious": 9331,
    "Ġlate": 9332,
    "Ġamazement": 9333,
    "Ġfloated": 9334,
    "Ġplanet": 9335,
    "Ġbill": 9336,
    "indy": 9337,
    "Ġwaiting": 9338,
    "'ve": 9339,
    "Ġpreparing": 9340,
    "Ġexperien": 9341,
    "Ġchuckled": 9342,
    "Ġended": 9343,
    "Ġstorm": 9344,
    "Ĕ": 9345,
    "Ġtimid": 9346,
    "ĠReady": 9347,
    "ĠMittens": 9348,
    "Ġmuffins": 9349,
    "Ġglasses": 9350,
    "ĠCindy": 9351,
    "Ġflags": 9352,
    "Ġcreate": 9353,
    "ĠLucky": 9354,
    "Ġflashing": 9355,
    "Ġpedaled": 9356,
    "ffe": 9357,
    "ircle": 9358,
    "Ġbehavi": 9359,
    "Ġloc": 9360,
    "Ġbells": 9361,
    "Ġcocoa": 9362,
    "ishing": 9363,
    "amber": 9364,
    "ĠGrump": 9365,
    "Ġload": 9366,
    "athan": 9367,
    "ĠJeff": 9368,
    "ĠApril": 9369,
    "Ġru": 9370,
    "ĠSn": 9371,
    "Ġfascin": 9372,
    "Ġdelivered": 9373,
    "Ġwiggly": 9374,
    "Ġopens": 9375,
    "Ġring": 9376,
    "Ġcaps": 9377,
    "Ġmotorcycles": 9378,
    "blings": 9379,
    "Ġcrawl": 9380,
    "Ġcars": 9381,
    "?âĢĿ.": 9382,
    "light": 9383,
    "arian": 9384,
    "Ġduck": 9385,
    "Ġorders": 9386,
    "Ġfinished": 9387,
    "Ġrinse": 9388,
    "Mira": 9389,
    "up": 9390,
    "Ġraised": 9391,
    "Ġbatteries": 9392,
    "Ġunlocked": 9393,
    "Ġclever": 9394,
    "Ġexplains": 9395,
    "Ġmask": 9396,
    "Ġfinding": 9397,
    "Ġshop": 9398,
    "Ġbedtime": 9399,
    "ĠBingo": 9400,
    "Ġlighting": 9401,
    "ctopus": 9402,
    "ogn": 9403,
    "Would": 9404,
    "Ġfolder": 9405,
    "Ġcolored": 9406,
    "Ġoperation": 9407,
    "Ġcurled": 9408,
    "esterday": 9409,
    "Ġsplit": 9410,
    "bo": 9411,
    "Ġrealise": 9412,
    "Ġketchup": 9413,
    "cle": 9414,
    "Ġbeeh": 9415,
    "Ġsneezes": 9416,
    "orse": 9417,
    "iding": 9418,
    "Ġcor": 9419,
    "Ġcommon": 9420,
    "Ġniece": 9421,
    "ĠFo": 9422,
    "Ġblame": 9423,
    "die": 9424,
    "¢": 9425,
    "ö": 9426,
    "Ġprom": 9427,
    "ue": 9428,
    "Ġattack": 9429,
    "crow": 9430,
    "ĠSil": 9431,
    "Ġwrigg": 9432,
    "es": 9433,
    "ĠAm": 9434,
    "ĠDragon": 9435,
    "Ġsnacks": 9436,
    "Ġswinging": 9437,
    "Ġcurl": 9438,
    "Ġtruth": 9439,
    "Ġrace": 9440,
    "ique": 9441,
    "ira": 9442,
    "Ġruined": 9443,
    "Ġwealthy": 9444,
    "âĢĻ": 9445,
    "Ġavo": 9446,
    "Ġrepaired": 9447,
    "Ġdrip": 9448,
    "Ġrats": 9449,
    "Ġhistory": 9450,
    "Ġwalking": 9451,
    "Ġdad": 9452,
    "Ġthese": 9453,
    "Peter": 9454,
    "While": 9455,
    "sa": 9456,
    "Ġbroken": 9457,
    "ĠLiza": 9458,
    "Ġstairs": 9459,
    "ened": 9460,
    "idence": 9461,
    "Ġvalley": 9462,
    "Ġput": 9463,
    "Ġmess": 9464,
    "Ġbeside": 9465,
    "Ġfailed": 9466,
    "Ġcry": 9467,
    "oppy": 9468,
    "Ġhi": 9469,
    "ĠWelcome": 9470,
    "Rabbit": 9471,
    "Ġquacking": 9472,
    "ino": 9473,
    "Ġdreamed": 9474,
    "º": 9475,
    "Ġmicrophone": 9476,
    "ĠMin": 9477,
    "omobile": 9478,
    "ĠAbbie": 9479,
    "ves": 9480,
    "Pe": 9481,
    "igg": 9482,
    "berry": 9483,
    "Ġfootprints": 9484,
    "Ġmeaning": 9485,
    "Ġgrandd": 9486,
    "Ġname": 9487,
    "bow": 9488,
    "Ġwise": 9489,
    "uess": 9490,
    "ought": 9491,
    "Ġsal": 9492,
    "Ġwiggling": 9493,
    "Ġview": 9494,
    "ĠPlease": 9495,
    "mine": 9496,
    "Ġfirmly": 9497,
    "'": 9498,
    "Ġcomplet": 9499,
    "Ġargue": 9500,
    "Ġtrampoline": 9501,
    "Ġwaving": 9502,
    "Ġexample": 9503,
    "ulp": 9504,
    "Ġtired": 9505,
    "ĠSaturday": 9506,
    "Ġenvel": 9507,
    "ĠCathy": 9508,
    "Ġstrokes": 9509,
    "Ġtidying": 9510,
    "Your": 9511,
    "ĠUnfortunately": 9512,
    "eds": 9513,
    "Ġtouch": 9514,
    "ĠMic": 9515,
    "less": 9516,
    "Ġpages": 9517,
    "ected": 9518,
    "Ġselling": 9519,
    "Milo": 9520,
    "Jenny": 9521,
    "ĠDizzy": 9522,
    "Ġown": 9523,
    "Ġcould": 9524,
    "ched": 9525,
    "Ġsalt": 9526,
    "nce": 9527,
    "resses": 9528,
    "ĠCrabby": 9529,
    "ĠRebecca": 9530,
    "Ġpacked": 9531,
    "Ġgears": 9532,
    "ĠBobby": 9533,
    "Ġplanned": 9534,
    "Ġmarble": 9535,
    "laimed": 9536,
    "ĝ": 9537,
    "Ġopposite": 9538,
    "Ġtrans": 9539,
    "ying": 9540,
    "Ġscatter": 9541,
    "Ġrot": 9542,
    "Ġclaw": 9543,
    "Ġtipped": 9544,
    "eter": 9545,
    "Ġsn": 9546,
    "Ġsec": 9547,
    "Ġcheckout": 9548,
    "ricane": 9549,
    "For": 9550,
    "Alice": 9551,
    "Ġdripped": 9552,
    "ĠCro": 9553,
    "Ġuntie": 9554,
    "apa": 9555,
    "Ġstarts": 9556,
    "Ġworrying": 9557,
    "Ġflapped": 9558,
    "Ġears": 9559,
    "sing": 9560,
    "Ġgoes": 9561,
    "True": 9562,
    "Ġcosts": 9563,
    "Ġtravels": 9564,
    "Ġshoo": 9565,
    "Ġopp": 9566,
    "Ġangels": 9567,
    "Ġrecommend": 9568,
    "Ġpresented": 9569,
    "Ġyogurt": 9570,
    "Ġsprays": 9571,
    "Ġbored": 9572,
    "Molly": 9573,
    "Ġbaskets": 9574,
    "ice": 9575,
    "Ġsurrounded": 9576,
    "Ġavocado": 9577,
    "Ġforgives": 9578,
    "Ġstored": 9579,
    "ĠSpin": 9580,
    "Ġsecret": 9581,
    "ĠBuggy": 9582,
    "Ġstand": 9583,
    "Ġleads": 9584,
    "oved": 9585,
    "ĠJudge": 9586,
    "Ġbubbles": 9587,
    "bulance": 9588,
    "Ġscoot": 9589,
    "aud": 9590,
    "Ġwires": 9591,
    "Ġbet": 9592,
    "acock": 9593,
    "Try": 9594,
    "Ġmeas": 9595,
    "Ġtick": 9596,
    "Ġbuying": 9597,
    "Jazz": 9598,
    "mel": 9599,
    "Be": 9600,
    "elvet": 9601,
    "Ġdirections": 9602,
    "ĠJust": 9603,
    "ĠBecky": 9604,
    "Ġshape": 9605,
    "ives": 9606,
    "Ġagain": 9607,
    "room": 9608,
    "edn": 9609,
    "Ġspending": 9610,
    "Ġsitu": 9611,
    "nie": 9612,
    "ĠJonny": 9613,
    "Ġlay": 9614,
    "Ġsprinkle": 9615,
    "Ġrecorder": 9616,
    "Ġchips": 9617,
    "ex": 9618,
    "ses": 9619,
    "Ġprayer": 9620,
    "ative": 9621,
    "Ġfiref": 9622,
    "Ġpot": 9623,
    "Ġnuzzled": 9624,
    "Ġerase": 9625,
    "Ġescaped": 9626,
    "Ġapplauded": 9627,
    "Ġchoice": 9628,
    "Ġmachine": 9629,
    "Ġswitch": 9630,
    "ches": 9631,
    "ĠLisa": 9632,
    "ĠTrust": 9633,
    "Ġslowed": 9634,
    "fly": 9635,
    "ilda": 9636,
    "Ġseems": 9637,
    "ĠMus": 9638,
    "mas": 9639,
    "Ġca": 9640,
    "Ġbathtub": 9641,
    "Ġsuffering": 9642,
    "Ġbeast": 9643,
    "She": 9644,
    "Ġfruit": 9645,
    "Ġarri": 9646,
    "Ġsepar": 9647,
    "Mouse": 9648,
    "Ġolder": 9649,
    "Ġlittle": 9650,
    "Ġneatly": 9651,
    "ĠTr": 9652,
    "Ġle": 9653,
    "Ġcompleted": 9654,
    "Ġcage": 9655,
    "cream": 9656,
    "Ġdollhouse": 9657,
    "Bl": 9658,
    "reat": 9659,
    "Ġrags": 9660,
    "ĠBally": 9661,
    "Ġheav": 9662,
    "Ġchatted": 9663,
    "Ġstaff": 9664,
    "Ġtossed": 9665,
    "vin": 9666,
    "Ġlady": 9667,
    "Ġdead": 9668,
    "ĠNana": 9669,
    "ĠBlack": 9670,
    "Ġsound": 9671,
    "Ġgri": 9672,
    "ĠBirthday": 9673,
    "Ġrecording": 9674,
    "Ġonion": 9675,
    "iment": 9676,
    "If": 9677,
    ".'": 9678,
    "ĠCammy": 9679,
    "ĠPrincess": 9680,
    "ĠBirdy": 9681,
    "hip": 9682,
    "Ġchar": 9683,
    "Ġlooking": 9684,
    "Ġtripped": 9685,
    "Ġfacing": 9686,
    "Ġsou": 9687,
    "yan": 9688,
    "Ġrepa": 9689,
    "Ġbehaving": 9690,
    "Ġspoonful": 9691,
    "oo": 9692,
    "Ġshadow": 9693,
    "Ġhay": 9694,
    "keep": 9695,
    "Ġcottage": 9696,
    "Ġboot": 9697,
    "Zigzag": 9698,
    "Have": 9699,
    "Ġtant": 9700,
    "inky": 9701,
    "Uh": 9702,
    "ĠRex": 9703,
    "Ġtowards": 9704,
    "Ġrestless": 9705,
    "Ġhaircut": 9706,
    "Ġisn": 9707,
    "Ġtrading": 9708,
    "Ġguns": 9709,
    "ĠJu": 9710,
    "Ġgoggles": 9711,
    "Ġtallest": 9712,
    "ll": 9713,
    "Ġbasement": 9714,
    "Ġtell": 9715,
    "Ġpan": 9716,
    "Ġswoop": 9717,
    "Mine": 9718,
    "Ġbulb": 9719,
    "Ġpe": 9720,
    "Ġinch": 9721,
    "ĠLina": 9722,
    "mered": 9723,
    "ĠMissy": 9724,
    "Ġdarling": 9725,
    "ĠBrian": 9726,
    "otion": 9727,
    "ĠAchoo": 9728,
    "ĠOxygen": 9729,
    "Ġgrew": 9730,
    "Ġvehicle": 9731,
    "ĠSanta": 9732,
    "ĠSettle": 9733,
    "ĸ": 9734,
    "ĠFire": 9735,
    "uch": 9736,
    "Ġran": 9737,
    "Ġfuel": 9738,
    "Brrr": 9739,
    "Ġmagnets": 9740,
    "Ġ5": 9741,
    "Ġmist": 9742,
    "Ġskies": 9743,
    "ges": 9744,
    "Ġpours": 9745,
    "ĠGrand": 9746,
    "mediately": 9747,
    "Ġneat": 9748,
    "ĠCrusty": 9749,
    "Ġpaddling": 9750,
    "Ġsculpture": 9751,
    "Ġlives": 9752,
    "Ġscary": 9753,
    "irp": 9754,
    "ĠJones": 9755,
    "Ġinstantly": 9756,
    "ount": 9757,
    "Ġrec": 9758,
    "Ġbody": 9759,
    ",âĢĿ": 9760,
    "Ġpaying": 9761,
    "igail": 9762,
    "ĠâĢĵ": 9763,
    "bol": 9764,
    "ĠKelly": 9765,
    "Je": 9766,
    "Ġmole": 9767,
    "Quick": 9768,
    "Ġfighting": 9769,
    "Ġdreaming": 9770,
    "ĠPeanut": 9771,
    "Ġbuzzed": 9772,
    "Ġdesert": 9773,
    "Ġbuilding": 9774,
    "Ġstroked": 9775,
    "Ġtighter": 9776,
    "Ġwhose": 9777,
    "ely": 9778,
    "Ġchef": 9779,
    "Ġped": 9780,
    "we": 9781,
    "é": 9782,
    "king": 9783,
    "Ġgrey": 9784,
    "Ġsingle": 9785,
    "0": 9786,
    "Ġkindness": 9787,
    "ĠTodd": 9788,
    "Ġvillagers": 9789,
    "Ġtoe": 9790,
    "Ġbomb": 9791,
    "edient": 9792,
    "net": 9793,
    "ĠBa": 9794,
    "Ġmouth": 9795,
    "esses": 9796,
    "Ġpow": 9797,
    "Ġgaz": 9798,
    "ĠPeggy": 9799,
    "ĠStay": 9800,
    "Ġsinging": 9801,
    "Ġrewards": 9802,
    "ird": 9803,
    "Ġruining": 9804,
    "arlings": 9805,
    "Ġ4": 9806,
    "Ġtemple": 9807,
    "lla": 9808,
    "Ġlemon": 9809,
    "Ġstumble": 9810,
    "Ġfans": 9811,
    "loo": 9812,
    "Ġmaking": 9813,
    "ĠY": 9814,
    "Ġneighbors": 9815,
    "Lola": 9816,
    "Ġnap": 9817,
    "Ġfriends": 9818,
    "Ġmushroom": 9819,
    "Maggie": 9820,
    "Ġban": 9821,
    "Ġstomachs": 9822,
    "hes": 9823,
    "Ġlizards": 9824,
    "Trust": 9825,
    "Ġsymbols": 9826,
    "ive": 9827,
    "Ġtuna": 9828,
    "Hop": 9829,
    "Ġpins": 9830,
    "Ġbathing": 9831,
    "esday": 9832,
    "Ġchill": 9833,
    "Ġener": 9834,
    "Dolly": 9835,
    "Ġsort": 9836,
    "izz": 9837,
    "Ġberries": 9838,
    "Ġtent": 9839,
    "Ġknights": 9840,
    "Ġmassages": 9841,
    "ĠMaggie": 9842,
    "Ben": 9843,
    "urious": 9844,
    "anes": 9845,
    "Ġdisappoint": 9846,
    "ai": 9847,
    "id": 9848,
    "Ġconsequences": 9849,
    "iri": 9850,
    "Ġeasier": 9851,
    "ĠYawn": 9852,
    "Ġanother": 9853,
    "ĠFrank": 9854,
    "Ġadvice": 9855,
    "Ġanything": 9856,
    "Ġtea": 9857,
    "ĠEverything": 9858,
    "ad": 9859,
    "Ġpear": 9860,
    "ĠZoomy": 9861,
    "orted": 9862,
    "ĠSkelly": 9863,
    "Ġhippo": 9864,
    "Ġgerm": 9865,
    "Ġmusic": 9866,
    "aggie": 9867,
    "Ġwake": 9868,
    "met": 9869,
    "Ġphoto": 9870,
    "igger": 9871,
    "Ġriding": 9872,
    "Ġop": 9873,
    "ire": 9874,
    "ĠV": 9875,
    "Ġloudly": 9876,
    "Ġcheeks": 9877,
    "Ġwaited": 9878,
    "There": 9879,
    "Ġagreement": 9880,
    "Ġanimals": 9881,
    "Ġbravest": 9882,
    "Ġranch": 9883,
    "Ġfill": 9884,
    "ĠRocky": 9885,
    "Ġturns": 9886,
    "Ġmailman": 9887,
    "Ġwrites": 9888,
    "Ġvibrant": 9889,
    "Ġtouc": 9890,
    "Ġthinking": 9891,
    "Ġhelpers": 9892,
    "Help": 9893,
    "Ġtor": 9894,
    "ĠIf": 9895,
    "Ġstung": 9896,
    "Ġeraser": 9897,
    "Ġdone": 9898,
    "Ġcollection": 9899,
    "ĠSpring": 9900,
    "Ġproud": 9901,
    "ĠâĢľ": 9902,
    "Ġfeel": 9903,
    "uesday": 9904,
    "ĠKitty": 9905,
    "Ġweb": 9906,
    "othy": 9907,
    "Ġeasily": 9908,
    "ĠAnne": 9909,
    "âĢĿ,": 9910,
    "Ġsign": 9911,
    "Eww": 9912,
    "Grace": 9913,
    "Ġmooed": 9914,
    "Pat": 9915,
    "elery": 9916,
    "ĠMira": 9917,
    "Ġcages": 9918,
    "Ġwarri": 9919,
    "Ġaccomplished": 9920,
    "Ġrinsed": 9921,
    "Ġwhere": 9922,
    "Ġtaps": 9923,
    "Ġtest": 9924,
    "Ġdump": 9925,
    "Ġmattress": 9926,
    "Ġinstructions": 9927,
    "ences": 9928,
    "Ġdripping": 9929,
    "eling": 9930,
    "Ġpasta": 9931,
    "Ġhabit": 9932,
    "Ġcheer": 9933,
    "us": 9934,
    "Ġhandle": 9935,
    "Ġgirl": 9936,
    "Ġstudent": 9937,
    "Ě": 9938,
    "âĢ": 9939,
    "Ġal": 9940,
    "Ġpay": 9941,
    "port": 9942,
    "Ġcare": 9943,
    "ĠSm": 9944,
    "ĠB": 9945,
    "cing": 9946,
    "Ġscaring": 9947,
    "Ġsticks": 9948,
    "Ġsince": 9949,
    "Ġgrandfather": 9950,
    "mend": 9951,
    "C": 9952,
    "ĠMay": 9953,
    "Ġrip": 9954,
    "Ġwherever": 9955,
    "Ġint": 9956,
    "Ġcountryside": 9957,
    "Ġopin": 9958,
    "ĠMuffin": 9959,
    "Ġsummer": 9960,
    "Ġoyster": 9961,
    "\".": 9962,
    "Ġknelt": 9963,
    "Ġlight": 9964,
    "Ġcheating": 9965,
    "Ġrealized": 9966,
    "te": 9967,
    "iel": 9968,
    "Ġbones": 9969,
    "Ġremember": 9970,
    "ĠStretch": 9971,
    "Ġlectures": 9972,
    "Ġgems": 9973,
    "Clara": 9974,
    "Ê": 9975,
    "ĠEl": 9976,
    "Ġsav": 9977,
    "Ġsl": 9978,
    "Ġstr": 9979,
    "set": 9980,
    "Ġveterinarian": 9981,
    "Ġpizza": 9982,
    "Ġreally": 9983,
    "Ġprotection": 9984,
    "Ġmunch": 9985,
    "Ġgloomy": 9986,
    "Ġshowing": 9987,
    "Bye": 9988,
    "Ġprinted": 9989,
    "Ġrolls": 9990,
    "Ġdoorway": 9991,
    "zed": 9992,
    "ĠAva": 9993,
    "B": 9994,
    "ĠRo": 9995,
    "Ġbounces": 9996,
    "Ġin": 9997,
    "Ġsoar": 9998,
    "Ġquiz": 9999
}