{
    "Ġcarp": 0,
    "Ġcover": 1,
    "Ġfridge": 2,
    "Ġcracked": 3,
    "Ġpumpkins": 4,
    "Ġhunter": 5,
    "âĢ¦": 6,
    "Ġpeanuts": 7,
    "Ġdoors": 8,
    "Ġsofter": 9,
    "ĠHug": 10,
    "good": 11,
    "Ġreversed": 12,
    "Ġscaring": 13,
    "ails": 14,
    "Ġenjoyable": 15,
    "Ġbase": 16,
    "arted": 17,
    "Ġdied": 18,
    "Ġdecoration": 19,
    "Ġdrifted": 20,
    "Wh": 21,
    "ie": 22,
    "ying": 23,
    "ĠHelen": 24,
    "Ġpec": 25,
    "Ġsquinted": 26,
    "Ġstrokes": 27,
    "ĠDr": 28,
    "ha": 29,
    "Ġrumble": 30,
    "Ġpeaches": 31,
    "Ġskirts": 32,
    "Ġtummy": 33,
    "ade": 34,
    "uel": 35,
    "Ġboss": 36,
    "sn": 37,
    "Ĭ": 38,
    "Dolly": 39,
    "neath": 40,
    "zzy": 41,
    "il": 42,
    "ĠFu": 43,
    "Z": 44,
    "Ġyesterday": 45,
    "Julia": 46,
    "Ġsupport": 47,
    "ĠSuzie": 48,
    "Ġremembered": 49,
    "Splash": 50,
    "ĠBuddy": 51,
    "Ġneedles": 52,
    "Ġanger": 53,
    "Ġregret": 54,
    "Ą": 55,
    "Ġfiremen": 56,
    "its": 57,
    "Ġseeker": 58,
    "Milly": 59,
    "ĠMillie": 60,
    "Ġshout": 61,
    "Ġroll": 62,
    "Ġsings": 63,
    "Ġgorilla": 64,
    "Ġforth": 65,
    "Ġknew": 66,
    "Ġsweeter": 67,
    "nce": 68,
    "ounce": 69,
    "Ġcoins": 70,
    "Ġanticip": 71,
    "Go": 72,
    "ĠMom": 73,
    "Ġtaken": 74,
    "Ġkilled": 75,
    "Thanks": 76,
    "vered": 77,
    "Ġsprout": 78,
    "Ġsquee": 79,
    "Ġonwards": 80,
    "Ŀ": 81,
    "Ġwebs": 82,
    "Ġdreamed": 83,
    "ĠTippy": 84,
    "ĠCarl": 85,
    "set": 86,
    "ishes": 87,
    "Ġlife": 88,
    "Ġbooth": 89,
    "Ġresting": 90,
    "Ġglitt": 91,
    "Ġcloser": 92,
    "arl": 93,
    "Ġrespons": 94,
    "by": 95,
    "Ġpuppies": 96,
    "Ġtil": 97,
    "Ġpraying": 98,
    "Ľ": 99,
    "Ġpicnics": 100,
    "Ġstu": 101,
    "lcano": 102,
    "ĠPast": 103,
    "aghetti": 104,
    "·": 105,
    "Ġsm": 106,
    "Ġcompet": 107,
    "Ġcheering": 108,
    "Sometimes": 109,
    "With": 110,
    "Annie": 111,
    "Ġdin": 112,
    "Ġtruth": 113,
    "ĠEach": 114,
    "Ġinvest": 115,
    "Ġnods": 116,
    "Ġcommon": 117,
    "Ġnewsp": 118,
    "Ġpop": 119,
    "Ġwhiskers": 120,
    "Ġribbit": 121,
    "And": 122,
    "Ġnot": 123,
    "hile": 124,
    "udden": 125,
    "Ġstem": 126,
    "Lila": 127,
    "Always": 128,
    "Ġcaution": 129,
    "ning": 130,
    "Ġhandsome": 131,
    "Ġwhenever": 132,
    "Pe": 133,
    "ĠBubba": 134,
    "Ġfreez": 135,
    "Ġshine": 136,
    "Ġgrassy": 137,
    "cat": 138,
    "ĠPet": 139,
    "imon": 140,
    "Ġthey": 141,
    "Ġrelax": 142,
    "ĠSusie": 143,
    "undred": 144,
    "Ġsinger": 145,
    "Ġsprinkle": 146,
    "Ġterrible": 147,
    "Ġbent": 148,
    "è": 149,
    "Ġluckiest": 150,
    "ĠGod": 151,
    "ĠLiza": 152,
    "ĠOlive": 153,
    "yan": 154,
    "Ġfirefighter": 155,
    "Ġturn": 156,
    "Ġbandages": 157,
    "Ġzooms": 158,
    "Č": 159,
    "ron": 160,
    "ĠRh": 161,
    "Ġhalves": 162,
    "~": 163,
    "Ġlettuce": 164,
    "ĠPink": 165,
    "Ġhats": 166,
    "Ġman": 167,
    "Ġprune": 168,
    "Ġbecomes": 169,
    "Ġbin": 170,
    "ber": 171,
    "Ġtries": 172,
    "ĠWhen": 173,
    "ulpture": 174,
    "Ġwindowsill": 175,
    "Ġabout": 176,
    "Ġtax": 177,
    "istory": 178,
    "Ġdancer": 179,
    "Ġmagazines": 180,
    "Ġbecause": 181,
    "Ġstructures": 182,
    "Į": 183,
    "Ġallowed": 184,
    "Ġdragon": 185,
    "Ġcould": 186,
    "Ġfarther": 187,
    "ê": 188,
    "Ġcatching": 189,
    "Ġsuperhero": 190,
    "ishing": 191,
    "ots": 192,
    "ever": 193,
    "Ġslammed": 194,
    "Ġsho": 195,
    "Ġeaten": 196,
    "umbled": 197,
    "old": 198,
    "ature": 199,
    "Ġgolf": 200,
    "Ġuniforms": 201,
    "Ġrefused": 202,
    "ĠMine": 203,
    "hny": 204,
    "Ġnapped": 205,
    "isten": 206,
    "Ġcast": 207,
    "Ġbacked": 208,
    "Ġrocking": 209,
    "Ġchee": 210,
    "Ġduck": 211,
    "Ġsoftened": 212,
    "ĠZero": 213,
    "Ġchocolate": 214,
    "Ġpie": 215,
    "Ġneatly": 216,
    "Ġapart": 217,
    "ĠBetsy": 218,
    "Ġinviting": 219,
    "Ġdelic": 220,
    "Maggie": 221,
    "Ġexpecting": 222,
    "Ġawful": 223,
    "ĠBob": 224,
    "Ġlongest": 225,
    "Ġdir": 226,
    "Ġpan": 227,
    "Ġwaddled": 228,
    "Ġyach": 229,
    "Ġmessage": 230,
    "ĠNutty": 231,
    "Ġlung": 232,
    "Ġworried": 233,
    "Ġleave": 234,
    "ĠJust": 235,
    "Ġpay": 236,
    "Chirpy": 237,
    "Eat": 238,
    "Ġsplit": 239,
    "Ġalley": 240,
    "ĠDuck": 241,
    "Ġinjured": 242,
    "Ġunlocking": 243,
    "Ġoh": 244,
    "Ġpilot": 245,
    "Ġsoil": 246,
    "Ġ2": 247,
    "aved": 248,
    "Ġintelligent": 249,
    "Mr": 250,
    "Max": 251,
    "her": 252,
    "aisy": 253,
    "Ġsink": 254,
    "Ġencouragement": 255,
    "Ġgu": 256,
    "ĠShadow": 257,
    "Ġab": 258,
    "Ġdreams": 259,
    "Ġraft": 260,
    "emies": 261,
    "Ġweb": 262,
    "Ġfruits": 263,
    "Of": 264,
    "Ġpolishing": 265,
    "Ġflick": 266,
    "Ġstack": 267,
    "Ġpus": 268,
    "Ġsticker": 269,
    "Ġtrees": 270,
    "Ġstuffed": 271,
    "Ġtasting": 272,
    "Ġpatted": 273,
    "See": 274,
    "£": 275,
    "ari": 276,
    "Ġbrightest": 277,
    "Ġbananas": 278,
    "Ġvroom": 279,
    "Ġmush": 280,
    "Ġpaddling": 281,
    "Ġthro": 282,
    "Hop": 283,
    "oved": 284,
    "Ġmatters": 285,
    "Ġclothes": 286,
    "Ġmarkers": 287,
    "ĠLizzie": 288,
    "Harry": 289,
    "iel": 290,
    "Ġoffered": 291,
    "From": 292,
    "inking": 293,
    "Ġready": 294,
    "ppy": 295,
    "Ġscar": 296,
    "Em": 297,
    "utes": 298,
    "Ġprettier": 299,
    "Ġseats": 300,
    "Ġspeak": 301,
    "Ġbeep": 302,
    "Ġmiss": 303,
    "ĠJen": 304,
    "Ġpeanut": 305,
    "Ġwelcome": 306,
    "ope": 307,
    "Ġflexible": 308,
    "ries": 309,
    "room": 310,
    "zie": 311,
    "Time": 312,
    "Bad": 313,
    "Ġant": 314,
    "ĠAndrew": 315,
    "ĳ": 316,
    "ĠMany": 317,
    "udge": 318,
    "ĠJean": 319,
    "Ġname": 320,
    "Ġpeople": 321,
    "Ġrep": 322,
    "Ġhurt": 323,
    "Ġsource": 324,
    "Ġfirework": 325,
    "Ġrefres": 326,
    "Ġrider": 327,
    "Ġsquare": 328,
    "Ġraven": 329,
    "ü": 330,
    "ici": 331,
    "Ġdr": 332,
    "Ġlevel": 333,
    "Ġrecorder": 334,
    "ĠBobo": 335,
    "riger": 336,
    "ĠJessica": 337,
    "Ġpoems": 338,
    "Ġquacking": 339,
    "ur": 340,
    "Ġspin": 341,
    "Ġflip": 342,
    "ĠMaggie": 343,
    "Ġgrapes": 344,
    "Ġweapons": 345,
    "stairs": 346,
    "Ġmessy": 347,
    "Ġequ": 348,
    "Two": 349,
    "Fire": 350,
    "Ġindepend": 351,
    "Ġimproving": 352,
    "Ġexamining": 353,
    "David": 354,
    "abel": 355,
    "Ġparade": 356,
    "Ġlighter": 357,
    "ible": 358,
    "ĠSarah": 359,
    "Ġdif": 360,
    "Ġfamil": 361,
    "Ġat": 362,
    "Ġzip": 363,
    "Ġitem": 364,
    "arlie": 365,
    "Ġlaughed": 366,
    "Ġtour": 367,
    "Ġshining": 368,
    "Ġachieve": 369,
    "ĠSnap": 370,
    "retch": 371,
    "ĠBeing": 372,
    "Ġgrandpa": 373,
    "oe": 374,
    "Ġwonders": 375,
    "Ġcalm": 376,
    "Ġknot": 377,
    "lephant": 378,
    "Ġoyster": 379,
    "Ġplants": 380,
    "Ġin": 381,
    "aisies": 382,
    "Ġobserved": 383,
    "Ġmaterial": 384,
    "Ġfet": 385,
    "reg": 386,
    "unn": 387,
    "ĠFe": 388,
    "?": 389,
    "ĠRocky": 390,
    "Ġbitter": 391,
    "uc": 392,
    "izzie": 393,
    "Ġwondering": 394,
    "Ġpopping": 395,
    "Ahh": 396,
    "ĠTed": 397,
    "Bounce": 398,
    "ĝ": 399,
    "Ġreveal": 400,
    "Ġrested": 401,
    "Ġru": 402,
    "Ġfarm": 403,
    "Ġfishing": 404,
    "Ġrust": 405,
    "ĠElsa": 406,
    "Ġyumm": 407,
    "Ġmost": 408,
    "Ġplanted": 409,
    "Ġspreading": 410,
    "ĠĠ": 411,
    "Ġants": 412,
    "Ġthrill": 413,
    "Ġmember": 414,
    "ent": 415,
    "Ġancient": 416,
    "Ġcobweb": 417,
    "Ġcrow": 418,
    "Ġminer": 419,
    "Ġha": 420,
    "Ġlied": 421,
    "Ġwear": 422,
    "âĢľ": 423,
    "Ġmarker": 424,
    "Ġtornado": 425,
    "Ġeager": 426,
    "Ġpleas": 427,
    "able": 428,
    "ĠSomeone": 429,
    "Ġmatch": 430,
    "ipper": 431,
    "Ġdrums": 432,
    "Ġgates": 433,
    "ĠWooly": 434,
    "Ġtunnels": 435,
    "Ġlace": 436,
    "Ġmats": 437,
    "solut": 438,
    "ĠIcy": 439,
    "ibbit": 440,
    "issa": 441,
    "Ġstorekeeper": 442,
    "Ġwhispers": 443,
    "ĠDespite": 444,
    "Ġstop": 445,
    "Ġinteresting": 446,
    "â": 447,
    "Ġwriter": 448,
    "Ġfour": 449,
    "Ġshelter": 450,
    "Ġcreativity": 451,
    "Ġdusty": 452,
    "Ġward": 453,
    "Ġimage": 454,
    "Ġblast": 455,
    "Ġprayers": 456,
    "Ġbuttons": 457,
    "Ġemer": 458,
    "Ġbusy": 459,
    "ĠGive": 460,
    "ĠSoon": 461,
    "Ġhear": 462,
    "Tiny": 463,
    "Ġstumble": 464,
    "Ġgroceries": 465,
    "Ġthanked": 466,
    "Ġwindow": 467,
    "oll": 468,
    "Ġcastle": 469,
    "Ġcocoa": 470,
    "If": 471,
    "Ġdetermination": 472,
    "Ġwherever": 473,
    "ider": 474,
    "amber": 475,
    "Ġrefuse": 476,
    "Ġtossing": 477,
    "Ġinspired": 478,
    "Ġgrandparents": 479,
    "Ġharsh": 480,
    "Ġwears": 481,
    "Ġsmaller": 482,
    "Ġthree": 483,
    "Ġtrade": 484,
    "enry": 485,
    "ĠJake": 486,
    "ete": 487,
    "Ġregretted": 488,
    "Ġdiamond": 489,
    "Ġsorts": 490,
    "ĠTogether": 491,
    "Ġdef": 492,
    "Ġadventur": 493,
    "ĠBen": 494,
    "Ġbathe": 495,
    "Ġpost": 496,
    "sh": 497,
    "Ġmaking": 498,
    "Ġroom": 499,
    "Ġreminds": 500,
    "dding": 501,
    "Ġlean": 502,
    "ato": 503,
    "cious": 504,
    "Ġdeclared": 505,
    "Ġcutter": 506,
    "ully": 507,
    "Ġcraft": 508,
    "Ġleopard": 509,
    "cery": 510,
    "'re": 511,
    "aur": 512,
    "Ġovercome": 513,
    "au": 514,
    "Ġdizzy": 515,
    "Ġselling": 516,
    "Ring": 517,
    "ĠBecause": 518,
    "³": 519,
    "Ġtoes": 520,
    "ues": 521,
    "<": 522,
    "Ġstaff": 523,
    "Ġfilthy": 524,
    "ĠPenelope": 525,
    "Ġobser": 526,
    "Ol": 527,
    "Ġgoodbye": 528,
    "Ġtidy": 529,
    "Ġswallowed": 530,
    "Ġbat": 531,
    "ences": 532,
    "id": 533,
    "Ġeagerly": 534,
    "Ġtorn": 535,
    "Silly": 536,
    "cut": 537,
    "Ġmixture": 538,
    "Ġrealised": 539,
    "Chloe": 540,
    "Ġdressing": 541,
    "Ġsteer": 542,
    "ĠFifi": 543,
    "over": 544,
    "Ġsize": 545,
    "Ġfarmer": 546,
    "Ġnobody": 547,
    "Ġholding": 548,
    "Ġclassmates": 549,
    "Ġwin": 550,
    "ĠM": 551,
    "Ġembarrassed": 552,
    "ĠMatch": 553,
    "Ġreverse": 554,
    "Ġbeehive": 555,
    "shadow": 556,
    "ĠRia": 557,
    "Ġslices": 558,
    "Ġdoll": 559,
    "Jessica": 560,
    "Ġweighs": 561,
    "ĠRon": 562,
    "Ġmore": 563,
    "Ġtrotted": 564,
    "Try": 565,
    "Ġbutton": 566,
    "Ġzipped": 567,
    "port": 568,
    "Ġpuck": 569,
    "iece": 570,
    "Catch": 571,
    "ĠJenny": 572,
    "o": 573,
    "umble": 574,
    "Ġpanda": 575,
    "ĠMore": 576,
    "Ġclever": 577,
    "Ġneighbour": 578,
    "Ġadding": 579,
    "Ġsoccer": 580,
    "ations": 581,
    "Ġvisiting": 582,
    "Ġchose": 583,
    "Ġmist": 584,
    "Ġkicked": 585,
    "ĠBuster": 586,
    "\\": 587,
    "Ġinstead": 588,
    "Ahoy": 589,
    "Ġhoops": 590,
    "Ġsubway": 591,
    "Ġpower": 592,
    "ĠWo": 593,
    "ĠWell": 594,
    "Ġtrusted": 595,
    "Ġhive": 596,
    "Ġstanding": 597,
    "]": 598,
    "Ġbridges": 599,
    "ho": 600,
    "Ġchase": 601,
    "Ġcloths": 602,
    "ĠCrabby": 603,
    "aturday": 604,
    "Ġcreature": 605,
    "Ġsuch": 606,
    "Ġhot": 607,
    "arrow": 608,
    "Ġsandcastle": 609,
    "Ġhow": 610,
    "Ġsobbing": 611,
    "Ġbar": 612,
    "Ġill": 613,
    "ative": 614,
    "Ġtwinkle": 615,
    "ĠBo": 616,
    "ĠToys": 617,
    "Ġflower": 618,
    "quito": 619,
    "Ġhoping": 620,
    "Ġmosquitoes": 621,
    "ricane": 622,
    "Ġkeeps": 623,
    "Ġlent": 624,
    "ĠInky": 625,
    "Ġsatisfa": 626,
    "Ġkind": 627,
    "Ġneighbourhood": 628,
    "Ġstitch": 629,
    "Ġhel": 630,
    "Grace": 631,
    "Ġdeserves": 632,
    "Ġcash": 633,
    "ĠBessie": 634,
    "Ġgrocer": 635,
    "Ġcozy": 636,
    "chool": 637,
    "Ġcracks": 638,
    "Liz": 639,
    "ĊĠ": 640,
    "Ġpaid": 641,
    "Got": 642,
    "Ġfall": 643,
    "weed": 644,
    "Ġstew": 645,
    "Ġquestions": 646,
    "Ġsco": 647,
    "Ġcupboard": 648,
    "Ġcoop": 649,
    "ĠĊ": 650,
    "Anna": 651,
    "Ġsqueezes": 652,
    "fortunately": 653,
    "Ġcontest": 654,
    "ailable": 655,
    "Ġveggies": 656,
    "Ġtruly": 657,
    "Ġaccident": 658,
    "Ġhurry": 659,
    "Ġthrilled": 660,
    "Ġshrug": 661,
    "Ġlouder": 662,
    "Ġshow": 663,
    "sers": 664,
    "rise": 665,
    "here": 666,
    "Ġdesper": 667,
    "Ġchuckled": 668,
    "Ġachie": 669,
    "Ġrelie": 670,
    "ĠPe": 671,
    "ĠGoodbye": 672,
    "erpill": 673,
    "Ġparents": 674,
    "Ġwinds": 675,
    "Ġyummy": 676,
    "Ġj": 677,
    "aughter": 678,
    "Ġwidened": 679,
    "Ġur": 680,
    "Ġboy": 681,
    "Ġsnatched": 682,
    "Ġhun": 683,
    "cessary": 684,
    "iona": 685,
    "Sadly": 686,
    "Ġwheel": 687,
    "Ġcute": 688,
    "cean": 689,
    "Ġwor": 690,
    "ĠJay": 691,
    "Ġdisagreement": 692,
    "Ġconn": 693,
    "ndpa": 694,
    "ĠAnnie": 695,
    "Ġparticular": 696,
    "Ġblueberries": 697,
    "anger": 698,
    "Ġstreamers": 699,
    "Ġnest": 700,
    "ĠSquirrel": 701,
    "Ġtaste": 702,
    "Ġwet": 703,
    "Ġsets": 704,
    "ĠCle": 705,
    "Ġca": 706,
    "izzy": 707,
    "ĠBug": 708,
    "Near": 709,
    "Ġaround": 710,
    "ĠHannah": 711,
    "Ġforgiving": 712,
    "Ġmoder": 713,
    "!\"": 714,
    "ĠSuper": 715,
    "Ġactive": 716,
    "ĠBenny": 717,
    "Ġpersistent": 718,
    "Ġlim": 719,
    "istle": 720,
    "Ġripp": 721,
    "Ġpride": 722,
    "Ġneighbors": 723,
    "Ġchubby": 724,
    "Ġfuzzy": 725,
    "ĠJanie": 726,
    "Ġpacking": 727,
    "Ġslither": 728,
    "Ġglided": 729,
    "Ġdetect": 730,
    "Ġsecrets": 731,
    "Ġlived": 732,
    "Ġfootprints": 733,
    "Ġinst": 734,
    "Ġtractor": 735,
    "Ġimportance": 736,
    "Ġfamily": 737,
    "Would": 738,
    "Ġspiders": 739,
    "ĠEat": 740,
    "val": 741,
    "Ġescape": 742,
    "Ġaw": 743,
    "Spe": 744,
    "÷": 745,
    "Ġfell": 746,
    "ĠFix": 747,
    "Ġsty": 748,
    "Ġcaused": 749,
    "ĠTony": 750,
    "ult": 751,
    "ĠShow": 752,
    "ild": 753,
    "Ġseashe": 754,
    "Ġearly": 755,
    "Ġtiger": 756,
    "hello": 757,
    "Ġmagic": 758,
    "Ġpebble": 759,
    "Ġspringing": 760,
    "noon": 761,
    "Ġpig": 762,
    "Ġcovered": 763,
    "Ġweekend": 764,
    "ĠNe": 765,
    "ĠRoger": 766,
    "Ġalready": 767,
    "ark": 768,
    "Ġsouvenir": 769,
    "Ġsatis": 770,
    "ĠWhich": 771,
    "Ġhanger": 772,
    "oto": 773,
    "Ġlollipops": 774,
    "ĠWatch": 775,
    "Ġallowing": 776,
    "ĠFreddie": 777,
    "Ġspicy": 778,
    "ĠDan": 779,
    "ĠZoom": 780,
    "ĠSparky": 781,
    "Ġfans": 782,
    "Ġincredible": 783,
    "Ġteam": 784,
    "Ġpo": 785,
    "Here": 786,
    "Ġkayak": 787,
    "ucet": 788,
    "Ġknife": 789,
    "Jack": 790,
    "Ġdropped": 791,
    "Ġfo": 792,
    "Ġsoar": 793,
    "Ġdoves": 794,
    "berry": 795,
    "Ġdependable": 796,
    "ĥ": 797,
    "Ġcushions": 798,
    "Ġdrive": 799,
    "Ġcarpet": 800,
    "Ġwreck": 801,
    "Ġbless": 802,
    "ĠNora": 803,
    "Ġspikes": 804,
    "berries": 805,
    "Ġcreative": 806,
    "ĠMilly": 807,
    "Ġcold": 808,
    "Ġbeetle": 809,
    "ĠLucky": 810,
    "Ġspaghetti": 811,
    "Ġshivered": 812,
    "Ġbear": 813,
    "Ġrumbling": 814,
    "uce": 815,
    "Ġpins": 816,
    "Ġkne": 817,
    "ĠNothing": 818,
    "Ġsuggestion": 819,
    "Ġsituations": 820,
    "Ü": 821,
    "Ġcompetition": 822,
    "Ġsuits": 823,
    "Ġtickets": 824,
    "Ġbackpacks": 825,
    "Elly": 826,
    "Ġminutes": 827,
    "Ġbirds": 828,
    "ued": 829,
    "Ġmassage": 830,
    "Goodbye": 831,
    "Ġglowed": 832,
    "ĠGary": 833,
    "ĠJe": 834,
    "Ġlit": 835,
    "Ġbicy": 836,
    "Ġtigers": 837,
    "Ġtrans": 838,
    "oud": 839,
    "Hey": 840,
    "Ġclicked": 841,
    "ĠClose": 842,
    "Ġnation": 843,
    "edient": 844,
    "Ġears": 845,
    "Ġtoy": 846,
    "Ġdinosaur": 847,
    "ĠHor": 848,
    "Ġshadows": 849,
    "Ġhor": 850,
    "Ġscamp": 851,
    "nna": 852,
    "Ġba": 853,
    "Ġprevent": 854,
    "Ġfreedom": 855,
    "Ġgoo": 856,
    "come": 857,
    "ugar": 858,
    "Ġforever": 859,
    "Ġimprove": 860,
    "Ġspike": 861,
    "Ġswo": 862,
    "Ġnatur": 863,
    "Ġsearched": 864,
    "Ġimagine": 865,
    "Ġstudying": 866,
    "Ġcustomer": 867,
    "ĠDe": 868,
    "Ġarmchair": 869,
    "Ġraise": 870,
    "aps": 871,
    "Ġolder": 872,
    "ĠBall": 873,
    "Ġtwins": 874,
    "well": 875,
    "izes": 876,
    "Together": 877,
    "Ġbulb": 878,
    "Adam": 879,
    "ĠShe": 880,
    "wel": 881,
    "ĠBarry": 882,
    "Ġartist": 883,
    "ĠJolly": 884,
    "Ġability": 885,
    "Ġbravest": 886,
    "Ġpermit": 887,
    "Ġdriving": 888,
    "ĠSuzy": 889,
    "day": 890,
    "Ġlocked": 891,
    "Ġdirt": 892,
    "uggage": 893,
    "ish": 894,
    "ĠRara": 895,
    "ĠZiggy": 896,
    "ĠImmediately": 897,
    "Ġfrustrated": 898,
    "Ġvolcano": 899,
    "Ġlast": 900,
    "Ġenough": 901,
    "Ġkinder": 902,
    "Ġforgot": 903,
    "Ġinstruct": 904,
    "ĠBouncy": 905,
    "Ġmes": 906,
    "ĠO": 907,
    "Ġmove": 908,
    "ighed": 909,
    "Ġunited": 910,
    "Ġhelmets": 911,
    "Ġvanilla": 912,
    "Ġtant": 913,
    "Ġfive": 914,
    "Ġminded": 915,
    "Ġjoin": 916,
    "Ġcorners": 917,
    "Ġcolor": 918,
    "Ġknobs": 919,
    "Ġfarmers": 920,
    "ĠBoo": 921,
    "Ġtrunk": 922,
    "Ġscratching": 923,
    "Ġscra": 924,
    "lcan": 925,
    "Ġpajamas": 926,
    "µ": 927,
    "Ġeast": 928,
    "ucy": 929,
    "ht": 930,
    "th": 931,
    "place": 932,
    "Ġflav": 933,
    "ounced": 934,
    "Ġtease": 935,
    "though": 936,
    "Ġdistance": 937,
    "Ġoff": 938,
    "Ġfestival": 939,
    "indr": 940,
    "ĠFloppy": 941,
    "Ġnumbered": 942,
    "Ġfaraway": 943,
    "Ġdock": 944,
    "Ġposs": 945,
    "Ġreef": 946,
    "Ġcastles": 947,
    "Ġhedge": 948,
    "iri": 949,
    "Ġcollapsed": 950,
    "ones": 951,
    "ĠIsn": 952,
    "Ġdigging": 953,
    "Ġtoug": 954,
    "Ġwoods": 955,
    "Ġtypes": 956,
    "ĠDavid": 957,
    "Ġpointed": 958,
    "reverse": 959,
    "Ġtutor": 960,
    "2": 961,
    "Ġwatched": 962,
    "ul": 963,
    "Ġwelc": 964,
    "eared": 965,
    "Ġtips": 966,
    "ĠJune": 967,
    "Ġnecklace": 968,
    "ĠEm": 969,
    "iv": 970,
    "Ġrescued": 971,
    "Ġunderst": 972,
    "get": 973,
    "ĠBeef": 974,
    "Ġmommy": 975,
    "Bobo": 976,
    "Ġdip": 977,
    "unnel": 978,
    "ĠSmoke": 979,
    "ĠEven": 980,
    "Ġsurface": 981,
    "ĠHope": 982,
    "ĠToby": 983,
    "Ah": 984,
    "Ġdisappoint": 985,
    "Milo": 986,
    "zag": 987,
    "els": 988,
    "Ġcirc": 989,
    "Ġmechanic": 990,
    "Ġtroll": 991,
    "Ġshrinking": 992,
    "Ġyourself": 993,
    "ire": 994,
    "ĠBingo": 995,
    "ĠSilver": 996,
    "Ġlesson": 997,
    "Ġmister": 998,
    "Sophie": 999,
    "Ġcardboard": 1000,
    "Ġruns": 1001,
    "alend": 1002,
    "Ġchewing": 1003,
    "iled": 1004,
    "Ġhumming": 1005,
    "Ġsomewhere": 1006,
    "ĠSomet": 1007,
    "iger": 1008,
    "Ġcousins": 1009,
    "An": 1010,
    "Ġhears": 1011,
    "ĠOutside": 1012,
    "Ġshiver": 1013,
    "Ġwitch": 1014,
    "Ġdangerous": 1015,
    "Ġsurrounded": 1016,
    "ĕ": 1017,
    "Ġplaying": 1018,
    "what": 1019,
    "Ġlake": 1020,
    "James": 1021,
    "Ġminds": 1022,
    "uess": 1023,
    "Ď": 1024,
    "Ġcle": 1025,
    "ĠStan": 1026,
    "irit": 1027,
    "az": 1028,
    "Ġbell": 1029,
    "Ġdesperate": 1030,
    "ĠDo": 1031,
    "aid": 1032,
    "medi": 1033,
    "Ġkneeling": 1034,
    "Ġexcitedly": 1035,
    "Ġnames": 1036,
    "Ġpedal": 1037,
    "ined": 1038,
    "ĠHoot": 1039,
    "Ġpants": 1040,
    "osen": 1041,
    "Ġlizard": 1042,
    "Ġcuts": 1043,
    "u": 1044,
    "Ġinsect": 1045,
    "ook": 1046,
    "B": 1047,
    "Ġsunrise": 1048,
    "ĠSleepy": 1049,
    "Ġapplauded": 1050,
    "Ġrealizes": 1051,
    "ls": 1052,
    "Ġwishes": 1053,
    "Ġfurniture": 1054,
    "Ġmarch": 1055,
    "Ġcri": 1056,
    "Ġpowder": 1057,
    "Ġleaving": 1058,
    "Ġenergy": 1059,
    "riage": 1060,
    "Ġencourag": 1061,
    "ĠSleep": 1062,
    "Ġteapot": 1063,
    "ĠAnimal": 1064,
    "Ġpro": 1065,
    "(": 1066,
    "Ġflapped": 1067,
    "Ġshh": 1068,
    "Ġob": 1069,
    "urry": 1070,
    "Ġpeach": 1071,
    "Mommy": 1072,
    "Ġsafe": 1073,
    "Kitty": 1074,
    "ĠEmma": 1075,
    "Ġforgiveness": 1076,
    "Bl": 1077,
    "Ġpotato": 1078,
    "veal": 1079,
    "ĠPig": 1080,
    "Ġlaces": 1081,
    "nam": 1082,
    "Ġblooming": 1083,
    "Ġfix": 1084,
    "Ġnight": 1085,
    "Ġrails": 1086,
    "Ġmushroom": 1087,
    "Ġeagle": 1088,
    "Ġspoon": 1089,
    "ĠLooking": 1090,
    "Ġbeat": 1091,
    "Ġconfl": 1092,
    "Ġ''": 1093,
    "Ġthunder": 1094,
    "iky": 1095,
    "Ġlarger": 1096,
    "ĠDog": 1097,
    "ission": 1098,
    "ĠZipper": 1099,
    "Ġlove": 1100,
    "Ġhappier": 1101,
    "Ġdisco": 1102,
    "Ġpeeking": 1103,
    "Ġplease": 1104,
    "lle": 1105,
    "aver": 1106,
    "Ġstars": 1107,
    "ĠFishy": 1108,
    "usion": 1109,
    "Ros": 1110,
    "are": 1111,
    "cycle": 1112,
    "Ġhudd": 1113,
    "rup": 1114,
    "Ġplayer": 1115,
    "Ġnuzzled": 1116,
    "ĠRuby": 1117,
    "Ġbreathing": 1118,
    "mel": 1119,
    "Ġthird": 1120,
    "Ġshimmering": 1121,
    "ooks": 1122,
    "Ġties": 1123,
    "Ġchar": 1124,
    "ĠLarry": 1125,
    "Ġmat": 1126,
    "Ġprepared": 1127,
    "ĠJump": 1128,
    "Ġmeals": 1129,
    "Ġskeleton": 1130,
    "coa": 1131,
    "ding": 1132,
    "Ġsidewalk": 1133,
    "Ġel": 1134,
    "ready": 1135,
    "al": 1136,
    "Ġsquishy": 1137,
    "ĠV": 1138,
    "Ġcounting": 1139,
    "ĠJenna": 1140,
    "Ġgrandfather": 1141,
    "ters": 1142,
    "ĠAndy": 1143,
    "rass": 1144,
    "Ġfloats": 1145,
    "Ġprank": 1146,
    "ĠEarth": 1147,
    "Ġcups": 1148,
    "Ġberries": 1149,
    "cond": 1150,
    "Lou": 1151,
    "Ġink": 1152,
    "Ġpushes": 1153,
    "Ġdemand": 1154,
    "hew": 1155,
    "Ġmugs": 1156,
    "Ġcalend": 1157,
    "ĠS": 1158,
    "ĠEmily": 1159,
    "Each": 1160,
    "Ġring": 1161,
    "Ġdived": 1162,
    "Ġrecord": 1163,
    "elope": 1164,
    "Ġdraws": 1165,
    "Ġmelon": 1166,
    "Ġappreci": 1167,
    "ily": 1168,
    "+": 1169,
    "Fish": 1170,
    "þ": 1171,
    "Alright": 1172,
    "Nina": 1173,
    "Ġdep": 1174,
    "ait": 1175,
    "Ġlearning": 1176,
    "ca": 1177,
    "Ġclaw": 1178,
    "isty": 1179,
    "Ġlet": 1180,
    "..": 1181,
    "Ġact": 1182,
    "Ġfun": 1183,
    "Ġescaped": 1184,
    "avy": 1185,
    "ion": 1186,
    "Ġdifferently": 1187,
    "Ġtravelled": 1188,
    "igger": 1189,
    "Ġbig": 1190,
    "Julie": 1191,
    "elery": 1192,
    "Ġfrogs": 1193,
    "uster": 1194,
    "ipp": 1195,
    "ĠJoan": 1196,
    "body": 1197,
    "Ġrelease": 1198,
    "Ġwinter": 1199,
    "Ġalligator": 1200,
    "Ġcomforted": 1201,
    "ord": 1202,
    "Ġoat": 1203,
    "erpiece": 1204,
    "ĠSparkle": 1205,
    "ĠChristmas": 1206,
    "Ġadmit": 1207,
    "ry": 1208,
    "Ġinvitation": 1209,
    "elt": 1210,
    "Ġseparating": 1211,
    "ans": 1212,
    "Ġpoke": 1213,
    "ss": 1214,
    "Ġmailman": 1215,
    "'ve": 1216,
    "Ġstra": 1217,
    "Choo": 1218,
    "ĠSing": 1219,
    "Ġisn": 1220,
    "Ġexpression": 1221,
    "Gra": 1222,
    "Ġtonight": 1223,
    "colored": 1224,
    "Ġamazed": 1225,
    "Ġdrowned": 1226,
    "Ġdec": 1227,
    "ushed": 1228,
    "Je": 1229,
    "Ġgame": 1230,
    "Ġfleas": 1231,
    "reat": 1232,
    "rs": 1233,
    "Ġshoes": 1234,
    "bbie": 1235,
    "Î": 1236,
    "ace": 1237,
    "Ġsour": 1238,
    "saw": 1239,
    "Ġle": 1240,
    "Ġsolut": 1241,
    "ĠPaul": 1242,
    "Ġstrings": 1243,
    "Ġchicks": 1244,
    "Ġpizza": 1245,
    "ħ": 1246,
    "Ġhopping": 1247,
    "Ġteaches": 1248,
    "aken": 1249,
    "ĠPinch": 1250,
    "Whee": 1251,
    "esome": 1252,
    "Ġgems": 1253,
    "illie": 1254,
    "Ġsoaring": 1255,
    "Lola": 1256,
    "ï": 1257,
    "Ġchimney": 1258,
    "Ġkindly": 1259,
    "as": 1260,
    "Ġmovements": 1261,
    "Ġmeows": 1262,
    "lph": 1263,
    "Ġsugar": 1264,
    "Ġtell": 1265,
    "Ġsauce": 1266,
    "icer": 1267,
    "ĠPapa": 1268,
    "ĠMe": 1269,
    "Ġsneaked": 1270,
    "Ġdangers": 1271,
    "Ġamused": 1272,
    "Ġtrave": 1273,
    "ock": 1274,
    "ĠMonster": 1275,
    "Ġconfused": 1276,
    "repe": 1277,
    "Ġown": 1278,
    "Buddy": 1279,
    "Ġstream": 1280,
    "Ġnoises": 1281,
    "Ġmarried": 1282,
    "Ġdecl": 1283,
    "Ġmattered": 1284,
    "ĠAnt": 1285,
    "aving": 1286,
    "ned": 1287,
    "Ġashamed": 1288,
    "Ġbeans": 1289,
    "Ġhur": 1290,
    "Tw": 1291,
    "Ġwilling": 1292,
    "Ġwhistling": 1293,
    "Welcome": 1294,
    "Ġdecorating": 1295,
    "ĠJody": 1296,
    "Ġguns": 1297,
    "ĠPeace": 1298,
    "zoom": 1299,
    "ĠChirpy": 1300,
    "ĠLou": 1301,
    "Ġgrandchild": 1302,
    "Ġtrying": 1303,
    "Ġrubber": 1304,
    "Ġsor": 1305,
    "avid": 1306,
    "Ġpoem": 1307,
    "Ġremoved": 1308,
    "ł": 1309,
    "Ġstorms": 1310,
    "Ġoutfit": 1311,
    "Ġtomatoes": 1312,
    "ĠThunder": 1313,
    "ĠSte": 1314,
    "Ġanyone": 1315,
    "Ġfinishing": 1316,
    "sw": 1317,
    "Ġdri": 1318,
    "Ġleading": 1319,
    "Ġopening": 1320,
    "Ġfigured": 1321,
    "ĠBerry": 1322,
    "Ġwearing": 1323,
    "Your": 1324,
    "Ġspoke": 1325,
    "stic": 1326,
    "Ġtiss": 1327,
    "ĠEliz": 1328,
    "Ġreading": 1329,
    "Ġfash": 1330,
    "rob": 1331,
    "Ġscr": 1332,
    "Ġwealth": 1333,
    "Ġfelt": 1334,
    "Ġ\"": 1335,
    "Ġpeeked": 1336,
    "Ġgazed": 1337,
    "ase": 1338,
    "Ġmail": 1339,
    "Soon": 1340,
    "ĠFor": 1341,
    "Ġsweater": 1342,
    "Ġrip": 1343,
    "Ġpolitely": 1344,
    "ĠKiki": 1345,
    "ĠMarie": 1346,
    "Ġenth": 1347,
    "stri": 1348,
    "war": 1349,
    "Ġfooled": 1350,
    "irth": 1351,
    "Ġturtle": 1352,
    "Ġwarn": 1353,
    "Ġapplaud": 1354,
    "Ġacorn": 1355,
    "ered": 1356,
    "Ġashtray": 1357,
    "Ġpracticing": 1358,
    "Ġriverbank": 1359,
    "ng": 1360,
    "less": 1361,
    "Ġpiano": 1362,
    "der": 1363,
    "Ġharb": 1364,
    "Ġcleared": 1365,
    "Ġfirefighters": 1366,
    "ward": 1367,
    "Ġlaundry": 1368,
    "Ġdel": 1369,
    "ĠFlo": 1370,
    "Goodnight": 1371,
    "Ġsandcast": 1372,
    "ĠAna": 1373,
    "Ġfrost": 1374,
    "Ġguardian": 1375,
    "Ġcookie": 1376,
    "Ġhesitation": 1377,
    "Ġecho": 1378,
    "aids": 1379,
    "Ġcarries": 1380,
    "Ġseasons": 1381,
    "Ġunfamiliar": 1382,
    "ĠAng": 1383,
    "Ġtrick": 1384,
    "Ġdragons": 1385,
    "Ġfoam": 1386,
    "arter": 1387,
    "Ġsneezing": 1388,
    "Ġsheets": 1389,
    "Ä": 1390,
    "Sn": 1391,
    "Ġkneel": 1392,
    "ĠOf": 1393,
    "Ġstrange": 1394,
    "Ġmast": 1395,
    "Ġcr": 1396,
    "Ġreflection": 1397,
    "ĠRemy": 1398,
    "Ġharmless": 1399,
    "Ġgrace": 1400,
    "Ġtowers": 1401,
    "Ġtaped": 1402,
    "Ġaloud": 1403,
    "Ġfireplace": 1404,
    "igers": 1405,
    "umb": 1406,
    "A": 1407,
    "Ġmeowed": 1408,
    "Ġgra": 1409,
    "Ġbuzzing": 1410,
    "Ġremained": 1411,
    "Ġaf": 1412,
    "Ġriding": 1413,
    "Ġzookeeper": 1414,
    "Ġobedient": 1415,
    "Ġdisappeared": 1416,
    "ĠLand": 1417,
    "Ġfingers": 1418,
    "Û": 1419,
    "ars": 1420,
    "Ġzoomed": 1421,
    "Ġunable": 1422,
    "Ġdelicious": 1423,
    "Ġhammer": 1424,
    "Ġdisturb": 1425,
    "ĠChr": 1426,
    "Ġmeasured": 1427,
    "Ġscri": 1428,
    "Ġrestaurant": 1429,
    "Ġcuri": 1430,
    "Ġtricycle": 1431,
    "ĠTweetie": 1432,
    "sy": 1433,
    "Ġhelicopters": 1434,
    "Ġload": 1435,
    "Ġeasier": 1436,
    "ĠPo": 1437,
    "Ġspies": 1438,
    "Since": 1439,
    "Ġdot": 1440,
    "Ġapproach": 1441,
    "aged": 1442,
    "ĠBlink": 1443,
    "Ġwee": 1444,
    "Ġplanets": 1445,
    "Ġconsider": 1446,
    "Ġpigeon": 1447,
    "ĠCatty": 1448,
    "Ġknob": 1449,
    "Ġgor": 1450,
    "dam": 1451,
    "Ġdancing": 1452,
    "ĠBeaky": 1453,
    "Ġexamined": 1454,
    "Ġgrey": 1455,
    "Kiki": 1456,
    "Ġlaying": 1457,
    "Ġlollipop": 1458,
    "Ġintroduc": 1459,
    "ĠFo": 1460,
    "Ġpetting": 1461,
    "ush": 1462,
    "keleton": 1463,
    "Ġcostume": 1464,
    "ĠThese": 1465,
    "ways": 1466,
    "Ġgrandma": 1467,
    "Ġsight": 1468,
    "Ġfurt": 1469,
    "Ġdetails": 1470,
    "Ġstepping": 1471,
    "Ġneeded": 1472,
    "Ġskipped": 1473,
    "Ġtweet": 1474,
    "ached": 1475,
    "Ġcelebrating": 1476,
    "Ġcollap": 1477,
    "ellig": 1478,
    "Ġbees": 1479,
    "om": 1480,
    "fied": 1481,
    "ri": 1482,
    "mine": 1483,
    "fus": 1484,
    "Ġguitar": 1485,
    "ester": 1486,
    "Ġcart": 1487,
    "uckily": 1488,
    "ĠFollow": 1489,
    "Ġtrigger": 1490,
    "Ġscreams": 1491,
    "Ġorgan": 1492,
    "Ġkey": 1493,
    "ĠBird": 1494,
    "Ġlets": 1495,
    "Ġfold": 1496,
    "ĠUnfortunately": 1497,
    "unes": 1498,
    "Ġass": 1499,
    "Ġriver": 1500,
    "Ġsque": 1501,
    "Ġbegged": 1502,
    "Ġcamping": 1503,
    "oga": 1504,
    "Ġvinegar": 1505,
    "ĠSque": 1506,
    "Ġtreat": 1507,
    "Ġfever": 1508,
    "Ġcrystals": 1509,
    "ĠSadie": 1510,
    "Ġhidden": 1511,
    "Ġcrossing": 1512,
    "Ġhus": 1513,
    "ummer": 1514,
    "Ġsee": 1515,
    "Ġtorto": 1516,
    "Ġdrank": 1517,
    "ĊĊ": 1518,
    "ĠAlly": 1519,
    "ĠAfter": 1520,
    "Ġmaps": 1521,
    "Ġcrying": 1522,
    "Ġconnected": 1523,
    "Ġall": 1524,
    "Still": 1525,
    "known": 1526,
    "Ġsunset": 1527,
    "Ġturkey": 1528,
    "Ġstretching": 1529,
    "loe": 1530,
    "ivi": 1531,
    "ious": 1532,
    "anced": 1533,
    "Ġattempts": 1534,
    "How": 1535,
    "Ġfriend": 1536,
    "Ġdump": 1537,
    "Ġclumsy": 1538,
    "ĠTurt": 1539,
    "}": 1540,
    "Ġbought": 1541,
    "Ġsoot": 1542,
    "Ġguest": 1543,
    "Ġsmallest": 1544,
    "Ġgross": 1545,
    "Tim": 1546,
    "Ġnoticed": 1547,
    "cer": 1548,
    "Ġme": 1549,
    "Ġdesigning": 1550,
    "vent": 1551,
    "Ġheart": 1552,
    "Ġmen": 1553,
    "Ġpecked": 1554,
    "Sophia": 1555,
    "Ġkeys": 1556,
    "Ġskin": 1557,
    "ĠSqu": 1558,
    "Ġgrip": 1559,
    "ol": 1560,
    "Ġmountain": 1561,
    "ft": 1562,
    "Ġyarn": 1563,
    "Ġcell": 1564,
    "Ġbubbling": 1565,
    "Teddy": 1566,
    "Ġloaded": 1567,
    "ĠKevin": 1568,
    "Ġrinsed": 1569,
    "rag": 1570,
    "Ġbravery": 1571,
    "Ġstruck": 1572,
    "Help": 1573,
    "Ġsprinkles": 1574,
    "udged": 1575,
    "ebook": 1576,
    "Ġpepper": 1577,
    "erable": 1578,
    "Ġwip": 1579,
    "Ġsalt": 1580,
    "Ġthinks": 1581,
    "Ġautomobile": 1582,
    "Ġrescuing": 1583,
    "Ġperched": 1584,
    "Ġsip": 1585,
    "ĠKing": 1586,
    "Ġusually": 1587,
    "Ġsweet": 1588,
    "ī": 1589,
    "aughty": 1590,
    "Ġbucket": 1591,
    "Ġwiz": 1592,
    "Ġwoof": 1593,
    "Ġweep": 1594,
    "Ġstains": 1595,
    "Ġunderstands": 1596,
    "ane": 1597,
    "ĠIs": 1598,
    "Ġanimal": 1599,
    "Ġpole": 1600,
    "Ġastonished": 1601,
    "Ġproject": 1602,
    "ail": 1603,
    "Ġhung": 1604,
    "Ġstethoscope": 1605,
    "ĠGlow": 1606,
    "Ġignore": 1607,
    "Ġ-": 1608,
    "Ġshops": 1609,
    "ĠGina": 1610,
    "ĠRebecca": 1611,
    "Ġshowing": 1612,
    "Ġstriking": 1613,
    "Ġarguing": 1614,
    "leep": 1615,
    "Ġrows": 1616,
    "ĠSh": 1617,
    "Ġquieter": 1618,
    "Ġanswers": 1619,
    "ress": 1620,
    "Ġcollection": 1621,
    "ĠCoby": 1622,
    "Ġpracticed": 1623,
    "Ġaud": 1624,
    "Ġraincoat": 1625,
    "Ġfearful": 1626,
    "Ġchecks": 1627,
    "Ġtank": 1628,
    "Jazz": 1629,
    "Ġdirections": 1630,
    "ated": 1631,
    "Bird": 1632,
    "Ġcuddle": 1633,
    "Ġgerm": 1634,
    "ouquet": 1635,
    "Ġheld": 1636,
    "ĠFreddy": 1637,
    "Ġraces": 1638,
    "Ġdelight": 1639,
    "ĠSal": 1640,
    "Ġparted": 1641,
    "Ġthief": 1642,
    "Ġjars": 1643,
    "da": 1644,
    "Ġsqueaked": 1645,
    "Ġasked": 1646,
    "hn": 1647,
    "Ġnorm": 1648,
    "Ġrainbow": 1649,
    "Next": 1650,
    "Fred": 1651,
    "elie": 1652,
    "ĠAnne": 1653,
    "Who": 1654,
    "ĠJones": 1655,
    "Ġchain": 1656,
    "ired": 1657,
    "Ġmap": 1658,
    "Ġmeasure": 1659,
    "Ġlaugh": 1660,
    "Ġhelping": 1661,
    "Ġpuzz": 1662,
    "astic": 1663,
    "Ġpurpose": 1664,
    "'ll": 1665,
    "Ġstumbled": 1666,
    "Mandy": 1667,
    "ĠAg": 1668,
    "Ġfrustr": 1669,
    "Ġpar": 1670,
    "Ġpulls": 1671,
    "Ġshade": 1672,
    "Ġnibble": 1673,
    "Ġfront": 1674,
    "itched": 1675,
    "Ġrose": 1676,
    "Ġsafari": 1677,
    "Open": 1678,
    "Ġbodies": 1679,
    "Ġhowever": 1680,
    "ĠTiti": 1681,
    "ĠP": 1682,
    "Ġreach": 1683,
    "Ġtest": 1684,
    "Ġscarecrow": 1685,
    "ĠPatty": 1686,
    "ĠChrist": 1687,
    "After": 1688,
    "ĠRuff": 1689,
    "Ġgroan": 1690,
    "Ġtim": 1691,
    "Ġbrick": 1692,
    "Ġbabies": 1693,
    "ĠRiri": 1694,
    "Ġdisappoin": 1695,
    "ĠCici": 1696,
    "Ġcolour": 1697,
    "Ġspoiled": 1698,
    "ĠScissors": 1699,
    "Both": 1700,
    "ĠThey": 1701,
    "be": 1702,
    "Ġpapa": 1703,
    "Ġradio": 1704,
    "Ġv": 1705,
    "Ġworst": 1706,
    "Ġfiles": 1707,
    "Ġpine": 1708,
    "Kim": 1709,
    "Ġmelt": 1710,
    "uffin": 1711,
    "Ġimag": 1712,
    "Ġacce": 1713,
    "Surprise": 1714,
    "Ġveil": 1715,
    "G": 1716,
    "Ġlapt": 1717,
    "Ġmissed": 1718,
    "ise": 1719,
    "Boo": 1720,
    "iting": 1721,
    "Ġnightmares": 1722,
    "Ġincrease": 1723,
    "Ġcharac": 1724,
    "Owl": 1725,
    "Ġfinal": 1726,
    "Ġtug": 1727,
    "Ġrays": 1728,
    "ecca": 1729,
    "Ġwing": 1730,
    "la": 1731,
    "Ġdecision": 1732,
    "ĠAli": 1733,
    "Ġcompete": 1734,
    "Ġwhines": 1735,
    "ĠCD": 1736,
    "oey": 1737,
    "Ġse": 1738,
    "Ġapology": 1739,
    "Cra": 1740,
    "Ġangry": 1741,
    "Ġtasted": 1742,
    "all": 1743,
    "Ġcol": 1744,
    "alf": 1745,
    "Ġyoungest": 1746,
    "Ġslippery": 1747,
    "reek": 1748,
    "Ġspraying": 1749,
    "ulf": 1750,
    "Ġfantastic": 1751,
    "±": 1752,
    "Sc": 1753,
    "Ġpretending": 1754,
    "Mother": 1755,
    "Molly": 1756,
    "Ġcatches": 1757,
    "Ġotter": 1758,
    "ophia": 1759,
    "Ġbra": 1760,
    "Ġcolourful": 1761,
    "Where": 1762,
    "Ġlic": 1763,
    "Ġbury": 1764,
    "ĠCr": 1765,
    "Ġwhine": 1766,
    "Ġunhappy": 1767,
    "Uh": 1768,
    "Ġperson": 1769,
    "Ġclut": 1770,
    "Ġsausage": 1771,
    "itude": 1772,
    "ice": 1773,
    "Ġbring": 1774,
    "Ġbottles": 1775,
    "king": 1776,
    "Ġcoll": 1777,
    "Ġbehaving": 1778,
    "ec": 1779,
    "ĠGerry": 1780,
    "reed": 1781,
    "fter": 1782,
    "inted": 1783,
    "Fly": 1784,
    "irsty": 1785,
    "order": 1786,
    "Ġtelling": 1787,
    "Ġend": 1788,
    "Ġalive": 1789,
    "Ġswimming": 1790,
    "Ġbounced": 1791,
    "eropl": 1792,
    "Ġentrance": 1793,
    "Ġcup": 1794,
    "Ġrewards": 1795,
    "Ġserious": 1796,
    "Ġbully": 1797,
    "Ġkicks": 1798,
    "Ġrecommend": 1799,
    "Ġdessert": 1800,
    "Suddenly": 1801,
    "Ġmuffins": 1802,
    "ĠJeff": 1803,
    "ĠHer": 1804,
    "Ġcrab": 1805,
    "Ġpile": 1806,
    "Ġquiet": 1807,
    "but": 1808,
    "Ġchoices": 1809,
    "ĠDaniel": 1810,
    "Ġstatue": 1811,
    "Ġpupils": 1812,
    "Ġstraw": 1813,
    "Ġred": 1814,
    "Ġsoon": 1815,
    "Ġmakeup": 1816,
    "V": 1817,
    "Ġneed": 1818,
    "Ġbench": 1819,
    "Ġjust": 1820,
    "Sp": 1821,
    "4": 1822,
    "kins": 1823,
    "Ġhurricane": 1824,
    "Ġselfish": 1825,
    "pec": 1826,
    "Ġtown": 1827,
    "Ġbroke": 1828,
    "Ġmusic": 1829,
    "Ġposes": 1830,
    "Ġringing": 1831,
    "ĠBill": 1832,
    "ĠGrumpy": 1833,
    "ours": 1834,
    "¶": 1835,
    "Any": 1836,
    "ĠWill": 1837,
    "Ġupset": 1838,
    "Ġheels": 1839,
    "Ġshy": 1840,
    "ĠSteven": 1841,
    "Ġcross": 1842,
    "ĠMrs": 1843,
    "urpr": 1844,
    "eese": 1845,
    "Ġvines": 1846,
    "Ġdeaf": 1847,
    "Ġsave": 1848,
    "Ġserved": 1849,
    "Ġincluding": 1850,
    "oph": 1851,
    "Ġrespon": 1852,
    "Ġorange": 1853,
    "ĠPete": 1854,
    "Ġdro": 1855,
    "Surpr": 1856,
    "Am": 1857,
    "Ġrec": 1858,
    "Ġchef": 1859,
    "ĠFrank": 1860,
    "iew": 1861,
    "Ġglitter": 1862,
    "Ġboring": 1863,
    "Ġsecret": 1864,
    "Ġdipped": 1865,
    "Ġtale": 1866,
    "Ġtwisting": 1867,
    "ĠHolly": 1868,
    "Ġsnowflake": 1869,
    "ĠMindy": 1870,
    "Ġactions": 1871,
    "Can": 1872,
    "ife": 1873,
    "ĠPaws": 1874,
    "iggles": 1875,
    "Ġhave": 1876,
    "cess": 1877,
    "Ġtrack": 1878,
    "Ġaudience": 1879,
    "Ġtesting": 1880,
    "ĠAt": 1881,
    "Okay": 1882,
    "Achoo": 1883,
    "ae": 1884,
    "ĠGr": 1885,
    "Ġthese": 1886,
    "imney": 1887,
    "Ġtook": 1888,
    "Tilly": 1889,
    "ses": 1890,
    "Ġbounce": 1891,
    "Ġanticipation": 1892,
    "Ġbatter": 1893,
    "ĠInch": 1894,
    "Ġcooking": 1895,
    "Maya": 1896,
    "Daddy": 1897,
    "gry": 1898,
    "Ġcorn": 1899,
    "Ġrepeated": 1900,
    "ages": 1901,
    "Ġgaze": 1902,
    "Ġresponsibility": 1903,
    "Luke": 1904,
    "Ġdifferent": 1905,
    "umpy": 1906,
    "Ġmass": 1907,
    "omes": 1908,
    "Ġke": 1909,
    "Ġharm": 1910,
    "Ġtoss": 1911,
    "cident": 1912,
    "do": 1913,
    "Ġdifference": 1914,
    "Ġmelting": 1915,
    "Ġblond": 1916,
    "Ġthread": 1917,
    "Ġhaircut": 1918,
    "Ġreturn": 1919,
    "Ġtom": 1920,
    "Ġhill": 1921,
    "anda": 1922,
    "allen": 1923,
    "[": 1924,
    "amboo": 1925,
    "Ġteachers": 1926,
    "Ġdidn": 1927,
    "Ï": 1928,
    "Ġwalking": 1929,
    "Ġnests": 1930,
    "Ġnut": 1931,
    "everse": 1932,
    "Ġstun": 1933,
    "Mmm": 1934,
    "Ġjugg": 1935,
    "Ġmemories": 1936,
    "Ġsnake": 1937,
    "ĠTom": 1938,
    "ĠAn": 1939,
    "Ġcheated": 1940,
    "uddy": 1941,
    "Ġsteps": 1942,
    "Matt": 1943,
    "Ġsur": 1944,
    "Ġsunny": 1945,
    "Ġexit": 1946,
    "Ġrather": 1947,
    "ĠSil": 1948,
    "Ġangrier": 1949,
    "Ġends": 1950,
    "ĠWhere": 1951,
    "Ġup": 1952,
    "Ġbold": 1953,
    "ern": 1954,
    "Ġfast": 1955,
    "Afterwards": 1956,
    "evin": 1957,
    "ĠFinny": 1958,
    "Ġconcerned": 1959,
    "Ġlion": 1960,
    "jest": 1961,
    "Ġzipp": 1962,
    "ana": 1963,
    "Ġpockets": 1964,
    "č": 1965,
    "Ġglared": 1966,
    "Ġround": 1967,
    "ĠBella": 1968,
    "ĠFluffy": 1969,
    "Ġbeeh": 1970,
    "Ġsel": 1971,
    "Ġwhoever": 1972,
    "lor": 1973,
    "ĠDon": 1974,
    "ĠAdam": 1975,
    "Ġappeared": 1976,
    "Ġrushing": 1977,
    "Ġjealous": 1978,
    "Ġexp": 1979,
    "iley": 1980,
    "Ġexploring": 1981,
    "Ġdressed": 1982,
    "Ġchick": 1983,
    "Ġrad": 1984,
    "Ġlights": 1985,
    "Ġsurprise": 1986,
    "Ġtimid": 1987,
    "Ġembarrass": 1988,
    "Ġdaring": 1989,
    "Ġfills": 1990,
    "Ġsepar": 1991,
    "Ġwonderful": 1992,
    "Ġsne": 1993,
    "Ġouch": 1994,
    "ĠMon": 1995,
    "Ġnood": 1996,
    "Ġtransform": 1997,
    "Ġplanting": 1998,
    "ied": 1999,
    "Ġflash": 2000,
    "Pete": 2001,
    "Ġpops": 2002,
    "Ġarrows": 2003,
    "ð": 2004,
    "Ġc": 2005,
    "Ġnecklaces": 2006,
    "Ġmelts": 2007,
    "walk": 2008,
    "Ġdolphin": 2009,
    "Ġrockets": 2010,
    "Ġvillag": 2011,
    "Ġhangs": 2012,
    "Ġcompeting": 2013,
    "Ġspr": 2014,
    "Ġgrumpy": 2015,
    "Ġrolling": 2016,
    "ĠJudge": 2017,
    "Ġgiven": 2018,
    "Ġrisk": 2019,
    "gar": 2020,
    "Ġhips": 2021,
    "Ġbeef": 2022,
    "Ġborn": 2023,
    "Ġyounger": 2024,
    "Great": 2025,
    "ù": 2026,
    "Ġchoosing": 2027,
    "Ġshared": 2028,
    "aped": 2029,
    "Ġp": 2030,
    "ĠMomo": 2031,
    "Ġsigned": 2032,
    "Sunny": 2033,
    "Ġairpl": 2034,
    "coon": 2035,
    "Ġdug": 2036,
    "tain": 2037,
    "Ġtogether": 2038,
    "Ġresult": 2039,
    "Ġincre": 2040,
    "Ġcautiously": 2041,
    "bulance": 2042,
    "Ġtaught": 2043,
    "ct": 2044,
    "ĠCally": 2045,
    "Ġap": 2046,
    "Ġvacation": 2047,
    "ocular": 2048,
    "aren": 2049,
    "ets": 2050,
    "0": 2051,
    "apers": 2052,
    "Ġunt": 2053,
    "ĠDoggy": 2054,
    "Ġstr": 2055,
    "awn": 2056,
    "Lilly": 2057,
    "ĠCare": 2058,
    "ummy": 2059,
    "ap": 2060,
    "Ġsigning": 2061,
    "Ġsaying": 2062,
    "adually": 2063,
    "ĠSnowy": 2064,
    "Ġje": 2065,
    "Ġerase": 2066,
    "Ġstomach": 2067,
    "ĠRight": 2068,
    "Ġnamed": 2069,
    "Ġknows": 2070,
    "cu": 2071,
    "ĠTommy": 2072,
    "Ġostri": 2073,
    "Abby": 2074,
    "ormous": 2075,
    "akes": 2076,
    "Ġter": 2077,
    "Ġser": 2078,
    "Ġengines": 2079,
    "Ġcrowded": 2080,
    "Ġremembers": 2081,
    "Ġpicked": 2082,
    "Ġswooped": 2083,
    "Ġbillboard": 2084,
    "atur": 2085,
    "Ġlem": 2086,
    "Ġfascin": 2087,
    "Ġstripes": 2088,
    "ĠBirthday": 2089,
    "Ġstudy": 2090,
    "Ġglove": 2091,
    "Ġexha": 2092,
    "Ġarrive": 2093,
    "Ġteasing": 2094,
    "ored": 2095,
    "Ġtoe": 2096,
    "Ġleans": 2097,
    "ĠYour": 2098,
    "Ġbathed": 2099,
    "Ġglee": 2100,
    "nd": 2101,
    "ach": 2102,
    "ĠCaptain": 2103,
    "Ġdisplay": 2104,
    "Luna": 2105,
    "Doctor": 2106,
    "Ġletting": 2107,
    "Ġswim": 2108,
    "Ġrained": 2109,
    "Ġsnow": 2110,
    "mered": 2111,
    "Ġmystery": 2112,
    "Ġfool": 2113,
    "Ġcous": 2114,
    "Ġstick": 2115,
    "Ġdesk": 2116,
    "Ġbackyard": 2117,
    "Ġobserve": 2118,
    "Ġsirens": 2119,
    "Ġhealthy": 2120,
    "uctantly": 2121,
    "û": 2122,
    "Ġhungry": 2123,
    "Ġtie": 2124,
    "Ġrubs": 2125,
    "ulu": 2126,
    "Ġinv": 2127,
    "Ġkept": 2128,
    "Ġpets": 2129,
    "aper": 2130,
    "Ġtroubles": 2131,
    "Ġsniffing": 2132,
    "Ĥ": 2133,
    "Ġlittle": 2134,
    "Ġbran": 2135,
    "Lily": 2136,
    "ĠKaren": 2137,
    "sm": 2138,
    "ĠOlivia": 2139,
    "Ġsisters": 2140,
    "ammy": 2141,
    "ention": 2142,
    "Ġraised": 2143,
    "Ġexcept": 2144,
    "asing": 2145,
    "Ġfif": 2146,
    "was": 2147,
    "Ġflashing": 2148,
    "Ġelectricity": 2149,
    "ge": 2150,
    "Ġhead": 2151,
    "ĠRobbie": 2152,
    "Ġburns": 2153,
    "Ġdi": 2154,
    "ured": 2155,
    "Ġcosts": 2156,
    "Ġaccomplished": 2157,
    "ised": 2158,
    "ĠBro": 2159,
    "Ġintroduced": 2160,
    "eddy": 2161,
    "Ġ'": 2162,
    "Very": 2163,
    "Ġhall": 2164,
    "It": 2165,
    "ĠPrince": 2166,
    "Ġgardener": 2167,
    ",âĢĿ": 2168,
    "Ġhandful": 2169,
    "Snowy": 2170,
    "Ġnotebook": 2171,
    "Ġscrubbed": 2172,
    "affe": 2173,
    "Ducky": 2174,
    "Ġwolves": 2175,
    "g": 2176,
    "Ġblocking": 2177,
    "Ġclose": 2178,
    "Ġalarm": 2179,
    "Ġsurf": 2180,
    "orth": 2181,
    "Ġpopcorn": 2182,
    "Ġhist": 2183,
    "Ġsym": 2184,
    "Ġpinched": 2185,
    "Ġdecides": 2186,
    "Ġcreations": 2187,
    "iment": 2188,
    "Ġdisag": 2189,
    "etter": 2190,
    "Ļ": 2191,
    "Lucky": 2192,
    "Ġbeet": 2193,
    "ness": 2194,
    "Ġachieved": 2195,
    "led": 2196,
    "ĠPeggy": 2197,
    "ĠPine": 2198,
    "Ġexperiences": 2199,
    "Not": 2200,
    "jam": 2201,
    "Ġstyle": 2202,
    "Ġprice": 2203,
    "Ġam": 2204,
    "Ġpulled": 2205,
    "Ġto": 2206,
    "Ġbru": 2207,
    "Ġkit": 2208,
    "Ġthermometer": 2209,
    "Ġgasp": 2210,
    "r": 2211,
    "ities": 2212,
    "Ġdelivery": 2213,
    "Ġpaddled": 2214,
    "erk": 2215,
    "Ġclaps": 2216,
    "Ġplayhouse": 2217,
    "Ġcafe": 2218,
    "Ġfaces": 2219,
    "Ġattem": 2220,
    "Ġgraceful": 2221,
    "ĠMarch": 2222,
    "Ġthough": 2223,
    "Ġfascinated": 2224,
    "Ġlaughing": 2225,
    "Ġbookshe": 2226,
    "Ġchanging": 2227,
    "¬": 2228,
    "Ġworm": 2229,
    "Ġrocked": 2230,
    "Ġcrawl": 2231,
    "Ġthirsty": 2232,
    "Ġsnar": 2233,
    "gy": 2234,
    "Ġsalty": 2235,
    "-": 2236,
    "Ġcandles": 2237,
    "Ġview": 2238,
    "Ġsuccessfully": 2239,
    "Ġsal": 2240,
    "ĠBree": 2241,
    "Ġfoot": 2242,
    "®": 2243,
    "ĠEventually": 2244,
    "Ġaren": 2245,
    "gan": 2246,
    "Ġspit": 2247,
    "Ġsneaks": 2248,
    "Ġanx": 2249,
    "Ġgrown": 2250,
    "Like": 2251,
    "Ġsells": 2252,
    "Ġclimbing": 2253,
    "Ġadmired": 2254,
    "Ġcou": 2255,
    "ĩ": 2256,
    "Ġfootsteps": 2257,
    "Ġhouse": 2258,
    "Ġacts": 2259,
    "Ġhills": 2260,
    "Ġwarri": 2261,
    "Ġclum": 2262,
    "Ġsmelled": 2263,
    "Ġended": 2264,
    "Ġsmo": 2265,
    "ĠSir": 2266,
    "Ġinto": 2267,
    "laire": 2268,
    "Ġsailing": 2269,
    "ĠMaddy": 2270,
    "Ġtempted": 2271,
    "ĠCara": 2272,
    "ĠBirds": 2273,
    "First": 2274,
    "a": 2275,
    "Ġjoining": 2276,
    "Ġlimp": 2277,
    "Ġwants": 2278,
    "Ġpasta": 2279,
    "ĠJax": 2280,
    "Sque": 2281,
    "Ġvisitors": 2282,
    "Ġbeanstalk": 2283,
    "ĠSky": 2284,
    "Ġenter": 2285,
    "weet": 2286,
    "ops": 2287,
    "Ġideas": 2288,
    "ĠSl": 2289,
    "Ġfreeze": 2290,
    "Ġtriangle": 2291,
    "uzz": 2292,
    "ĠChick": 2293,
    "Ġforests": 2294,
    "Ġostrich": 2295,
    "Ġscored": 2296,
    "Ġmug": 2297,
    "Ġslice": 2298,
    "Eventually": 2299,
    "Ġcage": 2300,
    "Ġscatter": 2301,
    "Ġresults": 2302,
    "alous": 2303,
    "ĠJacky": 2304,
    "Ġbetter": 2305,
    "Ġvaluable": 2306,
    "vant": 2307,
    "Co": 2308,
    "ctor": 2309,
    "ĠThank": 2310,
    "Ġdinner": 2311,
    "Ġbead": 2312,
    "Ġcandies": 2313,
    "Ġprov": 2314,
    "Tony": 2315,
    "Ġyum": 2316,
    "iz": 2317,
    "Jane": 2318,
    "Ġast": 2319,
    "ery": 2320,
    "ommend": 2321,
    "Ġtravels": 2322,
    "gr": 2323,
    "Ġcorrectly": 2324,
    "iling": 2325,
    "Ġfeed": 2326,
    "ello": 2327,
    "itted": 2328,
    "Ġfine": 2329,
    "Ġdisgusting": 2330,
    "Ġcooler": 2331,
    "Ġwiping": 2332,
    "Ġswir": 2333,
    "Ġsighs": 2334,
    "ittle": 2335,
    "Ġshore": 2336,
    "Ġsto": 2337,
    "Ġfright": 2338,
    "Ġpatches": 2339,
    "asty": 2340,
    "ĠJackie": 2341,
    "Ġweap": 2342,
    "Ġbud": 2343,
    "ĠWise": 2344,
    "Ġupon": 2345,
    "ingly": 2346,
    "Ġrem": 2347,
    "ira": 2348,
    "Lucy": 2349,
    "or": 2350,
    "Ġbumping": 2351,
    "Ġsheet": 2352,
    "me": 2353,
    "ĠWithout": 2354,
    "Ġlo": 2355,
    "Ġbathtub": 2356,
    "Ġcur": 2357,
    "Ġolives": 2358,
    "Ġdinosaurs": 2359,
    "Ġreversing": 2360,
    "Ġdisagreeing": 2361,
    "Ġpumpkin": 2362,
    "Ġrivers": 2363,
    "Ġclear": 2364,
    "ary": 2365,
    "Ġdiary": 2366,
    "Ġseparate": 2367,
    "Ġgrowing": 2368,
    "form": 2369,
    "Ġmayor": 2370,
    "Ġeverywhere": 2371,
    "ĠBee": 2372,
    "olog": 2373,
    "Ġtramp": 2374,
    "Ġmeat": 2375,
    "Ġgiraffe": 2376,
    "ĠEddie": 2377,
    "Ġtipto": 2378,
    "Ġvoices": 2379,
    "ĠSkip": 2380,
    "Ġyes": 2381,
    "chen": 2382,
    "ito": 2383,
    "iss": 2384,
    "Ġsmell": 2385,
    "Ġcryst": 2386,
    "ĠLuke": 2387,
    "Ġhug": 2388,
    "gie": 2389,
    "Ġcostumes": 2390,
    "Ġpause": 2391,
    "Ġshady": 2392,
    "Ġfood": 2393,
    "Ġnovel": 2394,
    "Ġthoughtful": 2395,
    "Ġstair": 2396,
    "Ġfacing": 2397,
    "anges": 2398,
    "Ġpond": 2399,
    "Ġappreciated": 2400,
    "Ġout": 2401,
    "ĠHe": 2402,
    "per": 2403,
    "Ġforg": 2404,
    "Ġpounced": 2405,
    "opter": 2406,
    "boo": 2407,
    "owl": 2408,
    "Ġcaring": 2409,
    "Back": 2410,
    "iginal": 2411,
    ",\"": 2412,
    "ro": 2413,
    "Ġactivities": 2414,
    "Ġvanish": 2415,
    "step": 2416,
    "m": 2417,
    "Ġalien": 2418,
    "Zigzag": 2419,
    "Ġbreathe": 2420,
    "Ġmixing": 2421,
    "Ġsmelling": 2422,
    "Ġscient": 2423,
    "Ġsmarter": 2424,
    "ĠRos": 2425,
    "Ġsandwiches": 2426,
    "Ġdads": 2427,
    "iscuit": 2428,
    "ĠJohn": 2429,
    "Ġsupplies": 2430,
    "Ġhas": 2431,
    "Ġswords": 2432,
    "Ġtire": 2433,
    "Ġbeginning": 2434,
    "Ġgrowls": 2435,
    "į": 2436,
    "Ġdesign": 2437,
    "Ġmarched": 2438,
    "Ġwave": 2439,
    "Ġsandbox": 2440,
    "Ġmeet": 2441,
    "Ġlosing": 2442,
    "avi": 2443,
    "Ġloc": 2444,
    "Ġdiscover": 2445,
    "Ġtoppings": 2446,
    "Ġdem": 2447,
    "ayla": 2448,
    "Ġpecks": 2449,
    "rage": 2450,
    "ĠTim": 2451,
    "Br": 2452,
    "Ġbanging": 2453,
    "Ġstretch": 2454,
    "Ġunp": 2455,
    "men": 2456,
    "Ġcarefully": 2457,
    "Ġcray": 2458,
    "Never": 2459,
    "Ġhealed": 2460,
    "Ġshouted": 2461,
    "E": 2462,
    "Ġson": 2463,
    "ĠZippy": 2464,
    "Ġimproved": 2465,
    "Ġla": 2466,
    "Ġrope": 2467,
    "ners": 2468,
    "Ġhelped": 2469,
    "Ġonward": 2470,
    "Ġswaying": 2471,
    "Ġjuicy": 2472,
    "Ġtwir": 2473,
    "Ġsneaky": 2474,
    "hind": 2475,
    "Ġimp": 2476,
    "ial": 2477,
    "ĠSnowman": 2478,
    "lee": 2479,
    "ening": 2480,
    "ggles": 2481,
    "ĠThose": 2482,
    "Ġsoldier": 2483,
    "endy": 2484,
    "Ġholes": 2485,
    "Ġbadge": 2486,
    "ĠMartha": 2487,
    "Suzy": 2488,
    "ĠJan": 2489,
    "k": 2490,
    "Ġbatteries": 2491,
    "Ġpersistence": 2492,
    "Why": 2493,
    "Ġencouraging": 2494,
    "Ġche": 2495,
    "ĠTooth": 2496,
    "cited": 2497,
    "Sarah": 2498,
    "Ġdanger": 2499,
    "Ġjo": 2500,
    "ĠIce": 2501,
    "chievous": 2502,
    "vision": 2503,
    "Ġvideo": 2504,
    "ĠCammy": 2505,
    "Bee": 2506,
    "Ġrefreshing": 2507,
    "Ġproud": 2508,
    "Ġpiece": 2509,
    "Ġsmooth": 2510,
    "Ġspits": 2511,
    "ĠHello": 2512,
    "Ġlar": 2513,
    "Ġsomebody": 2514,
    "Ġlend": 2515,
    "Ġencourage": 2516,
    "Ġtune": 2517,
    "Ġexciting": 2518,
    "Ġmelted": 2519,
    "ĠBuggy": 2520,
    "Ġphot": 2521,
    "Ġbrightly": 2522,
    "Ġknees": 2523,
    "Ġwhistle": 2524,
    "Ġvest": 2525,
    "Ġopened": 2526,
    "ĠY": 2527,
    "Ġblow": 2528,
    "rig": 2529,
    "Fifi": 2530,
    "ĠTo": 2531,
    "Ġthr": 2532,
    "Ġmeans": 2533,
    "Sorry": 2534,
    "Ġfog": 2535,
    "ob": 2536,
    "cy": 2537,
    "Pepper": 2538,
    "Ġhumans": 2539,
    "Ġdamage": 2540,
    "Ġwizard": 2541,
    "Happy": 2542,
    "acles": 2543,
    "ĠKaty": 2544,
    "dded": 2545,
    "Ġyoga": 2546,
    "pop": 2547,
    "Ġanchor": 2548,
    "Ġgifts": 2549,
    "idge": 2550,
    "ard": 2551,
    "Ġwhite": 2552,
    "Ġpoured": 2553,
    "Ġsunflower": 2554,
    "Ġvalue": 2555,
    "ĠEveryone": 2556,
    "anta": 2557,
    "Ġspl": 2558,
    "Ġchanged": 2559,
    "Ġnoodles": 2560,
    "Ķ": 2561,
    "sess": 2562,
    "ĠAmber": 2563,
    "Ġoverjoyed": 2564,
    "Ġsomeone": 2565,
    "Ġoysters": 2566,
    "Ġpitch": 2567,
    "Ġgrows": 2568,
    "Ġventured": 2569,
    "Follow": 2570,
    "med": 2571,
    "Ġbride": 2572,
    "ous": 2573,
    "Ġbadger": 2574,
    "Ġbecame": 2575,
    "Ġspun": 2576,
    "isted": 2577,
    "ers": 2578,
    "Ġpromises": 2579,
    "Ġscrub": 2580,
    "Ġinstr": 2581,
    "Ġvis": 2582,
    "Ġkiss": 2583,
    "Ġplayroom": 2584,
    "ty": 2585,
    "Ġdifferences": 2586,
    "ĠOld": 2587,
    "bert": 2588,
    "Ġplucked": 2589,
    "Baa": 2590,
    "ked": 2591,
    "Ġus": 2592,
    "Ġbutter": 2593,
    "Ġquilt": 2594,
    "!âĢĿ": 2595,
    "arning": 2596,
    "Ġannoying": 2597,
    "Ġre": 2598,
    "Ġlifted": 2599,
    "Ġmade": 2600,
    "Ġpicks": 2601,
    "Ġjack": 2602,
    "Ġships": 2603,
    "Ġignored": 2604,
    "Ġsofa": 2605,
    "ë": 2606,
    "Ġfiref": 2607,
    "Ġskies": 2608,
    "ĠWhat": 2609,
    "Ġdead": 2610,
    "ashed": 2611,
    "Ġgoodness": 2612,
    "Ġclay": 2613,
    "Ġletters": 2614,
    "eration": 2615,
    "Ġornament": 2616,
    "Ġpenguins": 2617,
    "Ġinterested": 2618,
    "Ġrecording": 2619,
    "Ġpouch": 2620,
    "Ġpaints": 2621,
    "orn": 2622,
    "Doggy": 2623,
    "ad": 2624,
    "ne": 2625,
    "Ġwis": 2626,
    "getable": 2627,
    "Ġsimple": 2628,
    "Ġlighting": 2629,
    "Ġreceive": 2630,
    "Beep": 2631,
    "Ġtouched": 2632,
    "etah": 2633,
    "Wally": 2634,
    "ĠRob": 2635,
    "ĠWoof": 2636,
    "Ġtakes": 2637,
    "Ġpatient": 2638,
    "Ġtwisted": 2639,
    "Ġpans": 2640,
    "Ġhissed": 2641,
    "Ġpeered": 2642,
    "ĠSome": 2643,
    "Ġcaw": 2644,
    "Ġtrouble": 2645,
    "Ġcarrot": 2646,
    "corn": 2647,
    "Ġones": 2648,
    "us": 2649,
    "Ġpedaled": 2650,
    "Ġcheese": 2651,
    "Ġeraser": 2652,
    "Ġtooth": 2653,
    "Ġdest": 2654,
    "Ġhelicopter": 2655,
    "Ġwhimpered": 2656,
    "Ġthem": 2657,
    "Rose": 2658,
    "ĠRosie": 2659,
    "Ġfins": 2660,
    "Ġsail": 2661,
    "Ġbluebird": 2662,
    "working": 2663,
    "Ġracing": 2664,
    "idence": 2665,
    "Ġbowed": 2666,
    "ĠAsh": 2667,
    "Ġcoming": 2668,
    "Ġinches": 2669,
    "Ġbest": 2670,
    "Ġret": 2671,
    "Ġcost": 2672,
    "Ġmemory": 2673,
    "iful": 2674,
    "Ġuntangle": 2675,
    "Instead": 2676,
    "Ġbike": 2677,
    "Ġglowing": 2678,
    "Ġevil": 2679,
    "Ġkittens": 2680,
    "Ġshaped": 2681,
    "Ġhabit": 2682,
    "dog": 2683,
    "ĠWith": 2684,
    "Ġflat": 2685,
    "bul": 2686,
    "Ġsewed": 2687,
    "Ġpony": 2688,
    "Ġpic": 2689,
    "Ġonly": 2690,
    "Ġbubble": 2691,
    "ĠKay": 2692,
    "ouch": 2693,
    "ø": 2694,
    "Ġwiggled": 2695,
    "Ġwouldn": 2696,
    "Ġfish": 2697,
    "OK": 2698,
    "Ġafternoon": 2699,
    "ĠAnnabelle": 2700,
    "Ġwith": 2701,
    "Ġmachine": 2702,
    "isapp": 2703,
    "Whenever": 2704,
    "Ġmis": 2705,
    "aste": 2706,
    "Ġcrops": 2707,
    "ĠIron": 2708,
    "Ġnapkins": 2709,
    "romise": 2710,
    "ird": 2711,
    "Ġgentle": 2712,
    "Ġhar": 2713,
    "Ġburn": 2714,
    "Ġchallen": 2715,
    "thing": 2716,
    "ĠListen": 2717,
    "Ġbinocular": 2718,
    "Ġreward": 2719,
    "Ġsix": 2720,
    "ement": 2721,
    "Ġlocks": 2722,
    "Ġentered": 2723,
    "Ġshare": 2724,
    "Ġblame": 2725,
    "ick": 2726,
    "Ġswings": 2727,
    "ized": 2728,
    "ott": 2729,
    "Ġcomput": 2730,
    "Ġstretched": 2731,
    "abby": 2732,
    "Ġunderwater": 2733,
    "Ġshock": 2734,
    "anna": 2735,
    "Ġlamb": 2736,
    "Ralph": 2737,
    "Ń": 2738,
    "Tom": 2739,
    "ĠMaybe": 2740,
    "ict": 2741,
    "Ġknight": 2742,
    "Ġcalls": 2743,
    "llen": 2744,
    "Ġhappily": 2745,
    "ĠEliza": 2746,
    "round": 2747,
    "aser": 2748,
    "ar": 2749,
    "Ġsecurity": 2750,
    "utter": 2751,
    "Ġcheckout": 2752,
    "he": 2753,
    "Ġdared": 2754,
    "Ġeng": 2755,
    "Ġtheirs": 2756,
    "Ġchallenges": 2757,
    "cope": 2758,
    "Ġstruggling": 2759,
    "oop": 2760,
    "Ġpeas": 2761,
    "Ġhimself": 2762,
    "Ġwealthy": 2763,
    "erly": 2764,
    "Ġthud": 2765,
    "Ġspinning": 2766,
    "Ġnuts": 2767,
    "Ġbelow": 2768,
    "Ġnine": 2769,
    "ĠBoth": 2770,
    "Ġhood": 2771,
    "ĠHow": 2772,
    "Ġang": 2773,
    "Ġdra": 2774,
    "Ġunlo": 2775,
    "Ġcact": 2776,
    "Ġours": 2777,
    "ym": 2778,
    "Ġarr": 2779,
    "ĠSunny": 2780,
    "Ġalmost": 2781,
    "kend": 2782,
    "ĠUniversity": 2783,
    "ĠLater": 2784,
    "Ġfeeling": 2785,
    "live": 2786,
    "Miss": 2787,
    "Ġcourage": 2788,
    "Ġleash": 2789,
    "igzag": 2790,
    "thy": 2791,
    "Ġweeds": 2792,
    "Ġperfect": 2793,
    "Ġbecome": 2794,
    "Ġsec": 2795,
    "Ġnuzz": 2796,
    "Ġsurrendered": 2797,
    "Ġrunner": 2798,
    "ĠBu": 2799,
    "Ø": 2800,
    "Ġmonkey": 2801,
    "ĠSammy": 2802,
    "Luckily": 2803,
    "Ġarea": 2804,
    "Ġsniffled": 2805,
    "ment": 2806,
    "Ġcleaned": 2807,
    "Ġcro": 2808,
    "ĠSpirit": 2809,
    "Ġpokes": 2810,
    "cle": 2811,
    "C": 2812,
    "ove": 2813,
    "achel": 2814,
    "Ġtests": 2815,
    "pecting": 2816,
    "ip": 2817,
    "Ġlungs": 2818,
    "Betty": 2819,
    "Ġokay": 2820,
    "Ġstraight": 2821,
    "Ġan": 2822,
    "ourn": 2823,
    "Ġedge": 2824,
    "ĠE": 2825,
    "Ġseeing": 2826,
    "Ġcaulif": 2827,
    "Ġdisobey": 2828,
    "Ġblock": 2829,
    "igator": 2830,
    "solutely": 2831,
    "illed": 2832,
    "Ġshampoo": 2833,
    "Ġwinked": 2834,
    "Be": 2835,
    "anie": 2836,
    "Ġank": 2837,
    "Ġterri": 2838,
    "Slowly": 2839,
    "Ġgiving": 2840,
    "ĠSasha": 2841,
    "Ġstarting": 2842,
    "bye": 2843,
    "omobile": 2844,
    "Ġraindrops": 2845,
    "oke": 2846,
    "red": 2847,
    "anted": 2848,
    "ĠAbbie": 2849,
    "llie": 2850,
    "Ġbegan": 2851,
    "Ġscrew": 2852,
    "Ġdelighted": 2853,
    "Ġbird": 2854,
    "Ġcowboys": 2855,
    "Jessie": 2856,
    "Ġintellig": 2857,
    "angle": 2858,
    "Ġweather": 2859,
    "Ġph": 2860,
    "Ġcocoon": 2861,
    "Ġflaps": 2862,
    "ĠDay": 2863,
    "off": 2864,
    "Ġbrave": 2865,
    "Ġdefe": 2866,
    "ure": 2867,
    "Ġseem": 2868,
    "Ġsmile": 2869,
    "Ġinsist": 2870,
    "Ġprints": 2871,
    "Ġnearby": 2872,
    "Ġmagical": 2873,
    "Sara": 2874,
    "Ġdrag": 2875,
    "end": 2876,
    "urrender": 2877,
    "Ġscent": 2878,
    "jo": 2879,
    "ask": 2880,
    "Ġmattress": 2881,
    "Ġrain": 2882,
    "ĠVivi": 2883,
    "Wiggly": 2884,
    "Maybe": 2885,
    "Ġsunlight": 2886,
    "Ġasleep": 2887,
    "Ġsprays": 2888,
    "ĠLightning": 2889,
    "Ġqueen": 2890,
    "ĠNina": 2891,
    "Nothing": 2892,
    "Ġbackpack": 2893,
    "Ġoppos": 2894,
    "ĠSpark": 2895,
    "Ġowned": 2896,
    "ora": 2897,
    "ĠFlop": 2898,
    "ĠHo": 2899,
    "Ġleap": 2900,
    "ow": 2901,
    "ĠHops": 2902,
    "Ġfurious": 2903,
    "ĠReddy": 2904,
    "Ġprize": 2905,
    "Ġthumb": 2906,
    "Ġwrote": 2907,
    "Ġtremble": 2908,
    "Ġpromised": 2909,
    "antha": 2910,
    "Ġaccom": 2911,
    "$": 2912,
    "Ġtrust": 2913,
    "Ġcleans": 2914,
    "Ġdisg": 2915,
    "Ġblew": 2916,
    "ĠHis": 2917,
    "Ġsew": 2918,
    "es": 2919,
    "Ġinterest": 2920,
    "Ġmedal": 2921,
    "Ġhallway": 2922,
    "Ġpal": 2923,
    "Ġbrings": 2924,
    "Ġhome": 2925,
    "3": 2926,
    "Ġdough": 2927,
    "Ġpainter": 2928,
    "Ġpolished": 2929,
    "Ġcat": 2930,
    "ner": 2931,
    "web": 2932,
    "Ġwarnings": 2933,
    "Ġpencils": 2934,
    "Ġsock": 2935,
    "Ġheads": 2936,
    "rod": 2937,
    "Ġprepare": 2938,
    "Ġsliding": 2939,
    "Ġmysteries": 2940,
    "enty": 2941,
    "Ã": 2942,
    "Ġbeen": 2943,
    "shmallow": 2944,
    "Ġdiamonds": 2945,
    "Ġpistol": 2946,
    "Ġteams": 2947,
    "pper": 2948,
    "act": 2949,
    "Ġbiting": 2950,
    "ĠQuacky": 2951,
    "Ġsplashes": 2952,
    "inky": 2953,
    "Ġcrocodile": 2954,
    "Ġwhistles": 2955,
    "Ġbouncy": 2956,
    "Ġchew": 2957,
    "Fine": 2958,
    "Bu": 2959,
    "ĠPippin": 2960,
    "our": 2961,
    "Ġjewels": 2962,
    "Thank": 2963,
    "ĠK": 2964,
    "Ġsav": 2965,
    "bed": 2966,
    "Ġhis": 2967,
    "Ġclass": 2968,
    "Ġvase": 2969,
    "Ġsquir": 2970,
    "ĠJoy": 2971,
    "Ġbad": 2972,
    "asure": 2973,
    "acked": 2974,
    "Ġsit": 2975,
    "xt": 2976,
    "Ġdare": 2977,
    "Peter": 2978,
    "Ġsc": 2979,
    "Jimmy": 2980,
    "Ġrid": 2981,
    "Sun": 2982,
    "Ġgoal": 2983,
    "Ġdesert": 2984,
    "Ġsaw": 2985,
    "Pat": 2986,
    "Ġding": 2987,
    "ĸ": 2988,
    "Ġadventurous": 2989,
    "Lisa": 2990,
    "ĠApp": 2991,
    "Ġstolen": 2992,
    "Ġsat": 2993,
    "Ġa": 2994,
    "Ġmagn": 2995,
    "Arrr": 2996,
    "Ġstealing": 2997,
    "Ġrobe": 2998,
    "Ġweighing": 2999,
    "Ġmonster": 3000,
    "Ġbeautiful": 3001,
    "Ġsk": 3002,
    "Ġcares": 3003,
    "Ġmesmer": 3004,
    "Ġproblems": 3005,
    "ĠUp": 3006,
    "Ġripe": 3007,
    "Ġseed": 3008,
    "selves": 3009,
    "Ġliked": 3010,
    "Ġease": 3011,
    "Ġstays": 3012,
    "ger": 3013,
    "Ġwanted": 3014,
    "pp": 3015,
    "ĠLove": 3016,
    "Ġrang": 3017,
    "hings": 3018,
    "Ġclosed": 3019,
    "Ġlooking": 3020,
    "Ġallow": 3021,
    "Ġapologize": 3022,
    "ache": 3023,
    "Ġtemple": 3024,
    "ens": 3025,
    "ĠZee": 3026,
    "Ġforeshadow": 3027,
    "ĠToot": 3028,
    "ĠSamantha": 3029,
    "Ġfought": 3030,
    "Ġgiggled": 3031,
    "Ġtickle": 3032,
    "Ġasks": 3033,
    "ĠUse": 3034,
    "Ġfond": 3035,
    "Ġapolog": 3036,
    "Ġshaking": 3037,
    "His": 3038,
    "Ġwalks": 3039,
    "Ġgiggling": 3040,
    "Ġnice": 3041,
    "ĠDaddy": 3042,
    "ĠMonkey": 3043,
    "Ġdoor": 3044,
    "Ğ": 3045,
    "Ġexcitement": 3046,
    "Ġbreakfast": 3047,
    "Ġterrified": 3048,
    "Ġbitten": 3049,
    "Ġsug": 3050,
    "ĠGabby": 3051,
    "urse": 3052,
    "Ġmerry": 3053,
    "Ġfloors": 3054,
    "ĠRicky": 3055,
    "Ġmoons": 3056,
    "Ġostriches": 3057,
    "ept": 3058,
    "Ġshe": 3059,
    "Ġinch": 3060,
    "Ġsupply": 3061,
    "Ġexams": 3062,
    "Ġunpacking": 3063,
    "ling": 3064,
    "Ġseparated": 3065,
    "des": 3066,
    "Ġdanc": 3067,
    "bee": 3068,
    "Ġforgave": 3069,
    "Ġscientist": 3070,
    "Ġdis": 3071,
    "Ġhelpful": 3072,
    "igg": 3073,
    "Ġreturned": 3074,
    "Ġsus": 3075,
    "Oops": 3076,
    "ĠDad": 3077,
    "ill": 3078,
    "etchup": 3079,
    "illy": 3080,
    "Ġfixed": 3081,
    "Uncle": 3082,
    "Ġwaterfall": 3083,
    "Moral": 3084,
    "Ġdecid": 3085,
    "h": 3086,
    "Ġbelt": 3087,
    "Al": 3088,
    "ĠRu": 3089,
    "Ġsausages": 3090,
    "Ġpout": 3091,
    "eterin": 3092,
    "Ġpurred": 3093,
    "Ġsprayed": 3094,
    "alk": 3095,
    "Ġhose": 3096,
    "Ġthankful": 3097,
    "Ġgigg": 3098,
    "na": 3099,
    "ĠZara": 3100,
    "Ġwider": 3101,
    "Ġpigeons": 3102,
    "ĠSocky": 3103,
    "ĠLilly": 3104,
    "ume": 3105,
    "Ġwhile": 3106,
    "Ġsacks": 3107,
    "Ġpadd": 3108,
    "Ġattractive": 3109,
    "Ġfamilies": 3110,
    "ceed": 3111,
    "Ġfault": 3112,
    "Danny": 3113,
    "aul": 3114,
    "Ġparks": 3115,
    "rink": 3116,
    "ĠJu": 3117,
    "Ġbite": 3118,
    "vroom": 3119,
    "Ġsurely": 3120,
    "ended": 3121,
    "Ġknocking": 3122,
    "Ġjets": 3123,
    "Deal": 3124,
    "Ġbirdcage": 3125,
    "Ġintently": 3126,
    "ley": 3127,
    "Ġner": 3128,
    "aws": 3129,
    "@": 3130,
    "Ġsquirrels": 3131,
    "Ġseagulls": 3132,
    "Ġkid": 3133,
    "Ġflour": 3134,
    "Ġunz": 3135,
    "ĠThomas": 3136,
    "Ġinstructions": 3137,
    "Well": 3138,
    "ch": 3139,
    "Ġcount": 3140,
    "boat": 3141,
    "Ġforts": 3142,
    "Ġcrisp": 3143,
    "met": 3144,
    "Ġhappened": 3145,
    "Ġmood": 3146,
    "Ġwob": 3147,
    "Ġdrawings": 3148,
    "Ġwaist": 3149,
    "Honey": 3150,
    "ching": 3151,
    "Ġjudges": 3152,
    "espite": 3153,
    "Ġhospital": 3154,
    "Ġlives": 3155,
    "ĠMomma": 3156,
    "atie": 3157,
    "Ġsettled": 3158,
    "Mikey": 3159,
    "Ġstruggled": 3160,
    "Ġhaircuts": 3161,
    "lowers": 3162,
    "five": 3163,
    "Ġguessing": 3164,
    "Ġbeg": 3165,
    "Ġclapped": 3166,
    "Ġevening": 3167,
    "Ġhanded": 3168,
    "Ġconcer": 3169,
    "Ġparent": 3170,
    "ĠStella": 3171,
    "Play": 3172,
    "eth": 3173,
    "Ġunfair": 3174,
    "ĠMummy": 3175,
    "Ġsparkle": 3176,
    "ĠU": 3177,
    "ĠBy": 3178,
    "Ġbefore": 3179,
    "ign": 3180,
    "ilty": 3181,
    "arm": 3182,
    "Ġblonde": 3183,
    "Ġincreasing": 3184,
    "Ġhand": 3185,
    "While": 3186,
    "Ġthieves": 3187,
    "ĠZack": 3188,
    "Th": 3189,
    "Ġsilver": 3190,
    "Ġalong": 3191,
    "ĠTrue": 3192,
    "Ġroot": 3193,
    "ute": 3194,
    "Ġcow": 3195,
    "ould": 3196,
    "ĠKayla": 3197,
    "ĠAbby": 3198,
    "otte": 3199,
    "Ġair": 3200,
    "Ġtemp": 3201,
    "Ĝ": 3202,
    "Ġcrashing": 3203,
    "Ġoverw": 3204,
    "Ġenjoying": 3205,
    "Ġtag": 3206,
    "Ġgonna": 3207,
    "ĠSometimes": 3208,
    "Ġfrowned": 3209,
    "Ġinvite": 3210,
    "Susan": 3211,
    "Ġmake": 3212,
    "Ġquiz": 3213,
    "ĠLenny": 3214,
    "ect": 3215,
    "Ġbracelet": 3216,
    "ictionary": 3217,
    "Ġx": 3218,
    "Ġhoc": 3219,
    "Ġweigh": 3220,
    "heart": 3221,
    "fall": 3222,
    "ccoli": 3223,
    "Ġsle": 3224,
    "Ġsorting": 3225,
    "ĠZoomy": 3226,
    "iggy": 3227,
    "Trust": 3228,
    "Ġpouring": 3229,
    "Jenny": 3230,
    "Our": 3231,
    "Ġfriends": 3232,
    "Ġbowl": 3233,
    "Jess": 3234,
    "Ġturned": 3235,
    "Ġexplains": 3236,
    "ere": 3237,
    "ĠHowever": 3238,
    "Ġbrain": 3239,
    "freeze": 3240,
    "ppies": 3241,
    "emon": 3242,
    "Ġuncle": 3243,
    "Ġniece": 3244,
    "Ġsaid": 3245,
    "that": 3246,
    "vy": 3247,
    "ibi": 3248,
    "Binky": 3249,
    "Ġprinter": 3250,
    "Ġmagaz": 3251,
    "Ġcall": 3252,
    "Ġcomplained": 3253,
    "Ġocc": 3254,
    "Ġexpect": 3255,
    "Ġlaws": 3256,
    "Ġhairdresser": 3257,
    "rm": 3258,
    "Ġuses": 3259,
    "Ġbushy": 3260,
    "Ġsmiles": 3261,
    "Ġbroom": 3262,
    "Ġgod": 3263,
    "ģ": 3264,
    "uddenly": 3265,
    "Ġmodel": 3266,
    "Í": 3267,
    "Ġsnapped": 3268,
    "Ġjoke": 3269,
    "ĠZoe": 3270,
    "Ġmagnif": 3271,
    "Ġadventures": 3272,
    "rework": 3273,
    "Ġhisses": 3274,
    "ighing": 3275,
    "Ġhours": 3276,
    "Mummy": 3277,
    "em": 3278,
    "Ġbored": 3279,
    "ĠPuppy": 3280,
    "Carl": 3281,
    "rie": 3282,
    "isy": 3283,
    "Ġsadder": 3284,
    "Ġtunes": 3285,
    "Lia": 3286,
    "any": 3287,
    "Ġcelery": 3288,
    "Quack": 3289,
    "asp": 3290,
    "Ġclimb": 3291,
    "Ġrotting": 3292,
    "Ġwhy": 3293,
    "ĠBig": 3294,
    "Ġknown": 3295,
    "Ġflashlight": 3296,
    "Ġeats": 3297,
    "Ġhockey": 3298,
    "ĠFr": 3299,
    "Ġcause": 3300,
    "Dear": 3301,
    "Ġsparkles": 3302,
    "ĠTuesday": 3303,
    "Ġfloating": 3304,
    "ĠMama": 3305,
    "Ġdoes": 3306,
    "Ġhomes": 3307,
    "ĠSandy": 3308,
    "ĠCrab": 3309,
    "eath": 3310,
    "eet": 3311,
    "Ġwoodcutter": 3312,
    "stead": 3313,
    "Ġfeast": 3314,
    "fully": 3315,
    "Ha": 3316,
    "Ġgo": 3317,
    "Ġmum": 3318,
    "Ġsending": 3319,
    "Ġmarching": 3320,
    "q": 3321,
    "ĠPen": 3322,
    "mediately": 3323,
    "iet": 3324,
    "Ġsquashes": 3325,
    "umbers": 3326,
    "Ġwr": 3327,
    "ĠBinky": 3328,
    "Ġlab": 3329,
    "Ġd": 3330,
    "Ġpenguin": 3331,
    "Ġvalued": 3332,
    "Ġhanding": 3333,
    "idy": 3334,
    "Ġraced": 3335,
    "Õ": 3336,
    "ğ": 3337,
    "Ġli": 3338,
    "Stay": 3339,
    "ĠBut": 3340,
    "ins": 3341,
    "Ġsitting": 3342,
    "Ġcheek": 3343,
    "Ġopen": 3344,
    "Shh": 3345,
    "Ġinstruments": 3346,
    "ĠBlue": 3347,
    "Ġreplace": 3348,
    "esday": 3349,
    "ups": 3350,
    "onies": 3351,
    "ĠWh": 3352,
    "ĠN": 3353,
    "Ġcut": 3354,
    "Ġimages": 3355,
    "Ġyaw": 3356,
    "Ġcompanion": 3357,
    "6": 3358,
    "Ġagain": 3359,
    "Ġswims": 3360,
    "Ġadults": 3361,
    "Ġign": 3362,
    "ĠCindy": 3363,
    "ball": 3364,
    "Ġindeed": 3365,
    "ĠCan": 3366,
    "Ġstroke": 3367,
    "Finny": 3368,
    "ula": 3369,
    "Ġattached": 3370,
    "ce": 3371,
    "Ġarms": 3372,
    "Ġshort": 3373,
    "itter": 3374,
    "Ġlemon": 3375,
    "Mittens": 3376,
    "ĠFoxy": 3377,
    "unny": 3378,
    "Ġcent": 3379,
    "Ġamount": 3380,
    "Ġspread": 3381,
    "ĠSplash": 3382,
    "Ġsmall": 3383,
    "Ġreally": 3384,
    "ĠExcited": 3385,
    "Ġwarmly": 3386,
    "ĠSophie": 3387,
    "Ġbikes": 3388,
    "Ġkn": 3389,
    "osaur": 3390,
    "Ġtrue": 3391,
    "Ġswall": 3392,
    "Ġrich": 3393,
    "Ġknowledge": 3394,
    "Ġbeam": 3395,
    "Gina": 3396,
    "Ġjump": 3397,
    "Ġtaking": 3398,
    "ext": 3399,
    "Ġhardest": 3400,
    "box": 3401,
    "Ball": 3402,
    "Ġgently": 3403,
    "ky": 3404,
    "Ġtype": 3405,
    "Ġaccompl": 3406,
    "enny": 3407,
    "Ġfaster": 3408,
    "ipped": 3409,
    "Ġjoked": 3410,
    "ĠLittle": 3411,
    "Ġshin": 3412,
    "Ġrolled": 3413,
    "Ġscrews": 3414,
    "ĠTears": 3415,
    "Ġburned": 3416,
    "Ġkinds": 3417,
    "Ġparts": 3418,
    "Ġcubes": 3419,
    "Ġmate": 3420,
    "ition": 3421,
    "ala": 3422,
    "Ġvests": 3423,
    "Yes": 3424,
    "ĠJimmy": 3425,
    "urricane": 3426,
    "affle": 3427,
    "Ġtwel": 3428,
    "Ġladyb": 3429,
    "Ġzoom": 3430,
    "Ġurged": 3431,
    "Ġchopping": 3432,
    "Ġpoison": 3433,
    "Ġgratitude": 3434,
    "Ġfilms": 3435,
    "Ġshallow": 3436,
    "Ġangels": 3437,
    "Ġloves": 3438,
    "Ġped": 3439,
    "Ġconcentr": 3440,
    "Ġhopes": 3441,
    "Ġlemons": 3442,
    "Ġscratch": 3443,
    "ĠMatilda": 3444,
    "Ġadmiration": 3445,
    "Ġu": 3446,
    "Three": 3447,
    "Ġenergetic": 3448,
    "Ġambulance": 3449,
    "Ġwasting": 3450,
    "Ġelephants": 3451,
    "Ġnect": 3452,
    "Ġchirping": 3453,
    "Ġflag": 3454,
    "Ġfi": 3455,
    "irpy": 3456,
    "Ġdoing": 3457,
    "Ġshows": 3458,
    "Ġpipes": 3459,
    "Ġbecoming": 3460,
    "Ġhappens": 3461,
    "Ġchewed": 3462,
    "Ġstar": 3463,
    "Ġsens": 3464,
    "oose": 3465,
    "Ġdesigned": 3466,
    "Mar": 3467,
    "ĠOtherwise": 3468,
    "Ġornaments": 3469,
    "Ġflame": 3470,
    "Ġtravel": 3471,
    "Ġwatering": 3472,
    "Ġyoun": 3473,
    "stick": 3474,
    "pected": 3475,
    "pit": 3476,
    "Ġclue": 3477,
    "abies": 3478,
    "ids": 3479,
    "Ġrepairing": 3480,
    "T": 3481,
    "gu": 3482,
    "ĠChess": 3483,
    "ĠMimi": 3484,
    "Ġrespected": 3485,
    "Ġtracks": 3486,
    "ĠLinda": 3487,
    "Ġpeaceful": 3488,
    "ship": 3489,
    "ichael": 3490,
    "Have": 3491,
    "ĠMagic": 3492,
    "uff": 3493,
    "reeze": 3494,
    "Ġcertainly": 3495,
    "°": 3496,
    "Ġsplashing": 3497,
    "Ġte": 3498,
    "Ġgone": 3499,
    "ey": 3500,
    "Ġscru": 3501,
    "unnies": 3502,
    "Ġgiggles": 3503,
    "ivery": 3504,
    "Ġspoiling": 3505,
    "im": 3506,
    "Ġleader": 3507,
    "Ġexercise": 3508,
    "Ġbreath": 3509,
    "ĠAchoo": 3510,
    "Ġkitten": 3511,
    "âĢ": 3512,
    "Ġdad": 3513,
    "Ġrode": 3514,
    "quet": 3515,
    "Ġobserving": 3516,
    "oom": 3517,
    "Ġfireworks": 3518,
    "anwhile": 3519,
    "Ġdelivered": 3520,
    "Ġpounds": 3521,
    "Ġsafer": 3522,
    "Ġput": 3523,
    "Ġactor": 3524,
    "Ġmill": 3525,
    "atch": 3526,
    "Ġtrap": 3527,
    "Ġsuper": 3528,
    "She": 3529,
    "Ġfire": 3530,
    "Ellie": 3531,
    "Johnny": 3532,
    "Ġlily": 3533,
    "ĠTomorrow": 3534,
    "yard": 3535,
    "Ġspid": 3536,
    "Ġsurprising": 3537,
    "Too": 3538,
    "Ġtrusts": 3539,
    "Only": 3540,
    "bly": 3541,
    "ifi": 3542,
    "Ġsorted": 3543,
    "Ġpoppies": 3544,
    "mbers": 3545,
    "Ġexperienced": 3546,
    "als": 3547,
    "Ġluggage": 3548,
    "Ġpilots": 3549,
    "Ġlands": 3550,
    "seum": 3551,
    "Ġfetched": 3552,
    "Ġfloat": 3553,
    "Ġspider": 3554,
    "Ġscrambled": 3555,
    "Ġroared": 3556,
    "ĠIts": 3557,
    "Ġweek": 3558,
    "bo": 3559,
    "Ġhops": 3560,
    "no": 3561,
    "Ġstudied": 3562,
    "ĠKn": 3563,
    "Ġrubb": 3564,
    "Ġspecial": 3565,
    "Ġforehead": 3566,
    "Ġflute": 3567,
    "Ġlocal": 3568,
    "Þ": 3569,
    "ĠWhistle": 3570,
    "Ġpunishment": 3571,
    "Ġgain": 3572,
    "Mouse": 3573,
    "Ġrods": 3574,
    "Ġmatches": 3575,
    "Meow": 3576,
    "Ġcircus": 3577,
    "Ġvoice": 3578,
    "Ġfreed": 3579,
    "Ġinchworm": 3580,
    "ines": 3581,
    "Ġbarn": 3582,
    "ola": 3583,
    "Ġunknown": 3584,
    "Yuck": 3585,
    "ĠBuzz": 3586,
    "Because": 3587,
    "Ġresisted": 3588,
    "Ġdumb": 3589,
    "Ġcoo": 3590,
    "Ġremote": 3591,
    "Ġhaving": 3592,
    "uggles": 3593,
    "gest": 3594,
    "Ē": 3595,
    "ced": 3596,
    "Ġnever": 3597,
    "Ġshed": 3598,
    "Ġeff": 3599,
    "Ġinse": 3600,
    "ĠSugar": 3601,
    "ĠRover": 3602,
    "isions": 3603,
    "bbing": 3604,
    "ken": 3605,
    "Ġsuggest": 3606,
    "Rabbit": 3607,
    "Ġbraver": 3608,
    "Ġdisagre": 3609,
    "Ġstones": 3610,
    "oney": 3611,
    "Ġfinish": 3612,
    "Ġfastest": 3613,
    "sorry": 3614,
    "llow": 3615,
    "ifully": 3616,
    "Alex": 3617,
    "ighting": 3618,
    "Ġnail": 3619,
    "rosc": 3620,
    "ĠLia": 3621,
    "Ġstrum": 3622,
    "Ġrequested": 3623,
    "Ñ": 3624,
    "rect": 3625,
    "ĠLisa": 3626,
    "Ġscrewd": 3627,
    "Ġvowed": 3628,
    "Ġenemy": 3629,
    "ĠG": 3630,
    "oy": 3631,
    "ĠCher": 3632,
    "Ġballoons": 3633,
    "Ġmovie": 3634,
    "Ġpebbles": 3635,
    "ĠLiz": 3636,
    "Ġcollect": 3637,
    "Ġcows": 3638,
    "go": 3639,
    "Rocky": 3640,
    "izz": 3641,
    "Ġcourt": 3642,
    "andy": 3643,
    "Ġjail": 3644,
    "ĠGray": 3645,
    "Ġju": 3646,
    "ĠF": 3647,
    "Ġgeese": 3648,
    "Ġpupp": 3649,
    "Ġblown": 3650,
    "aug": 3651,
    "Ġintroduce": 3652,
    "Ġlines": 3653,
    "Ġcompletely": 3654,
    "Ġonto": 3655,
    "Ġannounced": 3656,
    "Ġplaydate": 3657,
    "ĠCarla": 3658,
    "Ġpill": 3659,
    "Ġzipping": 3660,
    "iest": 3661,
    "Ġnavy": 3662,
    "Ġcord": 3663,
    "Big": 3664,
    "ĠAshley": 3665,
    "mas": 3666,
    "Ġsquirrel": 3667,
    "ĠToday": 3668,
    "Ġcupcakes": 3669,
    "Ġgreen": 3670,
    "Ġvill": 3671,
    "Ġour": 3672,
    "ĠSpot": 3673,
    "Ġstood": 3674,
    "Ġrisks": 3675,
    "ĠThere": 3676,
    "dge": 3677,
    "Ġmin": 3678,
    "Ġinsects": 3679,
    "Ġscur": 3680,
    "ĠSpike": 3681,
    "Ġplayful": 3682,
    "uppy": 3683,
    "ĠBally": 3684,
    "Ġigloo": 3685,
    "ell": 3686,
    "Ġagreed": 3687,
    "asis": 3688,
    "Ġshave": 3689,
    "Ġfuel": 3690,
    "Ġbrushes": 3691,
    "Ġen": 3692,
    "Ġcabin": 3693,
    "Ġmoments": 3694,
    "Ġflips": 3695,
    "Ġtwists": 3696,
    "munk": 3697,
    "Isn": 3698,
    "Ġgoodnight": 3699,
    "ĠRosa": 3700,
    "Ġcashier": 3701,
    "Ġrotten": 3702,
    "Ġaccept": 3703,
    "Ġcheer": 3704,
    "Ġswing": 3705,
    "Ġgood": 3706,
    "Ġshopkeeper": 3707,
    "Did": 3708,
    "rn": 3709,
    "đ": 3710,
    "oth": 3711,
    "ash": 3712,
    "Ġsearching": 3713,
    "¹": 3714,
    "ĠSkelly": 3715,
    "Ġtight": 3716,
    "urnit": 3717,
    "Ġyard": 3718,
    "ungle": 3719,
    "aurant": 3720,
    "Ġcrawled": 3721,
    "Ġairplane": 3722,
    "Ġviolin": 3723,
    "ĠOK": 3724,
    "Ġweren": 3725,
    "Ġhoriz": 3726,
    "Ġcurtains": 3727,
    "Ġworse": 3728,
    "urious": 3729,
    "Ġeither": 3730,
    "Ġprint": 3731,
    "Ġblooms": 3732,
    "ĠBloom": 3733,
    "Ġslow": 3734,
    "Ġscares": 3735,
    "Ġf": 3736,
    "Ġfu": 3737,
    "Ġmu": 3738,
    "Ý": 3739,
    "Ġcare": 3740,
    "inary": 3741,
    "Ġgoat": 3742,
    "Ġdirty": 3743,
    "Ġlive": 3744,
    "Ġsteth": 3745,
    "Ġrake": 3746,
    "ĠCra": 3747,
    "ĠJim": 3748,
    "Ġjudge": 3749,
    "Ġattic": 3750,
    "apping": 3751,
    "Ġpieces": 3752,
    "ĠâĢĺ": 3753,
    "Get": 3754,
    "Ġbacks": 3755,
    "Ġtoddler": 3756,
    "Ġnets": 3757,
    "ped": 3758,
    "Ġattach": 3759,
    "ĠIm": 3760,
    "is": 3761,
    "ĠBoat": 3762,
    "oomy": 3763,
    "Ġtangled": 3764,
    "tuce": 3765,
    "Ġeveryday": 3766,
    "Ġreun": 3767,
    "ĠSomething": 3768,
    "lex": 3769,
    "Ġim": 3770,
    "Ġstrip": 3771,
    "Ġpushing": 3772,
    "Ġalso": 3773,
    "Ġclosing": 3774,
    "ess": 3775,
    "Ġslim": 3776,
    "Ġball": 3777,
    "chie": 3778,
    "Yeah": 3779,
    "Ġsmiley": 3780,
    "Ġstrongest": 3781,
    "Ġattention": 3782,
    "Ġsun": 3783,
    "ef": 3784,
    "unt": 3785,
    "Ġfier": 3786,
    "Ġwatermelon": 3787,
    "Ġreply": 3788,
    "Ġglad": 3789,
    "Ġword": 3790,
    "Ġjoyfully": 3791,
    "Ġhang": 3792,
    "ĠGiant": 3793,
    "izzes": 3794,
    "Guess": 3795,
    "Ġboth": 3796,
    "usia": 3797,
    "Ġattack": 3798,
    "b": 3799,
    "Ġtall": 3800,
    "Ġmot": 3801,
    "Ġwelcomed": 3802,
    "nies": 3803,
    "Ġwaves": 3804,
    "Ġgrandparent": 3805,
    "Rex": 3806,
    "Tommy": 3807,
    "cil": 3808,
    "oys": 3809,
    "aky": 3810,
    "Ġthumbs": 3811,
    "Ġsurprised": 3812,
    "yl": 3813,
    "Ġgl": 3814,
    "Ġcomets": 3815,
    "Ġflow": 3816,
    "Ġmirror": 3817,
    "Ġwiped": 3818,
    "Ġcheered": 3819,
    "ß": 3820,
    "ange": 3821,
    "Ġtong": 3822,
    "Ġwaiting": 3823,
    "Ġhipp": 3824,
    "Ġcages": 3825,
    "andas": 3826,
    "essie": 3827,
    "ĠMaya": 3828,
    "Ġmanager": 3829,
    "ough": 3830,
    "Ġcaps": 3831,
    "bow": 3832,
    "if": 3833,
    "Ġseat": 3834,
    "Ġbroken": 3835,
    "Ġstri": 3836,
    "Ġcarts": 3837,
    "Ġdamaged": 3838,
    "Ġfam": 3839,
    "Ġnapping": 3840,
    "Ġbranch": 3841,
    "Ġbattle": 3842,
    "Ġorders": 3843,
    "Ġneigh": 3844,
    "Ġswitch": 3845,
    "Ġslide": 3846,
    "Ġdrinks": 3847,
    "Ġsooner": 3848,
    "pack": 3849,
    "Ġchat": 3850,
    "Ġimpressive": 3851,
    "Ġhuman": 3852,
    "Ġcable": 3853,
    "board": 3854,
    "Ġhesit": 3855,
    "Ted": 3856,
    "ĠCathy": 3857,
    "N": 3858,
    "\",": 3859,
    "Ġargum": 3860,
    "Kayla": 3861,
    "oof": 3862,
    "Ġnowhere": 3863,
    "Ġfav": 3864,
    "Ġbaking": 3865,
    "ĠRazor": 3866,
    "Ġthrow": 3867,
    "Ġstret": 3868,
    "Ġsqueal": 3869,
    "Ġmodels": 3870,
    "Ġunlock": 3871,
    "Ġwoman": 3872,
    "Ġmesmerized": 3873,
    "Momma": 3874,
    "Ġplayed": 3875,
    "erm": 3876,
    "Ġpart": 3877,
    "Ġhig": 3878,
    "Emily": 3879,
    "Ġmonth": 3880,
    "Ġmole": 3881,
    "Ġheat": 3882,
    "ler": 3883,
    "Ġwhispered": 3884,
    "ucked": 3885,
    "Ġrul": 3886,
    "Ġwalls": 3887,
    "ĠPh": 3888,
    "Ġclues": 3889,
    "Ġbackwards": 3890,
    "Ġthreat": 3891,
    "read": 3892,
    "½": 3893,
    "Ġpast": 3894,
    "Ġdancers": 3895,
    "ĠElephant": 3896,
    "Ġmonths": 3897,
    "scape": 3898,
    "Ġbaker": 3899,
    "Ġcome": 3900,
    "elly": 3901,
    "Ī": 3902,
    "Ġcobwebs": 3903,
    "Ġfairies": 3904,
    "Ġtime": 3905,
    "Ġdrops": 3906,
    "ung": 3907,
    "ã": 3908,
    "amie": 3909,
    "¨": 3910,
    "ubby": 3911,
    "Ġrubbed": 3912,
    "Ġkicking": 3913,
    "Ġlending": 3914,
    "Ġfinished": 3915,
    "Ġwink": 3916,
    "Ġworks": 3917,
    "ĠMother": 3918,
    "Ġscissors": 3919,
    "Ġscold": 3920,
    "Ġswimsuit": 3921,
    "Ġnewspapers": 3922,
    "Ġground": 3923,
    "Ġsheep": 3924,
    "Ġheaded": 3925,
    "Ġcond": 3926,
    "Ġtalk": 3927,
    "Ġanxious": 3928,
    "Ġtwigs": 3929,
    "Ġlick": 3930,
    "Ġwadd": 3931,
    "po": 3932,
    "Ġwoken": 3933,
    "Ġordered": 3934,
    "Ġdirection": 3935,
    "Ġuniversity": 3936,
    "ĠFlutter": 3937,
    "Ġaston": 3938,
    "Ġcones": 3939,
    "º": 3940,
    "Freeze": 3941,
    "ĠJulia": 3942,
    "Ġpirate": 3943,
    "Ġsomething": 3944,
    "icing": 3945,
    "Mad": 3946,
    "Ġrever": 3947,
    "Ġmight": 3948,
    "Ġsatisfied": 3949,
    "Ġplaytime": 3950,
    "rrr": 3951,
    "Ġinter": 3952,
    "Ġgrandson": 3953,
    "Ġone": 3954,
    "7": 3955,
    "Ġgall": 3956,
    "stand": 3957,
    "Ġpoor": 3958,
    "Ġshrugged": 3959,
    "mbre": 3960,
    "ĠOut": 3961,
    "Ġprince": 3962,
    "rey": 3963,
    "Robby": 3964,
    "dle": 3965,
    "Ġwinners": 3966,
    "ian": 3967,
    "upid": 3968,
    "Ġanother": 3969,
    "Ġfallen": 3970,
    "Ġsticking": 3971,
    "ĠIn": 3972,
    "Ġind": 3973,
    "Ġdots": 3974,
    "Ġmarshmallow": 3975,
    "ĠEmmy": 3976,
    "Ġhomework": 3977,
    "Ġdev": 3978,
    "Ġcorner": 3979,
    "Ġfather": 3980,
    "aches": 3981,
    "ĠWil": 3982,
    "Ġhen": 3983,
    "Ġannoy": 3984,
    "Ġwhisp": 3985,
    "Excuse": 3986,
    "seph": 3987,
    "Ġcras": 3988,
    "Ġgoals": 3989,
    "Ġtightly": 3990,
    "Ġcam": 3991,
    "ĠBooks": 3992,
    "Ġsituation": 3993,
    "Ġsandcastles": 3994,
    "Ġlanguage": 3995,
    "Ġstyles": 3996,
    "Ġmoney": 3997,
    "Ġstable": 3998,
    "Tweet": 3999,
    "Ġfaith": 4000,
    "Ġwool": 4001,
    "ĠWilliam": 4002,
    "Ġfor": 4003,
    "Ġstarted": 4004,
    "gl": 4005,
    "Sammy": 4006,
    "Ġrob": 4007,
    "antly": 4008,
    "ĠWhiskers": 4009,
    "Ġobject": 4010,
    "Ġshirts": 4011,
    "Ġconvers": 4012,
    "Ġworld": 4013,
    "ĠAl": 4014,
    "Ġsprang": 4015,
    "Ġthank": 4016,
    "Ġstirred": 4017,
    "Ġoverwhel": 4018,
    "und": 4019,
    "Ġcreamy": 4020,
    "Ġshrunk": 4021,
    "seek": 4022,
    "!âĢĻ": 4023,
    "Ġsatisfaction": 4024,
    "ĠMax": 4025,
    "ike": 4026,
    "Ġsparkled": 4027,
    "Ġthrown": 4028,
    "Dave": 4029,
    "Yum": 4030,
    "iable": 4031,
    "Ġticket": 4032,
    "to": 4033,
    "F": 4034,
    "Ġgas": 4035,
    "Ġscraped": 4036,
    "Ġcalling": 4037,
    "Ġfeels": 4038,
    "ĠFinally": 4039,
    "Ġdrawer": 4040,
    "ĠRed": 4041,
    "Ġrack": 4042,
    "Ġmagnet": 4043,
    "irr": 4044,
    "Ġunfortunately": 4045,
    "Ġtidied": 4046,
    "Ġearlier": 4047,
    "Ġnibb": 4048,
    "Ġe": 4049,
    "Ġmotor": 4050,
    "Fluffy": 4051,
    "Ġtravelling": 4052,
    "Ġrubbish": 4053,
    "Ġgifted": 4054,
    "Ġhesitated": 4055,
    "Ġmint": 4056,
    "Ġhelmet": 4057,
    "Ġaeroplanes": 4058,
    "ĠSpring": 4059,
    "Ġres": 4060,
    "Ġhealth": 4061,
    "Ġseemed": 4062,
    "ĠJulie": 4063,
    "ves": 4064,
    "This": 4065,
    "Ġslam": 4066,
    "Ġapplauding": 4067,
    "ĠRes": 4068,
    "agine": 4069,
    "ili": 4070,
    "Ġedges": 4071,
    "ĠRay": 4072,
    "venir": 4073,
    "ep": 4074,
    "Ġlanguages": 4075,
    "Ġbandage": 4076,
    "retty": 4077,
    "Ġextraordinary": 4078,
    "ĠWin": 4079,
    "ering": 4080,
    "ve": 4081,
    "Ġclap": 4082,
    "Ġairport": 4083,
    "uly": 4084,
    "Ġfocus": 4085,
    "Ġreminder": 4086,
    "Ġopin": 4087,
    "Ġtw": 4088,
    "Ġbuilders": 4089,
    "Ġcry": 4090,
    "Ġreliable": 4091,
    "Ġlad": 4092,
    "Ġlowered": 4093,
    "ĠRe": 4094,
    "Ġwalk": 4095,
    "Ġsupplied": 4096,
    "Ġwild": 4097,
    "Ġsl": 4098,
    "ety": 4099,
    "Ġtra": 4100,
    "ass": 4101,
    "À": 4102,
    "ĠSanta": 4103,
    "Ġmotorcycle": 4104,
    "orter": 4105,
    "Ġrhythm": 4106,
    "joyed": 4107,
    "Ġawake": 4108,
    "Ġflying": 4109,
    "Ġting": 4110,
    "urch": 4111,
    "Ġwooden": 4112,
    "ith": 4113,
    "Ġbuilding": 4114,
    "getic": 4115,
    "'.\"": 4116,
    "abelle": 4117,
    "Ġmindful": 4118,
    "Ġshirt": 4119,
    "Momo": 4120,
    "ĠThen": 4121,
    "Ġeasy": 4122,
    "Ġplaces": 4123,
    "Toys": 4124,
    "Ġwhat": 4125,
    "Sad": 4126,
    "Ú": 4127,
    "Ġunderneath": 4128,
    "Ġzoo": 4129,
    "Ġpepperoni": 4130,
    "ę": 4131,
    "ven": 4132,
    "Ġthreads": 4133,
    "Ġshap": 4134,
    "ĠPark": 4135,
    "Ġworth": 4136,
    "Ġwasted": 4137,
    "ĠAnother": 4138,
    "Ġloo": 4139,
    "ĠDin": 4140,
    "Ĳ": 4141,
    "ĠJill": 4142,
    "Ġused": 4143,
    "Ġponies": 4144,
    "Ġarg": 4145,
    "Ġherself": 4146,
    "Ġing": 4147,
    "Ġgesture": 4148,
    "Ġmeant": 4149,
    "Ġfluttering": 4150,
    "Ġok": 4151,
    "Ġbug": 4152,
    "Ġcrumbs": 4153,
    "ggy": 4154,
    "Ġdan": 4155,
    "ĠReady": 4156,
    "Ġgoing": 4157,
    "Ġpotion": 4158,
    "Ġlull": 4159,
    "Ġeld": 4160,
    "Ġfr": 4161,
    "rew": 4162,
    "Ġcopy": 4163,
    "Ġshoo": 4164,
    "Ġrebuild": 4165,
    "aught": 4166,
    "Come": 4167,
    "Ġdiscoveries": 4168,
    "emy": 4169,
    "Ġsteak": 4170,
    "indy": 4171,
    "Ġdestroying": 4172,
    "Ġvend": 4173,
    "Ġhid": 4174,
    "Ġpurple": 4175,
    "ĠOt": 4176,
    "Ġwings": 4177,
    "ĠBye": 4178,
    "Ġcar": 4179,
    "Ġjelly": 4180,
    "ĠJoke": 4181,
    "Jan": 4182,
    "Ġcream": 4183,
    "Ġany": 4184,
    "Ġne": 4185,
    "ĠOw": 4186,
    "ĠBeep": 4187,
    "Ġskip": 4188,
    "ĠWisdom": 4189,
    "illa": 4190,
    "ĠUni": 4191,
    "Ġincred": 4192,
    "ĠBiggie": 4193,
    "Yay": 4194,
    "ĠMiss": 4195,
    "Ġacting": 4196,
    "aint": 4197,
    "Ġshield": 4198,
    "ision": 4199,
    "storm": 4200,
    "Ġless": 4201,
    "`": 4202,
    "ames": 4203,
    "Ġav": 4204,
    "eds": 4205,
    "Ġcircle": 4206,
    "rac": 4207,
    "Ġcupcake": 4208,
    "Ġlock": 4209,
    "æ": 4210,
    "mers": 4211,
    "Ġguilty": 4212,
    "ĠBeth": 4213,
    "Bluey": 4214,
    "Ġcollecting": 4215,
    "Ġquarreling": 4216,
    "Ġbunnies": 4217,
    "lier": 4218,
    "Ġsend": 4219,
    "ĠClimb": 4220,
    "Ġnoses": 4221,
    "Ġgoose": 4222,
    "Ġunderground": 4223,
    "ĠSofia": 4224,
    "âĢĶ": 4225,
    "ĠWelcome": 4226,
    "cing": 4227,
    "Ġrefrigerator": 4228,
    "icked": 4229,
    "Ġunderstand": 4230,
    "Ġpastry": 4231,
    "ĠBrown": 4232,
    "Ġhat": 4233,
    "ĠJamie": 4234,
    "Ġspe": 4235,
    "Ġtarget": 4236,
    "Ġother": 4237,
    "Ġgloomy": 4238,
    "Ġimmediately": 4239,
    "Ġbe": 4240,
    "Ġlearn": 4241,
    "Ġcarried": 4242,
    "Ġplans": 4243,
    "Ġhearing": 4244,
    "Ġotherwise": 4245,
    "ĠTiger": 4246,
    "broken": 4247,
    "af": 4248,
    "Ġconf": 4249,
    "ĠLet": 4250,
    "ĠYellow": 4251,
    "ueen": 4252,
    "vering": 4253,
    "Ġchocolates": 4254,
    "Ġbuckled": 4255,
    "Ġinstrument": 4256,
    "Baby": 4257,
    "Ġuse": 4258,
    "Ġlions": 4259,
    "nt": 4260,
    "ĠPip": 4261,
    "Ġlearnt": 4262,
    "Ġbranches": 4263,
    "Ġpennies": 4264,
    "Ġparticularly": 4265,
    "Ġblueberry": 4266,
    "ĠSpeedy": 4267,
    "Ġyawn": 4268,
    "fused": 4269,
    "Ġshyly": 4270,
    "Ġaccomplishment": 4271,
    "Ava": 4272,
    "ĠHoppy": 4273,
    "Ġamazing": 4274,
    "ke": 4275,
    "Ġmet": 4276,
    "Ġblackboard": 4277,
    "oosh": 4278,
    "Ġfing": 4279,
    "Ġpassing": 4280,
    "Ġwakes": 4281,
    "uring": 4282,
    "Ġwisely": 4283,
    "Ġbelonged": 4284,
    "Ġpizz": 4285,
    "Ġexploded": 4286,
    "Ġhol": 4287,
    "Ġrags": 4288,
    "Ġwhales": 4289,
    "ĠJacob": 4290,
    "Ġraccoon": 4291,
    "Ġknots": 4292,
    "Ġex": 4293,
    "Ġ5": 4294,
    "time": 4295,
    "Ġdesperately": 4296,
    "Ġbats": 4297,
    "Ġkids": 4298,
    "Ġsy": 4299,
    "up": 4300,
    "Ġtastes": 4301,
    "iant": 4302,
    "Ġreleased": 4303,
    "Ġbanged": 4304,
    "Ġmeasuring": 4305,
    "Ġmovies": 4306,
    "ong": 4307,
    "Ġsupported": 4308,
    "Ready": 4309,
    "Let": 4310,
    "Ġbaby": 4311,
    "Ġmild": 4312,
    "ected": 4313,
    "bird": 4314,
    "Ġsandwich": 4315,
    "Ġbicycle": 4316,
    "Ġblue": 4317,
    "ately": 4318,
    "Ġheading": 4319,
    "line": 4320,
    "Ġspaceship": 4321,
    "Ġtemperature": 4322,
    "9": 4323,
    "luffy": 4324,
    "ď": 4325,
    "Hannah": 4326,
    "ĠRyan": 4327,
    "free": 4328,
    "ved": 4329,
    "Ġdo": 4330,
    "ĠElla": 4331,
    "Ġyou": 4332,
    "et": 4333,
    "Ġjournal": 4334,
    "Ġpoints": 4335,
    "Dan": 4336,
    "Ġbeside": 4337,
    "Ġcarrying": 4338,
    "Ġaccidentally": 4339,
    "ĠCoal": 4340,
    "Ġpur": 4341,
    "ĠâĢ": 4342,
    "Ġdisturbed": 4343,
    "ĠBl": 4344,
    "Ġfaced": 4345,
    "Ġloses": 4346,
    "edn": 4347,
    "inda": 4348,
    "Ġchallenge": 4349,
    "Ġpolish": 4350,
    "ffee": 4351,
    "Ooh": 4352,
    "Ġplane": 4353,
    "Ġdeeply": 4354,
    "Ġfresh": 4355,
    "Ġhigh": 4356,
    "Ġcarrots": 4357,
    "Ġwaiter": 4358,
    "ventually": 4359,
    "Ġtube": 4360,
    "Ġspilling": 4361,
    "Ġtele": 4362,
    "ĠAny": 4363,
    "ibb": 4364,
    "Ġgot": 4365,
    "Ġtr": 4366,
    "Ġpencil": 4367,
    "Ġgears": 4368,
    "Ġswallow": 4369,
    "Ġpresses": 4370,
    "Ġprom": 4371,
    "Behind": 4372,
    "Ġeggs": 4373,
    "fa": 4374,
    "ĠTurtle": 4375,
    "ĠAngel": 4376,
    "Ġlegs": 4377,
    "Ġrock": 4378,
    "pect": 4379,
    "Ġphoto": 4380,
    "Ġbooks": 4381,
    "Ġmachines": 4382,
    "Ġtempt": 4383,
    "Ġhooks": 4384,
    "Ġloading": 4385,
    "zz": 4386,
    "Ġruff": 4387,
    "Ġamong": 4388,
    "Ġcake": 4389,
    "bb": 4390,
    "Ġdisagree": 4391,
    "self": 4392,
    "Ġexplored": 4393,
    "nie": 4394,
    "uffy": 4395,
    "Ġcompassionate": 4396,
    "ooky": 4397,
    "Ġneedle": 4398,
    "rmomet": 4399,
    "Ġdrew": 4400,
    "Ġshelf": 4401,
    "ite": 4402,
    "Ġoxygen": 4403,
    "esterday": 4404,
    "Mum": 4405,
    "ĠMay": 4406,
    "icky": 4407,
    "Ġvisit": 4408,
    "Ġshowed": 4409,
    "Ġcatch": 4410,
    "orm": 4411,
    "Give": 4412,
    "Ġstreng": 4413,
    "Ġcharm": 4414,
    "Ġboil": 4415,
    "ĠJenn": 4416,
    "Jeff": 4417,
    "Ġcoin": 4418,
    "Ġpain": 4419,
    "Ġsoldiers": 4420,
    "Ġsoak": 4421,
    "Ġfries": 4422,
    "Ġblamed": 4423,
    "Sleep": 4424,
    "Ġcards": 4425,
    "ĠAr": 4426,
    "Ġsleep": 4427,
    "Ġrushed": 4428,
    "Ġsoaked": 4429,
    "pped": 4430,
    "lves": 4431,
    "ou": 4432,
    ".'": 4433,
    "Ġcreate": 4434,
    "Ġexercises": 4435,
    "ĠFinn": 4436,
    "Ġimpossible": 4437,
    "Ġalthough": 4438,
    "Ġcurtain": 4439,
    "Ġreind": 4440,
    "Ġusual": 4441,
    "Ġgasps": 4442,
    "Ġenthusia": 4443,
    "rum": 4444,
    "Ġbrid": 4445,
    "ĠDid": 4446,
    "ĠChirp": 4447,
    "joy": 4448,
    "Ġgem": 4449,
    "ĠJane": 4450,
    "Ġagainst": 4451,
    "ĠIf": 4452,
    "Ġreunited": 4453,
    "Ġplanning": 4454,
    "ric": 4455,
    "Ġburrow": 4456,
    "Su": 4457,
    "Ġjeep": 4458,
    "Ġtaller": 4459,
    "Ġmistakes": 4460,
    "co": 4461,
    "ĠBert": 4462,
    "Ù": 4463,
    "Ġfrog": 4464,
    "Ġtemper": 4465,
    "Ġcheerfully": 4466,
    "Ġsong": 4467,
    "Ġluckily": 4468,
    "Ġmushrooms": 4469,
    "fish": 4470,
    "omeday": 4471,
    "Ġforgets": 4472,
    "Ġturtles": 4473,
    "ĠCharlie": 4474,
    "Now": 4475,
    "We": 4476,
    "oger": 4477,
    "ĠSpidey": 4478,
    "unately": 4479,
    "ĠOkay": 4480,
    "!âĢĿ.": 4481,
    "Ġhay": 4482,
    "inny": 4483,
    "Ġawoke": 4484,
    "Nice": 4485,
    "ause": 4486,
    "ĠFrosty": 4487,
    "Zoomy": 4488,
    "ilot": 4489,
    "Ġjog": 4490,
    "Ġflowers": 4491,
    "ĠTwinkle": 4492,
    "Ġliqu": 4493,
    "Ġhurting": 4494,
    "Ġdress": 4495,
    "Ġador": 4496,
    "Ġpassed": 4497,
    "¼": 4498,
    "Ġimpress": 4499,
    "ĠLots": 4500,
    "Ġmagazine": 4501,
    "Ġrealized": 4502,
    "ĠEric": 4503,
    "Robbie": 4504,
    "yd": 4505,
    "Ġbreak": 4506,
    "Ġturt": 4507,
    "Ġve": 4508,
    "Ġmiddle": 4509,
    "Ġharder": 4510,
    "ĠQueen": 4511,
    "Ġwra": 4512,
    "ld": 4513,
    "ĠTr": 4514,
    "iness": 4515,
    "Ġrot": 4516,
    "Ġtheater": 4517,
    "ô": 4518,
    "Ġpastries": 4519,
    "Ġsquaw": 4520,
    "Ġfuture": 4521,
    "Ġask": 4522,
    "Ġcleaner": 4523,
    "Ġmetal": 4524,
    "Ġstickers": 4525,
    "Ġsticks": 4526,
    "ĠInstead": 4527,
    "lied": 4528,
    "Ġvac": 4529,
    "Ġglittered": 4530,
    "Ġaprons": 4531,
    "fire": 4532,
    "Ġstro": 4533,
    "ĠFlappy": 4534,
    "Ġprizes": 4535,
    "erest": 4536,
    "Ġpointing": 4537,
    "Ġgum": 4538,
    "Ġprod": 4539,
    "Ġshape": 4540,
    "Ġtidying": 4541,
    "Ġtoo": 4542,
    "Want": 4543,
    "Ġsquares": 4544,
    "Ġcab": 4545,
    "Ġfurther": 4546,
    "Ġsuit": 4547,
    "Ġpeep": 4548,
    "Ġsolve": 4549,
    "Bye": 4550,
    "Ġspaces": 4551,
    "'t": 4552,
    "Ġhold": 4553,
    "Ġnone": 4554,
    "Ġhandle": 4555,
    "Ġcob": 4556,
    "Ġsolving": 4557,
    "Ġawhile": 4558,
    "Ġposit": 4559,
    "Ġflew": 4560,
    "Ġjug": 4561,
    "Ġdecide": 4562,
    "Ġconflict": 4563,
    "ĠPlay": 4564,
    "Ġperf": 4565,
    "ustr": 4566,
    "itches": 4567,
    "Ġgrocery": 4568,
    "Ġperforming": 4569,
    "Ġk": 4570,
    "Ġvanished": 4571,
    "Ġruining": 4572,
    "Ġsecond": 4573,
    "Ġlistens": 4574,
    "Ġdigg": 4575,
    "ĠSusan": 4576,
    "Ġdiscovery": 4577,
    "ĠUncle": 4578,
    "Ġweaker": 4579,
    "Ġcrown": 4580,
    "Ġeye": 4581,
    "Ġgiggle": 4582,
    "Ġtexture": 4583,
    "Ġreplaced": 4584,
    "ĠSee": 4585,
    "Ġtried": 4586,
    "vice": 4587,
    "Ġbreaths": 4588,
    "Ġphone": 4589,
    "Ġhair": 4590,
    "Ġhiss": 4591,
    "Ġphones": 4592,
    "lf": 4593,
    "ĠTake": 4594,
    "Ġapologized": 4595,
    "Ġsyrup": 4596,
    "Ġchildren": 4597,
    "fl": 4598,
    "Ġobeyed": 4599,
    "Ġint": 4600,
    "Ġgoats": 4601,
    "ĠLike": 4602,
    "Remy": 4603,
    "Ġhaird": 4604,
    "Ġdreamt": 4605,
    "Ġdone": 4606,
    "Ġantic": 4607,
    "Ġunwrapped": 4608,
    "Ġpearls": 4609,
    "Ġadds": 4610,
    "Ġprop": 4611,
    "Ġtower": 4612,
    "aspoon": 4613,
    "L": 4614,
    "Ġbill": 4615,
    "Ġowner": 4616,
    "ĠZigzag": 4617,
    "ting": 4618,
    "Ġflags": 4619,
    "Ġfoods": 4620,
    "Ġstone": 4621,
    "Ġdrove": 4622,
    "Ġsweetheart": 4623,
    "band": 4624,
    "ĠEverybody": 4625,
    "ĠSquee": 4626,
    "ĠBonnie": 4627,
    "ą": 4628,
    "Ġside": 4629,
    "Ġreg": 4630,
    "Ġmyself": 4631,
    "Ġlizards": 4632,
    "Ġbowing": 4633,
    "Ġemerged": 4634,
    "riends": 4635,
    "Ġleak": 4636,
    "Ġofficer": 4637,
    "ĠTra": 4638,
    "Ġce": 4639,
    "Ġobjects": 4640,
    "Ġstrugg": 4641,
    "ĠBess": 4642,
    "Ġshiny": 4643,
    "ĠBub": 4644,
    "Ġgroaned": 4645,
    "Ġrelief": 4646,
    "Ġfaucet": 4647,
    "Ġspring": 4648,
    "Ġwedding": 4649,
    "Ġpastels": 4650,
    "ful": 4651,
    "cast": 4652,
    "Ġsandy": 4653,
    "ĠFighting": 4654,
    "Ġautomobiles": 4655,
    "Ġacted": 4656,
    "Ġvehicle": 4657,
    "Ġgives": 4658,
    "iff": 4659,
    "aura": 4660,
    "Ġrusty": 4661,
    "ĠCrusty": 4662,
    "Ġfan": 4663,
    "ophone": 4664,
    "Ġourselves": 4665,
    "Ġscram": 4666,
    "ĠSwim": 4667,
    "itting": 4668,
    "Ĕ": 4669,
    "Ġsounded": 4670,
    "Ġloops": 4671,
    "Ġseconds": 4672,
    "Ġbattery": 4673,
    "n": 4674,
    ".âĢĿ": 4675,
    "Ġzebra": 4676,
    "Ġreceived": 4677,
    "Ġexper": 4678,
    "wh": 4679,
    "Ġlicked": 4680,
    "Ġheaven": 4681,
    "Ġballs": 4682,
    "ĠMus": 4683,
    "oppy": 4684,
    "icy": 4685,
    "arry": 4686,
    "'": 4687,
    "Ġpots": 4688,
    "ecause": 4689,
    "aking": 4690,
    "Ġfa": 4691,
    "Bella": 4692,
    "ĠChe": 4693,
    "Which": 4694,
    "Ġspill": 4695,
    "Ġroof": 4696,
    "Ġstart": 4697,
    "ĠPinky": 4698,
    "Ġcustom": 4699,
    "urniture": 4700,
    "ĠGranny": 4701,
    "ff": 4702,
    "Ġhonks": 4703,
    "Ġoats": 4704,
    "ĠFle": 4705,
    "Ġbleed": 4706,
    "Ġimaginary": 4707,
    "Ġyours": 4708,
    "ister": 4709,
    "Ġwalked": 4710,
    "specially": 4711,
    "Ġdie": 4712,
    "ĠOver": 4713,
    "Ġcleaning": 4714,
    "Ġannoyed": 4715,
    "ĠGogo": 4716,
    "iti": 4717,
    "Ġfriendships": 4718,
    "Blue": 4719,
    "osity": 4720,
    "=": 4721,
    "ĠJohnson": 4722,
    "Ġjungle": 4723,
    "Ġsurfing": 4724,
    "rious": 4725,
    "Ġtin": 4726,
    "Q": 4727,
    "and": 4728,
    "Ġsil": 4729,
    "Ġsnee": 4730,
    "Ġswinging": 4731,
    "Ġtraded": 4732,
    "Ġmotorcycles": 4733,
    "Her": 4734,
    "ĠPup": 4735,
    "Ġstudent": 4736,
    "ower": 4737,
    "Ġstuff": 4738,
    "Ġwand": 4739,
    "Ġgrowl": 4740,
    "Ġbur": 4741,
    "ythm": 4742,
    "Ġnervously": 4743,
    "ĠSpeed": 4744,
    "ettle": 4745,
    "Ġsqueezing": 4746,
    "Ġlunchtime": 4747,
    "ĠL": 4748,
    "ĠOne": 4749,
    "Ġheavier": 4750,
    "Ġyoung": 4751,
    "å": 4752,
    "ĠRich": 4753,
    "Ġhope": 4754,
    "Ġple": 4755,
    "ă": 4756,
    "Fl": 4757,
    "Ġswap": 4758,
    "fort": 4759,
    "ĠTyler": 4760,
    "Ġdisplayed": 4761,
    "Ġbelly": 4762,
    "ield": 4763,
    "ĠFox": 4764,
    "ĉ": 4765,
    "am": 4766,
    "Ġbumps": 4767,
    "Ġcrept": 4768,
    "ċ": 4769,
    "Ġlap": 4770,
    "stalk": 4771,
    "Ġtouc": 4772,
    "Surrender": 4773,
    "Ġrepl": 4774,
    "Ġpass": 4775,
    "ĠPiggy": 4776,
    "Ġpretended": 4777,
    "Ġpandas": 4778,
    "ĠWhite": 4779,
    "Ġhoped": 4780,
    "Ġgrowled": 4781,
    "Ġrely": 4782,
    "ĠMaisy": 4783,
    "Just": 4784,
    "ĠViolet": 4785,
    "Ġcolored": 4786,
    "Ġpengu": 4787,
    "Ġpaint": 4788,
    "Ġtalking": 4789,
    "ĠSlinky": 4790,
    "ib": 4791,
    "ragon": 4792,
    "Ġsnort": 4793,
    "Nick": 4794,
    "Ġwarmer": 4795,
    "Ġhosp": 4796,
    "Ouch": 4797,
    "Ġ": 4798,
    "Ġdisappear": 4799,
    "ais": 4800,
    "Ġhugged": 4801,
    "cked": 4802,
    "ĠOliver": 4803,
    "Ġch": 4804,
    "Ġtwisty": 4805,
    "Ġoutside": 4806,
    "ĠKim": 4807,
    "Ġspoil": 4808,
    "Ġumbrella": 4809,
    "ĠVelvet": 4810,
    "oh": 4811,
    "ĠWhee": 4812,
    "nger": 4813,
    "Ġexch": 4814,
    "Ġsteep": 4815,
    "Ġpee": 4816,
    "Ġpowers": 4817,
    "Ġtri": 4818,
    "Ġbone": 4819,
    "Ġpuddles": 4820,
    "arky": 4821,
    "ĠFin": 4822,
    "light": 4823,
    "Zoom": 4824,
    "Ġstomachs": 4825,
    "Ġbelongs": 4826,
    "ĠOl": 4827,
    "Ġtreasure": 4828,
    "i": 4829,
    "Ġdeal": 4830,
    "ton": 4831,
    "Ġval": 4832,
    "Ġdon": 4833,
    "Ġcrawls": 4834,
    "Ġfilling": 4835,
    "ĠSc": 4836,
    "Ġmessages": 4837,
    "Ġsnuck": 4838,
    "Ġguard": 4839,
    "ĠNear": 4840,
    "bage": 4841,
    "Ġnext": 4842,
    "Ġavoc": 4843,
    "ĠLulu": 4844,
    "Ġsnat": 4845,
    "Susie": 4846,
    "Ġchecked": 4847,
    "Ġunless": 4848,
    "Tr": 4849,
    "Ġdresser": 4850,
    "Ġsailor": 4851,
    "Ġblushed": 4852,
    "Ġtricky": 4853,
    "ĠHel": 4854,
    "Ġnightmare": 4855,
    "ĠAnna": 4856,
    "Ġfirm": 4857,
    "Ġbelong": 4858,
    "Ġsailed": 4859,
    "Ġowl": 4860,
    "ĠLoop": 4861,
    "Ġnearest": 4862,
    "Ġsharks": 4863,
    "Jul": 4864,
    "Ġloyalty": 4865,
    "igh": 4866,
    "Ġbook": 4867,
    "Ġthick": 4868,
    "Ġsilence": 4869,
    "steps": 4870,
    "Ġpolar": 4871,
    "Ġsniffs": 4872,
    "Ġlooked": 4873,
    "Ġbeads": 4874,
    "Ġalways": 4875,
    "ĠOlly": 4876,
    "Ġwood": 4877,
    "Ġbarely": 4878,
    "Moo": 4879,
    "Ġcoug": 4880,
    "Ġwhatever": 4881,
    "Ġflood": 4882,
    "Ġhelps": 4883,
    "va": 4884,
    "Ġreapp": 4885,
    "Ġstroked": 4886,
    "Ġshouldn": 4887,
    "cie": 4888,
    "Ġmedicine": 4889,
    "ĠKeep": 4890,
    "Ġsandw": 4891,
    "Ġmarshmallows": 4892,
    "ĠRufus": 4893,
    "Their": 4894,
    "Ġhands": 4895,
    "Ġtiptoed": 4896,
    "Ġexam": 4897,
    "Ġspray": 4898,
    "eah": 4899,
    "Ġtoast": 4900,
    "Ġaeropl": 4901,
    "Ġtwig": 4902,
    "Ġloop": 4903,
    "Ġthanks": 4904,
    "ull": 4905,
    "Ġben": 4906,
    "Ġfoggy": 4907,
    "Ġdoorstep": 4908,
    "Ġvi": 4909,
    "ocked": 4910,
    "Ġforks": 4911,
    "Ġknocks": 4912,
    "Ġshines": 4913,
    "Ġgarbage": 4914,
    "ffe": 4915,
    "ilk": 4916,
    "ivity": 4917,
    "sing": 4918,
    "Ġsplash": 4919,
    "Ġclaws": 4920,
    "est": 4921,
    "ĠBunny": 4922,
    "Ġwipes": 4923,
    "ear": 4924,
    "inger": 4925,
    "ĠAmy": 4926,
    "um": 4927,
    "Ġadvice": 4928,
    "Ġtearing": 4929,
    "Ġbarked": 4930,
    "Ġdelicate": 4931,
    "rough": 4932,
    "ĠMary": 4933,
    "Tree": 4934,
    "Ġflapping": 4935,
    "True": 4936,
    "cream": 4937,
    "Ġpleased": 4938,
    "x": 4939,
    "pot": 4940,
    "Ġspace": 4941,
    "Ġjing": 4942,
    "ò": 4943,
    "Ġdoctor": 4944,
    "Ġreindeer": 4945,
    "Ġelbow": 4946,
    "Ġsweep": 4947,
    "Ġcheck": 4948,
    "Ġsneak": 4949,
    "Ġpract": 4950,
    "Ġanswering": 4951,
    "Ġhunt": 4952,
    "ugging": 4953,
    "Ġcomfort": 4954,
    "Ġsqueezed": 4955,
    "irp": 4956,
    "Ġjumper": 4957,
    "Ġwinding": 4958,
    "à": 4959,
    "Ġsmart": 4960,
    "Ġcoach": 4961,
    "Ġquite": 4962,
    "Ġcre": 4963,
    "Ġspell": 4964,
    "Ġgroups": 4965,
    "Ġshark": 4966,
    "Ġbrand": 4967,
    "Ġworn": 4968,
    "Ġsearch": 4969,
    "Whiskers": 4970,
    "Ġprincess": 4971,
    "Ġcrocodiles": 4972,
    "Ġfollowing": 4973,
    "Ġsighed": 4974,
    "iny": 4975,
    "Ġaware": 4976,
    "Ġwant": 4977,
    "eve": 4978,
    "ffic": 4979,
    "Ġwagging": 4980,
    "Outside": 4981,
    "Ġbit": 4982,
    "Ġmunched": 4983,
    "this": 4984,
    "armer": 4985,
    "Ġseek": 4986,
    "uct": 4987,
    "Ġorganize": 4988,
    "Ġwildflowers": 4989,
    "Ġjacket": 4990,
    "Ġsquash": 4991,
    "Ġignorant": 4992,
    "Ġemergency": 4993,
    "ĠWiggly": 4994,
    "ĠMandy": 4995,
    "ĠMouse": 4996,
    "ĠKip": 4997,
    "Ġagrees": 4998,
    "ĠMum": 4999,
    "ĠFairy": 5000,
    "Ġfirefight": 5001,
    "Ġodd": 5002,
    "Ġworries": 5003,
    "Ġrobin": 5004,
    "ĠPlease": 5005,
    "Ġtroph": 5006,
    "Ġnails": 5007,
    "Ġprayer": 5008,
    "Ġpastel": 5009,
    "Ġcuddled": 5010,
    "Ġcubs": 5011,
    "ì": 5012,
    "Ġstuck": 5013,
    "Ġhole": 5014,
    "Ġjob": 5015,
    "Ġwrinkled": 5016,
    "Ġnotice": 5017,
    "Ġhero": 5018,
    "Ġhelpless": 5019,
    "ris": 5020,
    "Ġquick": 5021,
    "Ġyacht": 5022,
    "Ġpowerful": 5023,
    "Ġcolder": 5024,
    "ĠMin": 5025,
    "Ġsternly": 5026,
    "Ġfirmly": 5027,
    "arrass": 5028,
    "ila": 5029,
    "byes": 5030,
    "Ġwarm": 5031,
    "Ġmouse": 5032,
    "Ġslip": 5033,
    "Ġyielded": 5034,
    "Ġrepeat": 5035,
    "Ġtelephone": 5036,
    "Ġmark": 5037,
    "ain": 5038,
    "Ġann": 5039,
    "Ġyear": 5040,
    "Ġtrip": 5041,
    "Ġcouple": 5042,
    "ĠJerry": 5043,
    "Ġrepair": 5044,
    "Ġspooky": 5045,
    "Ġliz": 5046,
    "ĠHurry": 5047,
    "Ġgrow": 5048,
    "Đ": 5049,
    "Charlie": 5050,
    "Spike": 5051,
    "Ġdam": 5052,
    "Ġzebras": 5053,
    "Ġgi": 5054,
    "iskers": 5055,
    "Ġpainful": 5056,
    "Ġpopular": 5057,
    "ĠAlthough": 5058,
    "ĠRaven": 5059,
    "Ġwash": 5060,
    "ountain": 5061,
    "Ġthrows": 5062,
    "Ġlawyer": 5063,
    "Ġwhist": 5064,
    "Ġupside": 5065,
    "Ġtore": 5066,
    "Ġash": 5067,
    "irl": 5068,
    "ella": 5069,
    "Ġwheels": 5070,
    "Ġsnowmen": 5071,
    "Ġreluctantly": 5072,
    "Ġdiscuss": 5073,
    "Ġrebu": 5074,
    "ĠHop": 5075,
    "¯": 5076,
    "Ġencou": 5077,
    "Ġcared": 5078,
    "screen": 5079,
    "Ġpriv": 5080,
    "Ġnoise": 5081,
    "Ġdonkey": 5082,
    "Ġvehicles": 5083,
    "Ġunexpected": 5084,
    "Ġlicks": 5085,
    "Ġhorn": 5086,
    "Ġkissed": 5087,
    "oot": 5088,
    "ĠComet": 5089,
    "Ġhook": 5090,
    "Ġbeautifully": 5091,
    "Ġwise": 5092,
    "Ġhon": 5093,
    "Ġbreat": 5094,
    "ĠTina": 5095,
    "Ġbends": 5096,
    "Ġpopped": 5097,
    "ound": 5098,
    "Ġsteel": 5099,
    "ĠNick": 5100,
    "Ġcreat": 5101,
    "ĠDodo": 5102,
    "Ġsame": 5103,
    "Ġguessed": 5104,
    "Ġmermaid": 5105,
    "Ġfur": 5106,
    "Ġastron": 5107,
    "Ġchoice": 5108,
    "Ġscratched": 5109,
    "Ġrolls": 5110,
    "Ġspeeding": 5111,
    "Ġm": 5112,
    "ĠSadly": 5113,
    "Ġmag": 5114,
    "Ġwaved": 5115,
    "Ġcompetitive": 5116,
    "Ġavocados": 5117,
    "Ġcalled": 5118,
    "Ġcoal": 5119,
    "alloween": 5120,
    "ze": 5121,
    "Snow": 5122,
    "Ġsticky": 5123,
    "Danger": 5124,
    "Ġpen": 5125,
    "Ġgun": 5126,
    "Ġburied": 5127,
    "Ġdelivering": 5128,
    "Ġexc": 5129,
    "Ġhated": 5130,
    "Ġself": 5131,
    "Ġeffort": 5132,
    "Ġwife": 5133,
    "Ġpuzzled": 5134,
    "Ġspear": 5135,
    "Ġsince": 5136,
    "Ġfavor": 5137,
    "Ġscales": 5138,
    "Ġsh": 5139,
    "ĠPrincess": 5140,
    "Ġreads": 5141,
    "Ġfunny": 5142,
    "Ġbirdhouse": 5143,
    "l": 5144,
    "Ġtoday": 5145,
    "Ġboot": 5146,
    "Ġinvisible": 5147,
    "ĠLe": 5148,
    "mare": 5149,
    "Ġsky": 5150,
    "Ġaff": 5151,
    "ĠMar": 5152,
    "Ġeventually": 5153,
    "Ġrealize": 5154,
    "Ġjogged": 5155,
    "Ġship": 5156,
    "ecture": 5157,
    "Bang": 5158,
    "Ġasking": 5159,
    "Ġsure": 5160,
    "Ġfil": 5161,
    "Ġracer": 5162,
    "Ġposter": 5163,
    "the": 5164,
    "rill": 5165,
    "Ġahead": 5166,
    "ah": 5167,
    "ĠLily": 5168,
    "Ġwrap": 5169,
    "Ġcrowns": 5170,
    "ember": 5171,
    "Ġyield": 5172,
    "ĠLila": 5173,
    "By": 5174,
    "ĠCome": 5175,
    "Ġcottage": 5176,
    "ĠRace": 5177,
    "Ġchickens": 5178,
    "Ġjam": 5179,
    "ĠTammy": 5180,
    "Ġpose": 5181,
    "Ġyogurt": 5182,
    "Ġener": 5183,
    "Ġsurround": 5184,
    "cuss": 5185,
    "Ġwelcoming": 5186,
    "Ġplugged": 5187,
    "omp": 5188,
    "Ġwonder": 5189,
    "Ella": 5190,
    "Me": 5191,
    "Ġcush": 5192,
    "ual": 5193,
    "Ġbags": 5194,
    "Ġstupid": 5195,
    "Ġcannot": 5196,
    "Ġdent": 5197,
    "int": 5198,
    "Ġstories": 5199,
    "out": 5200,
    "M": 5201,
    "Jo": 5202,
    "rot": 5203,
    "Ġdecorated": 5204,
    "ĠHappy": 5205,
    "Ġthin": 5206,
    "Ġchanges": 5207,
    "hee": 5208,
    "Ġcounts": 5209,
    "Ġrele": 5210,
    "ĠTV": 5211,
    "ies": 5212,
    "pril": 5213,
    "Magic": 5214,
    "Ġbutterfly": 5215,
    "ĠMixy": 5216,
    "airy": 5217,
    "arlings": 5218,
    "Ġhad": 5219,
    "ĠBrian": 5220,
    "Ġrainbows": 5221,
    "ilt": 5222,
    "Ġowners": 5223,
    "Ġbasket": 5224,
    "Ġde": 5225,
    "ĠTess": 5226,
    "ĠHalloween": 5227,
    "Ġcentre": 5228,
    "Ġfrightened": 5229,
    "ges": 5230,
    "Aunt": 5231,
    "ater": 5232,
    "Ġartwork": 5233,
    "Ġdiffere": 5234,
    "Ġworked": 5235,
    "Coco": 5236,
    "There": 5237,
    "Ġwhoosh": 5238,
    "Ġbull": 5239,
    "Ġnew": 5240,
    "Ġwall": 5241,
    "sa": 5242,
    "Ġuntied": 5243,
    "Ġcroak": 5244,
    "Ġcelebration": 5245,
    "Ġlaught": 5246,
    "Ġjolly": 5247,
    "en": 5248,
    "ĠCat": 5249,
    "washer": 5250,
    "Hmm": 5251,
    "iggie": 5252,
    "Ġking": 5253,
    "Ġgathered": 5254,
    "H": 5255,
    "ĠMath": 5256,
    "Ġtwist": 5257,
    "Ġtub": 5258,
    "Ġpret": 5259,
    "Ġpresent": 5260,
    "Ġcomet": 5261,
    "Ġbouquet": 5262,
    "ally": 5263,
    "ĠJumpy": 5264,
    "elle": 5265,
    "ĠX": 5266,
    "Ġplates": 5267,
    "ĠRainbow": 5268,
    "Ġwish": 5269,
    "Ġrainco": 5270,
    "Ġpermission": 5271,
    "Ġmor": 5272,
    "Ġhappiness": 5273,
    "Ġwrapping": 5274,
    "Ġlazy": 5275,
    "Ġcries": 5276,
    "Ġchasing": 5277,
    "Ġpupil": 5278,
    "Ġgolden": 5279,
    "Ġshooting": 5280,
    "ĠNana": 5281,
    "Ġprog": 5282,
    "Ġcheaper": 5283,
    "anish": 5284,
    "Ġsquish": 5285,
    "Ġfox": 5286,
    "ĠAre": 5287,
    "cake": 5288,
    "one": 5289,
    "ĠSe": 5290,
    "hood": 5291,
    "Ġinvestig": 5292,
    "Ġbuilt": 5293,
    "ience": 5294,
    "Ġurge": 5295,
    "ĠThanks": 5296,
    "oscope": 5297,
    "Ġgate": 5298,
    "Ġiron": 5299,
    "Ġbubb": 5300,
    "Ġgener": 5301,
    "Ġbump": 5302,
    "ture": 5303,
    "ĠLiam": 5304,
    "ody": 5305,
    "Ġnumbers": 5306,
    "obody": 5307,
    "bling": 5308,
    "Ġbehavior": 5309,
    "Ġchance": 5310,
    "arp": 5311,
    "Ġcooks": 5312,
    "Ġchilly": 5313,
    "mm": 5314,
    "Ġclearly": 5315,
    "Ġwound": 5316,
    "ĠPipp": 5317,
    "Ġpretends": 5318,
    "Ġalert": 5319,
    "Ġhorizon": 5320,
    "Ġpup": 5321,
    "Ġraindr": 5322,
    "ĠHenny": 5323,
    "Ġpotatoes": 5324,
    "hi": 5325,
    "Ġbadly": 5326,
    "ular": 5327,
    "Ġfoxes": 5328,
    "Ö": 5329,
    "bbers": 5330,
    "ving": 5331,
    "Ġoffer": 5332,
    "Ġimaginations": 5333,
    "Ġcops": 5334,
    "Ġnear": 5335,
    "Ġstall": 5336,
    "Many": 5337,
    "Ġflutter": 5338,
    "Ġtem": 5339,
    "appy": 5340,
    "ree": 5341,
    "ĠEveryday": 5342,
    "Ġjoyful": 5343,
    "Ġscowl": 5344,
    "Pippin": 5345,
    "Ġcoats": 5346,
    "Ġwid": 5347,
    "ale": 5348,
    "lets": 5349,
    "Ġpump": 5350,
    "Ġpassenger": 5351,
    "hip": 5352,
    "Ć": 5353,
    "stop": 5354,
    "Ġbean": 5355,
    "ĠShelly": 5356,
    "Ġevent": 5357,
    "sters": 5358,
    "Ġbuy": 5359,
    "Ġkick": 5360,
    "ĠLucy": 5361,
    "ips": 5362,
    "ths": 5363,
    "Ġoil": 5364,
    "Ġdeserve": 5365,
    "ilda": 5366,
    "Ġaway": 5367,
    "Ġoriginal": 5368,
    "ĠCh": 5369,
    "ĠHave": 5370,
    "¿": 5371,
    "Ġsimp": 5372,
    "Ġpol": 5373,
    "Ġtrains": 5374,
    "Slow": 5375,
    "Ġtouches": 5376,
    "Ġwaited": 5377,
    "roscope": 5378,
    "Ġfigures": 5379,
    "Ġpackages": 5380,
    "Ġplay": 5381,
    "Ġkeeping": 5382,
    "²": 5383,
    "ć": 5384,
    "Ġapp": 5385,
    "ream": 5386,
    "Ġig": 5387,
    "Abigail": 5388,
    "Ġstopping": 5389,
    "ending": 5390,
    "Ġrepa": 5391,
    "ĠPeep": 5392,
    "Ġpictures": 5393,
    "Ġcheetah": 5394,
    "Ġherbs": 5395,
    "Ġpainted": 5396,
    "Ġfis": 5397,
    "Grandma": 5398,
    "ac": 5399,
    "ĠBoun": 5400,
    "ĠMousy": 5401,
    "Ġsnail": 5402,
    "Pip": 5403,
    "Ġsmartest": 5404,
    "Ġwhimp": 5405,
    "cept": 5406,
    "Ġopens": 5407,
    "Ġund": 5408,
    "Brrr": 5409,
    "Ġexamp": 5410,
    "Ġmuddy": 5411,
    "ĠNot": 5412,
    "Ġicing": 5413,
    "Ġsqueaky": 5414,
    "Ġglimmering": 5415,
    "Ġque": 5416,
    "ĠTrust": 5417,
    "Ġlabel": 5418,
    "Ġor": 5419,
    "Ġpuppets": 5420,
    "ª": 5421,
    "Ġrobots": 5422,
    "ĠSofty": 5423,
    "Ġeat": 5424,
    "Ġholiday": 5425,
    "bell": 5426,
    "Ġline": 5427,
    "phant": 5428,
    "İ": 5429,
    "ead": 5430,
    "ĠEnjoy": 5431,
    "Ġwins": 5432,
    "Ġcough": 5433,
    "Ġboots": 5434,
    "Ġbellies": 5435,
    "les": 5436,
    "Ġcushion": 5437,
    "Ġcreatures": 5438,
    "Ġpun": 5439,
    "Ġfeathers": 5440,
    "Ġlower": 5441,
    "Ġdried": 5442,
    "Ġfrozen": 5443,
    "Ġclouds": 5444,
    "Ġquacked": 5445,
    "Ġdriveway": 5446,
    "ĠHeli": 5447,
    "asket": 5448,
    "Ġpu": 5449,
    "ĠUn": 5450,
    "Ġargue": 5451,
    "ĠPatch": 5452,
    "Ġsits": 5453,
    "Ġloose": 5454,
    "Ġspent": 5455,
    "Ġstain": 5456,
    "Ġintrod": 5457,
    "Ġspeaks": 5458,
    "U": 5459,
    "Ġchooses": 5460,
    "Ġworkers": 5461,
    "Ġdarling": 5462,
    "Ġavoid": 5463,
    "qu": 5464,
    "Ġplayd": 5465,
    "hic": 5466,
    "Ġbott": 5467,
    "ĠWater": 5468,
    "...": 5469,
    "uck": 5470,
    "ĠRex": 5471,
    "Ġwinning": 5472,
    "Ġfoolish": 5473,
    "arac": 5474,
    "ssible": 5475,
    "Car": 5476,
    "Ġnapkin": 5477,
    "Ġputs": 5478,
    "ĠStar": 5479,
    "Ġmarbles": 5480,
    "igning": 5481,
    "Ġraked": 5482,
    "Ġcurled": 5483,
    "lt": 5484,
    "ĠGigi": 5485,
    "ĠWinky": 5486,
    "Ġlessons": 5487,
    "ĠLion": 5488,
    "Ġdown": 5489,
    "ĠTree": 5490,
    "Ġvillagers": 5491,
    "Ġbeaut": 5492,
    "S": 5493,
    "ĠDolly": 5494,
    "ab": 5495,
    "owed": 5496,
    "Ġleast": 5497,
    "ĵ": 5498,
    "Ġcutting": 5499,
    "Ġcott": 5500,
    "Ġpocket": 5501,
    "Ġattempt": 5502,
    "Ġrecognize": 5503,
    "use": 5504,
    "That": 5505,
    "Ġgetting": 5506,
    "Ġbre": 5507,
    "low": 5508,
    "ealing": 5509,
    "Ġmassages": 5510,
    "Ġshoe": 5511,
    "Ġlight": 5512,
    "Ġcheeks": 5513,
    "quake": 5514,
    "Ġfit": 5515,
    "Ġoranges": 5516,
    "Ġchoose": 5517,
    "Ġcliff": 5518,
    "Ġwar": 5519,
    "Ġbits": 5520,
    "Ġage": 5521,
    "ousy": 5522,
    "Ġwashing": 5523,
    "Ġkneeled": 5524,
    "ĠLook": 5525,
    "Ġcartoons": 5526,
    "ircle": 5527,
    "Ġtwenty": 5528,
    "uno": 5529,
    "oss": 5530,
    "Ġgym": 5531,
    "Ġadmire": 5532,
    "Ġappear": 5533,
    "Ġwig": 5534,
    "ĠWorking": 5535,
    "Ġlay": 5536,
    "Ġboo": 5537,
    "Ġoy": 5538,
    "Curious": 5539,
    "Ġpartic": 5540,
    "ĠBones": 5541,
    "Ġusing": 5542,
    "Ġminute": 5543,
    "Ġforward": 5544,
    "Ġbeamed": 5545,
    "X": 5546,
    "Ġchuck": 5547,
    "night": 5548,
    "ĠPat": 5549,
    "ĠHold": 5550,
    "ragile": 5551,
    "?\".": 5552,
    "Ġjogging": 5553,
    "Ġtextures": 5554,
    "Ġtantrum": 5555,
    "Ġcelebrate": 5556,
    "Ġaccidents": 5557,
    "ĠDeal": 5558,
    "bl": 5559,
    "why": 5560,
    "ddy": 5561,
    "ĠJohnny": 5562,
    "Ġdrying": 5563,
    "ople": 5564,
    "Abracadabra": 5565,
    "Ġhealing": 5566,
    "Ġstepped": 5567,
    "ĠGill": 5568,
    "Ġupstairs": 5569,
    "mother": 5570,
    "Ġtear": 5571,
    "Ġrocks": 5572,
    "ack": 5573,
    "Ġwasn": 5574,
    "onest": 5575,
    "ame": 5576,
    "Ġcrazy": 5577,
    "Put": 5578,
    "Ġfear": 5579,
    "Ġhippo": 5580,
    "Ġtrumpet": 5581,
    "Ġbending": 5582,
    "Ġinvent": 5583,
    "era": 5584,
    "edy": 5585,
    "Ġwrapped": 5586,
    "Ġgive": 5587,
    "Ġjuice": 5588,
    "ouraged": 5589,
    "endant": 5590,
    "Ġpale": 5591,
    "Ġevery": 5592,
    "Ġmunch": 5593,
    "Ġble": 5594,
    "Ġhesitant": 5595,
    "Ġtrips": 5596,
    "Ġsizes": 5597,
    "Ġnotes": 5598,
    "Ġscreen": 5599,
    "Ġgreat": 5600,
    "Ġbeauty": 5601,
    "Ġnosy": 5602,
    "Ġchores": 5603,
    "Ġsay": 5604,
    "Ġwire": 5605,
    "Ġsandpit": 5606,
    "acob": 5607,
    "Ġban": 5608,
    "ining": 5609,
    "ĠSlowly": 5610,
    "Ó": 5611,
    "Ġtoolbox": 5612,
    "emember": 5613,
    "Ġaimed": 5614,
    "ĠSeeing": 5615,
    "Ġvalley": 5616,
    "ĠLaura": 5617,
    "asmine": 5618,
    "Ġswept": 5619,
    "Ġsquirted": 5620,
    "Ġsides": 5621,
    "Ġhunting": 5622,
    "ogn": 5623,
    "ĠFirst": 5624,
    "Ġcooked": 5625,
    "ĠBounce": 5626,
    "lter": 5627,
    "ĠGet": 5628,
    "Ġstayed": 5629,
    "ĠClean": 5630,
    "However": 5631,
    "Ġhits": 5632,
    "Ġrewarded": 5633,
    "pted": 5634,
    "Ġlate": 5635,
    "Ġarrow": 5636,
    "Ġcreams": 5637,
    "Ġow": 5638,
    "Ġdeserved": 5639,
    "Ġchases": 5640,
    "Ġwatered": 5641,
    "oby": 5642,
    "azz": 5643,
    "Ġhurried": 5644,
    "Ġdripping": 5645,
    "Ġzookeepers": 5646,
    "Ġon": 5647,
    "ĠFrom": 5648,
    "»": 5649,
    "itely": 5650,
    "rick": 5651,
    "Ġroaring": 5652,
    "rily": 5653,
    "Ġgrate": 5654,
    "Ġmentioned": 5655,
    "ctric": 5656,
    "racadabra": 5657,
    "ssss": 5658,
    "Ġmeow": 5659,
    "Ġshattered": 5660,
    "ĠPeter": 5661,
    "Ġworking": 5662,
    "Ġprovided": 5663,
    "Ġtide": 5664,
    "Ġmeaning": 5665,
    "ay": 5666,
    "Ġwide": 5667,
    "Ġcrawling": 5668,
    "Really": 5669,
    "Ġbasement": 5670,
    "Ġwine": 5671,
    "anging": 5672,
    "Ġrepe": 5673,
    "ize": 5674,
    "uing": 5675,
    "Ġregular": 5676,
    "row": 5677,
    "Ġhoop": 5678,
    "ĠDare": 5679,
    "Ġtid": 5680,
    "rent": 5681,
    "ground": 5682,
    "Ġwoke": 5683,
    "ĠGrandpa": 5684,
    "Ġcaught": 5685,
    "Take": 5686,
    "Vroom": 5687,
    "Ġhelp": 5688,
    "Ġactually": 5689,
    "Ġoverwhelmed": 5690,
    "Ġtroubled": 5691,
    "Ġaccepted": 5692,
    "Ġsurroundings": 5693,
    "Ġteleph": 5694,
    "Ġquizzes": 5695,
    "Ġjumped": 5696,
    "Ġslithered": 5697,
    "ared": 5698,
    "Ġguesses": 5699,
    "Ġbones": 5700,
    "Ġsnuggle": 5701,
    "Ġmomma": 5702,
    "Ġexplorer": 5703,
    "Ġbravely": 5704,
    "Ġl": 5705,
    "ĠMr": 5706,
    "ĠAs": 5707,
    "Ġcowboy": 5708,
    "Ġeating": 5709,
    "Ġafter": 5710,
    "Ġthink": 5711,
    "Ġbaked": 5712,
    "Ġaunt": 5713,
    "Ă": 5714,
    "flowers": 5715,
    "Ġuntil": 5716,
    "Ġundone": 5717,
    "ĠEls": 5718,
    "Ġarri": 5719,
    "ided": 5720,
    "Ġscooters": 5721,
    "Ġbare": 5722,
    "%": 5723,
    "ĠDizzy": 5724,
    "prints": 5725,
    "rat": 5726,
    "Ġpassport": 5727,
    "Ġpossess": 5728,
    "eter": 5729,
    "lem": 5730,
    "Ġtiny": 5731,
    "oggy": 5732,
    "Ġfrom": 5733,
    "Ġroots": 5734,
    "Ġargu": 5735,
    "Ġnicer": 5736,
    "Ġpaths": 5737,
    "Ġsails": 5738,
    "athy": 5739,
    "Ġcuc": 5740,
    "Ġhapp": 5741,
    "Ġpoking": 5742,
    "Ġagre": 5743,
    "ena": 5744,
    "Ġlovely": 5745,
    "Ġsnakes": 5746,
    "Ġsand": 5747,
    "Ġrush": 5748,
    "Ġy": 5749,
    "Ġradish": 5750,
    "Ġearn": 5751,
    "Ġstands": 5752,
    "Ġapproached": 5753,
    "Roar": 5754,
    "Maria": 5755,
    "Ġable": 5756,
    "Ġac": 5757,
    "Ġeverything": 5758,
    "Ġmoonlight": 5759,
    "Ġemb": 5760,
    "Ġstretches": 5761,
    "Ġqu": 5762,
    "dile": 5763,
    "Ġmischievous": 5764,
    "Ġbrought": 5765,
    "te": 5766,
    "ä": 5767,
    "let": 5768,
    "ĠMan": 5769,
    "ings": 5770,
    "Ġgooey": 5771,
    "ind": 5772,
    "Ġbow": 5773,
    "Ġwas": 5774,
    "Ġcricket": 5775,
    "Ġchatted": 5776,
    "ĠOxy": 5777,
    "reci": 5778,
    "Ġdiscussed": 5779,
    "Ġbugs": 5780,
    "Ġemp": 5781,
    "Ġdive": 5782,
    "On": 5783,
    "Ġlucky": 5784,
    "ĠWally": 5785,
    "Ġtodd": 5786,
    "Ġinvites": 5787,
    "ĠBlack": 5788,
    "ĠWoo": 5789,
    "ors": 5790,
    "Ġdisappointed": 5791,
    "Ġkindness": 5792,
    "Ġunpack": 5793,
    "Olive": 5794,
    "Ġblows": 5795,
    "aff": 5796,
    "Ġaeroplane": 5797,
    "Ġprun": 5798,
    "Watch": 5799,
    "Ġflap": 5800,
    "Ġserving": 5801,
    "ĠDuke": 5802,
    "Ġmarket": 5803,
    "ility": 5804,
    "Ġcherry": 5805,
    "cket": 5806,
    "io": 5807,
    "Ġmiles": 5808,
    "Ġinc": 5809,
    "Mia": 5810,
    "Ġstacking": 5811,
    "Ġicy": 5812,
    "Ġrubbing": 5813,
    "cus": 5814,
    "Ġoccasion": 5815,
    "ink": 5816,
    "Ġglass": 5817,
    "Ġtells": 5818,
    "Ġdoorway": 5819,
    "ĠGo": 5820,
    "Ġpear": 5821,
    "Ġpalace": 5822,
    "Ġblouse": 5823,
    "Ġsang": 5824,
    "Ġcons": 5825,
    "Ġgent": 5826,
    "Ġgrassho": 5827,
    "ĠCircle": 5828,
    "Ġtires": 5829,
    "ĠSimon": 5830,
    "sp": 5831,
    "Ġglow": 5832,
    "Ġare": 5833,
    "imed": 5834,
    "Woof": 5835,
    "Ġloving": 5836,
    "Ġjewelry": 5837,
    "ĠMolly": 5838,
    "Ġloud": 5839,
    "ats": 5840,
    "Ġsingle": 5841,
    "uch": 5842,
    "llipop": 5843,
    "Ġpoin": 5844,
    "Ġpra": 5845,
    "ctory": 5846,
    "Ġonions": 5847,
    "Ġcube": 5848,
    "Ġrace": 5849,
    "Ġscoot": 5850,
    "Ġgro": 5851,
    "Ġtreasures": 5852,
    "Ġluxury": 5853,
    "ilo": 5854,
    "Ġofficers": 5855,
    ",'": 5856,
    "rom": 5857,
    "Ġpractice": 5858,
    "Ê": 5859,
    "Ġhurts": 5860,
    "Ġencouraged": 5861,
    "ĠWould": 5862,
    "Ġfore": 5863,
    "Ġbreaking": 5864,
    "kay": 5865,
    "Ġpers": 5866,
    "Ġbl": 5867,
    "Ġcosy": 5868,
    "ingo": 5869,
    "Ġpeeks": 5870,
    "isa": 5871,
    "ĠMole": 5872,
    "bbled": 5873,
    "pping": 5874,
    "Shoo": 5875,
    "umpet": 5876,
    "Ġpattern": 5877,
    "lls": 5878,
    "At": 5879,
    "thank": 5880,
    "ag": 5881,
    "dy": 5882,
    "Ġfinding": 5883,
    "Ġbrother": 5884,
    "Ġjar": 5885,
    "Run": 5886,
    "Ġwandering": 5887,
    "Ġnow": 5888,
    "Ġfeet": 5889,
    "Ġremind": 5890,
    "match": 5891,
    "Ġberry": 5892,
    "Ġtraps": 5893,
    "Ġgray": 5894,
    "Ġdes": 5895,
    "ĠJack": 5896,
    "Y": 5897,
    "Ġtowards": 5898,
    "keep": 5899,
    "ĠEvery": 5900,
    "Ġsolution": 5901,
    "ted": 5902,
    "Ġbuzz": 5903,
    "Ġh": 5904,
    "Ġvibrant": 5905,
    "Ġgenerous": 5906,
    "Ġopposite": 5907,
    "Ġthoughts": 5908,
    "icopter": 5909,
    "ĠDavey": 5910,
    "ards": 5911,
    "Ġmoves": 5912,
    "usan": 5913,
    "adow": 5914,
    "Ġstreet": 5915,
    "Ġmuffin": 5916,
    "ĠSue": 5917,
    "Ġfires": 5918,
    "snap": 5919,
    "Ġquestioned": 5920,
    "Ġswung": 5921,
    "fore": 5922,
    "Ġsupporting": 5923,
    "Ġfact": 5924,
    "Ġcreating": 5925,
    "Ġeverybody": 5926,
    "ipes": 5927,
    "Ġno": 5928,
    "ocer": 5929,
    "ĠJilly": 5930,
    "Ġshell": 5931,
    "Ġshould": 5932,
    "Ġnod": 5933,
    "Ġsurvive": 5934,
    "ĠMa": 5935,
    "Ġmajest": 5936,
    "Ġzipper": 5937,
    "Ġvegg": 5938,
    "Ġsnorted": 5939,
    "Ġvery": 5940,
    "ĠSlow": 5941,
    "ories": 5942,
    "Ġjobs": 5943,
    "ĠSnake": 5944,
    "issors": 5945,
    "Ġrail": 5946,
    "Ġattacked": 5947,
    "Ġgotten": 5948,
    "Ġstruggle": 5949,
    "Ġsank": 5950,
    "Ġshovel": 5951,
    "Ġbumpy": 5952,
    "Ġfrustration": 5953,
    "ĠApril": 5954,
    "Ġmirac": 5955,
    "Ġdishwasher": 5956,
    "Ġwrites": 5957,
    "Ġthere": 5958,
    "Ġgold": 5959,
    "Wow": 5960,
    "Ġprotect": 5961,
    "Ġcompassion": 5962,
    "Ġfile": 5963,
    "?\"": 5964,
    "umbling": 5965,
    "Ġmath": 5966,
    "Ġdisappearing": 5967,
    "Ġhello": 5968,
    "Ġliquid": 5969,
    "Ġsincere": 5970,
    "Ġcrouched": 5971,
    "Ġclassroom": 5972,
    "Ġmitten": 5973,
    "Ġremove": 5974,
    "str": 5975,
    "Ġprot": 5976,
    "ison": 5977,
    "Ġerasers": 5978,
    "Ġspilled": 5979,
    "d": 5980,
    "Ġshook": 5981,
    "Ġchocol": 5982,
    "Ġrod": 5983,
    "Ġlift": 5984,
    "Ġsailors": 5985,
    "Ġbang": 5986,
    "Ġdog": 5987,
    "Ġrinse": 5988,
    "Ġbaa": 5989,
    "Ġapron": 5990,
    "Ġsucceed": 5991,
    "rosty": 5992,
    "Ġw": 5993,
    "Ġfetch": 5994,
    "ĠFrankie": 5995,
    "Ġsack": 5996,
    "Ġdull": 5997,
    "where": 5998,
    "Ġtrembling": 5999,
    "Ġceiling": 6000,
    "Ġtop": 6001,
    "an": 6002,
    "udy": 6003,
    "ably": 6004,
    "ust": 6005,
    "Ġspices": 6006,
    "Ġdeeper": 6007,
    "Ġsurv": 6008,
    "Ġbrace": 6009,
    "Ġreplied": 6010,
    "eterinarian": 6011,
    "Ġfights": 6012,
    "Steve": 6013,
    "Use": 6014,
    "Ġcontinued": 6015,
    "Ġcheap": 6016,
    "Ġmatey": 6017,
    "Ĩ": 6018,
    "ĠLouise": 6019,
    "Ġmatching": 6020,
    "Ġhum": 6021,
    "Ġmarvel": 6022,
    "ifer": 6023,
    "Ġboom": 6024,
    "cher": 6025,
    "Ġprayed": 6026,
    "Ġri": 6027,
    "ongrat": 6028,
    "Ġlangu": 6029,
    "Ġcl": 6030,
    "ĠLi": 6031,
    "allow": 6032,
    "Ġold": 6033,
    "ween": 6034,
    "Ġsniff": 6035,
    "Ġwindows": 6036,
    "omet": 6037,
    "Ġpleaded": 6038,
    "Ġexperience": 6039,
    "Ġhut": 6040,
    "ived": 6041,
    "Ġext": 6042,
    "Ġdestroyed": 6043,
    "ĠSo": 6044,
    "Ġif": 6045,
    "Ġo": 6046,
    "Today": 6047,
    "Ġearned": 6048,
    ")": 6049,
    "Ġma": 6050,
    "aring": 6051,
    "ntil": 6052,
    "Tina": 6053,
    "ĠAbigail": 6054,
    "Ġpicture": 6055,
    "Ġpool": 6056,
    "Ġpuppet": 6057,
    "Ġfrowns": 6058,
    "D": 6059,
    "Ġcurious": 6060,
    "ĠLung": 6061,
    "Ġsu": 6062,
    "Ġroses": 6063,
    "ĠRo": 6064,
    "ĠStep": 6065,
    "ĠHoney": 6066,
    "Ġbeeped": 6067,
    "Ġsupposed": 6068,
    "Ġinclude": 6069,
    "worm": 6070,
    "ĠTwist": 6071,
    "br": 6072,
    "Ġbuckle": 6073,
    "Ġoften": 6074,
    "Will": 6075,
    "Ġmasks": 6076,
    "aded": 6077,
    "Ġcounter": 6078,
    "Ġsoaking": 6079,
    "mates": 6080,
    "Ġwriting": 6081,
    "lla": 6082,
    "onna": 6083,
    "Ġheard": 6084,
    "Ġnoon": 6085,
    "Ġdry": 6086,
    "Ġsett": 6087,
    "eling": 6088,
    "Ġvendor": 6089,
    "Ġfree": 6090,
    "Ġvisitor": 6091,
    "Ġscooter": 6092,
    "Ġblankets": 6093,
    "Ġsol": 6094,
    "Ġsoup": 6095,
    "res": 6096,
    "Ġrobbers": 6097,
    "araway": 6098,
    "Ġalone": 6099,
    "Ġplace": 6100,
    "ĠJoe": 6101,
    "Ġsingers": 6102,
    "Ġletter": 6103,
    "le": 6104,
    "ĠMint": 6105,
    "Ġpre": 6106,
    "Ġtwink": 6107,
    "ĠRain": 6108,
    "Ġread": 6109,
    "Ġcousin": 6110,
    "Ġwisdom": 6111,
    "Ġfab": 6112,
    "Ġdolls": 6113,
    "ĠWe": 6114,
    "Ġuncomfortable": 6115,
    "Ġcooperate": 6116,
    "Ġbec": 6117,
    "ium": 6118,
    "ĠBra": 6119,
    "Ġgranted": 6120,
    "Keep": 6121,
    "ades": 6122,
    "Ġblanket": 6123,
    "Ġblack": 6124,
    "Ġaisle": 6125,
    "ĠDanny": 6126,
    "Ġvisited": 6127,
    "Even": 6128,
    "Ġper": 6129,
    "Ġplain": 6130,
    "Ġsnaps": 6131,
    "bu": 6132,
    "Ġperformance": 6133,
    "ĠMaddie": 6134,
    "Ġdances": 6135,
    "Ġdresses": 6136,
    "Ġcuddly": 6137,
    "please": 6138,
    "Ë": 6139,
    "Mira": 6140,
    "Make": 6141,
    "Ġit": 6142,
    "eed": 6143,
    "Ġgrabbed": 6144,
    "Ġmeeting": 6145,
    "Ġknow": 6146,
    "ded": 6147,
    "Ġblin": 6148,
    "amb": 6149,
    "Ġlicking": 6150,
    "Ġowns": 6151,
    "ivia": 6152,
    "Ġrub": 6153,
    "Ġemergen": 6154,
    "Ġcloudy": 6155,
    "Ġgrandmother": 6156,
    "Ġhelpers": 6157,
    "Ġabove": 6158,
    "Ġshinier": 6159,
    "Ġbudge": 6160,
    "Ġkisses": 6161,
    "isdom": 6162,
    "Ġbeaver": 6163,
    "ĠHelping": 6164,
    "Ġcrackers": 6165,
    "ores": 6166,
    "father": 6167,
    "Share": 6168,
    "you": 6169,
    "Ġhairdress": 6170,
    "Ġdaddy": 6171,
    "Ġavailable": 6172,
    "Ġhiding": 6173,
    "ĠPoor": 6174,
    "Ġenvious": 6175,
    "Ġfamiliar": 6176,
    "Ġfootball": 6177,
    "angu": 6178,
    "When": 6179,
    "itty": 6180,
    "Ġdisaster": 6181,
    "Ġhearts": 6182,
    "Ġguess": 6183,
    "Something": 6184,
    "Ġcracker": 6185,
    "ĠBobbie": 6186,
    "Ġgoodbyes": 6187,
    "Ġpicking": 6188,
    "isses": 6189,
    "Ġfollowed": 6190,
    "ancy": 6191,
    "Ġgobbled": 6192,
    "Ġguys": 6193,
    "Ġshares": 6194,
    "Ġswirls": 6195,
    "Ġpermitted": 6196,
    "Ġcamera": 6197,
    "Lizzy": 6198,
    "ile": 6199,
    "Does": 6200,
    "Ġpark": 6201,
    "/": 6202,
    "Ġbigger": 6203,
    "Beth": 6204,
    "Ġtuna": 6205,
    "Ġchirped": 6206,
    "Ġtough": 6207,
    "Ġbites": 6208,
    "Ġseesaw": 6209,
    "K": 6210,
    "ĠZoey": 6211,
    "Ġconfident": 6212,
    "ĠOwl": 6213,
    "Ġtops": 6214,
    "irac": 6215,
    "oral": 6216,
    "Ġbuddy": 6217,
    "Ę": 6218,
    "ud": 6219,
    "Kids": 6220,
    "Ġcreated": 6221,
    "ĠMix": 6222,
    "Ġcollected": 6223,
    "Ġguests": 6224,
    "alph": 6225,
    "Ġaction": 6226,
    "ches": 6227,
    "Ġpinch": 6228,
    "Ġbeing": 6229,
    "Ġoffice": 6230,
    "immering": 6231,
    "Ġmach": 6232,
    "Ġpizzas": 6233,
    "bers": 6234,
    "Ġdollar": 6235,
    "Mine": 6236,
    "re": 6237,
    "Ġz": 6238,
    "Ġvo": 6239,
    "Millie": 6240,
    "Ġget": 6241,
    "bang": 6242,
    "Ġspice": 6243,
    "Ġfence": 6244,
    "Ġsports": 6245,
    "Once": 6246,
    "ĠFroggy": 6247,
    "Ġtast": 6248,
    "itten": 6249,
    "Ġpacked": 6250,
    "Ġmon": 6251,
    "Ġshorter": 6252,
    "Sally": 6253,
    "Ġpri": 6254,
    "ĠChewy": 6255,
    "Ġsweetie": 6256,
    "Ġgathering": 6257,
    "Ġneat": 6258,
    "Ĉ": 6259,
    "Ġvictory": 6260,
    "othy": 6261,
    "Ġdraw": 6262,
    "Ġitchy": 6263,
    "Ġtopp": 6264,
    "dies": 6265,
    "ter": 6266,
    "ier": 6267,
    "Ġdiscouraged": 6268,
    "lers": 6269,
    "Ġinstantly": 6270,
    "rnie": 6271,
    "Ġphotos": 6272,
    "cycles": 6273,
    "Ġprettiest": 6274,
    "Ġcongratulated": 6275,
    "Ġcautious": 6276,
    "Should": 6277,
    "Ġstand": 6278,
    "Ġele": 6279,
    "Meanwhile": 6280,
    "Ġmooed": 6281,
    "Ġyucky": 6282,
    "ctop": 6283,
    "Ġhers": 6284,
    "Ġmarks": 6285,
    "Ġvalu": 6286,
    "Ġmad": 6287,
    "Ġmom": 6288,
    "Ġseals": 6289,
    "vous": 6290,
    "ĠStill": 6291,
    "Ġwow": 6292,
    "Ġever": 6293,
    "Joe": 6294,
    "cker": 6295,
    "Ġlively": 6296,
    "Ġchip": 6297,
    "Ġeach": 6298,
    "ĠAunt": 6299,
    "chor": 6300,
    "Ġstomp": 6301,
    "Ġdays": 6302,
    "amil": 6303,
    "Ġpoint": 6304,
    "Polly": 6305,
    "Ġmem": 6306,
    "Ġwaste": 6307,
    "Ġshower": 6308,
    "ĠElle": 6309,
    "riend": 6310,
    "Ġfeelings": 6311,
    "ĠFly": 6312,
    "Ġnothing": 6313,
    "Ġtricks": 6314,
    "Ġmicroscope": 6315,
    "ĠSince": 6316,
    "Ġbeach": 6317,
    "Ġsuddenly": 6318,
    "Ġlose": 6319,
    "Ġsped": 6320,
    "ĠRub": 6321,
    "ug": 6322,
    "Ġmicrowave": 6323,
    "ĠMabel": 6324,
    "ital": 6325,
    "ination": 6326,
    "own": 6327,
    "ecting": 6328,
    "Ġexerc": 6329,
    "Ġsadly": 6330,
    "Ġkings": 6331,
    "Jerry": 6332,
    "ĠKitty": 6333,
    "ĠSuddenly": 6334,
    "chan": 6335,
    "Ġslips": 6336,
    "Ġexcited": 6337,
    "ons": 6338,
    "iving": 6339,
    "Ġrin": 6340,
    "Ġmisses": 6341,
    "ub": 6342,
    "Ġdragonfly": 6343,
    "Ġparrot": 6344,
    "Ġbackward": 6345,
    "Ġdefeated": 6346,
    "erts": 6347,
    "Ġeyes": 6348,
    "Ġpunished": 6349,
    "Ġchicken": 6350,
    "eremy": 6351,
    "ither": 6352,
    "Ġbaskets": 6353,
    "Ġsaving": 6354,
    "ĠLizzy": 6355,
    "Ġhappening": 6356,
    "Ġsteady": 6357,
    "Ġcareless": 6358,
    "Ġrelaxing": 6359,
    "Papa": 6360,
    "Ġthan": 6361,
    "Ġpeel": 6362,
    "Ġsunf": 6363,
    "Ġdelayed": 6364,
    "Ġsays": 6365,
    "Ġlikes": 6366,
    "Ġfluffy": 6367,
    "Ġst": 6368,
    "ĠHorsie": 6369,
    "^": 6370,
    "Ġrespond": 6371,
    "kelly": 6372,
    "So": 6373,
    "Ġradishes": 6374,
    "ĠMelissa": 6375,
    "Ġsp": 6376,
    "crow": 6377,
    "Ġjumps": 6378,
    "Ġbutterf": 6379,
    "Ġscattering": 6380,
    "kn": 6381,
    "wk": 6382,
    "ide": 6383,
    "Ġseason": 6384,
    "Ġwater": 6385,
    "z": 6386,
    "Ġolive": 6387,
    "Ġais": 6388,
    "icious": 6389,
    "Ġlies": 6390,
    "Ġelderly": 6391,
    "Ġtwirl": 6392,
    "Ġwhined": 6393,
    "Ġdream": 6394,
    "Ġtortoise": 6395,
    "Ġtasty": 6396,
    "Ġev": 6397,
    "very": 6398,
    "Ġreached": 6399,
    "artled": 6400,
    "Ġpostman": 6401,
    "Ġshoots": 6402,
    "Ġtaxi": 6403,
    "Ġdrawn": 6404,
    "ged": 6405,
    "Ġbelieving": 6406,
    "Ġdogs": 6407,
    "Ġfruit": 6408,
    "Ġhawk": 6409,
    "Found": 6410,
    "Ġknocked": 6411,
    "ĠSay": 6412,
    "Ġstove": 6413,
    "Ġattaching": 6414,
    "Ġstom": 6415,
    "artin": 6416,
    "Ġcloses": 6417,
    "ĠCats": 6418,
    "Ġdentist": 6419,
    "Ġplot": 6420,
    "Ġlots": 6421,
    "ĠTerry": 6422,
    "Ġmodern": 6423,
    "Ġcrowd": 6424,
    "Ġstrawberries": 6425,
    "ĠGracie": 6426,
    "Ġprobably": 6427,
    "Ġcomple": 6428,
    "Ġcone": 6429,
    "Ġmarked": 6430,
    "ĠRavi": 6431,
    "nder": 6432,
    "ado": 6433,
    "Ā": 6434,
    "ĠBoom": 6435,
    "fly": 6436,
    "í": 6437,
    "Ġwished": 6438,
    "ĠElly": 6439,
    "Ġfollow": 6440,
    "Ġlogs": 6441,
    "ĠMag": 6442,
    "Ġroutine": 6443,
    "Ġclimbed": 6444,
    "Ġdoesn": 6445,
    "Ġadmiring": 6446,
    "tock": 6447,
    "Ġdial": 6448,
    "Ġbehave": 6449,
    "ĠBaby": 6450,
    "Ġsigh": 6451,
    "Ġflavor": 6452,
    "Ġth": 6453,
    "Ġsent": 6454,
    "Ġcookies": 6455,
    "Ġkitty": 6456,
    "Ġfixer": 6457,
    "die": 6458,
    "ises": 6459,
    "Ġsiren": 6460,
    "Ġhe": 6461,
    "Ġfavour": 6462,
    "Ġsafety": 6463,
    "ĠPoppy": 6464,
    "Ġmittens": 6465,
    "igail": 6466,
    "right": 6467,
    "Ġrides": 6468,
    "Ġpres": 6469,
    "Ġtoilet": 6470,
    "ĠMilo": 6471,
    "Ġpeeped": 6472,
    "Ġcreation": 6473,
    "Ġpolice": 6474,
    "Ġnurse": 6475,
    "ĠFido": 6476,
    "Ġcard": 6477,
    "Ġnewfound": 6478,
    "ue": 6479,
    "Ġgoggles": 6480,
    "Ġcomplete": 6481,
    "Ġteaching": 6482,
    "ĠNancy": 6483,
    "Ġpe": 6484,
    "uddles": 6485,
    "Ġproperly": 6486,
    "ĠCl": 6487,
    "mble": 6488,
    "Ġsipped": 6489,
    "other": 6490,
    "Ġmoon": 6491,
    "Ġsled": 6492,
    "Karen": 6493,
    "Ġbusiness": 6494,
    "Ġdollhouse": 6495,
    "Ġefforts": 6496,
    "Ġbroccoli": 6497,
    "Ġsounds": 6498,
    "urp": 6499,
    "Ġdifficult": 6500,
    "Ġgrab": 6501,
    "kele": 6502,
    "Ġcomfy": 6503,
    "Ġburger": 6504,
    "ĠMaria": 6505,
    "Ġdrop": 6506,
    "Playing": 6507,
    "Ġenemies": 6508,
    "Ġtor": 6509,
    "Ġbookshelf": 6510,
    "ĠMike": 6511,
    "Ġteach": 6512,
    "art": 6513,
    "yler": 6514,
    "Ġsuff": 6515,
    "Ġlectures": 6516,
    "Ġlog": 6517,
    "Ġastronaut": 6518,
    "Ġtable": 6519,
    "Ġlisten": 6520,
    "idey": 6521,
    "Ġwake": 6522,
    "ĠSp": 6523,
    "Ġacross": 6524,
    "ĠDina": 6525,
    "Ġpit": 6526,
    "Ġsteering": 6527,
    "Ġpudd": 6528,
    "Ġwo": 6529,
    "Ġcactus": 6530,
    "Ġlimes": 6531,
    "Ġsweetly": 6532,
    "ĠCoco": 6533,
    "Ġrecorded": 6534,
    "rophone": 6535,
    "Ġcomes": 6536,
    "Ġspells": 6537,
    "Ġramp": 6538,
    "vet": 6539,
    "gers": 6540,
    "ĭ": 6541,
    "ĠPuff": 6542,
    "arian": 6543,
    "Ġcrunch": 6544,
    "Ġtask": 6545,
    "Ġham": 6546,
    "ĠJessie": 6547,
    "ears": 6548,
    "Ġdarker": 6549,
    "ĠBlinky": 6550,
    "Ġmighty": 6551,
    "Sam": 6552,
    "Ġcopper": 6553,
    "Ġoutdo": 6554,
    "Lena": 6555,
    "Ġro": 6556,
    "vator": 6557,
    "Ġcrystal": 6558,
    "Ġexpl": 6559,
    "ĠClara": 6560,
    "Ġchin": 6561,
    "ĠBuzzy": 6562,
    "Ġsalon": 6563,
    "Ġcap": 6564,
    "Ġchosen": 6565,
    "iens": 6566,
    "Ġenjoy": 6567,
    "Ġplanes": 6568,
    "Ġfancy": 6569,
    "Ġrevealed": 6570,
    "Ġwiggly": 6571,
    "Ġdesks": 6572,
    "Ġenjoyed": 6573,
    "ĠOrange": 6574,
    "Ġvet": 6575,
    "prin": 6576,
    "ĠAnd": 6577,
    "Ġgoes": 6578,
    "ĠâĢĵ": 6579,
    "Ġunsure": 6580,
    "Ġappreciation": 6581,
    "Ġsorry": 6582,
    "Ġscrewdriver": 6583,
    "ight": 6584,
    "Ġhugs": 6585,
    "Ġhairy": 6586,
    "Look": 6587,
    "Ġpillows": 6588,
    "iding": 6589,
    "Ġbor": 6590,
    "Ġforgiven": 6591,
    "Ġbalancing": 6592,
    "Ġdou": 6593,
    "Ġgreedy": 6594,
    "Ġbro": 6595,
    "Poppy": 6596,
    "oring": 6597,
    "Ġtow": 6598,
    "ee": 6599,
    "Ġsymbol": 6600,
    "ĠAuntie": 6601,
    "hero": 6602,
    "Ġnearly": 6603,
    "Ġcaterpillar": 6604,
    "ipop": 6605,
    "Ġten": 6606,
    "irrel": 6607,
    "Ġknowled": 6608,
    "Ġwithin": 6609,
    "oun": 6610,
    "Ġed": 6611,
    "Ġmoat": 6612,
    "Squ": 6613,
    "Ġfreezing": 6614,
    "Ġstat": 6615,
    "urt": 6616,
    "Ġonce": 6617,
    "Ġaxe": 6618,
    ":": 6619,
    "mb": 6620,
    "ator": 6621,
    "Ġprotected": 6622,
    "while": 6623,
    "Ġshoulders": 6624,
    "jamas": 6625,
    "Mo": 6626,
    "Ġrepaired": 6627,
    "Ġwardrobe": 6628,
    "igi": 6629,
    "boards": 6630,
    "Ġcraw": 6631,
    "Ġdisappointment": 6632,
    "Ġswan": 6633,
    "ÿ": 6634,
    "Ġechoed": 6635,
    "ĠAnimals": 6636,
    "ĠRobby": 6637,
    "ĠCharlotte": 6638,
    "Ġshoulder": 6639,
    "Ġperformed": 6640,
    "ĠOr": 6641,
    "Ġjoined": 6642,
    "Ł": 6643,
    "Ġgained": 6644,
    "Ġwh": 6645,
    "Birdy": 6646,
    "Ġcoloring": 6647,
    "Ġexplained": 6648,
    "Ġpull": 6649,
    "ich": 6650,
    "Ġpow": 6651,
    "Ġmos": 6652,
    "Ġfollows": 6653,
    "Ġrun": 6654,
    "Ġwaits": 6655,
    "Ġbuckets": 6656,
    "Ġflashes": 6657,
    "Ġcaut": 6658,
    "Ġstrips": 6659,
    "Ġnetwork": 6660,
    "fit": 6661,
    "ani": 6662,
    "Ġsaved": 6663,
    "Ġenc": 6664,
    "Ġraising": 6665,
    "Ġcomputers": 6666,
    "Ġsquished": 6667,
    "Ġchews": 6668,
    "Ġtwelve": 6669,
    "Ġsolved": 6670,
    "ĠRollie": 6671,
    "de": 6672,
    "ĠOh": 6673,
    "Ġplanned": 6674,
    "Ġn": 6675,
    "ory": 6676,
    "chair": 6677,
    "ĠThis": 6678,
    "izing": 6679,
    "Ġspending": 6680,
    "uest": 6681,
    "Ġspot": 6682,
    "ĠFuzzy": 6683,
    "Ġleft": 6684,
    "Ġgust": 6685,
    "Ġsudden": 6686,
    "ray": 6687,
    "ĠCurious": 6688,
    "Ġcountries": 6689,
    "ther": 6690,
    "cks": 6691,
    "Ġlater": 6692,
    "Ġnicely": 6693,
    "ĠWink": 6694,
    "ĠStay": 6695,
    "c": 6696,
    "Ġsplashed": 6697,
    "Ġey": 6698,
    "Ġpeacefully": 6699,
    "Ġbr": 6700,
    "ucky": 6701,
    "Benny": 6702,
    "Ġbothering": 6703,
    "ĠPippa": 6704,
    "ĠSm": 6705,
    "ĠEl": 6706,
    "Ġribbon": 6707,
    "Ġnervous": 6708,
    "Ġher": 6709,
    "Ġsi": 6710,
    "Ġdrawers": 6711,
    "sie": 6712,
    "nament": 6713,
    "Ġsmelly": 6714,
    "Â": 6715,
    "Ġbicycles": 6716,
    "ĠBumpy": 6717,
    "John": 6718,
    "Ġmoved": 6719,
    "ĠTara": 6720,
    "Ġmembers": 6721,
    "Ġchatting": 6722,
    "ĠBang": 6723,
    "Ġis": 6724,
    "ita": 6725,
    "Ġraining": 6726,
    "Ġscolded": 6727,
    "Ġlear": 6728,
    "iam": 6729,
    "Ġsever": 6730,
    "Ġfavorite": 6731,
    "Ġskill": 6732,
    "Ġbarks": 6733,
    "Ġpatients": 6734,
    "Ġhorns": 6735,
    "ĠMommy": 6736,
    "Ġlamp": 6737,
    "Ġpoop": 6738,
    "Ġhatched": 6739,
    "Ġtriangles": 6740,
    "Ġcrib": 6741,
    "Ġproperty": 6742,
    "ays": 6743,
    "ĠEx": 6744,
    "Ġdig": 6745,
    "ophie": 6746,
    "ĠEd": 6747,
    "iers": 6748,
    "Ġwho": 6749,
    "Ġshone": 6750,
    "Ġback": 6751,
    "ĠGrace": 6752,
    "ĠMina": 6753,
    "Ġstreets": 6754,
    "iform": 6755,
    "ashing": 6756,
    "ossible": 6757,
    "net": 6758,
    "Ġuseful": 6759,
    "ĠMicroscope": 6760,
    "Ġpreparing": 6761,
    "Ġlump": 6762,
    "Ġdet": 6763,
    "Ġboards": 6764,
    "Ġlip": 6765,
    "Ġrunning": 6766,
    "Ġgroup": 6767,
    "Ġinfant": 6768,
    "Ġtre": 6769,
    "Ġstole": 6770,
    "...\"": 6771,
    "ĠSaturday": 6772,
    "ĠSpicy": 6773,
    "ushes": 6774,
    "Ġstubborn": 6775,
    "Ġgardens": 6776,
    "ĠHar": 6777,
    "Ġop": 6778,
    "Ġwaking": 6779,
    "Ġmuch": 6780,
    "Ġnumber": 6781,
    "isk": 6782,
    "ĠKatie": 6783,
    "Ġgrat": 6784,
    "Ġfascinating": 6785,
    "elieve": 6786,
    "ĠJaney": 6787,
    "ime": 6788,
    "¥": 6789,
    "Ġhim": 6790,
    "Ġhelper": 6791,
    "Ġand": 6792,
    "Ġmall": 6793,
    "Ġbracelets": 6794,
    "Ġmysterious": 6795,
    "Ġproblem": 6796,
    "Ġmask": 6797,
    "Ġcom": 6798,
    "Ġprincesses": 6799,
    "how": 6800,
    "Ġchalk": 6801,
    "ĠT": 6802,
    "As": 6803,
    "Ġthat": 6804,
    "ork": 6805,
    "Ġleapt": 6806,
    "iolet": 6807,
    "Rosie": 6808,
    "oin": 6809,
    "Ġlava": 6810,
    "Ġgiraffes": 6811,
    "Ġstre": 6812,
    "Ġacorns": 6813,
    "Ġtrucks": 6814,
    "ts": 6815,
    "Ġfight": 6816,
    "Ġmix": 6817,
    "reen": 6818,
    "Ġingredients": 6819,
    "Ġsweetest": 6820,
    "aw": 6821,
    "Ġscream": 6822,
    "Lizzie": 6823,
    "icking": 6824,
    "Ġpaintbrush": 6825,
    "Ġheel": 6826,
    "uper": 6827,
    "Ġremembering": 6828,
    "Ġtipped": 6829,
    "I": 6830,
    "way": 6831,
    "Ġcuriously": 6832,
    "elcome": 6833,
    "Ġignor": 6834,
    "Ġparty": 6835,
    "Ġglue": 6836,
    "Hurry": 6837,
    "Ġquietly": 6838,
    "Jon": 6839,
    "Ġtrading": 6840,
    "rance": 6841,
    "Ġreminded": 6842,
    "ĠYawn": 6843,
    "Ġbeast": 6844,
    "Ġstrike": 6845,
    "hed": 6846,
    "Ġenormous": 6847,
    "Ġsort": 6848,
    "Ġsuggested": 6849,
    "ĠSof": 6850,
    "ĠNext": 6851,
    "zy": 6852,
    "ive": 6853,
    "Ġinsp": 6854,
    "gether": 6855,
    "adium": 6856,
    "Ġwrigg": 6857,
    "lling": 6858,
    "Ġbedroom": 6859,
    "ĠPop": 6860,
    "amiliar": 6861,
    "ĠTiny": 6862,
    "Ġopinion": 6863,
    "Ġwaffles": 6864,
    "âĢĻ": 6865,
    "Ġcand": 6866,
    "Ġblocked": 6867,
    "Pandy": 6868,
    "Ġfashion": 6869,
    "Ġstroll": 6870,
    "Ġfe": 6871,
    "Ġspirit": 6872,
    "Ġpigs": 6873,
    "Somet": 6874,
    "ĠFriend": 6875,
    "ma": 6876,
    "Ġmention": 6877,
    "Ĵ": 6878,
    "Ġbeaks": 6879,
    "Ġconquered": 6880,
    "Ġclowns": 6881,
    "R": 6882,
    "Ġpuzzle": 6883,
    "Ġfade": 6884,
    "Ġrhin": 6885,
    "Ġsir": 6886,
    "Ġdolphins": 6887,
    "ĠBehind": 6888,
    "Ġumbrellas": 6889,
    "Ġwrink": 6890,
    "urity": 6891,
    "Ġtrembled": 6892,
    "Ġbal": 6893,
    "Ġghost": 6894,
    "Ġbalan": 6895,
    "Ġthorn": 6896,
    "arden": 6897,
    "guess": 6898,
    "Ġsometime": 6899,
    "Ġtalented": 6900,
    "ļ": 6901,
    "app": 6902,
    "Ġcreek": 6903,
    "Ġsore": 6904,
    "Ġproudly": 6905,
    "?âĢĿ.": 6906,
    "ĠThat": 6907,
    "ĠCars": 6908,
    "t": 6909,
    "Ben": 6910,
    "apa": 6911,
    "Ġanswer": 6912,
    "Ġworker": 6913,
    "Ġdrink": 6914,
    "Ġentire": 6915,
    "Ġtoys": 6916,
    "amp": 6917,
    "Ġgirl": 6918,
    "Ġtired": 6919,
    "iday": 6920,
    "Ġbother": 6921,
    "Ġlandscape": 6922,
    "beep": 6923,
    "All": 6924,
    "Gigi": 6925,
    "er": 6926,
    "Ġlearns": 6927,
    "Ġswans": 6928,
    "Ġmagician": 6929,
    "Claire": 6930,
    "Ġsuck": 6931,
    "Ġord": 6932,
    "ý": 6933,
    "Ġweapon": 6934,
    "Ġthicker": 6935,
    "fe": 6936,
    "Ġwipe": 6937,
    "Ġfits": 6938,
    "rest": 6939,
    "Ġcenter": 6940,
    "Ġbeloved": 6941,
    "Ġexcite": 6942,
    "Ġsw": 6943,
    "ently": 6944,
    "Ġcaterpill": 6945,
    "Ġloyal": 6946,
    "Ġyelled": 6947,
    "Ġappreciate": 6948,
    "Ġcust": 6949,
    "ctopus": 6950,
    "ĠJudy": 6951,
    "ĠOxygen": 6952,
    "Ġholds": 6953,
    "river": 6954,
    "ĠPot": 6955,
    "ĠDoctor": 6956,
    "Ġhoses": 6957,
    "Ġcir": 6958,
    "Ġsewing": 6959,
    "Ġfavourite": 6960,
    "Ġinvited": 6961,
    "Grow": 6962,
    "esses": 6963,
    "dom": 6964,
    "iron": 6965,
    "Ġfest": 6966,
    "Ġbuses": 6967,
    "Ġluck": 6968,
    "Ġforgotten": 6969,
    "Ġturning": 6970,
    "Ġinclu": 6971,
    "Squeaky": 6972,
    "Ġinsisting": 6973,
    "Ġtickles": 6974,
    "Ġbutterflies": 6975,
    "Ġmanners": 6976,
    "Being": 6977,
    "Ġright": 6978,
    ".\"": 6979,
    "ĠBluey": 6980,
    "OO": 6981,
    "Ġplaced": 6982,
    "render": 6983,
    "Ġdoctors": 6984,
    "Ġstarts": 6985,
    "erry": 6986,
    "ĠDara": 6987,
    "Ġspots": 6988,
    "Ġchopped": 6989,
    "pes": 6990,
    "Ġleaned": 6991,
    "ĠOff": 6992,
    "Ġwa": 6993,
    "ĠGreen": 6994,
    "ĠFred": 6995,
    "Ġtongues": 6996,
    "Ġtwirling": 6997,
    "Tuna": 6998,
    "Ġyells": 6999,
    "Ġhopeful": 7000,
    "No": 7001,
    "ump": 7002,
    "erries": 7003,
    "eer": 7004,
    "ĠGilly": 7005,
    "Ġbells": 7006,
    "Ġsuns": 7007,
    "Ġface": 7008,
    "ren": 7009,
    "Ġfountain": 7010,
    "my": 7011,
    "aggie": 7012,
    "Ġconvinced": 7013,
    "\"": 7014,
    "ĠGrandma": 7015,
    "Ġseeking": 7016,
    "Ġsparkly": 7017,
    "Ġlaug": 7018,
    "Mark": 7019,
    "Bug": 7020,
    "iggly": 7021,
    "omb": 7022,
    "Ġbunny": 7023,
    "Ġbruises": 7024,
    "on": 7025,
    "Ġexactly": 7026,
    "Ġmeets": 7027,
    "Ġdisgust": 7028,
    "Ġfurry": 7029,
    "Ġstrength": 7030,
    "Ġinvestigate": 7031,
    "Ġdanced": 7032,
    "Ġbridge": 7033,
    "ĠChloe": 7034,
    "rigerator": 7035,
    "Ġheight": 7036,
    "Ġrise": 7037,
    "ĠKit": 7038,
    "sit": 7039,
    "Ġscratches": 7040,
    "Ġsmashed": 7041,
    "Ġshivering": 7042,
    "Rob": 7043,
    "Ġmaybe": 7044,
    "Ġrelieved": 7045,
    "Ġtails": 7046,
    "Ġsurpr": 7047,
    "Ġdepend": 7048,
    "ĠMel": 7049,
    "¡": 7050,
    "ara": 7051,
    "Ġthing": 7052,
    "Billy": 7053,
    "bit": 7054,
    "obile": 7055,
    "Ġamaz": 7056,
    "yes": 7057,
    "Ġkingdom": 7058,
    "Ġcolors": 7059,
    "ĠAlice": 7060,
    "ĠDot": 7061,
    "Ġfilled": 7062,
    "Ġcour": 7063,
    "Ġflight": 7064,
    "ĠTriangle": 7065,
    "Ġranch": 7066,
    "Ġwept": 7067,
    "Ġtoaster": 7068,
    "rian": 7069,
    "Ġbehind": 7070,
    "osed": 7071,
    "Ġsuffered": 7072,
    "ig": 7073,
    "ĠOther": 7074,
    "Ġstartled": 7075,
    "Ġmanag": 7076,
    "ĠChris": 7077,
    "izza": 7078,
    "Ġbrus": 7079,
    "Ġmiracle": 7080,
    "To": 7081,
    "Ġsuitcase": 7082,
    "ation": 7083,
    "aby": 7084,
    "eat": 7085,
    "Ġnurses": 7086,
    "uesday": 7087,
    "Ġfrowning": 7088,
    "Ġdemanded": 7089,
    "ĠIt": 7090,
    "Ġmustache": 7091,
    "Ġpage": 7092,
    "ĠWhoever": 7093,
    "Ġknelt": 7094,
    "Ġroar": 7095,
    "Ġr": 7096,
    "Ġlist": 7097,
    "õ": 7098,
    "ĠWait": 7099,
    "etty": 7100,
    "Ġhugging": 7101,
    "Ġeag": 7102,
    "ĠSunday": 7103,
    "Ġdecorate": 7104,
    "look": 7105,
    "lies": 7106,
    "son": 7107,
    "andra": 7108,
    "Ġfisherman": 7109,
    "oni": 7110,
    "Ġmixer": 7111,
    "Ġplate": 7112,
    "¦": 7113,
    "Ġmy": 7114,
    "Ġar": 7115,
    "Ġtissue": 7116,
    "Ġtoward": 7117,
    "ĠJess": 7118,
    "Ġbreathed": 7119,
    "Ġdigs": 7120,
    "Ġtempting": 7121,
    "ĠBow": 7122,
    "Ġpatience": 7123,
    "Ġintelligence": 7124,
    "Ġsale": 7125,
    "Ġclick": 7126,
    "Ġpebb": 7127,
    "ather": 7128,
    "Dog": 7129,
    "oming": 7130,
    "Re": 7131,
    "Ġgif": 7132,
    "Ġsaus": 7133,
    "Ġdrain": 7134,
    "apped": 7135,
    "ĠCo": 7136,
    "Ġhop": 7137,
    "Ġsneezes": 7138,
    "Are": 7139,
    "Ġkeyhole": 7140,
    "Ġconsequ": 7141,
    "ĠTimmy": 7142,
    "orry": 7143,
    "Ġreturning": 7144,
    "Ġfishes": 7145,
    "ĠToo": 7146,
    "Ġneither": 7147,
    "#": 7148,
    "Ġstor": 7149,
    "Ġobey": 7150,
    "Everything": 7151,
    "Ġwithout": 7152,
    "Ġnam": 7153,
    "Ġmouths": 7154,
    "Ġsummer": 7155,
    "ert": 7156,
    "vest": 7157,
    "Ġwiggle": 7158,
    "elia": 7159,
    "Ġlong": 7160,
    "ph": 7161,
    "sses": 7162,
    "ĠBear": 7163,
    "Ġelephant": 7164,
    "Ġtree": 7165,
    "Ġothers": 7166,
    "Ġorganized": 7167,
    "Ġslipped": 7168,
    "Ġmus": 7169,
    "Ġbread": 7170,
    "Ġglob": 7171,
    "ĠSun": 7172,
    "Ġminding": 7173,
    "Ġwrist": 7174,
    "Ġexact": 7175,
    "Ġclot": 7176,
    "Ġmean": 7177,
    "Ġpedals": 7178,
    "Ġstaring": 7179,
    "ĠSmo": 7180,
    "Ġconnect": 7181,
    "ĠJoey": 7182,
    "Ġstitches": 7183,
    "ĠLeo": 7184,
    "Ġpretty": 7185,
    "Ġdoggy": 7186,
    "Ġtunnel": 7187,
    "Ġt": 7188,
    "Ġarranged": 7189,
    "Ġtomato": 7190,
    "Ġboats": 7191,
    "Ġignoring": 7192,
    "ĠRudy": 7193,
    "Ġflames": 7194,
    "Ġaffect": 7195,
    "Ġclerk": 7196,
    "Ġstation": 7197,
    "Ġtumbled": 7198,
    "Ġboat": 7199,
    "Kate": 7200,
    "ġ": 7201,
    "Chicky": 7202,
    "rin": 7203,
    "ĠAc": 7204,
    "Ġlever": 7205,
    "Ġdestroy": 7206,
    "Ġribbons": 7207,
    "Ġstarfish": 7208,
    "Ġunlocked": 7209,
    "Ġrings": 7210,
    "Ġcrumb": 7211,
    "v": 7212,
    "'d": 7213,
    "ĠMegan": 7214,
    "ı": 7215,
    "outh": 7216,
    "Ġtears": 7217,
    "Ġrefreshed": 7218,
    "Ġrestored": 7219,
    "Ġsuccessful": 7220,
    "´": 7221,
    "ĠOur": 7222,
    "most": 7223,
    "Ġrh": 7224,
    "Ġbarber": 7225,
    "?'": 7226,
    "Ġcontent": 7227,
    "Ġdar": 7228,
    "Ġspend": 7229,
    "Ġexplorers": 7230,
    "Ġbakery": 7231,
    "repeat": 7232,
    "Buzz": 7233,
    "Ġhappen": 7234,
    "ĠJon": 7235,
    "ĠPrin": 7236,
    "Ġmic": 7237,
    "Ġesc": 7238,
    "ĠSnow": 7239,
    "cient": 7240,
    "Ġtripped": 7241,
    "Ġpackage": 7242,
    "oo": 7243,
    "ĠYou": 7244,
    "sty": 7245,
    "Ġbush": 7246,
    "Ġpraised": 7247,
    "Ġcloth": 7248,
    "Josh": 7249,
    "Ġheal": 7250,
    "Ġcomf": 7251,
    "âĢĿ": 7252,
    "Ġjourneys": 7253,
    "aa": 7254,
    "Ġrules": 7255,
    "ĠFel": 7256,
    "Ġjoy": 7257,
    "ugg": 7258,
    "ĠSpin": 7259,
    "Ġslower": 7260,
    "Ġmouth": 7261,
    "Ġwobbled": 7262,
    "Ġskipping": 7263,
    "ĠBarky": 7264,
    "ĠBirdy": 7265,
    "Ġslap": 7266,
    "ents": 7267,
    "ĠHopper": 7268,
    "Ġlibr": 7269,
    "Ġmarriage": 7270,
    "Ġlost": 7271,
    "Ġcharacters": 7272,
    "Ġpatch": 7273,
    "ĠBefore": 7274,
    "Ġgiant": 7275,
    "Ġsparks": 7276,
    "During": 7277,
    "Ġmailed": 7278,
    "St": 7279,
    "Ġscare": 7280,
    "Ġgracefully": 7281,
    "Ġwhip": 7282,
    "Ġplan": 7283,
    "Ġhonest": 7284,
    "mend": 7285,
    "Ġpant": 7286,
    "Ġgrand": 7287,
    "Ġwest": 7288,
    "ĠFiona": 7289,
    "Ġsold": 7290,
    "ipping": 7291,
    "Ġoutfits": 7292,
    "Ġsitu": 7293,
    "Ġarrived": 7294,
    "Ġmov": 7295,
    "house": 7296,
    "Ġscarves": 7297,
    "Ġmed": 7298,
    "Ġbottle": 7299,
    "Ġband": 7300,
    "Ġbrilliant": 7301,
    "ĠTh": 7302,
    "Ġquarreled": 7303,
    "ĠChip": 7304,
    "itch": 7305,
    "Ġzips": 7306,
    "man": 7307,
    "Ġcrossed": 7308,
    "ĠInside": 7309,
    "Ġsill": 7310,
    "ĠLaw": 7311,
    "ĠBet": 7312,
    "ring": 7313,
    "Ġlawn": 7314,
    "Ġtummies": 7315,
    "Ġtimes": 7316,
    "loo": 7317,
    "se": 7318,
    "Then": 7319,
    "Ġturns": 7320,
    "Ġoperation": 7321,
    "Ġscore": 7322,
    "Ġspat": 7323,
    "Ġteamwork": 7324,
    "Ġover": 7325,
    "Ġsoft": 7326,
    "Ġchair": 7327,
    "Mabel": 7328,
    "pite": 7329,
    "aty": 7330,
    "ĠTeddy": 7331,
    "Ġbarrel": 7332,
    "Ġforce": 7333,
    "Ġworrying": 7334,
    "Henry": 7335,
    "ĠWho": 7336,
    "Ġdeliver": 7337,
    "Ġsunshine": 7338,
    "Ġtrusting": 7339,
    "Ġsinging": 7340,
    "Ġlistener": 7341,
    "Ġshortcut": 7342,
    "Rachel": 7343,
    "Ġopera": 7344,
    "ĠH": 7345,
    "ĠNavy": 7346,
    "1": 7347,
    "Ĺ": 7348,
    "Ġlying": 7349,
    "Ġembra": 7350,
    "Ġshrimp": 7351,
    "Ġcheerful": 7352,
    "it": 7353,
    "Ġcon": 7354,
    "Ġtuck": 7355,
    "!": 7356,
    "cho": 7357,
    "Ġchild": 7358,
    "Ġkite": 7359,
    "antastic": 7360,
    "È": 7361,
    "keeper": 7362,
    "Ġshelves": 7363,
    "ĠBiggy": 7364,
    "Ġthose": 7365,
    "Ġwaving": 7366,
    "Ġgr": 7367,
    "Ġsneeze": 7368,
    "llas": 7369,
    "Ġexploration": 7370,
    "Ė": 7371,
    "arth": 7372,
    "Ġgames": 7373,
    "Ġthu": 7374,
    "Ġpersist": 7375,
    "upt": 7376,
    "Ġplug": 7377,
    "Ġdeterm": 7378,
    "ĠEnd": 7379,
    "Ġindependent": 7380,
    "Ġsharp": 7381,
    "Ġprinting": 7382,
    "Ġblood": 7383,
    "Ġbuckles": 7384,
    "Ġwhole": 7385,
    "ĠGrand": 7386,
    "Ġlanded": 7387,
    "Ġhooves": 7388,
    "Ġsa": 7389,
    "Ġspong": 7390,
    "Ġbleeding": 7391,
    "Ġtwinkling": 7392,
    "ek": 7393,
    "ľ": 7394,
    "ĠChicky": 7395,
    "ĠRolly": 7396,
    "Ġflies": 7397,
    "Ġ4": 7398,
    "Ġpetted": 7399,
    "ĠMissile": 7400,
    "Ġowls": 7401,
    "Ġsometimes": 7402,
    "Ġcounted": 7403,
    "Ġhanging": 7404,
    "Ġappro": 7405,
    "Ġclimbs": 7406,
    "Ġshr": 7407,
    "Friends": 7408,
    "Ġbel": 7409,
    "Ġcontain": 7410,
    "ĠRose": 7411,
    "Emma": 7412,
    "unity": 7413,
    "Ġitch": 7414,
    "uses": 7415,
    "Ġargument": 7416,
    "Ġdeep": 7417,
    "Ġhappiest": 7418,
    "Ġfasc": 7419,
    "agull": 7420,
    "Ġreminding": 7421,
    "Ġwhere": 7422,
    "Ġfill": 7423,
    "Ġstored": 7424,
    "Ġsunscreen": 7425,
    "orsie": 7426,
    "Ġfilm": 7427,
    "Ġdish": 7428,
    "Ġdove": 7429,
    "Ġmold": 7430,
    "Ġpresents": 7431,
    "ú": 7432,
    "One": 7433,
    "Ġits": 7434,
    "Ġb": 7435,
    "Ġpuff": 7436,
    "Ġspark": 7437,
    "Ġeveryone": 7438,
    "bled": 7439,
    "Ġlightning": 7440,
    "Ġroad": 7441,
    "irthday": 7442,
    "Sure": 7443,
    "codile": 7444,
    "Ġbeetles": 7445,
    "Ġpaws": 7446,
    "Ġwraps": 7447,
    "Ġcoup": 7448,
    "Ġprove": 7449,
    "ense": 7450,
    "Ġdespite": 7451,
    "eb": 7452,
    "bie": 7453,
    "Ġscurry": 7454,
    "Ġflea": 7455,
    "Ġbomb": 7456,
    "Ġmaster": 7457,
    "Ġnews": 7458,
    "Ġenvelope": 7459,
    "--": 7460,
    "Ġhide": 7461,
    "Ġwiser": 7462,
    "Ġwarrior": 7463,
    "Ġputting": 7464,
    "Ġbye": 7465,
    "Ġrest": 7466,
    "Wake": 7467,
    "Ġsupp": 7468,
    "Ġrestore": 7469,
    "aut": 7470,
    "Ġalright": 7471,
    "Ġconfidence": 7472,
    "ĠCow": 7473,
    "ĠLina": 7474,
    "Ħ": 7475,
    "Ġpenny": 7476,
    "Ġswam": 7477,
    "urb": 7478,
    "lyn": 7479,
    "Froggy": 7480,
    "Ġunw": 7481,
    "Ġra": 7482,
    "Ġfist": 7483,
    "Ġyellow": 7484,
    "Ġlips": 7485,
    "Ġty": 7486,
    "ĠTime": 7487,
    "Ok": 7488,
    "ising": 7489,
    "Ġteac": 7490,
    "ĠPuffy": 7491,
    "ö": 7492,
    "Ġrel": 7493,
    "Ġquest": 7494,
    "Ġwandered": 7495,
    "Ġrece": 7496,
    "Ġtreehouse": 7497,
    "Ġprevented": 7498,
    "Ġadmir": 7499,
    "Ġnovels": 7500,
    "ir": 7501,
    "Ġplayground": 7502,
    "rr": 7503,
    "Ġyourselves": 7504,
    "Ġspeaking": 7505,
    "Ġpeek": 7506,
    "Ġpinching": 7507,
    "Ġyears": 7508,
    "elvet": 7509,
    "Ġnaps": 7510,
    "Ġsome": 7511,
    "fast": 7512,
    "ĠHippy": 7513,
    "!'": 7514,
    "Ġmailbox": 7515,
    "Ġoak": 7516,
    "ĠAlong": 7517,
    "Ġconversation": 7518,
    "Ġbrushing": 7519,
    "Ġinvitations": 7520,
    "ave": 7521,
    "quest": 7522,
    "Ġmakes": 7523,
    "Ġprovide": 7524,
    "Ġwatches": 7525,
    "Ġlined": 7526,
    "ibly": 7527,
    "Ġdistant": 7528,
    "ĠLola": 7529,
    "Ġstud": 7530,
    "Ġdrivers": 7531,
    "pe": 7532,
    "ĠToto": 7533,
    "Ġlicense": 7534,
    "imal": 7535,
    "Ġdrawing": 7536,
    "Ġumbre": 7537,
    "iles": 7538,
    "Ġpeacock": 7539,
    "Ġcor": 7540,
    "ĠPepper": 7541,
    "Ġanything": 7542,
    "Ġfailed": 7543,
    "Ġnote": 7544,
    "Bear": 7545,
    "ĠEva": 7546,
    "People": 7547,
    "angaroo": 7548,
    "Ġchefs": 7549,
    "Ġtablet": 7550,
    "uit": 7551,
    "Ġsign": 7552,
    "George": 7553,
    "Ġbumped": 7554,
    "Ġeven": 7555,
    "Ġmineral": 7556,
    "Ġjewel": 7557,
    "ity": 7558,
    "ading": 7559,
    "Ġfle": 7560,
    "Ġnodded": 7561,
    "ĠDave": 7562,
    "Ġswamp": 7563,
    "ĠLuna": 7564,
    "ĠChew": 7565,
    "ñ": 7566,
    "Ollie": 7567,
    "Ġsilly": 7568,
    "Ġlifting": 7569,
    "ā": 7570,
    "Ġal": 7571,
    "ilet": 7572,
    "Ġpuppy": 7573,
    "ĠOn": 7574,
    "Ġsan": 7575,
    "Ġmotion": 7576,
    "ongratul": 7577,
    "{": 7578,
    "Ġtongue": 7579,
    "acy": 7580,
    "Ġtugging": 7581,
    "Ġset": 7582,
    "Ġlotion": 7583,
    "ount": 7584,
    "Ġshined": 7585,
    "Ġshot": 7586,
    "Ġballoon": 7587,
    "Ġdecor": 7588,
    "ĠRachel": 7589,
    "ĠAm": 7590,
    "ĠPhil": 7591,
    "Ġruler": 7592,
    "ieves": 7593,
    "Ġcareful": 7594,
    "ax": 7595,
    "Ġpassengers": 7596,
    "Ġhadn": 7597,
    "Ġwat": 7598,
    "Ġplanet": 7599,
    "Ġrevealing": 7600,
    "Ġfeeding": 7601,
    "Grandpa": 7602,
    "Ġstung": 7603,
    "Ġtilted": 7604,
    "Ġfrosting": 7605,
    "Ġpours": 7606,
    "Ġbalance": 7607,
    "Ann": 7608,
    "Ġexplaining": 7609,
    "Stop": 7610,
    "ason": 7611,
    "Ġhunters": 7612,
    "agic": 7613,
    "Ġshrank": 7614,
    "Ġgap": 7615,
    "Days": 7616,
    "Ġbasketball": 7617,
    "Ġnibbled": 7618,
    "Ġparked": 7619,
    "é": 7620,
    "Ġgrowling": 7621,
    "aven": 7622,
    "Ġthen": 7623,
    "Ġbelieved": 7624,
    "Ġtickled": 7625,
    "Ġstructure": 7626,
    "ik": 7627,
    "Ġzooming": 7628,
    "Joey": 7629,
    "Ġelf": 7630,
    "Ġstep": 7631,
    "8": 7632,
    "Ġswe": 7633,
    "omed": 7634,
    "ĠZ": 7635,
    "Ġquack": 7636,
    "Ġmissile": 7637,
    "oceros": 7638,
    "Ġyawned": 7639,
    "Ġsway": 7640,
    "Ġcolours": 7641,
    "Ġbeds": 7642,
    "Ġcrack": 7643,
    "Ġespecially": 7644,
    "Ġapple": 7645,
    "ĠCandy": 7646,
    "Ġdefin": 7647,
    "Ġtap": 7648,
    "Dad": 7649,
    "'s": 7650,
    "Ġsnowman": 7651,
    "ĠBobby": 7652,
    "Ġpaused": 7653,
    "Ġcheat": 7654,
    "Ġcool": 7655,
    "Ġmasterpiece": 7656,
    "Ġtex": 7657,
    "Dr": 7658,
    "Ġstairs": 7659,
    "Ġmane": 7660,
    "ĠSk": 7661,
    "Ġburning": 7662,
    "Ġboxes": 7663,
    "Ġpurrs": 7664,
    "Ġtray": 7665,
    "Ġstore": 7666,
    "ĠAccidents": 7667,
    "resses": 7668,
    "usty": 7669,
    "Ò": 7670,
    "used": 7671,
    "Ġmoving": 7672,
    "Ġimpro": 7673,
    "Ġtours": 7674,
    "Ġseen": 7675,
    "Ġby": 7676,
    "Ġstores": 7677,
    "ĠâĢľ": 7678,
    "ions": 7679,
    "Ġtents": 7680,
    "Ġmeas": 7681,
    "ened": 7682,
    "Ġfloor": 7683,
    "Ġshells": 7684,
    "Ġgaz": 7685,
    "Ġbathrobe": 7686,
    "ate": 7687,
    "umber": 7688,
    "Ġscattered": 7689,
    "Ġhour": 7690,
    "Ġprett": 7691,
    "Ġgrumbled": 7692,
    "ak": 7693,
    "Ġcovering": 7694,
    "shaped": 7695,
    "iver": 7696,
    "Ġmailing": 7697,
    "njoy": 7698,
    "Ġpolite": 7699,
    "Ġneck": 7700,
    "ĠDragon": 7701,
    "ake": 7702,
    "Ġdess": 7703,
    "immer": 7704,
    "Ġfrown": 7705,
    "Ġtwinkled": 7706,
    "Ġtar": 7707,
    "Bow": 7708,
    "Ġavocado": 7709,
    "Ġs": 7710,
    "Ġwashes": 7711,
    "Ġdeer": 7712,
    "Sw": 7713,
    "Ġcho": 7714,
    "Ġtreated": 7715,
    "Ġmummy": 7716,
    "Ġnaughty": 7717,
    "ĠWhenever": 7718,
    "Ġchange": 7719,
    "ĠPandy": 7720,
    "ĠFlicker": 7721,
    "Ġbed": 7722,
    "Ġquit": 7723,
    "iches": 7724,
    "Ġleads": 7725,
    "Ġenv": 7726,
    "ĠSw": 7727,
    "ote": 7728,
    "Ġtighter": 7729,
    "Ġdarlings": 7730,
    "erp": 7731,
    "Jen": 7732,
    "Ġsleds": 7733,
    "Ġlevers": 7734,
    "Ġweeping": 7735,
    "Ġcauliflower": 7736,
    "Ġopport": 7737,
    "etch": 7738,
    "Ġgoodies": 7739,
    "zes": 7740,
    "Ġled": 7741,
    "Ġchased": 7742,
    "lish": 7743,
    "Ġcalmed": 7744,
    "Ġawe": 7745,
    "ver": 7746,
    "Ġpuddle": 7747,
    "Hello": 7748,
    "Ġcher": 7749,
    "Ġtossed": 7750,
    "Ġadvent": 7751,
    "ating": 7752,
    "Ġintrigued": 7753,
    "Ġrepeating": 7754,
    "Ġgrin": 7755,
    "Ġseaweed": 7756,
    "fere": 7757,
    "Andy": 7758,
    "Gr": 7759,
    "ĠLife": 7760,
    "Ġnature": 7761,
    "ero": 7762,
    "ĠPeanut": 7763,
    "Ġcere": 7764,
    "ĠLight": 7765,
    "Ġbeak": 7766,
    "Ġtwo": 7767,
    "ror": 7768,
    "Ġskunk": 7769,
    "Ġwrench": 7770,
    "Ġinf": 7771,
    "Ġwhispering": 7772,
    "ĠW": 7773,
    "Ġmenu": 7774,
    "Ġbalanced": 7775,
    "Ġconsequences": 7776,
    "otter": 7777,
    "ĠTaking": 7778,
    "ĠMila": 7779,
    "ĠTweety": 7780,
    "Ġsqu": 7781,
    "Ġlanding": 7782,
    "Ġpaddle": 7783,
    "ĠHerb": 7784,
    "Ġadd": 7785,
    "Toby": 7786,
    "Ray": 7787,
    "Ġbrush": 7788,
    "Ġshop": 7789,
    "Ġunderstanding": 7790,
    "ĠYesterday": 7791,
    "Ġyelped": 7792,
    "ĠMira": 7793,
    "ĠTessa": 7794,
    "Cat": 7795,
    "Ġdisc": 7796,
    "Ġgri": 7797,
    "poison": 7798,
    "Ġbedtime": 7799,
    "ĠMeg": 7800,
    "Ġsing": 7801,
    "os": 7802,
    "Ġwere": 7803,
    "Ġsmells": 7804,
    "ĠNo": 7805,
    "Ġvide": 7806,
    "Ġscene": 7807,
    "Ġlaw": 7808,
    "Ġfarthest": 7809,
    "Ġax": 7810,
    "Ġquestion": 7811,
    "ĠGold": 7812,
    "Ġrepeats": 7813,
    "Lulu": 7814,
    "ĠD": 7815,
    "Ġcreak": 7816,
    "Ġcomfortable": 7817,
    "Ġcelebrated": 7818,
    "P": 7819,
    "Ġonion": 7820,
    "Ġgrinned": 7821,
    "Ġjoking": 7822,
    "*": 7823,
    "Please": 7824,
    "Ġscoop": 7825,
    "Ġendings": 7826,
    "Ġrooms": 7827,
    "raged": 7828,
    "Ġvent": 7829,
    "Ġbulbs": 7830,
    "Ġvan": 7831,
    "ĠDotty": 7832,
    "Ġbond": 7833,
    "Ġskills": 7834,
    "Ġstings": 7835,
    "Ġunder": 7836,
    "Ġseriously": 7837,
    "Ġache": 7838,
    "Ġfly": 7839,
    "Ġbath": 7840,
    "aked": 7841,
    "ence": 7842,
    "&": 7843,
    "Ġwires": 7844,
    "Ġmodest": 7845,
    "Ġbag": 7846,
    "onnie": 7847,
    "Ġkangaroos": 7848,
    "Ġwarmed": 7849,
    "Ġoven": 7850,
    "Ġcandy": 7851,
    "Ġtwirled": 7852,
    "!\".": 7853,
    "Fr": 7854,
    "cakes": 7855,
    "ĠWendy": 7856,
    "Ġscary": 7857,
    "Ġcats": 7858,
    "Ġcheers": 7859,
    "ebecca": 7860,
    "nn": 7861,
    "ely": 7862,
    "anny": 7863,
    "Ġbald": 7864,
    "Close": 7865,
    "Ġslowly": 7866,
    "For": 7867,
    "5": 7868,
    "Ġbri": 7869,
    "Ġplant": 7870,
    "ĠAlex": 7871,
    "ebra": 7872,
    "Ġguit": 7873,
    "Ġwell": 7874,
    "Ġdirtier": 7875,
    "Ġof": 7876,
    "Ġcried": 7877,
    "ex": 7878,
    "Ġwhale": 7879,
    "lc": 7880,
    "p": 7881,
    "Ġtrash": 7882,
    "Ġmarve": 7883,
    "Ġfirst": 7884,
    "Ġstared": 7885,
    "ĠBubbles": 7886,
    "ief": 7887,
    "Zara": 7888,
    "Leave": 7889,
    "Ġexpert": 7890,
    "Ġsponge": 7891,
    "Ě": 7892,
    "Ġhonking": 7893,
    "Ġvine": 7894,
    "Ġsad": 7895,
    "§": 7896,
    "ney": 7897,
    "alley": 7898,
    "inch": 7899,
    "Ġslapping": 7900,
    "Ġdid": 7901,
    "dd": 7902,
    "Ġwinner": 7903,
    "Mon": 7904,
    "Ġpink": 7905,
    "Ġcheating": 7906,
    "Ġride": 7907,
    "Ġcrabs": 7908,
    "ck": 7909,
    "Ġeight": 7910,
    "found": 7911,
    "ance": 7912,
    "Ġmind": 7913,
    "Ġfolded": 7914,
    "Ġunl": 7915,
    "Ġworry": 7916,
    "Every": 7917,
    "Ġsiblings": 7918,
    "vers": 7919,
    "ĠRemember": 7920,
    "Ġslid": 7921,
    "rier": 7922,
    "Ġso": 7923,
    "Ġpray": 7924,
    "Ġangel": 7925,
    "Ġem": 7926,
    "asses": 7927,
    "ited": 7928,
    "¾": 7929,
    "mies": 7930,
    "ĠNever": 7931,
    "Ġelectric": 7932,
    "Ġripped": 7933,
    "ĠPlaying": 7934,
    "Ġcircles": 7935,
    "Ġguide": 7936,
    "Ġnose": 7937,
    "Ġthrough": 7938,
    "Ġmorning": 7939,
    "Ġpunish": 7940,
    "Ġsensation": 7941,
    "Ġrising": 7942,
    "Ġresp": 7943,
    "ĠStitch": 7944,
    "ĠRing": 7945,
    "Ġjellyfish": 7946,
    "ĠGreeny": 7947,
    "Ġmuscles": 7948,
    "î": 7949,
    "ore": 7950,
    "Ġchips": 7951,
    "Ġmagnets": 7952,
    "ĠAmanda": 7953,
    "Ġdisapp": 7954,
    "Ġhealthier": 7955,
    "ĠWolf": 7956,
    "Ġcurt": 7957,
    "Ġpies": 7958,
    "Ġtal": 7959,
    "irts": 7960,
    "Quick": 7961,
    "Ġshadow": 7962,
    "gen": 7963,
    "year": 7964,
    "Ġlabels": 7965,
    "icate": 7966,
    "Excited": 7967,
    "Ġlawy": 7968,
    "Ġstamp": 7969,
    "Ġspeaker": 7970,
    "sey": 7971,
    "Ġsweeties": 7972,
    "Ġcomplaining": 7973,
    "Ġflowing": 7974,
    "ortunately": 7975,
    "Ġcabinet": 7976,
    "lest": 7977,
    "Ġexplore": 7978,
    "Clara": 7979,
    "Ġcampfire": 7980,
    "Ġclo": 7981,
    "Ġjunk": 7982,
    "Ġtry": 7983,
    "Ġcompetit": 7984,
    "meow": 7985,
    "mie": 7986,
    "Ġlooks": 7987,
    "Ġbrothers": 7988,
    "opes": 7989,
    "Ġmine": 7990,
    "ine": 7991,
    "Ġlonely": 7992,
    "Ġtasks": 7993,
    "ĠLaser": 7994,
    "unch": 7995,
    "hest": 7996,
    "arlotte": 7997,
    "Ġway": 7998,
    "Bessie": 7999,
    "Ġvehic": 8000,
    "Ġfigure": 8001,
    "Ġmatt": 8002,
    "Ġleaning": 8003,
    "ĠPam": 8004,
    "Ġshakes": 8005,
    "Or": 8006,
    "Ġleaf": 8007,
    "Ġbetween": 8008,
    "Ġprunes": 8009,
    "Ġcity": 8010,
    "Ġsick": 8011,
    "ĠQ": 8012,
    "ssy": 8013,
    "ĠTre": 8014,
    "Ġcartoon": 8015,
    "lower": 8016,
    "Ġtallest": 8017,
    "Ġthroat": 8018,
    "¢": 8019,
    "Ġfield": 8020,
    "Ġstronger": 8021,
    "Ġpaintings": 8022,
    "Ġseller": 8023,
    "ĠSt": 8024,
    "Ġdire": 8025,
    "Ġyour": 8026,
    "Ġjackets": 8027,
    "Ġafraid": 8028,
    "Ġwallet": 8029,
    "Ġthings": 8030,
    "Ġwigg": 8031,
    "Ġwarmth": 8032,
    "ought": 8033,
    "ĠTrucky": 8034,
    "Ġflock": 8035,
    "ĠAlf": 8036,
    "ĠFlap": 8037,
    "Ġdaughter": 8038,
    "Ġincreased": 8039,
    "ĠPut": 8040,
    "Mike": 8041,
    "ĠRobo": 8042,
    "Ġmoo": 8043,
    "Ġgreeted": 8044,
    "ot": 8045,
    "Ġcommun": 8046,
    "ados": 8047,
    "Ġfirefly": 8048,
    "Ġshut": 8049,
    "Ġketchup": 8050,
    "abra": 8051,
    "Ġsucceeded": 8052,
    "Ġexchange": 8053,
    "Ġwagon": 8054,
    "Ġcaptain": 8055,
    "Ġlaughter": 8056,
    "aced": 8057,
    "Ġcouldn": 8058,
    "ives": 8059,
    "Ġuniform": 8060,
    "Ġexplor": 8061,
    "ony": 8062,
    "Ġaboard": 8063,
    "col": 8064,
    "istol": 8065,
    "Ġpl": 8066,
    "Ġrow": 8067,
    "ĠAlways": 8068,
    "ĠHenry": 8069,
    "Ġlaughs": 8070,
    "Ġden": 8071,
    "Ġshake": 8072,
    "ĠYet": 8073,
    "Ð": 8074,
    "Ġscale": 8075,
    "ĠRock": 8076,
    "Ġpassports": 8077,
    "Ġcausing": 8078,
    "Ġmission": 8079,
    "Ġenviron": 8080,
    "cused": 8081,
    "Ġnights": 8082,
    "Ġavo": 8083,
    "Ġpossible": 8084,
    "ny": 8085,
    "oline": 8086,
    "Ġrelaxed": 8087,
    "ĠMoo": 8088,
    "Ġcoral": 8089,
    "Ġgets": 8090,
    "Ġneighborhood": 8091,
    "Ġgarden": 8092,
    "Ġfireflies": 8093,
    "edding": 8094,
    "Ġvibr": 8095,
    "Ġcroaked": 8096,
    "irst": 8097,
    "Ġfamous": 8098,
    "Bob": 8099,
    "Ġhorri": 8100,
    "ished": 8101,
    "Ġsteal": 8102,
    "Ġaliens": 8103,
    "Ġcoat": 8104,
    "Ġmay": 8105,
    "Jump": 8106,
    "Ġcustomers": 8107,
    "Ġblinking": 8108,
    "irring": 8109,
    "hing": 8110,
    "Rain": 8111,
    "Ġmissing": 8112,
    "Ġexplain": 8113,
    "ĠSophia": 8114,
    "Ġpot": 8115,
    "Ġbeyond": 8116,
    "Ġelevator": 8117,
    "ushing": 8118,
    "Ġwaters": 8119,
    "Ġneare": 8120,
    "Ġbeaming": 8121,
    "Ġbus": 8122,
    "Ġmother": 8123,
    "Ġpeace": 8124,
    "Ġoasis": 8125,
    "ĠStop": 8126,
    "Ġbows": 8127,
    "Hoppy": 8128,
    "Ġansw": 8129,
    "ccol": 8130,
    "Ġcuddles": 8131,
    "Ġbubbly": 8132,
    "Ġblowing": 8133,
    "ertain": 8134,
    "comfortable": 8135,
    "Ġsees": 8136,
    "ĠPretty": 8137,
    "Ġpills": 8138,
    "Ġcongratul": 8139,
    "Ġste": 8140,
    "Ġtricked": 8141,
    "ĠNobody": 8142,
    "Tara": 8143,
    "Ġflashed": 8144,
    "Ġmess": 8145,
    "Ġhatch": 8146,
    "Ġsnip": 8147,
    "Ġbinoculars": 8148,
    "ŀ": 8149,
    "Ġjokes": 8150,
    "Ġpiggy": 8151,
    "yle": 8152,
    "Ġimagination": 8153,
    "rench": 8154,
    "Ġdarkness": 8155,
    "Ġplayers": 8156,
    "Ġjazz": 8157,
    "pr": 8158,
    "Ġbossy": 8159,
    "Ġsoap": 8160,
    "Ġshapes": 8161,
    "ĠAmelia": 8162,
    "Ġpointy": 8163,
    "Ġwait": 8164,
    "Ġseveral": 8165,
    "Ġskirt": 8166,
    "Ġporch": 8167,
    "ood": 8168,
    "Ġitself": 8169,
    "uke": 8170,
    "ed": 8171,
    "Ġbunch": 8172,
    "ĠHere": 8173,
    "ĠTodd": 8174,
    "Ġcovers": 8175,
    "Ġcrayons": 8176,
    "Ġhusband": 8177,
    "Ġmaker": 8178,
    "ĠAll": 8179,
    "icorn": 8180,
    "ensive": 8181,
    "Ġdate": 8182,
    "Ġcertain": 8183,
    "Ġsleeps": 8184,
    "hett": 8185,
    "Ġwrapper": 8186,
    "Ġbeh": 8187,
    "ident": 8188,
    "ction": 8189,
    "cc": 8190,
    "Ġmar": 8191,
    "ĠFlora": 8192,
    "Ġwatermel": 8193,
    "Ġisland": 8194,
    "Ġlot": 8195,
    "Ġhigher": 8196,
    "Ġwrit": 8197,
    "Ġmater": 8198,
    "Ġslept": 8199,
    "ugged": 8200,
    "Ġwords": 8201,
    "Bill": 8202,
    "Ġcaterpillars": 8203,
    "Ġscoops": 8204,
    "Ġwagged": 8205,
    "Ġmelons": 8206,
    "more": 8207,
    "Ġscolds": 8208,
    "Ġcreep": 8209,
    "Ġobe": 8210,
    "Ġanyway": 8211,
    "Ġpin": 8212,
    "Ġschool": 8213,
    "Ġlipstick": 8214,
    "Ġhitting": 8215,
    "Ġbiscuit": 8216,
    "Ġdishes": 8217,
    "Ġafar": 8218,
    "ube": 8219,
    "roken": 8220,
    "ĠBr": 8221,
    "ĠGood": 8222,
    "Ġaccomplish": 8223,
    "Ġpush": 8224,
    "Ġsnug": 8225,
    "Ġgrabbing": 8226,
    "Ġbouncing": 8227,
    "Dino": 8228,
    "Ġyelp": 8229,
    "ĠMae": 8230,
    "sc": 8231,
    "Ġstern": 8232,
    "ĠKids": 8233,
    "ĠSteve": 8234,
    "Ç": 8235,
    "chief": 8236,
    "Ġfinger": 8237,
    "ĠPolly": 8238,
    "azor": 8239,
    "ĠTip": 8240,
    "anes": 8241,
    "Ġvisits": 8242,
    "Ġcooed": 8243,
    "Under": 8244,
    "Ġsister": 8245,
    "ucture": 8246,
    "aghett": 8247,
    "Ġpearl": 8248,
    "affes": 8249,
    "Ġcalmly": 8250,
    "Ġcopied": 8251,
    "ē": 8252,
    "Ġjumping": 8253,
    "Ġfriendship": 8254,
    "Ġencount": 8255,
    "Red": 8256,
    "Ġshrugs": 8257,
    "Ġbet": 8258,
    "Ġstretchy": 8259,
    "aybe": 8260,
    "Ġstool": 8261,
    "Ġcra": 8262,
    "Ġhotel": 8263,
    "ient": 8264,
    "Ġcomplain": 8265,
    "Ġfat": 8266,
    "Ġluxu": 8267,
    "ppers": 8268,
    "Ġkeep": 8269,
    "Ġgar": 8270,
    "Hope": 8271,
    "Ġladder": 8272,
    "Ġrowed": 8273,
    "Ġpanic": 8274,
    "ĠThe": 8275,
    "ĠTheir": 8276,
    "Ġhoney": 8277,
    "Ġyelling": 8278,
    "Ġfisher": 8279,
    "Ġremember": 8280,
    "Ġear": 8281,
    "eor": 8282,
    "More": 8283,
    "Ġshall": 8284,
    "ĠJonny": 8285,
    "que": 8286,
    "Ġheartbroken": 8287,
    "Linda": 8288,
    "Ġneighbours": 8289,
    "Ġseas": 8290,
    "Ġpack": 8291,
    "Ġjud": 8292,
    "ging": 8293,
    "Ġcans": 8294,
    "Ġvegetables": 8295,
    "Ġslapped": 8296,
    "Ġfroze": 8297,
    "Ġchairs": 8298,
    "Ġresc": 8299,
    "Mrs": 8300,
    "usted": 8301,
    "ĠOnly": 8302,
    "ll": 8303,
    "Ġfolds": 8304,
    "Ġbehaved": 8305,
    "Ġswapped": 8306,
    "Ġclosely": 8307,
    "Ġprickly": 8308,
    "Ġfort": 8309,
    "Ġuniver": 8310,
    "bbles": 8311,
    "Ġquar": 8312,
    "Ġgen": 8313,
    "Ġmaze": 8314,
    "Ġstill": 8315,
    "Ġfocused": 8316,
    "Ġrestless": 8317,
    "y": 8318,
    "Ġimagined": 8319,
    "Ġgave": 8320,
    "Ġoutdoors": 8321,
    "Ġperform": 8322,
    "oon": 8323,
    "ĠZip": 8324,
    "Ġscreamed": 8325,
    "Ġwritten": 8326,
    "erg": 8327,
    "Ġadded": 8328,
    "Ġunicorn": 8329,
    "work": 8330,
    "atty": 8331,
    "Ġcooper": 8332,
    "Ġmeowing": 8333,
    "Sharing": 8334,
    "Ġaddress": 8335,
    "Ġcharge": 8336,
    "Ġpatiently": 8337,
    "rel": 8338,
    "O": 8339,
    "Ġplenty": 8340,
    "Ġlemonade": 8341,
    "Ġrocket": 8342,
    "Ġbeneath": 8343,
    "ĠFarmer": 8344,
    "Ġwobbly": 8345,
    "Ġmerma": 8346,
    "ults": 8347,
    "Ġpouted": 8348,
    "Ġslipping": 8349,
    "Ġadventure": 8350,
    "Ġresponsib": 8351,
    "rec": 8352,
    "Ġago": 8353,
    "Bunny": 8354,
    "Ġtapping": 8355,
    "Ġbars": 8356,
    "Ġclown": 8357,
    "asers": 8358,
    "ĠZog": 8359,
    "Remember": 8360,
    "Ġfaded": 8361,
    "Ġlon": 8362,
    "aptain": 8363,
    "Ġcapes": 8364,
    "Ġswitched": 8365,
    "epend": 8366,
    "ĠTweet": 8367,
    "under": 8368,
    "ashes": 8369,
    "Ġwould": 8370,
    "Ġunusual": 8371,
    "rilliant": 8372,
    "Ġpeeled": 8373,
    "Ġenvironment": 8374,
    "Ġinsisted": 8375,
    "ĠSundays": 8376,
    "Ġtables": 8377,
    "lu": 8378,
    "Ġbloom": 8379,
    "Sm": 8380,
    "Ġforgives": 8381,
    "Ġways": 8382,
    "ĠKelly": 8383,
    "Oh": 8384,
    "My": 8385,
    "ique": 8386,
    "Ġfolding": 8387,
    "Ġpeppers": 8388,
    "Ġrespect": 8389,
    "Ġho": 8390,
    "Ġboys": 8391,
    "Ġdragged": 8392,
    "Ġdestination": 8393,
    "Ġneighb": 8394,
    "Ġservant": 8395,
    "Ġfeel": 8396,
    "Ġboard": 8397,
    "Ġhates": 8398,
    "cky": 8399,
    "Ġpick": 8400,
    "ogo": 8401,
    "ĠOllie": 8402,
    "Ġpet": 8403,
    "Ġrobber": 8404,
    "Ġpad": 8405,
    "Ġglued": 8406,
    "Ġchill": 8407,
    "Ġpoppy": 8408,
    "Ġcowb": 8409,
    "Ġstorm": 8410,
    "lew": 8411,
    "ĠWoolly": 8412,
    "Ġappl": 8413,
    "Ġresist": 8414,
    "Ġreassured": 8415,
    "Is": 8416,
    "Ġforgive": 8417,
    "Ġcame": 8418,
    "ĠFaye": 8419,
    "Ġforgi": 8420,
    "Ġdestro": 8421,
    "Ġgear": 8422,
    "Ġsecure": 8423,
    "Ġpalm": 8424,
    "Ġdiving": 8425,
    "Ġexpected": 8426,
    "Ġbrighter": 8427,
    "Ġjourn": 8428,
    "ape": 8429,
    "Ġflipped": 8430,
    "Ġrips": 8431,
    "pan": 8432,
    "Ġgirls": 8433,
    "Ġfake": 8434,
    "Ġreass": 8435,
    "Ġpuzzles": 8436,
    "ĠEverywhere": 8437,
    "Buzzy": 8438,
    "Ġteeth": 8439,
    "Zero": 8440,
    "Ġhere": 8441,
    "Ġteacher": 8442,
    "Ġhissing": 8443,
    "Ġate": 8444,
    "ĠReliable": 8445,
    "gg": 8446,
    "Ġclips": 8447,
    "Ġblank": 8448,
    "Ġuntie": 8449,
    "Ġvegetable": 8450,
    "Ġstops": 8451,
    "ittens": 8452,
    "Ġmiserable": 8453,
    "Ġhotter": 8454,
    "Ġer": 8455,
    "sed": 8456,
    "tt": 8457,
    "Ġwander": 8458,
    "Ġblocks": 8459,
    "llo": 8460,
    "Ġhoo": 8461,
    "ank": 8462,
    "ippy": 8463,
    "Ġmo": 8464,
    "Ġunderstood": 8465,
    "Ġdrinking": 8466,
    "ĠSnuggles": 8467,
    "Someone": 8468,
    "Ġsub": 8469,
    "Ġdiscussing": 8470,
    "Ġpleasure": 8471,
    "ĠSpe": 8472,
    "orrow": 8473,
    "yond": 8474,
    "Ġdemanding": 8475,
    "ing": 8476,
    "htray": 8477,
    "Ġoffering": 8478,
    "Ģ": 8479,
    "Ġtruck": 8480,
    "Ġprep": 8481,
    ">": 8482,
    "Ġremem": 8483,
    "ĠDoes": 8484,
    "av": 8485,
    "ellie": 8486,
    "Ġaside": 8487,
    "Ġstir": 8488,
    "xygen": 8489,
    "Those": 8490,
    "Ġheroes": 8491,
    "Ġimpressed": 8492,
    "ĠSad": 8493,
    "edic": 8494,
    "Ġthump": 8495,
    ";": 8496,
    "Ġpurr": 8497,
    "amed": 8498,
    "Ġoctopus": 8499,
    "Ġstrangers": 8500,
    "fived": 8501,
    "'.": 8502,
    "Ġdist": 8503,
    "Ġcompan": 8504,
    "Ġcomm": 8505,
    "Ġwill": 8506,
    "Ġsunflowers": 8507,
    "del": 8508,
    "Ġglobe": 8509,
    "Ġtested": 8510,
    "Ġreaching": 8511,
    "Ġscen": 8512,
    "Ġgranddaughter": 8513,
    "Ġwags": 8514,
    "Ġenvelopes": 8515,
    "Ġchop": 8516,
    "Ġgreet": 8517,
    "iction": 8518,
    "ĠGeorge": 8519,
    "og": 8520,
    "Ġglows": 8521,
    "Ġattract": 8522,
    "Ġnap": 8523,
    "Ġwarned": 8524,
    "Ġgenerosity": 8525,
    "Ġhaven": 8526,
    "isc": 8527,
    "Ġent": 8528,
    "Ġknowing": 8529,
    "Ġsell": 8530,
    "Ġbamboo": 8531,
    "Ġnecks": 8532,
    "ĠJason": 8533,
    "Ġlibrarian": 8534,
    "ĠBubu": 8535,
    "©": 8536,
    "ĠClaire": 8537,
    "Ġcapt": 8538,
    "Ġleop": 8539,
    "ĠMuffin": 8540,
    "Ġtimer": 8541,
    "Ġkitchen": 8542,
    "ĠNow": 8543,
    "Ġbiggest": 8544,
    "Ġcontro": 8545,
    "Ġdedic": 8546,
    "Ġsafely": 8547,
    "Ġtake": 8548,
    "Ġborrowed": 8549,
    "ĠButter": 8550,
    "Ġbathroom": 8551,
    "Ġwag": 8552,
    "iversity": 8553,
    "Ġmesses": 8554,
    "Ġlow": 8555,
    "ĠC": 8556,
    "Ġtrail": 8557,
    "tha": 8558,
    "Ġcla": 8559,
    "ĠĊĠ": 8560,
    "Ġtouching": 8561,
    "Ġcherries": 8562,
    "Ġstrong": 8563,
    "althy": 8564,
    "Ġenvel": 8565,
    "×": 8566,
    "Ġglo": 8567,
    "Ġtouch": 8568,
    "Ġunus": 8569,
    "raid": 8570,
    "Ġhumble": 8571,
    "Ġprick": 8572,
    "Ġpatterns": 8573,
    "Ġtrot": 8574,
    "Ġhonesty": 8575,
    "Ġneeds": 8576,
    "ten": 8577,
    "Ġenthusiastic": 8578,
    "lled": 8579,
    "ude": 8580,
    "Ġsnowballs": 8581,
    "oug": 8582,
    "ulp": 8583,
    "Ġspy": 8584,
    "Ġbounces": 8585,
    "looking": 8586,
    "Ġvelvet": 8587,
    "Ġfinishes": 8588,
    "hel": 8589,
    "Ġcompl": 8590,
    "Ġeasily": 8591,
    "Ġzigzag": 8592,
    "Later": 8593,
    "Ġanymore": 8594,
    "Ġgroom": 8595,
    "Michael": 8596,
    "Ġropes": 8597,
    "Ġcrushed": 8598,
    "Ġcars": 8599,
    "rigued": 8600,
    "Ġfart": 8601,
    "ĠMo": 8602,
    "ĠHi": 8603,
    "Ġhouses": 8604,
    "Im": 8605,
    "ast": 8606,
    "ĠSharp": 8607,
    "s": 8608,
    "Ġincluded": 8609,
    "ĠYummy": 8610,
    "Ġpa": 8611,
    "Ġfriendly": 8612,
    "spec": 8613,
    "Ġstomped": 8614,
    "oor": 8615,
    "umes": 8616,
    "Ġitems": 8617,
    "Mom": 8618,
    "Ġpat": 8619,
    "Ġdisobeyed": 8620,
    "Ġcook": 8621,
    "ó": 8622,
    "He": 8623,
    "zing": 8624,
    "not": 8625,
    "ĠRobert": 8626,
    "expected": 8627,
    "entr": 8628,
    "Á": 8629,
    "bby": 8630,
    "Ġhonk": 8631,
    ",": 8632,
    "Ġmyster": 8633,
    "Ġburnt": 8634,
    "Ġsense": 8635,
    "creams": 8636,
    "ĠAbi": 8637,
    "Mat": 8638,
    "Ġmedals": 8639,
    "Ġrequest": 8640,
    "ĠMixie": 8641,
    "Ġwaded": 8642,
    "Ġfut": 8643,
    "Ġmarble": 8644,
    "ĠBad": 8645,
    "Ġpicnic": 8646,
    "op": 8647,
    "Ġkites": 8648,
    "Ġsurfed": 8649,
    "robe": 8650,
    "Ġlaid": 8651,
    "Ġangrily": 8652,
    "Ġdisagreed": 8653,
    "pen": 8654,
    "ccer": 8655,
    "ĠRatty": 8656,
    "Ġastronauts": 8657,
    "Ġreappeared": 8658,
    "Ġtent": 8659,
    "Ġperm": 8660,
    "Æ": 8661,
    "Ġvel": 8662,
    "Ġfluttered": 8663,
    "Ġbanana": 8664,
    "ica": 8665,
    "¤": 8666,
    "The": 8667,
    "É": 8668,
    "Ġresponsible": 8669,
    "Ġnectar": 8670,
    "Ro": 8671,
    "Ġfinds": 8672,
    "Ġdecided": 8673,
    "Ġcarry": 8674,
    "Ġmatched": 8675,
    "ost": 8676,
    "Ġseagull": 8677,
    "chanic": 8678,
    "Ġargued": 8679,
    "Ġdollars": 8680,
    "Ġleather": 8681,
    "Ġgest": 8682,
    "Ġyog": 8683,
    "Ġdownstairs": 8684,
    "Ġknock": 8685,
    "Ġstirring": 8686,
    "ĠSure": 8687,
    "eal": 8688,
    "Ġwriggled": 8689,
    "pt": 8690,
    "Ġpancakes": 8691,
    "Ġinside": 8692,
    "ool": 8693,
    "ĠMat": 8694,
    "ĠCar": 8695,
    "ĠWhale": 8696,
    "Ġescap": 8697,
    "Ġknives": 8698,
    "cl": 8699,
    "Ġbund": 8700,
    "Ġfair": 8701,
    "ra": 8702,
    "Ġorder": 8703,
    "Ġbricks": 8704,
    "Ġtugged": 8705,
    "zed": 8706,
    "Ġshouts": 8707,
    "verse": 8708,
    "sity": 8709,
    "wards": 8710,
    "Ġbehaviour": 8711,
    "Ġchest": 8712,
    "Ġsights": 8713,
    "Ġswoop": 8714,
    "Ġpushed": 8715,
    "ĠSettle": 8716,
    "Ġcomforting": 8717,
    "Ġgrandd": 8718,
    "Ġactivity": 8719,
    "Ġreaches": 8720,
    "gly": 8721,
    "Zoe": 8722,
    "Ġadorable": 8723,
    "Ġweeks": 8724,
    "Ġpens": 8725,
    "Ġmosquito": 8726,
    "Ġframe": 8727,
    "Ġspears": 8728,
    "Ġcurl": 8729,
    "Ġaim": 8730,
    "Snap": 8731,
    "Ġstubb": 8732,
    "ond": 8733,
    "Ġliving": 8734,
    "Ġbelieve": 8735,
    "Ġsleepy": 8736,
    "Ġexpensive": 8737,
    "Ġgather": 8738,
    "Ġanswered": 8739,
    "Ruby": 8740,
    "Ġpaw": 8741,
    "Mama": 8742,
    "Ġfalling": 8743,
    "ĠRita": 8744,
    "J": 8745,
    "Ġproviding": 8746,
    "ĠRoo": 8747,
    "Ġprob": 8748,
    "Ġidea": 8749,
    "ly": 8750,
    "Ġsoared": 8751,
    "Ġseems": 8752,
    "',": 8753,
    "Ġcrunchy": 8754,
    "Ġroars": 8755,
    "ĠTwo": 8756,
    "Ġcereal": 8757,
    "Ġfound": 8758,
    "Ġmany": 8759,
    "In": 8760,
    "Ġtrampoline": 8761,
    "Ġimpatient": 8762,
    "á": 8763,
    "Ġpiles": 8764,
    "Ġbark": 8765,
    "Ġsnuggled": 8766,
    "Ġexplo": 8767,
    "ĠDee": 8768,
    "ĠQuack": 8769,
    "Ġsweaty": 8770,
    "len": 8771,
    "Jim": 8772,
    "Ġcourse": 8773,
    "Ġwrite": 8774,
    "Ġducks": 8775,
    "Ġtelevision": 8776,
    "Ġshrink": 8777,
    "ĠTe": 8778,
    "Ġdaisies": 8779,
    "Ġice": 8780,
    "Ġthrew": 8781,
    "Ġduring": 8782,
    "Ġfaint": 8783,
    "Ġfolder": 8784,
    "ĠTilly": 8785,
    "Ġpopsic": 8786,
    "ĠBetty": 8787,
    "aroo": 8788,
    "annah": 8789,
    "Ġstage": 8790,
    "Ġheav": 8791,
    "Ġpaying": 8792,
    "Ġrats": 8793,
    "Ġtriang": 8794,
    "Ġdisob": 8795,
    "ĠShark": 8796,
    "Ġsea": 8797,
    "Ġserve": 8798,
    "Ġtraffic": 8799,
    "zen": 8800,
    "glasses": 8801,
    "Ġhalf": 8802,
    "Ġfull": 8803,
    "Ġtwin": 8804,
    "urn": 8805,
    "Ġmusician": 8806,
    "Ġyawning": 8807,
    "Ġwishing": 8808,
    "unched": 8809,
    "They": 8810,
    "Ġcontinue": 8811,
    "Ġfig": 8812,
    "Ġremain": 8813,
    "Ġspeed": 8814,
    "Ġyummiest": 8815,
    "lebr": 8816,
    "Ġperfectly": 8817,
    "ĠTuna": 8818,
    "Ġbuying": 8819,
    "anut": 8820,
    "Ġbuzzed": 8821,
    "Ġattitude": 8822,
    "ĠMy": 8823,
    "Ġform": 8824,
    "Ġwre": 8825,
    "Ġcop": 8826,
    "Ġshown": 8827,
    "Ġpath": 8828,
    "Inside": 8829,
    "Ġbringing": 8830,
    "Ġgrew": 8831,
    "Ġwanting": 8832,
    "Ġfairy": 8833,
    "Ġwondered": 8834,
    "Ġthought": 8835,
    "Ġconc": 8836,
    "Ġgre": 8837,
    "ael": 8838,
    "Ġstory": 8839,
    "Ġhorse": 8840,
    "erc": 8841,
    "Ġdecisions": 8842,
    "Ġrecognized": 8843,
    "Jill": 8844,
    "Ġanytime": 8845,
    "Ġcudd": 8846,
    "Ġsadness": 8847,
    "alm": 8848,
    "Good": 8849,
    "ampoo": 8850,
    "Ġhorses": 8851,
    "Ġinstrum": 8852,
    "Ġingred": 8853,
    "Ġseeds": 8854,
    "Ġchirp": 8855,
    "Mimi": 8856,
    "Ġnet": 8857,
    "ĠWilly": 8858,
    "athan": 8859,
    "ĠBubb": 8860,
    "Ġswimsuits": 8861,
    "ĠGus": 8862,
    "Ġcane": 8863,
    "Ġleg": 8864,
    "Ġchecking": 8865,
    "Ġspoonful": 8866,
    "Ġcu": 8867,
    "Ġstopped": 8868,
    "Ġoffic": 8869,
    "Ġas": 8870,
    "Ġwatching": 8871,
    "Ġactiv": 8872,
    "Ġexamine": 8873,
    "Ġrhinoceros": 8874,
    "Ġmeal": 8875,
    "ĠTri": 8876,
    "Ġglittering": 8877,
    "Ġtreats": 8878,
    "Ġmirr": 8879,
    "Yummy": 8880,
    "ĠSweet": 8881,
    "Ġhonked": 8882,
    "Ġpanicked": 8883,
    "ments": 8884,
    "âĢĿ,": 8885,
    "f": 8886,
    "Ġmicrow": 8887,
    "Out": 8888,
    "Ġmuff": 8889,
    "choo": 8890,
    "ĠThings": 8891,
    "ased": 8892,
    "Bubbles": 8893,
    "ido": 8894,
    "e": 8895,
    "Ġpurp": 8896,
    "Ġuniverse": 8897,
    "|": 8898,
    "ĠB": 8899,
    "Ġbuild": 8900,
    "Ġthe": 8901,
    "Ġpromise": 8902,
    "Ġfireman": 8903,
    "Ġsnowflakes": 8904,
    "Jamie": 8905,
    "Ġraking": 8906,
    "Ġnatural": 8907,
    "Ġswimmer": 8908,
    "Ġthroughout": 8909,
    "Zip": 8910,
    "Ġtraveling": 8911,
    "lay": 8912,
    "ival": 8913,
    "Ġzigzags": 8914,
    "Ġtalents": 8915,
    "ĠLu": 8916,
    "ĠFelix": 8917,
    "ĠSqueak": 8918,
    "in": 8919,
    "Ġrazor": 8920,
    "ĠBibi": 8921,
    "Ġcluck": 8922,
    "Ġtaps": 8923,
    "itt": 8924,
    "fted": 8925,
    "Ġscurried": 8926,
    "ĠBe": 8927,
    "Ġperfume": 8928,
    "shine": 8929,
    "ĠStretch": 8930,
    "Ġhedgehog": 8931,
    "ĠGl": 8932,
    "Ġroads": 8933,
    "amma": 8934,
    "Ġencountered": 8935,
    "Ġweird": 8936,
    "Ġracers": 8937,
    "ĠLuckily": 8938,
    "Ġmistake": 8939,
    "Ġvideos": 8940,
    "Ġtickling": 8941,
    "ctions": 8942,
    "Ġlime": 8943,
    "Ġwaff": 8944,
    "ĠJo": 8945,
    "ĠJosh": 8946,
    "Ġpoked": 8947,
    "Ġsnowfl": 8948,
    "Ġsweets": 8949,
    "Ġrecommended": 8950,
    "Penny": 8951,
    "Ġsnapping": 8952,
    "Ġrobot": 8953,
    "Ġswayed": 8954,
    "Ġlead": 8955,
    "Ġcells": 8956,
    "irt": 8957,
    "Ġwhe": 8958,
    "Ġexperien": 8959,
    "Ġtrophy": 8960,
    "Ġgloves": 8961,
    "Ġdod": 8962,
    "Ribbit": 8963,
    "Ġnewspaper": 8964,
    "years": 8965,
    "Ġmarry": 8966,
    "Ġvillage": 8967,
    "Ġforget": 8968,
    "Ġcoffee": 8969,
    "Ġsweaters": 8970,
    "play": 8971,
    "Ġpor": 8972,
    "ĠEllie": 8973,
    "Ġpr": 8974,
    "Ġordinary": 8975,
    "Ġwounds": 8976,
    ".": 8977,
    "Ġsoda": 8978,
    "Ġrespectful": 8979,
    "Ġsunglasses": 8980,
    "Ġaut": 8981,
    "ķ": 8982,
    "Ġwhose": 8983,
    "Ġlistened": 8984,
    "Ġhighest": 8985,
    "Ġlistening": 8986,
    "ĠRabbit": 8987,
    "ĠMichael": 8988,
    "ĠMad": 8989,
    "ĠVicky": 8990,
    "Ġloved": 8991,
    "olin": 8992,
    "_": 8993,
    "Ġtied": 8994,
    "oc": 8995,
    "Suzie": 8996,
    "orking": 8997,
    "Ġrealise": 8998,
    "ĠGra": 8999,
    "Ġpulling": 9000,
    "Ġstamps": 9001,
    "These": 9002,
    "Ġ3": 9003,
    "Ab": 9004,
    "Ġteles": 9005,
    "aye": 9006,
    "Ġrins": 9007,
    "of": 9008,
    "Ġborrow": 9009,
    "Ì": 9010,
    "Ġzero": 9011,
    "Ġgrateful": 9012,
    "Ġabo": 9013,
    "Ġdrives": 9014,
    "Ġtold": 9015,
    "Sh": 9016,
    "ĠHarry": 9017,
    "Ġdears": 9018,
    "Ġatt": 9019,
    "ose": 9020,
    "usie": 9021,
    "ĠBaa": 9022,
    "Ġsear": 9023,
    "atter": 9024,
    "water": 9025,
    "Ġwolf": 9026,
    "Ġwiggling": 9027,
    "ĠJul": 9028,
    "Ġagreement": 9029,
    "Ġspotted": 9030,
    "nic": 9031,
    "Ġbreeze": 9032,
    "Ġblink": 9033,
    "Ġbears": 9034,
    "ipment": 9035,
    "Ġcoloured": 9036,
    "ĠJojo": 9037,
    "adabra": 9038,
    "Ġcloset": 9039,
    "Ġyet": 9040,
    "<|endoftext|>": 9041,
    "Ġchoo": 9042,
    "Ġbelts": 9043,
    "Ġbas": 9044,
    "ĠTruck": 9045,
    "otten": 9046,
    "lease": 9047,
    "Ġwhistled": 9048,
    "Ġlumber": 9049,
    "Ġopportunity": 9050,
    "Ġwon": 9051,
    "Ġknights": 9052,
    "ilities": 9053,
    "Ġgir": 9054,
    "Ġsongs": 9055,
    "aze": 9056,
    "ject": 9057,
    "Ġfind": 9058,
    "Ġchamber": 9059,
    "Ġclub": 9060,
    "Ġhardly": 9061,
    "Bobby": 9062,
    "ě": 9063,
    "Ġbenches": 9064,
    "ĠIzzy": 9065,
    "Ġlarge": 9066,
    "Ġsweat": 9067,
    "Ġtowel": 9068,
    "ia": 9069,
    "Ġbreaks": 9070,
    "Ġstrawberry": 9071,
    "Ġsharing": 9072,
    "ales": 9073,
    "Ġdoorbell": 9074,
    "Ġpian": 9075,
    "ĠCut": 9076,
    "Ġsqueeze": 9077,
    "Ġslipp": 9078,
    "Ġpages": 9079,
    "Ġshooed": 9080,
    "Ġdripped": 9081,
    "Ġwatch": 9082,
    "ĠMic": 9083,
    "Cl": 9084,
    "ĠFl": 9085,
    "Ġstrang": 9086,
    "cidents": 9087,
    "Ġlecture": 9088,
    "Shrink": 9089,
    "Ġ1": 9090,
    "Ġnoticing": 9091,
    "ė": 9092,
    "Ġsocks": 9093,
    "j": 9094,
    "atient": 9095,
    "dest": 9096,
    "Ġagree": 9097,
    "Ġmice": 9098,
    "Ġdear": 9099,
    "ĠDucky": 9100,
    "Ġsleeping": 9101,
    "Wait": 9102,
    "eorge": 9103,
    "inkle": 9104,
    "Ġwobble": 9105,
    "Ġugly": 9106,
    "Daisy": 9107,
    "Ġpressing": 9108,
    "ĠPl": 9109,
    "Ġweight": 9110,
    "Ġcontin": 9111,
    "Ġsurprises": 9112,
    "Le": 9113,
    "ĠMikey": 9114,
    "Ġrabbits": 9115,
    "Ġdolph": 9116,
    "lo": 9117,
    "Ġref": 9118,
    "Ġbookcase": 9119,
    "Ġsting": 9120,
    "Ġmuscle": 9121,
    "Ġfed": 9122,
    "Ġbegin": 9123,
    "Ġpurse": 9124,
    "Ġscooped": 9125,
    "Ġsniffed": 9126,
    "ĠRusty": 9127,
    "ĠMissy": 9128,
    "Ġpears": 9129,
    "Ġsn": 9130,
    "Ġtomorrow": 9131,
    "Ġunh": 9132,
    "Ġmountains": 9133,
    "Ġrice": 9134,
    "Ġpirates": 9135,
    "par": 9136,
    "Ġruined": 9137,
    "Ġsnap": 9138,
    "Ġunwra": 9139,
    "un": 9140,
    "Ġart": 9141,
    "Ġnasty": 9142,
    "Ġsparkling": 9143,
    "Ġrug": 9144,
    "uth": 9145,
    "Ġbrains": 9146,
    "Ġsnowy": 9147,
    "Ġopinions": 9148,
    "Ġsquealed": 9149,
    "Ġpretend": 9150,
    "Ġmessed": 9151,
    "Ġran": 9152,
    "ina": 9153,
    "Ġafterwards": 9154,
    "pa": 9155,
    "Ġfalls": 9156,
    "W": 9157,
    "Ġmints": 9158,
    "ĠTia": 9159,
    "Ġarrives": 9160,
    "Ġrude": 9161,
    "Ġsqueak": 9162,
    "Ru": 9163,
    "Ġtremb": 9164,
    "Ġdrip": 9165,
    "Ġseven": 9166,
    "aker": 9167,
    "ince": 9168,
    "oup": 9169,
    "Ġhopped": 9170,
    "Paul": 9171,
    "Ġweighed": 9172,
    "Ġcompass": 9173,
    "ĠMatt": 9174,
    "ix": 9175,
    "ĠPinchy": 9176,
    "ides": 9177,
    "Ġdodged": 9178,
    "ddie": 9179,
    "Amy": 9180,
    "ĠRalph": 9181,
    "Ġpositive": 9182,
    "keepers": 9183,
    "htub": 9184,
    "ble": 9185,
    "ser": 9186,
    "Ġfactory": 9187,
    "Ġspins": 9188,
    "Ġsends": 9189,
    "Ġbeating": 9190,
    "ye": 9191,
    "ĠRun": 9192,
    "Ġslimy": 9193,
    "Ġrewarding": 9194,
    "ĠTw": 9195,
    "Ġoccas": 9196,
    "Ġdiffic": 9197,
    "ually": 9198,
    "ulb": 9199,
    "Ġcrash": 9200,
    "Ġsurfboard": 9201,
    "ĠMoppy": 9202,
    "Ġswollen": 9203,
    "Ġsplas": 9204,
    "iddle": 9205,
    "Ġsmiled": 9206,
    "ĠOtto": 9207,
    "Ġclip": 9208,
    "ĠHelp": 9209,
    "smelling": 9210,
    "Ġhistory": 9211,
    "xy": 9212,
    "Ġloudly": 9213,
    "Ġbelongings": 9214,
    "Ġlike": 9215,
    "Ġg": 9216,
    "Ġmixed": 9217,
    "Ġshovels": 9218,
    "Ġsoftly": 9219,
    "Ġdropping": 9220,
    "otion": 9221,
    "orse": 9222,
    "Ġplastic": 9223,
    "pl": 9224,
    "Ġhangers": 9225,
    "Ġsword": 9226,
    "ĠFlick": 9227,
    "What": 9228,
    "air": 9229,
    "Ġgenie": 9230,
    "ĠTell": 9231,
    "hog": 9232,
    "ĠBecky": 9233,
    "ĠUnder": 9234,
    "Ġwhisper": 9235,
    "ĠSharing": 9236,
    "Ġmule": 9237,
    "Ġbubbles": 9238,
    "Ġapplause": 9239,
    "el": 9240,
    "Ġscarf": 9241,
    "Ġlady": 9242,
    "Ġmicrophone": 9243,
    "Ġhummed": 9244,
    "Ġsobbed": 9245,
    "Ġtheir": 9246,
    "racted": 9247,
    "Ġguarding": 9248,
    "Ġapologised": 9249,
    "ĠWhy": 9250,
    "Ġhi": 9251,
    "Bo": 9252,
    "Ġcompleted": 9253,
    "Ġelse": 9254,
    "Ġpeck": 9255,
    "Ġrefle": 9256,
    "ĠMark": 9257,
    "Ġmel": 9258,
    "Ġunf": 9259,
    "Ġconvin": 9260,
    "Ô": 9261,
    "Ġbelie": 9262,
    "Ġrecipe": 9263,
    "Ġpresented": 9264,
    "Ġdecorations": 9265,
    "ouched": 9266,
    "Ġexample": 9267,
    "iki": 9268,
    "arn": 9269,
    "ially": 9270,
    "Freddy": 9271,
    "rap": 9272,
    ".'\"": 9273,
    "May": 9274,
    "Ġrag": 9275,
    "Ġbaseball": 9276,
    "Ġprotection": 9277,
    "Ġsprink": 9278,
    "Ġearth": 9279,
    "Ġcorrect": 9280,
    "attered": 9281,
    "Ġgrape": 9282,
    "Ġmer": 9283,
    "Qu": 9284,
    "acing": 9285,
    "Anne": 9286,
    "case": 9287,
    "Ġempty": 9288,
    "ĠVroom": 9289,
    "Ġoldest": 9290,
    "Before": 9291,
    "Ġtrapped": 9292,
    "Ġtick": 9293,
    "Ġclearing": 9294,
    "ĠâĢĶ": 9295,
    "Ġvict": 9296,
    "Ġstranger": 9297,
    "Sue": 9298,
    "Ġpour": 9299,
    "ĠJet": 9300,
    "Ġpressed": 9301,
    "Unfortunately": 9302,
    "bbed": 9303,
    "Ġtwice": 9304,
    "aud": 9305,
    "Ġbaths": 9306,
    "Ġburgers": 9307,
    "Ġdisturbing": 9308,
    "Ġmommies": 9309,
    "Ġwoodcut": 9310,
    "Ġreason": 9311,
    "anged": 9312,
    "Ġsnack": 9313,
    "Ġfreezer": 9314,
    "Ġsprinkled": 9315,
    "ĠSorry": 9316,
    "isible": 9317,
    "Ġqueens": 9318,
    "Ġstatues": 9319,
    "Ġotters": 9320,
    "Che": 9321,
    "Ġburying": 9322,
    "Ġsurrender": 9323,
    "Ġfragile": 9324,
    "Ġscreaming": 9325,
    "Ġgazing": 9326,
    "Ġbirdc": 9327,
    "Ġpetals": 9328,
    "Ġdiscovering": 9329,
    "ĠCari": 9330,
    "ĠOnce": 9331,
    "Ġbee": 9332,
    "Ġgrass": 9333,
    "Yesterday": 9334,
    "Ġhate": 9335,
    "Ġcountryside": 9336,
    "ĠCro": 9337,
    "Ġlaptop": 9338,
    "Ġlook": 9339,
    "Ġrescue": 9340,
    "Ġgrabs": 9341,
    "ĠWaffle": 9342,
    "parent": 9343,
    "Ġmama": 9344,
    "Ġfunn": 9345,
    "Ġsou": 9346,
    "ĠWonder": 9347,
    "ĠSam": 9348,
    "Ġcrayon": 9349,
    "Ġcomputer": 9350,
    "Ġteddy": 9351,
    "Ġwarning": 9352,
    "Ġfacts": 9353,
    "Ġspec": 9354,
    "Ġkeeper": 9355,
    "ĠStartled": 9356,
    "Ġbound": 9357,
    "Find": 9358,
    "Whose": 9359,
    "ĠEverything": 9360,
    "?!\"": 9361,
    "Ġbrown": 9362,
    "Ġformed": 9363,
    "Ġbank": 9364,
    "Ġfixing": 9365,
    "Ġleaking": 9366,
    "Spot": 9367,
    "ummies": 9368,
    "Ġexhausted": 9369,
    "Ch": 9370,
    "ĠBop": 9371,
    "Ġgrasshopper": 9372,
    "Ġinvit": 9373,
    "You": 9374,
    "Ġtools": 9375,
    "ĠPer": 9376,
    "Ġtape": 9377,
    "ĠBa": 9378,
    "Ġboun": 9379,
    "Ġegg": 9380,
    "Ġextra": 9381,
    "Sandy": 9382,
    "fortable": 9383,
    "Ġproper": 9384,
    "Ġbak": 9385,
    "Ġtalent": 9386,
    "Ġstay": 9387,
    "Ġfabric": 9388,
    "Ġtrain": 9389,
    "Ġtucked": 9390,
    "Ġscrat": 9391,
    "Ġtip": 9392,
    "ĠJ": 9393,
    "ama": 9394,
    "bles": 9395,
    "Ġhippos": 9396,
    "Ġuns": 9397,
    "ĠMittens": 9398,
    "ai": 9399,
    "ĠNice": 9400,
    "Ġrabbit": 9401,
    "Ġleaves": 9402,
    "ino": 9403,
    "plash": 9404,
    "Ġforest": 9405,
    "Ġsomeday": 9406,
    "Ġhappy": 9407,
    "lace": 9408,
    "Ġlid": 9409,
    "amond": 9410,
    "hole": 9411,
    "Ġnicest": 9412,
    "una": 9413,
    "ĠRuth": 9414,
    "lly": 9415,
    "ĠPeople": 9416,
    "Ġmilk": 9417,
    "ĠPenny": 9418,
    "emma": 9419,
    "ĠWednesday": 9420,
    "Ġbarking": 9421,
    "ĠLena": 9422,
    "Ġmop": 9423,
    "Ġbloomed": 9424,
    "Ġgrant": 9425,
    "Ġfighting": 9426,
    "ath": 9427,
    "Ġpir": 9428,
    "Ġfields": 9429,
    "kin": 9430,
    "isp": 9431,
    "Ġdrum": 9432,
    "Ġskull": 9433,
    "elling": 9434,
    "Ġwrong": 9435,
    "Ġkay": 9436,
    "Ġgerms": 9437,
    "ites": 9438,
    "Ġheavy": 9439,
    "Ġmud": 9440,
    "Ġpoliceman": 9441,
    "ĠFire": 9442,
    "Ġwe": 9443,
    "Ġcrane": 9444,
    "Ġcolorful": 9445,
    "ĠGrump": 9446,
    "ednesday": 9447,
    "Ċ": 9448,
    "ady": 9449,
    "ĠRoar": 9450,
    "Ġeas": 9451,
    "Ġrac": 9452,
    "Finally": 9453,
    "Ġsmoke": 9454,
    "airs": 9455,
    "Ġawesome": 9456,
    "ĠCloud": 9457,
    "Ġtail": 9458,
    "Listen": 9459,
    "Ġglasses": 9460,
    "Ġfre": 9461,
    "Ġtubes": 9462,
    "Mary": 9463,
    "Ġappearance": 9464,
    "Ġnormal": 9465,
    "Ġbehavi": 9466,
    "asy": 9467,
    "Ġanywhere": 9468,
    "Ġwindy": 9469,
    "Ġpalms": 9470,
    "Speedy": 9471,
    "Ġcalendar": 9472,
    "ipe": 9473,
    "Ġdance": 9474,
    "?âĢĿ": 9475,
    "urkey": 9476,
    "ĠNut": 9477,
    "Ġrat": 9478,
    "Leo": 9479,
    "Ġmedic": 9480,
    "Ġsuffer": 9481,
    "age": 9482,
    "Ġsigns": 9483,
    "Ġhard": 9484,
    "ĠFind": 9485,
    "Some": 9486,
    "Ġjet": 9487,
    "Ġquacks": 9488,
    "!\",": 9489,
    "Ġpound": 9490,
    "imi": 9491,
    "Ġresponse": 9492,
    "ordinary": 9493,
    "Ġpays": 9494,
    "Ġamazement": 9495,
    "Ġwashed": 9496,
    "Ġalligators": 9497,
    "bol": 9498,
    "Ġmonsters": 9499,
    "Ġ10": 9500,
    "Ġcave": 9501,
    "imp": 9502,
    "Ġport": 9503,
    "Ġwhich": 9504,
    "ĠFriends": 9505,
    "ome": 9506,
    "Ġearthquake": 9507,
    "Ġlaund": 9508,
    "Ġtraveled": 9509,
    "Ġworms": 9510,
    "ĠFrog": 9511,
    "Ġwheat": 9512,
    "Ġpress": 9513,
    "Ġsoapy": 9514,
    "iar": 9515,
    "ĠMia": 9516,
    "Ġweak": 9517,
    "Ġsmiling": 9518,
    "Ġtalks": 9519,
    "ried": 9520,
    "ant": 9521,
    "Ġthemselves": 9522,
    "Ġmuster": 9523,
    "Ġlunch": 9524,
    "ndma": 9525,
    "sol": 9526,
    "land": 9527,
    "Ġcakes": 9528,
    "Ġfew": 9529,
    "Ġafford": 9530,
    "een": 9531,
    "Ġcrickets": 9532,
    "Ġpige": 9533,
    "Ġopp": 9534,
    "Ġherb": 9535,
    "nded": 9536,
    "ic": 9537,
    "Ġengine": 9538,
    "Ġdaisy": 9539,
    "Ġlearner": 9540,
    "ĠBun": 9541,
    "Ġforgetting": 9542,
    "Sweet": 9543,
    "oman": 9544,
    "laimed": 9545,
    "imes": 9546,
    "Ġbut": 9547,
    "side": 9548,
    "une": 9549,
    "ĠYes": 9550,
    "Ġmeadows": 9551,
    "Ġplays": 9552,
    "Ġkissing": 9553,
    "Ġcontainer": 9554,
    "Ġthrowing": 9555,
    "Ġcan": 9556,
    "ĠUntil": 9557,
    "uxu": 9558,
    "welcome": 9559,
    "Ġcountry": 9560,
    "Ġtying": 9561,
    "sequ": 9562,
    "Ġthanking": 9563,
    "scar": 9564,
    "ut": 9565,
    "Ġthinking": 9566,
    "Ġrare": 9567,
    "Ġguards": 9568,
    "ĠDaisy": 9569,
    "Ġpaper": 9570,
    "Ġcharming": 9571,
    "Ġguitars": 9572,
    "ĠNurse": 9573,
    "yal": 9574,
    "elp": 9575,
    "Ġmuseum": 9576,
    "Little": 9577,
    "Ġgarage": 9578,
    "Ġcomb": 9579,
    "Timmy": 9580,
    "Ġfeather": 9581,
    "Ġfinally": 9582,
    "bble": 9583,
    "Ġtowels": 9584,
    "Ġfierce": 9585,
    "Ġfears": 9586,
    "Ġlifts": 9587,
    "ĠMake": 9588,
    "ĠFish": 9589,
    "ĠAva": 9590,
    "Jacob": 9591,
    "aster": 9592,
    "Ġtapped": 9593,
    "ellow": 9594,
    "hes": 9595,
    "key": 9596,
    "Ġlie": 9597,
    "Ġcoughed": 9598,
    "Ġicky": 9599,
    "Ġsettle": 9600,
    "Ġbake": 9601,
    "Ġsound": 9602,
    "Ġnodding": 9603,
    "Ġprinted": 9604,
    "Ġshopping": 9605,
    "Ġnoisy": 9606,
    "mer": 9607,
    "Å": 9608,
    "Ġfro": 9609,
    "ret": 9610,
    "Ġloudest": 9611,
    "Hold": 9612,
    "Ġimagining": 9613,
    "udd": 9614,
    "Ew": 9615,
    "Ġribb": 9616,
    "Ġkangaroo": 9617,
    "tern": 9618,
    "Ġjourney": 9619,
    "Ġcuriosity": 9620,
    "brush": 9621,
    "Ġwent": 9622,
    "Ġcelebr": 9623,
    "Ġland": 9624,
    "hen": 9625,
    "irm": 9626,
    "child": 9627,
    "arge": 9628,
    "Ġspade": 9629,
    "Ġbushes": 9630,
    "Joy": 9631,
    "Ġsuc": 9632,
    "Ġsomet": 9633,
    "Ġgrill": 9634,
    "imb": 9635,
    "Ġsport": 9636,
    "Ġspiky": 9637,
    "ĠA": 9638,
    "Ġquarrel": 9639,
    "Ġscurrying": 9640,
    "Ġunique": 9641,
    "opl": 9642,
    "Ġcompany": 9643,
    "ĠCuddles": 9644,
    "Ġdrift": 9645,
    "Ġlaser": 9646,
    "Un": 9647,
    "Ġstacks": 9648,
    "Ġtea": 9649,
    "Ġshoot": 9650,
    "Ġstacked": 9651,
    "ĠAnn": 9652,
    "Ġslides": 9653,
    "Hi": 9654,
    "Ġlearned": 9655,
    "rmometer": 9656,
    "Ġexpress": 9657,
    "ist": 9658,
    "But": 9659,
    "Ġsneezed": 9660,
    "Ġknit": 9661,
    "Ġbody": 9662,
    "Ġsnowball": 9663,
    "Ġseal": 9664,
    "ĠJazz": 9665,
    "ĠWhile": 9666,
    "Ġtowns": 9667,
    "Ġbuilder": 9668,
    "ĠQuick": 9669,
    "Ġsymbols": 9670,
    "Pipp": 9671,
    "Ġdark": 9672,
    "Ġcrashed": 9673,
    "Ġscampered": 9674,
    "Ġday": 9675,
    "Do": 9676,
    "ĠCopper": 9677,
    "Ġdetermined": 9678,
    "Ġcollar": 9679,
    "Ġtoothbrush": 9680,
    "Ġmarking": 9681,
    "Maddy": 9682,
    "Ġscores": 9683,
    "xu": 9684,
    "ĠSmith": 9685,
    "Ġcloud": 9686,
    "Ġharbor": 9687,
    "Ġmoral": 9688,
    "Ġdreaming": 9689,
    "ssess": 9690,
    "Ġknee": 9691,
    "Ġdesserts": 9692,
    "Ġsailboat": 9693,
    "Ġbottom": 9694,
    "Ġcombed": 9695,
    "ien": 9696,
    "Ġchess": 9697,
    "Ġad": 9698,
    "Ġbanan": 9699,
    "Ġbrushed": 9700,
    "ĠTry": 9701,
    "Rock": 9702,
    "Ġminerals": 9703,
    "Jake": 9704,
    "Ġrough": 9705,
    "Ġsuccess": 9706,
    "omas": 9707,
    "Ġapples": 9708,
    "Ġwore": 9709,
    "Ġimportant": 9710,
    "Ġmust": 9711,
    "Ġenthusiasm": 9712,
    "tle": 9713,
    "rons": 9714,
    "unday": 9715,
    "Ġpipe": 9716,
    "Ġending": 9717,
    "Alice": 9718,
    "Ġorganizing": 9719,
    "Ġfin": 9720,
    "Ġghosts": 9721,
    "Ġide": 9722,
    "Ġsteam": 9723,
    "Ġshorts": 9724,
    "Ġbothered": 9725,
    "Ġco": 9726,
    "Ġsculpture": 9727,
    "Ġag": 9728,
    "Ġpair": 9729,
    "Ġmanaged": 9730,
    "Ġtrou": 9731,
    "Ġconqu": 9732,
    "Ġcamp": 9733,
    "Ġun": 9734,
    "Ġlonger": 9735,
    "ming": 9736,
    "Ġbend": 9737,
    "Ġdelay": 9738,
    "Ġsuffering": 9739,
    "Ġstirs": 9740,
    "con": 9741,
    "Ġcurly": 9742,
    "Ġrains": 9743,
    "covered": 9744,
    "ĺ": 9745,
    "ĠBilly": 9746,
    "Ġmiller": 9747,
    "Ġdriver": 9748,
    "Ġclean": 9749,
    "Everyone": 9750,
    "Ġbuildings": 9751,
    "Ġhundred": 9752,
    "w": 9753,
    "ĠJames": 9754,
    "Ġchurch": 9755,
    "Ġstamped": 9756,
    "Ġsalad": 9757,
    "ĠSn": 9758,
    "Ġspo": 9759,
    "Don": 9760,
    "Ġquickly": 9761,
    "ulif": 9762,
    "Ġsuperheroes": 9763,
    "Ġdesigns": 9764,
    "inal": 9765,
    "Ġdiscovered": 9766,
    "Ġjoins": 9767,
    "ang": 9768,
    "den": 9769,
    "ĠRel": 9770,
    "ates": 9771,
    "ĠLeave": 9772,
    "ibbles": 9773,
    "ĠSally": 9774,
    "Ġhuge": 9775,
    "Ġcoolest": 9776,
    "ract": 9777,
    "'m": 9778,
    "Ġimport": 9779,
    "Ġhider": 9780,
    "blings": 9781,
    "pid": 9782,
    "Ġrule": 9783,
    "ross": 9784,
    "Ġbo": 9785,
    "ĠPr": 9786,
    "«": 9787,
    "ĠDino": 9788,
    "ĠR": 9789,
    "Ġpasses": 9790,
    "Ġstring": 9791,
    "Ġguy": 9792,
    "Ġspoons": 9793,
    "Ġhit": 9794,
    "Ġbu": 9795,
    "olly": 9796,
    "Ġranger": 9797,
    "ĠAb": 9798,
    "Ġsmelt": 9799,
    "Ġladybug": 9800,
    "ĠLuc": 9801,
    "Ġstuffing": 9802,
    "Ġyouth": 9803,
    "Ġrealizing": 9804,
    "eep": 9805,
    "Ġpainting": 9806,
    "Ġunpacked": 9807,
    "Ġingredient": 9808,
    "Ġcourageous": 9809,
    "Ġdeter": 9810,
    "Katie": 9811,
    "Ġduckling": 9812,
    "Ġveterinarian": 9813,
    "ont": 9814,
    "Ġshouting": 9815,
    "Ġstadium": 9816,
    "asha": 9817,
    "umm": 9818,
    "Ġfar": 9819,
    "unk": 9820,
    "arent": 9821,
    "yth": 9822,
    "cles": 9823,
    "alth": 9824,
    "Ġocean": 9825,
    "Ġmaterials": 9826,
    "Ġmoment": 9827,
    "so": 9828,
    "Ġthorns": 9829,
    "fic": 9830,
    "ĠShare": 9831,
    "Ġcape": 9832,
    "Ġins": 9833,
    "Ġshocked": 9834,
    "Ġcomplet": 9835,
    "vel": 9836,
    "Ġnur": 9837,
    "Ġclos": 9838,
    "Ġdeed": 9839,
    "Ġhides": 9840,
    "Ġscared": 9841,
    "Ġprotecting": 9842,
    "Ġmonkeys": 9843,
    "Fin": 9844,
    "Ġsetting": 9845,
    "Ġflavors": 9846,
    "ster": 9847,
    "Fo": 9848,
    "angled": 9849,
    "Ġgasped": 9850,
    "orted": 9851,
    "Ġtalked": 9852,
    "Ġgift": 9853,
    "ĠYoga": 9854,
    "Ġfl": 9855,
    "head": 9856,
    "using": 9857,
    "ĠSu": 9858,
    "Ġreal": 9859,
    "Ġtool": 9860,
    "ĠLee": 9861,
    "Boys": 9862,
    "Pinky": 9863,
    "Ġthrone": 9864,
    "Ġbuck": 9865,
    "Ġequipment": 9866,
    "Ġarrest": 9867,
    "Ġmelody": 9868,
    "at": 9869,
    "Ġsnugg": 9870,
    "Ġchipmunk": 9871,
    "Ġmagnifying": 9872,
    "Ġrustling": 9873,
    "Ġpassen": 9874,
    "Ġbirthday": 9875,
    "Ġflown": 9876,
    "Ow": 9877,
    "Ġblinked": 9878,
    "wise": 9879,
    "Ġrout": 9880,
    "ĠElsie": 9881,
    "utor": 9882,
    "Ġclapping": 9883,
    "Ġthis": 9884,
    "Ġbox": 9885,
    "Ġflo": 9886,
    "ĠI": 9887,
    "Ġbrakes": 9888,
    "ĠCook": 9889,
    "Ġwork": 9890,
    "Finn": 9891,
    "Ġrhino": 9892,
    "Ġfloated": 9893,
    "Ġcotton": 9894,
    "Ġexclaimed": 9895,
    "Ġbathing": 9896,
    "Ex": 9897,
    "ĠQuickly": 9898,
    "Thomas": 9899,
    "urple": 9900,
    "ĠMoon": 9901,
    "ĠQu": 9902,
    "bank": 9903,
    "Ġwhen": 9904,
    "Ġcase": 9905,
    "acock": 9906,
    "ĠFlopsy": 9907,
    "Ġcub": 9908,
    "Ġteaspoon": 9909,
    "Ġcrew": 9910,
    "Ġcomp": 9911,
    "host": 9912,
    "Ġadult": 9913,
    "Ġstudents": 9914,
    "Ġinj": 9915,
    "com": 9916,
    "Ġcontrol": 9917,
    "Ġdefinitely": 9918,
    "xible": 9919,
    "Frank": 9920,
    "Ġclock": 9921,
    "Ġcont": 9922,
    "Ġspills": 9923,
    "ĠSqueaky": 9924,
    "ĠOpen": 9925,
    "Ġdust": 9926,
    "Ġunite": 9927,
    "Ġyell": 9928,
    "ĠJelly": 9929,
    "ort": 9930,
    "ĠBrownie": 9931,
    "Ġrecogn": 9932,
    "Ġmoms": 9933,
    "Ġruin": 9934,
    "ĠSara": 9935,
    "iced": 9936,
    "Climb": 9937,
    "Ġdrown": 9938,
    "st": 9939,
    "Ġmeadow": 9940,
    "cuse": 9941,
    "Ġcouch": 9942,
    "Ġsilent": 9943,
    "Ġslowed": 9944,
    "ĠWant": 9945,
    "Cindy": 9946,
    "abbit": 9947,
    "Ġpapers": 9948,
    "Frog": 9949,
    "\".": 9950,
    "Ġneighbor": 9951,
    "Ġsimply": 9952,
    "Ġsnacks": 9953,
    "!'.": 9954,
    "Ġswirl": 9955,
    "ĠPick": 9956,
    "Ġpillow": 9957,
    "we": 9958,
    "Ġwaffle": 9959,
    "ç": 9960,
    "Ġbowls": 9961,
    "ĠBirdie": 9962,
    "Ġrainy": 9963,
    "Ġteased": 9964,
    "Ġfork": 9965,
    "vin": 9966,
    "Ġmanage": 9967,
    "Ġstaying": 9968,
    "Ġstare": 9969,
    "Ġburst": 9970,
    "Eww": 9971,
    "Ġresponded": 9972,
    "Ġcandle": 9973,
    "Ġdeser": 9974,
    "¸": 9975,
    "Ġadm": 9976,
    "Ġcalmer": 9977,
    "Ġwind": 9978,
    "Ġparties": 9979,
    "Ġarm": 9980,
    "ouse": 9981,
    "Ġdictionary": 9982,
    "shm": 9983,
    "Ġprin": 9984,
    "ĠKate": 9985,
    "Ġsaf": 9986,
    "âĢĿ.": 9987,
    "Bless": 9988,
    "?\",": 9989,
    "Ġwal": 9990,
    "Ġmatter": 9991,
    "Ġtelescope": 9992,
    "ched": 9993,
    "Ġanimals": 9994,
    "Ġbeard": 9995,
    "Ġbright": 9996,
    "Ġprecious": 9997,
    "Ġlibrary": 9998,
    "Ġcamel": 9999
}