{
    "Ġselfish": 0,
    "ily": 1,
    "Ġworries": 2,
    "ĠUniversity": 3,
    "Ġforg": 4,
    "Ġde": 5,
    "ricane": 6,
    "ĠHave": 7,
    "Ġgasp": 8,
    "ĠBree": 9,
    "Ġexact": 10,
    "artled": 11,
    "Ġuniversity": 12,
    "Ġadvent": 13,
    "ĠJohnny": 14,
    "Ġear": 15,
    "Ġhard": 16,
    "ĠCD": 17,
    "Ġseagull": 18,
    "Ġprom": 19,
    "screen": 20,
    "Ġlaw": 21,
    "Ġanger": 22,
    "ĵ": 23,
    "Ġlab": 24,
    "Ġsqu": 25,
    "Ġsto": 26,
    "ĠOlive": 27,
    "Ġbeating": 28,
    "ĠOwl": 29,
    "Ġtwel": 30,
    "Ġrabbits": 31,
    "Ġcraw": 32,
    "Ġblin": 33,
    "angaroo": 34,
    "Ġrelieved": 35,
    "Ġscram": 36,
    "urity": 37,
    "ishing": 38,
    "Ġbones": 39,
    "Ġhungry": 40,
    "Ġchain": 41,
    "freeze": 42,
    "Ġtrans": 43,
    "Ros": 44,
    "Ġand": 45,
    "Ġround": 46,
    "Ġnatural": 47,
    "Ġwindowsill": 48,
    "Ġtrack": 49,
    "Ġdictionary": 50,
    "Ġeverybody": 51,
    "ĠStan": 52,
    "Ġrepeated": 53,
    "Ġramp": 54,
    "Ġclick": 55,
    "Ġo": 56,
    "ĠQuick": 57,
    "ß": 58,
    "Ġsewed": 59,
    "Ġspong": 60,
    "arter": 61,
    "Ġquizzes": 62,
    "the": 63,
    "Ġclicked": 64,
    "Ġmedic": 65,
    "Ġadd": 66,
    "Ġmembers": 67,
    "Ġladder": 68,
    "oscope": 69,
    "Ġgoggles": 70,
    "Ê": 71,
    "ĠJoan": 72,
    "Ġmother": 73,
    "Ġcute": 74,
    "Ġstudents": 75,
    "Ball": 76,
    "iscuit": 77,
    "Ġusing": 78,
    "Ġdisplay": 79,
    "Ġscra": 80,
    "Ġzipper": 81,
    "Ġhum": 82,
    "Three": 83,
    "Ġvel": 84,
    "Ġtalk": 85,
    "ĠQ": 86,
    "edding": 87,
    "Ġspells": 88,
    "Ġloop": 89,
    "Ġleg": 90,
    "cer": 91,
    "Momo": 92,
    "Ġmor": 93,
    "Ġbathed": 94,
    "rin": 95,
    "Ġwrapped": 96,
    "Ġrestless": 97,
    "ĠTry": 98,
    "Ġpleaded": 99,
    "Whose": 100,
    "asy": 101,
    "ased": 102,
    ":": 103,
    "Ġpian": 104,
    "Ġeast": 105,
    "htray": 106,
    "Ġmattered": 107,
    "ided": 108,
    "cakes": 109,
    "Ġcups": 110,
    "Binky": 111,
    "Ġwipe": 112,
    "Ġpulling": 113,
    "ĠAbbie": 114,
    "Ġfather": 115,
    "!âĢĻ": 116,
    "ept": 117,
    "ĠIsn": 118,
    "Suddenly": 119,
    "Tr": 120,
    "Ġbrushing": 121,
    "Ġregular": 122,
    "Ġlibrary": 123,
    "Ġzebras": 124,
    "Those": 125,
    "Ġthen": 126,
    "Ġif": 127,
    "Ġpetals": 128,
    "Ġmember": 129,
    "ĠW": 130,
    "all": 131,
    "Ġsurrender": 132,
    "ĠJody": 133,
    "ĠQuack": 134,
    "Ġpistol": 135,
    "Ġever": 136,
    "Jump": 137,
    "Ġhig": 138,
    "bb": 139,
    "ccoli": 140,
    "Ġproper": 141,
    "Ġmachine": 142,
    "Ġbellies": 143,
    "Ġhumming": 144,
    "'re": 145,
    "hest": 146,
    "ĠBlink": 147,
    "Ġfright": 148,
    "Ġsurface": 149,
    "Maggie": 150,
    "Ġmuscles": 151,
    "Ġhardest": 152,
    "ĠâĢľ": 153,
    "Ġclimb": 154,
    "lcan": 155,
    "Ġher": 156,
    "Ġsmiles": 157,
    "Spe": 158,
    "Ġnails": 159,
    "hed": 160,
    "Ġlocks": 161,
    "oke": 162,
    "Ġvictory": 163,
    "Ġvanilla": 164,
    "Ġprotection": 165,
    "Ġmoon": 166,
    "Ġcomplaining": 167,
    "Ġerase": 168,
    "Ġwiped": 169,
    "Ġbutterflies": 170,
    "Ġrinsed": 171,
    "ndma": 172,
    "Ġtoddler": 173,
    "Ġguess": 174,
    "Ġpressing": 175,
    "Ġyielded": 176,
    "Ġdonkey": 177,
    "Ġgoo": 178,
    "Ġgiggling": 179,
    "Ġpeanut": 180,
    "Ġdem": 181,
    "Ġscreaming": 182,
    "ĠRock": 183,
    "Ġcomplain": 184,
    "ies": 185,
    "!\"": 186,
    "Ġpowers": 187,
    "Ġstepped": 188,
    "Ġplayer": 189,
    "Ġbarely": 190,
    "ĠGreeny": 191,
    "ĠWhenever": 192,
    "opter": 193,
    "Ġbreaks": 194,
    "Ġplanned": 195,
    "ĠSadly": 196,
    "stairs": 197,
    "Ġcand": 198,
    "uess": 199,
    "Ġstructures": 200,
    "Ġanxious": 201,
    "Ġarr": 202,
    "Ġpuddle": 203,
    "Ġface": 204,
    "Ġoffice": 205,
    "Ġwent": 206,
    "Ġlot": 207,
    "Ġflow": 208,
    "ival": 209,
    "ĠMandy": 210,
    "Ġstruggled": 211,
    "Ġchirping": 212,
    "ĠDay": 213,
    "OO": 214,
    "Ġadm": 215,
    "ĠAnimal": 216,
    "anted": 217,
    "Ġrip": 218,
    "ĠOutside": 219,
    "inky": 220,
    "ri": 221,
    "Ġhaving": 222,
    "Ġpopping": 223,
    "Ġplanted": 224,
    "Ġignoring": 225,
    "ĠSamantha": 226,
    "Ġsupp": 227,
    "Ġwee": 228,
    "Ġseesaw": 229,
    "Ġwandered": 230,
    "ilda": 231,
    "Ġinst": 232,
    "Ġunderstand": 233,
    "ĠUnder": 234,
    "Ġleaf": 235,
    "gar": 236,
    "Ġseen": 237,
    "ass": 238,
    "µ": 239,
    "Ġharmless": 240,
    "ĠSqueaky": 241,
    "Ġdeclared": 242,
    "O": 243,
    "Ġtwirled": 244,
    "edient": 245,
    "Ġhairdresser": 246,
    "Ġshouldn": 247,
    "Ġgranted": 248,
    "Ġpin": 249,
    "Ġstomachs": 250,
    "Ġpumpkins": 251,
    "Ġjudge": 252,
    "Ġfuel": 253,
    "Ġwhispering": 254,
    "ato": 255,
    "rm": 256,
    "Finn": 257,
    "Dave": 258,
    "Ġlace": 259,
    "Ġchose": 260,
    "ĠWink": 261,
    "ock": 262,
    "erpiece": 263,
    "ĠRay": 264,
    "ĠPick": 265,
    "Ġdeserved": 266,
    "Ġsandw": 267,
    "aken": 268,
    "ĠJane": 269,
    "no": 270,
    "Ġlevel": 271,
    "ĠSp": 272,
    "Ġpatted": 273,
    "Ġmen": 274,
    "ĠHoot": 275,
    "Ġgest": 276,
    "Ġgratitude": 277,
    "Ġimmediately": 278,
    "Ġcir": 279,
    "Ġcreativity": 280,
    "Ġcry": 281,
    "Ġbow": 282,
    "Ġvict": 283,
    "Ġpeeks": 284,
    "Ġsquish": 285,
    "Ġbirdcage": 286,
    "Ġchocol": 287,
    "ĠMaggie": 288,
    "ĠBeth": 289,
    "Ġgathering": 290,
    "Ġsilent": 291,
    "omed": 292,
    "Ġperf": 293,
    "Ġrods": 294,
    "Ġswept": 295,
    "Ġstudent": 296,
    "Ġfavour": 297,
    "ĠAnimals": 298,
    "Ġwatching": 299,
    "Ġwheels": 300,
    "hing": 301,
    "Ġtiss": 302,
    "Surpr": 303,
    "Ġsafe": 304,
    "air": 305,
    "Ru": 306,
    "Keep": 307,
    "Ġluckily": 308,
    "Ġcity": 309,
    "Ġfuture": 310,
    "ĠMilly": 311,
    "Ġding": 312,
    "¦": 313,
    "Ġhand": 314,
    "Ġinv": 315,
    "ones": 316,
    "ost": 317,
    "Ġtrash": 318,
    "lf": 319,
    "Ħ": 320,
    "akes": 321,
    "Ġsneaky": 322,
    "Ġstage": 323,
    "Ġdepend": 324,
    "umpy": 325,
    "Ġsorted": 326,
    "ĠLung": 327,
    "ĠBubu": 328,
    "Ġgoing": 329,
    "Ġadmit": 330,
    "Ġdisappointed": 331,
    "Ġhook": 332,
    "All": 333,
    "Ġsw": 334,
    "Ġdough": 335,
    "art": 336,
    "Ġtrading": 337,
    "Ġcarpet": 338,
    "ĠSundays": 339,
    "repe": 340,
    "Ġuseful": 341,
    "B": 342,
    "isible": 343,
    "Ġf": 344,
    "Ġsuccess": 345,
    "Ġhippo": 346,
    "Ew": 347,
    "val": 348,
    "Ġthere": 349,
    "alloween": 350,
    "Ġsaving": 351,
    "Ġshivered": 352,
    "Ġfa": 353,
    "Ġknife": 354,
    "ĠMath": 355,
    "sw": 356,
    "Ġbathing": 357,
    "Ġcooks": 358,
    "ow": 359,
    "ef": 360,
    "Ġambulance": 361,
    "ork": 362,
    "ĠFlick": 363,
    "Ġbelongs": 364,
    "htub": 365,
    "ĠRosa": 366,
    "Ġcrunch": 367,
    "Suzy": 368,
    "Ġbicycles": 369,
    "Ĺ": 370,
    "ĠBeep": 371,
    "i": 372,
    "Ġstung": 373,
    "Very": 374,
    "Ĩ": 375,
    "Soon": 376,
    "unk": 377,
    "Ġexciting": 378,
    "Ġsweetly": 379,
    "ĠWil": 380,
    "Ġsever": 381,
    "ĠCoby": 382,
    "ĠAfter": 383,
    "Ġfiref": 384,
    "que": 385,
    "E": 386,
    "Ġal": 387,
    "Ġdrawn": 388,
    "ĠSome": 389,
    "Ġeyes": 390,
    "Ù": 391,
    "Ġint": 392,
    "Ġsets": 393,
    "Ġthief": 394,
    "Ġenjoying": 395,
    "ĠRose": 396,
    "Ġpale": 397,
    "dom": 398,
    "Ġrewarding": 399,
    "Ġkeeps": 400,
    "Be": 401,
    "Ġdollar": 402,
    "Ġimages": 403,
    "Ġsailed": 404,
    "Ġgifted": 405,
    "Ġhanger": 406,
    "ĠHere": 407,
    "Ġapologize": 408,
    "ĠSlowly": 409,
    "Ġquarreling": 410,
    "ĠPr": 411,
    "Ġ-": 412,
    "Ġstupid": 413,
    "Ġbadger": 414,
    "Ġdinosaur": 415,
    "Ġyourself": 416,
    "Ġfeed": 417,
    "dest": 418,
    "esome": 419,
    "Ġunw": 420,
    "=": 421,
    "Ġfar": 422,
    "ĠP": 423,
    "Ġyell": 424,
    "Ġcrystals": 425,
    "Ġdi": 426,
    "ĠDad": 427,
    "host": 428,
    "Ġcousin": 429,
    "Ġtrips": 430,
    "Ġreward": 431,
    "He": 432,
    "ĠStar": 433,
    "Ġcooper": 434,
    "ĠGod": 435,
    "Ġafford": 436,
    "Ġsauce": 437,
    "ĠPop": 438,
    "Ġgathered": 439,
    "Ro": 440,
    "Ķ": 441,
    "Ġsorry": 442,
    "Ġtails": 443,
    "Ġpebbles": 444,
    "red": 445,
    "Ġmoms": 446,
    "Ġpeeking": 447,
    "rup": 448,
    "Snowy": 449,
    "Ġsupport": 450,
    "Ġachieved": 451,
    "Ġhur": 452,
    "Ġfrost": 453,
    "Ġdancing": 454,
    "Ġret": 455,
    "Ġparties": 456,
    "Ġteaches": 457,
    "Ġdriving": 458,
    "Ġcartoons": 459,
    "ĠCr": 460,
    "ĠSocky": 461,
    "aven": 462,
    "Ġacted": 463,
    "ores": 464,
    "Ġpirates": 465,
    "Ġscattering": 466,
    "Ġchicks": 467,
    "aurant": 468,
    "Ġthemselves": 469,
    "Silly": 470,
    "Ġdears": 471,
    "Ġbudge": 472,
    "Ġfootsteps": 473,
    "ached": 474,
    "Ġmore": 475,
    "Ġsack": 476,
    "amond": 477,
    "Ġcreatures": 478,
    "Ġgained": 479,
    "Ġslapped": 480,
    "Ġrhin": 481,
    "Ġspirit": 482,
    "Ġprotecting": 483,
    "Ġbound": 484,
    "Ġclum": 485,
    "ision": 486,
    "Toby": 487,
    "Ġmaterials": 488,
    "ĠThis": 489,
    "adow": 490,
    "Ġtrusts": 491,
    "Ġfis": 492,
    "Ġseashe": 493,
    "Ġtucked": 494,
    "ĠDoes": 495,
    "Ġpictures": 496,
    "Ġdead": 497,
    "ĠMel": 498,
    "ĠMoon": 499,
    "Ġcompass": 500,
    "ub": 501,
    "Ġbaskets": 502,
    "Ġhope": 503,
    "indr": 504,
    "Ġgonna": 505,
    "ourn": 506,
    "Ġstolen": 507,
    "Ġsaus": 508,
    "Ġfilm": 509,
    "Ġhitting": 510,
    "Ġhelped": 511,
    "Ġhurting": 512,
    "Ġtearing": 513,
    "Ġac": 514,
    "ining": 515,
    "Ġrats": 516,
    "Ġmagic": 517,
    "iced": 518,
    "Ġdecorate": 519,
    "ogn": 520,
    "ĠSince": 521,
    "ĠPeep": 522,
    "Ġtwisting": 523,
    "Jim": 524,
    "Ġcared": 525,
    "Ġcond": 526,
    "Ġreally": 527,
    "Ġpaintings": 528,
    "Ġmine": 529,
    "Ġbark": 530,
    "ix": 531,
    "Before": 532,
    "Ġbowed": 533,
    "¨": 534,
    "Ġworking": 535,
    "ĠTheir": 536,
    "Ġadult": 537,
    "aby": 538,
    "Ġstrokes": 539,
    "Ġkayak": 540,
    "Ġsweetheart": 541,
    "Ġendings": 542,
    "fully": 543,
    "Ġbanan": 544,
    "Ġdec": 545,
    "Watch": 546,
    "Ġleap": 547,
    "Ġsurround": 548,
    "ĠKay": 549,
    "aring": 550,
    "Ġchased": 551,
    "Ġpassengers": 552,
    "Ġlanding": 553,
    "Ġwaters": 554,
    "You": 555,
    "ĠLucky": 556,
    "cycles": 557,
    "Ġcourse": 558,
    "Ġfin": 559,
    "Ġimpress": 560,
    "azor": 561,
    "Ġdiscover": 562,
    "Ġonwards": 563,
    "ssy": 564,
    "Ġzipped": 565,
    "more": 566,
    "Ġdestro": 567,
    "Ġshines": 568,
    "Ġpretends": 569,
    "utes": 570,
    "d": 571,
    "Ġtoe": 572,
    "amed": 573,
    "Ġtruth": 574,
    "ifer": 575,
    "Ġdads": 576,
    "Ġprov": 577,
    "Ġbounced": 578,
    "ĠNever": 579,
    "Ġsunny": 580,
    "ry": 581,
    "irst": 582,
    "Ġbutterf": 583,
    "Ġgrass": 584,
    "Ġhonked": 585,
    "ĠMira": 586,
    "Ġinch": 587,
    "its": 588,
    "Ġswam": 589,
    "Oops": 590,
    "Ġracer": 591,
    "Ġfocused": 592,
    "ĠMus": 593,
    "Ġsleeps": 594,
    "ĠBen": 595,
    "chair": 596,
    "chievous": 597,
    "aug": 598,
    "iki": 599,
    "ĠGiant": 600,
    "Ġseveral": 601,
    "Ġsmartest": 602,
    "Ġremoved": 603,
    "ĠToto": 604,
    "Ġrever": 605,
    "Ġatt": 606,
    "Ġswimmer": 607,
    "Ġbreakfast": 608,
    "rest": 609,
    "Ġrac": 610,
    "Daisy": 611,
    "Ġcries": 612,
    "urniture": 613,
    "Ġspits": 614,
    "Ġguessed": 615,
    "Ġteleph": 616,
    "Ġnext": 617,
    "Ġgoodbye": 618,
    "Ġpinched": 619,
    "ĠMix": 620,
    "ĠBa": 621,
    "imb": 622,
    "Ġwoods": 623,
    "ĠSofty": 624,
    "Ġsus": 625,
    "ĠLots": 626,
    "armer": 627,
    "Ġtemp": 628,
    "Ġspoke": 629,
    "Ġwords": 630,
    "Ġfarther": 631,
    "Ġfrog": 632,
    "sey": 633,
    "ĠTogether": 634,
    "Ġboo": 635,
    "Ġhider": 636,
    "Ġtune": 637,
    "aw": 638,
    "Ġtom": 639,
    "Ġinfant": 640,
    "Ġpraised": 641,
    "Ġtrampoline": 642,
    "Ġfilthy": 643,
    "ĠDavey": 644,
    "Ġrhythm": 645,
    "Ġcush": 646,
    "pect": 647,
    "Ġguit": 648,
    "Ġsleds": 649,
    "aggie": 650,
    "irth": 651,
    "Ġwhen": 652,
    "seum": 653,
    "Ġprincesses": 654,
    "Ġcats": 655,
    "he": 656,
    "Ġtomatoes": 657,
    "Ġis": 658,
    "Ġprints": 659,
    "Mittens": 660,
    "ĠMay": 661,
    "Ġalley": 662,
    "usie": 663,
    "Ġworms": 664,
    "ises": 665,
    "Ġignor": 666,
    "ĠFaye": 667,
    "icing": 668,
    "Ġanticipation": 669,
    "een": 670,
    "Ġbeds": 671,
    "Ġheaded": 672,
    "Ġputs": 673,
    "ĠEveryone": 674,
    "era": 675,
    "Ġdish": 676,
    "iky": 677,
    "ĠGray": 678,
    "Ġattacked": 679,
    "Ġwound": 680,
    "Ġdishwasher": 681,
    "ere": 682,
    "ountain": 683,
    "Ġforgiveness": 684,
    "Ġgetting": 685,
    "Ġap": 686,
    "unes": 687,
    "be": 688,
    "Ġmermaid": 689,
    "Happy": 690,
    "Ġglided": 691,
    "Ġsu": 692,
    "Ă": 693,
    "Many": 694,
    "Ġwilling": 695,
    "Ġsharks": 696,
    "abra": 697,
    "Ġappreciate": 698,
    "ĠTwist": 699,
    "Ġyummy": 700,
    "Ġripe": 701,
    "Ġbuilder": 702,
    "Ġguy": 703,
    "Ġshore": 704,
    "Ġplaced": 705,
    "Ġmind": 706,
    "Ġfilling": 707,
    "Ġitems": 708,
    "Ġinvitation": 709,
    "Ġsear": 710,
    "Ġjoin": 711,
    "acy": 712,
    "Ġfile": 713,
    "Ġraised": 714,
    "Ġblue": 715,
    "Ahh": 716,
    "ĠSun": 717,
    "inted": 718,
    "Ġsimp": 719,
    "ctor": 720,
    "Ġcopied": 721,
    "eal": 722,
    "Ġent": 723,
    "Ġcurious": 724,
    "Ġneeds": 725,
    "Ġcooking": 726,
    "Ġbattle": 727,
    "Ġannounced": 728,
    "Ġswooped": 729,
    "ą": 730,
    "Ġgro": 731,
    "we": 732,
    "Ġchairs": 733,
    "Ġtri": 734,
    "Ġwherever": 735,
    "Dino": 736,
    "Ġacce": 737,
    "Ġgoodbyes": 738,
    "-": 739,
    "Ġdoctor": 740,
    "Time": 741,
    "ĠPup": 742,
    "arted": 743,
    "Ġapron": 744,
    "ĠLike": 745,
    "Ġteachers": 746,
    "Ġpassen": 747,
    "Ġlanguages": 748,
    "Ġfireflies": 749,
    "dded": 750,
    "ĠSmith": 751,
    "ing": 752,
    "ĠNot": 753,
    "ĠThomas": 754,
    "ĠJake": 755,
    "Ġsupplies": 756,
    "Ġartist": 757,
    "Ġcutting": 758,
    "ul": 759,
    "ge": 760,
    "Ġqueen": 761,
    "ĠGracie": 762,
    "Ġroars": 763,
    "ent": 764,
    "Ġactivity": 765,
    "Ġgrand": 766,
    "Ġsisters": 767,
    "Fl": 768,
    "Ġty": 769,
    "Ġcaterpillar": 770,
    "Q": 771,
    "Ġfeather": 772,
    "Ġberries": 773,
    "Ġuniforms": 774,
    "Ġtantrum": 775,
    "Ġsparkly": 776,
    "Ġuntied": 777,
    "ium": 778,
    "Ġsister": 779,
    "Ġneedle": 780,
    "Ġbehave": 781,
    "oming": 782,
    "Ġpeacock": 783,
    "Ah": 784,
    "Ġskip": 785,
    "Ġminds": 786,
    "ĠPeter": 787,
    "aged": 788,
    "Ġcleaning": 789,
    "Ġstraw": 790,
    "Ġsuperheroes": 791,
    "Ġting": 792,
    "cast": 793,
    "Ġcover": 794,
    "Little": 795,
    "Ġreflection": 796,
    "Ġtoug": 797,
    "...": 798,
    "Ġhive": 799,
    "ĠSnake": 800,
    "Ġruined": 801,
    "Ġpuzzled": 802,
    "ĠNora": 803,
    "Sam": 804,
    "Ġantic": 805,
    "Ġshouting": 806,
    "ĠAmber": 807,
    "Ġdestroy": 808,
    "Ġprovided": 809,
    "ĠOff": 810,
    "Ġinvited": 811,
    "Ġentered": 812,
    "ĠTwo": 813,
    "Ġlad": 814,
    "Ġcovering": 815,
    "ac": 816,
    "ĠPrincess": 817,
    "Ġgerms": 818,
    "Ġmight": 819,
    "Ġears": 820,
    "rec": 821,
    "solutely": 822,
    "Ġwandering": 823,
    "°": 824,
    "Ġrising": 825,
    "lower": 826,
    "Ġfing": 827,
    "Ġwriggled": 828,
    "Ġancient": 829,
    "erp": 830,
    "icopter": 831,
    "orter": 832,
    "Ġintroduced": 833,
    "Ġsuggestion": 834,
    "Ġseason": 835,
    "Ġrecording": 836,
    "Ġpath": 837,
    "Ġattem": 838,
    "iling": 839,
    "most": 840,
    "Ġdistant": 841,
    "Ġthan": 842,
    "Ġgrabbing": 843,
    "Ġweekend": 844,
    "Ġsnapping": 845,
    "Ġstand": 846,
    "ight": 847,
    "Ġquestions": 848,
    "Ġexpress": 849,
    "Ġfruit": 850,
    "Ġnine": 851,
    "Ġspinning": 852,
    "Ġfreedom": 853,
    "gr": 854,
    "Ġavailable": 855,
    "T": 856,
    "Ġlovely": 857,
    "P": 858,
    "Ġaccidents": 859,
    "atch": 860,
    "ĠLina": 861,
    "Ġbig": 862,
    "lem": 863,
    "Ġnew": 864,
    "ibb": 865,
    "Ġwhatever": 866,
    "Ġsettle": 867,
    "Ġclay": 868,
    "Ġwaiter": 869,
    "!'": 870,
    "Ġfond": 871,
    "Ġgroaned": 872,
    "Ġcheering": 873,
    "Ġbrilliant": 874,
    "Ġdelivered": 875,
    "Ellie": 876,
    "Ġcalmer": 877,
    "Remember": 878,
    "ĠThen": 879,
    "Liz": 880,
    "ane": 881,
    "Ġsprink": 882,
    "fted": 883,
    "Ġmirr": 884,
    "Ġwouldn": 885,
    "Ġbouncing": 886,
    "Ġkicking": 887,
    "Ġsurroundings": 888,
    "ĠPrince": 889,
    "ĠJudge": 890,
    "ety": 891,
    "Ġmakeup": 892,
    "Hoppy": 893,
    "ĠBro": 894,
    "anwhile": 895,
    "ik": 896,
    "ivi": 897,
    "Rocky": 898,
    "ement": 899,
    "ĠRobbie": 900,
    "ĠElla": 901,
    "Ġpins": 902,
    "Ġcrawls": 903,
    "izzy": 904,
    "aved": 905,
    "Ġmelon": 906,
    "sed": 907,
    "ilk": 908,
    "Ġrainco": 909,
    "Ġcheetah": 910,
    "play": 911,
    "Ġstains": 912,
    "Ġble": 913,
    "Ġgrumpy": 914,
    "Ġphone": 915,
    "Ġpresented": 916,
    "ĠEl": 917,
    "ĠBecky": 918,
    "æ": 919,
    "Ġtrusted": 920,
    "Emma": 921,
    "ora": 922,
    "Ġincrease": 923,
    "Boys": 924,
    "Ralph": 925,
    "Ġjump": 926,
    "Pe": 927,
    "Ġshade": 928,
    "Here": 929,
    "ĠFor": 930,
    "ull": 931,
    "Ġmust": 932,
    "Ġlock": 933,
    "Ġpot": 934,
    "eorge": 935,
    "Ġlap": 936,
    "Ġdisappear": 937,
    "Ġbackward": 938,
    "Ġpearls": 939,
    "ĠOn": 940,
    "Ġgives": 941,
    "corn": 942,
    "boo": 943,
    "Ġcage": 944,
    "ĠOther": 945,
    "Near": 946,
    "Ġz": 947,
    "urse": 948,
    "usion": 949,
    "Ġsadder": 950,
    "Ġsquaw": 951,
    "Ġdoors": 952,
    "Ġscrambled": 953,
    "Ġexit": 954,
    "etchup": 955,
    "arlie": 956,
    "Ġbrightly": 957,
    "Ġbaked": 958,
    "Ġwre": 959,
    "mered": 960,
    "Squ": 961,
    "Ġthese": 962,
    "Because": 963,
    "olog": 964,
    ",âĢĿ": 965,
    "cher": 966,
    "ve": 967,
    "Ġhigher": 968,
    "Ġpuppet": 969,
    "Ġfive": 970,
    "Ġcrisp": 971,
    "Ġmean": 972,
    "emy": 973,
    "ĠComet": 974,
    "aughty": 975,
    "Ġwishing": 976,
    "Ġkangaroo": 977,
    "Ġcounter": 978,
    "Ġisn": 979,
    "Ġshared": 980,
    "romise": 981,
    "Ġdaisies": 982,
    "Ġlog": 983,
    "Ġbott": 984,
    "Ġchill": 985,
    "Ġfailed": 986,
    "Ġintellig": 987,
    "uddenly": 988,
    "Ġload": 989,
    "Ġcab": 990,
    "Ġchooses": 991,
    "veal": 992,
    "1": 993,
    "Ġeats": 994,
    "ays": 995,
    "age": 996,
    "Ġswimsuits": 997,
    "ĠBig": 998,
    "ilet": 999,
    "ĠTim": 1000,
    "ĠSal": 1001,
    "ĠPhil": 1002,
    "Ġreversed": 1003,
    "Ġtreated": 1004,
    "ĠBarry": 1005,
    "cles": 1006,
    "agull": 1007,
    "Ġcreak": 1008,
    "Ġswans": 1009,
    "Goodnight": 1010,
    "Ġswimming": 1011,
    "Ġmel": 1012,
    "Ġreturned": 1013,
    "Ġcreek": 1014,
    "Ġcherries": 1015,
    "Ġsad": 1016,
    "Ġorder": 1017,
    "Ġturtle": 1018,
    "Ġcuddles": 1019,
    "Ġconsider": 1020,
    "Every": 1021,
    "Sunny": 1022,
    "Ġsteth": 1023,
    "Ġglad": 1024,
    "work": 1025,
    "Ġrainbow": 1026,
    "Ġrelie": 1027,
    "Ġwires": 1028,
    "and": 1029,
    "Ġengine": 1030,
    "Ġkangaroos": 1031,
    "Ġhouses": 1032,
    "ĠJack": 1033,
    "Today": 1034,
    "ĠMatch": 1035,
    "Ġfair": 1036,
    "ire": 1037,
    "Ġunl": 1038,
    "Ġmesses": 1039,
    "ĠTaking": 1040,
    "How": 1041,
    "Ġexpression": 1042,
    "ocular": 1043,
    "ink": 1044,
    "Ġcut": 1045,
    "ĠPeace": 1046,
    "tt": 1047,
    "Ġloose": 1048,
    "ister": 1049,
    "Ġfeet": 1050,
    "uctantly": 1051,
    "Ġlo": 1052,
    "ĠDan": 1053,
    "Ġsurprised": 1054,
    "Ġpretend": 1055,
    "Ġsail": 1056,
    "ure": 1057,
    "keep": 1058,
    "ĠSharp": 1059,
    "osed": 1060,
    "Ġarms": 1061,
    "Ġflashed": 1062,
    "ido": 1063,
    "ivity": 1064,
    "cidents": 1065,
    "ken": 1066,
    "av": 1067,
    "Ġsend": 1068,
    "Ġbeaver": 1069,
    "hog": 1070,
    "iar": 1071,
    "Ġalready": 1072,
    "Ġdelay": 1073,
    "Ġborrow": 1074,
    "Ġimagination": 1075,
    "Ġmemory": 1076,
    "Ġclimbs": 1077,
    "istle": 1078,
    "ĠFighting": 1079,
    "Ġmag": 1080,
    "ammy": 1081,
    "Ġclo": 1082,
    "Ġyaw": 1083,
    "Tina": 1084,
    "dge": 1085,
    "Ġwell": 1086,
    "Ġrare": 1087,
    "uggles": 1088,
    "Ġdug": 1089,
    "ĠHer": 1090,
    "Ġinstrument": 1091,
    "Ġfinding": 1092,
    "ooky": 1093,
    "Ġgor": 1094,
    "Ġnectar": 1095,
    "Ġwhale": 1096,
    "Ġwadd": 1097,
    "Yes": 1098,
    "Ġstamped": 1099,
    "Ġwraps": 1100,
    "otter": 1101,
    "chie": 1102,
    "ĠJust": 1103,
    "elly": 1104,
    "icious": 1105,
    "Ġinvest": 1106,
    "®": 1107,
    "Ġblushed": 1108,
    "Ġjack": 1109,
    "Guess": 1110,
    "Ġcatching": 1111,
    "ĠOr": 1112,
    "Ġdin": 1113,
    "Ġbadge": 1114,
    "Ġspark": 1115,
    "web": 1116,
    "Ġsucceed": 1117,
    "Freeze": 1118,
    "ĠCare": 1119,
    "ë": 1120,
    "Ġcompleted": 1121,
    "iet": 1122,
    "Ġiron": 1123,
    "pping": 1124,
    "anna": 1125,
    "Ġswims": 1126,
    "Ġwiggled": 1127,
    "Ġposter": 1128,
    "Ġbouquet": 1129,
    "ĠJoey": 1130,
    "Ġjam": 1131,
    "Ġsleeping": 1132,
    "Ġresponsibility": 1133,
    "omes": 1134,
    "Ġreplied": 1135,
    "Ġreverse": 1136,
    "Ġtravelling": 1137,
    "Ġreass": 1138,
    "mies": 1139,
    "Ġsnowfl": 1140,
    "ĠBubba": 1141,
    "ses": 1142,
    "Ġspending": 1143,
    "ĠAnn": 1144,
    "iz": 1145,
    "ec": 1146,
    "Ġsuff": 1147,
    "Ġpapa": 1148,
    "ĠWhy": 1149,
    "Ġstomped": 1150,
    "af": 1151,
    "ĠTruck": 1152,
    "Ġunlocked": 1153,
    "Ġgun": 1154,
    "iversity": 1155,
    "Ġgloomy": 1156,
    "Ġdoves": 1157,
    "enry": 1158,
    "St": 1159,
    "Ġdaring": 1160,
    "Sad": 1161,
    "Ġdreams": 1162,
    "Ġgold": 1163,
    "ten": 1164,
    "Ġsnowmen": 1165,
    "Ġswaying": 1166,
    "Ġrelease": 1167,
    "con": 1168,
    "hny": 1169,
    "ĠStep": 1170,
    "g": 1171,
    "Ġvisited": 1172,
    "Ġaprons": 1173,
    "Ġto": 1174,
    "Ġforgi": 1175,
    "Ġelderly": 1176,
    "Ġcostumes": 1177,
    "Ġyoga": 1178,
    "alf": 1179,
    "Ġwool": 1180,
    "Ġzebra": 1181,
    "Ġapplaud": 1182,
    "Ġresp": 1183,
    "fere": 1184,
    "ro": 1185,
    "Ġspoiling": 1186,
    "Ġolive": 1187,
    "ike": 1188,
    "ello": 1189,
    "G": 1190,
    "ĠTurt": 1191,
    "igi": 1192,
    "Ġbattery": 1193,
    "ard": 1194,
    "Ġherb": 1195,
    "Ġmuseum": 1196,
    "Ġoverwhelmed": 1197,
    "ĠThese": 1198,
    "ĠRemember": 1199,
    "Ġencou": 1200,
    "Ġpushing": 1201,
    "Ġastronauts": 1202,
    "Ġown": 1203,
    "Ġmild": 1204,
    "angle": 1205,
    "Ġkneel": 1206,
    "Ġgloves": 1207,
    "ĠUni": 1208,
    "Ġhesit": 1209,
    "ging": 1210,
    "Ġshapes": 1211,
    "ĠCat": 1212,
    "Ġships": 1213,
    "Ġcarries": 1214,
    "Ġsuccessfully": 1215,
    "Ġve": 1216,
    "Ġbite": 1217,
    "sc": 1218,
    "Ġanchor": 1219,
    "Đ": 1220,
    "Ġcompete": 1221,
    "Ġsurfboard": 1222,
    "ra": 1223,
    "ars": 1224,
    "Ġskies": 1225,
    "Ġwizard": 1226,
    "rat": 1227,
    "Henry": 1228,
    "±": 1229,
    "Ġdragged": 1230,
    "Ġcast": 1231,
    "Ġval": 1232,
    "ĠLila": 1233,
    "Ġink": 1234,
    "Ġpiano": 1235,
    "Ġme": 1236,
    "Ġpersist": 1237,
    "anged": 1238,
    "Ġcounts": 1239,
    "Ġexplain": 1240,
    "Ġby": 1241,
    "Ġcreations": 1242,
    "Ġmiddle": 1243,
    "Ġadorable": 1244,
    "izzie": 1245,
    "ĠFarmer": 1246,
    "Ġrug": 1247,
    "ay": 1248,
    "umbled": 1249,
    "ign": 1250,
    "Is": 1251,
    "Ġcongratul": 1252,
    "Sophia": 1253,
    "Ġyour": 1254,
    "ĠMany": 1255,
    "Ġcertain": 1256,
    "emies": 1257,
    "hole": 1258,
    "Share": 1259,
    "Ġdriveway": 1260,
    "Ġtype": 1261,
    "Ġrepa": 1262,
    "Ex": 1263,
    "Ġmarching": 1264,
    "Ġmanage": 1265,
    "ĠCandy": 1266,
    "Ġstayed": 1267,
    "ĠĠ": 1268,
    "Ġho": 1269,
    "hew": 1270,
    "ĠRh": 1271,
    "Ġyumm": 1272,
    "Ġsalty": 1273,
    "Ġsteady": 1274,
    "Ġbehind": 1275,
    "Ġexclaimed": 1276,
    "Ġstops": 1277,
    "ĠLaser": 1278,
    "Ġliquid": 1279,
    "oring": 1280,
    "Try": 1281,
    "ave": 1282,
    "Ġtracks": 1283,
    "irpy": 1284,
    "Ġtricky": 1285,
    "²": 1286,
    "ictionary": 1287,
    "Ġropes": 1288,
    "igning": 1289,
    "Ġgr": 1290,
    "Ġhorn": 1291,
    "Ġmagnet": 1292,
    "Ġdecorated": 1293,
    "ill": 1294,
    "Instead": 1295,
    "Ġintelligent": 1296,
    "yd": 1297,
    "Ġspears": 1298,
    "Ġmoral": 1299,
    "Ġoverjoyed": 1300,
    "set": 1301,
    "Ġarrives": 1302,
    "Ġconflict": 1303,
    "Ġstreamers": 1304,
    "Ġdry": 1305,
    "ved": 1306,
    "ellie": 1307,
    "aty": 1308,
    "Ġnecklaces": 1309,
    "Ġexc": 1310,
    "ĠWhee": 1311,
    "Ġneighb": 1312,
    "ouch": 1313,
    "Ġlon": 1314,
    "Ġblew": 1315,
    "Bessie": 1316,
    "noon": 1317,
    "Ġvase": 1318,
    "ould": 1319,
    "ive": 1320,
    "aker": 1321,
    "ushed": 1322,
    "Ġtask": 1323,
    "Ġdance": 1324,
    "Ġswe": 1325,
    "Ġgross": 1326,
    "Ġblame": 1327,
    "Ġcompassion": 1328,
    "Ġhooves": 1329,
    "Bear": 1330,
    "ĠBlinky": 1331,
    "Ġmaybe": 1332,
    "Ġvi": 1333,
    "ĠY": 1334,
    "Ġkinder": 1335,
    "ĠBy": 1336,
    "Ġawful": 1337,
    "rnie": 1338,
    "ulp": 1339,
    "Ġmem": 1340,
    "ins": 1341,
    "fortable": 1342,
    "Ġtape": 1343,
    "urch": 1344,
    "enty": 1345,
    "Ġsug": 1346,
    "Ġtale": 1347,
    "rod": 1348,
    "See": 1349,
    "Ġmeow": 1350,
    "Ġbet": 1351,
    "ature": 1352,
    "Ġcookie": 1353,
    "Ġbeet": 1354,
    ",": 1355,
    "Ġbreeze": 1356,
    "Ġgrowled": 1357,
    "Ġkneeling": 1358,
    "Ġcalls": 1359,
    "Ġchew": 1360,
    "sty": 1361,
    "Ġpinch": 1362,
    "Ġbas": 1363,
    "Ġlaund": 1364,
    "Ġunless": 1365,
    "Ġsniff": 1366,
    "Ġsure": 1367,
    "Ġnewspapers": 1368,
    "Ġburns": 1369,
    "Ġpicked": 1370,
    "Ġusually": 1371,
    "Ġpark": 1372,
    "Ġrode": 1373,
    "Ġmints": 1374,
    "Ġdriver": 1375,
    "Ġquite": 1376,
    "Ġrays": 1377,
    "F": 1378,
    "Ġignored": 1379,
    "Ġmuffin": 1380,
    "Ġyourselves": 1381,
    "ely": 1382,
    "Ġtwigs": 1383,
    "Ġed": 1384,
    "Sarah": 1385,
    "Ġolder": 1386,
    "Ġattaching": 1387,
    "ird": 1388,
    "ĠJulia": 1389,
    "orsie": 1390,
    "Ġjust": 1391,
    "year": 1392,
    "ì": 1393,
    "Sweet": 1394,
    "ore": 1395,
    "Ġindependent": 1396,
    "Ġmoonlight": 1397,
    "venir": 1398,
    "Ġcactus": 1399,
    "Ġpetted": 1400,
    "Ġmatter": 1401,
    "kn": 1402,
    "Ġsheets": 1403,
    "sorry": 1404,
    "Ġearly": 1405,
    "Ġlooks": 1406,
    "Ġexcite": 1407,
    "Ġfog": 1408,
    "ĠYoga": 1409,
    "ĠChip": 1410,
    "Ġbumping": 1411,
    "ĠOtherwise": 1412,
    "Ġdeterm": 1413,
    "Ġprettiest": 1414,
    "ĠFroggy": 1415,
    "Gigi": 1416,
    "Ġharsh": 1417,
    "ich": 1418,
    "Ġmatt": 1419,
    "emma": 1420,
    "Only": 1421,
    "Ġthorn": 1422,
    "Her": 1423,
    "Ġjar": 1424,
    "omeday": 1425,
    "Ġbeard": 1426,
    "read": 1427,
    "Ġproudly": 1428,
    "Ġattractive": 1429,
    "ĠSh": 1430,
    "Ġswirl": 1431,
    "Ġtrumpet": 1432,
    "Ġstu": 1433,
    "Ġtrade": 1434,
    "Ġappreci": 1435,
    "Ġfloat": 1436,
    "Ġscrews": 1437,
    "Jane": 1438,
    "Ġcowb": 1439,
    "ied": 1440,
    "Ġcarrying": 1441,
    "Ġwake": 1442,
    "Ġminded": 1443,
    "Ġcracks": 1444,
    "ĠSasha": 1445,
    "Ġwoke": 1446,
    "Ġboats": 1447,
    "ĠFrom": 1448,
    "Ġnurse": 1449,
    "lers": 1450,
    "Lizzie": 1451,
    "Ġradio": 1452,
    "oey": 1453,
    "Abracadabra": 1454,
    "Ġtalked": 1455,
    "Too": 1456,
    "More": 1457,
    "ouquet": 1458,
    "ĠBessie": 1459,
    "Ġelephant": 1460,
    "Ġtire": 1461,
    "king": 1462,
    "ĠTed": 1463,
    "Ġguesses": 1464,
    "dile": 1465,
    "Ġbarks": 1466,
    "Ġmaze": 1467,
    "Ġbye": 1468,
    "Ġbumped": 1469,
    "ter": 1470,
    "Ġjazz": 1471,
    "Ġsafely": 1472,
    "Ġchar": 1473,
    "Ġraining": 1474,
    "usan": 1475,
    "Ġsco": 1476,
    "Ġsitu": 1477,
    "Ġwhimp": 1478,
    "ĠPinch": 1479,
    "ĠUp": 1480,
    "Ġstare": 1481,
    "ĠJilly": 1482,
    "Ġsends": 1483,
    "Still": 1484,
    "Ġtaking": 1485,
    "Use": 1486,
    "Ġcuriosity": 1487,
    "Ġmyster": 1488,
    "ĠBrian": 1489,
    "ĠSadie": 1490,
    "Ġearthquake": 1491,
    "Ġbarked": 1492,
    "prin": 1493,
    "Ġactiv": 1494,
    "Ġstaying": 1495,
    "Ġbeeped": 1496,
    "cus": 1497,
    "Ġtoys": 1498,
    "ching": 1499,
    "Ġhelpers": 1500,
    "elvet": 1501,
    "Ġpuddles": 1502,
    "Ġextra": 1503,
    "Ġbrushes": 1504,
    "Ġusual": 1505,
    "Ġspoonful": 1506,
    "iew": 1507,
    "Ġcub": 1508,
    "Ġcolorful": 1509,
    "Ġtouches": 1510,
    "Ġbirthday": 1511,
    "ol": 1512,
    "ĠFix": 1513,
    "ĠHops": 1514,
    "ĠShark": 1515,
    "Ġsyrup": 1516,
    "Ġcharm": 1517,
    "Ġcollapsed": 1518,
    "Ġpant": 1519,
    "Ġmagaz": 1520,
    "vel": 1521,
    "ĠMy": 1522,
    "yond": 1523,
    "ĠCoal": 1524,
    "Car": 1525,
    "è": 1526,
    "ĠBella": 1527,
    "iddle": 1528,
    "Ġdid": 1529,
    "ĠHold": 1530,
    "Ġbeef": 1531,
    "Ġpaints": 1532,
    "Ġseed": 1533,
    "ĠAlly": 1534,
    "ans": 1535,
    "Ġmagnets": 1536,
    "ģ": 1537,
    "munk": 1538,
    "Ġbl": 1539,
    "mie": 1540,
    "ĠBug": 1541,
    "Ġhides": 1542,
    "Ġtremb": 1543,
    "Ġfaint": 1544,
    "Ġvillagers": 1545,
    "vant": 1546,
    "apers": 1547,
    "Ġrescuing": 1548,
    "Ġspice": 1549,
    "go": 1550,
    "Ġtast": 1551,
    "Ġjugg": 1552,
    "Ġpower": 1553,
    "Ġmuddy": 1554,
    "reat": 1555,
    "Ġmeals": 1556,
    "Ġdisag": 1557,
    "Ġru": 1558,
    "coa": 1559,
    "hind": 1560,
    "Ġvegetable": 1561,
    "Ġcubs": 1562,
    "ggy": 1563,
    "Ġflour": 1564,
    "Ġknowledge": 1565,
    "ning": 1566,
    "ĠIce": 1567,
    "¼": 1568,
    "Ġpill": 1569,
    "Ġpotato": 1570,
    "Ġwreck": 1571,
    "ĠYummy": 1572,
    "Ġastronaut": 1573,
    "Ġgirls": 1574,
    "irsty": 1575,
    "Ġshowing": 1576,
    "Ġgiven": 1577,
    "Ġdangers": 1578,
    "Rosie": 1579,
    "Ġstudy": 1580,
    "Ġconfident": 1581,
    "Ġshopkeeper": 1582,
    "Ġcreams": 1583,
    "Ġgardens": 1584,
    "Ġeggs": 1585,
    "Ġit": 1586,
    "Ġdisg": 1587,
    "o": 1588,
    "ĠOK": 1589,
    "Ġcord": 1590,
    "Ġleaking": 1591,
    "Ġmanager": 1592,
    "Ġaccidentally": 1593,
    "Ġaction": 1594,
    "Ġsprayed": 1595,
    "Ġgain": 1596,
    "Ġpuzz": 1597,
    "rrr": 1598,
    "Ġstacked": 1599,
    "Ġbirdc": 1600,
    "Ġsandbox": 1601,
    "Ġcliff": 1602,
    "Abby": 1603,
    "Ġperched": 1604,
    "Ġsnaps": 1605,
    "Ġcalm": 1606,
    "Ġsurv": 1607,
    "Ġmake": 1608,
    "Mama": 1609,
    "ged": 1610,
    "Ġpicks": 1611,
    "Ġwarrior": 1612,
    "Ġequipment": 1613,
    "rs": 1614,
    "Ġsweaty": 1615,
    "Ġstacking": 1616,
    "ait": 1617,
    "Ġshelter": 1618,
    "Ġloo": 1619,
    "ugging": 1620,
    "Ġfantastic": 1621,
    "There": 1622,
    "ĠRudy": 1623,
    "Ġreef": 1624,
    "Ġchildren": 1625,
    "ĠZip": 1626,
    "ĠMommy": 1627,
    "Ġgentle": 1628,
    "onnie": 1629,
    "Grace": 1630,
    "Fin": 1631,
    "Ġbeg": 1632,
    "ĠAnna": 1633,
    "uffin": 1634,
    "ebook": 1635,
    "Fo": 1636,
    "Ġlie": 1637,
    "Ġlifted": 1638,
    "Ġbreathing": 1639,
    "ĠPiggy": 1640,
    "anger": 1641,
    "Ġdinner": 1642,
    "Ġclock": 1643,
    "Ġdoggy": 1644,
    "idy": 1645,
    "Ġpir": 1646,
    "agine": 1647,
    "Ġobser": 1648,
    "how": 1649,
    "Ġtests": 1650,
    "Ġvillage": 1651,
    "Ġkid": 1652,
    "Ġchip": 1653,
    "ĠHello": 1654,
    "Ġcarrot": 1655,
    "Ġpills": 1656,
    "Ġpoking": 1657,
    "Ġwhat": 1658,
    "Ġenthusia": 1659,
    "Ġpra": 1660,
    "Ġapart": 1661,
    "Ġalmost": 1662,
    "Ġthud": 1663,
    "Ġdeep": 1664,
    "Ġcloths": 1665,
    "Ġcook": 1666,
    "ower": 1667,
    "Ġpainful": 1668,
    "Ġpancakes": 1669,
    "ye": 1670,
    "Ġsnuck": 1671,
    "Ġchips": 1672,
    "ĠFelix": 1673,
    "Ġhunter": 1674,
    "Ġsomebody": 1675,
    "ĠPot": 1676,
    "Ġflame": 1677,
    "Ġseeker": 1678,
    "illy": 1679,
    "Ġdances": 1680,
    "Ġcrowns": 1681,
    "¿": 1682,
    "Ġbandage": 1683,
    "Ġsymbol": 1684,
    "Ġwho": 1685,
    "osen": 1686,
    "Ġclue": 1687,
    "Ġanswered": 1688,
    "imed": 1689,
    "Ġfew": 1690,
    "Fred": 1691,
    "ĠSe": 1692,
    "eor": 1693,
    "Ġallow": 1694,
    "ĠGrump": 1695,
    "ĠRiri": 1696,
    "Ġlied": 1697,
    "Ġpaw": 1698,
    "Ġplaying": 1699,
    "Ġcape": 1700,
    "Ġyield": 1701,
    "Ġ''": 1702,
    "Take": 1703,
    "Ġreach": 1704,
    "Ġmice": 1705,
    "Ġplayroom": 1706,
    "ĠOt": 1707,
    "Ġrotten": 1708,
    "Ġponies": 1709,
    "Ġwa": 1710,
    "Ġscolds": 1711,
    "Ġroar": 1712,
    "Ġreapp": 1713,
    "Ġzookeeper": 1714,
    "Ġsnowball": 1715,
    "Ġneighbours": 1716,
    "Ġtwisty": 1717,
    "Ġlamp": 1718,
    "Ġr": 1719,
    "ended": 1720,
    "Ġapplauding": 1721,
    "Ġfoam": 1722,
    "Ġple": 1723,
    "Ġnearest": 1724,
    "ĠWin": 1725,
    "´": 1726,
    "Ġtired": 1727,
    "Ġeager": 1728,
    "Ġtwelve": 1729,
    "Bu": 1730,
    "arlotte": 1731,
    "Ġsneaks": 1732,
    "Ġfork": 1733,
    "Ġchamber": 1734,
    "Ġthank": 1735,
    "Ġadmiring": 1736,
    "ĠBrown": 1737,
    "Ġla": 1738,
    "Ġtighter": 1739,
    "Ġshell": 1740,
    "Ġorganize": 1741,
    "dy": 1742,
    "die": 1743,
    "Ġscent": 1744,
    "Ġnewsp": 1745,
    "Ġempty": 1746,
    "ĠAli": 1747,
    "Ġposit": 1748,
    "Ġslam": 1749,
    "Ġgigg": 1750,
    "Ġadventurous": 1751,
    "Ġtwinkled": 1752,
    "Ġbleeding": 1753,
    "Ġbiggest": 1754,
    "Ġclut": 1755,
    "ae": 1756,
    "ĠRos": 1757,
    "Ġloyalty": 1758,
    "ica": 1759,
    "bbers": 1760,
    "Ġcreat": 1761,
    "Ġshinier": 1762,
    "urnit": 1763,
    "Ġreply": 1764,
    "Ġon": 1765,
    "Ļ": 1766,
    "ider": 1767,
    "Ġrespon": 1768,
    "irp": 1769,
    "Ġexp": 1770,
    "Ġscared": 1771,
    "Ġpup": 1772,
    "Ġrude": 1773,
    "ĠMissile": 1774,
    "Ġmos": 1775,
    "Ġtool": 1776,
    "Ġhurry": 1777,
    "Ġsleepy": 1778,
    "itty": 1779,
    "Ġbuttons": 1780,
    "Ġfaster": 1781,
    "Ġwiggly": 1782,
    "po": 1783,
    "Ġstrum": 1784,
    "Ġclothes": 1785,
    "kele": 1786,
    "Ġbrains": 1787,
    "Ġlearner": 1788,
    "Ġrushing": 1789,
    "Ġstripes": 1790,
    "Ġfriendships": 1791,
    "match": 1792,
    "ĠSparky": 1793,
    "Ġs": 1794,
    "ĠRicky": 1795,
    "Ġoffering": 1796,
    "ĠCurious": 1797,
    "Ġsausage": 1798,
    "Ġdear": 1799,
    "Ġdefinitely": 1800,
    "Ġhas": 1801,
    "Ġtheater": 1802,
    "pe": 1803,
    "Ġzip": 1804,
    "Ġmummy": 1805,
    "ĠLooking": 1806,
    "Ġbossy": 1807,
    "Ġhoping": 1808,
    "Ġdark": 1809,
    "Ġwarmly": 1810,
    "Ġcrops": 1811,
    "ella": 1812,
    "xt": 1813,
    "Ġsunlight": 1814,
    "Ġpee": 1815,
    "Ġgrape": 1816,
    "Ġfu": 1817,
    "Ġmarch": 1818,
    "Ġbetter": 1819,
    "ades": 1820,
    "Ġjungle": 1821,
    "Ġdrain": 1822,
    "Ġgray": 1823,
    "Ġkeeping": 1824,
    "Ġlaying": 1825,
    "aster": 1826,
    "Ġrespond": 1827,
    "Why": 1828,
    "Ġsnee": 1829,
    "Ġwore": 1830,
    "Ġtasks": 1831,
    "Ġfever": 1832,
    "Ġoffer": 1833,
    "âĢĶ": 1834,
    "Ġgall": 1835,
    "Ġfrom": 1836,
    "col": 1837,
    "ue": 1838,
    "Ġunpack": 1839,
    "uddles": 1840,
    "erries": 1841,
    ".'": 1842,
    "ĠDolly": 1843,
    "Ġonly": 1844,
    "Ġmoat": 1845,
    "ĠWhale": 1846,
    "Steve": 1847,
    "Ġgranddaughter": 1848,
    "ĠLisa": 1849,
    "Ġcereal": 1850,
    "Eventually": 1851,
    "xy": 1852,
    "Ġmama": 1853,
    "ĠJulie": 1854,
    "Ġcapt": 1855,
    "Ġmitten": 1856,
    "Welcome": 1857,
    "Ġgasps": 1858,
    "Ġhanging": 1859,
    "Ġblinked": 1860,
    "Ġuncomfortable": 1861,
    "ym": 1862,
    "aud": 1863,
    "Ġbull": 1864,
    "ĠNice": 1865,
    "Ġdisappointment": 1866,
    "igg": 1867,
    "Ġthought": 1868,
    "Ġhome": 1869,
    "Ġalright": 1870,
    "off": 1871,
    "Ġrewards": 1872,
    "Ġsnat": 1873,
    "oto": 1874,
    "aul": 1875,
    "ĠWhen": 1876,
    "Mimi": 1877,
    "Ġsingle": 1878,
    "atient": 1879,
    "tuce": 1880,
    "Ġsuc": 1881,
    "ĠWooly": 1882,
    "Ġundone": 1883,
    "Ġsandwich": 1884,
    "isted": 1885,
    "ap": 1886,
    "Ġlectures": 1887,
    "Ġfloated": 1888,
    "Ġwhisper": 1889,
    "yle": 1890,
    "Ġplanes": 1891,
    "Ġfluffy": 1892,
    "Ġcubes": 1893,
    "'.": 1894,
    "Ġputting": 1895,
    "Ġshouted": 1896,
    "Maybe": 1897,
    "Ġadded": 1898,
    "Ġbut": 1899,
    "Ġproblem": 1900,
    "Ġbeak": 1901,
    "Ġke": 1902,
    "aff": 1903,
    "Gra": 1904,
    "Ġdesserts": 1905,
    "ĠMomo": 1906,
    "Ġdespite": 1907,
    "Leo": 1908,
    "Ġmistakes": 1909,
    "Ġinstantly": 1910,
    "Ġplan": 1911,
    "Ġscrubbed": 1912,
    "Ġblooms": 1913,
    "ilo": 1914,
    "ĠGabby": 1915,
    "ĠAbi": 1916,
    "onies": 1917,
    "ĠJeff": 1918,
    "Ġbamboo": 1919,
    "Ġtomorrow": 1920,
    "Ġbends": 1921,
    "Ġdifference": 1922,
    "Ġsights": 1923,
    "ect": 1924,
    "lies": 1925,
    "ĠCopper": 1926,
    "ĠHarry": 1927,
    "Ġcact": 1928,
    "ĠTweety": 1929,
    "urricane": 1930,
    "ong": 1931,
    "Ġdire": 1932,
    "Ġwashed": 1933,
    "ĠDee": 1934,
    "ump": 1935,
    "Ġribb": 1936,
    "Ġdancer": 1937,
    "ĠAnother": 1938,
    "Ġlettuce": 1939,
    "Ġoy": 1940,
    "Ġsnuggle": 1941,
    "ĠTra": 1942,
    "To": 1943,
    "tle": 1944,
    "Ġrespected": 1945,
    "ifully": 1946,
    "Ġnight": 1947,
    "Ġspies": 1948,
    "iles": 1949,
    "oomy": 1950,
    "Ġsunflowers": 1951,
    "Ġroll": 1952,
    "Ġsobbed": 1953,
    "Ġlent": 1954,
    "saw": 1955,
    "Ġhuge": 1956,
    "ĠJay": 1957,
    "!âĢĿ.": 1958,
    "ĠQuickly": 1959,
    "Ġstored": 1960,
    "Ġinc": 1961,
    "Ġnumber": 1962,
    "Zoom": 1963,
    "oor": 1964,
    "Ġswirls": 1965,
    "Ġbicycle": 1966,
    "Ġhatch": 1967,
    "Ġwind": 1968,
    "Zip": 1969,
    "Ġproperly": 1970,
    "Ġcuc": 1971,
    "Tree": 1972,
    "rac": 1973,
    "Ġclot": 1974,
    "cky": 1975,
    "Ġhats": 1976,
    "ĠVroom": 1977,
    "Ġalso": 1978,
    "Ġexplored": 1979,
    "Ġjewelry": 1980,
    "Ġunh": 1981,
    "Ġany": 1982,
    "Ġtwo": 1983,
    "Ġsearching": 1984,
    "Ġseparate": 1985,
    "isa": 1986,
    "Ġprick": 1987,
    "Poppy": 1988,
    "Ġthumb": 1989,
    "Ġmoving": 1990,
    "Ġfield": 1991,
    "ief": 1992,
    "Luna": 1993,
    "Ġwow": 1994,
    "ĠImmediately": 1995,
    "Ġwarmer": 1996,
    "ĠGlow": 1997,
    "Ġyet": 1998,
    "ĠBrownie": 1999,
    "Ġmixer": 2000,
    "Ġunlocking": 2001,
    "Sara": 2002,
    "Ġumbrella": 2003,
    "Ġsunrise": 2004,
    "Ġmarve": 2005,
    "Ġagree": 2006,
    "ted": 2007,
    "Ġbeep": 2008,
    "Ġlapt": 2009,
    "imi": 2010,
    "ape": 2011,
    "Ġcircles": 2012,
    "Ġcoffee": 2013,
    "ĠPretty": 2014,
    "Ġclose": 2015,
    "ael": 2016,
    "Ġadventures": 2017,
    "Ġmeasuring": 2018,
    "Ď": 2019,
    "Ġtrain": 2020,
    "aded": 2021,
    "Ġsafer": 2022,
    "Ġcoug": 2023,
    "ĠPaws": 2024,
    "Ġattic": 2025,
    "Ġobe": 2026,
    "Ġcrazy": 2027,
    "Ġbreath": 2028,
    "Ġweather": 2029,
    "Ġlarger": 2030,
    "Ġwise": 2031,
    "ĠThe": 2032,
    "Ġwags": 2033,
    "Ann": 2034,
    "arp": 2035,
    "Ġamazed": 2036,
    "ove": 2037,
    "Ġstronger": 2038,
    "Ġcabin": 2039,
    "Ġcalled": 2040,
    "Ġbowing": 2041,
    "L": 2042,
    "Ġhaird": 2043,
    "upt": 2044,
    "Ġfest": 2045,
    "Ġroaring": 2046,
    "Ġanswering": 2047,
    "Ġpeeped": 2048,
    "Ġladybug": 2049,
    "That": 2050,
    "allen": 2051,
    "Ġowner": 2052,
    "Ġjogging": 2053,
    "Ġtummy": 2054,
    "Ġlunch": 2055,
    "Ġwaste": 2056,
    "Ġswung": 2057,
    "Ġshow": 2058,
    "Ġpoint": 2059,
    "Ġbal": 2060,
    "Re": 2061,
    "ĠWe": 2062,
    "Ġphot": 2063,
    "elt": 2064,
    "rie": 2065,
    "Ġout": 2066,
    "Ġspot": 2067,
    "Ġsmooth": 2068,
    "ĠWisdom": 2069,
    "Sometimes": 2070,
    "inny": 2071,
    "s": 2072,
    "Ġdisagree": 2073,
    "Ġshape": 2074,
    "Ġpotatoes": 2075,
    "ĠOw": 2076,
    "Ġcl": 2077,
    "ĠJoy": 2078,
    "Ġluggage": 2079,
    "ĠLoop": 2080,
    "Ġminerals": 2081,
    "Ġnicer": 2082,
    "Ġgeese": 2083,
    "Ġtricks": 2084,
    "Ġlearnt": 2085,
    "Ġfurniture": 2086,
    "Ġprobably": 2087,
    "ĠEnjoy": 2088,
    "Ġlawn": 2089,
    "Doggy": 2090,
    "rough": 2091,
    "ist": 2092,
    "ĠWolf": 2093,
    "ĠLet": 2094,
    "Ġzooming": 2095,
    "Ġhero": 2096,
    "ĠRex": 2097,
    "Ġstrongest": 2098,
    "land": 2099,
    "Ġemb": 2100,
    "hero": 2101,
    "Ġfet": 2102,
    "Ġroom": 2103,
    "umb": 2104,
    "Ġbus": 2105,
    "ĠYour": 2106,
    "Ġfigures": 2107,
    "Ġlots": 2108,
    "Ġupside": 2109,
    "Ġarrest": 2110,
    "Ġchecked": 2111,
    "ccol": 2112,
    "Ġspear": 2113,
    "ain": 2114,
    "Ġteamwork": 2115,
    "Quick": 2116,
    "ror": 2117,
    "using": 2118,
    "Ġaeroplanes": 2119,
    "Ġthieves": 2120,
    "ĠIf": 2121,
    "ĠAlways": 2122,
    "angled": 2123,
    "Ġstealing": 2124,
    "Ġcomfortable": 2125,
    "abby": 2126,
    "Ġbillboard": 2127,
    "Ġoysters": 2128,
    "Ġexcept": 2129,
    "ward": 2130,
    "Ġhearing": 2131,
    "ĠSnuggles": 2132,
    "Ġdial": 2133,
    "Ġfish": 2134,
    "vin": 2135,
    "ipping": 2136,
    "Ġmischievous": 2137,
    "Ġglowed": 2138,
    "Ġhun": 2139,
    "Ġsofter": 2140,
    "Ġpolishing": 2141,
    "Ġcomput": 2142,
    "resses": 2143,
    "Friends": 2144,
    "Ġje": 2145,
    "Ġprinting": 2146,
    "Ġsinger": 2147,
    "Ġwatered": 2148,
    "Ġpurple": 2149,
    "ĠEmma": 2150,
    "ailable": 2151,
    "ĠDeal": 2152,
    "ite": 2153,
    "Ġreaching": 2154,
    "Ġinto": 2155,
    "ĠBirdie": 2156,
    "Ġcoloring": 2157,
    "pa": 2158,
    "Ġdrown": 2159,
    "Ġparent": 2160,
    "Ġtrucks": 2161,
    "Ġheel": 2162,
    "Ġche": 2163,
    "Ġwrink": 2164,
    "Ġvideo": 2165,
    "Ġexperiences": 2166,
    "Ġsocks": 2167,
    "Ġstamp": 2168,
    "Ġsold": 2169,
    "Ġbloom": 2170,
    "Ġmach": 2171,
    "Ġknit": 2172,
    "Ġslice": 2173,
    "Ġdep": 2174,
    "Ġwondering": 2175,
    "ù": 2176,
    "ĠYawn": 2177,
    "umes": 2178,
    "Ġsparkles": 2179,
    "Ġfaced": 2180,
    "Lily": 2181,
    "Ġplays": 2182,
    "ĠViolet": 2183,
    "Ġscreen": 2184,
    "Ġsav": 2185,
    "And": 2186,
    "Ġalone": 2187,
    "Ġtid": 2188,
    "ĠEmily": 2189,
    "Ġmerma": 2190,
    "Ġc": 2191,
    "Ġurge": 2192,
    "Ġoperation": 2193,
    "Ġhesitant": 2194,
    "Ġhedgehog": 2195,
    "Ġeas": 2196,
    "ĠAshley": 2197,
    "lu": 2198,
    "Ġsweetest": 2199,
    "Ġmess": 2200,
    "Ġbeaut": 2201,
    "Ġtank": 2202,
    "Ġdel": 2203,
    "Ġcrib": 2204,
    "Ġanticip": 2205,
    "Ġreg": 2206,
    "Lola": 2207,
    "å": 2208,
    "Ġfinally": 2209,
    "Ġfig": 2210,
    "Ġsandcastle": 2211,
    "ĠShow": 2212,
    "Ġclip": 2213,
    "Ġalways": 2214,
    "asp": 2215,
    "Ġsweater": 2216,
    "Sure": 2217,
    "ĠPlay": 2218,
    "Ġthu": 2219,
    "Sadly": 2220,
    "ĠLia": 2221,
    "ragon": 2222,
    "ĠJe": 2223,
    "ĠDoctor": 2224,
    "Jill": 2225,
    "lls": 2226,
    "Ġapolog": 2227,
    "Ġcolder": 2228,
    "Ġpillow": 2229,
    "ons": 2230,
    "Ġseal": 2231,
    "lla": 2232,
    "Ġpeaceful": 2233,
    "Ġembarrass": 2234,
    "Ġwindows": 2235,
    "ĠNothing": 2236,
    "Ġzips": 2237,
    "Ġcountryside": 2238,
    "Ġkicks": 2239,
    "ĠMad": 2240,
    ")": 2241,
    "Ġdrive": 2242,
    "Ġincreased": 2243,
    "Ġend": 2244,
    "Ġforward": 2245,
    "Ġtube": 2246,
    "Ġate": 2247,
    "Ġsoft": 2248,
    "ant": 2249,
    "Ġleading": 2250,
    "Ġbit": 2251,
    "Mikey": 2252,
    "From": 2253,
    "Ġfound": 2254,
    "Ġconcer": 2255,
    "looking": 2256,
    "Ġtoilet": 2257,
    "Ġop": 2258,
    "Ġguests": 2259,
    "vy": 2260,
    "Ġattention": 2261,
    "Ġweek": 2262,
    "isty": 2263,
    "Ġknob": 2264,
    "Ġstir": 2265,
    "men": 2266,
    "ĠMilo": 2267,
    "Ġhanding": 2268,
    "ĠPoor": 2269,
    "ney": 2270,
    "Ġsteering": 2271,
    "isten": 2272,
    "Ġexercises": 2273,
    "Ġwoman": 2274,
    "Ġmeasured": 2275,
    "ĠHop": 2276,
    "½": 2277,
    "Ġtongue": 2278,
    "Ġpay": 2279,
    "Ġslimy": 2280,
    "ĠMr": 2281,
    "Ġsigns": 2282,
    "Ġsprout": 2283,
    "Ġcupcake": 2284,
    "Ġsighed": 2285,
    "Ġbricks": 2286,
    "ĠOkay": 2287,
    "Ġstorms": 2288,
    "Ġsock": 2289,
    "es": 2290,
    "Ġchanged": 2291,
    "Ġviolin": 2292,
    "Ġsupply": 2293,
    "unately": 2294,
    "Ġman": 2295,
    "ĠWinky": 2296,
    "Ġexchange": 2297,
    "Ġfinish": 2298,
    "Ġaf": 2299,
    "ating": 2300,
    "Ġshoot": 2301,
    "ĠRoar": 2302,
    "Ġeffort": 2303,
    "ĠâĢĺ": 2304,
    "Ġlotion": 2305,
    "Ġsight": 2306,
    "Ġcousins": 2307,
    "Ġstomach": 2308,
    "Ġmagnif": 2309,
    "ĠLuckily": 2310,
    ",'": 2311,
    "Ġconvers": 2312,
    "Ġlarge": 2313,
    "Ġraincoat": 2314,
    "Ġdripping": 2315,
    "ences": 2316,
    "asure": 2317,
    "Ġdelighted": 2318,
    "Ġraces": 2319,
    "Ġcher": 2320,
    "Ġstool": 2321,
    "Ġbold": 2322,
    "Ġsteel": 2323,
    "ĠRobo": 2324,
    "Ġtheirs": 2325,
    "Ġpiles": 2326,
    "Ġseem": 2327,
    "Ġalligator": 2328,
    "Ġhelping": 2329,
    "Tilly": 2330,
    "Tom": 2331,
    "Ġdeser": 2332,
    "Ġblocking": 2333,
    "Ġstacks": 2334,
    "ĠPandy": 2335,
    "Ġthrowing": 2336,
    "Ġtaught": 2337,
    "Lilly": 2338,
    "Ġcatches": 2339,
    "you": 2340,
    "round": 2341,
    "They": 2342,
    "amboo": 2343,
    "Ġrevealed": 2344,
    "Ġanytime": 2345,
    "ate": 2346,
    "ches": 2347,
    "ors": 2348,
    "ĠHalloween": 2349,
    "Ġpiggy": 2350,
    "Ġrake": 2351,
    "Ġfacing": 2352,
    "Ġmelody": 2353,
    "ually": 2354,
    "Ġchipmunk": 2355,
    "Ġshort": 2356,
    "Don": 2357,
    "Mother": 2358,
    "Ġpassing": 2359,
    "Ġwolves": 2360,
    "Ġavoc": 2361,
    "Ġdolphin": 2362,
    "Ġbreathe": 2363,
    "ĠSanta": 2364,
    "Ġbrace": 2365,
    "ĠKaren": 2366,
    "der": 2367,
    "Ġfour": 2368,
    "reed": 2369,
    "ĠJu": 2370,
    "Ġstretched": 2371,
    "Ġmix": 2372,
    "Ġdrivers": 2373,
    "sers": 2374,
    "Ġcrown": 2375,
    "agic": 2376,
    "Ġpaper": 2377,
    "Ġscore": 2378,
    "Fluffy": 2379,
    "Ġcuts": 2380,
    "Ġcob": 2381,
    "Ġcrushed": 2382,
    "ĠRocky": 2383,
    "te": 2384,
    "Ġhears": 2385,
    "oom": 2386,
    "Ġarrive": 2387,
    "Pepper": 2388,
    "rew": 2389,
    "Ġcomple": 2390,
    "ĠDotty": 2391,
    "Ġwander": 2392,
    "Ġground": 2393,
    "Ġflowers": 2394,
    "Ġjoyful": 2395,
    "but": 2396,
    "epend": 2397,
    "Ġparts": 2398,
    "ĠMixie": 2399,
    "Ġdeliver": 2400,
    "Ġpush": 2401,
    "Ġg": 2402,
    "Ġwhole": 2403,
    "âĢ": 2404,
    "ison": 2405,
    "Ġalive": 2406,
    "Ġpan": 2407,
    "Ġbreak": 2408,
    "Ġstun": 2409,
    "Ġthrew": 2410,
    "ĠJoke": 2411,
    "First": 2412,
    "Anna": 2413,
    "Millie": 2414,
    "Ġlizards": 2415,
    "ĠMarie": 2416,
    "Ġtwirl": 2417,
    "Ġconnected": 2418,
    "Ġpebble": 2419,
    "Alex": 2420,
    "Ġheight": 2421,
    "Ġobserved": 2422,
    "hings": 2423,
    "Ġmoves": 2424,
    "ĠToys": 2425,
    "Ġchatting": 2426,
    "Ġfields": 2427,
    "Ġbees": 2428,
    "#": 2429,
    "Ġlearns": 2430,
    "Ġunderstood": 2431,
    "ĠFire": 2432,
    "ĠClean": 2433,
    "Ġbump": 2434,
    "Ġcheeks": 2435,
    "ĠClimb": 2436,
    "Ġaware": 2437,
    "ā": 2438,
    "Ġpracticed": 2439,
    "Ġanimals": 2440,
    "xygen": 2441,
    "Ġwo": 2442,
    "Ġsandwiches": 2443,
    "ormous": 2444,
    "Ġprepared": 2445,
    "child": 2446,
    "Ġflown": 2447,
    "Ġimprove": 2448,
    "Ġmixture": 2449,
    "Ġchance": 2450,
    "÷": 2451,
    "ĠWhere": 2452,
    "ĠGrandpa": 2453,
    "ĠOllie": 2454,
    "bling": 2455,
    "zed": 2456,
    "icy": 2457,
    "onest": 2458,
    "Ġweap": 2459,
    "Ġaccomplished": 2460,
    "Ġkey": 2461,
    "chan": 2462,
    "Ġzigzag": 2463,
    "Ġjumped": 2464,
    "Ġmelt": 2465,
    "ley": 2466,
    "oll": 2467,
    "Ġreason": 2468,
    "Ġlouder": 2469,
    "Of": 2470,
    "ľ": 2471,
    "Ġmelting": 2472,
    "Ġketchup": 2473,
    "Ġwolf": 2474,
    "ĠAsh": 2475,
    "Under": 2476,
    "Ġchoice": 2477,
    "Ġmagn": 2478,
    "Ġbeetles": 2479,
    "Ġlook": 2480,
    "Ġactions": 2481,
    "Ġdeer": 2482,
    "oceros": 2483,
    "ndpa": 2484,
    "Ġmane": 2485,
    "Ġunpacked": 2486,
    "Ġrealizes": 2487,
    "Ġbarrel": 2488,
    "ĠSandy": 2489,
    "Ġmassage": 2490,
    "Ġexample": 2491,
    "oggy": 2492,
    "Ġclaps": 2493,
    "ens": 2494,
    "'ve": 2495,
    "Ġmeas": 2496,
    "J": 2497,
    "Ġhammer": 2498,
    "Sorry": 2499,
    "Ġdrank": 2500,
    "Ġtax": 2501,
    "urp": 2502,
    "Ġspill": 2503,
    "ĠThey": 2504,
    "urb": 2505,
    "abelle": 2506,
    "Ġsplash": 2507,
    "Ġniece": 2508,
    "ĠSleepy": 2509,
    "Ġbirds": 2510,
    "mates": 2511,
    "ĠâĢĵ": 2512,
    "ids": 2513,
    "Ġwag": 2514,
    "Unfortunately": 2515,
    "ĠAm": 2516,
    "Ġside": 2517,
    "els": 2518,
    "Ġbasket": 2519,
    "Ġlines": 2520,
    "After": 2521,
    "ĠKids": 2522,
    "ĠChrist": 2523,
    "Ġsees": 2524,
    "Ġsign": 2525,
    "Ġlong": 2526,
    "Ġlives": 2527,
    "Ġwider": 2528,
    "ĠMia": 2529,
    "ĠFido": 2530,
    "Ġkisses": 2531,
    "Ġloc": 2532,
    "Ġspr": 2533,
    "Ġfun": 2534,
    "ding": 2535,
    "Ġfarm": 2536,
    "Ġcustomer": 2537,
    "ĠMiss": 2538,
    "Ġquarrel": 2539,
    "Ġclapping": 2540,
    "ĠFlo": 2541,
    "Ġinstruct": 2542,
    "Ġkeep": 2543,
    "ia": 2544,
    "Ġpaddled": 2545,
    "aped": 2546,
    "Ġcareful": 2547,
    "}": 2548,
    "ibbles": 2549,
    "Vroom": 2550,
    "Ġsway": 2551,
    "tern": 2552,
    "Ġsuddenly": 2553,
    "Ġsunflower": 2554,
    "artin": 2555,
    "Ġmom": 2556,
    "Ġice": 2557,
    "ĠLightning": 2558,
    "Ġpeeled": 2559,
    "Ġsquee": 2560,
    "Ġtilted": 2561,
    "Ġpajamas": 2562,
    "Ġforgets": 2563,
    "ening": 2564,
    "ddy": 2565,
    "ĠElsie": 2566,
    "ĠMag": 2567,
    "Ġtapped": 2568,
    "Ġsurprising": 2569,
    "Ġlove": 2570,
    "Ġtickets": 2571,
    "Ġbodies": 2572,
    "ĠShelly": 2573,
    "Ġtickles": 2574,
    "Ġbounce": 2575,
    "el": 2576,
    "Ė": 2577,
    "Ġneighbor": 2578,
    "Ġruin": 2579,
    "water": 2580,
    "ĠQueen": 2581,
    "ger": 2582,
    "ï": 2583,
    "Ġboxes": 2584,
    "Ġlear": 2585,
    "Ġtissue": 2586,
    "Ġbug": 2587,
    "Ġspicy": 2588,
    "Ġvaluable": 2589,
    "ĠĊĠ": 2590,
    "Ġrepeating": 2591,
    "ungle": 2592,
    "Ġscurry": 2593,
    "Ġsqueezing": 2594,
    "Snow": 2595,
    "steps": 2596,
    "Ġtempting": 2597,
    "Ġmisses": 2598,
    "Ġshocked": 2599,
    "ĠLittle": 2600,
    "Ġrequested": 2601,
    "ilty": 2602,
    "Ġpencils": 2603,
    "Ġcrowded": 2604,
    "Ġsniffs": 2605,
    "Ġprepare": 2606,
    "Ġinterested": 2607,
    "Ġtickling": 2608,
    "By": 2609,
    "Ġraking": 2610,
    "ongrat": 2611,
    "Ġstitches": 2612,
    "Ġmad": 2613,
    "Ġspace": 2614,
    "âĢľ": 2615,
    "Ġhol": 2616,
    "ĠNobody": 2617,
    "Ġornaments": 2618,
    "orse": 2619,
    "fter": 2620,
    "Ġdis": 2621,
    "Ġspins": 2622,
    "ĠBingo": 2623,
    "ĠEventually": 2624,
    "Bill": 2625,
    "Ġborrowed": 2626,
    "Later": 2627,
    "Ġzipping": 2628,
    "ues": 2629,
    "house": 2630,
    "Ġcontro": 2631,
    "ena": 2632,
    "Ġburying": 2633,
    "Ġsandy": 2634,
    "emon": 2635,
    "Ġrocking": 2636,
    "ĠBeef": 2637,
    "weed": 2638,
    "Ġhowever": 2639,
    "Ġdrum": 2640,
    "Betty": 2641,
    "Ġcompl": 2642,
    "Ġoccasion": 2643,
    "getic": 2644,
    "Ġskull": 2645,
    "Ġremove": 2646,
    "Ġbananas": 2647,
    "rag": 2648,
    "Ġprinted": 2649,
    "¬": 2650,
    "ĠChloe": 2651,
    "Ġcrickets": 2652,
    "Jake": 2653,
    "Ġaud": 2654,
    "Ġprize": 2655,
    "Ġmedals": 2656,
    "Ġlooking": 2657,
    "Ġremembered": 2658,
    "Ġdifficult": 2659,
    "Ġpaying": 2660,
    "Ġleaving": 2661,
    "very": 2662,
    "Ġsuch": 2663,
    "Ġwipes": 2664,
    "ĠGrumpy": 2665,
    "Uncle": 2666,
    "Ġcampfire": 2667,
    "ĠSpidey": 2668,
    "Ġdoctors": 2669,
    "Ġdestroying": 2670,
    "Ġsink": 2671,
    "ort": 2672,
    "Ġradishes": 2673,
    "Ġscreamed": 2674,
    "Ġwakes": 2675,
    "Ġexpert": 2676,
    "Ġtelephone": 2677,
    "gers": 2678,
    "Outside": 2679,
    "ita": 2680,
    "Ġsteps": 2681,
    "Ġtip": 2682,
    "Ġjelly": 2683,
    "Ġleaves": 2684,
    "Ducky": 2685,
    "Ooh": 2686,
    "Ġfull": 2687,
    "Ġpole": 2688,
    "Ġmiles": 2689,
    "ast": 2690,
    "ibly": 2691,
    "als": 2692,
    "Ġgrace": 2693,
    "ĠSammy": 2694,
    "isp": 2695,
    "Ġswapped": 2696,
    "Ġcrystal": 2697,
    "Ġeating": 2698,
    "ĠRace": 2699,
    "Ġmar": 2700,
    "nger": 2701,
    "Ġbird": 2702,
    "ĠMichael": 2703,
    "Ġcompet": 2704,
    "Ġotters": 2705,
    "Ġbrave": 2706,
    "Ġhappen": 2707,
    "olly": 2708,
    "Ġheavy": 2709,
    "Ġad": 2710,
    "ĠZee": 2711,
    "Ġnets": 2712,
    "ĠBub": 2713,
    "ĠGra": 2714,
    "Ġpur": 2715,
    "ĠFred": 2716,
    "urry": 2717,
    "Ġshiny": 2718,
    "ths": 2719,
    "Ġtrying": 2720,
    "Did": 2721,
    "Ġshock": 2722,
    "Ġunfamiliar": 2723,
    "Ġhonesty": 2724,
    "ĠBerry": 2725,
    "Ġsituations": 2726,
    "Ġwarmth": 2727,
    "Ġcere": 2728,
    "Ġframe": 2729,
    "Ġprotected": 2730,
    "Ġgazing": 2731,
    "Ġcont": 2732,
    "Ready": 2733,
    "Ġplay": 2734,
    "Ġdam": 2735,
    "Ġmarbles": 2736,
    "ris": 2737,
    "Ġsens": 2738,
    "Ġcapes": 2739,
    "ak": 2740,
    "angu": 2741,
    "Ġpouch": 2742,
    "Ġchin": 2743,
    "Ġyogurt": 2744,
    "Ġglob": 2745,
    "Ġfridge": 2746,
    "ú": 2747,
    "Ġtonight": 2748,
    "itt": 2749,
    "Ġdisappoint": 2750,
    "Ġaudience": 2751,
    "Ġbeside": 2752,
    "Ġmusic": 2753,
    "Ġtraps": 2754,
    "Ġshine": 2755,
    "Ġfirefly": 2756,
    "Ġpatient": 2757,
    "Ġlawyer": 2758,
    "Ġsaved": 2759,
    "Ġpopular": 2760,
    "Zoe": 2761,
    "Ġcontin": 2762,
    "Ġhoriz": 2763,
    "lowers": 2764,
    "ĠJul": 2765,
    "Ġcott": 2766,
    "Ġgrandd": 2767,
    "Ġporch": 2768,
    "arge": 2769,
    "Ġpants": 2770,
    "Ġsafety": 2771,
    "Bee": 2772,
    "Ġener": 2773,
    "Ġcolors": 2774,
    "Ġsomet": 2775,
    "ĠPet": 2776,
    "Something": 2777,
    "ulpture": 2778,
    "Ġcons": 2779,
    "Ġlaundry": 2780,
    "omp": 2781,
    "Ġj": 2782,
    "Ġheaven": 2783,
    "ĠReliable": 2784,
    "Ġworth": 2785,
    "uring": 2786,
    "ued": 2787,
    "Ġalthough": 2788,
    "Splash": 2789,
    "as": 2790,
    "ĠMum": 2791,
    "ď": 2792,
    "ĠListen": 2793,
    "Ġcloudy": 2794,
    "ĠSlow": 2795,
    "Ġamused": 2796,
    "ounce": 2797,
    "alk": 2798,
    "ö": 2799,
    "Ġgiraffe": 2800,
    "Ġteach": 2801,
    "umbers": 2802,
    "Ġpromises": 2803,
    "Ġdependable": 2804,
    "ĠJohnson": 2805,
    "Ġmixing": 2806,
    "Ġbubbly": 2807,
    "war": 2808,
    "Nick": 2809,
    "Ġimpro": 2810,
    "rick": 2811,
    "Ġinvent": 2812,
    "ar": 2813,
    "Ġplace": 2814,
    "Ġstorm": 2815,
    "iant": 2816,
    "Ġhosp": 2817,
    "Zigzag": 2818,
    "br": 2819,
    "place": 2820,
    "Ġminer": 2821,
    "Ġhumans": 2822,
    "Ġbec": 2823,
    "Ġstrength": 2824,
    "Milo": 2825,
    "ushing": 2826,
    "Ġreliable": 2827,
    "Nina": 2828,
    "les": 2829,
    "ray": 2830,
    "Ġseasons": 2831,
    "Ġladyb": 2832,
    "Ġwink": 2833,
    "Ġsurvive": 2834,
    "Ġrelief": 2835,
    "5": 2836,
    "Ġskill": 2837,
    "Ġwaiting": 2838,
    "Ġscarves": 2839,
    "Ġexpensive": 2840,
    "Ġstroke": 2841,
    "one": 2842,
    "Ġhoses": 2843,
    "Ġsweeter": 2844,
    "unnel": 2845,
    "Ġpaddling": 2846,
    "Anne": 2847,
    "Ġsoup": 2848,
    "Ġguardian": 2849,
    "ffic": 2850,
    "ĠIt": 2851,
    "Ġbaking": 2852,
    "ah": 2853,
    "Tim": 2854,
    "Ġflavors": 2855,
    "Ġscoops": 2856,
    "Ġbank": 2857,
    "Ġrestored": 2858,
    "inary": 2859,
    "aught": 2860,
    "Ġruns": 2861,
    "Ġloyal": 2862,
    "Ġunknown": 2863,
    "Fish": 2864,
    "lex": 2865,
    "Ġfasc": 2866,
    "Ġalien": 2867,
    "Ġpupp": 2868,
    "Ouch": 2869,
    "Ī": 2870,
    "Ġnose": 2871,
    "Ġshopping": 2872,
    "Ġbranches": 2873,
    "ĠNo": 2874,
    "Ġplanning": 2875,
    "ó": 2876,
    "ĠMonkey": 2877,
    "Ġmass": 2878,
    "Ġbu": 2879,
    "urrender": 2880,
    "Ġshortcut": 2881,
    "Finally": 2882,
    "hn": 2883,
    "ading": 2884,
    "f": 2885,
    "ally": 2886,
    "uel": 2887,
    "Ġshattered": 2888,
    "Ġpun": 2889,
    "Ġstatue": 2890,
    "Ġoat": 2891,
    "Ġcolored": 2892,
    "Ġfolds": 2893,
    "Ġunable": 2894,
    "elle": 2895,
    "Ġaffect": 2896,
    "Ġperson": 2897,
    "Ġline": 2898,
    "Ġdetermination": 2899,
    "ound": 2900,
    "Ġagrees": 2901,
    "Ġhesitated": 2902,
    "Ġmessed": 2903,
    "Ġcrumb": 2904,
    "ĠCloud": 2905,
    "Ġavocado": 2906,
    "Ġpow": 2907,
    "Ġqu": 2908,
    "Ġfamous": 2909,
    "ĠOver": 2910,
    "Ġrealised": 2911,
    "?\"": 2912,
    "ĠSleep": 2913,
    "Michael": 2914,
    "Ġclips": 2915,
    "Ġcorner": 2916,
    "Ġvolcano": 2917,
    "ebra": 2918,
    "ļ": 2919,
    "rect": 2920,
    "Ġserving": 2921,
    "Grow": 2922,
    "ĠTiti": 2923,
    "Ġbeach": 2924,
    "owed": 2925,
    "Ġstory": 2926,
    "flowers": 2927,
    "Ġcable": 2928,
    "She": 2929,
    "weet": 2930,
    "Ġp": 2931,
    "Ġtemple": 2932,
    "Ġappreciated": 2933,
    "Ġpurred": 2934,
    "ee": 2935,
    "2": 2936,
    "Ġbicy": 2937,
    "kay": 2938,
    "Ġjewels": 2939,
    "ĠGrand": 2940,
    "Ġspent": 2941,
    "Ġrusty": 2942,
    "oby": 2943,
    "ophie": 2944,
    "ĠTre": 2945,
    "ĠTyler": 2946,
    "Ġsalad": 2947,
    "Ġdamaged": 2948,
    "Ġcupboard": 2949,
    "Ġride": 2950,
    "Ġcustom": 2951,
    "Ġairplane": 2952,
    "Ġcontain": 2953,
    "Play": 2954,
    "Ġhanded": 2955,
    "cuss": 2956,
    "Achoo": 2957,
    "ility": 2958,
    "Ġfeel": 2959,
    "Ġcompetition": 2960,
    "unched": 2961,
    "Hey": 2962,
    "ĠBobby": 2963,
    "Ġprove": 2964,
    "Ġcouch": 2965,
    "Ġlater": 2966,
    "Ġwith": 2967,
    "vous": 2968,
    "Ġenjoyable": 2969,
    "ory": 2970,
    "Ġgets": 2971,
    "Ġflashing": 2972,
    "Ġwindy": 2973,
    "port": 2974,
    "Ġvo": 2975,
    "Ġfav": 2976,
    "Ġsiren": 2977,
    "rework": 2978,
    "Ġmission": 2979,
    "ser": 2980,
    "kins": 2981,
    "Ġmic": 2982,
    "Ġste": 2983,
    "ulu": 2984,
    "ittens": 2985,
    "ĠSuzy": 2986,
    "Ġcur": 2987,
    "Ġcoll": 2988,
    "Ġcompletely": 2989,
    "Ġconsequences": 2990,
    "Ġbluebird": 2991,
    "arrass": 2992,
    "ĠNext": 2993,
    "Ġnames": 2994,
    "Ġinse": 2995,
    "ot": 2996,
    "Molly": 2997,
    "Sandy": 2998,
    "Ġscratches": 2999,
    "Ġfavourite": 3000,
    "stalk": 3001,
    "Ġreappeared": 3002,
    "Ġstruck": 3003,
    "Ġexactly": 3004,
    "Curious": 3005,
    "Ġjoins": 3006,
    "ob": 3007,
    "Ġcras": 3008,
    "\".": 3009,
    "Ġdelivery": 3010,
    "Ġconqu": 3011,
    "Ġnasty": 3012,
    "Ġbuckets": 3013,
    "Ġshrugged": 3014,
    "live": 3015,
    "Ġaway": 3016,
    "Ġorders": 3017,
    "Ġway": 3018,
    "Ġonto": 3019,
    "iggy": 3020,
    "Ġechoed": 3021,
    "Ġdarlings": 3022,
    "illed": 3023,
    "Ġpockets": 3024,
    "Ġmarshmallow": 3025,
    "Ġmessy": 3026,
    "pr": 3027,
    "ĠMolly": 3028,
    "Ġenthusiastic": 3029,
    "Ġreminds": 3030,
    "Ġleopard": 3031,
    "arth": 3032,
    "Ġfaraway": 3033,
    "Hold": 3034,
    "Ġguards": 3035,
    "Ġtap": 3036,
    "Ġforeshadow": 3037,
    "ĠBobo": 3038,
    "¢": 3039,
    "anced": 3040,
    "Ġmovements": 3041,
    "Ġstories": 3042,
    "Ġbroccoli": 3043,
    "Ġmessage": 3044,
    "Ġforgave": 3045,
    "ts": 3046,
    "Ġsirens": 3047,
    "ever": 3048,
    "Ġhours": 3049,
    "uit": 3050,
    "Ġprayers": 3051,
    "cc": 3052,
    "una": 3053,
    "Ġwhines": 3054,
    "Ú": 3055,
    "Ġdess": 3056,
    "Ġfed": 3057,
    "%": 3058,
    "Ġinvite": 3059,
    "Ġtent": 3060,
    "Ġrubbing": 3061,
    "Ġsoaring": 3062,
    "Ġwatches": 3063,
    "ĠRufus": 3064,
    "not": 3065,
    "ĠAuntie": 3066,
    "Ġtaller": 3067,
    "Ġliving": 3068,
    "aghetti": 3069,
    "ord": 3070,
    "Ġhaircut": 3071,
    "ĠHorsie": 3072,
    "Ġmon": 3073,
    "ĠMax": 3074,
    "Ġvehicle": 3075,
    "Just": 3076,
    "Ġcosts": 3077,
    "Ġ3": 3078,
    "ĠChess": 3079,
    "Ġgames": 3080,
    "Ġcontest": 3081,
    "Ġrustling": 3082,
    "Froggy": 3083,
    "uggage": 3084,
    "Mo": 3085,
    "Ġrecognize": 3086,
    "Ġdarling": 3087,
    "Ġrush": 3088,
    "ĠMe": 3089,
    "Ġidea": 3090,
    "ilities": 3091,
    "Ġpumpkin": 3092,
    "Ġpuck": 3093,
    "Ġmelted": 3094,
    "ĠPuppy": 3095,
    "Ġtough": 3096,
    "ope": 3097,
    "fit": 3098,
    "ĠJosh": 3099,
    "ense": 3100,
    "Ġnibbled": 3101,
    "Beth": 3102,
    "ĠBloom": 3103,
    "If": 3104,
    "Wiggly": 3105,
    "Ġmajest": 3106,
    "Ġclues": 3107,
    "Ġcaterpillars": 3108,
    "led": 3109,
    "racadabra": 3110,
    "Ġgrowl": 3111,
    "ġ": 3112,
    "Ġwire": 3113,
    "Ġquiz": 3114,
    "Ġcosy": 3115,
    "Ġstair": 3116,
    "ings": 3117,
    "¸": 3118,
    "Ġshorter": 3119,
    "ish": 3120,
    "Ġfl": 3121,
    "Ġlumber": 3122,
    "Ġsmo": 3123,
    "ique": 3124,
    "Ġprun": 3125,
    "rig": 3126,
    "river": 3127,
    "Ġenvironment": 3128,
    "Ġador": 3129,
    "udd": 3130,
    "Ġknowing": 3131,
    "Ġhold": 3132,
    "Ġgarage": 3133,
    "Ġbraver": 3134,
    "Ġaside": 3135,
    "Ġbrushed": 3136,
    "iest": 3137,
    "Ġmentioned": 3138,
    "ron": 3139,
    "When": 3140,
    "Ġpitch": 3141,
    "Ġpicking": 3142,
    "Ġactually": 3143,
    "ounced": 3144,
    "ĠLouise": 3145,
    "Ġspices": 3146,
    "Ġsplashing": 3147,
    "Ġlake": 3148,
    "ĠDaisy": 3149,
    "Ġbeneath": 3150,
    "Ġabout": 3151,
    "ĠZ": 3152,
    "Ġtease": 3153,
    "Ġdrag": 3154,
    "Ġstyle": 3155,
    "Ġbare": 3156,
    "Ġloops": 3157,
    "Ġimport": 3158,
    "Ġtray": 3159,
    "Tara": 3160,
    "Ġexplorer": 3161,
    "oss": 3162,
    "ĠFox": 3163,
    "Ġsurrounded": 3164,
    "Ġrise": 3165,
    "light": 3166,
    "Ġhadn": 3167,
    "ĠBirds": 3168,
    "Ġpilot": 3169,
    "ĠWendy": 3170,
    "ĠIn": 3171,
    "Ġdrink": 3172,
    "Ġcharge": 3173,
    "Squeaky": 3174,
    "oin": 3175,
    "ĠBow": 3176,
    "fall": 3177,
    "Ġcutter": 3178,
    "Ġrocked": 3179,
    "Ġother": 3180,
    "ulb": 3181,
    "Thanks": 3182,
    "Ġsticks": 3183,
    "ĠFel": 3184,
    "stand": 3185,
    "Found": 3186,
    "Ġbedtime": 3187,
    "Ġcauliflower": 3188,
    "iver": 3189,
    "eterinarian": 3190,
    "ĠSparkle": 3191,
    "Ġwrench": 3192,
    "ĠChris": 3193,
    "Ġstrangers": 3194,
    "Ġrack": 3195,
    "arn": 3196,
    "Ġrobe": 3197,
    "ities": 3198,
    "Ġzigzags": 3199,
    "ust": 3200,
    "anta": 3201,
    "Ġtastes": 3202,
    "ĠBirdy": 3203,
    "Ġexpect": 3204,
    "ĠDave": 3205,
    "ĠMoppy": 3206,
    "Ġrealized": 3207,
    "Ġdecid": 3208,
    "Ġanimal": 3209,
    "Ġjokes": 3210,
    "Ġhugs": 3211,
    "Ğ": 3212,
    "Ġtalent": 3213,
    "Ġkings": 3214,
    "Ġpolished": 3215,
    "ĠPink": 3216,
    "Ġcowboys": 3217,
    "Ġshaking": 3218,
    "ĠDare": 3219,
    "Ġplot": 3220,
    "zz": 3221,
    "Ġthroughout": 3222,
    "Ġunexpected": 3223,
    "ħ": 3224,
    "Ġstable": 3225,
    "Ġcuri": 3226,
    "mediately": 3227,
    "Ġwoodcutter": 3228,
    "ty": 3229,
    "Ġshed": 3230,
    "Help": 3231,
    "Ġbuildings": 3232,
    "Ġsneezes": 3233,
    "ĠWoolly": 3234,
    "ĠCarla": 3235,
    "Ġtrave": 3236,
    "ours": 3237,
    "Ġrecogn": 3238,
    "cked": 3239,
    "Ġdisturbing": 3240,
    "Ġinsp": 3241,
    "Ġnow": 3242,
    "itches": 3243,
    "Ġbreathed": 3244,
    "Ġbored": 3245,
    "Ġlandscape": 3246,
    "Ġzoomed": 3247,
    "ised": 3248,
    "ote": 3249,
    "Ġfoxes": 3250,
    "Ġsol": 3251,
    "Ġship": 3252,
    "Ġgrin": 3253,
    "Ġfast": 3254,
    "Ġgo": 3255,
    "Ġfootball": 3256,
    "Ġsipped": 3257,
    "erg": 3258,
    "ĠChew": 3259,
    "Ġtickle": 3260,
    "Ġunusual": 3261,
    "Ġchicken": 3262,
    "njoy": 3263,
    "Ġhoops": 3264,
    "scar": 3265,
    "While": 3266,
    "met": 3267,
    "Ġfirefighter": 3268,
    "where": 3269,
    "Ġyawning": 3270,
    "Inside": 3271,
    "ĠElly": 3272,
    "Jacob": 3273,
    "Ġfloating": 3274,
    "ĠUncle": 3275,
    "ĠFuzzy": 3276,
    "Moo": 3277,
    "ss": 3278,
    "Mira": 3279,
    "Ġopport": 3280,
    "lle": 3281,
    "Ġsplit": 3282,
    "Ġaround": 3283,
    "ipp": 3284,
    "ĠWorking": 3285,
    "mend": 3286,
    "Ġgates": 3287,
    "Ġwig": 3288,
    "Ġflapping": 3289,
    "ĠF": 3290,
    "Ġyouth": 3291,
    "ĠChick": 3292,
    "mer": 3293,
    "ĠJamie": 3294,
    "ċ": 3295,
    "Ġtail": 3296,
    "Tony": 3297,
    "Ġspid": 3298,
    "ĠSc": 3299,
    "ĠRoger": 3300,
    "Ġsecurity": 3301,
    "Ġtim": 3302,
    "Ġrece": 3303,
    "Ġforest": 3304,
    "Ġribbit": 3305,
    "ĠRobert": 3306,
    "Ġam": 3307,
    "Ġflapped": 3308,
    "Ġchosen": 3309,
    "shaped": 3310,
    "ĠEls": 3311,
    "heart": 3312,
    "Ġtigers": 3313,
    "llie": 3314,
    "Ġshovels": 3315,
    "ently": 3316,
    "Ġforce": 3317,
    "Ġtorto": 3318,
    "Ġmedal": 3319,
    "Ġhopes": 3320,
    "--": 3321,
    "Ġcocoon": 3322,
    "Ġdripped": 3323,
    "Ġlonely": 3324,
    "Ġsubway": 3325,
    "expected": 3326,
    "Ġbrings": 3327,
    "ĠJenna": 3328,
    "Ġscr": 3329,
    "Ġmysterious": 3330,
    "ĠPrin": 3331,
    "Ġhunting": 3332,
    "cing": 3333,
    "Ġshined": 3334,
    "Ø": 3335,
    "Ġsick": 3336,
    "Ġscur": 3337,
    "Ġdancers": 3338,
    "Ġquietly": 3339,
    "Ġsits": 3340,
    "Ġcooked": 3341,
    "lor": 3342,
    "Ġlowered": 3343,
    "ĠEach": 3344,
    "ject": 3345,
    "Emily": 3346,
    "iding": 3347,
    "indy": 3348,
    "sit": 3349,
    "ĠFreddie": 3350,
    "Ġburger": 3351,
    "joyed": 3352,
    "Ġfolder": 3353,
    "umbling": 3354,
    "Ġprob": 3355,
    "Ġfarthest": 3356,
    "Ġteles": 3357,
    "cean": 3358,
    "Miss": 3359,
    "Ġminutes": 3360,
    "Ġtrip": 3361,
    "ĠAbby": 3362,
    "Ġpool": 3363,
    "ĠNow": 3364,
    "Ġcoin": 3365,
    "Ġsit": 3366,
    "anda": 3367,
    "Woof": 3368,
    "Ġpit": 3369,
    "unch": 3370,
    "head": 3371,
    "Ġnews": 3372,
    "Ġpebb": 3373,
    "istory": 3374,
    "Ġquacks": 3375,
    "Ġlips": 3376,
    "ĠZoomy": 3377,
    "my": 3378,
    "Ġshadows": 3379,
    "Ġexpecting": 3380,
    "ug": 3381,
    "Ġstone": 3382,
    "Ġscales": 3383,
    "Ġsunglasses": 3384,
    "3": 3385,
    "Ġbuckle": 3386,
    "Ġknelt": 3387,
    "Ġagainst": 3388,
    "Ġcastle": 3389,
    "Ġcakes": 3390,
    "Ġgroan": 3391,
    "Ġscissors": 3392,
    "Ġbecause": 3393,
    "Ġeat": 3394,
    "ĠSettle": 3395,
    "Ġnapping": 3396,
    "Ġright": 3397,
    "Ġsurfing": 3398,
    "Ġobeyed": 3399,
    "Ġbucket": 3400,
    "Ġleash": 3401,
    "uxu": 3402,
    "Ġoranges": 3403,
    "Ġmechanic": 3404,
    "Ġcheated": 3405,
    "Ġblonde": 3406,
    "Ġtwir": 3407,
    "Ġyach": 3408,
    "Jeff": 3409,
    "aky": 3410,
    "ueen": 3411,
    "bit": 3412,
    "Ġrules": 3413,
    "Ġsailors": 3414,
    "Ġsoccer": 3415,
    "Ġsneezed": 3416,
    "Ġmanag": 3417,
    "ĠJolly": 3418,
    "Ġsor": 3419,
    "Ġtexture": 3420,
    "Ġintrod": 3421,
    "ĠMindy": 3422,
    "'.\"": 3423,
    "Ġstream": 3424,
    "Ġstre": 3425,
    "Ġcollection": 3426,
    "ĺ": 3427,
    "ĠHope": 3428,
    "Ġbin": 3429,
    "Ġcompanion": 3430,
    "Ġremained": 3431,
    "Ġpedal": 3432,
    "ĠZoey": 3433,
    "Ġun": 3434,
    "Ġsoftened": 3435,
    "Ġdeal": 3436,
    "ĠLuna": 3437,
    "thy": 3438,
    "Ġcrash": 3439,
    "Ġrele": 3440,
    "repeat": 3441,
    "ĠFlappy": 3442,
    "Ġbelieving": 3443,
    "Ġplanting": 3444,
    "Ġcompany": 3445,
    "Ġshoulders": 3446,
    "lay": 3447,
    "ayla": 3448,
    "ĠIcy": 3449,
    "Ġblackboard": 3450,
    "Ġicy": 3451,
    "rey": 3452,
    "eration": 3453,
    "Ġpupil": 3454,
    "Ġstitch": 3455,
    "aptain": 3456,
    "Ġscores": 3457,
    "Ġneedles": 3458,
    "Ġtruck": 3459,
    "Ġdump": 3460,
    "Ġdiscussing": 3461,
    "Ġvery": 3462,
    "Ġcounting": 3463,
    "imp": 3464,
    "cept": 3465,
    "Mabel": 3466,
    "Ġracers": 3467,
    "Ġgood": 3468,
    "aking": 3469,
    "Ġfunny": 3470,
    "Ġthrilled": 3471,
    "Ġplane": 3472,
    "Ġwinner": 3473,
    "Ġonion": 3474,
    "Ġwip": 3475,
    "Ġschool": 3476,
    "Ġblink": 3477,
    "Ġdri": 3478,
    "amma": 3479,
    "Ġnodded": 3480,
    "ĠAlf": 3481,
    "Ġsunscreen": 3482,
    "Ok": 3483,
    "ĠRe": 3484,
    "Ġstructure": 3485,
    "Ġrelaxed": 3486,
    "Ġma": 3487,
    "Ġquacked": 3488,
    "ĠJackie": 3489,
    "Ġthings": 3490,
    "Ġcombed": 3491,
    "ĠCally": 3492,
    "It": 3493,
    "bed": 3494,
    "Ġloudly": 3495,
    "Ġsticking": 3496,
    "Ġpoem": 3497,
    "Ġcheck": 3498,
    "pid": 3499,
    "Ġwrinkled": 3500,
    "ĠBuggy": 3501,
    "Ġland": 3502,
    "Ġphones": 3503,
    "Ġst": 3504,
    "Ü": 3505,
    "Ġarri": 3506,
    "Ġspraying": 3507,
    "Ġvelvet": 3508,
    "ĠMaria": 3509,
    "ecause": 3510,
    "Ġbeauty": 3511,
    "Ġhoney": 3512,
    "Ġwarned": 3513,
    "Ġsix": 3514,
    "ushes": 3515,
    "č": 3516,
    "Ġshells": 3517,
    "ĠEvery": 3518,
    "Ġfaces": 3519,
    "Sque": 3520,
    "Ġgotten": 3521,
    "ula": 3522,
    "anut": 3523,
    "Ġwaded": 3524,
    "erc": 3525,
    "ony": 3526,
    "ĠAlthough": 3527,
    "Ġbusy": 3528,
    "atty": 3529,
    "ĠGary": 3530,
    "Brrr": 3531,
    "Ġsince": 3532,
    "Ġhoo": 3533,
    "Ġsuit": 3534,
    "Ġtwig": 3535,
    "Ġsimply": 3536,
    "Ġprice": 3537,
    "ĠMrs": 3538,
    "Ġweird": 3539,
    "Ġhop": 3540,
    "Ġpets": 3541,
    "Ġkn": 3542,
    "bul": 3543,
    "ĠOlivia": 3544,
    "Lila": 3545,
    "Pete": 3546,
    "ĠJanie": 3547,
    "ĠMaybe": 3548,
    "Ġdifferent": 3549,
    "Ġsneaked": 3550,
    "unday": 3551,
    "Un": 3552,
    "umble": 3553,
    "Ġfilms": 3554,
    "Ġreturn": 3555,
    "Ġpad": 3556,
    "Ġforks": 3557,
    "mb": 3558,
    "Ġbooks": 3559,
    "Really": 3560,
    "aver": 3561,
    "Ġthanking": 3562,
    "Ġpeppers": 3563,
    "Ġknocks": 3564,
    "Ġwhistles": 3565,
    "Ġpersistence": 3566,
    "Ġcare": 3567,
    "Bad": 3568,
    "lease": 3569,
    "Ġpouted": 3570,
    "Ġpassed": 3571,
    "Ġtricycle": 3572,
    "ĠSpeedy": 3573,
    "Ġjudges": 3574,
    "bl": 3575,
    "ppers": 3576,
    "Ġcontinued": 3577,
    "Ġsec": 3578,
    "cream": 3579,
    "Ġfalling": 3580,
    "ĠRu": 3581,
    "undred": 3582,
    "Ġpuppets": 3583,
    "ably": 3584,
    "Ġoyster": 3585,
    "acob": 3586,
    "Ġer": 3587,
    "Hannah": 3588,
    "Ġbath": 3589,
    "Ġmove": 3590,
    "Frank": 3591,
    "Ġwiz": 3592,
    "Ġholes": 3593,
    "Ġremote": 3594,
    "enny": 3595,
    "ween": 3596,
    "Ġneighbourhood": 3597,
    "Ġsteak": 3598,
    "Pinky": 3599,
    "Ġdragons": 3600,
    "Ġpalm": 3601,
    "Ġjourney": 3602,
    "Ġpart": 3603,
    "Daddy": 3604,
    "ĠPip": 3605,
    "ĠBaby": 3606,
    "Ġpipes": 3607,
    "gest": 3608,
    "È": 3609,
    "Ġfootprints": 3610,
    "Ġslipped": 3611,
    "Ġafraid": 3612,
    "Ġput": 3613,
    "Ġcoloured": 3614,
    "Ġenergetic": 3615,
    "Ġswings": 3616,
    "Ġfreeze": 3617,
    "Ġbubbling": 3618,
    "spec": 3619,
    "î": 3620,
    "Ġfearful": 3621,
    "Ġfinished": 3622,
    "ĠBetty": 3623,
    "Ġrespectful": 3624,
    "Ġsecret": 3625,
    "Tuna": 3626,
    "Ġregret": 3627,
    "Ġcrashing": 3628,
    "ĠSue": 3629,
    "Ġstarted": 3630,
    "rage": 3631,
    "laire": 3632,
    "Ġhaircuts": 3633,
    "Ġdeserves": 3634,
    "Ġburrow": 3635,
    "Ġdo": 3636,
    "any": 3637,
    "Ġshrank": 3638,
    "A": 3639,
    "Ġbutterfly": 3640,
    "ought": 3641,
    "Meow": 3642,
    "Got": 3643,
    "Ġbee": 3644,
    "ĠWaffle": 3645,
    "Ġbacks": 3646,
    "ĠMina": 3647,
    "ĠBilly": 3648,
    "Ġcrunchy": 3649,
    "The": 3650,
    "Ġpick": 3651,
    "ising": 3652,
    "Ġrely": 3653,
    "Ġsquashes": 3654,
    "urple": 3655,
    "Ġunder": 3656,
    "Please": 3657,
    "ĠMake": 3658,
    "ibi": 3659,
    "Ġostriches": 3660,
    "Ġcastles": 3661,
    "Ġcon": 3662,
    "Ġcontinue": 3663,
    "ric": 3664,
    "self": 3665,
    "Ġcoming": 3666,
    "Ġvehic": 3667,
    "gie": 3668,
    "Ġseller": 3669,
    "Ġenvelopes": 3670,
    "Ġhealthier": 3671,
    "Ġthey": 3672,
    "Ġbill": 3673,
    "Ġchopped": 3674,
    "ĠMila": 3675,
    "pt": 3676,
    "Ġwanted": 3677,
    "~": 3678,
    "erpill": 3679,
    "Ġspeeding": 3680,
    "ture": 3681,
    "Ġguys": 3682,
    "unnies": 3683,
    "Ġtaste": 3684,
    "ĠFlutter": 3685,
    "ood": 3686,
    "Ġcuriously": 3687,
    "Ġarranged": 3688,
    "Ġlar": 3689,
    "found": 3690,
    "Ġflap": 3691,
    "Ġgrateful": 3692,
    "ume": 3693,
    "iful": 3694,
    "Ġmay": 3695,
    "Ġball": 3696,
    "Ġonward": 3697,
    "Ġdev": 3698,
    "ĠEverybody": 3699,
    "loe": 3700,
    "Ġforgotten": 3701,
    "ñ": 3702,
    "Ġremem": 3703,
    "ĠBobbie": 3704,
    "Ġlistened": 3705,
    "á": 3706,
    "D": 3707,
    "Ġstruggle": 3708,
    "ited": 3709,
    "etah": 3710,
    "Remy": 3711,
    "ĠMartha": 3712,
    "Ġknobs": 3713,
    "ĠRob": 3714,
    "Ġsponge": 3715,
    "lephant": 3716,
    "Ġappeared": 3717,
    "Ġchubby": 3718,
    "R": 3719,
    "Ġdrawers": 3720,
    "Ġtasting": 3721,
    "Ġchee": 3722,
    "Ġbecome": 3723,
    "Ġlull": 3724,
    "'": 3725,
    "Ġsnake": 3726,
    "Ġnotice": 3727,
    "Ġflav": 3728,
    "Ġcray": 3729,
    "ĠDragon": 3730,
    "Ġshave": 3731,
    "ater": 3732,
    "ĠSpe": 3733,
    "ĠClara": 3734,
    "ount": 3735,
    "Ġwashes": 3736,
    "Ġobject": 3737,
    "iel": 3738,
    "Ġtown": 3739,
    "izes": 3740,
    "Â": 3741,
    "yl": 3742,
    "Ġsuper": 3743,
    "ives": 3744,
    "Ġleaning": 3745,
    "Rachel": 3746,
    "Never": 3747,
    "ĠRusty": 3748,
    "Ġupon": 3749,
    "Ġexploring": 3750,
    "ĠAlex": 3751,
    "Ġroads": 3752,
    "Ġfriendship": 3753,
    "Ġfit": 3754,
    "Ġchoose": 3755,
    "Ġpainter": 3756,
    "ĠWiggly": 3757,
    "Ġtower": 3758,
    "Ġbalan": 3759,
    "Ġblock": 3760,
    "Ġmystery": 3761,
    "Ġpatients": 3762,
    "Ġnet": 3763,
    "amil": 3764,
    "Ġtrail": 3765,
    "Ġdropping": 3766,
    "Ġsteer": 3767,
    "ĠWatch": 3768,
    "Ġrainbows": 3769,
    "ccer": 3770,
    "Ġwine": 3771,
    "Ġnothing": 3772,
    "Ġaunt": 3773,
    "Ġocc": 3774,
    "Ġrained": 3775,
    "Ġdrowned": 3776,
    "Ġraindrops": 3777,
    "*": 3778,
    "Ġagre": 3779,
    "Ġmotorcycles": 3780,
    "Ġeagle": 3781,
    "ĠJerry": 3782,
    "Ġbounces": 3783,
    "Ġfoolish": 3784,
    "Susie": 3785,
    "Ġrhinoceros": 3786,
    "ĠHenny": 3787,
    "Frog": 3788,
    "Ġlived": 3789,
    "iona": 3790,
    "Ġvibr": 3791,
    "Ġstew": 3792,
    "Ġstared": 3793,
    "Ġjacket": 3794,
    "Mommy": 3795,
    "ed": 3796,
    "Ġresc": 3797,
    "Ġunderground": 3798,
    "form": 3799,
    "Ġsqueezed": 3800,
    "Ġstrike": 3801,
    "lish": 3802,
    "Ġcaring": 3803,
    "ednesday": 3804,
    "Zero": 3805,
    "Ġign": 3806,
    "arl": 3807,
    "Ġcame": 3808,
    "Ġhist": 3809,
    "step": 3810,
    "Ġinj": 3811,
    "Ġwhose": 3812,
    "Ġset": 3813,
    "Maddy": 3814,
    "boards": 3815,
    "ĠIs": 3816,
    "Ġbully": 3817,
    "Ġrout": 3818,
    "Ġicing": 3819,
    "Ġremain": 3820,
    "Ġwishes": 3821,
    "Ġsoon": 3822,
    "Ġtrembling": 3823,
    "iled": 3824,
    "Ġwinter": 3825,
    "Ġgrandpa": 3826,
    "Ġfollowing": 3827,
    "Ġbravely": 3828,
    "ongratul": 3829,
    "Ġcooed": 3830,
    "Ġsquinted": 3831,
    "ather": 3832,
    "Ġfam": 3833,
    "Ġquiet": 3834,
    "sters": 3835,
    "Ġscrew": 3836,
    "Ġmetal": 3837,
    "ais": 3838,
    "Ġbeeh": 3839,
    "Ġsomeone": 3840,
    "Ġrefres": 3841,
    "Ġprank": 3842,
    "Ġdog": 3843,
    "get": 3844,
    "Ġreleased": 3845,
    "Ġannoying": 3846,
    "$": 3847,
    "Ġjolly": 3848,
    "ines": 3849,
    "Ġbarber": 3850,
    "Ġfurt": 3851,
    "ĠJacky": 3852,
    "Ġmunched": 3853,
    "Ġlicense": 3854,
    "Ġrepair": 3855,
    "Ġbecomes": 3856,
    "Ġmy": 3857,
    "Ġdif": 3858,
    "ĠAlice": 3859,
    "Ġscrewd": 3860,
    "Ġoverw": 3861,
    "ĠFr": 3862,
    "Ġpoked": 3863,
    "Ġwears": 3864,
    "(": 3865,
    "Ò": 3866,
    "band": 3867,
    "Kiki": 3868,
    "uc": 3869,
    "Ġmoo": 3870,
    "Ġtrick": 3871,
    "Ġchewed": 3872,
    "Ġmuffins": 3873,
    "Ġgreet": 3874,
    "Ġunlo": 3875,
    "Ġflashes": 3876,
    "Ġslippery": 3877,
    "With": 3878,
    "Amy": 3879,
    "Ġmushroom": 3880,
    "Ġbooth": 3881,
    "ĠWh": 3882,
    "Ġno": 3883,
    "Ġbelieved": 3884,
    "Buddy": 3885,
    "Ġsy": 3886,
    "Ġbowls": 3887,
    "ipper": 3888,
    "Ġimpossible": 3889,
    "Ġthoughts": 3890,
    "ret": 3891,
    "à": 3892,
    "Stay": 3893,
    "ĠTh": 3894,
    "ĠStill": 3895,
    "Ġstorekeeper": 3896,
    "Ġplaces": 3897,
    "ĠStitch": 3898,
    "Ġsleep": 3899,
    "Ġwrap": 3900,
    "Ġshows": 3901,
    "Ġawoke": 3902,
    "Ġbread": 3903,
    "Ġafar": 3904,
    "Ġseaweed": 3905,
    "Ġeither": 3906,
    "Ġumbre": 3907,
    "Ġwelc": 3908,
    "Dad": 3909,
    "racted": 3910,
    "Ġbuilders": 3911,
    "ary": 3912,
    "Ġsqueal": 3913,
    "Ġbed": 3914,
    "a": 3915,
    "ĠTara": 3916,
    "ĠTo": 3917,
    "Ġhips": 3918,
    "Ġhallway": 3919,
    "Someone": 3920,
    "key": 3921,
    "Ġstrange": 3922,
    "Ġalong": 3923,
    "Ġrowed": 3924,
    "Ġhatched": 3925,
    "Ġgroom": 3926,
    "Ġtarget": 3927,
    "Ġgrandchild": 3928,
    "Ġsquir": 3929,
    "ĠDog": 3930,
    "Ġparticular": 3931,
    "Fire": 3932,
    "Ġcoo": 3933,
    "Ġnibb": 3934,
    "Co": 3935,
    "Ġpencil": 3936,
    "affe": 3937,
    "Ġbeginning": 3938,
    "Ġshaped": 3939,
    "Ġcount": 3940,
    "Ġbubbles": 3941,
    "Ġag": 3942,
    "Ġanywhere": 3943,
    "Ġugly": 3944,
    "Ġpaid": 3945,
    "For": 3946,
    "retch": 3947,
    "ĠDaniel": 3948,
    "Ġpours": 3949,
    "annah": 3950,
    "Ġturtles": 3951,
    "Ġartwork": 3952,
    "Ġstick": 3953,
    "ĠFiona": 3954,
    "Ġcautiously": 3955,
    "usted": 3956,
    "rons": 3957,
    "¤": 3958,
    "let": 3959,
    "Ġrabbit": 3960,
    "Ġwet": 3961,
    "Ġnut": 3962,
    "Joy": 3963,
    "ĠPenny": 3964,
    "ody": 3965,
    "ice": 3966,
    "Ġslither": 3967,
    "Ġowners": 3968,
    "ĠJenn": 3969,
    "Ġgre": 3970,
    "Ġu": 3971,
    "keeper": 3972,
    "ĠChe": 3973,
    "Cl": 3974,
    "Ġcottage": 3975,
    "Ġkick": 3976,
    "Ġpass": 3977,
    "Ġfeast": 3978,
    "Ġbride": 3979,
    "Ġwalking": 3980,
    "Ġastron": 3981,
    "Billy": 3982,
    "..": 3983,
    "bers": 3984,
    "Ġwhistling": 3985,
    "Ġpicnic": 3986,
    "ventually": 3987,
    "ophia": 3988,
    "Ġplant": 3989,
    "ĠFlopsy": 3990,
    "ht": 3991,
    "Ġencourag": 3992,
    "Ġworse": 3993,
    "rill": 3994,
    "Ð": 3995,
    "Ġexplore": 3996,
    "ĠMeg": 3997,
    "Ġsmelt": 3998,
    "Ġbinoculars": 3999,
    "Ġmater": 4000,
    "Ġwhined": 4001,
    "Ġcom": 4002,
    "parent": 4003,
    "Ġteased": 4004,
    "Ġprod": 4005,
    "eth": 4006,
    "Ġmoments": 4007,
    "atter": 4008,
    "ĠN": 4009,
    "Ġthirsty": 4010,
    "Ġaccom": 4011,
    "Quack": 4012,
    "ĠAb": 4013,
    "Yum": 4014,
    "Ġpromised": 4015,
    "Everyone": 4016,
    "Ġbuilding": 4017,
    "Ġneck": 4018,
    "Ġraindr": 4019,
    "k": 4020,
    "Ġglo": 4021,
    "Ġstat": 4022,
    "Ġdecisions": 4023,
    "One": 4024,
    "Ġtriang": 4025,
    "Ġlead": 4026,
    "Ġcrackers": 4027,
    "loo": 4028,
    "gether": 4029,
    "Ġknocking": 4030,
    "Ġskills": 4031,
    "antastic": 4032,
    "walk": 4033,
    "Ġcreation": 4034,
    "Together": 4035,
    "Ġoldest": 4036,
    "evin": 4037,
    "mare": 4038,
    "ĠHoppy": 4039,
    "Ġdaughter": 4040,
    "erm": 4041,
    "Ġhomes": 4042,
    "st": 4043,
    "Ġpurse": 4044,
    "Ġsong": 4045,
    "ĠOnce": 4046,
    "Ġsal": 4047,
    "Ġteam": 4048,
    "Ġfastest": 4049,
    "Bobby": 4050,
    "Ġparty": 4051,
    "Ġsc": 4052,
    "Ġskeleton": 4053,
    "nies": 4054,
    "ĠMousy": 4055,
    "Ġignore": 4056,
    "imon": 4057,
    "are": 4058,
    "Ġexcited": 4059,
    "Roar": 4060,
    "ention": 4061,
    "Ġballoon": 4062,
    "Ruby": 4063,
    "Ġyummiest": 4064,
    "Ġuse": 4065,
    "Ġhimself": 4066,
    "Jimmy": 4067,
    "chief": 4068,
    "Ġexplo": 4069,
    "urn": 4070,
    "Ġbomb": 4071,
    "Ġteasing": 4072,
    "Ġwealthy": 4073,
    "Ġt": 4074,
    "Ġhere": 4075,
    "Ġtours": 4076,
    "Ġpanda": 4077,
    "ĠGeorge": 4078,
    "ĠHelping": 4079,
    "Ġbrain": 4080,
    "Ġskipping": 4081,
    "imney": 4082,
    "Bug": 4083,
    "orn": 4084,
    "Ġdodged": 4085,
    "Ġnone": 4086,
    "ĠWhite": 4087,
    "?": 4088,
    "Ġdropped": 4089,
    "Ġvalley": 4090,
    "ĠBet": 4091,
    "Ġsupposed": 4092,
    "True": 4093,
    "bie": 4094,
    "Ġsave": 4095,
    "Ġacting": 4096,
    "ĠTerry": 4097,
    "Ġtil": 4098,
    "Ġais": 4099,
    "Ġmugs": 4100,
    "ordinary": 4101,
    "abbit": 4102,
    "Ġtar": 4103,
    "Ġranger": 4104,
    "Look": 4105,
    "Even": 4106,
    "ĠNina": 4107,
    "Ġflowing": 4108,
    "Ġfirm": 4109,
    "ĠLiam": 4110,
    "ĠNavy": 4111,
    "ales": 4112,
    "ĠSm": 4113,
    "Ġele": 4114,
    "Ġpedals": 4115,
    "Ġtwirling": 4116,
    "Ġresponsib": 4117,
    "Ġgiving": 4118,
    "Ġlesson": 4119,
    "Ġwiping": 4120,
    "Ġnote": 4121,
    "Ġm": 4122,
    "Ġmes": 4123,
    "Ġcafe": 4124,
    "aper": 4125,
    "Ġtrembled": 4126,
    "Ġparade": 4127,
    "Ġinstruments": 4128,
    "ucture": 4129,
    "Ġcarefully": 4130,
    "Ġbeen": 4131,
    "Ġbeautiful": 4132,
    "Ġfixed": 4133,
    "ĠTree": 4134,
    "Find": 4135,
    "Ġbegin": 4136,
    "Ġpecks": 4137,
    "Ġveterinarian": 4138,
    "Ġcomb": 4139,
    "lyn": 4140,
    "Ġfif": 4141,
    "Ġrubb": 4142,
    "Ġdou": 4143,
    "Ġmatched": 4144,
    "Ġpans": 4145,
    "Ġthump": 4146,
    "Ġins": 4147,
    "ĠWally": 4148,
    "Ġhops": 4149,
    "ides": 4150,
    "cu": 4151,
    "Ġsnowflake": 4152,
    "Ġgri": 4153,
    "Ġsuits": 4154,
    "Ġaccident": 4155,
    "ĠWait": 4156,
    "Ġmilk": 4157,
    "Ġdarkness": 4158,
    "cut": 4159,
    "Ġtwinkle": 4160,
    "ĠGill": 4161,
    "Ġpatiently": 4162,
    "Ġexercise": 4163,
    "Ġboat": 4164,
    "Ġpopsic": 4165,
    "Ġha": 4166,
    "Ġpause": 4167,
    "ause": 4168,
    "omb": 4169,
    "ĠEverything": 4170,
    "Ġwalked": 4171,
    "Ġrin": 4172,
    "Ġbrother": 4173,
    "Ġexplaining": 4174,
    "Ġhello": 4175,
    "Yay": 4176,
    "Ġdessert": 4177,
    "',": 4178,
    "Ġill": 4179,
    "Ġeight": 4180,
    "ĠGina": 4181,
    "Ġ'": 4182,
    "ĠAna": 4183,
    "ates": 4184,
    "Ġpipe": 4185,
    "Ġopinion": 4186,
    "five": 4187,
    "Ġsub": 4188,
    "Ġgrumbled": 4189,
    "ĠJim": 4190,
    "Ġbeast": 4191,
    "Ġsweaters": 4192,
    "Ġchop": 4193,
    "Ġgrow": 4194,
    "ĠRalph": 4195,
    "Ġknee": 4196,
    "Ġpain": 4197,
    "Em": 4198,
    "Ġran": 4199,
    "Ġadds": 4200,
    "Ġexams": 4201,
    "Ġhave": 4202,
    "Ġarrow": 4203,
    "par": 4204,
    "Ġfashion": 4205,
    "se": 4206,
    "Ġcrane": 4207,
    "Ġintrigued": 4208,
    "Ġescap": 4209,
    "Ġsort": 4210,
    "Ġresting": 4211,
    "Ġoutdo": 4212,
    "kelly": 4213,
    "Ġsky": 4214,
    "Ġclumsy": 4215,
    "Ġspiky": 4216,
    "Ġtiger": 4217,
    "ab": 4218,
    "Ġfoods": 4219,
    "ĠSteven": 4220,
    "Ġarrows": 4221,
    "ured": 4222,
    "Ġcrabs": 4223,
    "Ġpeep": 4224,
    "Ġboring": 4225,
    "Ġtry": 4226,
    "Ġhangs": 4227,
    "rent": 4228,
    "Ġclosed": 4229,
    "Ġrows": 4230,
    "Ġlangu": 4231,
    "Ġwash": 4232,
    "Ġhandful": 4233,
    "Ġdragon": 4234,
    "Ġphoto": 4235,
    "pec": 4236,
    "Ġsays": 4237,
    "emember": 4238,
    "Ġfrowning": 4239,
    "Ġfairies": 4240,
    "Ġenc": 4241,
    "Ġkitty": 4242,
    "ĠSpicy": 4243,
    "Ġglass": 4244,
    "Ġbending": 4245,
    "ĠPam": 4246,
    "Ġbehaviour": 4247,
    "Whenever": 4248,
    "Ġsolut": 4249,
    "Ġadventur": 4250,
    "idey": 4251,
    "Ġvibrant": 4252,
    "Ġdrifted": 4253,
    "Ġused": 4254,
    "Ġtag": 4255,
    "Ġtelevision": 4256,
    "ĠDavid": 4257,
    "Ġpriv": 4258,
    "Ġspray": 4259,
    "Ġsent": 4260,
    "Ġcoach": 4261,
    "Ġper": 4262,
    "ĠBoo": 4263,
    "Whee": 4264,
    "ĠMagic": 4265,
    "ĠSmoke": 4266,
    "Ġsoar": 4267,
    "Ġnervously": 4268,
    "Ġcertainly": 4269,
    "Ġnatur": 4270,
    "attered": 4271,
    "ĠSharing": 4272,
    "ĠFriends": 4273,
    "Ġshop": 4274,
    "Ġpeck": 4275,
    "Ġtick": 4276,
    "Snap": 4277,
    "Ġpaws": 4278,
    "Ġformed": 4279,
    "Ġgrandparent": 4280,
    "Ġchefs": 4281,
    "lves": 4282,
    "Ġteaching": 4283,
    "nna": 4284,
    "Ġmagazines": 4285,
    "ĠTr": 4286,
    "vator": 4287,
    "Blue": 4288,
    "Ġweeks": 4289,
    "Ġbless": 4290,
    "Ġchase": 4291,
    "iece": 4292,
    "dog": 4293,
    "Ġnightmares": 4294,
    "Ġmoons": 4295,
    "pan": 4296,
    "Ġenergy": 4297,
    "ito": 4298,
    "Ġjets": 4299,
    "Ġsnugg": 4300,
    "Ġspring": 4301,
    "Ġab": 4302,
    "Ġlow": 4303,
    "Ġnetwork": 4304,
    "Ġthreads": 4305,
    "ie": 4306,
    "Ġmodern": 4307,
    "Ġtouc": 4308,
    "Ġthinking": 4309,
    "Ġbeautifully": 4310,
    "Ġpack": 4311,
    "Ġprincess": 4312,
    "Ġbringing": 4313,
    "Ġcrayon": 4314,
    "Ġrice": 4315,
    "ĠSquirrel": 4316,
    "ĠMoo": 4317,
    "comfortable": 4318,
    "Ġgrassy": 4319,
    "Ġhus": 4320,
    "achel": 4321,
    "Ġreached": 4322,
    "Ġdesign": 4323,
    "Ġmeowing": 4324,
    "Ġcentre": 4325,
    "Ġspotted": 4326,
    "John": 4327,
    "Ġcontrol": 4328,
    "ĠMaddy": 4329,
    "ucy": 4330,
    "Ġgorilla": 4331,
    "ĠOlly": 4332,
    "Ġcouldn": 4333,
    "ĠCh": 4334,
    "Ġhugging": 4335,
    "Ġstumbled": 4336,
    "ooks": 4337,
    "Ġsilence": 4338,
    "Ġapologized": 4339,
    "ĠSqueak": 4340,
    "ossible": 4341,
    "ield": 4342,
    "Ġsir": 4343,
    "ĠBeaky": 4344,
    "Ġkindness": 4345,
    "Ġunp": 4346,
    "ance": 4347,
    "Ġjumping": 4348,
    "Ġpeace": 4349,
    "smelling": 4350,
    "ivia": 4351,
    "Ġbud": 4352,
    "Ġtouching": 4353,
    "Ġwiser": 4354,
    "Ġguide": 4355,
    "Ġdresser": 4356,
    "working": 4357,
    "Ġstickers": 4358,
    "Ġclaw": 4359,
    "lied": 4360,
    "ssess": 4361,
    "Ġpige": 4362,
    "Ġen": 4363,
    "Ġriver": 4364,
    "ude": 4365,
    "aches": 4366,
    "?!\"": 4367,
    "Ġwagging": 4368,
    "Ġpuzzle": 4369,
    "Ġslide": 4370,
    "Ġart": 4371,
    "kin": 4372,
    "Ġnurses": 4373,
    "Ġencountered": 4374,
    "ly": 4375,
    "Ġhappened": 4376,
    "ĠOliver": 4377,
    "ĠLeave": 4378,
    "Ġbatteries": 4379,
    "Ġgrandparents": 4380,
    "Ġaxe": 4381,
    "jamas": 4382,
    "Ġblamed": 4383,
    "Ġlim": 4384,
    "ube": 4385,
    "Ġbetween": 4386,
    "Ġexplains": 4387,
    "Great": 4388,
    "Ġgl": 4389,
    "Ġmattress": 4390,
    "Ġreceive": 4391,
    "Ġsurely": 4392,
    "ĠUn": 4393,
    "Ġdeed": 4394,
    "ĠBumpy": 4395,
    "Ġdentist": 4396,
    "Ġbald": 4397,
    "Ġfireplace": 4398,
    "Ġtex": 4399,
    "Ġmicrowave": 4400,
    "Ġsweets": 4401,
    "Ġtoss": 4402,
    "Ġcheers": 4403,
    "ĠPe": 4404,
    "Baby": 4405,
    "Ġsprays": 4406,
    "Ġdraws": 4407,
    "pected": 4408,
    "Ġaloud": 4409,
    "Ġshr": 4410,
    "Ġgreen": 4411,
    "ents": 4412,
    "Ġeaten": 4413,
    "Ġstrings": 4414,
    "Ġpadd": 4415,
    "uing": 4416,
    "uses": 4417,
    "Ġslides": 4418,
    "Ġworried": 4419,
    "Ġbad": 4420,
    "Ġsugar": 4421,
    "ĠJenny": 4422,
    "ored": 4423,
    "ated": 4424,
    "Ġflea": 4425,
    "Ġwaking": 4426,
    "iss": 4427,
    "Ġget": 4428,
    "opl": 4429,
    "roscope": 4430,
    "Ġhonks": 4431,
    "Ġwhite": 4432,
    "cery": 4433,
    "ustr": 4434,
    "Ġquack": 4435,
    "Ġcareless": 4436,
    "body": 4437,
    "amiliar": 4438,
    "Kitty": 4439,
    "Ġdesk": 4440,
    "Ġsolving": 4441,
    "ache": 4442,
    "ĠLand": 4443,
    "Ġtrains": 4444,
    "ĠTake": 4445,
    "Ġflutter": 4446,
    "Ġspeaking": 4447,
    "Ġhotter": 4448,
    "Ġwhe": 4449,
    "ici": 4450,
    "Ġdecorating": 4451,
    "Ġpie": 4452,
    "Ġdisobey": 4453,
    "ĠHoney": 4454,
    "Ġsunshine": 4455,
    "isy": 4456,
    "Mia": 4457,
    "Ġvend": 4458,
    "Ġostrich": 4459,
    "vest": 4460,
    "Ġadmire": 4461,
    "Ġimaginations": 4462,
    "ĠJ": 4463,
    "Ġfly": 4464,
    "Ġstation": 4465,
    "Ġeach": 4466,
    "Ġchallenges": 4467,
    "ath": 4468,
    "Go": 4469,
    "Ġjournal": 4470,
    "Ġwinds": 4471,
    "Ġimportant": 4472,
    "Ġattract": 4473,
    "Ġimpressive": 4474,
    "Ġcre": 4475,
    "Ġpays": 4476,
    "Ġrooms": 4477,
    "Ġsparkle": 4478,
    "ĠLuke": 4479,
    "Ġclimbed": 4480,
    "ome": 4481,
    "Ġhomework": 4482,
    "Ġzookeepers": 4483,
    "Ġsalon": 4484,
    "op": 4485,
    "Hello": 4486,
    "Ġfirefight": 4487,
    "Ġcomfy": 4488,
    "orry": 4489,
    "Ġmarched": 4490,
    "Ġknocked": 4491,
    "Ġnoticing": 4492,
    "Ġsplas": 4493,
    "Ġextraordinary": 4494,
    "Ġconfidence": 4495,
    "fortunately": 4496,
    "Ġcabinet": 4497,
    "Ġweren": 4498,
    "Ġaccomplish": 4499,
    "Everything": 4500,
    "ouse": 4501,
    "Ġshelves": 4502,
    "Ġdown": 4503,
    "Ġwest": 4504,
    "aisy": 4505,
    "Ġfascin": 4506,
    "Ġscene": 4507,
    "specially": 4508,
    "Ġsqueeze": 4509,
    "Ġmus": 4510,
    "Ġson": 4511,
    "Aunt": 4512,
    "itch": 4513,
    "fish": 4514,
    "adabra": 4515,
    "entr": 4516,
    "Ġtowel": 4517,
    "ĠFollow": 4518,
    "Close": 4519,
    "Ġdoorway": 4520,
    "Ġbuddy": 4521,
    "Ġcomp": 4522,
    "Ġrescue": 4523,
    "Ġunderneath": 4524,
    "Ġcobweb": 4525,
    "ĠWant": 4526,
    "Ġbel": 4527,
    "ý": 4528,
    "Ġworst": 4529,
    "Eww": 4530,
    "Ġknives": 4531,
    "Ġfi": 4532,
    "crow": 4533,
    "Ġimpatient": 4534,
    "Ġpiece": 4535,
    "Ġgolf": 4536,
    "eremy": 4537,
    "oun": 4538,
    "ĠSmo": 4539,
    "ĠWoo": 4540,
    "ĠSwim": 4541,
    "Ġev": 4542,
    "Ġnapped": 4543,
    "[": 4544,
    "Ġuniverse": 4545,
    "Ġrob": 4546,
    "Ġsailing": 4547,
    "gly": 4548,
    "Ġhundred": 4549,
    "Ġbridges": 4550,
    "avi": 4551,
    "ĠQuacky": 4552,
    "Ġwhoever": 4553,
    "Ġbowl": 4554,
    "Ġtugging": 4555,
    "xible": 4556,
    "Ġbegan": 4557,
    "wel": 4558,
    "Ġbacked": 4559,
    "Ġnear": 4560,
    "Ġtight": 4561,
    "Ġwiggling": 4562,
    "Ġhearts": 4563,
    "Ġclean": 4564,
    "Ġstud": 4565,
    "ĠSad": 4566,
    "Ġbottom": 4567,
    "ĠMillie": 4568,
    "zie": 4569,
    "Ġimportance": 4570,
    "ĠJan": 4571,
    "Ġsing": 4572,
    "Ġhidden": 4573,
    "Ġacross": 4574,
    "Ġfloors": 4575,
    "Ġwalks": 4576,
    "ĠTooth": 4577,
    "Ġdirt": 4578,
    "elieve": 4579,
    "Ġdisturbed": 4580,
    "ĠH": 4581,
    "Ġgiggle": 4582,
    "Ġsmells": 4583,
    "ex": 4584,
    "ĠToot": 4585,
    "Ġfiremen": 4586,
    "Ġnuts": 4587,
    "Ġbaths": 4588,
    "Ġlies": 4589,
    "Ġhurt": 4590,
    "Ġplayers": 4591,
    "istol": 4592,
    "ĠDin": 4593,
    "Ġel": 4594,
    "Ġslipping": 4595,
    "Ġdef": 4596,
    "Ġsadness": 4597,
    "Shoo": 4598,
    "Ġcandies": 4599,
    "Ġpl": 4600,
    "Ġheartbroken": 4601,
    "icate": 4602,
    "ĠAr": 4603,
    "Ġperfectly": 4604,
    "ĠPolly": 4605,
    "Ę": 4606,
    "Ġwra": 4607,
    "Ġhad": 4608,
    "Ġlate": 4609,
    "Ġbuck": 4610,
    "Ġdecl": 4611,
    "Ġremembering": 4612,
    "ets": 4613,
    "ĠAmanda": 4614,
    "Ġyes": 4615,
    "ieves": 4616,
    "ĠKayla": 4617,
    "bee": 4618,
    "Ġsalt": 4619,
    "ĠBunny": 4620,
    "ĠLook": 4621,
    "Ġcho": 4622,
    "Ġav": 4623,
    "â": 4624,
    "Ġlime": 4625,
    "Ġfires": 4626,
    "Ġslap": 4627,
    "é": 4628,
    "Ġcrayons": 4629,
    "Ġwasted": 4630,
    "Ġpicnics": 4631,
    "Ġmush": 4632,
    "Ġofficers": 4633,
    "ĠReddy": 4634,
    "immer": 4635,
    "selves": 4636,
    "Ġliked": 4637,
    "Ġtw": 4638,
    "isions": 4639,
    "opes": 4640,
    "ĠX": 4641,
    "Ġnoise": 4642,
    "Ġeng": 4643,
    "Ġcobwebs": 4644,
    "Ġapple": 4645,
    "Ġplugged": 4646,
    "Ġvent": 4647,
    "ĠJon": 4648,
    "Ġberry": 4649,
    "Ġin": 4650,
    "irring": 4651,
    "Ġagreed": 4652,
    "Ġcuddly": 4653,
    "Ow": 4654,
    "ith": 4655,
    "Ġveggies": 4656,
    "Ġsandcastles": 4657,
    "Ġvegetables": 4658,
    "Ġattach": 4659,
    "Ġuntil": 4660,
    "row": 4661,
    "Ġwhip": 4662,
    "Ġbak": 4663,
    "Ġvoices": 4664,
    "Ġquest": 4665,
    "Ġconvin": 4666,
    "Ġelephants": 4667,
    "Ġwelcomed": 4668,
    "Ġeverywhere": 4669,
    "ĠMuffin": 4670,
    "ĠAg": 4671,
    "Ġspy": 4672,
    "that": 4673,
    "ont": 4674,
    "ĠSara": 4675,
    "Ġpulled": 4676,
    "ĠWonder": 4677,
    "Ġoutfit": 4678,
    "Ġbells": 4679,
    "Ġe": 4680,
    "Ġcreate": 4681,
    "apping": 4682,
    "Ġcartoon": 4683,
    "Ġparks": 4684,
    "Ġhonking": 4685,
    "Ġleak": 4686,
    "Ġknock": 4687,
    "ceed": 4688,
    "Ġtemper": 4689,
    "Ġexcitedly": 4690,
    "Ġdreaming": 4691,
    "bird": 4692,
    "Ġdived": 4693,
    "Ġpaused": 4694,
    "Ġapproached": 4695,
    "Ġsound": 4696,
    "Ġbubble": 4697,
    "Ġwin": 4698,
    "Ġapplause": 4699,
    "uct": 4700,
    "ĠDina": 4701,
    "Ġjoy": 4702,
    "Ġcheek": 4703,
    "'s": 4704,
    "Ġinvestigate": 4705,
    "iness": 4706,
    "Ġdrawer": 4707,
    "Ġgrew": 4708,
    "ime": 4709,
    "Ġseemed": 4710,
    "ĠAlong": 4711,
    "Ġspread": 4712,
    "ang": 4713,
    "icked": 4714,
    "sn": 4715,
    "Ġport": 4716,
    "Ġchatted": 4717,
    "Ġcrow": 4718,
    "Mrs": 4719,
    "Ġcause": 4720,
    "Ġforgetting": 4721,
    "Ġprunes": 4722,
    "chanic": 4723,
    "mble": 4724,
    "jo": 4725,
    "rom": 4726,
    "Ġfrozen": 4727,
    "Ġwildflowers": 4728,
    "Ġcou": 4729,
    "Ġbirdhouse": 4730,
    "nder": 4731,
    "Ġpract": 4732,
    "Ġcaps": 4733,
    "Ġchuck": 4734,
    "hic": 4735,
    "ither": 4736,
    "Ġfreed": 4737,
    "Ġshall": 4738,
    "Ġstatues": 4739,
    "Ġnamed": 4740,
    "Ġencouraging": 4741,
    "ĠEven": 4742,
    "Ġcudd": 4743,
    "astic": 4744,
    "Ġlosing": 4745,
    "Ġvide": 4746,
    "Ġoff": 4747,
    "vice": 4748,
    "Ġimagining": 4749,
    "hee": 4750,
    "Ġmis": 4751,
    "Ġjoining": 4752,
    "Ġcloset": 4753,
    "Ġtowards": 4754,
    "Ġcuddled": 4755,
    "Ġfreezer": 4756,
    "beep": 4757,
    "Ġfixer": 4758,
    "Ġstar": 4759,
    "ĠElsa": 4760,
    "Ġleave": 4761,
    "Ġstreng": 4762,
    "Ġourselves": 4763,
    "arlings": 4764,
    "Ġcookies": 4765,
    "Ġguarding": 4766,
    "Ġunus": 4767,
    "Ġthick": 4768,
    "ettle": 4769,
    "Ġsquishy": 4770,
    "Ġpepper": 4771,
    "ĠSu": 4772,
    "Ġnavy": 4773,
    "araway": 4774,
    "ĠApp": 4775,
    "idence": 4776,
    "Ġbedroom": 4777,
    "Wally": 4778,
    "Ġdolphins": 4779,
    "om": 4780,
    "Ġhurts": 4781,
    "Ġax": 4782,
    "Whiskers": 4783,
    "ĠRosie": 4784,
    "ĠS": 4785,
    "Ġnods": 4786,
    "Ġforgive": 4787,
    "Ġwaffles": 4788,
    "Ġbasketball": 4789,
    "ĠNe": 4790,
    "Ġcarry": 4791,
    "Fr": 4792,
    "Ġbelly": 4793,
    "Ġbugs": 4794,
    "Ġslowed": 4795,
    "Ġfought": 4796,
    "Ġglow": 4797,
    "Ġplenty": 4798,
    "Ġsunf": 4799,
    "Ġdrip": 4800,
    "Ġtelescope": 4801,
    "Ġburst": 4802,
    "ĠPoppy": 4803,
    "ashing": 4804,
    "Ġco": 4805,
    "etch": 4806,
    "ush": 4807,
    "Ġstart": 4808,
    "ext": 4809,
    "Ġlicking": 4810,
    "Ġheal": 4811,
    "Ġweep": 4812,
    "w": 4813,
    "Ġinside": 4814,
    "Ġautomobile": 4815,
    "bbled": 4816,
    "ighing": 4817,
    "ĠDizzy": 4818,
    "Ġdanger": 4819,
    "Ġshower": 4820,
    "Jenny": 4821,
    "riends": 4822,
    "Ġincredible": 4823,
    "Ġlistener": 4824,
    "Ġgrowing": 4825,
    "Ġbead": 4826,
    "ĠLucy": 4827,
    "Ġsupported": 4828,
    "Ġlucky": 4829,
    "Ġtrotted": 4830,
    "Ġmeowed": 4831,
    "ĠMatilda": 4832,
    "Ġshook": 4833,
    "ĠWhile": 4834,
    "Ġafter": 4835,
    "George": 4836,
    "Ġflo": 4837,
    "Ġtiny": 4838,
    "Ġscored": 4839,
    "Ġnibble": 4840,
    "ĠSofia": 4841,
    "Ġboys": 4842,
    "Ġavocados": 4843,
    "ĠRia": 4844,
    "Sammy": 4845,
    "ffee": 4846,
    "Ġgas": 4847,
    "Ġenemies": 4848,
    "Ġunderwater": 4849,
    "Ġform": 4850,
    "Ġfresh": 4851,
    "Ray": 4852,
    "ĠBonnie": 4853,
    "Ġtires": 4854,
    "Ġocean": 4855,
    "ad": 4856,
    "ĠSo": 4857,
    "Ġsnow": 4858,
    "Ġtravels": 4859,
    "zen": 4860,
    "Ġtuna": 4861,
    "Ġreveal": 4862,
    "Ġpal": 4863,
    "Ġspots": 4864,
    "Ġyum": 4865,
    "Ġpicture": 4866,
    "ĠSomet": 4867,
    "Ġbakery": 4868,
    "Eat": 4869,
    "Ġnearly": 4870,
    "Ġtea": 4871,
    "ĠTip": 4872,
    "Ġcreating": 4873,
    "Ġhall": 4874,
    "ĠEva": 4875,
    "Sh": 4876,
    "Ġsteal": 4877,
    "Ġpri": 4878,
    "Ġrecognized": 4879,
    "Ġmaker": 4880,
    "Ġdesert": 4881,
    "rise": 4882,
    "Ġplayd": 4883,
    "At": 4884,
    "uce": 4885,
    "Ġdestroyed": 4886,
    "Ġpizza": 4887,
    "ete": 4888,
    "Ġcloser": 4889,
    "box": 4890,
    "Ġmeadow": 4891,
    "inking": 4892,
    "Ġsomeday": 4893,
    "Ġglitter": 4894,
    "ĠMother": 4895,
    "Ġjuice": 4896,
    "Ġcovered": 4897,
    "Ġaren": 4898,
    "ĠLeo": 4899,
    "Bless": 4900,
    "qu": 4901,
    "Ġslapping": 4902,
    "Ġemergen": 4903,
    "ĠAndy": 4904,
    "Ġbat": 4905,
    "Ġmysteries": 4906,
    "Open": 4907,
    "Ġluckiest": 4908,
    "Ġofficer": 4909,
    "Ġguns": 4910,
    "į": 4911,
    "icky": 4912,
    "ĩ": 4913,
    "Ġthem": 4914,
    "Ġtooth": 4915,
    "Ġinteresting": 4916,
    "amie": 4917,
    "Ġspills": 4918,
    "Sc": 4919,
    "Ġtents": 4920,
    "bank": 4921,
    "isk": 4922,
    "ippy": 4923,
    "Ġvisit": 4924,
    "ĠCra": 4925,
    "Ġup": 4926,
    "Ġcoat": 4927,
    "Ġscient": 4928,
    "ach": 4929,
    "Ġorange": 4930,
    "Ġbanging": 4931,
    "Ġlic": 4932,
    "ĠBecause": 4933,
    "Ġfurry": 4934,
    "Ġpigeons": 4935,
    "Ġlean": 4936,
    "Ġgrill": 4937,
    "ĠHurry": 4938,
    "Ġself": 4939,
    "Ġmusician": 4940,
    "Ġegg": 4941,
    "Ġso": 4942,
    "Ġph": 4943,
    "ĠTw": 4944,
    "]": 4945,
    "ĠCan": 4946,
    "Ġsooner": 4947,
    "Ġshy": 4948,
    "nament": 4949,
    "ò": 4950,
    "Ġexcitement": 4951,
    "ĠWelcome": 4952,
    "Ġmicrow": 4953,
    "Ġinstrum": 4954,
    "ool": 4955,
    "oga": 4956,
    "eet": 4957,
    "co": 4958,
    "Ġcovers": 4959,
    "ĠOpen": 4960,
    "ĠWithout": 4961,
    "Ġmelons": 4962,
    "Ġfrustr": 4963,
    "Ġprinter": 4964,
    "Ġcheese": 4965,
    "Ġrid": 4966,
    "Ġhorns": 4967,
    "ucked": 4968,
    "ari": 4969,
    "use": 4970,
    "ĠRub": 4971,
    "ĠSunday": 4972,
    "ife": 4973,
    "Ġbeloved": 4974,
    "Ġcous": 4975,
    "Ġleft": 4976,
    "Ġdod": 4977,
    "cil": 4978,
    "ĠHolly": 4979,
    "Ġscientist": 4980,
    "Ġtrapped": 4981,
    "Ġmate": 4982,
    "Ġshoots": 4983,
    "Ġsame": 4984,
    "Ġbracelet": 4985,
    "Ġwarri": 4986,
    "Bye": 4987,
    "Ġpersistent": 4988,
    "Ġamount": 4989,
    "Ġpride": 4990,
    "Ġpunish": 4991,
    "Ġtidied": 4992,
    "ĠEm": 4993,
    "Ġhapp": 4994,
    "Ġshould": 4995,
    "ĠMouse": 4996,
    "ĠClose": 4997,
    "Ġfinger": 4998,
    "umpet": 4999,
    "Ġeye": 5000,
    "iable": 5001,
    "Ġrobot": 5002,
    "Ġtall": 5003,
    "Joey": 5004,
    "Ġsnowman": 5005,
    "Ġgaze": 5006,
    "ĠCars": 5007,
    "Ġscaring": 5008,
    "Ġkitten": 5009,
    "Ġstreets": 5010,
    "ĠTom": 5011,
    "Ġsquirted": 5012,
    "Mummy": 5013,
    "Ġfriend": 5014,
    "Ġwhich": 5015,
    "Behind": 5016,
    "Ġfil": 5017,
    "Ġthing": 5018,
    "Ġbuzz": 5019,
    "'d": 5020,
    "Ġbabies": 5021,
    "Oh": 5022,
    "Ġpoor": 5023,
    "Ġdecorations": 5024,
    "Ġstain": 5025,
    "Ġflute": 5026,
    "ĠAn": 5027,
    "Ġdiary": 5028,
    "ther": 5029,
    "Ġmagical": 5030,
    "Alice": 5031,
    "Ġbouncy": 5032,
    "Ġdet": 5033,
    "ity": 5034,
    "Penny": 5035,
    "Ġaston": 5036,
    "Ġpound": 5037,
    "Ġpre": 5038,
    "otten": 5039,
    "und": 5040,
    "Ĕ": 5041,
    "ĠGet": 5042,
    "known": 5043,
    "obile": 5044,
    "Ġexperienced": 5045,
    "Ġthird": 5046,
    "unny": 5047,
    "Ġblueberries": 5048,
    "immering": 5049,
    "Ġflexible": 5050,
    "ĠHi": 5051,
    "Ġgrassho": 5052,
    "Ġbears": 5053,
    "ĠRes": 5054,
    "snap": 5055,
    "Ġhair": 5056,
    "Ġpies": 5057,
    "Ġpounds": 5058,
    "Ġemerged": 5059,
    "Ġdove": 5060,
    "Ġsighs": 5061,
    "Ġfear": 5062,
    "q": 5063,
    "v": 5064,
    "icorn": 5065,
    "Ġwrigg": 5066,
    "Ġjeep": 5067,
    "Ġfoot": 5068,
    "Ġvroom": 5069,
    "Ġstays": 5070,
    "Ġsill": 5071,
    "Ġtramp": 5072,
    "neath": 5073,
    "ation": 5074,
    "Ġli": 5075,
    "Ġpengu": 5076,
    "Ġswall": 5077,
    "Ġcamp": 5078,
    "ĠAdam": 5079,
    "đ": 5080,
    "Ġacorn": 5081,
    "fort": 5082,
    "Ġreminding": 5083,
    "ĠFairy": 5084,
    "Ġsmiling": 5085,
    "Ġrevealing": 5086,
    "Ġballoons": 5087,
    "Ġnoticed": 5088,
    "Ġsliding": 5089,
    "ĠLe": 5090,
    "iting": 5091,
    "Ġnoisy": 5092,
    "Ġbean": 5093,
    "dies": 5094,
    "Ġwelcoming": 5095,
    "Ġpacked": 5096,
    "ĠHel": 5097,
    "Ġresist": 5098,
    "Ġsnatched": 5099,
    "Ġhelper": 5100,
    "omet": 5101,
    "Ġhate": 5102,
    "yal": 5103,
    "Jerry": 5104,
    "Ġfears": 5105,
    "Ġokay": 5106,
    "Ġshrimp": 5107,
    "Ġtong": 5108,
    "Ġchair": 5109,
    "Leave": 5110,
    "Ġadventure": 5111,
    "Ġteddy": 5112,
    "Ġspooky": 5113,
    "Ġexploded": 5114,
    "Ġsitting": 5115,
    "Ġsaid": 5116,
    "Ġblanket": 5117,
    "ocer": 5118,
    "Ġle": 5119,
    "W": 5120,
    "Ġund": 5121,
    "man": 5122,
    "Ġtide": 5123,
    "ling": 5124,
    "Ġchocolate": 5125,
    "ey": 5126,
    "Ġgroups": 5127,
    "Ġbackyard": 5128,
    "ction": 5129,
    "llipop": 5130,
    "vroom": 5131,
    "ircle": 5132,
    "rigued": 5133,
    "order": 5134,
    "ative": 5135,
    "Ġpouring": 5136,
    "Matt": 5137,
    "Ġdetails": 5138,
    "Ġhighest": 5139,
    "Ġengines": 5140,
    "Ġplates": 5141,
    "Ġwild": 5142,
    "Ġdust": 5143,
    "Days": 5144,
    "nn": 5145,
    "Ġmoney": 5146,
    "Ġconvinced": 5147,
    "Ġcompassionate": 5148,
    "Ġmighty": 5149,
    "Ġsoil": 5150,
    "ible": 5151,
    "Ġfart": 5152,
    "Ġob": 5153,
    "Ġpuppy": 5154,
    "Mad": 5155,
    "iri": 5156,
    "rr": 5157,
    "bage": 5158,
    "Ġstands": 5159,
    "Ġsells": 5160,
    "Rain": 5161,
    "Ġward": 5162,
    "Th": 5163,
    "Ġrider": 5164,
    "Ġleaned": 5165,
    "welcome": 5166,
    "Ġpuppies": 5167,
    "Ġwarnings": 5168,
    "Ġslept": 5169,
    "Ġmanaged": 5170,
    "Ġanyone": 5171,
    "Ġfriendly": 5172,
    "Ġsatisfaction": 5173,
    "Ġmer": 5174,
    "Ġwhine": 5175,
    "Ġlollipops": 5176,
    "Ġgroup": 5177,
    "Ġsuggested": 5178,
    "Ġunderstanding": 5179,
    "Ġawake": 5180,
    "abies": 5181,
    "ges": 5182,
    "Ġjoked": 5183,
    "ă": 5184,
    "Ġa": 5185,
    "ĠMabel": 5186,
    "Ġhunt": 5187,
    "Ġcell": 5188,
    "Ġwis": 5189,
    "oman": 5190,
    "ĠSteve": 5191,
    "Once": 5192,
    "ĠMon": 5193,
    "elia": 5194,
    "Ġmade": 5195,
    "Ġbone": 5196,
    "Ġtorn": 5197,
    "Ġsan": 5198,
    "ĠMama": 5199,
    "Ġpupils": 5200,
    "Ġperformed": 5201,
    "Ġrestore": 5202,
    "Ġtidy": 5203,
    "Ġactive": 5204,
    "asis": 5205,
    "Ġemp": 5206,
    "Ġbr": 5207,
    "Ġchick": 5208,
    "Ġdrawings": 5209,
    "Ġblast": 5210,
    "Ġamaz": 5211,
    "Ġcat": 5212,
    "Ġyounger": 5213,
    "Ġworld": 5214,
    "Ġservant": 5215,
    "Ġphotos": 5216,
    "Ġtoothbrush": 5217,
    "vering": 5218,
    "Ġjug": 5219,
    "Ġpunished": 5220,
    "ĠCatty": 5221,
    "Ġribbon": 5222,
    "ppies": 5223,
    "Ġclapped": 5224,
    "Ġchild": 5225,
    "ellig": 5226,
    "Out": 5227,
    "Ġtells": 5228,
    "Ġpage": 5229,
    "ĠV": 5230,
    "ntil": 5231,
    "mine": 5232,
    "ern": 5233,
    "oney": 5234,
    "Ġsymbols": 5235,
    "Ġshield": 5236,
    "Ġspreading": 5237,
    "Isn": 5238,
    "Ġpoop": 5239,
    "Ġheads": 5240,
    "Ġplate": 5241,
    "Ġseparating": 5242,
    "Ġmud": 5243,
    "Ġconc": 5244,
    "Ġexamining": 5245,
    "Ġyog": 5246,
    "Ġbarking": 5247,
    "Ġdanced": 5248,
    "ī": 5249,
    "Ġoriginal": 5250,
    "oved": 5251,
    "Ġjobs": 5252,
    "Ġgreeted": 5253,
    "Ġencourage": 5254,
    "Annie": 5255,
    "ract": 5256,
    "Ġsurf": 5257,
    "Ġobserving": 5258,
    "Ġsweep": 5259,
    "Ġterri": 5260,
    "Ġcleaner": 5261,
    "Ġupset": 5262,
    "ĠCircle": 5263,
    "Ġapp": 5264,
    "Ġobserve": 5265,
    "Ġsniffled": 5266,
    "Ġslithered": 5267,
    "ĠHow": 5268,
    "Ġrow": 5269,
    "Ġsimple": 5270,
    "Ġhedge": 5271,
    "Ġseat": 5272,
    "Ġbeans": 5273,
    "Rex": 5274,
    "Ġpile": 5275,
    "erk": 5276,
    "Ġbothering": 5277,
    "ã": 5278,
    "Ġcricket": 5279,
    "bang": 5280,
    "Ġhar": 5281,
    "Ġfor": 5282,
    "Ġashamed": 5283,
    "ience": 5284,
    "These": 5285,
    "Ġgoodies": 5286,
    "ĠHappy": 5287,
    "ĠOld": 5288,
    "alley": 5289,
    "Ġmuff": 5290,
    "Ġdots": 5291,
    "Ġastonished": 5292,
    "Ġflock": 5293,
    "Ġflies": 5294,
    "Ġscratch": 5295,
    "Ġtasty": 5296,
    "Ġstartled": 5297,
    "Ġsword": 5298,
    "Ġtoward": 5299,
    "Jazz": 5300,
    "Ġglee": 5301,
    "Ġcome": 5302,
    "ĠAll": 5303,
    "Ġgoals": 5304,
    "Ġbulbs": 5305,
    "ĠFluffy": 5306,
    "ĠSquee": 5307,
    "Ġgraceful": 5308,
    "Ġbrought": 5309,
    "Ġtrees": 5310,
    "ĠAnt": 5311,
    "Ġsmell": 5312,
    "Ġbeh": 5313,
    "del": 5314,
    "Have": 5315,
    "ĠThanks": 5316,
    "Ġvinegar": 5317,
    "ital": 5318,
    "ĠTia": 5319,
    "Ġhills": 5320,
    "Ġwhispered": 5321,
    "Ġgrows": 5322,
    "Ġhelp": 5323,
    "ess": 5324,
    "Ġanything": 5325,
    "Ġwaddled": 5326,
    "Ġglitt": 5327,
    "Ġrepaired": 5328,
    "Ġfallen": 5329,
    "Ġelectricity": 5330,
    "aspoon": 5331,
    "Ġlabels": 5332,
    "Ġcake": 5333,
    "time": 5334,
    "Ġdigs": 5335,
    "Ġmatters": 5336,
    "oppy": 5337,
    "Ġexerc": 5338,
    "elie": 5339,
    "Ġinclude": 5340,
    "Ġbeaming": 5341,
    "ashes": 5342,
    "ĠAngel": 5343,
    "Ġpastry": 5344,
    "«": 5345,
    "ĠPeople": 5346,
    "ĠPuff": 5347,
    "Jo": 5348,
    "Ġtubes": 5349,
    "Ġdolls": 5350,
    "Ġfle": 5351,
    "Ġdisobeyed": 5352,
    "Ġeveryday": 5353,
    "Ġdays": 5354,
    "izz": 5355,
    "Ġtoo": 5356,
    "Ġmany": 5357,
    "Ġrec": 5358,
    "Ġshovel": 5359,
    "Gr": 5360,
    "Ġglimmering": 5361,
    "Ġgoal": 5362,
    "Ġcloth": 5363,
    "Ġhelmets": 5364,
    "Ġbars": 5365,
    "Bo": 5366,
    "Ġnorm": 5367,
    "isdom": 5368,
    "ian": 5369,
    "den": 5370,
    "Ġcountries": 5371,
    "Ġlaug": 5372,
    "Ġpointing": 5373,
    "Ġpers": 5374,
    "ien": 5375,
    "¶": 5376,
    "Ġsmaller": 5377,
    "Ġgrant": 5378,
    "Ġnoon": 5379,
    "Ġuns": 5380,
    "uper": 5381,
    "pit": 5382,
    "Ġgir": 5383,
    "ĠCoco": 5384,
    "ier": 5385,
    "izing": 5386,
    "Ġbravest": 5387,
    "oot": 5388,
    "ĠNear": 5389,
    "Ġbeamed": 5390,
    "alous": 5391,
    "Ġscratching": 5392,
    "Ġrebuild": 5393,
    "Ġmarket": 5394,
    "ĠK": 5395,
    "Ġpretending": 5396,
    "Ġtallest": 5397,
    "Ġdro": 5398,
    "Ġant": 5399,
    "Ġawhile": 5400,
    "aser": 5401,
    "Ġruining": 5402,
    "However": 5403,
    "ĠZippy": 5404,
    "lest": 5405,
    "Ġsl": 5406,
    "Ġblow": 5407,
    "Ġpuff": 5408,
    "itted": 5409,
    "Ġdisob": 5410,
    "bert": 5411,
    "Pip": 5412,
    "Ġfriends": 5413,
    "Ġresult": 5414,
    "reci": 5415,
    "Ġwoken": 5416,
    "Ġcuddle": 5417,
    "Ġrequest": 5418,
    "ĠAnnabelle": 5419,
    "Ġsnakes": 5420,
    "Ġtransform": 5421,
    "Ġfamily": 5422,
    "Ġangel": 5423,
    "ĠFind": 5424,
    "apa": 5425,
    "Ġterrible": 5426,
    "ĠBoun": 5427,
    "ĠOxygen": 5428,
    "Ġbrid": 5429,
    "Ġdetermined": 5430,
    "Andy": 5431,
    "Ġwhoosh": 5432,
    "Ġgooey": 5433,
    "Ġlined": 5434,
    "ĠFlop": 5435,
    "Ġspike": 5436,
    "Ġsqueaked": 5437,
    "Ġgenerous": 5438,
    "Ġfireworks": 5439,
    "Ġnicest": 5440,
    "âĢ¦": 5441,
    "Ġspend": 5442,
    "Ġjars": 5443,
    "Ġfans": 5444,
    "iti": 5445,
    "Ġtried": 5446,
    "Ġfood": 5447,
    "ĠDr": 5448,
    "Ġargue": 5449,
    "ogo": 5450,
    "ĝ": 5451,
    "ĠRazor": 5452,
    "athan": 5453,
    "ĠDuke": 5454,
    "Ġnodding": 5455,
    "Ġprog": 5456,
    "Ġpaint": 5457,
    "ĠTrue": 5458,
    "Ġd": 5459,
    "Ġnot": 5460,
    "Ġsoldier": 5461,
    "Ġvalu": 5462,
    "Ġclimbing": 5463,
    "Ġtwisted": 5464,
    "Ġearned": 5465,
    "Ġluxu": 5466,
    "eep": 5467,
    "Ġwas": 5468,
    "Ġaff": 5469,
    "ĠZigzag": 5470,
    "Ġbaby": 5471,
    "Should": 5472,
    "Ġleop": 5473,
    "Ġcrossing": 5474,
    "Ġstopping": 5475,
    "Ġdive": 5476,
    "ipment": 5477,
    "Ġchocolates": 5478,
    "0": 5479,
    "Ġsp": 5480,
    "zag": 5481,
    "ĠFloppy": 5482,
    "ĠSpirit": 5483,
    "Ġtalking": 5484,
    "Ġkittens": 5485,
    "ĠSnap": 5486,
    "Ġfleas": 5487,
    "Ġwaff": 5488,
    "re": 5489,
    "Ġcherry": 5490,
    "Ġaccept": 5491,
    "Lena": 5492,
    "Ġan": 5493,
    "Ġmassages": 5494,
    "Ġcops": 5495,
    "Ġlost": 5496,
    "ĠPine": 5497,
    "ĠMike": 5498,
    "Ġwatch": 5499,
    "Ġpresent": 5500,
    "Ġlighting": 5501,
    "Ġcelebrating": 5502,
    "Ġslow": 5503,
    "ĠĊ": 5504,
    "Ġhawk": 5505,
    "H": 5506,
    "Ġlecture": 5507,
    "Ġsle": 5508,
    "Ġsuck": 5509,
    "Ġscowl": 5510,
    "Ġstrip": 5511,
    "Ġalligators": 5512,
    "Ġbar": 5513,
    "Ġjumps": 5514,
    "ag": 5515,
    "Julie": 5516,
    "Ġfind": 5517,
    "Ġkites": 5518,
    "itting": 5519,
    "Ġseven": 5520,
    "Ġpleasure": 5521,
    "Ġappl": 5522,
    "Ġknight": 5523,
    "Ġbre": 5524,
    "Ġcave": 5525,
    "Ġboard": 5526,
    "Ġcart": 5527,
    "Ġdesks": 5528,
    "Ġshyly": 5529,
    "ball": 5530,
    "Ġeag": 5531,
    "Ġisland": 5532,
    "ĠZiggy": 5533,
    "Ch": 5534,
    "ĠBehind": 5535,
    "Ġview": 5536,
    "Ġdisaster": 5537,
    "come": 5538,
    "Lizzy": 5539,
    "Ġabo": 5540,
    "Ġpennies": 5541,
    "ythm": 5542,
    "Ġmailman": 5543,
    "ucet": 5544,
    "Ġpractice": 5545,
    "Ġwatering": 5546,
    "Ġdes": 5547,
    "Ġmedicine": 5548,
    "Ġrinse": 5549,
    "bbed": 5550,
    "irr": 5551,
    "Ġbush": 5552,
    "ĠKaty": 5553,
    "ĠCo": 5554,
    "ĠSkip": 5555,
    "Ġfight": 5556,
    "Ġhon": 5557,
    "Ġfamilies": 5558,
    "Ġhonest": 5559,
    "Ġmemories": 5560,
    "Ġcar": 5561,
    "Ġscurried": 5562,
    "Ġducks": 5563,
    "igail": 5564,
    "ĠBubb": 5565,
    "Ġbushy": 5566,
    "ecca": 5567,
    "Ġguard": 5568,
    "Ġpassports": 5569,
    "Ġplanets": 5570,
    "ĠMarch": 5571,
    "Ġchat": 5572,
    "Ġvac": 5573,
    "Ġplants": 5574,
    "Ġlollipop": 5575,
    "Ġsoaking": 5576,
    "ĠRita": 5577,
    "His": 5578,
    "ĠLena": 5579,
    "Ġsituation": 5580,
    "Ġpositive": 5581,
    "Ġrunner": 5582,
    "ond": 5583,
    "Ġturning": 5584,
    "Ġvideos": 5585,
    "Ġthr": 5586,
    "coon": 5587,
    "Ġcleared": 5588,
    "Ġsled": 5589,
    "Ġmarshmallows": 5590,
    "Ġpray": 5591,
    "Ġswimsuit": 5592,
    "Ġliqu": 5593,
    "Ġtraded": 5594,
    "Á": 5595,
    "ĠOut": 5596,
    "Ġsuffered": 5597,
    "Honey": 5598,
    "Ġunwrapped": 5599,
    "ĠThunder": 5600,
    "Ġapplauded": 5601,
    "Ġexam": 5602,
    "Ġstack": 5603,
    "Ġkiss": 5604,
    "Ġorganizing": 5605,
    "Ġclub": 5606,
    "Ġdefin": 5607,
    "ott": 5608,
    "Ġgif": 5609,
    "byes": 5610,
    "Ġdip": 5611,
    "ĠBear": 5612,
    "Ġkit": 5613,
    "Ġclosely": 5614,
    "Ġtripped": 5615,
    "Ġmop": 5616,
    "Ġproviding": 5617,
    "alph": 5618,
    "Ġblocked": 5619,
    "Ġgra": 5620,
    "Ġtears": 5621,
    "Ġrealize": 5622,
    "Ġkinds": 5623,
    "berry": 5624,
    "airy": 5625,
    "Ġopening": 5626,
    "Ġstole": 5627,
    "Ġmasks": 5628,
    "cuse": 5629,
    "Ġig": 5630,
    "Sw": 5631,
    "ĠAndrew": 5632,
    "Ġdigg": 5633,
    "Ġunt": 5634,
    "ĠIts": 5635,
    "Ġtrap": 5636,
    "lc": 5637,
    "David": 5638,
    "Ġlogs": 5639,
    "Ġtablet": 5640,
    "ĠSplash": 5641,
    "len": 5642,
    "Ġmodest": 5643,
    "Ġgrab": 5644,
    "Ġmuscle": 5645,
    "irt": 5646,
    "Ġdra": 5647,
    "arry": 5648,
    "ĠAng": 5649,
    "Ġte": 5650,
    "Ġspeed": 5651,
    "Ġwatermelon": 5652,
    "Ġprot": 5653,
    "Ġteapot": 5654,
    "Ġcards": 5655,
    "urpr": 5656,
    "Ġstro": 5657,
    "Surrender": 5658,
    "Ġcrack": 5659,
    "Ġenvelope": 5660,
    "Not": 5661,
    "Ġsour": 5662,
    "ĠJacob": 5663,
    "My": 5664,
    "ĠJump": 5665,
    "Ġcontent": 5666,
    "Ġfall": 5667,
    "alm": 5668,
    "Ġshivering": 5669,
    "ĠFrog": 5670,
    "Ġdist": 5671,
    "Ġwarmed": 5672,
    "Ġvests": 5673,
    "Ġrod": 5674,
    "Ġzooms": 5675,
    "stic": 5676,
    "Ġcomplete": 5677,
    "Ġmats": 5678,
    "Ġsip": 5679,
    "Ġneat": 5680,
    "Ġripp": 5681,
    "Ġprevented": 5682,
    "Ġcrept": 5683,
    "ĠTony": 5684,
    "Ġmoment": 5685,
    "Ġshooed": 5686,
    "Ġ2": 5687,
    "Ġlessons": 5688,
    "!": 5689,
    "Ġconfl": 5690,
    "Ġfist": 5691,
    "Ġpour": 5692,
    "Ġlongest": 5693,
    "Ġhiss": 5694,
    "Ġsaying": 5695,
    "Ġgent": 5696,
    "Ġsolved": 5697,
    "ĠWater": 5698,
    "Ġrubbed": 5699,
    "Ġrisks": 5700,
    "Ġbloomed": 5701,
    "An": 5702,
    "Ġro": 5703,
    "Ġshakes": 5704,
    "Ġoffered": 5705,
    "pen": 5706,
    "iff": 5707,
    "Ġluck": 5708,
    "Ġcroak": 5709,
    "Ġbasement": 5710,
    "Ġbecame": 5711,
    "Both": 5712,
    "Ġrivers": 5713,
    "Ġefforts": 5714,
    "ados": 5715,
    "amber": 5716,
    "iggie": 5717,
    "Ġpleased": 5718,
    "Ġpoems": 5719,
    "Jamie": 5720,
    "Ġfunn": 5721,
    "Ġappro": 5722,
    "ince": 5723,
    "Ġghosts": 5724,
    "la": 5725,
    "oup": 5726,
    "pecting": 5727,
    "Ġsupporting": 5728,
    "endant": 5729,
    "Ġmommy": 5730,
    "Æ": 5731,
    "Ġserved": 5732,
    "Ġplayhouse": 5733,
    "ado": 5734,
    "ĠSkelly": 5735,
    "aybe": 5736,
    "Ġwaves": 5737,
    "gen": 5738,
    "Ġmarble": 5739,
    "asses": 5740,
    "Č": 5741,
    "ĠWoof": 5742,
    "Ġarg": 5743,
    "Ġpinching": 5744,
    "ingly": 5745,
    "Ġneighbour": 5746,
    "»": 5747,
    "Ġbeanstalk": 5748,
    "Ġmeasure": 5749,
    "ened": 5750,
    "ē": 5751,
    "Ġstop": 5752,
    "Ġlay": 5753,
    "ase": 5754,
    "Ġpus": 5755,
    "lier": 5756,
    "ep": 5757,
    "Ġstore": 5758,
    "Ġbunny": 5759,
    "Ġtipto": 5760,
    "ĠTess": 5761,
    "Ġrad": 5762,
    "Ġswing": 5763,
    "Ġotherwise": 5764,
    "Ġwithout": 5765,
    "ls": 5766,
    "Ġat": 5767,
    "Ġpolice": 5768,
    "ats": 5769,
    "Ġdarker": 5770,
    "Ġdishes": 5771,
    "Ġwedding": 5772,
    "Ġcri": 5773,
    "Ġmister": 5774,
    "Br": 5775,
    "Ġsiblings": 5776,
    "Ġslid": 5777,
    "Ġflipped": 5778,
    "meow": 5779,
    "ĠBones": 5780,
    "{": 5781,
    "z": 5782,
    "Ġotter": 5783,
    "Ġthree": 5784,
    "Ġchases": 5785,
    "Ġdrawing": 5786,
    "Ġkicked": 5787,
    "Ġwritten": 5788,
    "Ġmixed": 5789,
    "Ġcol": 5790,
    "Ġstring": 5791,
    "Ġending": 5792,
    "Ġonions": 5793,
    "Ġfooled": 5794,
    "Jen": 5795,
    "ler": 5796,
    "Ġshown": 5797,
    "cused": 5798,
    "Ġtortoise": 5799,
    "ĠEliza": 5800,
    "Ġsk": 5801,
    "ĠGranny": 5802,
    "Ġhurricane": 5803,
    "Ġwriter": 5804,
    "Ġcop": 5805,
    "Ġbuilt": 5806,
    "Ġdollhouse": 5807,
    "Ġsongs": 5808,
    "Ġmint": 5809,
    "Ġactor": 5810,
    "Ġshimmering": 5811,
    "ĠOxy": 5812,
    "Fine": 5813,
    "Red": 5814,
    "Î": 5815,
    "ĠFin": 5816,
    "Ġends": 5817,
    "ĠEric": 5818,
    "X": 5819,
    "Ġord": 5820,
    "Ġmodels": 5821,
    "ming": 5822,
    "Ġvill": 5823,
    "ĠâĢ": 5824,
    "Ġpret": 5825,
    "Ģ": 5826,
    "Ġhouse": 5827,
    "acked": 5828,
    "pes": 5829,
    "Ġwhenever": 5830,
    "ĠDucky": 5831,
    "ose": 5832,
    "Ġfamil": 5833,
    "Ġthrill": 5834,
    "Ġpudd": 5835,
    "at": 5836,
    "Ġeraser": 5837,
    "ĠMark": 5838,
    "Ġrose": 5839,
    "Ġdaddy": 5840,
    "uster": 5841,
    "Ġthrough": 5842,
    "Ġrul": 5843,
    "Ġshirt": 5844,
    "Ġappearance": 5845,
    "Ġours": 5846,
    "âĢĿ.": 5847,
    "Ġscrub": 5848,
    "arden": 5849,
    "Ġar": 5850,
    "Ġonce": 5851,
    "Ċ": 5852,
    "ason": 5853,
    "anny": 5854,
    "Ġfollows": 5855,
    "Yuck": 5856,
    "ĠPlaying": 5857,
    "Ġlearn": 5858,
    "gl": 5859,
    "!\".": 5860,
    "ce": 5861,
    "Ġmov": 5862,
    "Ġrumble": 5863,
    "Ġopen": 5864,
    "Ġsteam": 5865,
    "reg": 5866,
    "sm": 5867,
    "riger": 5868,
    "ners": 5869,
    "Ġbrightest": 5870,
    "Ġbackpack": 5871,
    "Ġfolding": 5872,
    "Ġclown": 5873,
    "Ġmeet": 5874,
    "Ġargument": 5875,
    "Can": 5876,
    "Ġbeat": 5877,
    "Ġanyway": 5878,
    "fused": 5879,
    "Ġbottle": 5880,
    "Ġtroubled": 5881,
    "ĠWhiskers": 5882,
    "case": 5883,
    "Ġcheat": 5884,
    "Ġhide": 5885,
    "Ġarmchair": 5886,
    "ummies": 5887,
    "Ġclerk": 5888,
    "ĠCrab": 5889,
    "Ġturn": 5890,
    "Ġhood": 5891,
    "Ġlions": 5892,
    "ĠRel": 5893,
    "Ġcrowd": 5894,
    "ĠThings": 5895,
    "Ġfreez": 5896,
    "Ġwagged": 5897,
    "Ġamazing": 5898,
    "ĠPo": 5899,
    "Ġouch": 5900,
    "quake": 5901,
    "ilot": 5902,
    "Ġplaydate": 5903,
    "Ġwoodcut": 5904,
    "Bunny": 5905,
    "Ġshoe": 5906,
    "ĠBooks": 5907,
    "Ġbra": 5908,
    "Ġri": 5909,
    "Ġque": 5910,
    "t": 5911,
    "ara": 5912,
    "Sally": 5913,
    "ĠLinda": 5914,
    "ĠEat": 5915,
    "ĠRara": 5916,
    "u": 5917,
    "Ġweigh": 5918,
    "ip": 5919,
    "Ġtightly": 5920,
    "Ġpic": 5921,
    "Ġcomet": 5922,
    "est": 5923,
    "Ġmask": 5924,
    "Ella": 5925,
    "Ĝ": 5926,
    "Ġreunited": 5927,
    "Ġstill": 5928,
    "Ġloading": 5929,
    "ĠDot": 5930,
    "Ġpatterns": 5931,
    "Ġpretty": 5932,
    "Ab": 5933,
    "Ġrust": 5934,
    "ĠRich": 5935,
    "May": 5936,
    "Ġtalented": 5937,
    "getable": 5938,
    "Next": 5939,
    "Ġturkey": 5940,
    "Ġlifting": 5941,
    "Ġneatly": 5942,
    "Ġhor": 5943,
    "Ġank": 5944,
    "Ġmunch": 5945,
    "osity": 5946,
    "im": 5947,
    "Ġwigg": 5948,
    "Ì": 5949,
    "Ġfaith": 5950,
    "Ġgiggles": 5951,
    "Ġconcerned": 5952,
    "Ġdon": 5953,
    "ung": 5954,
    ".": 5955,
    "Ġblood": 5956,
    "uffy": 5957,
    "Ġdrops": 5958,
    "Ġelbow": 5959,
    "Ġaccompl": 5960,
    "itched": 5961,
    "iform": 5962,
    "Ġspl": 5963,
    "Ġpasta": 5964,
    "Where": 5965,
    "Ġjellyfish": 5966,
    "Ġmirror": 5967,
    "Ġshe": 5968,
    "Ġtodd": 5969,
    "Y": 5970,
    "Å": 5971,
    "Ġtoast": 5972,
    "Ġfactory": 5973,
    "...\"": 5974,
    "É": 5975,
    "ĠFishy": 5976,
    "Ġenvel": 5977,
    "ned": 5978,
    "Ġwrong": 5979,
    "ĠHopper": 5980,
    "ĠMa": 5981,
    "Ġdesigning": 5982,
    "ffe": 5983,
    "Ġim": 5984,
    "ampoo": 5985,
    "Ġbrothers": 5986,
    "Ġflying": 5987,
    "ĠWhistle": 5988,
    "udge": 5989,
    "ĠVivi": 5990,
    "Ġshout": 5991,
    "Ġfamiliar": 5992,
    "ch": 5993,
    "Ġtunes": 5994,
    "ĠCome": 5995,
    "ĠChirpy": 5996,
    "Ġsprinkles": 5997,
    "ask": 5998,
    "Ġsadly": 5999,
    "Ġsounds": 6000,
    "Ġmeal": 6001,
    "Ġfountain": 6002,
    "ipes": 6003,
    "Ġnovels": 6004,
    "igator": 6005,
    "Ġneighbors": 6006,
    "ĠA": 6007,
    "Ġhelpful": 6008,
    "Ġstay": 6009,
    "Ġwants": 6010,
    "Ġsweet": 6011,
    "ð": 6012,
    "ĠBiggie": 6013,
    "ani": 6014,
    "cket": 6015,
    "Ġreading": 6016,
    "Sophie": 6017,
    "izza": 6018,
    "Ġincluding": 6019,
    "Nothing": 6020,
    "ff": 6021,
    "Ġdirty": 6022,
    "Ġstirring": 6023,
    "Ġlimp": 6024,
    "Ġtakes": 6025,
    "ipped": 6026,
    "Ġwar": 6027,
    "Ġtornado": 6028,
    "ummy": 6029,
    "Ġsmall": 6030,
    "Ġchallenge": 6031,
    "rance": 6032,
    "Ġnever": 6033,
    "Ġbinocular": 6034,
    "vision": 6035,
    "ĠSuper": 6036,
    "uth": 6037,
    "eat": 6038,
    "Dolly": 6039,
    "umber": 6040,
    "ial": 6041,
    "Ġveil": 6042,
    "As": 6043,
    "Ġbang": 6044,
    "str": 6045,
    "Ġprayer": 6046,
    "while": 6047,
    "Ġcommun": 6048,
    "Ġwrite": 6049,
    "Ġnosy": 6050,
    "ĠLee": 6051,
    "ĠBluey": 6052,
    "Ġunited": 6053,
    "Ġdisagre": 6054,
    "Ġchilly": 6055,
    "pl": 6056,
    "Ġemergency": 6057,
    "Ġgrandson": 6058,
    "Ġlower": 6059,
    "Ġplain": 6060,
    "Mum": 6061,
    "Ġbuckled": 6062,
    "Ġcomputers": 6063,
    "Ġforget": 6064,
    "Ġscurrying": 6065,
    "£": 6066,
    "pp": 6067,
    "Ġsuccessful": 6068,
    "ĠMonster": 6069,
    "Ġaboard": 6070,
    "Ġpress": 6071,
    "ĠToby": 6072,
    "lter": 6073,
    "Ġmatch": 6074,
    "ĠWho": 6075,
    "Ġbutton": 6076,
    "¥": 6077,
    "ĊĠ": 6078,
    "Ġdesperately": 6079,
    "ky": 6080,
    "Ġlonger": 6081,
    "ĠRo": 6082,
    "iron": 6083,
    "mm": 6084,
    "Ġ\"": 6085,
    "Ġamong": 6086,
    "Ġwished": 6087,
    "Ġkeys": 6088,
    "Grandma": 6089,
    "Bow": 6090,
    "edic": 6091,
    "ulif": 6092,
    "Ġpassenger": 6093,
    ">": 6094,
    "Ġlid": 6095,
    "zing": 6096,
    "Ġas": 6097,
    "Ġchest": 6098,
    "Ġsn": 6099,
    "Ġindepend": 6100,
    "ĠMatt": 6101,
    "Ġbuzzed": 6102,
    "Ġlazy": 6103,
    "Ġpotion": 6104,
    "Uh": 6105,
    "Ġur": 6106,
    "Ġitch": 6107,
    "Ġpout": 6108,
    "Ġbuild": 6109,
    "Ġurged": 6110,
    "Ġrecommended": 6111,
    "zy": 6112,
    "cited": 6113,
    "Ġsprang": 6114,
    "Ġstomp": 6115,
    "Ġvendor": 6116,
    "Ġgone": 6117,
    "Ġold": 6118,
    "ĠCindy": 6119,
    "Ġgrandma": 6120,
    "roken": 6121,
    "Ġhole": 6122,
    "Ġwelcome": 6123,
    "ĠFreddy": 6124,
    "Ġpatch": 6125,
    "Ġhated": 6126,
    "ĠR": 6127,
    "ĠTessa": 6128,
    "Ġstom": 6129,
    "Ġreun": 6130,
    "ĠExcited": 6131,
    "Ġstret": 6132,
    "osaur": 6133,
    "Ġsquare": 6134,
    "eah": 6135,
    "ne": 6136,
    "quet": 6137,
    "Ġhappiness": 6138,
    "Ġsorts": 6139,
    "Ġslammed": 6140,
    "Ġsneezing": 6141,
    "Ġpressed": 6142,
    "Ġhippos": 6143,
    "used": 6144,
    "Ġthin": 6145,
    "Ġsang": 6146,
    "Ġenth": 6147,
    "Ġguitar": 6148,
    "Ġshiver": 6149,
    "Ġneed": 6150,
    "Ġtroubles": 6151,
    "Ġjealous": 6152,
    "Ġdeeper": 6153,
    "Ġloving": 6154,
    "ell": 6155,
    "eling": 6156,
    "Ġdar": 6157,
    "laimed": 6158,
    "Ġwings": 6159,
    "Ġintroduce": 6160,
    "Ġtesting": 6161,
    "l": 6162,
    "Ġmineral": 6163,
    "Ġcorn": 6164,
    "airs": 6165,
    "Ġcreated": 6166,
    "oo": 6167,
    "ched": 6168,
    "Ġquilt": 6169,
    "pite": 6170,
    "Ġexha": 6171,
    "Ġcu": 6172,
    "sp": 6173,
    "iv": 6174,
    "Ġoasis": 6175,
    "Ġopp": 6176,
    "if": 6177,
    "ĠCl": 6178,
    "Ġfirework": 6179,
    "ves": 6180,
    "Our": 6181,
    "Ġfluttering": 6182,
    "sol": 6183,
    "S": 6184,
    "ĠMom": 6185,
    "Ġexamp": 6186,
    "years": 6187,
    "Ġentire": 6188,
    "Lucky": 6189,
    "Ġnam": 6190,
    "ĠRobby": 6191,
    "Ġorganized": 6192,
    "Ġmodel": 6193,
    "ĠSky": 6194,
    "Ġsmallest": 6195,
    "Ġbubb": 6196,
    "Ġsnacks": 6197,
    "illie": 6198,
    "Ġsil": 6199,
    "Bubbles": 6200,
    "ĠCaptain": 6201,
    "Ġcheered": 6202,
    "ĠSometimes": 6203,
    "Ġtied": 6204,
    "Ġchess": 6205,
    "Ġswinging": 6206,
    "Ġmailed": 6207,
    "Ġspaghetti": 6208,
    "Ġhunters": 6209,
    "Ġdizzy": 6210,
    "Ġwish": 6211,
    "Ġstethoscope": 6212,
    "ĠAnne": 6213,
    "Ġagreement": 6214,
    "nt": 6215,
    "sses": 6216,
    "rel": 6217,
    "Ġcard": 6218,
    "Ġwriting": 6219,
    "arrow": 6220,
    "Ġinviting": 6221,
    "Ġblouse": 6222,
    "less": 6223,
    "ĠLizzie": 6224,
    "Ġwept": 6225,
    "Ġbench": 6226,
    "Ġshoulder": 6227,
    "ĠGigi": 6228,
    "antly": 6229,
    "Ġkeeper": 6230,
    "erest": 6231,
    "cl": 6232,
    "Ġbottles": 6233,
    "Ġfab": 6234,
    "Ġsails": 6235,
    "ĠSay": 6236,
    "Ġfisher": 6237,
    "Ġday": 6238,
    "Ġconversation": 6239,
    "Ġteacher": 6240,
    "ĠTiger": 6241,
    "solut": 6242,
    "Ġyears": 6243,
    "Ġmailbox": 6244,
    "Ġgoats": 6245,
    "ek": 6246,
    "Ġwaved": 6247,
    "Ġattack": 6248,
    "Ġspoil": 6249,
    "Ġmall": 6250,
    "ĠFlicker": 6251,
    "ke": 6252,
    "urt": 6253,
    "Ġdoor": 6254,
    "ĠBouncy": 6255,
    "utter": 6256,
    "Ġless": 6257,
    "Ġbrand": 6258,
    "Ġcloses": 6259,
    "Ġsqueezes": 6260,
    "Ġpieces": 6261,
    "Ġjing": 6262,
    "Ġsew": 6263,
    "wise": 6264,
    "Ġasked": 6265,
    "Ġchasing": 6266,
    "Ġimpressed": 6267,
    "Ġdisco": 6268,
    "Ġcowboy": 6269,
    "ĠRainbow": 6270,
    "Ġahead": 6271,
    "Excited": 6272,
    "Ġfabric": 6273,
    "Ġdrives": 6274,
    "'m": 6275,
    "Ġrelaxing": 6276,
    "ĠLuc": 6277,
    "Ġgiraffes": 6278,
    "robe": 6279,
    "Ġmonkey": 6280,
    "Ġtruly": 6281,
    "Ġitem": 6282,
    "Ġshap": 6283,
    "ĠBr": 6284,
    "Ġwhist": 6285,
    "Ġshadow": 6286,
    "Ġpears": 6287,
    "Ġpresses": 6288,
    "Ġres": 6289,
    "Ġquestion": 6290,
    "Ġspilling": 6291,
    "Ġfestival": 6292,
    "Ġcalmly": 6293,
    "Ġgiggled": 6294,
    "ĠLiz": 6295,
    "Ġhelpless": 6296,
    "Ġtalents": 6297,
    "ames": 6298,
    "Ġcompan": 6299,
    "why": 6300,
    "cho": 6301,
    "ways": 6302,
    "Ġking": 6303,
    "Ġlaptop": 6304,
    "ctric": 6305,
    "Ġclouds": 6306,
    "ĠLulu": 6307,
    "ctory": 6308,
    "Ġslim": 6309,
    "º": 6310,
    "ai": 6311,
    "Ġhead": 6312,
    "Ġwon": 6313,
    "Slow": 6314,
    "Im": 6315,
    "Ġbarn": 6316,
    "Ġgrate": 6317,
    "p": 6318,
    "Ġneeded": 6319,
    "andy": 6320,
    "Ġnapkins": 6321,
    "Ġforgives": 6322,
    "Ġothers": 6323,
    "Ġcharming": 6324,
    "Ġdistance": 6325,
    "Dr": 6326,
    "ĠCici": 6327,
    "guess": 6328,
    "Ġcarts": 6329,
    "Ġwobbled": 6330,
    "Ġhappening": 6331,
    "Ġmaps": 6332,
    "ocked": 6333,
    "ĠDespite": 6334,
    "Ġarrived": 6335,
    "Ġlung": 6336,
    "Ġkite": 6337,
    "Ġwid": 6338,
    "Ġyoungest": 6339,
    "Ġpermission": 6340,
    "Ġmatey": 6341,
    "Ġintelligence": 6342,
    "Ġhappily": 6343,
    "was": 6344,
    "Ġdeeply": 6345,
    "hes": 6346,
    "Ġinvisible": 6347,
    "In": 6348,
    "Ġexperience": 6349,
    "Ġsewing": 6350,
    "ggles": 6351,
    "Ġinvestig": 6352,
    "Ġtor": 6353,
    "Ġlightning": 6354,
    "Ġjewel": 6355,
    "Ġworker": 6356,
    "Ġlibrarian": 6357,
    "ĠRolly": 6358,
    "pril": 6359,
    "Ġsoot": 6360,
    "Ġsource": 6361,
    "Ġpeach": 6362,
    "Ġtriangle": 6363,
    "Ġor": 6364,
    "vet": 6365,
    "Ġgreedy": 6366,
    "Ġworked": 6367,
    "!âĢĿ": 6368,
    "Ġleader": 6369,
    "Ġcozy": 6370,
    "ĠLater": 6371,
    "issors": 6372,
    "Ġten": 6373,
    "Ġweight": 6374,
    "Ġshirts": 6375,
    "Ġrealise": 6376,
    "Che": 6377,
    "Ġsurfed": 6378,
    "ĠSophie": 6379,
    "ĠFle": 6380,
    "Ġtime": 6381,
    "ĠNancy": 6382,
    "Ġstubb": 6383,
    "Ġlively": 6384,
    "ĠDodo": 6385,
    "Chicky": 6386,
    "Ġtossing": 6387,
    "Ġstrong": 6388,
    "bbles": 6389,
    "Your": 6390,
    "Ġtold": 6391,
    "Ö": 6392,
    "lling": 6393,
    "Ġoven": 6394,
    "Ġconn": 6395,
    "Ġhow": 6396,
    "Ġsho": 6397,
    "Ġgrocery": 6398,
    "ĠPinky": 6399,
    "Ġscary": 6400,
    "Ġsigning": 6401,
    "ĠElle": 6402,
    "elling": 6403,
    "Ġyelped": 6404,
    "Ġreplace": 6405,
    "Ġlaugh": 6406,
    "Ġjuicy": 6407,
    "Ġpurr": 6408,
    "Ġstirred": 6409,
    "Ġcroaked": 6410,
    "Ġdesigns": 6411,
    "Ġoffic": 6412,
    "Ġmarried": 6413,
    "Ġrag": 6414,
    "Ġmanners": 6415,
    "per": 6416,
    "ĠZog": 6417,
    "Ġwarning": 6418,
    "isapp": 6419,
    "Ġanswer": 6420,
    "Ġespecially": 6421,
    "day": 6422,
    "anie": 6423,
    "boat": 6424,
    "bbing": 6425,
    "hile": 6426,
    "Ġthanks": 6427,
    "Ġpapers": 6428,
    "ĠWith": 6429,
    "bulance": 6430,
    "Big": 6431,
    "Ġbeads": 6432,
    "Ġcostume": 6433,
    "Ġhooks": 6434,
    "Ġdent": 6435,
    "chool": 6436,
    "Ġideas": 6437,
    "Ġleast": 6438,
    "Ġserious": 6439,
    "Ġfeeding": 6440,
    "Ġbecoming": 6441,
    "Ġrot": 6442,
    "Ġgems": 6443,
    "Ġmiserable": 6444,
    "Ġpushes": 6445,
    "Ġingred": 6446,
    "ĠButter": 6447,
    "Ġtidying": 6448,
    "Ġthanked": 6449,
    "Ġwaffle": 6450,
    "Ġjail": 6451,
    "oug": 6452,
    "Ġcurt": 6453,
    "Ġsell": 6454,
    "Ġshone": 6455,
    "Ġhay": 6456,
    "Ġcushion": 6457,
    "ĠStay": 6458,
    "Ġall": 6459,
    "Ġus": 6460,
    "Ġswan": 6461,
    "Ġzoom": 6462,
    "ared": 6463,
    "Each": 6464,
    "Ġintroduc": 6465,
    "Ġuncle": 6466,
    "Ġaw": 6467,
    "Ġshrug": 6468,
    "Ġswamp": 6469,
    "Ġevening": 6470,
    "ead": 6471,
    "iger": 6472,
    "Ġpump": 6473,
    "Ġanother": 6474,
    "Ġowl": 6475,
    "Ġpaddle": 6476,
    "Ġrecommend": 6477,
    "Ĳ": 6478,
    "Ġboil": 6479,
    "Ġperformance": 6480,
    "Ġjog": 6481,
    "id": 6482,
    "ÿ": 6483,
    "us": 6484,
    "Ġduring": 6485,
    "va": 6486,
    "ine": 6487,
    "Ġrub": 6488,
    "Ġbuying": 6489,
    "Ġmakes": 6490,
    "Ġconcentr": 6491,
    "Ġlemonade": 6492,
    "Ġbumps": 6493,
    "Ġknows": 6494,
    "Max": 6495,
    "ĠSorry": 6496,
    "ide": 6497,
    "Ġtemperature": 6498,
    "ĠLilly": 6499,
    "ur": 6500,
    "Ġcheckout": 6501,
    "K": 6502,
    "Ġactivities": 6503,
    "Ġage": 6504,
    "Ġwave": 6505,
    "Ġhudd": 6506,
    "ma": 6507,
    "Ġwounds": 6508,
    "Ġjoyfully": 6509,
    "ĠBlack": 6510,
    "otte": 6511,
    "Ġfurious": 6512,
    "acles": 6513,
    "Ġmule": 6514,
    "Ġtimid": 6515,
    "ĠTilly": 6516,
    "Ô": 6517,
    "ups": 6518,
    "Ġunfair": 6519,
    "Ġcircus": 6520,
    "Ġcase": 6521,
    "Ġjoking": 6522,
    "Listen": 6523,
    "Harry": 6524,
    "Milly": 6525,
    "Ġtextures": 6526,
    "Ġairport": 6527,
    "On": 6528,
    "Ġlever": 6529,
    "ĠDanny": 6530,
    "Ġedge": 6531,
    "Ġeventually": 6532,
    "oof": 6533,
    "Ġbag": 6534,
    "Ġicky": 6535,
    "Ġth": 6536,
    "Ġfigure": 6537,
    "Ġfront": 6538,
    "unn": 6539,
    "Ġunz": 6540,
    "ient": 6541,
    "Ġuses": 6542,
    "Ollie": 6543,
    "ĠDid": 6544,
    "ĠAmelia": 6545,
    "Ġtouch": 6546,
    "Ġhung": 6547,
    "Ġfelt": 6548,
    "Ġheroes": 6549,
    "Ġblankets": 6550,
    "ealing": 6551,
    "Ġwere": 6552,
    "erable": 6553,
    "xu": 6554,
    "Ġgracefully": 6555,
    "Cat": 6556,
    "âĢĿ,": 6557,
    "ully": 6558,
    "Ġrested": 6559,
    "Ġrecorded": 6560,
    "Ġthrone": 6561,
    "Ġdiscussed": 6562,
    "Ġtwin": 6563,
    "Ġrobbers": 6564,
    "ĠAunt": 6565,
    "uch": 6566,
    "Ġplayful": 6567,
    "stop": 6568,
    "fus": 6569,
    "ĠHenry": 6570,
    "Ġmarkers": 6571,
    "Ġpony": 6572,
    "ebecca": 6573,
    "Or": 6574,
    "inch": 6575,
    "Ġcra": 6576,
    "Ġcelebrated": 6577,
    "Ġripped": 6578,
    "ear": 6579,
    "Ġsmiley": 6580,
    "Ġsmoke": 6581,
    "irm": 6582,
    "Ġanswers": 6583,
    "it": 6584,
    "Ġgolden": 6585,
    "ĠElephant": 6586,
    "Ġedges": 6587,
    "Ġsomewhere": 6588,
    "Ġlion": 6589,
    "Ġlanded": 6590,
    "Ġbenches": 6591,
    "fa": 6592,
    "Ġmagnifying": 6593,
    "Ġpopped": 6594,
    "Ġsuitcase": 6595,
    "Ġcrying": 6596,
    "Ġtr": 6597,
    "Ġpoliceman": 6598,
    "rn": 6599,
    "Ġdrying": 6600,
    "Ġattempts": 6601,
    "Ġoil": 6602,
    "/": 6603,
    "way": 6604,
    "Ġkitchen": 6605,
    "Adam": 6606,
    "Ġwisely": 6607,
    "ero": 6608,
    "Ġvalued": 6609,
    "oph": 6610,
    "Ġsquealed": 6611,
    "Ġsticker": 6612,
    "Ġcorrectly": 6613,
    "Ġknees": 6614,
    "N": 6615,
    "ĠZipper": 6616,
    "Ġsudden": 6617,
    "Ġbookshelf": 6618,
    "Ġmushrooms": 6619,
    "arac": 6620,
    "Ġeveryone": 6621,
    "bow": 6622,
    "orking": 6623,
    "Ġbear": 6624,
    "ssss": 6625,
    "lly": 6626,
    "Ġlast": 6627,
    "Ġperm": 6628,
    "Tweet": 6629,
    "ingo": 6630,
    "Ġsneeze": 6631,
    "Shh": 6632,
    "aws": 6633,
    "Ġmold": 6634,
    "ic": 6635,
    "Ġclassroom": 6636,
    "Which": 6637,
    "Gina": 6638,
    "Ġinstructions": 6639,
    "Ġyawned": 6640,
    "Ġproblems": 6641,
    "Ġforgiven": 6642,
    "ace": 6643,
    "Ġlipstick": 6644,
    "Ġbathroom": 6645,
    "right": 6646,
    "Ġpops": 6647,
    "Ġexch": 6648,
    "Ġvalue": 6649,
    "Ġspilled": 6650,
    "ĠNana": 6651,
    "Ġsandcast": 6652,
    "Ġimproving": 6653,
    "8": 6654,
    "gry": 6655,
    "Ġsmelly": 6656,
    "Ġwide": 6657,
    "ê": 6658,
    "Ġeasy": 6659,
    "Ġhorses": 6660,
    "Ġheld": 6661,
    "Ġhockey": 6662,
    "Ġspeaks": 6663,
    "Ġgobbled": 6664,
    "ca": 6665,
    "Ġchanging": 6666,
    "Ġdinosaurs": 6667,
    "Ġlava": 6668,
    "Ġquit": 6669,
    "Ġcrossed": 6670,
    "Ġrecord": 6671,
    "Ġtear": 6672,
    "affle": 6673,
    "Ġsearched": 6674,
    "I": 6675,
    "Ġpepperoni": 6676,
    "ĠPut": 6677,
    "ĠJimmy": 6678,
    "Ġsou": 6679,
    "Ġease": 6680,
    "ĠJo": 6681,
    "Ġhear": 6682,
    "Ġmorning": 6683,
    "cident": 6684,
    "Ġcelebrate": 6685,
    "Ġgrabs": 6686,
    "nded": 6687,
    "Ġtree": 6688,
    "Ġcalmed": 6689,
    "Mark": 6690,
    "ĠFrank": 6691,
    "Paul": 6692,
    "Ġleapt": 6693,
    "Ġalarm": 6694,
    "ĠAs": 6695,
    "ĠMo": 6696,
    "Ġconsequ": 6697,
    "itely": 6698,
    "Lia": 6699,
    "Sm": 6700,
    "Ġinterest": 6701,
    "Ġsnowballs": 6702,
    "Ġloved": 6703,
    "Ġpond": 6704,
    "antha": 6705,
    "Ġwrote": 6706,
    "ĠMole": 6707,
    "illa": 6708,
    "Ġready": 6709,
    "yes": 6710,
    "þ": 6711,
    "Ġranch": 6712,
    "old": 6713,
    "eve": 6714,
    "aste": 6715,
    "Ġfrowned": 6716,
    "Ġgear": 6717,
    "Ġrule": 6718,
    "Ġwobbly": 6719,
    "Ġwinning": 6720,
    "ress": 6721,
    "ĠEllie": 6722,
    "inal": 6723,
    "Ġattempt": 6724,
    "ĠGrandma": 6725,
    "ked": 6726,
    "Ġwinding": 6727,
    "urkey": 6728,
    "Ġwhile": 6729,
    "Ġairpl": 6730,
    "Ġdanc": 6731,
    "Ġcollar": 6732,
    "Ġrolling": 6733,
    "Danny": 6734,
    "Ġchuckled": 6735,
    "ĠFu": 6736,
    "\\": 6737,
    "ĠBess": 6738,
    "Ġpurpose": 6739,
    "Į": 6740,
    "Ġcaught": 6741,
    "Ġcoral": 6742,
    "ĠTriangle": 6743,
    "ĠKevin": 6744,
    "ĠPippa": 6745,
    "Ġdisappoin": 6746,
    "Ġback": 6747,
    "Ġscamp": 6748,
    "Nice": 6749,
    "Ġcaution": 6750,
    "Ġw": 6751,
    "Ġweapon": 6752,
    "Ġdipped": 6753,
    "shadow": 6754,
    "Ġtwist": 6755,
    "Ġburgers": 6756,
    "_": 6757,
    "Ġlicked": 6758,
    "Ġdoorbell": 6759,
    "Ġdogs": 6760,
    "Ġowns": 6761,
    "Ġthrow": 6762,
    "ĠAbigail": 6763,
    "Ġspoiled": 6764,
    "Ġrepeats": 6765,
    "ĠLife": 6766,
    "Ġgifts": 6767,
    "Ġx": 6768,
    "ana": 6769,
    "Ġglue": 6770,
    "eer": 6771,
    "Ġskunk": 6772,
    "ĳ": 6773,
    "Ġprince": 6774,
    "ĠDon": 6775,
    "ĠMae": 6776,
    "ĠSt": 6777,
    "Ġpackage": 6778,
    "ĠBye": 6779,
    "Freddy": 6780,
    "Ġallowed": 6781,
    "iskers": 6782,
    "sh": 6783,
    "arm": 6784,
    "Ġminute": 6785,
    "Ġminding": 6786,
    "Ġsheep": 6787,
    "ĠStop": 6788,
    "ĠSing": 6789,
    "Trust": 6790,
    "ground": 6791,
    "Lou": 6792,
    "Ġhesitation": 6793,
    "Ġpro": 6794,
    "Ġdeter": 6795,
    "Ġinjured": 6796,
    "Ġfluttered": 6797,
    "Ġthinks": 6798,
    "ĠLizzy": 6799,
    "Ġbor": 6800,
    "Ġable": 6801,
    "ĠCathy": 6802,
    "Ġblinking": 6803,
    "pack": 6804,
    "Ġgrat": 6805,
    "Sun": 6806,
    "Ġloudest": 6807,
    "ĠOur": 6808,
    "Ġfut": 6809,
    "Ġbrush": 6810,
    "Ġappear": 6811,
    "iction": 6812,
    "ĠBill": 6813,
    "Ġconnect": 6814,
    "cake": 6815,
    "Ġsnort": 6816,
    "Ġquar": 6817,
    "Ġfurther": 6818,
    "Ġcaptain": 6819,
    "ĠBinky": 6820,
    "Ġargu": 6821,
    "Lucy": 6822,
    "ĠSlinky": 6823,
    "Ġholds": 6824,
    "reek": 6825,
    "Ġseconds": 6826,
    "Ġtempted": 6827,
    "Ġbent": 6828,
    "Ġacts": 6829,
    "Ġpasses": 6830,
    "Ġbury": 6831,
    "pper": 6832,
    "Ġescape": 6833,
    "ummer": 6834,
    "phant": 6835,
    "ĠKitty": 6836,
    "Ġch": 6837,
    "Ġapologised": 6838,
    "Ġmessages": 6839,
    "ala": 6840,
    "hi": 6841,
    "Ġlizard": 6842,
    "ĠMar": 6843,
    "Ġpainted": 6844,
    "end": 6845,
    "Ġreminded": 6846,
    "Ġcompetit": 6847,
    "Ġperforming": 6848,
    "Ġrumbling": 6849,
    "is": 6850,
    "quito": 6851,
    "Ġperfect": 6852,
    "Ġdollars": 6853,
    "Ġelse": 6854,
    "et": 6855,
    "Ġstor": 6856,
    "Ġwarm": 6857,
    "Ě": 6858,
    "alend": 6859,
    "Ġwaterfall": 6860,
    "sity": 6861,
    "Ġvisits": 6862,
    "ĠMimi": 6863,
    "Ġgrown": 6864,
    "Ġpeaches": 6865,
    "Ġpraying": 6866,
    "Ġpoints": 6867,
    "Ġfeels": 6868,
    "Hi": 6869,
    "ĠJessie": 6870,
    "Ġthro": 6871,
    "hett": 6872,
    "Ġdisplayed": 6873,
    "ĠTeddy": 6874,
    "Ġworry": 6875,
    "Ġyear": 6876,
    "Ĉ": 6877,
    "Ġseems": 6878,
    "Ġbelts": 6879,
    "ĠEarth": 6880,
    "Ġunfortunately": 6881,
    "ĠBl": 6882,
    "med": 6883,
    "ĠBob": 6884,
    "ĠRun": 6885,
    "Ġinvites": 6886,
    "Ġgame": 6887,
    "Spot": 6888,
    "sy": 6889,
    "Dog": 6890,
    "Ġecho": 6891,
    "Ġvine": 6892,
    "?âĢĿ.": 6893,
    "ĠSqu": 6894,
    "Ġsee": 6895,
    "Ġlegs": 6896,
    "Ġscarf": 6897,
    "Ġjunk": 6898,
    "Ġpulls": 6899,
    "Ġhorizon": 6900,
    "Bl": 6901,
    "Ġtin": 6902,
    "Ġneare": 6903,
    "Sn": 6904,
    "Ġbe": 6905,
    "Okay": 6906,
    "Ġcocoa": 6907,
    "Ġodd": 6908,
    "Le": 6909,
    "Ġmed": 6910,
    "Ġbright": 6911,
    "Ġbushes": 6912,
    "ğ": 6913,
    "Ġvisiting": 6914,
    "ular": 6915,
    "Ġfool": 6916,
    "ĠLola": 6917,
    "Ġshoo": 6918,
    "ĠHar": 6919,
    "Fly": 6920,
    "Ġhates": 6921,
    "uesday": 6922,
    "Ġsuffer": 6923,
    "Ġfoggy": 6924,
    "Ġearlier": 6925,
    "Ġbond": 6926,
    "Ġworm": 6927,
    "Ġsnowy": 6928,
    "ĠL": 6929,
    "Ġmayor": 6930,
    "Ġmotion": 6931,
    "Ġattached": 6932,
    "ĠMissy": 6933,
    "Ġhardly": 6934,
    "Ġfix": 6935,
    "Ġprep": 6936,
    "oud": 6937,
    "avid": 6938,
    "Ġimag": 6939,
    "ĠIron": 6940,
    "Ġbroom": 6941,
    "ĠRing": 6942,
    "ĠInstead": 6943,
    "ĠBra": 6944,
    "Ġnobody": 6945,
    "irac": 6946,
    "ĠSuzie": 6947,
    "th": 6948,
    "Ġnature": 6949,
    "Ġmail": 6950,
    "Ġlose": 6951,
    "Ġspider": 6952,
    "Ġimp": 6953,
    "nic": 6954,
    "Ġchecking": 6955,
    "Ġtoppings": 6956,
    "out": 6957,
    "ı": 6958,
    "Ġincreasing": 6959,
    "Ġfiles": 6960,
    "Õ": 6961,
    "Ġbanana": 6962,
    "Ġcube": 6963,
    "Ġclosing": 6964,
    "ellow": 6965,
    "Ġcourt": 6966,
    "Ġstern": 6967,
    "Ġdisappearing": 6968,
    "Ġsending": 6969,
    "llo": 6970,
    "Ġpowerful": 6971,
    "Ġvan": 6972,
    ";": 6973,
    "Ġafternoon": 6974,
    "Ġmarked": 6975,
    "Ġwhistled": 6976,
    "Ġsinging": 6977,
    "Ġmatches": 6978,
    "Ġloaded": 6979,
    "Ġsplashed": 6980,
    "Ġang": 6981,
    "Ġweak": 6982,
    "gg": 6983,
    "Ġrefreshing": 6984,
    "m": 6985,
    "Ġrope": 6986,
    "ĠTina": 6987,
    "e": 6988,
    "Ġmeadows": 6989,
    "Ġdaisy": 6990,
    "Ġbranch": 6991,
    "Ġboom": 6992,
    "Ġproject": 6993,
    "Ġvehicles": 6994,
    "rmometer": 6995,
    "oys": 6996,
    "Ġfrustration": 6997,
    "Ġforgot": 6998,
    "affes": 6999,
    "Ġlip": 7000,
    "Ġcheer": 7001,
    "Ġhiding": 7002,
    "Ġdest": 7003,
    "Ġsnuggled": 7004,
    "Ġcrocodiles": 7005,
    "blings": 7006,
    "Ġinstead": 7007,
    "ĠHeli": 7008,
    "Ġsupplied": 7009,
    "ness": 7010,
    "Ġspaceship": 7011,
    "Ġwidened": 7012,
    "Ġfr": 7013,
    "ĠBarky": 7014,
    "ĠBang": 7015,
    "ĠDo": 7016,
    "Ġsay": 7017,
    "rosc": 7018,
    "Ġped": 7019,
    "Ĭ": 7020,
    "iches": 7021,
    "Ġnaps": 7022,
    "ĠShare": 7023,
    "Ġchewing": 7024,
    "ĠZero": 7025,
    "Ġk": 7026,
    "Ġswim": 7027,
    "Ġstretchy": 7028,
    "ĠG": 7029,
    "Ġamazement": 7030,
    "Ġrags": 7031,
    "ipe": 7032,
    "Ġbran": 7033,
    "Ġflick": 7034,
    "Ġghost": 7035,
    "Ġhangers": 7036,
    "Ġbelonged": 7037,
    "ĠWell": 7038,
    "ross": 7039,
    "ious": 7040,
    "Ġrough": 7041,
    "Ġletter": 7042,
    "Ġcompetitive": 7043,
    "Ġstep": 7044,
    "Ġfrogs": 7045,
    "Ġhose": 7046,
    "Ġlemons": 7047,
    "ĠLiza": 7048,
    "ering": 7049,
    "ctions": 7050,
    "9": 7051,
    "oy": 7052,
    "Ġsummer": 7053,
    "ĠKing": 7054,
    "Ġburnt": 7055,
    "Ġmouth": 7056,
    "Ġcluck": 7057,
    "Ġcaused": 7058,
    "Ġherbs": 7059,
    "choo": 7060,
    "Ġmirac": 7061,
    "Ġache": 7062,
    "ĠSomething": 7063,
    "Ġcharac": 7064,
    "Ġstyles": 7065,
    "ĠPark": 7066,
    "ails": 7067,
    "Ġresults": 7068,
    "ĠJaney": 7069,
    "ugged": 7070,
    "Ġsquares": 7071,
    "Ġdamage": 7072,
    "Ġwithin": 7073,
    "Ġaddress": 7074,
    "ile": 7075,
    "Ġroot": 7076,
    "Ġvis": 7077,
    "r": 7078,
    "Ġfries": 7079,
    "ir": 7080,
    "Ġsnap": 7081,
    "Ġhandsome": 7082,
    "Ġcold": 7083,
    "Pipp": 7084,
    "ĠPatty": 7085,
    "Hurry": 7086,
    "Ġwaits": 7087,
    "Rock": 7088,
    "zes": 7089,
    "Ġhairdress": 7090,
    "Ġmuch": 7091,
    "Ġimagined": 7092,
    "dle": 7093,
    "Ġcomforting": 7094,
    "Ġyou": 7095,
    "Ġbeetle": 7096,
    "Ġpainting": 7097,
    "yler": 7098,
    "ig": 7099,
    "ĠFlora": 7100,
    "Ġcow": 7101,
    "Ġcla": 7102,
    "Ġansw": 7103,
    "Ġincre": 7104,
    "Ġprizes": 7105,
    "Sue": 7106,
    "Ġinf": 7107,
    "etter": 7108,
    "Ġinchworm": 7109,
    "û": 7110,
    "Ġnewfound": 7111,
    "Ġhorri": 7112,
    "Ġspade": 7113,
    "Ġtheir": 7114,
    "ĠSeeing": 7115,
    "Ġknowled": 7116,
    "obody": 7117,
    "Ġleather": 7118,
    "anging": 7119,
    "ĠOnly": 7120,
    "Climb": 7121,
    "Ġscoot": 7122,
    "Ġpop": 7123,
    "ucky": 7124,
    "asmine": 7125,
    "ę": 7126,
    "Ġinspired": 7127,
    "asty": 7128,
    "free": 7129,
    "Ġgem": 7130,
    "amb": 7131,
    "Ġwitch": 7132,
    "Ġforth": 7133,
    "Ġshare": 7134,
    "ĠSpeed": 7135,
    "Ġcane": 7136,
    "ĠUntil": 7137,
    "this": 7138,
    "Ġyucky": 7139,
    "izzes": 7140,
    "verse": 7141,
    "vered": 7142,
    "Ġcool": 7143,
    "Ġgrabbed": 7144,
    "Ġeverything": 7145,
    "Ġwatermel": 7146,
    "Ġlighter": 7147,
    "Ġinsect": 7148,
    "Ġcouple": 7149,
    "Ġlaces": 7150,
    "Ġsand": 7151,
    "ĠMin": 7152,
    "Ġorgan": 7153,
    "Ġliz": 7154,
    "Ġpoured": 7155,
    "Ġlying": 7156,
    "Ġglittering": 7157,
    "des": 7158,
    "x": 7159,
    "Ġslip": 7160,
    "ĠPaul": 7161,
    "ĠTimmy": 7162,
    "Ġrings": 7163,
    "Ġdecoration": 7164,
    "awn": 7165,
    "Ġbelow": 7166,
    "Ġjogged": 7167,
    "Ġfre": 7168,
    "ĠGerry": 7169,
    "Ġcolours": 7170,
    "Ġfaded": 7171,
    "Ġcrashed": 7172,
    "Ġwinked": 7173,
    "nam": 7174,
    "Ġwashing": 7175,
    "Ġcro": 7176,
    "Ġgrowling": 7177,
    "Ġrebu": 7178,
    "Ben": 7179,
    "Ġsquash": 7180,
    "Ġhoc": 7181,
    "Ġnur": 7182,
    "Ġstirs": 7183,
    "Ahoy": 7184,
    "Ġrocks": 7185,
    "iolet": 7186,
    "Ġbroken": 7187,
    "shine": 7188,
    "eb": 7189,
    "chor": 7190,
    "Ġwait": 7191,
    "Ġpalms": 7192,
    "ĠTiny": 7193,
    "Ġrepe": 7194,
    "ĠKelly": 7195,
    "ĠFoxy": 7196,
    "Ġpeeked": 7197,
    "Ġcrocodile": 7198,
    "Ġshouts": 7199,
    "Ġinstr": 7200,
    "×": 7201,
    "Ġmeeting": 7202,
    "Ġgrip": 7203,
    "eared": 7204,
    "Ġdock": 7205,
    "apped": 7206,
    "Ġsings": 7207,
    "uzz": 7208,
    "Ġmotor": 7209,
    "ili": 7210,
    "ĠHor": 7211,
    "Ġweapons": 7212,
    "Ġcomm": 7213,
    "Ġhusband": 7214,
    "please": 7215,
    "Ġsnail": 7216,
    "ou": 7217,
    "ĠCrabby": 7218,
    "ĠInch": 7219,
    "ver": 7220,
    "Ġsurpr": 7221,
    "Ġwiggle": 7222,
    "Ġdoll": 7223,
    "Ġflags": 7224,
    "Ġgoose": 7225,
    "dd": 7226,
    "ĠCow": 7227,
    "eath": 7228,
    "Ġprop": 7229,
    "Ġpaintbrush": 7230,
    "irts": 7231,
    "Ġtossed": 7232,
    "Ġfolded": 7233,
    "Ġbelongings": 7234,
    "Ġrolled": 7235,
    "Ġworn": 7236,
    "Ġesc": 7237,
    "Katie": 7238,
    "keepers": 7239,
    "õ": 7240,
    "Ġwaist": 7241,
    "ĠCro": 7242,
    "Ġcandle": 7243,
    "Ġhealed": 7244,
    "reverse": 7245,
    "Ġachieve": 7246,
    "Ġconfused": 7247,
    "Ġcrab": 7248,
    "Bird": 7249,
    "Ġlibr": 7250,
    "Kim": 7251,
    "Ġoctopus": 7252,
    "Ġfocus": 7253,
    "fore": 7254,
    "Ġdied": 7255,
    "ĠTrucky": 7256,
    "Ġsensation": 7257,
    "Ġjackets": 7258,
    "Ġparted": 7259,
    "Ġprotect": 7260,
    "Ava": 7261,
    "Ġyard": 7262,
    "³": 7263,
    "Ġdir": 7264,
    "Ġcarp": 7265,
    "Ġrh": 7266,
    "Ġbleed": 7267,
    "Ġpretended": 7268,
    "bo": 7269,
    "utor": 7270,
    "ĠYou": 7271,
    "Ġshin": 7272,
    "Ġblond": 7273,
    "ighting": 7274,
    "Ġparticularly": 7275,
    "Ġmole": 7276,
    "stead": 7277,
    "ķ": 7278,
    "ousy": 7279,
    "ĠSoon": 7280,
    "Ġof": 7281,
    "Ġexplained": 7282,
    "or": 7283,
    "Ġmoder": 7284,
    "Ġsnapped": 7285,
    "umm": 7286,
    "allow": 7287,
    "Ġbru": 7288,
    "Ġmosquito": 7289,
    "ĠJames": 7290,
    "Ġwand": 7291,
    "andra": 7292,
    "Ġpossible": 7293,
    "Bella": 7294,
    "ected": 7295,
    "Ġlicks": 7296,
    "ĠKit": 7297,
    "da": 7298,
    "Ġyoung": 7299,
    "Ġnect": 7300,
    "Ġsoldiers": 7301,
    "Ġgrasshopper": 7302,
    "ĠSir": 7303,
    "ĠAc": 7304,
    "Benny": 7305,
    "Ġsparkled": 7306,
    "Ġarguing": 7307,
    "Ġrail": 7308,
    "Ġpearl": 7309,
    "Ġpeas": 7310,
    "ĠToo": 7311,
    "Ġweighed": 7312,
    "Ġblown": 7313,
    "Ġtook": 7314,
    "esses": 7315,
    "Ġword": 7316,
    "Ġdecide": 7317,
    "ĠStartled": 7318,
    "Ġfro": 7319,
    "ĠFirst": 7320,
    "ax": 7321,
    "ĠBad": 7322,
    "ĠStella": 7323,
    "ĠChr": 7324,
    "Kayla": 7325,
    "Ġpoke": 7326,
    "ĠSpark": 7327,
    "fived": 7328,
    "Yeah": 7329,
    "ination": 7330,
    "Ġmelts": 7331,
    "ulf": 7332,
    "Ġtreats": 7333,
    "Ġsolve": 7334,
    "Ġlamb": 7335,
    "Ġowls": 7336,
    "inkle": 7337,
    "essie": 7338,
    "Birdy": 7339,
    "ecture": 7340,
    "Ġstroll": 7341,
    "ĠBefore": 7342,
    "Ġangrily": 7343,
    "Ġpu": 7344,
    "Ġjourneys": 7345,
    "Ġlearned": 7346,
    "ĠMaya": 7347,
    "Ġhabit": 7348,
    "ĠCrusty": 7349,
    "Ġstr": 7350,
    "Wh": 7351,
    "Ġstrang": 7352,
    "Ġdirections": 7353,
    "ĠGold": 7354,
    "Ġbackpacks": 7355,
    "Ġpossess": 7356,
    "Spike": 7357,
    "Ġnod": 7358,
    "Ġsetting": 7359,
    "Ġbitten": 7360,
    "Ġcoughed": 7361,
    "Ġregretted": 7362,
    "cycle": 7363,
    ".'\"": 7364,
    "ĠNutty": 7365,
    "Ġrest": 7366,
    "Ġ4": 7367,
    "Ġsausages": 7368,
    "Ġsoaked": 7369,
    "room": 7370,
    "Ġcrawling": 7371,
    "Ġclaws": 7372,
    "Ġbikes": 7373,
    "Ġfishes": 7374,
    "Ġmot": 7375,
    "Ġtem": 7376,
    "Ġrescued": 7377,
    "Ġsculpture": 7378,
    "Ġbo": 7379,
    "Ġfascinated": 7380,
    "Ġglued": 7381,
    "Ġdisagreed": 7382,
    "Ġobjects": 7383,
    "Ġenthusiasm": 7384,
    "Ġfollowed": 7385,
    "Ġones": 7386,
    "Ġshrunk": 7387,
    "Ġse": 7388,
    "ĠMine": 7389,
    "cy": 7390,
    "ail": 7391,
    "Hope": 7392,
    "Ġbathrobe": 7393,
    "âĢĿ": 7394,
    "Ġdream": 7395,
    "Ġcoats": 7396,
    "Ġmesmer": 7397,
    "Ġenemy": 7398,
    "Ġcap": 7399,
    "Ġowned": 7400,
    "Ġchimney": 7401,
    "omobile": 7402,
    "scape": 7403,
    "Ġwoof": 7404,
    "Ġpalace": 7405,
    "Ġteams": 7406,
    "Ġelectric": 7407,
    "ded": 7408,
    "Ġbelieve": 7409,
    "Ġconf": 7410,
    "Ġdemanded": 7411,
    "Ġdate": 7412,
    "Ġwarn": 7413,
    "`": 7414,
    "ctopus": 7415,
    "ments": 7416,
    "Ġeven": 7417,
    "Ġopens": 7418,
    "Ġsigh": 7419,
    "Doctor": 7420,
    "Ġhealing": 7421,
    "Ġhour": 7422,
    "Ġsuffering": 7423,
    "Ġseparated": 7424,
    "Ġhel": 7425,
    "Þ": 7426,
    "Ġcheerfully": 7427,
    "Ġspell": 7428,
    "Mandy": 7429,
    "ĠDino": 7430,
    "Ĵ": 7431,
    "Ġsparks": 7432,
    "|": 7433,
    "Back": 7434,
    "sie": 7435,
    "Ġrails": 7436,
    "Ġdie": 7437,
    "ĠQu": 7438,
    "Ġrather": 7439,
    "Ġsailboat": 7440,
    "Ġtaxi": 7441,
    "Ġknot": 7442,
    "ĠOl": 7443,
    "ĠAchoo": 7444,
    "oop": 7445,
    "Ġenvious": 7446,
    "our": 7447,
    "ĠD": 7448,
    "what": 7449,
    "Ġdelicious": 7450,
    "Ġstars": 7451,
    "look": 7452,
    "Ġforever": 7453,
    "Ġscares": 7454,
    "h": 7455,
    "ĠCar": 7456,
    "erts": 7457,
    "ĠBu": 7458,
    "lets": 7459,
    "Ġnormal": 7460,
    "Ġtiptoed": 7461,
    "Ġscare": 7462,
    "Ġpanic": 7463,
    "Ġgasped": 7464,
    "ĠTodd": 7465,
    "ĠFinally": 7466,
    "ho": 7467,
    "Ġraccoon": 7468,
    "Ġbutter": 7469,
    "Ġdecor": 7470,
    "Ġgardener": 7471,
    "Ġthunder": 7472,
    "Ġoutfits": 7473,
    "Ġgot": 7474,
    "Ġopera": 7475,
    "Ġfixing": 7476,
    "uke": 7477,
    "Johnny": 7478,
    "rosty": 7479,
    "Ġbook": 7480,
    "uff": 7481,
    "Ġdraw": 7482,
    "Ġtake": 7483,
    "Ġannoy": 7484,
    "Ġargued": 7485,
    "ĠEmmy": 7486,
    "Ġaeropl": 7487,
    "Ġbandages": 7488,
    "ĠEliz": 7489,
    "Ġthat": 7490,
    "Ġcreative": 7491,
    "Ġact": 7492,
    "ĠGive": 7493,
    "Ġlimes": 7494,
    "Ġcreep": 7495,
    "ute": 7496,
    "Ġenough": 7497,
    "Ġbehaved": 7498,
    "ĠNurse": 7499,
    "issa": 7500,
    "Ġharder": 7501,
    "Susan": 7502,
    "ĠO": 7503,
    "Ġrich": 7504,
    "Ġkneeled": 7505,
    "Ġpeanuts": 7506,
    "aze": 7507,
    "Ġcomforted": 7508,
    "Ġmicroscope": 7509,
    "berries": 7510,
    "Ġpocket": 7511,
    "Ġcup": 7512,
    "edy": 7513,
    "Ġmesmerized": 7514,
    "Ġwal": 7515,
    "Ġbring": 7516,
    "ĠLaura": 7517,
    "Playing": 7518,
    "Ġoutdoors": 7519,
    "ous": 7520,
    "Ġtele": 7521,
    "Ġways": 7522,
    "Ġtowns": 7523,
    "Come": 7524,
    "Ġfragile": 7525,
    "Ġstudying": 7526,
    "Ġmouths": 7527,
    "Ġmagician": 7528,
    "Ġtangled": 7529,
    "Ġdedic": 7530,
    "ĠFriend": 7531,
    "Rose": 7532,
    "here": 7533,
    "Ġexamined": 7534,
    "Ġevery": 7535,
    "Ġjud": 7536,
    "^": 7537,
    "Ġchopping": 7538,
    "ried": 7539,
    "Ġexplorers": 7540,
    "aps": 7541,
    "ĠBird": 7542,
    "Ġexamine": 7543,
    "Ġdot": 7544,
    "Ġrealizing": 7545,
    "ĠEnd": 7546,
    "Ġfinishing": 7547,
    "Ġbigger": 7548,
    "amp": 7549,
    "Ġlight": 7550,
    "Ġhoped": 7551,
    "Ġwear": 7552,
    "Ġtools": 7553,
    "Ġtreasure": 7554,
    "Ġevent": 7555,
    "Ġargum": 7556,
    "ĠRuby": 7557,
    "ĠJazz": 7558,
    "Ġstruggling": 7559,
    "ĠBoom": 7560,
    "ations": 7561,
    ".âĢĿ": 7562,
    "Ġbows": 7563,
    "Ġ": 7564,
    "Ġyawn": 7565,
    "Ġconquered": 7566,
    "Ġsea": 7567,
    "Ġfirmly": 7568,
    "Ġpounced": 7569,
    "Ġvanished": 7570,
    "reen": 7571,
    "ĠGr": 7572,
    "Ġbitter": 7573,
    "Ġhid": 7574,
    "Ġstranger": 7575,
    "Ġhut": 7576,
    "sing": 7577,
    "ĠSimon": 7578,
    "Ġtwink": 7579,
    "Linda": 7580,
    "Ġpose": 7581,
    "Ġcleaned": 7582,
    "Ġprayed": 7583,
    "ĠVelvet": 7584,
    "broken": 7585,
    "render": 7586,
    "Ġpoison": 7587,
    "Ġfights": 7588,
    "Ġscampered": 7589,
    "app": 7590,
    "lled": 7591,
    "Ġour": 7592,
    "Ġerasers": 7593,
    "Ġstores": 7594,
    "Ġjo": 7595,
    "hello": 7596,
    "Ġflames": 7597,
    "ired": 7598,
    "Ġsobbing": 7599,
    "ivery": 7600,
    "worm": 7601,
    "Ġoverwhel": 7602,
    "ddie": 7603,
    "ĠKim": 7604,
    "Stop": 7605,
    "ĠGo": 7606,
    "Ġtowers": 7607,
    "Ġgap": 7608,
    "Ġcompeting": 7609,
    "Ġcourageous": 7610,
    "ship": 7611,
    "Ġroared": 7612,
    "Ġfash": 7613,
    "Ġshampoo": 7614,
    "Ġfills": 7615,
    "Am": 7616,
    "¹": 7617,
    "Ġhealthy": 7618,
    "Ġmat": 7619,
    "Ġsome": 7620,
    "Ġshowed": 7621,
    "Ġsneak": 7622,
    "Ġcolour": 7623,
    "Ġdifferences": 7624,
    "Ġlaser": 7625,
    "Ġann": 7626,
    "ĠChewy": 7627,
    "Ġdiffere": 7628,
    "ĠTuesday": 7629,
    "Wait": 7630,
    "Ġmeat": 7631,
    "Ġfault": 7632,
    "Ġsnug": 7633,
    "ppy": 7634,
    "sequ": 7635,
    "Ġtoolbox": 7636,
    "Ġbathtub": 7637,
    "Ġholiday": 7638,
    "Ġhotel": 7639,
    "Ġexploration": 7640,
    "Ġscrat": 7641,
    "Ġpuzzles": 7642,
    "Ġcried": 7643,
    "ll": 7644,
    "ĠHannah": 7645,
    "Ġind": 7646,
    "thank": 7647,
    "oon": 7648,
    "Ġreversing": 7649,
    "Sharing": 7650,
    "vers": 7651,
    "Ġbadly": 7652,
    "Ġparrot": 7653,
    "ĠFifi": 7654,
    "Ġrockets": 7655,
    "rilliant": 7656,
    "Ġmatching": 7657,
    "Ġpointy": 7658,
    "ĠJen": 7659,
    "Ġuniform": 7660,
    "Ġluxury": 7661,
    "Ġmosquitoes": 7662,
    "ived": 7663,
    "Ġbookcase": 7664,
    "pot": 7665,
    "Ġmarriage": 7666,
    "ying": 7667,
    "Ġsaf": 7668,
    "Ġasks": 7669,
    "Ġposs": 7670,
    "Ġcheaper": 7671,
    "Ġyacht": 7672,
    "Ol": 7673,
    "Ġreindeer": 7674,
    "Ġgrowls": 7675,
    "Ġunf": 7676,
    "Ġmagazine": 7677,
    "ĠJean": 7678,
    "aa": 7679,
    "Ġtops": 7680,
    "Ġdrop": 7681,
    "Ġcost": 7682,
    "ĠFlap": 7683,
    "rious": 7684,
    "Ġlem": 7685,
    "Ġtumbled": 7686,
    "poison": 7687,
    "Ġlistens": 7688,
    "Ġknew": 7689,
    "Ġboots": 7690,
    "ĠPeanut": 7691,
    "Ġexhausted": 7692,
    "Ġscar": 7693,
    "ĠRuff": 7694,
    "Ġaliens": 7695,
    "Ġrock": 7696,
    "ĠPapa": 7697,
    "edn": 7698,
    "aint": 7699,
    "Ġdreamt": 7700,
    "Ġgrapes": 7701,
    "Ġsque": 7702,
    "Ġpowder": 7703,
    "ĠPatch": 7704,
    "Ġfinds": 7705,
    "Ġlistening": 7706,
    "creams": 7707,
    "Ġnation": 7708,
    "Ġtrophy": 7709,
    "Ġquieter": 7710,
    "Ġsafari": 7711,
    "ĠRaven": 7712,
    "ack": 7713,
    "cker": 7714,
    "Ġdrums": 7715,
    "Ġcollap": 7716,
    "Ġloses": 7717,
    "Ġhelmet": 7718,
    "Ġcheating": 7719,
    "llas": 7720,
    "ict": 7721,
    "Ġpanicked": 7722,
    "Ġsigned": 7723,
    "Ġinter": 7724,
    "ĸ": 7725,
    "ĠWo": 7726,
    "Ġcelebr": 7727,
    "Will": 7728,
    "Ġsun": 7729,
    "Ġcirc": 7730,
    "Ġventured": 7731,
    "nie": 7732,
    "Ġrelax": 7733,
    "nd": 7734,
    "Ġstamps": 7735,
    "Ġmaterial": 7736,
    "ĠDaddy": 7737,
    "Ġskirt": 7738,
    "Ġfade": 7739,
    "Ġseeing": 7740,
    "âĢĻ": 7741,
    "Being": 7742,
    "Ġcurl": 7743,
    "igzag": 7744,
    "Sleep": 7745,
    "Ġrain": 7746,
    "Ġshops": 7747,
    "Momma": 7748,
    "Ġwrist": 7749,
    "Ġaccomplishment": 7750,
    "ĠSil": 7751,
    "Ġsharing": 7752,
    "Ġthink": 7753,
    "Ġants": 7754,
    "Ġbats": 7755,
    "Ġsurprises": 7756,
    "Ġclearing": 7757,
    "ale": 7758,
    "Ġscreams": 7759,
    "Ġrobots": 7760,
    "Ġmarking": 7761,
    "Ġmeans": 7762,
    "Ġsometimes": 7763,
    "iving": 7764,
    "Ġspec": 7765,
    "Ġbatter": 7766,
    "Tommy": 7767,
    "plash": 7768,
    "Ġtutor": 7769,
    "Ġwork": 7770,
    "ions": 7771,
    "Ġplease": 7772,
    "elope": 7773,
    "Ġbother": 7774,
    "Ġast": 7775,
    "Ġdoing": 7776,
    "Ġash": 7777,
    "andas": 7778,
    "vent": 7779,
    "low": 7780,
    "Ġcopy": 7781,
    "ĠCuddles": 7782,
    "Ġletting": 7783,
    "pted": 7784,
    "Ġlevers": 7785,
    "Ġinsist": 7786,
    "Ġwhere": 7787,
    "Ġcannot": 7788,
    "Ġrecorder": 7789,
    "Ġglowing": 7790,
    "Ġclearly": 7791,
    "Ġchews": 7792,
    "ft": 7793,
    "Ġb": 7794,
    "Ġcream": 7795,
    "Û": 7796,
    "ĠBop": 7797,
    "Ġgirl": 7798,
    "pped": 7799,
    "Ġtraveling": 7800,
    "Ġlisten": 7801,
    "Ġmath": 7802,
    "ĠBetsy": 7803,
    "Toys": 7804,
    "Ġpedaled": 7805,
    "Ġfeeling": 7806,
    "ĠJumpy": 7807,
    "ĉ": 7808,
    "ĕ": 7809,
    "ĠOne": 7810,
    "Ġspun": 7811,
    "Ġdownstairs": 7812,
    "Ġhealth": 7813,
    "Ġkindly": 7814,
    "ib": 7815,
    "ĠHe": 7816,
    "Ġskin": 7817,
    "Ġwife": 7818,
    "So": 7819,
    "Ġmenu": 7820,
    "Ġbreat": 7821,
    "Ġwhy": 7822,
    "Ġitself": 7823,
    "ĠSn": 7824,
    "Ġtra": 7825,
    "Ġinclu": 7826,
    "yth": 7827,
    "ŀ": 7828,
    "Ġover": 7829,
    "Ġmiller": 7830,
    "Ġwrit": 7831,
    "chen": 7832,
    "Ġuntie": 7833,
    "Ġtroph": 7834,
    "anes": 7835,
    "ĠThat": 7836,
    "llow": 7837,
    "iens": 7838,
    "Ġflip": 7839,
    "Ġoh": 7840,
    "y": 7841,
    "Ribbit": 7842,
    "Ġseriously": 7843,
    "Ġflower": 7844,
    "Ġpolar": 7845,
    "Ġmomma": 7846,
    "Ġslips": 7847,
    "Ġbaa": 7848,
    "Ġunwra": 7849,
    "Charlie": 7850,
    "Ġscooped": 7851,
    "Ġkne": 7852,
    "Ġsharp": 7853,
    "Maria": 7854,
    "Ġplanet": 7855,
    "Ġpolite": 7856,
    "Ġprin": 7857,
    "Ġbeam": 7858,
    "Ġplucked": 7859,
    "Ġwebs": 7860,
    "ina": 7861,
    "Ġhim": 7862,
    "Ġbuy": 7863,
    "oni": 7864,
    "Mon": 7865,
    "ĠSpring": 7866,
    "Ġpermit": 7867,
    "Ġraven": 7868,
    "Ġeld": 7869,
    "Ġhelicopter": 7870,
    "ĠBuzz": 7871,
    "Ġchurch": 7872,
    "ĠCharlotte": 7873,
    "Ġarm": 7874,
    "Ġticket": 7875,
    "Ġguilty": 7876,
    "Ġyellow": 7877,
    "asha": 7878,
    "Ġdisc": 7879,
    "Ġpattern": 7880,
    "Ġparents": 7881,
    "onna": 7882,
    "Ġflashlight": 7883,
    "ĠApril": 7884,
    "Ġnumbers": 7885,
    "Ġbought": 7886,
    "Ġgreat": 7887,
    "Ġoccas": 7888,
    "Ġtrunk": 7889,
    "Ġvet": 7890,
    "under": 7891,
    "Ġsprinkled": 7892,
    "ion": 7893,
    "ecting": 7894,
    "ĠZara": 7895,
    "Ġsoared": 7896,
    "Ġtables": 7897,
    "Ġmouse": 7898,
    "Ġcone": 7899,
    "Ġhug": 7900,
    "Ġext": 7901,
    "Ġtalks": 7902,
    "Ġquestioned": 7903,
    "Ġask": 7904,
    "Ġcraft": 7905,
    "Ġcongratulated": 7906,
    "Ġbookshe": 7907,
    "Ġbackwards": 7908,
    "igger": 7909,
    "na": 7910,
    "Somet": 7911,
    "Ġgenerosity": 7912,
    "irthday": 7913,
    "Ġbalance": 7914,
    "Ġcenter": 7915,
    "Ġjet": 7916,
    "Ġbridge": 7917,
    "Ġemer": 7918,
    "Well": 7919,
    "Ġslowly": 7920,
    "Ġenormous": 7921,
    "Ġkissed": 7922,
    "Ġmeows": 7923,
    "ĠSally": 7924,
    "ĠJune": 7925,
    "ĠRatty": 7926,
    "Ġribbons": 7927,
    "father": 7928,
    "ize": 7929,
    "other": 7930,
    "Ġdecides": 7931,
    "Ġbehavi": 7932,
    "Ġthrown": 7933,
    "Ġattitude": 7934,
    "hen": 7935,
    "Ġhappiest": 7936,
    "Ġumbrellas": 7937,
    "ĠPippin": 7938,
    "ĠBe": 7939,
    "Ġscale": 7940,
    "ĠLou": 7941,
    "Ġimaginary": 7942,
    "Ġsometime": 7943,
    "!\",": 7944,
    "udy": 7945,
    "Ġclos": 7946,
    "Ġstroked": 7947,
    "ino": 7948,
    "adually": 7949,
    "Ġsilly": 7950,
    "ld": 7951,
    "Ġloves": 7952,
    "Ġcust": 7953,
    "Ġlittle": 7954,
    "ng": 7955,
    "Ġteeth": 7956,
    "Ġlick": 7957,
    "Ġflaps": 7958,
    "Ġclap": 7959,
    "ĠFly": 7960,
    "ĠCarl": 7961,
    "Ġdecision": 7962,
    "ĠRight": 7963,
    "Ġheat": 7964,
    "Ġlive": 7965,
    "lebr": 7966,
    "Ġroutine": 7967,
    "Ġfill": 7968,
    "Ġremember": 7969,
    "Ġstaring": 7970,
    "Ġembarrassed": 7971,
    "Ġincluded": 7972,
    "Ġvacation": 7973,
    "though": 7974,
    "Ġcircle": 7975,
    "Ġpig": 7976,
    "Ġben": 7977,
    "Ġtreasures": 7978,
    "Mary": 7979,
    "ė": 7980,
    "arky": 7981,
    "Ġsparkling": 7982,
    "Ġglittered": 7983,
    "upid": 7984,
    "imes": 7985,
    "Ý": 7986,
    "Ġdiscuss": 7987,
    "Tiny": 7988,
    "Ġlifts": 7989,
    "Ġsearch": 7990,
    "ĠReady": 7991,
    "ä": 7992,
    "Ġshh": 7993,
    "Ġhappy": 7994,
    "Ġbags": 7995,
    "irl": 7996,
    "Ġheels": 7997,
    "Ġflips": 7998,
    "ĠRachel": 7999,
    "cient": 8000,
    "Ġgu": 8001,
    "Ha": 8002,
    "Ġweighs": 8003,
    "Ġtravel": 8004,
    "Boo": 8005,
    "Ġpresents": 8006,
    "Maya": 8007,
    "Ġencount": 8008,
    "ĠWhich": 8009,
    "Ġallowing": 8010,
    "Ġshot": 8011,
    "Ġcurtain": 8012,
    "Ġcardboard": 8013,
    "Ġsizes": 8014,
    "ĠMint": 8015,
    "ert": 8016,
    "lt": 8017,
    "Ġletters": 8018,
    "Ġtug": 8019,
    "Ġtrot": 8020,
    "Good": 8021,
    "Ġcough": 8022,
    "Ġsi": 8023,
    "riage": 8024,
    "Ġsorting": 8025,
    "Ġnap": 8026,
    "Pippin": 8027,
    "Ġtop": 8028,
    "Put": 8029,
    "Ġstraight": 8030,
    "Ġopin": 8031,
    "ittle": 8032,
    "Ġpolitely": 8033,
    "ĠSpin": 8034,
    "ĠSk": 8035,
    "Ġrobber": 8036,
    "Ġcrawl": 8037,
    "Ġoats": 8038,
    "eropl": 8039,
    "Like": 8040,
    "int": 8041,
    "Ġquick": 8042,
    "Owl": 8043,
    "board": 8044,
    "ark": 8045,
    "Ġdrew": 8046,
    "Ġdragonfly": 8047,
    "Ġmiss": 8048,
    "ember": 8049,
    "itten": 8050,
    "fire": 8051,
    "Ġproud": 8052,
    "Ġhang": 8053,
    "Ġloud": 8054,
    "fly": 8055,
    "Ġsat": 8056,
    "ertain": 8057,
    "ĠSof": 8058,
    "¯": 8059,
    "Ġdetect": 8060,
    "stick": 8061,
    "Ġscri": 8062,
    "Ć": 8063,
    "Ġaisle": 8064,
    "ĠBall": 8065,
    "Ġrespons": 8066,
    "Ġcurly": 8067,
    "Ġrubber": 8068,
    "Jul": 8069,
    "Ġdrift": 8070,
    "Ġstall": 8071,
    "Ġtongues": 8072,
    "Ġpermitted": 8073,
    "Dear": 8074,
    "Ġdiscoveries": 8075,
    "ĠTears": 8076,
    "cat": 8077,
    "acock": 8078,
    "Ġmittens": 8079,
    "ĠBoat": 8080,
    "ĠâĢĶ": 8081,
    "ots": 8082,
    "Ġvines": 8083,
    "Ġdisagreeing": 8084,
    "Ġspecial": 8085,
    "cessary": 8086,
    "No": 8087,
    "Ġobedient": 8088,
    "Ġteac": 8089,
    "Ġrefused": 8090,
    "ĠFish": 8091,
    "Ġrainy": 8092,
    "ĠPen": 8093,
    "Grandpa": 8094,
    "Ġfishing": 8095,
    "ĠSnowy": 8096,
    "Ġstretch": 8097,
    "Ġmonster": 8098,
    "Ġstarts": 8099,
    "Í": 8100,
    "Me": 8101,
    "Ġswap": 8102,
    "oose": 8103,
    "Ġsm": 8104,
    "zoom": 8105,
    "um": 8106,
    "Ġfavorite": 8107,
    "Ġpatches": 8108,
    "Ġpet": 8109,
    "Ġoutside": 8110,
    "Ġshelf": 8111,
    "Ġbuckles": 8112,
    "We": 8113,
    "Ġlunchtime": 8114,
    "Ġstuck": 8115,
    "ĠWilliam": 8116,
    "ª": 8117,
    "Ġdrove": 8118,
    "Ġflavor": 8119,
    "ears": 8120,
    "Ā": 8121,
    "&": 8122,
    "Ġcalend": 8123,
    "Ġwing": 8124,
    "owl": 8125,
    "During": 8126,
    "U": 8127,
    "Ġaccepted": 8128,
    "Ġclear": 8129,
    "eterin": 8130,
    "Ġsucceeded": 8131,
    "Ġautomobiles": 8132,
    "Ġbeing": 8133,
    "lee": 8134,
    "ĠRon": 8135,
    "Ġfarmer": 8136,
    "Ŀ": 8137,
    "Ġnest": 8138,
    "Ġsuperhero": 8139,
    "Ġpandas": 8140,
    "Ġswayed": 8141,
    "othy": 8142,
    "Ġhelicopters": 8143,
    "aut": 8144,
    "Ġunite": 8145,
    "Ġsuns": 8146,
    "Ġescaped": 8147,
    "Ġpastries": 8148,
    "Ġplug": 8149,
    "ĠC": 8150,
    "ĠCher": 8151,
    "Ġglobe": 8152,
    "ĠHelp": 8153,
    "Ġtickled": 8154,
    "ĠKate": 8155,
    "anish": 8156,
    "Ġwasting": 8157,
    "Ġdesperate": 8158,
    "Ġharb": 8159,
    "Ġnearby": 8160,
    "Ġbody": 8161,
    "Ġmountain": 8162,
    "Ġcheerful": 8163,
    "Ġcam": 8164,
    "ama": 8165,
    "Ġdiffic": 8166,
    "Ġpe": 8167,
    "Ġbrown": 8168,
    "Ġfrown": 8169,
    "Ġmissed": 8170,
    "Ġchoo": 8171,
    "ĠThere": 8172,
    "Ġtoy": 8173,
    "ĠZoe": 8174,
    "Ġsailor": 8175,
    "Ġnervous": 8176,
    "Ġduckling": 8177,
    "ĠRain": 8178,
    "Ġner": 8179,
    "Ġstuffing": 8180,
    "Luckily": 8181,
    "Ġbox": 8182,
    "Ġl": 8183,
    "Ġstrawberries": 8184,
    "ĠBo": 8185,
    "Ġdiscouraged": 8186,
    "Ł": 8187,
    "Ġwalls": 8188,
    "llen": 8189,
    "Ġpurrs": 8190,
    "Ġtwice": 8191,
    "Ġspiders": 8192,
    "Ġstrawberry": 8193,
    "ident": 8194,
    "Ġstarfish": 8195,
    "Ġhummed": 8196,
    "rum": 8197,
    "Ġswitch": 8198,
    "ĠPete": 8199,
    "Ġhugged": 8200,
    "Ġshake": 8201,
    "Ġgum": 8202,
    "Ġpecked": 8203,
    "ĠSl": 8204,
    "Ġfetched": 8205,
    "Ġbrus": 8206,
    "Ġheart": 8207,
    "Ġterrified": 8208,
    "lcano": 8209,
    "Ġlit": 8210,
    "ĠJelly": 8211,
    "Ġcracker": 8212,
    "Ġshining": 8213,
    "Ġpigeon": 8214,
    "Ġbro": 8215,
    "ugg": 8216,
    "Ġdusty": 8217,
    "Ġcounted": 8218,
    "ĠInside": 8219,
    "Ġhill": 8220,
    "ĠTippy": 8221,
    "Ġbumpy": 8222,
    "Ġfe": 8223,
    "Ġoak": 8224,
    "Ġass": 8225,
    "Abigail": 8226,
    "azz": 8227,
    "Ġvisitor": 8228,
    "James": 8229,
    "Ġeasily": 8230,
    "Does": 8231,
    "ized": 8232,
    "ĠFrosty": 8233,
    "Ġweaker": 8234,
    "Ġpolish": 8235,
    "Ġshrinking": 8236,
    "Ġknights": 8237,
    "ĠDara": 8238,
    "Ġcamera": 8239,
    "Ġpracticing": 8240,
    "Ġroots": 8241,
    "Ġpots": 8242,
    "ĠWilly": 8243,
    "ĠM": 8244,
    "endy": 8245,
    "Ġsecure": 8246,
    "Ġguessing": 8247,
    "wards": 8248,
    "Ġmap": 8249,
    "Ġpol": 8250,
    "Ġenv": 8251,
    "Ġturt": 8252,
    "Ġraise": 8253,
    "erry": 8254,
    "Ġgiant": 8255,
    "Ġpear": 8256,
    "aura": 8257,
    "Ġevil": 8258,
    "Ġprettier": 8259,
    "Ġhalves": 8260,
    "Carl": 8261,
    "oosh": 8262,
    "Ġspin": 8263,
    "Ġcomes": 8264,
    "Ġknown": 8265,
    "Jessica": 8266,
    "Ġyours": 8267,
    "ĠTommy": 8268,
    "ready": 8269,
    "Ġmissing": 8270,
    "Goodbye": 8271,
    "Robby": 8272,
    "Ġforehead": 8273,
    "Ġfacts": 8274,
    "Ġwinners": 8275,
    "Hop": 8276,
    "Get": 8277,
    "Ġachie": 8278,
    "Ġmoved": 8279,
    "ester": 8280,
    "Ġmyself": 8281,
    "Ġturned": 8282,
    "igers": 8283,
    "ortunately": 8284,
    "Ġshares": 8285,
    "Ġboun": 8286,
    "Ä": 8287,
    "Je": 8288,
    "Ġworks": 8289,
    "Ġra": 8290,
    "Ġthoughtful": 8291,
    "Ġneighborhood": 8292,
    "Ġhot": 8293,
    "Ġcelebration": 8294,
    "Ġshorts": 8295,
    "Ġmaster": 8296,
    "Ġsnorted": 8297,
    "Ġdesper": 8298,
    "Ġtwists": 8299,
    "ĠMicroscope": 8300,
    "ĠCara": 8301,
    "©": 8302,
    "esterday": 8303,
    "Ġmarker": 8304,
    "Ġpa": 8305,
    "Ġblooming": 8306,
    "Ġlooked": 8307,
    "ick": 8308,
    "usia": 8309,
    "Ġsweetie": 8310,
    "Ġrefuse": 8311,
    "Ġthroat": 8312,
    "Ġgrocer": 8313,
    "otion": 8314,
    "Ġobey": 8315,
    "ilt": 8316,
    "Run": 8317,
    "ctop": 8318,
    "Want": 8319,
    "Ġbreaths": 8320,
    "Ġagain": 8321,
    "M": 8322,
    "Ġboth": 8323,
    "ring": 8324,
    "ouraged": 8325,
    "Ġvegg": 8326,
    "Ġmeaning": 8327,
    "ages": 8328,
    "ĠRed": 8329,
    "Ġroof": 8330,
    "Ġseeds": 8331,
    "irit": 8332,
    "Ġthe": 8333,
    "au": 8334,
    "Ġnotebook": 8335,
    "Ġwood": 8336,
    "Ġhumble": 8337,
    "Teddy": 8338,
    "Ġended": 8339,
    "Ġrains": 8340,
    "ancy": 8341,
    "Ġjoke": 8342,
    "Ġforests": 8343,
    "Ġpizzas": 8344,
    "Ġdelicate": 8345,
    "Ġfirefighters": 8346,
    "Ġsniffed": 8347,
    "ĠYellow": 8348,
    "idge": 8349,
    "Ġstopped": 8350,
    "able": 8351,
    "ĠYesterday": 8352,
    "Ġbaker": 8353,
    "hood": 8354,
    "Ġv": 8355,
    "Ġpat": 8356,
    "ĠMary": 8357,
    "Ġham": 8358,
    "Ġaeroplane": 8359,
    "aked": 8360,
    "Ġburied": 8361,
    "Ġrepairing": 8362,
    "ila": 8363,
    "Ġstrugg": 8364,
    "ting": 8365,
    "medi": 8366,
    "aisies": 8367,
    "Ġplans": 8368,
    "Ġswollen": 8369,
    "Ġpointed": 8370,
    "Ġpleas": 8371,
    "cks": 8372,
    "Ġeagerly": 8373,
    "Ġsize": 8374,
    "Elly": 8375,
    "Ġdisgust": 8376,
    "ĠJessica": 8377,
    "Ġgust": 8378,
    "Ġhat": 8379,
    "Choo": 8380,
    "Ġsilver": 8381,
    "Ġlands": 8382,
    "Ġdisappeared": 8383,
    "Ġdifferently": 8384,
    "Ġrepeat": 8385,
    "udden": 8386,
    "Ġtour": 8387,
    "rian": 8388,
    "Ġdelivering": 8389,
    "Ġscattered": 8390,
    "Ġbusiness": 8391,
    "well": 8392,
    "Ġunsure": 8393,
    "Ġsoda": 8394,
    "Ġslower": 8395,
    "Ġmommies": 8396,
    "Ġforts": 8397,
    "?âĢĿ": 8398,
    "Ġfan": 8399,
    "Ġgoes": 8400,
    "Peter": 8401,
    "Ġ1": 8402,
    "Ń": 8403,
    "ĠAnd": 8404,
    "uck": 8405,
    "ĠAmy": 8406,
    "Ġdan": 8407,
    "Ġmin": 8408,
    "Ġaimed": 8409,
    "Ġscru": 8410,
    "igh": 8411,
    "Ġneither": 8412,
    "Ġhospital": 8413,
    "ĠSnow": 8414,
    "?\",": 8415,
    "Ġwhispers": 8416,
    "Ġpast": 8417,
    "Ġreminder": 8418,
    "Ġspoon": 8419,
    "ment": 8420,
    "ĠWhoever": 8421,
    "Speedy": 8422,
    "Ġlending": 8423,
    "Ġfire": 8424,
    "4": 8425,
    "cope": 8426,
    "Ġmarks": 8427,
    "Ġglows": 8428,
    "ult": 8429,
    "Ġtries": 8430,
    "Ġordinary": 8431,
    "Ġfrightened": 8432,
    "Ġwrapping": 8433,
    "Ġserve": 8434,
    "line": 8435,
    "Ġtrigger": 8436,
    "Ġtested": 8437,
    "Thank": 8438,
    "Ġtoaster": 8439,
    "Ġtie": 8440,
    "Ġchirp": 8441,
    "Ġquickly": 8442,
    "Ġrobin": 8443,
    "Ġbur": 8444,
    "Ġupstairs": 8445,
    "Ġbeehive": 8446,
    "joy": 8447,
    "Ġwhimpered": 8448,
    "ĠJill": 8449,
    "Magic": 8450,
    "Ġtest": 8451,
    "Ġsqueaky": 8452,
    "ĠMaddie": 8453,
    "Ġsoap": 8454,
    "This": 8455,
    "ĠZack": 8456,
    "Ġter": 8457,
    "Ġbroke": 8458,
    "Ġstings": 8459,
    "em": 8460,
    "Moral": 8461,
    "Ġrem": 8462,
    "Ġcomfort": 8463,
    "Ġreturning": 8464,
    "me": 8465,
    "Ġrace": 8466,
    "Now": 8467,
    "Ġinsisted": 8468,
    "ries": 8469,
    "ĠBenny": 8470,
    "Ġmissile": 8471,
    "Ġju": 8472,
    "Ġrazor": 8473,
    "Bang": 8474,
    "iment": 8475,
    "Ġwrapper": 8476,
    "Ġrefrigerator": 8477,
    "Ġbiscuit": 8478,
    "Ġbelie": 8479,
    "Ġseek": 8480,
    "Yummy": 8481,
    "ĠBlue": 8482,
    "Ġasleep": 8483,
    "Ġsunset": 8484,
    "Ġreind": 8485,
    "Ġmug": 8486,
    "washer": 8487,
    "Ġfaucet": 8488,
    "ĠTomorrow": 8489,
    "À": 8490,
    "arian": 8491,
    "Ġcolor": 8492,
    "Ġbike": 8493,
    "Ġhands": 8494,
    "Ġfruits": 8495,
    "Ġjumper": 8496,
    "Deal": 8497,
    "Ġfingers": 8498,
    "ĠYes": 8499,
    "Ġmustache": 8500,
    "uno": 8501,
    "Ġlife": 8502,
    "ĠHis": 8503,
    "aid": 8504,
    "nce": 8505,
    "b": 8506,
    "Ġtrouble": 8507,
    "Ġfavor": 8508,
    "Ġseeking": 8509,
    "Ġgerm": 8510,
    "Ġsting": 8511,
    "Ġhis": 8512,
    "ĠRemy": 8513,
    "Ġpigs": 8514,
    "ĠHippy": 8515,
    "Ġitchy": 8516,
    "Ġopened": 8517,
    "Ġhit": 8518,
    "Ġtre": 8519,
    "ĠWould": 8520,
    "cie": 8521,
    "Ġcle": 8522,
    "Ġblack": 8523,
    "Ġguest": 8524,
    "wk": 8525,
    "Ġsounded": 8526,
    "Ġfrosting": 8527,
    "mel": 8528,
    "reeze": 8529,
    "Ġstretches": 8530,
    "athy": 8531,
    "ĠMummy": 8532,
    "Ġcr": 8533,
    "Ġdidn": 8534,
    "Ġpushed": 8535,
    "ĠGilly": 8536,
    "Ġtaps": 8537,
    "Ġpenguins": 8538,
    "ragile": 8539,
    "Ġrides": 8540,
    "ĊĊ": 8541,
    "uly": 8542,
    "Ġgrandfather": 8543,
    "fic": 8544,
    "ence": 8545,
    "Ġtouched": 8546,
    "Ġpec": 8547,
    "ĠRyan": 8548,
    "Ġboot": 8549,
    "Ġigloo": 8550,
    "Ġresisted": 8551,
    "Ġfact": 8552,
    "Ġawesome": 8553,
    "Ġbehavior": 8554,
    "ster": 8555,
    "Ġplastic": 8556,
    "Ġmill": 8557,
    "ters": 8558,
    "Ġmonkeys": 8559,
    "Ġmention": 8560,
    "Ġmovies": 8561,
    "Ġdirtier": 8562,
    "al": 8563,
    "Ġadmir": 8564,
    "Ġmooed": 8565,
    "Ġlikes": 8566,
    "Ġremind": 8567,
    "Shrink": 8568,
    "Ġcoal": 8569,
    "Suzie": 8570,
    "ĠTuna": 8571,
    "Ġband": 8572,
    "ø": 8573,
    "Ġbund": 8574,
    "ĠWhat": 8575,
    "erly": 8576,
    "Ġsmart": 8577,
    "Ġstretching": 8578,
    "ĠClaire": 8579,
    "ĠBaa": 8580,
    "ĠPast": 8581,
    "Ġencouragement": 8582,
    "Danger": 8583,
    "ĠBubbles": 8584,
    "ĠBeing": 8585,
    "Ġavoid": 8586,
    "Ġdress": 8587,
    "Ġcomplet": 8588,
    "ĠKeep": 8589,
    "Ġbelt": 8590,
    "Ġcashier": 8591,
    "ct": 8592,
    "Ġshrink": 8593,
    "Ġfilled": 8594,
    "Ġbravery": 8595,
    "Ġwearing": 8596,
    "Ġtow": 8597,
    "iginal": 8598,
    "Ġunlock": 8599,
    "Ġhappier": 8600,
    "alth": 8601,
    "Ġser": 8602,
    "Ġhissing": 8603,
    "?'": 8604,
    "ĠCats": 8605,
    "\",": 8606,
    "Ġplayground": 8607,
    "Ġimproved": 8608,
    "Ġshooting": 8609,
    "Ġpopcorn": 8610,
    "Ġoxygen": 8611,
    "Ġbothered": 8612,
    "Ġy": 8613,
    "ĠBiggy": 8614,
    "Ġwindow": 8615,
    "Ġpurp": 8616,
    "Ġwonder": 8617,
    "Ġworrying": 8618,
    "atie": 8619,
    "Ġcreature": 8620,
    "Ġmast": 8621,
    "Ġtable": 8622,
    "Ġborn": 8623,
    "ashed": 8624,
    "Ġpromise": 8625,
    "ber": 8626,
    "Ġweb": 8627,
    "ĠBoth": 8628,
    "Ġcopper": 8629,
    "rink": 8630,
    "Ġpostman": 8631,
    "ĠAnnie": 8632,
    "\"": 8633,
    "Buzz": 8634,
    "ĠEd": 8635,
    "Ġcourage": 8636,
    "Ġsplashes": 8637,
    "Ġvanish": 8638,
    "Ġtweet": 8639,
    "Ĥ": 8640,
    "zzy": 8641,
    "ĠBut": 8642,
    "Ġfirst": 8643,
    "Polly": 8644,
    "Ġthermometer": 8645,
    "Ġfur": 8646,
    "OK": 8647,
    "Ġbracelets": 8648,
    "Ġtal": 8649,
    "ü": 8650,
    "ĠSam": 8651,
    "ze": 8652,
    "Ġled": 8653,
    "Ġtowels": 8654,
    "Ġcharacters": 8655,
    "ops": 8656,
    "Ġbake": 8657,
    "Ġhuman": 8658,
    "Zoomy": 8659,
    "iggles": 8660,
    "Ġsettled": 8661,
    "Ġgrandmother": 8662,
    "Ġrubs": 8663,
    "Ġsouvenir": 8664,
    "Ġapples": 8665,
    "ĠShadow": 8666,
    "6": 8667,
    "am": 8668,
    "Ġlily": 8669,
    "ĠJet": 8670,
    "Ġcloud": 8671,
    "Ġjourn": 8672,
    "Ġsa": 8673,
    "Ġsmile": 8674,
    "Ġmuster": 8675,
    "Ġyelp": 8676,
    "Ą": 8677,
    "Ġspat": 8678,
    "Ġnights": 8679,
    "Ġsingers": 8680,
    "aghett": 8681,
    "Ġtraveled": 8682,
    "ĠLion": 8683,
    "ĠLight": 8684,
    "Ġlabel": 8685,
    "Ġsne": 8686,
    "Ġfake": 8687,
    "İ": 8688,
    "Since": 8689,
    "ibbit": 8690,
    "over": 8691,
    "Ġherself": 8692,
    "ĠMegan": 8693,
    "ĠGus": 8694,
    "Ġmonth": 8695,
    "Ġlanguage": 8696,
    "Ġrips": 8697,
    "Ġadmiration": 8698,
    "Ġwasn": 8699,
    "Ġseats": 8700,
    "Ġswallowed": 8701,
    "une": 8702,
    "Ġfins": 8703,
    "Ġwagon": 8704,
    "Ġfeelings": 8705,
    "Ľ": 8706,
    "Ġbuses": 8707,
    "ĠStretch": 8708,
    "Ġmaking": 8709,
    "ped": 8710,
    "Ġbase": 8711,
    "Ġdr": 8712,
    "io": 8713,
    "ouched": 8714,
    "Catch": 8715,
    "Ġmistake": 8716,
    "Ġlaughter": 8717,
    "Any": 8718,
    "Ġlaught": 8719,
    "Ġfuzzy": 8720,
    "Ġnoses": 8721,
    "Ġwatched": 8722,
    "Ġcan": 8723,
    "Ġqueens": 8724,
    "Ġsur": 8725,
    "Ġgener": 8726,
    "Ġfairy": 8727,
    "Ġair": 8728,
    "ople": 8729,
    "Karen": 8730,
    "Ġmood": 8731,
    "Ġbalancing": 8732,
    "Olive": 8733,
    "ĠEddie": 8734,
    "Ġenter": 8735,
    "ĠRebecca": 8736,
    "Ġindeed": 8737,
    "Ġcamping": 8738,
    "Ġtelling": 8739,
    "Ġfollow": 8740,
    "Ġwondered": 8741,
    "Ġshrugs": 8742,
    "ĠDuck": 8743,
    "Ġwat": 8744,
    "ł": 8745,
    "ers": 8746,
    "fast": 8747,
    "Ġsweeties": 8748,
    "Ġbrakes": 8749,
    "Ġden": 8750,
    "ĠMaisy": 8751,
    "ĠAny": 8752,
    "ĠKatie": 8753,
    "Ġcoup": 8754,
    "Ġhisses": 8755,
    "Ġdumb": 8756,
    "Ó": 8757,
    "Ġsepar": 8758,
    "V": 8759,
    "Ġworkers": 8760,
    "aren": 8761,
    "Ġhorse": 8762,
    "Mike": 8763,
    "ĠHowever": 8764,
    "Finny": 8765,
    "ful": 8766,
    "kend": 8767,
    "Ġcamel": 8768,
    "Ġfloor": 8769,
    "Lulu": 8770,
    "ĠPeggy": 8771,
    "Ġmeant": 8772,
    "<|endoftext|>": 8773,
    "Ġcatch": 8774,
    "Ġtreehouse": 8775,
    "ĠJojo": 8776,
    "Ġtrust": 8777,
    "Ġlet": 8778,
    "Ġsmelled": 8779,
    "ially": 8780,
    "Ġscoop": 8781,
    "ubby": 8782,
    "Ġchores": 8783,
    "ange": 8784,
    "Ġchickens": 8785,
    "Coco": 8786,
    "Ġthorns": 8787,
    "Ġquacking": 8788,
    "Ġspaces": 8789,
    "esday": 8790,
    "Ġstriking": 8791,
    "ighed": 8792,
    "Ġteaspoon": 8793,
    "aids": 8794,
    "Ġwalk": 8795,
    "oral": 8796,
    "ind": 8797,
    "People": 8798,
    "Ġdeserve": 8799,
    "Ġdestination": 8800,
    "Ġbalanced": 8801,
    "ough": 8802,
    "Ġcaw": 8803,
    "Ġmailing": 8804,
    "Ġaim": 8805,
    "Ġne": 8806,
    "Ġpacking": 8807,
    "Ġunique": 8808,
    "elery": 8809,
    "Ġequ": 8810,
    "Ġmist": 8811,
    "Ġvowed": 8812,
    "Ġbits": 8813,
    "Ġflat": 8814,
    "Ġashtray": 8815,
    "dam": 8816,
    "Ġgazed": 8817,
    "aur": 8818,
    "rot": 8819,
    "ake": 8820,
    "Ġsternly": 8821,
    "Ġforgiving": 8822,
    "ĠSnowman": 8823,
    "bles": 8824,
    "Ġhipp": 8825,
    "Ġtrou": 8826,
    "Ġclever": 8827,
    "ĠMittens": 8828,
    "?\".": 8829,
    "Ġlaughing": 8830,
    "Rabbit": 8831,
    "Ġstrips": 8832,
    "Ġcaut": 8833,
    "lo": 8834,
    "Ġimage": 8835,
    "Ġcages": 8836,
    "Ġstaff": 8837,
    "Buzzy": 8838,
    "Ġtriangles": 8839,
    "ĠJones": 8840,
    "Ġmonths": 8841,
    "Mine": 8842,
    "Ġgrey": 8843,
    "Ġspringing": 8844,
    "Ġdoorstep": 8845,
    "Ġdig": 8846,
    "Ġdisagreement": 8847,
    "Ġfierce": 8848,
    "Ñ": 8849,
    "Ġfighting": 8850,
    "eddy": 8851,
    "Ġre": 8852,
    "ĠPuffy": 8853,
    "Ġkay": 8854,
    "ĠKiki": 8855,
    "Ġwheat": 8856,
    "Ġinsects": 8857,
    "ble": 8858,
    "Ġnicely": 8859,
    "Ġmet": 8860,
    "Ġtugged": 8861,
    "Ġmu": 8862,
    "Ġcheap": 8863,
    "Ġyelling": 8864,
    "Ġsnip": 8865,
    "Ġsped": 8866,
    "yan": 8867,
    "Ġneigh": 8868,
    "Ġpeered": 8869,
    "Ġinsisting": 8870,
    "ĠJason": 8871,
    "Ġgoodnight": 8872,
    "ree": 8873,
    "Ġsaw": 8874,
    "Ġacorns": 8875,
    "eds": 8876,
    "Ġtub": 8877,
    "ĠKip": 8878,
    "ĠJoe": 8879,
    "Ġvillag": 8880,
    "irrel": 8881,
    "§": 8882,
    "Ġwant": 8883,
    "Ġburned": 8884,
    "orted": 8885,
    "eter": 8886,
    "covered": 8887,
    "asket": 8888,
    "Ġangrier": 8889,
    "ĠPh": 8890,
    "Ġballs": 8891,
    "Ġswitched": 8892,
    "dding": 8893,
    "arning": 8894,
    "ĠMic": 8895,
    "ories": 8896,
    "Ġafterwards": 8897,
    "iny": 8898,
    "Ġsports": 8899,
    "Ġpull": 8900,
    "ĠRavi": 8901,
    "elcome": 8902,
    "retty": 8903,
    "ady": 8904,
    "Ġmarry": 8905,
    "ĠNut": 8906,
    "Ġwooden": 8907,
    "ĠInky": 8908,
    "cond": 8909,
    "good": 8910,
    "ĠIm": 8911,
    "storm": 8912,
    "Dan": 8913,
    "Ġresponse": 8914,
    "Ġroad": 8915,
    "Ġstepping": 8916,
    "Ġcall": 8917,
    "Ġseals": 8918,
    "Ġthumbs": 8919,
    "Ġlump": 8920,
    "Ġclass": 8921,
    "Jess": 8922,
    "Ġgift": 8923,
    "Ġgive": 8924,
    "Ġtimes": 8925,
    "Ġscooters": 8926,
    "Ġlungs": 8927,
    "Ġchallen": 8928,
    "Ġdisturb": 8929,
    "Ġparked": 8930,
    "Ġanx": 8931,
    "ĠU": 8932,
    "uppy": 8933,
    "Ġhopping": 8934,
    "own": 8935,
    "aving": 8936,
    "ĠBun": 8937,
    "Ġex": 8938,
    "ĠBee": 8939,
    "icer": 8940,
    "Ġchange": 8941,
    "ving": 8942,
    "Ġcracked": 8943,
    "Ġhe": 8944,
    "Ġnecklace": 8945,
    "Ġwobble": 8946,
    "Ġshady": 8947,
    "bby": 8948,
    "elp": 8949,
    "ĠFl": 8950,
    "Ġcomplained": 8951,
    "Ġtraffic": 8952,
    "Ġlemon": 8953,
    "Ġstove": 8954,
    "Ġdesigned": 8955,
    "Ġwins": 8956,
    "Ġsquirrel": 8957,
    "Some": 8958,
    "Zara": 8959,
    "Ġglasses": 8960,
    "ĭ": 8961,
    "Ġskipped": 8962,
    "iley": 8963,
    "Ġopportunity": 8964,
    "Ġheard": 8965,
    "ĠPl": 8966,
    "ck": 8967,
    "Ġsoak": 8968,
    "Ġcorners": 8969,
    "Ġmost": 8970,
    "Ġspeak": 8971,
    "er": 8972,
    "Ġref": 8973,
    "Ġbruises": 8974,
    "Ġstones": 8975,
    "Al": 8976,
    "Ġhen": 8977,
    "Timmy": 8978,
    "ĠSusie": 8979,
    "Ġpoin": 8980,
    "Ġhurried": 8981,
    "etty": 8982,
    ".\"": 8983,
    "Ġjob": 8984,
    "Ġsym": 8985,
    "Ġhopeful": 8986,
    "ĠMan": 8987,
    "Ġmicrophone": 8988,
    "Ġkids": 8989,
    "Ġlocal": 8990,
    "Ġdared": 8991,
    "Ġleans": 8992,
    "rench": 8993,
    "Ġearth": 8994,
    "Ġgroceries": 8995,
    "Ġsh": 8996,
    "ĠGreen": 8997,
    "Ġfold": 8998,
    "Ġprickly": 8999,
    "in": 9000,
    "ĠCari": 9001,
    "Ġadding": 9002,
    "Claire": 9003,
    "Ġenjoy": 9004,
    "stri": 9005,
    "What": 9006,
    "Ġapproach": 9007,
    "Ġboss": 9008,
    "ĠMomma": 9009,
    "Ġdull": 9010,
    "Ġrefle": 9011,
    "Ġdressing": 9012,
    "os": 9013,
    "Ġkingdom": 9014,
    "ĠSugar": 9015,
    "ĠTweetie": 9016,
    "bol": 9017,
    "Ġfetch": 9018,
    "Ġshark": 9019,
    "Ġwonders": 9020,
    "Ġlist": 9021,
    "Ġaut": 9022,
    "ĠSarah": 9023,
    "Ġuniver": 9024,
    "Ġsticky": 9025,
    "Ġfascinating": 9026,
    "Ġweeping": 9027,
    "Ġyesterday": 9028,
    "ĠSaturday": 9029,
    "Ġtaken": 9030,
    "!'.": 9031,
    "en": 9032,
    "Ġprecious": 9033,
    "Ġsank": 9034,
    "Ġstood": 9035,
    "ĠTwinkle": 9036,
    "Ġcares": 9037,
    "Ġoppos": 9038,
    "ĠBounce": 9039,
    "ć": 9040,
    "Ġhappens": 9041,
    "shm": 9042,
    "Ġsmelling": 9043,
    "Ġsidewalk": 9044,
    "Ġsheet": 9045,
    "Joe": 9046,
    "brush": 9047,
    "Ġhalf": 9048,
    "Ġties": 9049,
    "Ġdiving": 9050,
    "ĠGl": 9051,
    "Ġhoop": 9052,
    "Ġcomets": 9053,
    "Ġmiracle": 9054,
    "Ġpr": 9055,
    "Ġproperty": 9056,
    "Ġce": 9057,
    "Clara": 9058,
    "Ġdolph": 9059,
    "Ġthankful": 9060,
    "Ġtrusting": 9061,
    "Ġwealth": 9062,
    "ĠTammy": 9063,
    "Sp": 9064,
    "Ġencouraged": 9065,
    "Ġscatter": 9066,
    "Ġswallow": 9067,
    "Ġlocked": 9068,
    "Ġpunishment": 9069,
    "Ġtractor": 9070,
    "Jan": 9071,
    "Ġgave": 9072,
    "ishes": 9073,
    "Ġrang": 9074,
    "Ġharm": 9075,
    "ĠOh": 9076,
    "Cindy": 9077,
    "ild": 9078,
    "Ġenjoyed": 9079,
    "on": 9080,
    "isc": 9081,
    "ssible": 9082,
    "Ġostri": 9083,
    "Josh": 9084,
    "Ġtopp": 9085,
    "Ġrotting": 9086,
    "Hmm": 9087,
    "Ġeasier": 9088,
    "@": 9089,
    "Ġsty": 9090,
    "Ġcones": 9091,
    "Ġpastels": 9092,
    "Ġlend": 9093,
    "Ġgather": 9094,
    "ĠBally": 9095,
    "outh": 9096,
    "But": 9097,
    "Ġnuzzled": 9098,
    "Ġentrance": 9099,
    "Ġshut": 9100,
    "fied": 9101,
    "Ġkilled": 9102,
    "Ġknow": 9103,
    "Ġopposite": 9104,
    "'t": 9105,
    "usty": 9106,
    "olin": 9107,
    "Ġvest": 9108,
    "<": 9109,
    "Ġpine": 9110,
    "Ġanymore": 9111,
    "ĠFinn": 9112,
    "omas": 9113,
    "Ġing": 9114,
    "Ġrel": 9115,
    "ĠMikey": 9116,
    "bbie": 9117,
    "og": 9118,
    "ĠCammy": 9119,
    "Ġbuzzing": 9120,
    "Ġrep": 9121,
    "ered": 9122,
    "Ġrestaurant": 9123,
    "Ġradish": 9124,
    "Ġwob": 9125,
    "Ġholding": 9126,
    "ĠMat": 9127,
    "Ġeff": 9128,
    "Ġprett": 9129,
    "ĠRuth": 9130,
    "Ġmasterpiece": 9131,
    "Ġwr": 9132,
    "Ġbri": 9133,
    "Ġcountry": 9134,
    "ĠYet": 9135,
    "Ġfore": 9136,
    "Ġprovide": 9137,
    "Ġtasted": 9138,
    "ĠGogo": 9139,
    "Ġdried": 9140,
    "Ġunderst": 9141,
    "Ġpokes": 9142,
    "Ġtroll": 9143,
    "Ġvisitors": 9144,
    "ition": 9145,
    "ending": 9146,
    "Ġsecond": 9147,
    "asing": 9148,
    "Ġtunnel": 9149,
    "Ġcross": 9150,
    "ĠTime": 9151,
    "ĠEx": 9152,
    "Ġbreaking": 9153,
    "Ġpor": 9154,
    "oger": 9155,
    "keleton": 9156,
    "Luke": 9157,
    "í": 9158,
    "Ġpoppy": 9159,
    "Ē": 9160,
    "Ġoften": 9161,
    "Ġpizz": 9162,
    "Ġquarreled": 9163,
    "ĠGoodbye": 9164,
    "itude": 9165,
    "ards": 9166,
    "ha": 9167,
    "Pandy": 9168,
    "Cra": 9169,
    "Ġsecrets": 9170,
    "Ġlady": 9171,
    "Ġinvitations": 9172,
    "Ġwhistle": 9173,
    "ise": 9174,
    "Ġfat": 9175,
    "ĠRover": 9176,
    "Ġsmarter": 9177,
    "rap": 9178,
    "Follow": 9179,
    "leep": 9180,
    "an": 9181,
    "Ġturns": 9182,
    "Ġdelight": 9183,
    "Ġawe": 9184,
    "Mat": 9185,
    "sess": 9186,
    "Ġweeds": 9187,
    "rier": 9188,
    "ĠEverywhere": 9189,
    "Ġdemanding": 9190,
    "Ġexpected": 9191,
    "Ġdemand": 9192,
    "Ġhits": 9193,
    "Ġimagine": 9194,
    "ĠEveryday": 9195,
    "Ġgoodness": 9196,
    "Ġsurrendered": 9197,
    "ator": 9198,
    "Ġpreparing": 9199,
    "ĠNick": 9200,
    "Ġscold": 9201,
    "Ġtuck": 9202,
    "ĠTri": 9203,
    "Ġbelong": 9204,
    "ips": 9205,
    "Ġnice": 9206,
    "ç": 9207,
    "Ġfinal": 9208,
    "Ġname": 9209,
    "Ġblowing": 9210,
    "Ġposes": 9211,
    "Ġexperien": 9212,
    "bled": 9213,
    "ĠBirthday": 9214,
    "Ġreluctantly": 9215,
    "Ġheavier": 9216,
    "Ġide": 9217,
    "Ġpres": 9218,
    "ĠLu": 9219,
    "Ġpar": 9220,
    "un": 9221,
    "of": 9222,
    "Ġfine": 9223,
    "'ll": 9224,
    "Ġtips": 9225,
    "ĠWise": 9226,
    "Mouse": 9227,
    "ĠLarry": 9228,
    "Ġreaches": 9229,
    "Ġdirection": 9230,
    "eed": 9231,
    "oe": 9232,
    "Ġwaving": 9233,
    "bu": 9234,
    "ĠBert": 9235,
    "Ġ5": 9236,
    "Ġfigured": 9237,
    "Ë": 9238,
    "Ġdigging": 9239,
    "Ġtravelled": 9240,
    "ifi": 9241,
    "Ġcontainer": 9242,
    "ĠSunny": 9243,
    "ĠCle": 9244,
    "Ġcars": 9245,
    "Ġspoons": 9246,
    "ĠCharlie": 9247,
    "quest": 9248,
    "n": 9249,
    "raged": 9250,
    "Ġjoined": 9251,
    "Ġharbor": 9252,
    "orth": 9253,
    "ĠKn": 9254,
    "Ġem": 9255,
    "Ġkeyhole": 9256,
    "Ġone": 9257,
    "ĠSure": 9258,
    "ĠPipp": 9259,
    "sa": 9260,
    "Ġceiling": 9261,
    "ank": 9262,
    "Ġsprinkle": 9263,
    "Ġscratched": 9264,
    "Ġsoapy": 9265,
    "Papa": 9266,
    "Ġstuffed": 9267,
    "Ġzoo": 9268,
    "Ġlawy": 9269,
    "Ġwould": 9270,
    "¡": 9271,
    "ĠLi": 9272,
    "ĠFe": 9273,
    "Jessie": 9274,
    "Ġnewspaper": 9275,
    "Ġarea": 9276,
    "Ġcaterpill": 9277,
    "Ç": 9278,
    "Ġcoolest": 9279,
    "inda": 9280,
    "ites": 9281,
    "ven": 9282,
    "Ġsincere": 9283,
    "Ġnotes": 9284,
    "Ġbaseball": 9285,
    "Ġpilots": 9286,
    "ĠScissors": 9287,
    "·": 9288,
    "Ġlaws": 9289,
    "Ġroses": 9290,
    "Ġdiamond": 9291,
    "Ġcandles": 9292,
    "raid": 9293,
    "mas": 9294,
    "Ġfisherman": 9295,
    "cious": 9296,
    "Make": 9297,
    "Ġswir": 9298,
    "Ġfeathers": 9299,
    "Ġfell": 9300,
    "ĠToday": 9301,
    "Ġcustomers": 9302,
    "ĠGood": 9303,
    "Ġboards": 9304,
    "Ġpoppies": 9305,
    "shmallow": 9306,
    "abel": 9307,
    "Ġrubbish": 9308,
    "Ġbehaving": 9309,
    "ichael": 9310,
    "Ġcoins": 9311,
    "Ġchalk": 9312,
    "Ġrolls": 9313,
    "ĠHelen": 9314,
    "Ġblank": 9315,
    "Ġthread": 9316,
    "Ġbegged": 9317,
    "Ġswo": 9318,
    "itter": 9319,
    "asers": 9320,
    "Ġseagulls": 9321,
    "Ġgym": 9322,
    "Ġn": 9323,
    "Ġsomething": 9324,
    "rophone": 9325,
    "az": 9326,
    "Ġglove": 9327,
    "Ġselling": 9328,
    "Ġtapping": 9329,
    "Ġmonsters": 9330,
    "ash": 9331,
    "com": 9332,
    "Ġdefeated": 9333,
    "Ġbend": 9334,
    "Ã": 9335,
    "Ġthis": 9336,
    "Ġyoun": 9337,
    "Ġflood": 9338,
    "Ġcrawled": 9339,
    "C": 9340,
    "Ġh": 9341,
    "Ġexper": 9342,
    "Ġannoyed": 9343,
    "ĠLaw": 9344,
    "ĠPat": 9345,
    "Ġpenny": 9346,
    "Ġfort": 9347,
    "Bob": 9348,
    "Ġgi": 9349,
    "ĠTurtle": 9350,
    "Ġchecks": 9351,
    "Ġhissed": 9352,
    "ĠTweet": 9353,
    "Ġwhales": 9354,
    "Ġearn": 9355,
    "Ġstarting": 9356,
    "ĠJonny": 9357,
    "ĠGrace": 9358,
    "jam": 9359,
    "Ġwardrobe": 9360,
    "Ġfinishes": 9361,
    "ĠBuzzy": 9362,
    "ĠJess": 9363,
    "night": 9364,
    "Ġfox": 9365,
    "Ġdisgusting": 9366,
    "cle": 9367,
    "Ġmountains": 9368,
    "Ġrepl": 9369,
    "Thomas": 9370,
    "lph": 9371,
    "Ġrecipe": 9372,
    "Ġscrewdriver": 9373,
    "Ġplaytime": 9374,
    "riend": 9375,
    "Ġheav": 9376,
    "Ġglared": 9377,
    "ĠMore": 9378,
    "Ġmeets": 9379,
    "colored": 9380,
    "Ġwe": 9381,
    "Ġhigh": 9382,
    "Ġbiting": 9383,
    "Ġwaited": 9384,
    "Ġpink": 9385,
    "Then": 9386,
    "Ġraced": 9387,
    "oth": 9388,
    "Ġrewarded": 9389,
    "Meanwhile": 9390,
    "Ġchanges": 9391,
    "Ġflight": 9392,
    "ĠDe": 9393,
    "ĠSpike": 9394,
    "Ġblueberry": 9395,
    "Qu": 9396,
    "Ġmark": 9397,
    "ĠSee": 9398,
    "Ġstudied": 9399,
    "Ġruler": 9400,
    "prints": 9401,
    "ner": 9402,
    "espite": 9403,
    "fl": 9404,
    "Ġcaulif": 9405,
    "net": 9406,
    "Ġgears": 9407,
    "seph": 9408,
    "ira": 9409,
    "Ġskirts": 9410,
    "ph": 9411,
    "Ġow": 9412,
    "Ġguitars": 9413,
    "c": 9414,
    "Ġscolded": 9415,
    "Slowly": 9416,
    "Ġsuggest": 9417,
    "Ġlaid": 9418,
    "ĠOf": 9419,
    "Ġdiamonds": 9420,
    "Ġappreciation": 9421,
    "Ġbanged": 9422,
    "Ġsmashed": 9423,
    "Ġzipp": 9424,
    "Ġenviron": 9425,
    "Ġlift": 9426,
    "Ï": 9427,
    "ĠLily": 9428,
    "Ġopinions": 9429,
    "ola": 9430,
    "Ġcrouched": 9431,
    "Ġtomato": 9432,
    "Ġfloats": 9433,
    "ĠSque": 9434,
    "Rob": 9435,
    "Ġpaths": 9436,
    "Give": 9437,
    "Ġprint": 9438,
    "ĠPig": 9439,
    "Ġfence": 9440,
    "ĠWednesday": 9441,
    "Ġfree": 9442,
    "Ġolives": 9443,
    "Ġreal": 9444,
    "ĠLove": 9445,
    "Ġwill": 9446,
    "Ġwall": 9447,
    "Ġspe": 9448,
    "gan": 9449,
    "Ġnaughty": 9450,
    "ĠJax": 9451,
    "Ġgar": 9452,
    "Ġcomf": 9453,
    "Ġunpacking": 9454,
    "Ġboy": 9455,
    "Ġpenguin": 9456,
    "Ġflash": 9457,
    "ĠSweet": 9458,
    "Ġincred": 9459,
    "Surprise": 9460,
    "oline": 9461,
    "Ġ10": 9462,
    "Ġbeaks": 9463,
    "Ġsense": 9464,
    "gy": 9465,
    "thing": 9466,
    "Ġthose": 9467,
    "gu": 9468,
    "Ġpeacefully": 9469,
    "Ġovercome": 9470,
    "Ġpassport": 9471,
    "Ġspit": 9472,
    "Ġcushions": 9473,
    "Ġhelps": 9474,
    "Ġpens": 9475,
    "j": 9476,
    "Ġwanting": 9477,
    "ĠBuster": 9478,
    "Ġlets": 9479,
    "Ġordered": 9480,
    "Ġfarmers": 9481,
    "Ġnumbered": 9482,
    "Ring": 9483,
    "Chirpy": 9484,
    "Ġscraped": 9485,
    "Ġstri": 9486,
    "Ġtore": 9487,
    "Ġgently": 9488,
    "lace": 9489,
    "Ġsnack": 9490,
    "ĠHo": 9491,
    "ately": 9492,
    "Ġinvit": 9493,
    "tock": 9494,
    "Ġcould": 9495,
    "Ġpeople": 9496,
    "everse": 9497,
    "Ġpair": 9498,
    "Ġfireman": 9499,
    "res": 9500,
    "ĠMelissa": 9501,
    "Ġtwinkling": 9502,
    "adium": 9503,
    "Ġsnar": 9504,
    "act": 9505,
    "Ġmum": 9506,
    "ĠSomeone": 9507,
    "ĠChirp": 9508,
    "Ġtaped": 9509,
    "ĠPenelope": 9510,
    "ame": 9511,
    "Ġbunnies": 9512,
    "ĠAl": 9513,
    "Ġyells": 9514,
    "Ġmindful": 9515,
    "Ġnoodles": 9516,
    "ĠTV": 9517,
    "lew": 9518,
    "ĠAre": 9519,
    "Ġwhiskers": 9520,
    "Ġpartic": 9521,
    "ĠOtto": 9522,
    "ton": 9523,
    "Ġblocks": 9524,
    "Ġangels": 9525,
    "Ġprevent": 9526,
    "Ġexplor": 9527,
    "jest": 9528,
    "Ġleads": 9529,
    "Ġlights": 9530,
    "Ġraft": 9531,
    "Ġalert": 9532,
    "Ġornament": 9533,
    "ĠZoom": 9534,
    "Ġchef": 9535,
    "Ġelf": 9536,
    "ĠCut": 9537,
    "Ġdresses": 9538,
    "Ġhopped": 9539,
    "Ġperform": 9540,
    "Ġsweat": 9541,
    "Ġswoop": 9542,
    "rob": 9543,
    "ĠSilver": 9544,
    "Fifi": 9545,
    "Ġpost": 9546,
    "Ġhistory": 9547,
    "Ġsniffing": 9548,
    "ĠThose": 9549,
    "Ġscarecrow": 9550,
    "Ġtremble": 9551,
    "ĠChristmas": 9552,
    "Would": 9553,
    "Ġsandpit": 9554,
    "Ġnovel": 9555,
    "Do": 9556,
    "fe": 9557,
    "Ġadults": 9558,
    "aye": 9559,
    "Ġstumble": 9560,
    "Ġruff": 9561,
    "Ġdisapp": 9562,
    "Ġability": 9563,
    "Ġseas": 9564,
    "Ġhonk": 9565,
    "ut": 9566,
    "ĠAccidents": 9567,
    "Ġcrumbs": 9568,
    "Bounce": 9569,
    "so": 9570,
    "Ġba": 9571,
    "Ġrins": 9572,
    "Ġtant": 9573,
    "Ġcautious": 9574,
    "Ġrefreshed": 9575,
    "Ġcommon": 9576,
    "Ġsel": 9577,
    "Ġspikes": 9578,
    "ĠPepper": 9579,
    "Ġkissing": 9580,
    "Ġswords": 9581,
    "Ġdecided": 9582,
    "ĠAva": 9583,
    "Ġcooler": 9584,
    "Ġlaughs": 9585,
    "+": 9586,
    "Ġabove": 9587,
    "Ġflew": 9588,
    "ĠJudy": 9589,
    "Ġchoices": 9590,
    "mother": 9591,
    "Ġstairs": 9592,
    "Ġsquished": 9593,
    "Ġca": 9594,
    "Ġbest": 9595,
    "Ġuntangle": 9596,
    "Arrr": 9597,
    "Ġban": 9598,
    "Ġsquirrels": 9599,
    "Ġsacks": 9600,
    "Ġmo": 9601,
    "Ġfo": 9602,
    "Ġwor": 9603,
    "Ġwonderful": 9604,
    "yard": 9605,
    "ĠI": 9606,
    "Ġtogether": 9607,
    "uddy": 9608,
    "aturday": 9609,
    "iday": 9610,
    "ĠTell": 9611,
    "Ġcurled": 9612,
    "up": 9613,
    "Ġblows": 9614,
    "Ġsale": 9615,
    "Afterwards": 9616,
    "Ġavo": 9617,
    "Ġburn": 9618,
    "ook": 9619,
    "ĠSpot": 9620,
    "unt": 9621,
    "by": 9622,
    "mbers": 9623,
    "Ġey": 9624,
    "Ġplayed": 9625,
    "Ġcotton": 9626,
    "Ted": 9627,
    "Who": 9628,
    "Ġwater": 9629,
    "Ġbefore": 9630,
    "Ġfalls": 9631,
    "Ġred": 9632,
    "ĠChicky": 9633,
    "Ġstem": 9634,
    "ugar": 9635,
    "Mom": 9636,
    "Ġdrinking": 9637,
    "Ġchirped": 9638,
    "Ġdiscovery": 9639,
    "Ġcalling": 9640,
    "Ġcrew": 9641,
    "de": 9642,
    "orrow": 9643,
    "Ġtreat": 9644,
    "ĠE": 9645,
    "Ġweighing": 9646,
    "Bluey": 9647,
    "Ġsoftly": 9648,
    "Ġdreamed": 9649,
    "Ġpetting": 9650,
    "Ġyarn": 9651,
    "Ġcoop": 9652,
    "Ġdiscovered": 9653,
    "Ġgesture": 9654,
    "Ġsolution": 9655,
    "Ġhi": 9656,
    "Ġnuzz": 9657,
    "Ġcleans": 9658,
    "Ġkept": 9659,
    "Ġdiscovering": 9660,
    "Ġsatisfied": 9661,
    "luffy": 9662,
    "Ġdad": 9663,
    "ĠPer": 9664,
    "Ġthreat": 9665,
    "ĠUnfortunately": 9666,
    "Ġdoes": 9667,
    "Ġtricked": 9668,
    "Ġstreet": 9669,
    "Ġignorant": 9670,
    "Ġunhappy": 9671,
    "Excuse": 9672,
    "Ġscream": 9673,
    "Ġhairy": 9674,
    "do": 9675,
    "Ġgarbage": 9676,
    "Ġringing": 9677,
    "Ġwisdom": 9678,
    "Ġcollect": 9679,
    "Ġcarried": 9680,
    "Ġadvice": 9681,
    "ission": 9682,
    "Ġpeek": 9683,
    "Tw": 9684,
    "ĠTe": 9685,
    "ommend": 9686,
    "ĥ": 9687,
    "Ġwheel": 9688,
    "ipop": 9689,
    "Ġread": 9690,
    "Ġsmiled": 9691,
    "aughter": 9692,
    "Ġrat": 9693,
    "Ġcorrect": 9694,
    "Ġsatisfa": 9695,
    "atur": 9696,
    "Ġdoesn": 9697,
    "Ġgoat": 9698,
    "Ġtunnels": 9699,
    "hel": 9700,
    "Ġtwins": 9701,
    "uest": 9702,
    "Ġfier": 9703,
    "Ġadmired": 9704,
    "Ġsore": 9705,
    "Ġmachines": 9706,
    "il": 9707,
    "ĠUse": 9708,
    "ĠFrankie": 9709,
    "Ġlaughed": 9710,
    "Their": 9711,
    "Ġnail": 9712,
    "Ġrun": 9713,
    "Ġfancy": 9714,
    "ery": 9715,
    "Ġhandle": 9716,
    "Ġcows": 9717,
    "ĠIzzy": 9718,
    "acing": 9719,
    "Ġnoises": 9720,
    "Ġfreezing": 9721,
    "Wake": 9722,
    "Ġcollecting": 9723,
    "seek": 9724,
    "Ġcreamy": 9725,
    "Kate": 9726,
    "Ġtipped": 9727,
    "ĠSuddenly": 9728,
    "Ġreads": 9729,
    "Ġsqueak": 9730,
    "Ġburning": 9731,
    "Jack": 9732,
    "Ġrocket": 9733,
    "ĠLenny": 9734,
    "Ġstadium": 9735,
    "Ġfrustrated": 9736,
    "Ġkind": 9737,
    "orm": 9738,
    "ĠRoo": 9739,
    "Ġnecks": 9740,
    "Ġnood": 9741,
    "glasses": 9742,
    "Ġfroze": 9743,
    "Ġthrows": 9744,
    "Ġsnowflakes": 9745,
    "Ġcent": 9746,
    "bell": 9747,
    "ĠB": 9748,
    "bly": 9749,
    "ĠTrust": 9750,
    "Ġbrick": 9751,
    "udged": 9752,
    "Ġdeaf": 9753,
    "ual": 9754,
    "Ġraked": 9755,
    "Ġtwenty": 9756,
    "Ġtoes": 9757,
    "Ġstuff": 9758,
    "Ġbunch": 9759,
    "Julia": 9760,
    "Ġhaven": 9761,
    "Ġclassmates": 9762,
    "Ġpages": 9763,
    "pop": 9764,
    "Kids": 9765,
    "Ġcans": 9766,
    "Ġnests": 9767,
    "Mmm": 9768,
    "aced": 9769,
    "ĠBibi": 9770,
    "Mar": 9771,
    "Ġgen": 9772,
    "Ġreceived": 9773,
    "rily": 9774,
    "Ġspo": 9775,
    "bye": 9776,
    "uckily": 9777,
    "Are": 9778,
    "Ġyelled": 9779,
    "ĠT": 9780,
    "Jon": 9781,
    "iers": 9782,
    "Ġdrinks": 9783,
    "Ġwallet": 9784,
    "Ġslices": 9785,
    "Ġdare": 9786,
    "ĠShe": 9787,
    "ĠRollie": 9788,
    "Always": 9789,
    "ren": 9790,
    "Ġdefe": 9791,
    "Wow": 9792,
    "Ġclowns": 9793,
    "Ġthicker": 9794,
    "icking": 9795,
    "Ġriverbank": 9796,
    "ě": 9797,
    "le": 9798,
    "Ġdelic": 9799,
    "Ġpeel": 9800,
    "Ġfits": 9801,
    "ĠSusan": 9802,
    "rigerator": 9803,
    "ĠFinny": 9804,
    "her": 9805,
    "Ġrunning": 9806,
    "Ġshoes": 9807,
    "ĠThank": 9808,
    "Ġintently": 9809,
    "Ġrespect": 9810,
    "ophone": 9811,
    "Ġthough": 9812,
    "arent": 9813,
    "Ġembra": 9814,
    "Ġasking": 9815,
    "Ġgenie": 9816,
    "Ġsides": 9817,
    "ĠHug": 9818,
    "oc": 9819,
    "Ġrushed": 9820,
    "Ġcollected": 9821,
    "aroo": 9822,
    "Ġprune": 9823,
    "ade": 9824,
    "ĠHerb": 9825,
    "to": 9826,
    "Ġresponded": 9827,
    "wh": 9828,
    "Two": 9829,
    "Ġrhino": 9830,
    "Ġperfume": 9831,
    "rmomet": 9832,
    "Ġreplaced": 9833,
    "Ġexpl": 9834,
    "ô": 9835,
    "Ġnowhere": 9836,
    "Robbie": 9837,
    "Beep": 9838,
    "Ġgate": 9839,
    "Ġingredient": 9840,
    "iggly": 9841,
    "Bobo": 9842,
    "son": 9843,
    "ĠWill": 9844,
    "Ġcandy": 9845,
    "Ġapology": 9846,
    "Ġpen": 9847,
    "Ġcalendar": 9848,
    "Ġgaz": 9849,
    "ĠMixy": 9850,
    "iam": 9851,
    "Ġracing": 9852,
    "ĠDoggy": 9853,
    "anges": 9854,
    "Ġcausing": 9855,
    "Ġsport": 9856,
    "ined": 9857,
    "Ġbites": 9858,
    "Ġpo": 9859,
    "Ġresponsible": 9860,
    "Ġdelayed": 9861,
    "Ġdangerous": 9862,
    "mers": 9863,
    "Ġstra": 9864,
    "Ġrisk": 9865,
    "Ġsofa": 9866,
    "Ġmotorcycle": 9867,
    "Ġshallow": 9868,
    "Ġdressed": 9869,
    "ream": 9870,
    "Ġinches": 9871,
    "ced": 9872,
    "bble": 9873,
    "isses": 9874,
    "Ġangry": 9875,
    "Ġtummies": 9876,
    "ĠJohn": 9877,
    "Ġok": 9878,
    "Ġspeaker": 9879,
    "tha": 9880,
    "Ġraising": 9881,
    "ĠPlease": 9882,
    "Ġheading": 9883,
    "Ġchoosing": 9884,
    "Ġtypes": 9885,
    "ished": 9886,
    "ĠSte": 9887,
    "ny": 9888,
    "Ġmerry": 9889,
    "Ġunderstands": 9890,
    "inger": 9891,
    "eese": 9892,
    "Su": 9893,
    "Ġduck": 9894,
    "Ġingredients": 9895,
    "ĠBuddy": 9896,
    "Ġcour": 9897,
    "ud": 9898,
    "Ġscen": 9899,
    "althy": 9900,
    "Ġreassured": 9901,
    "Yesterday": 9902,
    "tain": 9903,
    "Ġring": 9904,
    "Ġsett": 9905,
    "Ġgrinned": 9906,
    "Ġslipp": 9907,
    "Pat": 9908,
    "Ġbeyond": 9909,
    "Ġcupcakes": 9910,
    "Z": 9911,
    "Ġbell": 9912,
    "Ġpastel": 9913,
    "Ġknots": 9914,
    "Ġsteep": 9915,
    "Lisa": 9916,
    "Ġzero": 9917,
    "ĠVicky": 9918,
    "Ġsatis": 9919,
    "Ġbulb": 9920,
    "ĠOrange": 9921,
    "Ġpillows": 9922,
    "Ġcolourful": 9923,
    "Ġtimer": 9924,
    "Ġits": 9925,
    "Ġtempt": 9926,
    "Ġremembers": 9927,
    "Ġbathe": 9928,
    "Ġstanding": 9929,
    "Ġvoice": 9930,
    "Ġtrue": 9931,
    "Ġnightmare": 9932,
    "Ġdone": 9933,
    "Ġlike": 9934,
    "Ġgarden": 9935,
    "appy": 9936,
    "ults": 9937,
    "codile": 9938,
    "Ġgod": 9939,
    "Ġunicorn": 9940,
    "ĠSophia": 9941,
    "Ġcelery": 9942,
    "¾": 9943,
    "Mr": 9944,
    "Ġare": 9945,
    ",\"": 9946,
    "urious": 9947,
    "ĠFo": 9948,
    "Ġago": 9949,
    "oh": 9950,
    "Ġstubborn": 9951,
    "ĠRabbit": 9952,
    "Ġcryst": 9953,
    "Ġtell": 9954,
    "Ġtoday": 9955,
    "Ġflag": 9956,
    "Ġcurtains": 9957,
    "Ġsurprise": 9958,
    "Ġscooter": 9959,
    "Alright": 9960,
    "Ġcells": 9961,
    "Ġcash": 9962,
    "mbre": 9963,
    "Let": 9964,
    "rass": 9965,
    "Ġcarrots": 9966,
    "Baa": 9967,
    "7": 9968,
    "imal": 9969,
    "Chloe": 9970,
    "Ġpackages": 9971,
    "ensive": 9972,
    "Ġmovie": 9973,
    "Ġelevator": 9974,
    "Ġmarvel": 9975,
    "Ġwh": 9976,
    "side": 9977,
    "Ġlearning": 9978,
    "Ġcooperate": 9979,
    "hip": 9980,
    "Ġwrites": 9981,
    "cess": 9982,
    "unity": 9983,
    "Ġriding": 9984,
    "Ġpirate": 9985,
    "Ġcomputer": 9986,
    "Ġwhisp": 9987,
    "ĠSw": 9988,
    "Ġcor": 9989,
    "Ġpatience": 9990,
    "avy": 9991,
    "Ġhers": 9992,
    "ĠAt": 9993,
    "ĠCook": 9994,
    "Ġbrighter": 9995,
    "Ġfrowns": 9996,
    "Ġnapkin": 9997,
    "ĠPinchy": 9998,
    "Ġtying": 9999
}