{
    "Ġnibb": 0,
    "Ġcam": 1,
    "Momma": 2,
    "itten": 3,
    "Then": 4,
    "Jacob": 5,
    "Ġtickling": 6,
    "ĠRoar": 7,
    "Ġpalm": 8,
    "Ġtug": 9,
    "Ġhelp": 10,
    "Hop": 11,
    "Ġdeserves": 12,
    "s": 13,
    "Ġscattered": 14,
    "ĠMommy": 15,
    "Ġtoday": 16,
    "Ġsharp": 17,
    "ĠFinally": 18,
    "Ġbeh": 19,
    "Ġswing": 20,
    "Ġcrazy": 21,
    "Ġbottom": 22,
    "Ġcooking": 23,
    "Ġpillows": 24,
    "Ġsuns": 25,
    "Ġweapons": 26,
    "Ġcharge": 27,
    "Ġcame": 28,
    "ball": 29,
    "Ġsearched": 30,
    "Ġgent": 31,
    "Ġyawned": 32,
    "ĠTess": 33,
    "Ġworried": 34,
    "rework": 35,
    "itted": 36,
    "Ġmeasured": 37,
    "Ġdiffic": 38,
    "Ġplanted": 39,
    "Ġside": 40,
    "Ġhello": 41,
    "Ġash": 42,
    "R": 43,
    "ins": 44,
    "Ġtripped": 45,
    "Ġgrinned": 46,
    "fe": 47,
    "Ġexam": 48,
    "Ġlovely": 49,
    "Ġlizard": 50,
    "Ġcomfort": 51,
    "Ġoverw": 52,
    "Ġmes": 53,
    "Ġgiggled": 54,
    "ĠWhiskers": 55,
    "Ġrealizing": 56,
    "Ġbathroom": 57,
    "Ġacts": 58,
    "sters": 59,
    "Ġtight": 60,
    "Ġnamed": 61,
    "Ġlocks": 62,
    "Ġcop": 63,
    "Ġspaghetti": 64,
    "ĠMaybe": 65,
    "Ġsurfboard": 66,
    "Ġtreated": 67,
    "Ġdelivery": 68,
    "Ġminutes": 69,
    "Ġfixing": 70,
    "Ġquar": 71,
    "Ġloud": 72,
    "uffy": 73,
    "Ġhadn": 74,
    "Ġkeeping": 75,
    "!âĢĻ": 76,
    "Ġscream": 77,
    "Ġtickets": 78,
    "art": 79,
    "Ġstyles": 80,
    "Ġlaughed": 81,
    "rag": 82,
    "Ġmom": 83,
    "Ġflea": 84,
    "Ġtunnels": 85,
    "Ġmicrowave": 86,
    "Ġdeeper": 87,
    "Ġexamine": 88,
    "Ġgrocer": 89,
    "look": 90,
    "gen": 91,
    "?": 92,
    "Ġeff": 93,
    "æ": 94,
    "Ġguitar": 95,
    "Ġzookeepers": 96,
    "ĠZipper": 97,
    "g": 98,
    "Ġinstr": 99,
    "Ġceiling": 100,
    "le": 101,
    "Ġhouse": 102,
    "Ġarm": 103,
    "ĠOlive": 104,
    "Ġsneaky": 105,
    "Ġsparkly": 106,
    "Ġsym": 107,
    "Ġbrace": 108,
    "Ġcongratulated": 109,
    "ĠMrs": 110,
    "bly": 111,
    "Ġhanded": 112,
    "Ġtowels": 113,
    "Ġgrew": 114,
    "ouquet": 115,
    "Ġvinegar": 116,
    "Ġmailing": 117,
    "Ġsquirrels": 118,
    "Sally": 119,
    "Ġfrustrated": 120,
    "ĠQu": 121,
    "Ġwash": 122,
    "ĠMore": 123,
    "Ġproject": 124,
    "Ġneeds": 125,
    "be": 126,
    "Ġobser": 127,
    "ĠStitch": 128,
    "ores": 129,
    "Ġsel": 130,
    "Thanks": 131,
    "ber": 132,
    "uesday": 133,
    "Ġtoug": 134,
    "Ġsniffed": 135,
    "Ġintellig": 136,
    "Ġyucky": 137,
    "Ġgames": 138,
    "Ġfooled": 139,
    "ĠChip": 140,
    "Ġresp": 141,
    "Ġanswers": 142,
    "Ġworrying": 143,
    "â": 144,
    "Ġpictures": 145,
    "Ġworks": 146,
    "isa": 147,
    "ĠTrust": 148,
    "Ġpieces": 149,
    "ĠSnowy": 150,
    "Ġbaskets": 151,
    "ished": 152,
    "Ġimmediately": 153,
    "ĠBeth": 154,
    "fully": 155,
    "Ġvide": 156,
    "Ġsteel": 157,
    "ggy": 158,
    "Ġthrow": 159,
    "Ġoak": 160,
    "Ġapron": 161,
    "Ġsmile": 162,
    "Ġribbons": 163,
    "Ġout": 164,
    "Ġlongest": 165,
    "ĠOllie": 166,
    "Ġbutterf": 167,
    "Dan": 168,
    "ero": 169,
    "Ġthem": 170,
    "Ġadorable": 171,
    "Ġpays": 172,
    "Ġward": 173,
    "Ġlooks": 174,
    "ready": 175,
    "Ġnation": 176,
    "ĠSk": 177,
    "Ġpenny": 178,
    "ore": 179,
    "Ġjoyful": 180,
    "Ġloc": 181,
    "Ġvel": 182,
    "Ġdrift": 183,
    "Ġcheaper": 184,
    "ellie": 185,
    "ĠDodo": 186,
    "Ġsoda": 187,
    "Chicky": 188,
    "Achoo": 189,
    "Ġheel": 190,
    "uppy": 191,
    "ag": 192,
    "Ġsplashes": 193,
    "ĠDucky": 194,
    "Ġstops": 195,
    "Ġsurrendered": 196,
    "Ġgrandparents": 197,
    "Ġbead": 198,
    "Ġtire": 199,
    "Ġslippery": 200,
    "Ġtelling": 201,
    "Ġexplorer": 202,
    "Ġbeaut": 203,
    "Ġpleased": 204,
    "Ġboring": 205,
    "Ġgrandmother": 206,
    "Ġtowel": 207,
    "ĠStar": 208,
    "ĠCharlie": 209,
    "Ġplaydate": 210,
    "on": 211,
    "Each": 212,
    "Ġfinishing": 213,
    "ł": 214,
    "Ġfoggy": 215,
    "Ġlanded": 216,
    "Á": 217,
    "#": 218,
    "Ġmeant": 219,
    "Ġhaircuts": 220,
    "Ġbehavior": 221,
    "Ġreappeared": 222,
    "ĠAnnie": 223,
    "ray": 224,
    "Ġperched": 225,
    "Ġcreep": 226,
    "Ġkiss": 227,
    "Ġbl": 228,
    "Ġbug": 229,
    "ll": 230,
    "Ġdrove": 231,
    "Ġclosed": 232,
    "Bill": 233,
    "Ġrainco": 234,
    "Ġbusiness": 235,
    "ĠPl": 236,
    "Ġfeet": 237,
    "Ġknife": 238,
    "Ġvine": 239,
    "Ġalert": 240,
    "Ġbreakfast": 241,
    "Ġrhythm": 242,
    "Ġnatur": 243,
    "Ġstone": 244,
    "ush": 245,
    "mas": 246,
    "Ġcoin": 247,
    "Be": 248,
    "ó": 249,
    "ĠUnfortunately": 250,
    "n": 251,
    "Ġgrabbing": 252,
    "Ġpainter": 253,
    "Ġwa": 254,
    "ĠSocky": 255,
    "ĠZoomy": 256,
    "ĠRich": 257,
    "Ġlaugh": 258,
    "Ġplane": 259,
    "Ġas": 260,
    "ident": 261,
    "Ġbelow": 262,
    "Ġwell": 263,
    "ĠBaby": 264,
    "Ġrang": 265,
    "ĠReady": 266,
    "mered": 267,
    "Ġhugging": 268,
    "Ġpeanut": 269,
    "Ġpoliceman": 270,
    "Ġleans": 271,
    "Ġbunny": 272,
    "Ġgrapes": 273,
    "Ġmoon": 274,
    "iny": 275,
    "To": 276,
    "tock": 277,
    "Ġpee": 278,
    "Ġstethoscope": 279,
    "Ġsal": 280,
    "Ġinvitations": 281,
    "U": 282,
    "Ġdaring": 283,
    "Ġforks": 284,
    "ite": 285,
    "Ġfollowed": 286,
    "ĠJohn": 287,
    "Ġbehaved": 288,
    "Ġlisten": 289,
    "Ġtempting": 290,
    "Ġhas": 291,
    "Ġgas": 292,
    "Ġjackets": 293,
    "ĠGrandpa": 294,
    "Ġplanet": 295,
    "Ġsuccess": 296,
    "Ġcollapsed": 297,
    "Ġdan": 298,
    "Bang": 299,
    "There": 300,
    "Ġmentioned": 301,
    "Ġshouting": 302,
    "Ġsever": 303,
    "umes": 304,
    "Ġchanges": 305,
    "asty": 306,
    "ĠBun": 307,
    "ipper": 308,
    "Silly": 309,
    "laimed": 310,
    "ctor": 311,
    "Ġavo": 312,
    "ĠHopper": 313,
    "lyn": 314,
    "ne": 315,
    "Ġcreation": 316,
    "Ġwardrobe": 317,
    "all": 318,
    "ushed": 319,
    "Ġsupposed": 320,
    "Ġmeowing": 321,
    "c": 322,
    "ĠAnt": 323,
    "Spike": 324,
    "Al": 325,
    "Ġpeace": 326,
    "Ġstring": 327,
    "Ġstrongest": 328,
    "Ġbelieved": 329,
    "ĠCindy": 330,
    "Ġgems": 331,
    "ĠJudge": 332,
    "Ġoil": 333,
    "Ġplastic": 334,
    "Ġballoon": 335,
    "ĠMia": 336,
    "Ġcreating": 337,
    "weet": 338,
    "Ġsled": 339,
    "seph": 340,
    "Ġcorner": 341,
    "Ġcaused": 342,
    "Ġweren": 343,
    "Ě": 344,
    "Ġden": 345,
    "Ġtiny": 346,
    "boat": 347,
    "Ġmonkeys": 348,
    "ĠAng": 349,
    "ĠAchoo": 350,
    "ĠRebecca": 351,
    "aze": 352,
    "Ġprizes": 353,
    "Ġdoctor": 354,
    "Ġveterinarian": 355,
    "Ø": 356,
    "Curious": 357,
    "Ġmine": 358,
    "Ġactivity": 359,
    "Have": 360,
    "Ġdepend": 361,
    "Ġsticky": 362,
    "ced": 363,
    "une": 364,
    "Ġglued": 365,
    "Ġdrinking": 366,
    "Ġspeak": 367,
    "inking": 368,
    "ĠEnd": 369,
    "Ġswall": 370,
    "Ġpoppy": 371,
    "ĠGary": 372,
    "Ġpart": 373,
    "Ġconnected": 374,
    "Ġcosy": 375,
    "Ġglared": 376,
    "Q": 377,
    "Ġfold": 378,
    "ĠSnake": 379,
    "Rex": 380,
    "sn": 381,
    "Ġripp": 382,
    "Ġanytime": 383,
    ",âĢĿ": 384,
    "fic": 385,
    "ĠLucky": 386,
    "George": 387,
    "Ġsurpr": 388,
    "Ġthinking": 389,
    "Ġbells": 390,
    "ĠFlo": 391,
    "Ġexha": 392,
    "ighed": 393,
    "Ġgracefully": 394,
    "Ġprov": 395,
    "ĠMath": 396,
    "They": 397,
    "Ġitchy": 398,
    "Ġdetails": 399,
    "Ġstorekeeper": 400,
    "eal": 401,
    "OO": 402,
    "Ġcent": 403,
    "oscope": 404,
    "Ġvideos": 405,
    "Ġappear": 406,
    "Ġlifting": 407,
    "nies": 408,
    "ish": 409,
    "Ġeng": 410,
    "Ġsmo": 411,
    "Ellie": 412,
    "Ġunlock": 413,
    "Ġshovels": 414,
    "epend": 415,
    "ĠSmith": 416,
    "During": 417,
    "ween": 418,
    "Ġoff": 419,
    "Ġenjoy": 420,
    "Ġcook": 421,
    "ull": 422,
    "ĠCra": 423,
    "Ġlighter": 424,
    "Ġunderstood": 425,
    "Ġopens": 426,
    "Ġattached": 427,
    "ĵ": 428,
    "Ġseat": 429,
    "Ġhockey": 430,
    "Ġstanding": 431,
    "Ġcollar": 432,
    "eat": 433,
    "Ġadvent": 434,
    "Ġsorted": 435,
    "Ġpunishment": 436,
    "ĠBubba": 437,
    "fived": 438,
    "ĠDe": 439,
    "Ġglue": 440,
    "ĠTaking": 441,
    "Ġcrystal": 442,
    "Ġab": 443,
    "Ā": 444,
    "Ġcush": 445,
    "Ġactivities": 446,
    "os": 447,
    "Ġfirst": 448,
    "Ġcomm": 449,
    "Ġbegan": 450,
    "Em": 451,
    "Ġtr": 452,
    "Ġstud": 453,
    "Ġanyway": 454,
    "Ġstyle": 455,
    "pes": 456,
    "Ġcostumes": 457,
    "ĠOnly": 458,
    "Ġtantrum": 459,
    "Jan": 460,
    "Ġmatches": 461,
    "hee": 462,
    "Ġstopped": 463,
    "Ī": 464,
    "Ġkinder": 465,
    "Ġgreat": 466,
    "apa": 467,
    "ctop": 468,
    "Ġmath": 469,
    "Ġcrash": 470,
    "hing": 471,
    "Ġblonde": 472,
    "Ġspies": 473,
    "ĠAr": 474,
    "Ġcatch": 475,
    "Ġsir": 476,
    "ĠPip": 477,
    "Ġpointy": 478,
    "ousy": 479,
    "anged": 480,
    "vator": 481,
    "Ġhorizon": 482,
    "hings": 483,
    "Ġunite": 484,
    "Rocky": 485,
    "Ġdetect": 486,
    "Î": 487,
    "Ġcomet": 488,
    "Ġties": 489,
    "Ġcooked": 490,
    "angle": 491,
    "ison": 492,
    "orn": 493,
    "Ġstadium": 494,
    "Kids": 495,
    "Ġlearner": 496,
    "lers": 497,
    "ĠTre": 498,
    "Ġfashion": 499,
    "Ġtheir": 500,
    "Ġtin": 501,
    "Ġruns": 502,
    "Ġcoffee": 503,
    "Ġpiano": 504,
    "Ġpassen": 505,
    "ight": 506,
    "kin": 507,
    "ĠLife": 508,
    "Ġprotection": 509,
    "Ġsneezed": 510,
    "Ġfolded": 511,
    "Ġhosp": 512,
    "Ġbecome": 513,
    "âĢĿ.": 514,
    "Ġlearning": 515,
    "Ġsl": 516,
    "Ġmust": 517,
    "Ġcastles": 518,
    "ě": 519,
    "Ġstretch": 520,
    "ĠWhat": 521,
    "Ġdesigned": 522,
    "Ġhol": 523,
    "Ġfoolish": 524,
    "Ġproper": 525,
    "Ġtravelling": 526,
    "Ġscratching": 527,
    "Mmm": 528,
    "Ġdeed": 529,
    "¹": 530,
    "Ġraft": 531,
    ".": 532,
    "Ġthread": 533,
    "Qu": 534,
    "urricane": 535,
    "ĠTom": 536,
    "Ġdrawing": 537,
    "aids": 538,
    "Ġjoyfully": 539,
    "Ġpackage": 540,
    "Ġpebbles": 541,
    "Ġjogging": 542,
    "Ġtast": 543,
    "Ġtear": 544,
    "ft": 545,
    "Suzy": 546,
    "ep": 547,
    "Ġhappiness": 548,
    "Ġmiss": 549,
    "Ġinstrum": 550,
    "Ġconcentr": 551,
    "Ġboun": 552,
    "Ġstool": 553,
    "Ġclowns": 554,
    "Ġflames": 555,
    "Ġaccepted": 556,
    "ĠNancy": 557,
    "Ġmissed": 558,
    "ĠWin": 559,
    "Ġsec": 560,
    "Ġdisappear": 561,
    "Ġovercome": 562,
    "ĠMatch": 563,
    "Ġelectricity": 564,
    "ĠWhistle": 565,
    "Ġguessed": 566,
    "Ġfruits": 567,
    "Ġmints": 568,
    "ents": 569,
    "Wally": 570,
    "Ġgrandpa": 571,
    "ĠApril": 572,
    "Ġlots": 573,
    "Ġfaster": 574,
    "Ġtaking": 575,
    "Ġlonely": 576,
    "w": 577,
    "Ġelse": 578,
    "Ġdrawer": 579,
    "Ġteachers": 580,
    "ton": 581,
    "Ġdisappointed": 582,
    "Ġfist": 583,
    "ĠReliable": 584,
    "Ġvisitor": 585,
    "Ġpinched": 586,
    "Ġpilot": 587,
    "Ġexp": 588,
    "Ġperson": 589,
    "Ġpowerful": 590,
    "Ġmelted": 591,
    "Ġhumans": 592,
    "Ġkilled": 593,
    "Ġyog": 594,
    "Ġostriches": 595,
    "Ġwakes": 596,
    "eah": 597,
    "Ġcats": 598,
    "Ġgifts": 599,
    "Ġwiggly": 600,
    "Ġphone": 601,
    "opes": 602,
    "Ġcurled": 603,
    "Ġstro": 604,
    "ieves": 605,
    "ĠCara": 606,
    "Ġbin": 607,
    "angaroo": 608,
    "Ġscrewdriver": 609,
    "Ġdragonfly": 610,
    "Ġsqueaked": 611,
    "Ġgood": 612,
    "Ġbicycles": 613,
    "ĠYes": 614,
    "Ġtwists": 615,
    "Ġsingle": 616,
    "ellig": 617,
    "Ġlearn": 618,
    "Ġunique": 619,
    "Ġponies": 620,
    "Ġalive": 621,
    "Ġrubbed": 622,
    "ĠDin": 623,
    "Timmy": 624,
    "Ġliving": 625,
    "Ġrepairing": 626,
    "Ġpowder": 627,
    "Ġsisters": 628,
    "Ġsofter": 629,
    "Ġblown": 630,
    "mates": 631,
    "Ġgiant": 632,
    "Inside": 633,
    "Ġscrubbed": 634,
    "olin": 635,
    "ĠBones": 636,
    "Ġspoiling": 637,
    "Ġnew": 638,
    "Ġfeed": 639,
    "ĠMina": 640,
    "cl": 641,
    "ĠCar": 642,
    "cer": 643,
    "ĠShare": 644,
    "cher": 645,
    "Ġshoulders": 646,
    "Ġpoppies": 647,
    "Ġtextures": 648,
    "Ġmicrow": 649,
    "Ġwoodcutter": 650,
    "Ġtreats": 651,
    "Ġmissile": 652,
    "Ġdisplayed": 653,
    "Ġbees": 654,
    "Ġprotecting": 655,
    "Ġbreeze": 656,
    "Ġnightmare": 657,
    "Ĳ": 658,
    "Ġwaist": 659,
    "Ġdonkey": 660,
    "cident": 661,
    "Ġoranges": 662,
    "Ġtricked": 663,
    "Ġmilk": 664,
    "Ġcourse": 665,
    "Ġinse": 666,
    "Ġtrain": 667,
    "Sn": 668,
    "ĠZee": 669,
    "ĠPeter": 670,
    "side": 671,
    "ĠBiggie": 672,
    "gl": 673,
    "Ġneighbours": 674,
    "Ġchopped": 675,
    "Ġtexture": 676,
    "Ġdifferences": 677,
    "Ġwashed": 678,
    "Ń": 679,
    "Ġyourselves": 680,
    "Ġrip": 681,
    "ĠMonster": 682,
    "Ġheaded": 683,
    "|": 684,
    "Ġscored": 685,
    "emies": 686,
    "W": 687,
    "ĠCarl": 688,
    "ĠSamantha": 689,
    "Ġpupils": 690,
    "Ġreunited": 691,
    "Me": 692,
    "ĠLittle": 693,
    "ĠCl": 694,
    "Ġyelled": 695,
    "Ġsprays": 696,
    "5": 697,
    "kn": 698,
    "Ġreleased": 699,
    "ĠTilly": 700,
    "Ġsugar": 701,
    "other": 702,
    "ated": 703,
    "Ġfrowns": 704,
    "ipp": 705,
    "vel": 706,
    "ĠDaisy": 707,
    "Ġsent": 708,
    "j": 709,
    "Ġjoked": 710,
    "Ġsweaters": 711,
    "Ġgrow": 712,
    "Ġhose": 713,
    "Ġclearing": 714,
    "Ġpost": 715,
    "Ġcaterpillars": 716,
    "Ġmermaid": 717,
    "Ġduckling": 718,
    "Ġpir": 719,
    "Ġwords": 720,
    "riger": 721,
    "Fish": 722,
    "Ġthanks": 723,
    "ious": 724,
    "Ġsister": 725,
    "ĠHave": 726,
    "Ġinst": 727,
    "Ġmot": 728,
    "Ġcreature": 729,
    "Watch": 730,
    "ments": 731,
    "use": 732,
    "Ġac": 733,
    "urt": 734,
    "ĠPaul": 735,
    "Ġtop": 736,
    "nna": 737,
    "Ġmasterpiece": 738,
    "arry": 739,
    "ĠFlappy": 740,
    "reverse": 741,
    "Ġclot": 742,
    "Ġchoices": 743,
    "aurant": 744,
    "Ġhesitated": 745,
    "Ġbedroom": 746,
    "While": 747,
    "Ä": 748,
    "ĠGill": 749,
    "F": 750,
    "Mabel": 751,
    "ordinary": 752,
    "Ġthemselves": 753,
    "Ġreluctantly": 754,
    "Tw": 755,
    "Ġwore": 756,
    "ĠCoby": 757,
    "ealing": 758,
    "Ġsweetheart": 759,
    "Ġchurch": 760,
    "Ġ3": 761,
    "Ġflowers": 762,
    "Two": 763,
    "Ġhur": 764,
    "ĠSee": 765,
    "Ġbarrel": 766,
    "ici": 767,
    "Ġsmartest": 768,
    "Ġshall": 769,
    "lled": 770,
    "Ġstars": 771,
    "ers": 772,
    "Ġlist": 773,
    "Ġreceived": 774,
    "Ġmodest": 775,
    "ido": 776,
    "Ġlecture": 777,
    "ĠJimmy": 778,
    "ĠTweet": 779,
    "Ġlace": 780,
    "Ġdropping": 781,
    "ĠEveryone": 782,
    "Ġdesigning": 783,
    "cycles": 784,
    "Michael": 785,
    "Ġsettle": 786,
    "Ġv": 787,
    "bbed": 788,
    "Ġraking": 789,
    "Toys": 790,
    "Ġevil": 791,
    "Ġchocol": 792,
    "Ġpatterns": 793,
    "Ġentrance": 794,
    "Ġtrust": 795,
    "imp": 796,
    "ala": 797,
    "used": 798,
    "Ġreliable": 799,
    "Ch": 800,
    "Ġgigg": 801,
    "Ġmedicine": 802,
    "omes": 803,
    "Ġdied": 804,
    "Ġeasier": 805,
    "Ġboss": 806,
    "Ġsnakes": 807,
    "By": 808,
    "Ġcough": 809,
    "ĠTears": 810,
    "ĠAna": 811,
    "Ġsuggestion": 812,
    "Ġbackpack": 813,
    "Ġopinion": 814,
    "Ġsunflowers": 815,
    "8": 816,
    "Ġprot": 817,
    "þ": 818,
    "Ġmatched": 819,
    "Ġwandering": 820,
    "Ġbell": 821,
    "?\".": 822,
    "ĠNot": 823,
    "Ġvolcano": 824,
    "ites": 825,
    "found": 826,
    "ĠFreddy": 827,
    "Ġbox": 828,
    "Ġapologised": 829,
    "Ġtears": 830,
    "Ġtoaster": 831,
    "Ġproblems": 832,
    "Ġpizz": 833,
    "let": 834,
    "Ġpe": 835,
    "Ġdecides": 836,
    "Ġwinding": 837,
    "Ann": 838,
    "Ġgates": 839,
    "Ė": 840,
    "Ġonwards": 841,
    "Ġd": 842,
    "Ġscreen": 843,
    "ĠAl": 844,
    "!\"": 845,
    "ĠFrank": 846,
    "Ġserve": 847,
    "ised": 848,
    "Ġsecurity": 849,
    "ody": 850,
    "Ġmuscle": 851,
    "Ġmaterials": 852,
    "Ġuniform": 853,
    "Ġdistance": 854,
    "Ġshin": 855,
    "Ġstraw": 856,
    "ĠBumpy": 857,
    "Ġsecure": 858,
    "Ġsunflower": 859,
    "Ġmesses": 860,
    "Red": 861,
    "Ġgoodies": 862,
    "Ġcan": 863,
    "Ġtasty": 864,
    "Ġstroked": 865,
    "Ġneedles": 866,
    "irts": 867,
    "njoy": 868,
    "Ġscamp": 869,
    "undred": 870,
    "Ġdrying": 871,
    "ĠUse": 872,
    "Che": 873,
    "Ġcuri": 874,
    "icky": 875,
    "Ġcrocodile": 876,
    "Ġdemanded": 877,
    "Ġhurt": 878,
    "Ğ": 879,
    "Ġbumped": 880,
    "Ġberries": 881,
    "Ġweap": 882,
    "Ġfaces": 883,
    "Ġturtles": 884,
    "cie": 885,
    "Ġhandful": 886,
    "Ġignor": 887,
    "Ġhard": 888,
    "Ġrespected": 889,
    "Ġtough": 890,
    "First": 891,
    "Ġmanager": 892,
    "ĠGr": 893,
    "elope": 894,
    "rilliant": 895,
    "Ġsh": 896,
    "Ġfather": 897,
    "Ġranger": 898,
    "Ġperform": 899,
    "ĠEverybody": 900,
    "Ę": 901,
    "Ġincreased": 902,
    "ĠâĢľ": 903,
    "Ġgifted": 904,
    "Ġdifferent": 905,
    "Ġwolf": 906,
    "ctions": 907,
    "Ġtiptoed": 908,
    "Ġupside": 909,
    "Ġhoc": 910,
    "Ġunpack": 911,
    "Ġshade": 912,
    "uess": 913,
    "aster": 914,
    "Ġbath": 915,
    ":": 916,
    "Ġlift": 917,
    "Ġmummy": 918,
    "Ġmaterial": 919,
    "aked": 920,
    "Ġbulbs": 921,
    "Ġphotos": 922,
    "Ġnote": 923,
    "Ġpian": 924,
    "Ġyummiest": 925,
    "ĠAbi": 926,
    "ĠHello": 927,
    "Ġsinging": 928,
    "Ġfur": 929,
    "aturday": 930,
    "Ġmushrooms": 931,
    "ĠRes": 932,
    "ier": 933,
    "ĠRalph": 934,
    "Ġcontainer": 935,
    "ad": 936,
    "Ġplayful": 937,
    "ĠShark": 938,
    "Ġmel": 939,
    "Ġdifferently": 940,
    "Ġscooter": 941,
    "Ġwhale": 942,
    "ube": 943,
    "Ġsailor": 944,
    "Ġcrew": 945,
    "Ġre": 946,
    "Ġpastel": 947,
    "Ġfetch": 948,
    "Ġhippos": 949,
    "Ġbanan": 950,
    "âĢ¦": 951,
    "ound": 952,
    "ct": 953,
    "Ġwhiskers": 954,
    "Baa": 955,
    "idy": 956,
    "yond": 957,
    "Ġrequest": 958,
    "Ġmap": 959,
    "My": 960,
    "ying": 961,
    "Ġjealous": 962,
    "Ġpaid": 963,
    "Ġyour": 964,
    "Ġpants": 965,
    "Ġhoriz": 966,
    "ĠKids": 967,
    "Ġcloth": 968,
    "Ġfurther": 969,
    "Ġpoin": 970,
    "bl": 971,
    "Ġurge": 972,
    "ĠViolet": 973,
    "Ġwide": 974,
    "Ġbeat": 975,
    "Ġasking": 976,
    "Ġnests": 977,
    "Ġencouraging": 978,
    "Ġunderground": 979,
    "Ġweb": 980,
    "Ġscar": 981,
    "red": 982,
    "specially": 983,
    "Ġappreciated": 984,
    "ĠCharlotte": 985,
    "Ġbackyard": 986,
    "Ġjournal": 987,
    "Ġblocking": 988,
    "Ġsqueezes": 989,
    "ature": 990,
    "¶": 991,
    "Because": 992,
    "Ġmenu": 993,
    "ĠAndrew": 994,
    "Ġweeping": 995,
    "end": 996,
    "Ġscratches": 997,
    "Ġstood": 998,
    "Ġarrows": 999,
    "Ġwindow": 1000,
    "Ġprotect": 1001,
    "ĠRita": 1002,
    "Ġrisks": 1003,
    "Ġmuch": 1004,
    "Ġwood": 1005,
    "Ġluxu": 1006,
    "stand": 1007,
    "Ġhigh": 1008,
    "Ġres": 1009,
    "affle": 1010,
    "ĠPuff": 1011,
    "Ġdollars": 1012,
    "imi": 1013,
    "Ġmeet": 1014,
    "ppy": 1015,
    "ze": 1016,
    "ĠN": 1017,
    "Ruby": 1018,
    "Ġfine": 1019,
    "rmomet": 1020,
    "Ġboot": 1021,
    "ax": 1022,
    "Ġhides": 1023,
    "Ġpuzzled": 1024,
    "Ġgazed": 1025,
    "uctantly": 1026,
    "ĠThings": 1027,
    "Ġsliding": 1028,
    "elling": 1029,
    "Ġshinier": 1030,
    "Ġwaff": 1031,
    "Ġpuppies": 1032,
    "Ġswings": 1033,
    "Ġar": 1034,
    "Ġsmiley": 1035,
    "Ball": 1036,
    "Ġarrives": 1037,
    "Ġhurts": 1038,
    "Ġusing": 1039,
    "Ġunhappy": 1040,
    "Ġbelieve": 1041,
    "Ġsuperheroes": 1042,
    "Ġwasn": 1043,
    "Ġcafe": 1044,
    "ĠChristmas": 1045,
    "Ġvideo": 1046,
    "Ġpicks": 1047,
    "Did": 1048,
    "Ġstartled": 1049,
    "Ġexplain": 1050,
    "Ġbeeped": 1051,
    "Ġplugged": 1052,
    "bb": 1053,
    "Ġsprout": 1054,
    "Ġquick": 1055,
    "igh": 1056,
    "ition": 1057,
    "Ġgroaned": 1058,
    "Ġkitchen": 1059,
    "Ġumbrellas": 1060,
    "Ġsmelt": 1061,
    "Ġedge": 1062,
    "ĠI": 1063,
    "ĠDina": 1064,
    "Ġtypes": 1065,
    "Ġrecommended": 1066,
    "ĠUnder": 1067,
    "Ġed": 1068,
    "Ġharbor": 1069,
    "Ġsprink": 1070,
    "Ġchickens": 1071,
    "Ġrude": 1072,
    "Ġrestless": 1073,
    "ĠTippy": 1074,
    "coa": 1075,
    "Ġbelie": 1076,
    "Ġwar": 1077,
    "S": 1078,
    "Ġhappened": 1079,
    "Ġjug": 1080,
    "Ġmistakes": 1081,
    "Ġsparkles": 1082,
    "Ġrelax": 1083,
    "ĠDragon": 1084,
    "istol": 1085,
    "Ġswitched": 1086,
    "ita": 1087,
    "Ġeggs": 1088,
    "@": 1089,
    "Ġisland": 1090,
    "Baby": 1091,
    "rum": 1092,
    "Ġcreak": 1093,
    "ĠAg": 1094,
    "Ġpanicked": 1095,
    "Ġsnowflakes": 1096,
    "Ġapplause": 1097,
    "Ġlies": 1098,
    "ĠRose": 1099,
    "Ġnails": 1100,
    "'.": 1101,
    "outh": 1102,
    "Ġchooses": 1103,
    "edy": 1104,
    "Ġfascin": 1105,
    "Ġrescued": 1106,
    "Ġsmoke": 1107,
    "\"": 1108,
    "ĭ": 1109,
    "Ġwoods": 1110,
    "Ġsnacks": 1111,
    "Ġwinds": 1112,
    "co": 1113,
    "night": 1114,
    "Ġcarrots": 1115,
    "Ġheads": 1116,
    "Ġprincess": 1117,
    "'ve": 1118,
    "Ġlucky": 1119,
    "iet": 1120,
    "Ġsneeze": 1121,
    "Ġheal": 1122,
    "ence": 1123,
    "Take": 1124,
    "Ġbarking": 1125,
    "unny": 1126,
    "Ġkangaroo": 1127,
    "ĠSophie": 1128,
    "Ġreaches": 1129,
    "Ġbinoculars": 1130,
    "ĸ": 1131,
    "Ġpupil": 1132,
    "ĠBill": 1133,
    "Ġbutterfly": 1134,
    "aking": 1135,
    "owed": 1136,
    "ctopus": 1137,
    "Ġclum": 1138,
    "Ġclever": 1139,
    "Ġends": 1140,
    "Ġrag": 1141,
    "Ġstation": 1142,
    "Ġgiraffes": 1143,
    "Ġflock": 1144,
    "Ġspider": 1145,
    "Ġbracelet": 1146,
    "Ġspaceship": 1147,
    "Ġonward": 1148,
    "Ġgem": 1149,
    "Ġimaginations": 1150,
    "Ġzookeeper": 1151,
    "Ġfaint": 1152,
    "Ġnames": 1153,
    "Ç": 1154,
    "Ġnod": 1155,
    "Ġachieved": 1156,
    "ĠDara": 1157,
    "Ġspits": 1158,
    "Ġspeeding": 1159,
    "Ġunable": 1160,
    "Ġleather": 1161,
    "Ġstir": 1162,
    "Ġpeacefully": 1163,
    "Ġcouple": 1164,
    "ve": 1165,
    "Hurry": 1166,
    "Ġfirefly": 1167,
    "Ġraising": 1168,
    "ushing": 1169,
    "Ġpec": 1170,
    "Ġflood": 1171,
    "Ġkings": 1172,
    "Ġforgi": 1173,
    "Ġcolour": 1174,
    "Ġwindowsill": 1175,
    "Ġtours": 1176,
    "Ģ": 1177,
    "Ġtell": 1178,
    "ģ": 1179,
    "Ġpromised": 1180,
    "Ġvaluable": 1181,
    "Ġorganizing": 1182,
    "Ġmagnet": 1183,
    "ist": 1184,
    "Ġeagle": 1185,
    "antly": 1186,
    "Ġencount": 1187,
    "Ġshiver": 1188,
    "Ġcrabs": 1189,
    "»": 1190,
    "ossible": 1191,
    "ĠLinda": 1192,
    "í": 1193,
    "Ġjog": 1194,
    "Hannah": 1195,
    "Ġgr": 1196,
    "Ġhate": 1197,
    "Ġsm": 1198,
    "Ġgolden": 1199,
    "Ġafford": 1200,
    "Ġcrisp": 1201,
    "Ġstory": 1202,
    "Ġdaisies": 1203,
    "ĠJake": 1204,
    "Ġsur": 1205,
    "ĠJackie": 1206,
    "ĠG": 1207,
    "Ġburying": 1208,
    "Ġsneaks": 1209,
    "Ġgiven": 1210,
    "Ġjogged": 1211,
    "ĠTooth": 1212,
    "Ġoutdoors": 1213,
    "Ġknowled": 1214,
    "Ġnearly": 1215,
    "Ġrocks": 1216,
    "Ġpizzas": 1217,
    "aper": 1218,
    "ĠHops": 1219,
    "me": 1220,
    "sm": 1221,
    "Ġbelly": 1222,
    "Ġshape": 1223,
    "ĠTina": 1224,
    "broken": 1225,
    "Ġpeck": 1226,
    "Ġgrat": 1227,
    "Ġexplains": 1228,
    "fire": 1229,
    "Ġsticker": 1230,
    "Ġbenches": 1231,
    "Mia": 1232,
    "step": 1233,
    "Ġpast": 1234,
    "Ġkisses": 1235,
    "ĠBrown": 1236,
    "Ġtape": 1237,
    "Ġrins": 1238,
    "Ġtimes": 1239,
    "Ġchews": 1240,
    "fore": 1241,
    "uffin": 1242,
    "Ġlate": 1243,
    "Ġswans": 1244,
    "Ġteasing": 1245,
    "icious": 1246,
    "Zoe": 1247,
    "Freeze": 1248,
    "Ġshiny": 1249,
    "ĠDoggy": 1250,
    "gu": 1251,
    "Ġmore": 1252,
    "Ġask": 1253,
    "Rock": 1254,
    "Ġflick": 1255,
    "Ġsqueeze": 1256,
    "ien": 1257,
    "ĠPinch": 1258,
    "ĠNut": 1259,
    "ĠWolf": 1260,
    "Ġenthusiastic": 1261,
    "Ġmoments": 1262,
    "Ġprepared": 1263,
    "ophia": 1264,
    "avy": 1265,
    "Ġsooner": 1266,
    "Choo": 1267,
    "Ġfeel": 1268,
    "ĠSilver": 1269,
    "Ġproviding": 1270,
    "Ġrely": 1271,
    "Ġrain": 1272,
    "âĢĿ": 1273,
    "old": 1274,
    "Ġtrumpet": 1275,
    "Ġboil": 1276,
    "Ġblanket": 1277,
    "Ġsweat": 1278,
    "Ġcroak": 1279,
    "Ġsuffered": 1280,
    "Ġblamed": 1281,
    "Ġdolphins": 1282,
    "Mom": 1283,
    "Ġexpensive": 1284,
    "9": 1285,
    "iggy": 1286,
    "Ġstare": 1287,
    "Ġwriter": 1288,
    "Ġmarks": 1289,
    "Ġshooting": 1290,
    "orted": 1291,
    "erts": 1292,
    "Ġknocked": 1293,
    "ĠJill": 1294,
    "ĠLila": 1295,
    "ĠDave": 1296,
    "ĠSharp": 1297,
    "Ġfaucet": 1298,
    "Ġtogether": 1299,
    "azor": 1300,
    "Ġchatting": 1301,
    "Ġhopes": 1302,
    "Ġkne": 1303,
    "Ġsurface": 1304,
    "Ġblows": 1305,
    "Ġtwist": 1306,
    "Jamie": 1307,
    "eterinarian": 1308,
    "Ġwagon": 1309,
    "Ġcape": 1310,
    "Ġolives": 1311,
    "Ġswooped": 1312,
    "Ġorders": 1313,
    "ĠE": 1314,
    "ĠEmma": 1315,
    "Bounce": 1316,
    "Ġzip": 1317,
    "Ġrespon": 1318,
    "ĠRemy": 1319,
    "Three": 1320,
    "ĠFifi": 1321,
    "Ġrumble": 1322,
    "Ġpurpose": 1323,
    "fter": 1324,
    "Ġwondered": 1325,
    "Ġwobbly": 1326,
    "Ġwaking": 1327,
    "Ġstumbled": 1328,
    "Ġsw": 1329,
    "Ġkittens": 1330,
    "Ġplain": 1331,
    "Ġsolving": 1332,
    "bles": 1333,
    "Ġcabin": 1334,
    "ĠB": 1335,
    "Ġzoomed": 1336,
    "ĠJerry": 1337,
    "Ġwritten": 1338,
    "Ġbrakes": 1339,
    "ĠAnna": 1340,
    "Ġhanger": 1341,
    "Ġpark": 1342,
    "Ġgl": 1343,
    "Ġrocket": 1344,
    "ĠWhale": 1345,
    "Ġlarge": 1346,
    "Ġbooth": 1347,
    "jamas": 1348,
    "Ġcried": 1349,
    "Ġdolphin": 1350,
    "orrow": 1351,
    "Ġcombed": 1352,
    "Ġpanic": 1353,
    "rough": 1354,
    "Ġstroll": 1355,
    "Ġpur": 1356,
    "Ġbattery": 1357,
    "ĠFlicker": 1358,
    "Ġwis": 1359,
    "Ġwing": 1360,
    "Ġfallen": 1361,
    "llen": 1362,
    "Ġrace": 1363,
    "ī": 1364,
    "ĠAshley": 1365,
    "els": 1366,
    "Ġ''": 1367,
    "Ġbiggest": 1368,
    "ĠOne": 1369,
    "Ġenvel": 1370,
    "Ġruined": 1371,
    "Ġsnorted": 1372,
    "iled": 1373,
    "Ġdiffere": 1374,
    "Being": 1375,
    "zag": 1376,
    "Ġall": 1377,
    "Ġteaspoon": 1378,
    "Ġreturned": 1379,
    "Chirpy": 1380,
    "Ġwishes": 1381,
    "ision": 1382,
    "Ġdrawings": 1383,
    "ally": 1384,
    "Ġprunes": 1385,
    "no": 1386,
    "Ġweeds": 1387,
    "iform": 1388,
    "Ġprayed": 1389,
    "Ġmor": 1390,
    "erm": 1391,
    "Goodnight": 1392,
    "ink": 1393,
    "Ġdinosaurs": 1394,
    "Ġcute": 1395,
    "arlotte": 1396,
    "ĠUn": 1397,
    "dle": 1398,
    "Ġpours": 1399,
    "Some": 1400,
    "shmallow": 1401,
    "Ġshed": 1402,
    "ĠSpring": 1403,
    "Ġo": 1404,
    "ĠAsh": 1405,
    "Ġcoach": 1406,
    "ves": 1407,
    "onna": 1408,
    "coon": 1409,
    "'d": 1410,
    "Ġdon": 1411,
    "Ġdream": 1412,
    "Ġdresses": 1413,
    "Ġwarmth": 1414,
    "omed": 1415,
    "Ouch": 1416,
    "it": 1417,
    "Ġpacking": 1418,
    ".'": 1419,
    "ę": 1420,
    "ery": 1421,
    "par": 1422,
    "Ġbrown": 1423,
    "Ġthing": 1424,
    "Ġdance": 1425,
    "ff": 1426,
    "Ġfaded": 1427,
    "Ġvict": 1428,
    "Ġallowing": 1429,
    "Ġtortoise": 1430,
    "abel": 1431,
    "Ġstew": 1432,
    "Ġhelmet": 1433,
    "Ġstings": 1434,
    "Ġpond": 1435,
    "Ġsings": 1436,
    "Ġflame": 1437,
    "Ġha": 1438,
    "Ġpaper": 1439,
    "Ġnature": 1440,
    "ĠRolly": 1441,
    "Ġcontest": 1442,
    "Ð": 1443,
    "ĠMichael": 1444,
    "Ġbounce": 1445,
    "Ġregular": 1446,
    "ted": 1447,
    "Ï": 1448,
    "rons": 1449,
    "Ġpaddle": 1450,
    "how": 1451,
    "Ġreminds": 1452,
    "Ġchess": 1453,
    "Polly": 1454,
    "Ġfreezer": 1455,
    "Ġfloated": 1456,
    "Ġgeese": 1457,
    "ood": 1458,
    "ĠFe": 1459,
    "ĠSl": 1460,
    "Ġtrou": 1461,
    "bul": 1462,
    "Ġblinking": 1463,
    "Ġsirens": 1464,
    "Ġchocolates": 1465,
    "xt": 1466,
    "Someone": 1467,
    "Ġimport": 1468,
    "ĠRed": 1469,
    "Ġstubb": 1470,
    "ĠRollie": 1471,
    "Ġmonkey": 1472,
    "ĠSay": 1473,
    "Sophie": 1474,
    "Ġtall": 1475,
    "Ġupset": 1476,
    "ement": 1477,
    "Ġhissing": 1478,
    "ĠSusan": 1479,
    "ocked": 1480,
    "Ġcollecting": 1481,
    "Ġhumming": 1482,
    "Ġdisappointment": 1483,
    "Ġpurred": 1484,
    "Ġpatience": 1485,
    "Ġmarkers": 1486,
    "ress": 1487,
    "Mother": 1488,
    "ild": 1489,
    "iew": 1490,
    "Ġice": 1491,
    "Ġrainbow": 1492,
    "Ġrail": 1493,
    "Ġsorting": 1494,
    "itt": 1495,
    "Ġbuckle": 1496,
    "Ġescap": 1497,
    "Ġbones": 1498,
    "The": 1499,
    "hen": 1500,
    "Ġmovies": 1501,
    "Ġpleasure": 1502,
    "Ġowners": 1503,
    "Ġleap": 1504,
    "Ġsick": 1505,
    "angu": 1506,
    "Ġwater": 1507,
    "Ġ5": 1508,
    "Ġlady": 1509,
    "sol": 1510,
    "scar": 1511,
    "Ġordinary": 1512,
    "nce": 1513,
    "Ġwonders": 1514,
    "dge": 1515,
    "Ġstruck": 1516,
    "Ġcleaned": 1517,
    "ĠHolly": 1518,
    "Ġsew": 1519,
    "Ġcream": 1520,
    "of": 1521,
    "ĠLiza": 1522,
    "Ġsternly": 1523,
    "Ġdish": 1524,
    "Ġguy": 1525,
    "Ġcrickets": 1526,
    "Ġchewed": 1527,
    "Ġeraser": 1528,
    "Ġcome": 1529,
    "Ġnur": 1530,
    "Ġthanking": 1531,
    "usty": 1532,
    "ed": 1533,
    "match": 1534,
    "Ć": 1535,
    "af": 1536,
    "Ġfrustration": 1537,
    "Ġlove": 1538,
    "Ġpretty": 1539,
    "ĠUntil": 1540,
    "covered": 1541,
    "Ġlabels": 1542,
    "ĠChloe": 1543,
    "Ġspl": 1544,
    "Ġyelped": 1545,
    "Ġprickly": 1546,
    "ĠPrincess": 1547,
    "Ġchilly": 1548,
    "Ġunus": 1549,
    "Ĭ": 1550,
    "Ġpit": 1551,
    "Ġsailboat": 1552,
    "Jul": 1553,
    "Ġnecklace": 1554,
    "igail": 1555,
    "Ġlamb": 1556,
    "Ġbu": 1557,
    "Ġwindows": 1558,
    "Ġtem": 1559,
    "antastic": 1560,
    "Ġcottage": 1561,
    "ĠRu": 1562,
    "ĠElsie": 1563,
    "len": 1564,
    "Ġunpacked": 1565,
    "Ġviolin": 1566,
    "Ġfre": 1567,
    "Ġins": 1568,
    "Ġsnail": 1569,
    "ý": 1570,
    "Ġbicycle": 1571,
    "Ġstem": 1572,
    "ĠSmoke": 1573,
    "Ġfloor": 1574,
    "Ġscatter": 1575,
    "Ġparents": 1576,
    "Ġold": 1577,
    "Ġweighs": 1578,
    "Ġcuddly": 1579,
    "form": 1580,
    "Ġwipes": 1581,
    "Ġpound": 1582,
    "Ġintently": 1583,
    "Ġseveral": 1584,
    "ĠPink": 1585,
    "Gigi": 1586,
    "ashing": 1587,
    "Æ": 1588,
    "Ġthermometer": 1589,
    "Đ": 1590,
    "Ġencourag": 1591,
    "Snow": 1592,
    "Ġcubs": 1593,
    "Ġalthough": 1594,
    "Ġdri": 1595,
    "water": 1596,
    "llie": 1597,
    "Ġcustom": 1598,
    "flowers": 1599,
    "Ġwill": 1600,
    "Tara": 1601,
    "why": 1602,
    "chanic": 1603,
    "Ġrealised": 1604,
    "ilty": 1605,
    "Next": 1606,
    "Ġchased": 1607,
    "Ġexclaimed": 1608,
    "Ġfootball": 1609,
    "Ġhappier": 1610,
    "ivi": 1611,
    "Ġtornado": 1612,
    "ĠBefore": 1613,
    "Ġcup": 1614,
    "Ġtele": 1615,
    "Ġunt": 1616,
    "Ġeat": 1617,
    "--": 1618,
    "ĠMag": 1619,
    "Since": 1620,
    "ĠCoco": 1621,
    "orter": 1622,
    "ĠCat": 1623,
    "Ġgerm": 1624,
    "Buzzy": 1625,
    "à": 1626,
    "Ġrack": 1627,
    "ĠEric": 1628,
    "ver": 1629,
    "pe": 1630,
    "chool": 1631,
    "Sarah": 1632,
    "ĠWhere": 1633,
    "Ġshocked": 1634,
    "ĠPick": 1635,
    "Ġfirework": 1636,
    "E": 1637,
    "Ġelbow": 1638,
    "Ġprep": 1639,
    "Ġzipped": 1640,
    "ĠRara": 1641,
    "utor": 1642,
    "Ġsails": 1643,
    "ĠJulia": 1644,
    "Ġcartoon": 1645,
    "\\": 1646,
    "elie": 1647,
    "arac": 1648,
    "ĠDan": 1649,
    "ĠJelly": 1650,
    "Ġrolling": 1651,
    "Ġfinger": 1652,
    "Ġwoken": 1653,
    "Ġteach": 1654,
    "Ġsmallest": 1655,
    "cky": 1656,
    "Ġswinging": 1657,
    "Ġbeaks": 1658,
    "ñ": 1659,
    "ĠHappy": 1660,
    "roscope": 1661,
    "Ġbikes": 1662,
    "Ġimpossible": 1663,
    "Ġhoping": 1664,
    "awn": 1665,
    "ask": 1666,
    "Ġra": 1667,
    "Ġfollows": 1668,
    "Ġjo": 1669,
    "Ġrevealed": 1670,
    "Ġtwo": 1671,
    "erly": 1672,
    "Ġign": 1673,
    "Ġsmashed": 1674,
    "low": 1675,
    "storm": 1676,
    "Co": 1677,
    "Ġstructures": 1678,
    "Ġsitting": 1679,
    "Ġpu": 1680,
    "Ġroad": 1681,
    "mers": 1682,
    "lebr": 1683,
    "His": 1684,
    "Ġrepaired": 1685,
    "ĠAnne": 1686,
    "Arrr": 1687,
    "Ġcere": 1688,
    "ĠNurse": 1689,
    "Ġpopular": 1690,
    "Ġunw": 1691,
    "lle": 1692,
    "Ġborn": 1693,
    "ular": 1694,
    "Ġkick": 1695,
    "Ġborrow": 1696,
    "ĠLee": 1697,
    "Ġtaller": 1698,
    "Ġcheetah": 1699,
    "Ġrac": 1700,
    "Ġwasting": 1701,
    "Í": 1702,
    "seek": 1703,
    "Ġreflection": 1704,
    "Ġclue": 1705,
    "adabra": 1706,
    "ience": 1707,
    "agic": 1708,
    "Ġrecorder": 1709,
    "Ġclass": 1710,
    "Ġslammed": 1711,
    "Ġclassroom": 1712,
    "Ġsilence": 1713,
    "Don": 1714,
    "Ġdreams": 1715,
    "Ex": 1716,
    "ĠChick": 1717,
    "Ġtale": 1718,
    "eth": 1719,
    "Ġrockets": 1720,
    "Ġplucked": 1721,
    "Ġtub": 1722,
    "Ġmystery": 1723,
    "Ġunusual": 1724,
    "Ġache": 1725,
    "Ġcreatures": 1726,
    "ĠJean": 1727,
    "Ġplants": 1728,
    "Ġsupply": 1729,
    "ĠDino": 1730,
    "aughty": 1731,
    "Ġturkey": 1732,
    "Ġmajest": 1733,
    "Ġshowing": 1734,
    "ĠMaisy": 1735,
    "Ġseconds": 1736,
    "Ġeld": 1737,
    "Ġtomatoes": 1738,
    "Ġreplaced": 1739,
    "Th": 1740,
    "Ġbean": 1741,
    "Ġsnugg": 1742,
    "pack": 1743,
    "Ġkindly": 1744,
    "ĠNever": 1745,
    "ĠLulu": 1746,
    "Ġguesses": 1747,
    "rot": 1748,
    "Ġsomewhere": 1749,
    "Ġdoorstep": 1750,
    "Ġsquash": 1751,
    "Ġchop": 1752,
    "Ġinches": 1753,
    "Ġfiles": 1754,
    "Ġsped": 1755,
    "Ew": 1756,
    "e": 1757,
    "Ribbit": 1758,
    "OK": 1759,
    "cidents": 1760,
    "Ġdev": 1761,
    "Ġsells": 1762,
    "Ġce": 1763,
    "Ġstruggling": 1764,
    "fused": 1765,
    "Ġwarri": 1766,
    "Ġsoak": 1767,
    "Tree": 1768,
    "Ġdancer": 1769,
    "Ġstorms": 1770,
    "ia": 1771,
    "Ġbravely": 1772,
    "oger": 1773,
    "Ġmooed": 1774,
    "ugg": 1775,
    "ampoo": 1776,
    "oman": 1777,
    "uc": 1778,
    "Ġexcite": 1779,
    "ĠSome": 1780,
    "Ġshells": 1781,
    "araway": 1782,
    "Ġpatch": 1783,
    "ecause": 1784,
    "ĠLena": 1785,
    "Ġsadder": 1786,
    "Ġwhispering": 1787,
    "Ġrout": 1788,
    "ger": 1789,
    "Ġmarve": 1790,
    "ee": 1791,
    "Ġexcitedly": 1792,
    "Ġlie": 1793,
    "an": 1794,
    "med": 1795,
    "ĠFlutter": 1796,
    "Ġwashes": 1797,
    "Ġguarding": 1798,
    "ce": 1799,
    "=": 1800,
    "sy": 1801,
    "ĠThomas": 1802,
    "Tim": 1803,
    "Ġlonger": 1804,
    "Ġaccidents": 1805,
    "Ġstrawberries": 1806,
    "Ġteleph": 1807,
    "Fine": 1808,
    "Ġclick": 1809,
    "Ġlaw": 1810,
    "Pe": 1811,
    "ĠSte": 1812,
    "Liz": 1813,
    "Ġdelivering": 1814,
    "Ķ": 1815,
    "Ġactually": 1816,
    "Ġchicken": 1817,
    "lephant": 1818,
    "Ġwrench": 1819,
    "Ġstar": 1820,
    "David": 1821,
    "cused": 1822,
    "Ġbrave": 1823,
    "Betty": 1824,
    "Ġunderwater": 1825,
    "ways": 1826,
    "Ġhead": 1827,
    "Ġforest": 1828,
    "Ġsneaked": 1829,
    "Ġz": 1830,
    "Ġsomeone": 1831,
    "Ġdust": 1832,
    "Ġcharac": 1833,
    "Ġlands": 1834,
    "ĠEd": 1835,
    "Ġcoop": 1836,
    "Ġawe": 1837,
    "re": 1838,
    "rosc": 1839,
    "Ġabove": 1840,
    "ĠMatt": 1841,
    "Snap": 1842,
    "Ġshore": 1843,
    "Frog": 1844,
    "Ġnatural": 1845,
    "Ġmerma": 1846,
    "Ġtouches": 1847,
    "Ġlanguages": 1848,
    "Lizzy": 1849,
    "ĠPut": 1850,
    "Yuck": 1851,
    "Ġstretches": 1852,
    "Ġknives": 1853,
    "ope": 1854,
    "Ġped": 1855,
    "Ġtalents": 1856,
    "Ġenc": 1857,
    "any": 1858,
    "Ġtugged": 1859,
    "Ġcrashing": 1860,
    "Ġtrembled": 1861,
    "ĠJoan": 1862,
    "ĠWell": 1863,
    "Ġrains": 1864,
    "Ġpack": 1865,
    "Lisa": 1866,
    "Ġafternoon": 1867,
    "Ġaway": 1868,
    "mine": 1869,
    "Ġdeserve": 1870,
    "or": 1871,
    "Ġpoem": 1872,
    "One": 1873,
    "elp": 1874,
    "Ġboom": 1875,
    "Ġsiblings": 1876,
    "Ġdisagreement": 1877,
    "Ġearn": 1878,
    "Ġordered": 1879,
    "ĠPapa": 1880,
    "Ġdoll": 1881,
    "Ġstain": 1882,
    "Ġweeks": 1883,
    "Ġscare": 1884,
    "Ġhealing": 1885,
    "ddie": 1886,
    "va": 1887,
    "ormous": 1888,
    "Ġsing": 1889,
    "Ġelectric": 1890,
    "gether": 1891,
    "Ġornament": 1892,
    "Ġtour": 1893,
    "Should": 1894,
    "Ġnewspapers": 1895,
    "Bee": 1896,
    "ours": 1897,
    "Ġlogs": 1898,
    "ĠRain": 1899,
    "Ġkicks": 1900,
    "Ġhappiest": 1901,
    "Ġpens": 1902,
    "ired": 1903,
    "ado": 1904,
    "lies": 1905,
    "Ġpeeking": 1906,
    "Ġlaughter": 1907,
    "Ġtempted": 1908,
    "obile": 1909,
    "acock": 1910,
    "ĠMegan": 1911,
    "Ġinsect": 1912,
    "Ġnap": 1913,
    "Ġdetermination": 1914,
    "Ġboys": 1915,
    "Ġdays": 1916,
    "bow": 1917,
    "Max": 1918,
    "ĠElephant": 1919,
    "Ġdraw": 1920,
    "ĠHalloween": 1921,
    "Ġdis": 1922,
    "hind": 1923,
    "istle": 1924,
    "Ġb": 1925,
    "Ġlava": 1926,
    "Ġcounts": 1927,
    "Ġsatisfa": 1928,
    "Ġfastest": 1929,
    "Ġfrosting": 1930,
    "Ġrobot": 1931,
    "reeze": 1932,
    "Ġbal": 1933,
    "Ġyelling": 1934,
    "irit": 1935,
    ".âĢĿ": 1936,
    "Ġtrunk": 1937,
    "Ġease": 1938,
    "Ġflip": 1939,
    "Ġquiet": 1940,
    "ield": 1941,
    "Ġthey": 1942,
    "Ġstretching": 1943,
    "endy": 1944,
    "Ġaston": 1945,
    "Ġhoped": 1946,
    "Ġlemon": 1947,
    "Ġbiscuit": 1948,
    "Ġpalace": 1949,
    "phant": 1950,
    "sp": 1951,
    "Ġmats": 1952,
    "Ġgrill": 1953,
    "oc": 1954,
    "ma": 1955,
    "ĠChe": 1956,
    "Ġtable": 1957,
    "Ġconsider": 1958,
    "Ġrod": 1959,
    "Ġpulls": 1960,
    "Ġyaw": 1961,
    "ani": 1962,
    "Ġlives": 1963,
    "ĠOxy": 1964,
    "âĢ": 1965,
    "Ġrepa": 1966,
    "Ġscratched": 1967,
    "Ġcaut": 1968,
    "Ġuntie": 1969,
    "Ġcobwebs": 1970,
    "Ġblank": 1971,
    "Ġmysterious": 1972,
    "Ġsomebody": 1973,
    "Ġmailman": 1974,
    "ited": 1975,
    "ĠPine": 1976,
    "Ġfool": 1977,
    "cient": 1978,
    "Ġing": 1979,
    "'m": 1980,
    "ĠLisa": 1981,
    "ĠPolly": 1982,
    "bit": 1983,
    "Ġgrip": 1984,
    "ued": 1985,
    "Ġhow": 1986,
    "Ġstories": 1987,
    "Ru": 1988,
    "usted": 1989,
    "udden": 1990,
    "Ġeag": 1991,
    "Ġcollect": 1992,
    "Ġanyone": 1993,
    "Ġadventurous": 1994,
    "Ġgear": 1995,
    "Ġbraver": 1996,
    "ĠJack": 1997,
    "Ġ10": 1998,
    "Ben": 1999,
    "Ġli": 2000,
    "irr": 2001,
    "Ġluckily": 2002,
    "Ġyacht": 2003,
    "Ġlighting": 2004,
    "Ġsandcastles": 2005,
    "Ġbund": 2006,
    "Ġgift": 2007,
    "Ġdist": 2008,
    "Ġcelebrate": 2009,
    "Ġmuddy": 2010,
    "Ġaff": 2011,
    "Ġsnuck": 2012,
    "ĠTheir": 2013,
    "gers": 2014,
    "ĠBro": 2015,
    "Ġpl": 2016,
    "parent": 2017,
    "ĠSlinky": 2018,
    "Ġsmall": 2019,
    "Ġdove": 2020,
    "ique": 2021,
    "Alice": 2022,
    "Ġs": 2023,
    "Ġsan": 2024,
    "Ġgod": 2025,
    "Ġhated": 2026,
    "ĠUni": 2027,
    "Ġfans": 2028,
    "Ġregret": 2029,
    "Ġresting": 2030,
    "Ġclaps": 2031,
    "Ġbirdc": 2032,
    "Ġro": 2033,
    "ĠCle": 2034,
    "Ġcrystals": 2035,
    "Ġostrich": 2036,
    "Ġgiggling": 2037,
    "ĠThese": 2038,
    "Ġpump": 2039,
    "uch": 2040,
    "Ġwas": 2041,
    "Ġschool": 2042,
    "oin": 2043,
    "Ġsituation": 2044,
    "Ġex": 2045,
    "Ġconfident": 2046,
    "Ġmother": 2047,
    "good": 2048,
    "Ġhelicopters": 2049,
    "Ġpen": 2050,
    "host": 2051,
    "Ġniece": 2052,
    "ĠBert": 2053,
    "Ġfle": 2054,
    "Ġslipping": 2055,
    "Ġvalley": 2056,
    "ences": 2057,
    "ĠTurtle": 2058,
    "ĠBessie": 2059,
    "Ġtray": 2060,
    "Sara": 2061,
    "ĠJason": 2062,
    "se": 2063,
    "Ġsailors": 2064,
    "Ġanchor": 2065,
    "ĠKaren": 2066,
    "Ġleaning": 2067,
    "Ġbreathe": 2068,
    "ĠDr": 2069,
    "Ġheavier": 2070,
    "Ġstrum": 2071,
    "Ġtickled": 2072,
    "ĠBen": 2073,
    "Ġdog": 2074,
    "Ġsnowball": 2075,
    "arrow": 2076,
    "Ġsnar": 2077,
    "zoom": 2078,
    "Ġfreez": 2079,
    "ased": 2080,
    "Jen": 2081,
    "Ġnotes": 2082,
    "Ġsurprising": 2083,
    "Ġdar": 2084,
    "well": 2085,
    "Ġlicked": 2086,
    "Open": 2087,
    "Ġthrowing": 2088,
    ";": 2089,
    "etch": 2090,
    "Ġending": 2091,
    "Ġfilm": 2092,
    "Ġnoises": 2093,
    "ped": 2094,
    "ef": 2095,
    "ape": 2096,
    "Once": 2097,
    "Ġtwisty": 2098,
    "q": 2099,
    "ĠWill": 2100,
    "Is": 2101,
    "ext": 2102,
    "Ġdecorations": 2103,
    "Ġbetween": 2104,
    "Ġloving": 2105,
    "ĠBlinky": 2106,
    "Ġinvestigate": 2107,
    "ĠRoo": 2108,
    "Ġdisturb": 2109,
    "ĠFlick": 2110,
    "Ġmicroscope": 2111,
    "Days": 2112,
    "Ġchewing": 2113,
    "ipping": 2114,
    "ĠMe": 2115,
    "Ġfaced": 2116,
    "Ġsandpit": 2117,
    "ĠLu": 2118,
    "Ġhopped": 2119,
    "Ġbelongings": 2120,
    "Ġmomma": 2121,
    "ĠThunder": 2122,
    "val": 2123,
    "res": 2124,
    "Ġhis": 2125,
    "ĠY": 2126,
    "Ġheav": 2127,
    "ĝ": 2128,
    "Ġjob": 2129,
    "Ġgooey": 2130,
    "vered": 2131,
    "Ġtrucks": 2132,
    "Ġso": 2133,
    "Ġjust": 2134,
    "Ġrubb": 2135,
    "seum": 2136,
    "Ġbadger": 2137,
    "Ĝ": 2138,
    "Ġhealthy": 2139,
    "Magic": 2140,
    "Ġrespect": 2141,
    "Ġcompanion": 2142,
    "Ġspoke": 2143,
    "Ġanticipation": 2144,
    "Ġmagnifying": 2145,
    "Give": 2146,
    "Ġer": 2147,
    "ren": 2148,
    "Ġrepl": 2149,
    "Ġrats": 2150,
    "Ġsnort": 2151,
    "noon": 2152,
    "Ġarrow": 2153,
    "ĠRo": 2154,
    "Ô": 2155,
    "oo": 2156,
    "Ġshh": 2157,
    "Ġseed": 2158,
    "Ġchair": 2159,
    "Ġbars": 2160,
    "Ġaeroplanes": 2161,
    "Ġlangu": 2162,
    "ming": 2163,
    "Ġlad": 2164,
    "ortunately": 2165,
    "Ġarea": 2166,
    "Ġne": 2167,
    "aud": 2168,
    "Ġraincoat": 2169,
    "/": 2170,
    "ĠIts": 2171,
    "Ġstealing": 2172,
    "Ġhairy": 2173,
    "apped": 2174,
    "ide": 2175,
    "Ġsaved": 2176,
    "Ġjourney": 2177,
    "ouch": 2178,
    "Coco": 2179,
    "Ġtiss": 2180,
    "ĠTogether": 2181,
    "Ġsweep": 2182,
    "play": 2183,
    "Ġcowboy": 2184,
    "ĠBuster": 2185,
    "Ġturned": 2186,
    "Ġvalued": 2187,
    "Ġtoward": 2188,
    "Ġburn": 2189,
    "Dolly": 2190,
    "iky": 2191,
    "uing": 2192,
    "land": 2193,
    "Ġbeamed": 2194,
    "reen": 2195,
    "Ġhug": 2196,
    "Ġpain": 2197,
    "Ġhurricane": 2198,
    "Ġord": 2199,
    "Ġgoes": 2200,
    "Ġteapot": 2201,
    "Ġfrowning": 2202,
    "Ġlettuce": 2203,
    "Ġpraying": 2204,
    "enry": 2205,
    "Ġapplauded": 2206,
    "Ġhedge": 2207,
    "Ġhers": 2208,
    "Ġcontro": 2209,
    "ph": 2210,
    "rigued": 2211,
    "Ġhiding": 2212,
    "ĠBinky": 2213,
    "Ġplaced": 2214,
    "ĠDoctor": 2215,
    "Ġcomplet": 2216,
    "Ġshopping": 2217,
    "ĠAlways": 2218,
    "Ġyesterday": 2219,
    "Ġblueberries": 2220,
    "Ġfountain": 2221,
    "Grow": 2222,
    "Ġkeep": 2223,
    "Ġattach": 2224,
    "Ġtoy": 2225,
    "Somet": 2226,
    "Ġsank": 2227,
    "cu": 2228,
    "Ġcreams": 2229,
    "Ġindeed": 2230,
    "Ġwrapped": 2231,
    "ie": 2232,
    "ĠKelly": 2233,
    "itches": 2234,
    "Ġvo": 2235,
    "Ġpumpkin": 2236,
    "Ġturning": 2237,
    "Ġsneezing": 2238,
    "Ġrobe": 2239,
    "Ġrolled": 2240,
    "Ġfa": 2241,
    "Ġwhatever": 2242,
    "ca": 2243,
    "Ġbaa": 2244,
    "Ġchores": 2245,
    "Ġbalan": 2246,
    "Ġhome": 2247,
    "Ġsubway": 2248,
    "Ġpleaded": 2249,
    "Ġnuzzled": 2250,
    "Ą": 2251,
    "Ġswitch": 2252,
    "Ġeverybody": 2253,
    "arn": 2254,
    "Ġcooper": 2255,
    "Ġtreasures": 2256,
    "Ġtwirled": 2257,
    "Ġpeanuts": 2258,
    "ought": 2259,
    "Ġfilthy": 2260,
    "Ġador": 2261,
    "Ġresponsible": 2262,
    "Ġchin": 2263,
    "Ġsmells": 2264,
    "Ġneat": 2265,
    "Ġvis": 2266,
    "Ġwaited": 2267,
    "Ġolive": 2268,
    "Ġloo": 2269,
    "Ġdisgusting": 2270,
    "Ġloyal": 2271,
    "Ġpole": 2272,
    "Ġfeather": 2273,
    "Ġclicked": 2274,
    "ĠSlow": 2275,
    "ĠBoun": 2276,
    "Ġfunny": 2277,
    "Ġwrapper": 2278,
    "Ġsweeties": 2279,
    "Ġgranted": 2280,
    "ogn": 2281,
    "ĠBooks": 2282,
    "Ġpistol": 2283,
    "ĠJones": 2284,
    "Ġbillboard": 2285,
    "Ġparent": 2286,
    "elieve": 2287,
    "Ġedges": 2288,
    "Ġhunter": 2289,
    "thy": 2290,
    "Ġsport": 2291,
    "Ġbother": 2292,
    "Rose": 2293,
    "com": 2294,
    "using": 2295,
    "ĠMaya": 2296,
    "Ġbowl": 2297,
    "Ġcare": 2298,
    "Ġwrites": 2299,
    "Ġcompany": 2300,
    "Ġcrawl": 2301,
    "ellow": 2302,
    "Ġtower": 2303,
    "Ġembarrass": 2304,
    "aded": 2305,
    "Wait": 2306,
    "Ġworld": 2307,
    "ĠKaty": 2308,
    "ĠMomma": 2309,
    "Ġpay": 2310,
    "Penny": 2311,
    "Ġchirp": 2312,
    "Ġfills": 2313,
    "ĠExcited": 2314,
    "eared": 2315,
    "ĠAnother": 2316,
    "Ġstor": 2317,
    "Ġstains": 2318,
    "Hey": 2319,
    "Ġscooped": 2320,
    "ĠPop": 2321,
    "Ġinsist": 2322,
    "irp": 2323,
    "Ġrelie": 2324,
    "Ġnicely": 2325,
    "Ġaccomplish": 2326,
    "Ġwaffle": 2327,
    "Ġgave": 2328,
    "Ġjourn": 2329,
    "Ġfree": 2330,
    "ium": 2331,
    "Ġmuffins": 2332,
    "ĠReddy": 2333,
    "Ġspoons": 2334,
    "Ġaction": 2335,
    "ì": 2336,
    "Ġresponsib": 2337,
    "Ġsatisfaction": 2338,
    "Ġdecided": 2339,
    "Ġtravel": 2340,
    "Ġstill": 2341,
    "Ġunwrapped": 2342,
    "Ġmedic": 2343,
    "Ġchairs": 2344,
    "Ġcold": 2345,
    "Ġmovements": 2346,
    "oto": 2347,
    "Ġhig": 2348,
    "adually": 2349,
    "Ġwrap": 2350,
    "Ġpassenger": 2351,
    "ĠTara": 2352,
    "ĠDotty": 2353,
    "ĠFarmer": 2354,
    "Ġway": 2355,
    "ĠOpen": 2356,
    "Ġdropped": 2357,
    "Ġ1": 2358,
    "he": 2359,
    "Ġcalendar": 2360,
    "Ġinclude": 2361,
    "Ġwaits": 2362,
    "oy": 2363,
    "}": 2364,
    "ard": 2365,
    "Ġshines": 2366,
    "Ġfingers": 2367,
    "Ġtrip": 2368,
    "Ġforward": 2369,
    "arted": 2370,
    "Ġrealise": 2371,
    "Ġdiscoveries": 2372,
    "Ġrope": 2373,
    "ĠMixy": 2374,
    "ĠBow": 2375,
    "ļ": 2376,
    "Ġwiped": 2377,
    "Ġforests": 2378,
    "Ġwished": 2379,
    "Ġinjured": 2380,
    "Ġbuild": 2381,
    "render": 2382,
    "ith": 2383,
    "Ġhardest": 2384,
    "ĠAuntie": 2385,
    "ried": 2386,
    "Ġshouldn": 2387,
    "Ġmyself": 2388,
    "ĠL": 2389,
    "key": 2390,
    "Ġmat": 2391,
    "Ġfair": 2392,
    "Ġtwinkle": 2393,
    "Ġstands": 2394,
    "Ġlicks": 2395,
    "irthday": 2396,
    "Ġwish": 2397,
    "ino": 2398,
    "Ġvoice": 2399,
    "Ġpiece": 2400,
    "ĠCircle": 2401,
    "He": 2402,
    "Ġbossy": 2403,
    "Ġpainful": 2404,
    "ids": 2405,
    "Ġdesper": 2406,
    "Ġzipp": 2407,
    "ler": 2408,
    "\".": 2409,
    "boards": 2410,
    "Ġfig": 2411,
    "ashes": 2412,
    "mel": 2413,
    "Nina": 2414,
    "plash": 2415,
    "J": 2416,
    "ock": 2417,
    "alm": 2418,
    "Ġlived": 2419,
    "Ġsub": 2420,
    "Ġrecipe": 2421,
    "Ġrabbits": 2422,
    "Ġearthquake": 2423,
    "Ġlim": 2424,
    "Ġminute": 2425,
    "Ġhopeful": 2426,
    "Jimmy": 2427,
    "Ġsurely": 2428,
    "ĠBub": 2429,
    "vent": 2430,
    "Ġstall": 2431,
    "ammy": 2432,
    "Ġmattered": 2433,
    "Ġawoke": 2434,
    "Ġwhite": 2435,
    "Ġfade": 2436,
    "Guess": 2437,
    "Ġsuper": 2438,
    "Ġphoto": 2439,
    "em": 2440,
    "Ġcane": 2441,
    "Jazz": 2442,
    "ĠP": 2443,
    "Ġgathered": 2444,
    "Ġradish": 2445,
    "ĠAbigail": 2446,
    "Ġeight": 2447,
    "ĠSometimes": 2448,
    "Ġscowl": 2449,
    "Ġdressed": 2450,
    "Ġnewspaper": 2451,
    "Ġawful": 2452,
    "Ġsuc": 2453,
    "Ġmesmer": 2454,
    "what": 2455,
    "Ġeasily": 2456,
    "H": 2457,
    "where": 2458,
    "Ġradio": 2459,
    "working": 2460,
    "Ġyellow": 2461,
    "umpet": 2462,
    "am": 2463,
    "Re": 2464,
    "ro": 2465,
    "Ġcopied": 2466,
    "Ġclimbed": 2467,
    "Ġwhisper": 2468,
    "Ġwires": 2469,
    "ĠSky": 2470,
    "Ġelf": 2471,
    "Ġnoticing": 2472,
    "Ġtangled": 2473,
    "Ġmarried": 2474,
    "Ġpurrs": 2475,
    "Ġimaginary": 2476,
    "Jack": 2477,
    "Ġsatis": 2478,
    "Ġcour": 2479,
    "Ġqu": 2480,
    "Many": 2481,
    "Ġworking": 2482,
    "cc": 2483,
    "Ġseven": 2484,
    "Frank": 2485,
    "lo": 2486,
    "Ġelephant": 2487,
    "iskers": 2488,
    "Ġvalu": 2489,
    "Ġroof": 2490,
    "Mouse": 2491,
    "Ġamused": 2492,
    "dded": 2493,
    "ter": 2494,
    "ĠBarky": 2495,
    "Ġspread": 2496,
    "ĠBrownie": 2497,
    "Ġscrambled": 2498,
    "Ġpajamas": 2499,
    "Ġdelight": 2500,
    "Ġbeg": 2501,
    "Ġhippo": 2502,
    "aut": 2503,
    "Mum": 2504,
    "Ġpenguin": 2505,
    "Ġdecoration": 2506,
    "Ġnow": 2507,
    "Ġmayor": 2508,
    "Ġblinked": 2509,
    "Ġodd": 2510,
    "Ġpromises": 2511,
    "ots": 2512,
    "Ġshown": 2513,
    "Ġsoldiers": 2514,
    "Ġtruly": 2515,
    "Ġcalend": 2516,
    "Ġproud": 2517,
    "Ġcorners": 2518,
    "Ġknot": 2519,
    "Ġnear": 2520,
    "ĠPenelope": 2521,
    "ĠThere": 2522,
    "ĠYet": 2523,
    "Ġremain": 2524,
    "Ġenjoyed": 2525,
    "Mikey": 2526,
    "Ġknocks": 2527,
    "Ġwonder": 2528,
    "Ġdarlings": 2529,
    "itch": 2530,
    "Ġheld": 2531,
    "osed": 2532,
    "Ġadmiring": 2533,
    "Ġhandle": 2534,
    "sw": 2535,
    "Ġzipper": 2536,
    "Ġpiles": 2537,
    "ĠThey": 2538,
    "Bu": 2539,
    "Ġpencils": 2540,
    "Ġsymbols": 2541,
    "Ġsituations": 2542,
    "iz": 2543,
    "Ġmind": 2544,
    "Dino": 2545,
    "Ġsparkle": 2546,
    "ĠAs": 2547,
    "Ġcrumb": 2548,
    "Ġanimals": 2549,
    "Ġbeaver": 2550,
    "Ġkingdom": 2551,
    "Ġlaughs": 2552,
    "riend": 2553,
    "Ġstom": 2554,
    "Fr": 2555,
    "Ġlaws": 2556,
    "Ġkeys": 2557,
    "Ġafterwards": 2558,
    "Ġtwisting": 2559,
    "Ġstitch": 2560,
    "Ġbomb": 2561,
    "ĠThanks": 2562,
    "Ġspotted": 2563,
    "Ġpartic": 2564,
    "ipment": 2565,
    "Ġkeeps": 2566,
    "ĠAnimal": 2567,
    "Ġhardly": 2568,
    "Ġdarker": 2569,
    "Ġteams": 2570,
    "Ġthen": 2571,
    "Ġnumbers": 2572,
    "Ġdaisy": 2573,
    "ik": 2574,
    "Ġbears": 2575,
    "ĠPepper": 2576,
    "ached": 2577,
    "Ġjelly": 2578,
    "Ġtwirl": 2579,
    "aby": 2580,
    "Ġscrews": 2581,
    "Ġcustomers": 2582,
    "Ġtemperature": 2583,
    "Ġsweetie": 2584,
    "Julie": 2585,
    "Ġthunder": 2586,
    "wise": 2587,
    "Ġdependable": 2588,
    "Ġanything": 2589,
    "James": 2590,
    "V": 2591,
    "Ġdrain": 2592,
    "Ġswimsuit": 2593,
    "ould": 2594,
    "omet": 2595,
    "Ġweight": 2596,
    "ĠOh": 2597,
    "Ġwall": 2598,
    "aybe": 2599,
    "Molly": 2600,
    "Ġstream": 2601,
    "Ġhomework": 2602,
    "ĠFlop": 2603,
    "Ġblocked": 2604,
    "Ġcatching": 2605,
    "Ġwink": 2606,
    "ĠMus": 2607,
    "Ġuniverse": 2608,
    "Ġgrumbled": 2609,
    "Bow": 2610,
    "ĠAmber": 2611,
    "Ġfriendship": 2612,
    "Ġskirts": 2613,
    "iving": 2614,
    "asha": 2615,
    "Ġsupp": 2616,
    "Ġsewing": 2617,
    "Ġhall": 2618,
    "Ġenter": 2619,
    "Ġgorilla": 2620,
    "Ġamazing": 2621,
    "Ġwalking": 2622,
    "ĠHenny": 2623,
    "?âĢĿ.": 2624,
    "etter": 2625,
    "ĠWater": 2626,
    "Ġbalanced": 2627,
    "Ġaren": 2628,
    "Ġreass": 2629,
    "Ġquest": 2630,
    "ĠSpot": 2631,
    "ĠTw": 2632,
    "Ġbleeding": 2633,
    "ike": 2634,
    "Ġcould": 2635,
    "Ġguest": 2636,
    "Ġsound": 2637,
    "Ġtapped": 2638,
    "Ġmoves": 2639,
    "ĩ": 2640,
    "ĠToo": 2641,
    "ĠRatty": 2642,
    "Ġignorant": 2643,
    "ĠKitty": 2644,
    "Ġspade": 2645,
    "!âĢĿ.": 2646,
    "ifully": 2647,
    "Ġseagulls": 2648,
    "Ġgonna": 2649,
    "M": 2650,
    "From": 2651,
    "Ġpigeon": 2652,
    "Jon": 2653,
    "ĠLina": 2654,
    "Ġbathtub": 2655,
    "Ġangel": 2656,
    "Ġshadows": 2657,
    "Ġotters": 2658,
    "Ġashtray": 2659,
    "comfortable": 2660,
    "Ġspringing": 2661,
    "ip": 2662,
    "dding": 2663,
    "Ġlamp": 2664,
    "Ġwob": 2665,
    "Ġsquir": 2666,
    "Ġcond": 2667,
    "Ġgrey": 2668,
    "Ġdelic": 2669,
    "May": 2670,
    "Ġcrossed": 2671,
    "ĠHelp": 2672,
    "Ċ": 2673,
    "Ġslowly": 2674,
    "ĠChew": 2675,
    "Ġfeast": 2676,
    "Ġmotorcycles": 2677,
    "Ġcomputers": 2678,
    "ĠZiggy": 2679,
    "rs": 2680,
    "Ġwhip": 2681,
    "Ġspe": 2682,
    "Ġsol": 2683,
    "Ġlipstick": 2684,
    "Ġmany": 2685,
    "Ġmy": 2686,
    "Ġbringing": 2687,
    "time": 2688,
    "Mummy": 2689,
    "ens": 2690,
    "Before": 2691,
    "Ġcoat": 2692,
    "Ġteaches": 2693,
    "er": 2694,
    "¦": 2695,
    "ld": 2696,
    "Ġshadow": 2697,
    "anging": 2698,
    "Ġimpatient": 2699,
    "wk": 2700,
    "Ġechoed": 2701,
    "Ġread": 2702,
    "Ġstorm": 2703,
    "oom": 2704,
    "arian": 2705,
    "bird": 2706,
    "Ġbothering": 2707,
    "Ġmoney": 2708,
    "Ġbehaving": 2709,
    "omp": 2710,
    "Ġmosquitoes": 2711,
    "Ġgive": 2712,
    "Ġbumpy": 2713,
    "ĠGogo": 2714,
    "Ġmagn": 2715,
    "Spot": 2716,
    "ĠEva": 2717,
    "ĠSparky": 2718,
    "Ġqueen": 2719,
    "Ġmoo": 2720,
    "Ġdrag": 2721,
    "child": 2722,
    "erk": 2723,
    "ility": 2724,
    "leep": 2725,
    "ĠTV": 2726,
    "Ġloose": 2727,
    "bol": 2728,
    "fall": 2729,
    "Ġw": 2730,
    "ĠWhy": 2731,
    "ĠWhee": 2732,
    "reed": 2733,
    "Ġrebu": 2734,
    "hic": 2735,
    "ĠTim": 2736,
    "ina": 2737,
    "Ġseal": 2738,
    "Ġcuddle": 2739,
    "Ġthorns": 2740,
    "Ġcarpet": 2741,
    "Ġgone": 2742,
    "Ġdeep": 2743,
    "Ġcontinue": 2744,
    "emma": 2745,
    "ĠVroom": 2746,
    "Ġcaterpillar": 2747,
    "Ġchee": 2748,
    "ching": 2749,
    "Ġdoves": 2750,
    "Ġplayroom": 2751,
    "Ġknowing": 2752,
    "Ġpapers": 2753,
    "Ġsting": 2754,
    "Ġcaulif": 2755,
    "Ġrepeats": 2756,
    "đ": 2757,
    "Ġyear": 2758,
    "Ġyumm": 2759,
    "Ġdears": 2760,
    "Ġpeep": 2761,
    "Ġlying": 2762,
    "vroom": 2763,
    "Ġcelery": 2764,
    "Ġbuzzed": 2765,
    "Ġbr": 2766,
    "Ġtreat": 2767,
    "Ġweak": 2768,
    "ito": 2769,
    "Ġfocus": 2770,
    "ĠVicky": 2771,
    "Ġwasted": 2772,
    "Ġchange": 2773,
    "ation": 2774,
    "Ġfries": 2775,
    "Ġpapa": 2776,
    "Ġopportunity": 2777,
    "Ġgall": 2778,
    "Ġperformance": 2779,
    "Ġpermitted": 2780,
    "Ġbouquet": 2781,
    "ilt": 2782,
    "Ġcountry": 2783,
    "Ġfestival": 2784,
    "Ġleop": 2785,
    "ath": 2786,
    "enny": 2787,
    "umb": 2788,
    "Ġballoons": 2789,
    "ĠFor": 2790,
    "icking": 2791,
    "Ļ": 2792,
    "Ġter": 2793,
    "Ġcontinued": 2794,
    "Ġbranches": 2795,
    "Ġguns": 2796,
    "asses": 2797,
    "Ġhid": 2798,
    "Ġinspired": 2799,
    "Ġcocoon": 2800,
    "Ġjets": 2801,
    "amboo": 2802,
    "Ġshelf": 2803,
    "Ġhapp": 2804,
    "ĠAdam": 2805,
    "Ġal": 2806,
    "Ġweaker": 2807,
    "Ġpizza": 2808,
    "Ġpurp": 2809,
    "ĠScissors": 2810,
    "Ġfright": 2811,
    "alk": 2812,
    "meow": 2813,
    "ĠBlink": 2814,
    "Ġtilted": 2815,
    "Ġjoin": 2816,
    "Ġourselves": 2817,
    "Ġinstruments": 2818,
    "Steve": 2819,
    "Ġacorns": 2820,
    "Ġmisses": 2821,
    "Ġp": 2822,
    "Ġpulled": 2823,
    "Ġgoodnight": 2824,
    "ĠHug": 2825,
    "Ġlawyer": 2826,
    "pot": 2827,
    "I": 2828,
    "lcano": 2829,
    "Ġrhino": 2830,
    "ĠSpidey": 2831,
    "Ġworry": 2832,
    "Ġsnip": 2833,
    "arlie": 2834,
    "ĠPot": 2835,
    "ssess": 2836,
    "Ġsighed": 2837,
    "How": 2838,
    "rin": 2839,
    "Ġmuseum": 2840,
    "Ġribbon": 2841,
    "Ġdisappoin": 2842,
    "nie": 2843,
    "Ġdeal": 2844,
    "Ġtoes": 2845,
    "Slowly": 2846,
    "Ġscri": 2847,
    "esterday": 2848,
    "Ġmachines": 2849,
    "Ġlull": 2850,
    "Ġsuck": 2851,
    "luffy": 2852,
    "Ġlarger": 2853,
    "âĢĿ,": 2854,
    "Ġplayer": 2855,
    "Ġfilms": 2856,
    "Ġcleaner": 2857,
    "Josh": 2858,
    "Ġseems": 2859,
    "Ġstarts": 2860,
    "Ġsandwich": 2861,
    "Ġminded": 2862,
    "Ġf": 2863,
    "Ġpus": 2864,
    "Ġscru": 2865,
    "artin": 2866,
    "ward": 2867,
    "Ġquestions": 2868,
    "Ġsniff": 2869,
    "Ġdesign": 2870,
    "looking": 2871,
    "ĠFreddie": 2872,
    "Ġover": 2873,
    "as": 2874,
    "Ġquarreled": 2875,
    "ĠFlap": 2876,
    "ĠWonder": 2877,
    "cket": 2878,
    "Ġthree": 2879,
    "ĠJim": 2880,
    "Ġgold": 2881,
    "ĠMaddy": 2882,
    "Ġreached": 2883,
    "Ġicing": 2884,
    "Ġc": 2885,
    "Speedy": 2886,
    "Ġfought": 2887,
    "Ġmarshmallow": 2888,
    "Ġbadly": 2889,
    "Ġdirty": 2890,
    "Ġshooed": 2891,
    "Ġscr": 2892,
    "Ġstomp": 2893,
    "Ġgears": 2894,
    "Ġtwinkling": 2895,
    "Yum": 2896,
    "ĠOn": 2897,
    "Ġner": 2898,
    "ke": 2899,
    "Ġneighbourhood": 2900,
    "f": 2901,
    "Ġjazz": 2902,
    "Ġpeeped": 2903,
    "is": 2904,
    "ĠFix": 2905,
    "Ġteac": 2906,
    "Ġicky": 2907,
    "Ġshone": 2908,
    "Ġhigher": 2909,
    "Ġpopsic": 2910,
    "Ġinvestig": 2911,
    "Ġstri": 2912,
    "!\",": 2913,
    "Ġfill": 2914,
    "zz": 2915,
    "Ġsame": 2916,
    "ĠHelen": 2917,
    "Ġmake": 2918,
    "wh": 2919,
    "Ġdisappearing": 2920,
    "Ġshop": 2921,
    "la": 2922,
    "Ġstun": 2923,
    "Ġrepeat": 2924,
    "Lizzie": 2925,
    "Ġexamining": 2926,
    "Ġlumber": 2927,
    "Ġminerals": 2928,
    "ym": 2929,
    "Ġdespite": 2930,
    "Ġsongs": 2931,
    "Ġbreaks": 2932,
    "anes": 2933,
    "ĠJaney": 2934,
    "Ġheading": 2935,
    "Ġmetal": 2936,
    "Ġcushions": 2937,
    "ĠPet": 2938,
    "Ġclosely": 2939,
    "Ġdad": 2940,
    "ĠSof": 2941,
    "Ollie": 2942,
    "ĠRufus": 2943,
    "Ġtries": 2944,
    "Ġpiggy": 2945,
    "way": 2946,
    "Ġraces": 2947,
    "Ġpins": 2948,
    "Ġspoiled": 2949,
    "Ġcoming": 2950,
    "ĠInstead": 2951,
    "Ġwealthy": 2952,
    "ĠGrump": 2953,
    "Ġcraw": 2954,
    "ĠFel": 2955,
    "Ġcryst": 2956,
    "ĠIs": 2957,
    "ĠCars": 2958,
    "Ġlaug": 2959,
    "Ġtore": 2960,
    "Ġsetting": 2961,
    "isp": 2962,
    "Ġmonsters": 2963,
    "Ġswirl": 2964,
    "Ġcomplete": 2965,
    "Ġpaying": 2966,
    "Ġsang": 2967,
    "Ġengine": 2968,
    "rew": 2969,
    "Want": 2970,
    "ĠRuff": 2971,
    "Ġblackboard": 2972,
    "Ġdesk": 2973,
    "Ġcourageous": 2974,
    "Ġmu": 2975,
    "Ġwrite": 2976,
    "&": 2977,
    "Ġlent": 2978,
    "Ġoppos": 2979,
    "Ġlegs": 2980,
    "Ġteacher": 2981,
    "ĠSure": 2982,
    "Sorry": 2983,
    "del": 2984,
    "Ġvillage": 2985,
    "Ġstolen": 2986,
    "Ġmodel": 2987,
    "Ġcracker": 2988,
    "Ġpockets": 2989,
    "Ġneighbors": 2990,
    "Ġwhistle": 2991,
    "ô": 2992,
    "sequ": 2993,
    "ophie": 2994,
    "Ġpushing": 2995,
    "ü": 2996,
    "ĠS": 2997,
    "Ġcheckout": 2998,
    "work": 2999,
    "Ġcalled": 3000,
    "ages": 3001,
    "iolet": 3002,
    "Ġteased": 3003,
    "Ġyum": 3004,
    "dog": 3005,
    "asure": 3006,
    "Ġdess": 3007,
    "ĠFr": 3008,
    "Ġdrowned": 3009,
    "oot": 3010,
    "Ġchefs": 3011,
    "Ġfuzzy": 3012,
    "reg": 3013,
    "With": 3014,
    "ĠWilly": 3015,
    "Ġoutdo": 3016,
    "Ġadult": 3017,
    "Ġwagging": 3018,
    "Ġneighborhood": 3019,
    "Ġlapt": 3020,
    "ane": 3021,
    "Ġletters": 3022,
    "Ġsink": 3023,
    "fort": 3024,
    "ĠJosh": 3025,
    "Ġcourage": 3026,
    "Ġremoved": 3027,
    "Ġhappy": 3028,
    "Ġdrinks": 3029,
    "ĠFriend": 3030,
    "Ġpair": 3031,
    "ĠEnjoy": 3032,
    "Ġangrier": 3033,
    "Ġsmelled": 3034,
    "Ġtake": 3035,
    "Ġnapping": 3036,
    "ć": 3037,
    "Ġtying": 3038,
    "Ġcheers": 3039,
    "Ġbread": 3040,
    "Ġla": 3041,
    "aspoon": 3042,
    "Ġpositive": 3043,
    "Ġduring": 3044,
    "Olive": 3045,
    "Ġsk": 3046,
    "Ġuncomfortable": 3047,
    "Ġwolves": 3048,
    "Ġribbit": 3049,
    "ob": 3050,
    "spec": 3051,
    "Ġtests": 3052,
    "Ġpow": 3053,
    "ĠJeff": 3054,
    "Ġguilty": 3055,
    "Ġwine": 3056,
    "Ġpromise": 3057,
    "Ġspr": 3058,
    "yan": 3059,
    "Ġsky": 3060,
    "Ġhomes": 3061,
    "Ġfart": 3062,
    "ĠTyler": 3063,
    "wards": 3064,
    "Ġcrouched": 3065,
    "Ġcuriosity": 3066,
    "Ġveggies": 3067,
    "Ġexchange": 3068,
    "Ġjail": 3069,
    "Ġconf": 3070,
    "inch": 3071,
    "Jo": 3072,
    "irst": 3073,
    "Ġitch": 3074,
    "espite": 3075,
    "eep": 3076,
    "ening": 3077,
    "Ġide": 3078,
    "Ġquestion": 3079,
    "rill": 3080,
    "mie": 3081,
    "Ġless": 3082,
    "Ġcrowded": 3083,
    "Ġoriginal": 3084,
    "ĠPam": 3085,
    "No": 3086,
    "Ġconsequences": 3087,
    "Ġostri": 3088,
    "ĠDuke": 3089,
    "´": 3090,
    "ud": 3091,
    "Ġenjoying": 3092,
    "ates": 3093,
    "Ġcheated": 3094,
    "bbled": 3095,
    "Ġquarrel": 3096,
    "Ġnectar": 3097,
    "Ġwhispers": 3098,
    "Ġpro": 3099,
    "Ġlar": 3100,
    "Welcome": 3101,
    "Ġbrick": 3102,
    "Ġrid": 3103,
    "Ġsandbox": 3104,
    "hel": 3105,
    "Ġluck": 3106,
    "Ġwake": 3107,
    "Ġposes": 3108,
    "bbing": 3109,
    "Ġcat": 3110,
    "Ġlow": 3111,
    "lex": 3112,
    "bby": 3113,
    "Ġfis": 3114,
    "Ġflaps": 3115,
    "Ġhave": 3116,
    "ove": 3117,
    "Ġresponsibility": 3118,
    "ctric": 3119,
    "artled": 3120,
    "Ġdresser": 3121,
    "Ġshrank": 3122,
    "Ġlo": 3123,
    "Ġshelves": 3124,
    "Ġcaptain": 3125,
    "Ġmustache": 3126,
    "ĠNear": 3127,
    "Ġtwigs": 3128,
    "Ġactions": 3129,
    "ĠCome": 3130,
    "ĠPeggy": 3131,
    "edding": 3132,
    "Ġnoise": 3133,
    "ĠCathy": 3134,
    "bble": 3135,
    "Ġmeas": 3136,
    "Ġaud": 3137,
    "ĠAccidents": 3138,
    "Ġembra": 3139,
    "Ġcollap": 3140,
    "Ġhunters": 3141,
    "rap": 3142,
    "Ġtissue": 3143,
    "Ġpol": 3144,
    "ĠWil": 3145,
    "Ġsay": 3146,
    "Ġconcer": 3147,
    "Ġkept": 3148,
    "andra": 3149,
    "Ġgiggles": 3150,
    "Ġhen": 3151,
    "Ġmeaning": 3152,
    "vy": 3153,
    "Ġbark": 3154,
    "Ġprettier": 3155,
    "Ġlimp": 3156,
    "Ġroads": 3157,
    "Ġegg": 3158,
    "Ġpackages": 3159,
    "anger": 3160,
    "ĠBug": 3161,
    "Ġsquirrel": 3162,
    "Ġblew": 3163,
    "Ġencourage": 3164,
    "Ġday": 3165,
    "Ġorganized": 3166,
    "ving": 3167,
    "Anna": 3168,
    "Ġbites": 3169,
    "pping": 3170,
    "Ġvillagers": 3171,
    "Ġwhimpered": 3172,
    "Ġscientist": 3173,
    "rick": 3174,
    "Ġgobbled": 3175,
    "Ġcopy": 3176,
    "Ġmum": 3177,
    "Ġground": 3178,
    "Ġmagaz": 3179,
    "urity": 3180,
    "ring": 3181,
    "Ġcared": 3182,
    "self": 3183,
    "eremy": 3184,
    "ĠKeep": 3185,
    "Ġgrape": 3186,
    "Ġchanged": 3187,
    "ĠPaws": 3188,
    "Hmm": 3189,
    "Ġobserved": 3190,
    "Ġmicrophone": 3191,
    "ept": 3192,
    "Ġplenty": 3193,
    "ĠHerb": 3194,
    "Ġcounter": 3195,
    "Ġshrug": 3196,
    "Ġbracelets": 3197,
    "pen": 3198,
    "Ġhiss": 3199,
    "Ava": 3200,
    "sing": 3201,
    "eter": 3202,
    "Isn": 3203,
    "ĠWo": 3204,
    "Ġcave": 3205,
    "Ġgesture": 3206,
    "Ġcoloured": 3207,
    "Ġdeaf": 3208,
    "Ġdried": 3209,
    "Ġthrone": 3210,
    "Ġgrowl": 3211,
    "Ġwest": 3212,
    "Ġkneeled": 3213,
    "gry": 3214,
    "Ġsnack": 3215,
    "Ġtrade": 3216,
    "Ġmos": 3217,
    "ĠButter": 3218,
    "vin": 3219,
    "Ġtracks": 3220,
    "Ġringing": 3221,
    "Ġpot": 3222,
    "Ġany": 3223,
    "Ġactor": 3224,
    "Ġwatermelon": 3225,
    "Ġbran": 3226,
    "aul": 3227,
    "Ġstruggled": 3228,
    "Ġob": 3229,
    "Ġslid": 3230,
    "Ġchat": 3231,
    "cil": 3232,
    "Ġpor": 3233,
    "Ġfascinating": 3234,
    "Ġclapping": 3235,
    "Ġsun": 3236,
    "rect": 3237,
    "Ġon": 3238,
    "Ġbloomed": 3239,
    "Ġdreamed": 3240,
    "Ġreturning": 3241,
    "Ġgasped": 3242,
    "Ġinvited": 3243,
    "Ġannoyed": 3244,
    "ĠTell": 3245,
    "Ġlines": 3246,
    "Ġgasps": 3247,
    "Ġargued": 3248,
    "Ġste": 3249,
    "Dr": 3250,
    "Ġwid": 3251,
    "Ray": 3252,
    "ĠĊĠ": 3253,
    "Ġchipmunk": 3254,
    "ĠDanny": 3255,
    "Ġlab": 3256,
    "Ġcolorful": 3257,
    "Surpr": 3258,
    "Ġoats": 3259,
    "Alright": 3260,
    "ĠRub": 3261,
    "ĠWelcome": 3262,
    "Ġplug": 3263,
    "ĠBoom": 3264,
    "Ġcloud": 3265,
    "Does": 3266,
    "Ġstudied": 3267,
    "Ġwork": 3268,
    "ĠDog": 3269,
    "Ġchance": 3270,
    "Ġeaten": 3271,
    "Ġhospital": 3272,
    "ations": 3273,
    "Y": 3274,
    "ash": 3275,
    "Rosie": 3276,
    "Ġwriggled": 3277,
    "Ġmast": 3278,
    "Ġsandy": 3279,
    "Ġluckiest": 3280,
    "Ġflower": 3281,
    "Ġbright": 3282,
    "Ġdishes": 3283,
    "ĠLaser": 3284,
    "Ġbold": 3285,
    "Ġobserving": 3286,
    "ool": 3287,
    "Ġfireworks": 3288,
    "est": 3289,
    "il": 3290,
    "round": 3291,
    "Ġharmless": 3292,
    "Ġmagician": 3293,
    "Sharing": 3294,
    "creams": 3295,
    "Ġare": 3296,
    "Ġch": 3297,
    "ama": 3298,
    "Ġadm": 3299,
    "Sc": 3300,
    "Ġprize": 3301,
    "Ġoy": 3302,
    "Ġtents": 3303,
    "beep": 3304,
    "Ġattack": 3305,
    "ounced": 3306,
    "amil": 3307,
    "ley": 3308,
    "Listen": 3309,
    "ual": 3310,
    "very": 3311,
    "Ġtype": 3312,
    "Ġoffer": 3313,
    "Boo": 3314,
    "ick": 3315,
    "Ġeven": 3316,
    "mend": 3317,
    "men": 3318,
    "ĠLily": 3319,
    "Ġsweaty": 3320,
    "Ġup": 3321,
    "Ġshoulder": 3322,
    "Ġaxe": 3323,
    "Ġbrus": 3324,
    "eorge": 3325,
    "ĠQ": 3326,
    "esses": 3327,
    "Ġblast": 3328,
    "Ġbecomes": 3329,
    "Ġbirdcage": 3330,
    "Ġfamous": 3331,
    "ly": 3332,
    "ling": 3333,
    "Ġloyalty": 3334,
    "Ġshrink": 3335,
    "Ġhaving": 3336,
    "chor": 3337,
    "Ġnot": 3338,
    "Ġparticular": 3339,
    "gr": 3340,
    "Ġtalented": 3341,
    "oth": 3342,
    "Brrr": 3343,
    "õ": 3344,
    "ĠChirp": 3345,
    "Ġsneak": 3346,
    "Ġquestioned": 3347,
    "Ġwow": 3348,
    "Ġmemories": 3349,
    "acy": 3350,
    "asing": 3351,
    "Ġrumbling": 3352,
    "out": 3353,
    "Ġscarecrow": 3354,
    "Ġleopard": 3355,
    "Ġbrings": 3356,
    "Ġbelieving": 3357,
    "Ġswallow": 3358,
    "Ġrel": 3359,
    "Ġbel": 3360,
    "ac": 3361,
    "iver": 3362,
    "Ġaccomplishment": 3363,
    "Ġturt": 3364,
    "Ġgrassho": 3365,
    "ans": 3366,
    "Ġstacked": 3367,
    "Ġsea": 3368,
    "Mon": 3369,
    "Ġcap": 3370,
    "ty": 3371,
    "ĠTh": 3372,
    "Ġpowers": 3373,
    "Ġmeans": 3374,
    "Ġchasing": 3375,
    "Ġunderstanding": 3376,
    "ĳ": 3377,
    "tt": 3378,
    "Ġcompl": 3379,
    "Ġcry": 3380,
    "Ġunl": 3381,
    "Ġled": 3382,
    "ully": 3383,
    "Ġholds": 3384,
    "iles": 3385,
    "Ġmischievous": 3386,
    "Ġcheeks": 3387,
    "ĠPast": 3388,
    "ĠMark": 3389,
    "Ġstrawberry": 3390,
    "urb": 3391,
    "ather": 3392,
    "ĠLook": 3393,
    "Ġsnapping": 3394,
    "Ġshaped": 3395,
    "Ġbanging": 3396,
    "Ġloves": 3397,
    "Ġhuman": 3398,
    "Ġsoft": 3399,
    "Ġblock": 3400,
    "Ġrescue": 3401,
    "Ġplaces": 3402,
    "Ġrunner": 3403,
    "Ġcolor": 3404,
    "Ġdisapp": 3405,
    "Ġdump": 3406,
    "Ġget": 3407,
    "Ġmer": 3408,
    "ibbles": 3409,
    "Ġpounced": 3410,
    "Ġpride": 3411,
    "iti": 3412,
    "hest": 3413,
    "Bye": 3414,
    "Ġrules": 3415,
    "Ġscampered": 3416,
    "Ġlunch": 3417,
    "Ġnuzz": 3418,
    "Ġinvites": 3419,
    "Ġpermission": 3420,
    "sc": 3421,
    "Ġwondering": 3422,
    "Ġlooking": 3423,
    "Ġrewarded": 3424,
    "Ġglittering": 3425,
    "Ġwrapping": 3426,
    "Billy": 3427,
    "Ġgaz": 3428,
    "Ġfit": 3429,
    "Ġfoods": 3430,
    "Ġberry": 3431,
    "hi": 3432,
    "oby": 3433,
    "ade": 3434,
    "under": 3435,
    "Ġdone": 3436,
    "Ġwindy": 3437,
    "Ġsand": 3438,
    "Ġteaching": 3439,
    "andas": 3440,
    "Ġlittle": 3441,
    "Ġabout": 3442,
    "Ġtri": 3443,
    "Ġstitches": 3444,
    "Ġslow": 3445,
    "Ġcrawls": 3446,
    "iversity": 3447,
    "ĠHold": 3448,
    "ĠRh": 3449,
    "Ġguys": 3450,
    "Ġfancy": 3451,
    "Ġspins": 3452,
    "Tony": 3453,
    "ĠKevin": 3454,
    "cake": 3455,
    "Ġzoo": 3456,
    "Þ": 3457,
    "ine": 3458,
    "Ġsho": 3459,
    "Ġrelaxed": 3460,
    "Follow": 3461,
    "Ġoutfits": 3462,
    "Ġbending": 3463,
    "Ġfight": 3464,
    "Ġclaw": 3465,
    "ĠSqueaky": 3466,
    "ĠQuack": 3467,
    "Ġsewed": 3468,
    "Ġtroph": 3469,
    "Out": 3470,
    "Ġpuppets": 3471,
    "Ġhat": 3472,
    "Ġfrozen": 3473,
    "ht": 3474,
    "Ġdiscouraged": 3475,
    "Ġabo": 3476,
    "Ġpicture": 3477,
    "urse": 3478,
    "Ġcamera": 3479,
    "Ġspark": 3480,
    "Ġcouch": 3481,
    "Ġpatiently": 3482,
    "ĠThose": 3483,
    "ĠClean": 3484,
    "Ġhouses": 3485,
    "Ġshivered": 3486,
    "Ġsensation": 3487,
    "iron": 3488,
    "anta": 3489,
    "Ġtables": 3490,
    "Ġdressing": 3491,
    "Soon": 3492,
    "«": 3493,
    "hile": 3494,
    "pid": 3495,
    "Ġjewels": 3496,
    "ĠMittens": 3497,
    "Ġsplas": 3498,
    "Ġcandies": 3499,
    "ĠCatty": 3500,
    "ĠGra": 3501,
    "ĠU": 3502,
    "Ġcray": 3503,
    "but": 3504,
    "Ġbackwards": 3505,
    "Ġfetched": 3506,
    "¼": 3507,
    "Ġdown": 3508,
    "Ġblue": 3509,
    "Ġrh": 3510,
    "Ġraked": 3511,
    "Ġtraveling": 3512,
    "ira": 3513,
    "Ġslides": 3514,
    "uct": 3515,
    "ting": 3516,
    "Ġjing": 3517,
    "Ġbring": 3518,
    "dom": 3519,
    "Ġrefrigerator": 3520,
    "Ġwatches": 3521,
    "Ġde": 3522,
    "ĠGood": 3523,
    "Ġkid": 3524,
    "Pandy": 3525,
    "Ġhooves": 3526,
    "ggles": 3527,
    "ating": 3528,
    "ĠTeddy": 3529,
    "Ġwrigg": 3530,
    "Ġever": 3531,
    "Ġreason": 3532,
    "Squ": 3533,
    "ĠTra": 3534,
    "pite": 3535,
    "zie": 3536,
    "Sandy": 3537,
    "Ġslide": 3538,
    "Ġdot": 3539,
    "lem": 3540,
    "ĠTomorrow": 3541,
    "Ġolder": 3542,
    "lf": 3543,
    "Ġsolved": 3544,
    "shaped": 3545,
    "Ġrowed": 3546,
    "uth": 3547,
    "Ġcans": 3548,
    "ĠJump": 3549,
    "Ġtook": 3550,
    "repeat": 3551,
    "Ġfu": 3552,
    "ĠWait": 3553,
    "Ġslim": 3554,
    "Ġteddy": 3555,
    "Instead": 3556,
    "Ġfinished": 3557,
    "Ġcompassionate": 3558,
    "Ġband": 3559,
    "ĠRocky": 3560,
    "Ġcausing": 3561,
    "Ġtalk": 3562,
    "ĠKing": 3563,
    "Ġclearly": 3564,
    "Ducky": 3565,
    "Ġy": 3566,
    "ay": 3567,
    "Ġa": 3568,
    "ank": 3569,
    "Ġoutside": 3570,
    "Ġvillag": 3571,
    "âĢľ": 3572,
    "Ġdrop": 3573,
    "Ġn": 3574,
    "Ġpower": 3575,
    "Ġcart": 3576,
    "ĠEx": 3577,
    "Ġtruck": 3578,
    "nger": 3579,
    "Ġgrateful": 3580,
    "Ġwr": 3581,
    "ater": 3582,
    "-": 3583,
    "ĠKate": 3584,
    "John": 3585,
    "Jane": 3586,
    "Ġpup": 3587,
    "Ġfantastic": 3588,
    "ĠMikey": 3589,
    "Ġdifficult": 3590,
    "Ġspun": 3591,
    "indr": 3592,
    "Ġavailable": 3593,
    "Ġthat": 3594,
    "ĠOliver": 3595,
    "Ġbathrobe": 3596,
    "Ġeats": 3597,
    "ise": 3598,
    "Ġability": 3599,
    "Ġcomforting": 3600,
    "Ġzebra": 3601,
    "amma": 3602,
    "Ġspeaking": 3603,
    "Ĵ": 3604,
    "Ġhappen": 3605,
    "Ġartwork": 3606,
    "Ġbellies": 3607,
    "stick": 3608,
    "walk": 3609,
    "Ġtree": 3610,
    "Ġrecognized": 3611,
    "Ġbubbly": 3612,
    "Ġlets": 3613,
    "Ġcomes": 3614,
    "Ġbeast": 3615,
    "Ġpoured": 3616,
    "Ġsecond": 3617,
    "Ġsides": 3618,
    "amber": 3619,
    "ĠMindy": 3620,
    "Ġhops": 3621,
    "Ġbrothers": 3622,
    "box": 3623,
    "ĠMother": 3624,
    "ĠElly": 3625,
    "Ġclear": 3626,
    ".\"": 3627,
    "agull": 3628,
    "Ġkitty": 3629,
    "ails": 3630,
    "pr": 3631,
    "Ġuncle": 3632,
    "Ġvehicle": 3633,
    "Zoom": 3634,
    "bed": 3635,
    "eed": 3636,
    "Ġbow": 3637,
    "Ġsteer": 3638,
    "Ġple": 3639,
    "Ġscooters": 3640,
    "Ġhay": 3641,
    "ugar": 3642,
    "Ġhaircut": 3643,
    "Ġsear": 3644,
    "Ġth": 3645,
    "Ġprotected": 3646,
    "Ġfollow": 3647,
    "Ġfeelings": 3648,
    "Ġsquare": 3649,
    "Annie": 3650,
    "Ġfavor": 3651,
    "Ġbarely": 3652,
    "Ġlay": 3653,
    "Ġtw": 3654,
    "Ahoy": 3655,
    "Ġexploring": 3656,
    "ĠAre": 3657,
    "Ġfireman": 3658,
    "Ġefforts": 3659,
    "ich": 3660,
    "Ġspiky": 3661,
    "ĠMint": 3662,
    "Ġpuzzles": 3663,
    "Ġneighbor": 3664,
    "Ġleader": 3665,
    "Ġhawk": 3666,
    "Ġready": 3667,
    "Ġstacks": 3668,
    "Ġpossess": 3669,
    "Ġwedding": 3670,
    "ssss": 3671,
    "Ġvanished": 3672,
    "Ġbeen": 3673,
    "Ġcareful": 3674,
    "ĠZ": 3675,
    "Ġyummy": 3676,
    "iece": 3677,
    "C": 3678,
    "Ġexpress": 3679,
    "Ġfence": 3680,
    "Ġburning": 3681,
    "ĠJenny": 3682,
    "ĠBoth": 3683,
    "Ġwaters": 3684,
    "board": 3685,
    "Ġbuckled": 3686,
    "Ġbouncing": 3687,
    "if": 3688,
    "Zip": 3689,
    "Ġsometimes": 3690,
    "Ġdrown": 3691,
    "Ġdanc": 3692,
    "Ġscreaming": 3693,
    "Ġtwir": 3694,
    "Ġwoodcut": 3695,
    "Ġfell": 3696,
    "ucture": 3697,
    "ĠMike": 3698,
    "Ġanticip": 3699,
    "Ġcre": 3700,
    "Too": 3701,
    "Ġachie": 3702,
    "Ġpirates": 3703,
    "Ġpebb": 3704,
    "Ġamazement": 3705,
    "Ġpause": 3706,
    "lish": 3707,
    "Bless": 3708,
    "ĠDon": 3709,
    "Ahh": 3710,
    "Ġcl": 3711,
    "Ġgenie": 3712,
    "Ġbubb": 3713,
    "Ġsafari": 3714,
    "ĠSuper": 3715,
    "stic": 3716,
    "Ġsnowy": 3717,
    "Ġflavor": 3718,
    "Ġtil": 3719,
    "Binky": 3720,
    "Ġbothered": 3721,
    "Ġmud": 3722,
    "Ġlights": 3723,
    "?\"": 3724,
    "ĠKatie": 3725,
    "ishes": 3726,
    "Ġnothing": 3727,
    "ome": 3728,
    "Ġapproached": 3729,
    "Ġplate": 3730,
    "ising": 3731,
    "al": 3732,
    "Ġpitch": 3733,
    "Ġcott": 3734,
    "ĠIf": 3735,
    "irring": 3736,
    "ĠSugar": 3737,
    "Ġtightly": 3738,
    "Ġsurvive": 3739,
    "Ġtoilet": 3740,
    "Ġopening": 3741,
    "Only": 3742,
    "Ġrepeating": 3743,
    "Ġscurrying": 3744,
    "arl": 3745,
    "ĠWisdom": 3746,
    "Ġerase": 3747,
    "Ú": 3748,
    "onest": 3749,
    "Ġbrid": 3750,
    "Ġtricks": 3751,
    "Ġstickers": 3752,
    "ĠBibi": 3753,
    "Ġattempts": 3754,
    "Ġsuch": 3755,
    "ĠMouse": 3756,
    "Ġyounger": 3757,
    "Ġskeleton": 3758,
    "ait": 3759,
    "Dave": 3760,
    "Ġdeserved": 3761,
    "ĠAn": 3762,
    "ê": 3763,
    "uring": 3764,
    "Ġmuff": 3765,
    "Ġblocks": 3766,
    "uddles": 3767,
    "Ġfields": 3768,
    "Ġind": 3769,
    "Ġadmired": 3770,
    "Ġrubbish": 3771,
    "icy": 3772,
    "ol": 3773,
    "Ġwobble": 3774,
    "Ġsprinkle": 3775,
    "Put": 3776,
    "ĠKit": 3777,
    "ĠâĢĺ": 3778,
    "Ġrushing": 3779,
    "Ġvests": 3780,
    "joyed": 3781,
    "ĠDuck": 3782,
    "Ġhabit": 3783,
    "Grace": 3784,
    "Ġback": 3785,
    "Mira": 3786,
    "Ġaround": 3787,
    "Ġnewsp": 3788,
    "Ġripped": 3789,
    "ades": 3790,
    "ĠTurt": 3791,
    "Ġfrogs": 3792,
    "Ġcontain": 3793,
    "ĠBubu": 3794,
    "Ġastronauts": 3795,
    "Ġquacked": 3796,
    "ĠMila": 3797,
    "Ġusual": 3798,
    "ricane": 3799,
    "Ġbeetles": 3800,
    "Ġrough": 3801,
    "Ġcatches": 3802,
    "alf": 3803,
    "ĠOK": 3804,
    "ĠBerry": 3805,
    "Ġcurtains": 3806,
    "Ġdead": 3807,
    "Moral": 3808,
    "ron": 3809,
    "ragon": 3810,
    "Ġfound": 3811,
    "Ġletter": 3812,
    "Do": 3813,
    "Ġhistory": 3814,
    "Ġgenerous": 3815,
    "Ġagain": 3816,
    "Ġperf": 3817,
    "irsty": 3818,
    "Stay": 3819,
    "Ġflute": 3820,
    "Joey": 3821,
    "ĠEls": 3822,
    "Ġbought": 3823,
    "Ġrem": 3824,
    "Ġnotice": 3825,
    "Ġsnowflake": 3826,
    "go": 3827,
    "Jessica": 3828,
    "Ġengines": 3829,
    "Ġladybug": 3830,
    "Leo": 3831,
    "Ġplanes": 3832,
    "Ġbehind": 3833,
    "Ġspin": 3834,
    "Ġtouching": 3835,
    "Find": 3836,
    "Beep": 3837,
    "un": 3838,
    "Ġcomputer": 3839,
    "Ġgross": 3840,
    "ors": 3841,
    "Ġeverything": 3842,
    "Ġpracticing": 3843,
    "Ġloved": 3844,
    "ĠSofty": 3845,
    "Ġclub": 3846,
    "ital": 3847,
    "Ġscene": 3848,
    "Ġparks": 3849,
    "ended": 3850,
    "by": 3851,
    "Ġcries": 3852,
    "repe": 3853,
    "asket": 3854,
    "Ġcautious": 3855,
    "Fifi": 3856,
    "Ġlater": 3857,
    "ha": 3858,
    "Ġbet": 3859,
    "Ġslips": 3860,
    "Ġagre": 3861,
    "Ġquickly": 3862,
    "Ġstubborn": 3863,
    "Ġpuppy": 3864,
    "Ġfleas": 3865,
    "Ġworker": 3866,
    "Tiny": 3867,
    "ined": 3868,
    "Ġactiv": 3869,
    "Ġstreamers": 3870,
    "Ġsuits": 3871,
    "Ġunknown": 3872,
    "Ġweird": 3873,
    "Ġsights": 3874,
    "Ġnapkin": 3875,
    "Ġamong": 3876,
    "Ġvictory": 3877,
    "ĠOl": 3878,
    "Ġrescuing": 3879,
    "Ġride": 3880,
    "ĠOr": 3881,
    "ednesday": 3882,
    "Ġfive": 3883,
    "ĠPh": 3884,
    "Ġexplored": 3885,
    "Ġjunk": 3886,
    "Ġrewards": 3887,
    "Ġlend": 3888,
    "Luna": 3889,
    "Ġseagull": 3890,
    "Ġdecor": 3891,
    "Ġpool": 3892,
    "Buzz": 3893,
    "Ġignore": 3894,
    "Ġforgives": 3895,
    "worm": 3896,
    "Ġstr": 3897,
    "omobile": 3898,
    "ety": 3899,
    "pit": 3900,
    "Ġimagined": 3901,
    "Ġstronger": 3902,
    "osity": 3903,
    "ĠJu": 3904,
    "Ġorgan": 3905,
    "Ġshock": 3906,
    "isions": 3907,
    "Ì": 3908,
    "ked": 3909,
    "ĠMoo": 3910,
    "ĠTrue": 3911,
    "poison": 3912,
    "Ġthrough": 3913,
    "Ġdiscuss": 3914,
    "ĠAlex": 3915,
    "Ġsobbing": 3916,
    "Ġmole": 3917,
    "ow": 3918,
    "ry": 3919,
    "ĠHel": 3920,
    "Toby": 3921,
    "Ġred": 3922,
    "Surrender": 3923,
    "*": 3924,
    "Ġneighbour": 3925,
    "Ġse": 3926,
    "Ġlic": 3927,
    "Ġcand": 3928,
    "Ġus": 3929,
    "Ġnuts": 3930,
    "Eventually": 3931,
    "ĠRon": 3932,
    "ebecca": 3933,
    "ung": 3934,
    "Ġopin": 3935,
    "Behind": 3936,
    "urpr": 3937,
    "Ġfragile": 3938,
    "People": 3939,
    "Ġban": 3940,
    "Ġpolice": 3941,
    "ides": 3942,
    "Ġsofa": 3943,
    "ĠLand": 3944,
    "Ġfabric": 3945,
    "Ġsweeter": 3946,
    "mer": 3947,
    "aty": 3948,
    "Ġloses": 3949,
    "Ġuses": 3950,
    "Ġdived": 3951,
    "age": 3952,
    "Ġbows": 3953,
    "aint": 3954,
    "Ħ": 3955,
    "Ġho": 3956,
    "Ġfile": 3957,
    "ches": 3958,
    "Ġsome": 3959,
    "Abracadabra": 3960,
    "Ġpressing": 3961,
    "Ġwand": 3962,
    "erpiece": 3963,
    "Ġtablet": 3964,
    "Ġyoungest": 3965,
    "Ġcall": 3966,
    "Ġpan": 3967,
    "Ġunh": 3968,
    "Ġlions": 3969,
    "Ġround": 3970,
    "ĠLung": 3971,
    "Ġgasp": 3972,
    "Ġsoil": 3973,
    "Ġpaused": 3974,
    "Ġfaith": 3975,
    "Ġcompet": 3976,
    "ccer": 3977,
    "Ġfluttering": 3978,
    "Ġhimself": 3979,
    "ĠHo": 3980,
    "Ġgrocery": 3981,
    "Ġsalty": 3982,
    "Ġwhine": 3983,
    "±": 3984,
    "Ġret": 3985,
    "Ġenv": 3986,
    "ĠPup": 3987,
    "Ġshap": 3988,
    "Ġgently": 3989,
    "Ġerasers": 3990,
    "ĠBarry": 3991,
    "ĠKay": 3992,
    "Ġhalf": 3993,
    "Ġwhile": 3994,
    "ĠCarla": 3995,
    "ĠMuffin": 3996,
    "ĠEven": 3997,
    "Ġalways": 3998,
    "Ġnightmares": 3999,
    "Ġappreciation": 4000,
    "ĠAlthough": 4001,
    "Ġsaf": 4002,
    "Ġbumps": 4003,
    "fa": 4004,
    "opl": 4005,
    "Ġsoon": 4006,
    "Ġporch": 4007,
    "Ġfind": 4008,
    "oming": 4009,
    "lt": 4010,
    "Ġstacking": 4011,
    "Ġdancing": 4012,
    "iki": 4013,
    "Ġtaped": 4014,
    "arent": 4015,
    "Ġskunk": 4016,
    "Ġshake": 4017,
    "Ġigloo": 4018,
    "Ġfiref": 4019,
    "Ġhates": 4020,
    "°": 4021,
    "Ġstore": 4022,
    "ĠHow": 4023,
    "rm": 4024,
    "ĠMilo": 4025,
    "Ġsolve": 4026,
    "Ġhonk": 4027,
    "ou": 4028,
    "Ġseesaw": 4029,
    "Ġmar": 4030,
    "Ġdrum": 4031,
    "ared": 4032,
    "ĠRos": 4033,
    "Ġtail": 4034,
    "otte": 4035,
    "Ġdelicious": 4036,
    "Ġsweetly": 4037,
    "icing": 4038,
    "ß": 4039,
    "Ġnodded": 4040,
    "Ġdiamond": 4041,
    "Mrs": 4042,
    "Ġtom": 4043,
    "Ġendings": 4044,
    "Ġcuc": 4045,
    "Ġnetwork": 4046,
    "ĠBear": 4047,
    "Ġstarted": 4048,
    "Ġcover": 4049,
    "Ġsett": 4050,
    "Sad": 4051,
    "amiliar": 4052,
    "Ġfurniture": 4053,
    "th": 4054,
    "Ġpassengers": 4055,
    "come": 4056,
    "Ġsurprises": 4057,
    "Ġcaps": 4058,
    "ä": 4059,
    "allow": 4060,
    "Ġswan": 4061,
    "Ġinfant": 4062,
    "Ġdefe": 4063,
    "Ġext": 4064,
    "Ġwaved": 4065,
    "Ġcub": 4066,
    "Ġsuccessfully": 4067,
    "ĠAt": 4068,
    "Okay": 4069,
    "Ġshattered": 4070,
    "!âĢĿ": 4071,
    "Ġhelicopter": 4072,
    "oke": 4073,
    "Ġtearing": 4074,
    "ĠSnuggles": 4075,
    "Ġexplo": 4076,
    "Ġval": 4077,
    "Ġranch": 4078,
    "Ġrubber": 4079,
    "Ġseller": 4080,
    "Ġketchup": 4081,
    "Ġtoys": 4082,
    "Ġpic": 4083,
    "Ġremote": 4084,
    "Ġagrees": 4085,
    "ĠSimon": 4086,
    "ners": 4087,
    "Thank": 4088,
    "Ġinstruct": 4089,
    "irac": 4090,
    "one": 4091,
    "Ġwinner": 4092,
    "river": 4093,
    "Ġdisappoint": 4094,
    "Ġin": 4095,
    "Ġbrushed": 4096,
    "to": 4097,
    "Ġwithin": 4098,
    "Ġlike": 4099,
    "us": 4100,
    "ĠBr": 4101,
    "ately": 4102,
    "etchup": 4103,
    "ĠBa": 4104,
    "Tom": 4105,
    "Ġsne": 4106,
    "Ġscrewd": 4107,
    "ig": 4108,
    "Ġtrembling": 4109,
    "Ġshows": 4110,
    "alth": 4111,
    "Ġenemy": 4112,
    "astic": 4113,
    "Keep": 4114,
    "Ġdisobey": 4115,
    "Miss": 4116,
    "Ġpeppers": 4117,
    "Br": 4118,
    "Ġbelts": 4119,
    "Ġflour": 4120,
    "Ġhole": 4121,
    "Ġcommun": 4122,
    "Ġreapp": 4123,
    "Ġnam": 4124,
    "ĠBouncy": 4125,
    "Ġexpression": 4126,
    "ĠSusie": 4127,
    "alend": 4128,
    "Ġhurting": 4129,
    "Ġfrown": 4130,
    "Ġteeth": 4131,
    "ored": 4132,
    "Ġneck": 4133,
    "Ġbutter": 4134,
    "Ġmuscles": 4135,
    "Ġwalks": 4136,
    "net": 4137,
    "Ġgrate": 4138,
    "set": 4139,
    "Ġlick": 4140,
    "Ralph": 4141,
    "Ġcheerfully": 4142,
    "ancy": 4143,
    "Ġpour": 4144,
    "yth": 4145,
    "Ġgrandma": 4146,
    "Ġsmiles": 4147,
    "Ġtaste": 4148,
    "Ġaccidentally": 4149,
    "Ġgirl": 4150,
    "Ġagainst": 4151,
    "Ġland": 4152,
    "ĠToys": 4153,
    "Ġsupport": 4154,
    "Ġtaught": 4155,
    "Ġpearls": 4156,
    "ĠRazor": 4157,
    "Ġarranged": 4158,
    "Ġblond": 4159,
    "Ġswayed": 4160,
    "ato": 4161,
    "erpill": 4162,
    "Ġhair": 4163,
    "Ġacting": 4164,
    "Ġhesit": 4165,
    "Ġscent": 4166,
    "Elly": 4167,
    "Ġsnake": 4168,
    "aser": 4169,
    "Ġnearest": 4170,
    "issa": 4171,
    "Ġbake": 4172,
    "Ġmatching": 4173,
    "Ġpoked": 4174,
    "Ġfixer": 4175,
    "Ġtied": 4176,
    "llo": 4177,
    "ĠChicky": 4178,
    "Ġspilling": 4179,
    "Ġchubby": 4180,
    "Ġ": 4181,
    "Ġmass": 4182,
    "ĠNext": 4183,
    "Ġincred": 4184,
    "Ġhoops": 4185,
    "Bird": 4186,
    "mb": 4187,
    "rnie": 4188,
    "Ġenvelopes": 4189,
    "isible": 4190,
    "2": 4191,
    "Ġgrabs": 4192,
    "crow": 4193,
    "Ġcookies": 4194,
    "Ġhor": 4195,
    "Ġaut": 4196,
    "Ġglow": 4197,
    "ĠPlease": 4198,
    "Ġdisg": 4199,
    "Ġresc": 4200,
    "Ġgazing": 4201,
    "Ġunz": 4202,
    "ĠBlack": 4203,
    "Ġjungle": 4204,
    "Ġnut": 4205,
    "chair": 4206,
    "Ġashamed": 4207,
    "Ġnurses": 4208,
    "Ġbackward": 4209,
    "Ġotter": 4210,
    "Ġreminding": 4211,
    "Ġstu": 4212,
    "ĠAva": 4213,
    "Ġwraps": 4214,
    "Ġairpl": 4215,
    "umble": 4216,
    "Ġnoticed": 4217,
    "ù": 4218,
    "Ġmelt": 4219,
    "Ġavocados": 4220,
    "aisies": 4221,
    "_": 4222,
    "Ġtops": 4223,
    "Ġtie": 4224,
    "Owl": 4225,
    "reci": 4226,
    "Ġwatched": 4227,
    "abra": 4228,
    "aky": 4229,
    "Ġcomfy": 4230,
    "è": 4231,
    "Ġmug": 4232,
    "vest": 4233,
    "Ġshopkeeper": 4234,
    "Ġlouder": 4235,
    "nn": 4236,
    "Ġcircles": 4237,
    "Ġneare": 4238,
    "una": 4239,
    "',": 4240,
    "Ġpassed": 4241,
    "ichael": 4242,
    "ser": 4243,
    "Ġpleas": 4244,
    "Ġwind": 4245,
    "Ġstamps": 4246,
    "Ġremained": 4247,
    "Ġflav": 4248,
    "Ġfreed": 4249,
    "Ġhorse": 4250,
    "Ġlollipop": 4251,
    "Ġalligators": 4252,
    "shadow": 4253,
    "ĠRusty": 4254,
    "king": 4255,
    "u": 4256,
    "Where": 4257,
    "ĠQuacky": 4258,
    "³": 4259,
    "udd": 4260,
    "Ġcheer": 4261,
    "isty": 4262,
    "issors": 4263,
    "Ġdiscussed": 4264,
    "ĠBingo": 4265,
    "Ġblouse": 4266,
    "Ġwhere": 4267,
    "Ġbridges": 4268,
    "Ġremind": 4269,
    "ĠMae": 4270,
    "Ġwarn": 4271,
    "Ġsnapped": 4272,
    "ars": 4273,
    "Ġfact": 4274,
    "Ġquilt": 4275,
    "ppies": 4276,
    "ĠWho": 4277,
    "ĠTuna": 4278,
    "Ġlower": 4279,
    "Ġwelcoming": 4280,
    "inkle": 4281,
    "Ġintroduced": 4282,
    "Ġwatering": 4283,
    "ĠMin": 4284,
    "Ġrings": 4285,
    "Ġtapping": 4286,
    "Ġpears": 4287,
    "Peter": 4288,
    "ĠHop": 4289,
    "Ġchecked": 4290,
    "Ġchopping": 4291,
    "Ġcertainly": 4292,
    "Ġexample": 4293,
    "ilities": 4294,
    "Ġlunchtime": 4295,
    "Ġeasy": 4296,
    "Ġgym": 4297,
    "Ġmeadow": 4298,
    "Both": 4299,
    "Ġclut": 4300,
    "Ġenergetic": 4301,
    "ge": 4302,
    "osaur": 4303,
    "Ġwat": 4304,
    "Ġcow": 4305,
    "Ġflexible": 4306,
    "Ġcloses": 4307,
    "ss": 4308,
    "Ġexperien": 4309,
    "Ġpotato": 4310,
    "Ġintroduc": 4311,
    "iss": 4312,
    "Ġguessing": 4313,
    "aps": 4314,
    "Ġchildren": 4315,
    "ĠCats": 4316,
    "Ġargument": 4317,
    "Ġshouts": 4318,
    "Ġfires": 4319,
    "Ġfloats": 4320,
    "thank": 4321,
    "Ġgloves": 4322,
    "ises": 4323,
    "Ġproblem": 4324,
    "Ġwe": 4325,
    "rily": 4326,
    "Ġsounds": 4327,
    "Ġbarber": 4328,
    "Ġlicense": 4329,
    "Ġpasses": 4330,
    "Ġslowed": 4331,
    "Ġpresent": 4332,
    "fied": 4333,
    "Ġstrugg": 4334,
    "ĠLuna": 4335,
    "Ġload": 4336,
    "Charlie": 4337,
    "Ġpractice": 4338,
    "Ġpig": 4339,
    "x": 4340,
    "Ġbutton": 4341,
    "qu": 4342,
    "ĠJe": 4343,
    "Ġpassing": 4344,
    "Ġstudents": 4345,
    "Ġfirefighter": 4346,
    "Ġplates": 4347,
    "uest": 4348,
    "Ġwearing": 4349,
    "rigerator": 4350,
    "ĠPippin": 4351,
    "ĠFly": 4352,
    "Ġcalmer": 4353,
    "Ġbarked": 4354,
    "Ġtap": 4355,
    "Ġact": 4356,
    "nt": 4357,
    "Ġsquinted": 4358,
    "Ġseen": 4359,
    "Ġstrike": 4360,
    "Ġplot": 4361,
    "Ġguests": 4362,
    "Ġemerged": 4363,
    "Ġhesitation": 4364,
    "Ġsqueezed": 4365,
    "Ġpriv": 4366,
    "Ġbeet": 4367,
    "Ġmistake": 4368,
    "fit": 4369,
    "Ġsight": 4370,
    "Ġopen": 4371,
    "Jake": 4372,
    "Ġreplace": 4373,
    "Ġtoothbrush": 4374,
    "Ġunfamiliar": 4375,
    "Ġstove": 4376,
    "ĠFoxy": 4377,
    "Ġdesserts": 4378,
    "ats": 4379,
    "Ġdentist": 4380,
    "Ġflow": 4381,
    "Ġlever": 4382,
    "Ġnewfound": 4383,
    "ĠSil": 4384,
    "Ġr": 4385,
    "Ġpulling": 4386,
    "Ġsquashes": 4387,
    "ĠWoof": 4388,
    "6": 4389,
    "Fin": 4390,
    "ĠBe": 4391,
    "Gina": 4392,
    "ĠTommy": 4393,
    "Ġbeside": 4394,
    "itting": 4395,
    "Ġtreasure": 4396,
    "Ġbrushes": 4397,
    "Ġdusty": 4398,
    "Ġshy": 4399,
    "Ġif": 4400,
    "our": 4401,
    "Ġlizards": 4402,
    "Ġconfidence": 4403,
    "band": 4404,
    "Ġey": 4405,
    "ola": 4406,
    "Ġclip": 4407,
    "Ġlevers": 4408,
    "After": 4409,
    "ĠBop": 4410,
    "Ġstructure": 4411,
    "Ġfeeding": 4412,
    "ĠMousy": 4413,
    "Ġvanilla": 4414,
    "lling": 4415,
    "pper": 4416,
    "Ġrestore": 4417,
    "Ġthese": 4418,
    "©": 4419,
    "Ġagree": 4420,
    "verse": 4421,
    "Ġbench": 4422,
    "Ġsail": 4423,
    "umbers": 4424,
    "sorry": 4425,
    "Ġlotion": 4426,
    "Ġsweets": 4427,
    "Ġdisco": 4428,
    "Ġgreet": 4429,
    "Ġturn": 4430,
    "ĠNora": 4431,
    "ĠChewy": 4432,
    "Ġperfume": 4433,
    "Ġfits": 4434,
    "Ġcle": 4435,
    "Ġtrains": 4436,
    "Ġpr": 4437,
    "Ġstamped": 4438,
    "Ġ4": 4439,
    "Ġcleaning": 4440,
    "Ġunited": 4441,
    "im": 4442,
    "de": 4443,
    "ighting": 4444,
    "Ġintrigued": 4445,
    "Ġroots": 4446,
    "Ġlesson": 4447,
    "Ġtime": 4448,
    "Ġtheirs": 4449,
    "Ġhook": 4450,
    "Ġsomeday": 4451,
    "Still": 4452,
    "ĠStartled": 4453,
    "Ġimproving": 4454,
    "Ġdances": 4455,
    "Ġdared": 4456,
    "Ġtimid": 4457,
    "ĠZara": 4458,
    "loo": 4459,
    "ecting": 4460,
    "Ġpretends": 4461,
    "Ý": 4462,
    "Mommy": 4463,
    "Ġsold": 4464,
    "Ġlawn": 4465,
    "Ġcrawled": 4466,
    "Ġcrept": 4467,
    "ons": 4468,
    "Ġbreathed": 4469,
    "ĠOxygen": 4470,
    "Ġright": 4471,
    "ĠAbby": 4472,
    "Ġfights": 4473,
    "Ġclosing": 4474,
    "Ġapples": 4475,
    "Ġinter": 4476,
    "ĠAngel": 4477,
    "Ġscold": 4478,
    "Ġheaven": 4479,
    "omas": 4480,
    "Ġtask": 4481,
    "Ġiron": 4482,
    "Ġim": 4483,
    "ĠSnow": 4484,
    "Ġprun": 4485,
    "Ġweapon": 4486,
    "?âĢĿ": 4487,
    "Ġcubes": 4488,
    "Ă": 4489,
    "Ġsometime": 4490,
    "Ġinsisted": 4491,
    "wel": 4492,
    "Ġma": 4493,
    "rac": 4494,
    "Ah": 4495,
    "Millie": 4496,
    "Ġextraordinary": 4497,
    "Ġentered": 4498,
    "ĠPrince": 4499,
    "Ġboards": 4500,
    "Ġstay": 4501,
    "ffee": 4502,
    "pect": 4503,
    "Ġcreate": 4504,
    "ĠEm": 4505,
    "Ġhappily": 4506,
    "Ġskull": 4507,
    "Ġremembering": 4508,
    "Ġplayhouse": 4509,
    "Ġtighter": 4510,
    "Ġbuckles": 4511,
    "Ġwinked": 4512,
    "era": 4513,
    "Ġtractor": 4514,
    "munk": 4515,
    "ĠSunny": 4516,
    "Ġbrain": 4517,
    "Ġcompeting": 4518,
    "ŀ": 4519,
    "Ġmention": 4520,
    "Ġwool": 4521,
    "Ġpress": 4522,
    "Ġgerms": 4523,
    "Ġbare": 4524,
    "Ġlife": 4525,
    "Ġthough": 4526,
    "ĠDaddy": 4527,
    "Ġscur": 4528,
    "Ġtrap": 4529,
    "quake": 4530,
    "Ġcube": 4531,
    "app": 4532,
    "`": 4533,
    "Ġyoga": 4534,
    "eet": 4535,
    "read": 4536,
    "ĠJax": 4537,
    "ĠBuzz": 4538,
    "Ġsweetest": 4539,
    "Ġsmart": 4540,
    "Ġfeathers": 4541,
    "Ġwise": 4542,
    "Ġav": 4543,
    "Ġtra": 4544,
    "Ġpetted": 4545,
    "Ġank": 4546,
    "į": 4547,
    "Ġscales": 4548,
    "ric": 4549,
    "Ġbunch": 4550,
    "Ġcrow": 4551,
    "ĠOut": 4552,
    "Ġsteady": 4553,
    "een": 4554,
    "Ġembarrassed": 4555,
    "Ġhot": 4556,
    "bell": 4557,
    "Ġsuitcase": 4558,
    "Ġaim": 4559,
    "Ġingredient": 4560,
    "Ġdro": 4561,
    "Ġleash": 4562,
    "Ġmailed": 4563,
    "Ġprove": 4564,
    "Ġhere": 4565,
    "Ġrin": 4566,
    "Ġgarage": 4567,
    "Ġmouth": 4568,
    "Ġexercises": 4569,
    "Ġpets": 4570,
    "ney": 4571,
    "Ġtuck": 4572,
    "Ġflag": 4573,
    "ĊĠ": 4574,
    "Ġpeeks": 4575,
    "Ġpin": 4576,
    "Ġand": 4577,
    "Ġwherever": 4578,
    "ĠMo": 4579,
    "Ġspec": 4580,
    "Ġsnuggle": 4581,
    "ĠRobby": 4582,
    "Ġbookcase": 4583,
    "guess": 4584,
    "Ġcluck": 4585,
    "ure": 4586,
    "Ġkangaroos": 4587,
    "Ġpossible": 4588,
    "Ġcurl": 4589,
    "Ġapproach": 4590,
    "Ġlessons": 4591,
    "Ġoven": 4592,
    "Ġmixer": 4593,
    "Ġbroom": 4594,
    "bage": 4595,
    "Ġwrong": 4596,
    "Ġtraveled": 4597,
    "Ġguess": 4598,
    "uper": 4599,
    "ĠBunny": 4600,
    "Ġhealed": 4601,
    "Sometimes": 4602,
    "Ġrefle": 4603,
    "Ġlive": 4604,
    "Ġescaped": 4605,
    "Ġblooming": 4606,
    "Ġyou": 4607,
    "Ġkey": 4608,
    "Ġwre": 4609,
    "Ġtested": 4610,
    "Ġsp": 4611,
    "ĠStan": 4612,
    "otten": 4613,
    "Ġposter": 4614,
    "ĠWhich": 4615,
    "illa": 4616,
    "Ġwig": 4617,
    "Ġfigures": 4618,
    "ies": 4619,
    "Ġhonked": 4620,
    "ĠBilly": 4621,
    "Ġrefuse": 4622,
    "ae": 4623,
    "Ġdi": 4624,
    "O": 4625,
    "Cat": 4626,
    "Ġhorns": 4627,
    "Ġcushion": 4628,
    "ĠEarth": 4629,
    "ongrat": 4630,
    "Am": 4631,
    "orking": 4632,
    "tain": 4633,
    "br": 4634,
    "Ġjud": 4635,
    "Ġline": 4636,
    "Ġfactory": 4637,
    "Ġanywhere": 4638,
    "ĠLou": 4639,
    "Ġpattern": 4640,
    "Ġastronaut": 4641,
    "ĠKim": 4642,
    "Ġbe": 4643,
    "Ġpersist": 4644,
    "Ġow": 4645,
    "ĠSuzy": 4646,
    "Ġtroll": 4647,
    "Ġsolution": 4648,
    "ĠChr": 4649,
    "Ġpretending": 4650,
    "cut": 4651,
    "bbie": 4652,
    "Ġskip": 4653,
    "Ġstick": 4654,
    "Ġdisag": 4655,
    "Ġincluded": 4656,
    "ened": 4657,
    "Ġthin": 4658,
    "Ġformed": 4659,
    "illed": 4660,
    "hes": 4661,
    "Ġshorts": 4662,
    "Ġpurr": 4663,
    "Deal": 4664,
    "ĠOf": 4665,
    "Ġexercise": 4666,
    "Ġcaw": 4667,
    "Ġbecause": 4668,
    "Ġsi": 4669,
    "Ġclumsy": 4670,
    "ĠTri": 4671,
    "Ġskin": 4672,
    "ower": 4673,
    "Ġfinally": 4674,
    "ĠPippa": 4675,
    "Ġdirections": 4676,
    "hew": 4677,
    "Ġlean": 4678,
    "Ġbeautifully": 4679,
    "arge": 4680,
    "arp": 4681,
    "Ġchar": 4682,
    "Ġran": 4683,
    "althy": 4684,
    "Ġbored": 4685,
    "Ġtrash": 4686,
    "ible": 4687,
    "ccol": 4688,
    "Ġbabies": 4689,
    "Ġperfect": 4690,
    "Ġink": 4691,
    "Ġad": 4692,
    "Ġhighest": 4693,
    "ĠOlivia": 4694,
    "Ġseeing": 4695,
    "Ġancient": 4696,
    "Ġcolours": 4697,
    "Roar": 4698,
    "Ġlanding": 4699,
    "llipop": 4700,
    "Ġsigns": 4701,
    "oney": 4702,
    "ĠBuddy": 4703,
    "Ġspike": 4704,
    "Ġag": 4705,
    "itely": 4706,
    "Ġyawn": 4707,
    "ĠA": 4708,
    "Ġwaves": 4709,
    "ied": 4710,
    "orth": 4711,
    "Ġmeow": 4712,
    "ĠCher": 4713,
    "Ġrushed": 4714,
    "Ġdelay": 4715,
    "Ġclose": 4716,
    "Ġventured": 4717,
    "rious": 4718,
    "ebra": 4719,
    "Ġmerry": 4720,
    "Ġtalent": 4721,
    "Ġsalon": 4722,
    "Ĕ": 4723,
    "Ġrepeated": 4724,
    "Ġinvest": 4725,
    "Ġpeeled": 4726,
    "Ġunder": 4727,
    "Ġskies": 4728,
    "Sp": 4729,
    "able": 4730,
    "Ġexperiences": 4731,
    "es": 4732,
    "ĠNavy": 4733,
    "Ġleapt": 4734,
    "Ġdragged": 4735,
    "Ġmatey": 4736,
    "Ġsqu": 4737,
    "Ġbegged": 4738,
    "alloween": 4739,
    "Ġwarning": 4740,
    "ĠFire": 4741,
    "Ġfinishes": 4742,
    "Ġsleepy": 4743,
    "Ġplanets": 4744,
    "ected": 4745,
    "Ġselfish": 4746,
    "Ġaloud": 4747,
    "å": 4748,
    "ĠJojo": 4749,
    "iginal": 4750,
    "Ġpouted": 4751,
    "ap": 4752,
    "Ġheavy": 4753,
    "ccoli": 4754,
    "Ġslower": 4755,
    "ĠBonnie": 4756,
    "Help": 4757,
    "Ġhatch": 4758,
    "entr": 4759,
    "ude": 4760,
    "ĠOlly": 4761,
    "ĠAny": 4762,
    "Ġjewelry": 4763,
    "A": 4764,
    "Ġmotorcycle": 4765,
    "elle": 4766,
    "Ġshrugged": 4767,
    "Ġalarm": 4768,
    "Ġclap": 4769,
    "Ġmess": 4770,
    "Ġocean": 4771,
    "ĠLe": 4772,
    "Ġmate": 4773,
    "Ġsteak": 4774,
    "Here": 4775,
    "Ġincreasing": 4776,
    "freeze": 4777,
    "Ġwhined": 4778,
    "ĠNana": 4779,
    "ĠGo": 4780,
    "Ġbubbling": 4781,
    "Ġreassured": 4782,
    "Ġsculpture": 4783,
    "Sam": 4784,
    "ĠSarah": 4785,
    "ĠJul": 4786,
    "Her": 4787,
    "Ġbugs": 4788,
    "ĠToot": 4789,
    "Ġcells": 4790,
    "Ġpresented": 4791,
    "Ġtutor": 4792,
    "Ġcost": 4793,
    "Ġthreat": 4794,
    "ĠSpark": 4795,
    "Ġwrinkled": 4796,
    "Ġlandscape": 4797,
    "Ġpadd": 4798,
    "Ġwhist": 4799,
    "Ġadd": 4800,
    "Ġservant": 4801,
    "Ġgo": 4802,
    "Ġable": 4803,
    "Ġgen": 4804,
    "Ġways": 4805,
    "ĠWinky": 4806,
    "ĠRight": 4807,
    "ĠLucy": 4808,
    "ulb": 4809,
    "ĠSomet": 4810,
    "ete": 4811,
    "acles": 4812,
    "Ġnervous": 4813,
    "True": 4814,
    "Ġfam": 4815,
    "Ġund": 4816,
    "Ġgrant": 4817,
    "ĠShe": 4818,
    "Ġdid": 4819,
    "Ġleads": 4820,
    "Ġsailing": 4821,
    "bank": 4822,
    "Ġstaring": 4823,
    "Ġgum": 4824,
    "Ġais": 4825,
    "Ġcelebrating": 4826,
    "Ġmakeup": 4827,
    "Ġtong": 4828,
    "Ġhands": 4829,
    "Ġpoints": 4830,
    "Ġvowed": 4831,
    "ĠSu": 4832,
    "imal": 4833,
    "Ġthroughout": 4834,
    "ivity": 4835,
    "Ġexplor": 4836,
    "Ġslip": 4837,
    "Ġque": 4838,
    "Ġtown": 4839,
    "uses": 4840,
    "ĠEveryday": 4841,
    "ĠZero": 4842,
    "Ġladyb": 4843,
    "order": 4844,
    "Ġten": 4845,
    "Ġleft": 4846,
    "Ġunicorn": 4847,
    "Ġrows": 4848,
    "Ġdesperately": 4849,
    "ache": 4850,
    "Ġsobbed": 4851,
    "t": 4852,
    "olog": 4853,
    "ster": 4854,
    "Ġfork": 4855,
    "Hello": 4856,
    "ing": 4857,
    "erries": 4858,
    "Ġfootsteps": 4859,
    "Ľ": 4860,
    "Ġtent": 4861,
    "Ġhotter": 4862,
    "ut": 4863,
    "Ġe": 4864,
    "Great": 4865,
    "Playing": 4866,
    "Ġmoat": 4867,
    "aped": 4868,
    "Ġnasty": 4869,
    "Ġboard": 4870,
    "Ġwrote": 4871,
    "ĠSpirit": 4872,
    "ragile": 4873,
    "shm": 4874,
    "Ġbeaming": 4875,
    "istory": 4876,
    "Ġcable": 4877,
    "Ġbitter": 4878,
    "Ġconvinced": 4879,
    "Ġsheets": 4880,
    "ĠDad": 4881,
    "Ġfirefight": 4882,
    "Ġimages": 4883,
    "Ġtucked": 4884,
    "Ġlowered": 4885,
    "Ġbre": 4886,
    "Ġsizes": 4887,
    "Ġmagnif": 4888,
    "Ġsigned": 4889,
    "Ġpolite": 4890,
    "Ġalong": 4891,
    "rob": 4892,
    "ĥ": 4893,
    "Ġguide": 4894,
    "Milo": 4895,
    "Ġbaseball": 4896,
    "Ġig": 4897,
    "Ġtwinkled": 4898,
    "Ġbite": 4899,
    "Ġbedtime": 4900,
    "ilo": 4901,
    "Ġmountains": 4902,
    "ust": 4903,
    "ĠRachel": 4904,
    "ĠDoes": 4905,
    "Ġvegg": 4906,
    "ĠMake": 4907,
    "Ġfootprints": 4908,
    "ı": 4909,
    "Ġcarry": 4910,
    "ĠWooly": 4911,
    "Ġchoosing": 4912,
    "Ġshave": 4913,
    "Ġexcitement": 4914,
    "Ġwalked": 4915,
    "Ġcount": 4916,
    "eor": 4917,
    "Ġprecious": 4918,
    "Ġtallest": 4919,
    "ĠBecause": 4920,
    "ili": 4921,
    "Ġvegetables": 4922,
    "Ġattaching": 4923,
    "Ġfall": 4924,
    "Ġbreat": 4925,
    "Ġencountered": 4926,
    "endant": 4927,
    "Ġglob": 4928,
    "Cra": 4929,
    "Ġcrowns": 4930,
    "Ġplayed": 4931,
    "Ġhidden": 4932,
    "ĠMine": 4933,
    "Ġpre": 4934,
    "ĠBluey": 4935,
    "Ġcontent": 4936,
    "Ġpraised": 4937,
    "ĠSunday": 4938,
    "Ġraven": 4939,
    "lls": 4940,
    "Ġelevator": 4941,
    "Ġquizzes": 4942,
    "Ġrush": 4943,
    "Ġwheels": 4944,
    "Ġframe": 4945,
    "Ġsoaring": 4946,
    "ops": 4947,
    "Ġsniffs": 4948,
    "Ġmad": 4949,
    "ais": 4950,
    "Kim": 4951,
    "elt": 4952,
    "ç": 4953,
    "Ġchecking": 4954,
    "Ġsug": 4955,
    "Ġvacation": 4956,
    "Ġansw": 4957,
    "Ġpetals": 4958,
    "Ġscares": 4959,
    "ĠK": 4960,
    "unch": 4961,
    "ĠTony": 4962,
    "Ġequ": 4963,
    "Ġstand": 4964,
    "Ġquacking": 4965,
    "ĠWoolly": 4966,
    "Ġparrot": 4967,
    "man": 4968,
    "ĠMarch": 4969,
    "sh": 4970,
    "ï": 4971,
    "Ġsmell": 4972,
    "Ġfighting": 4973,
    "Ġrep": 4974,
    "ĠShadow": 4975,
    "yle": 4976,
    "Even": 4977,
    "ak": 4978,
    "Ġwrist": 4979,
    "Ġbeehive": 4980,
    "Ġshare": 4981,
    "cean": 4982,
    "Ġoffering": 4983,
    "Ġanimal": 4984,
    "Ġke": 4985,
    "Ġgardens": 4986,
    "Ġshallow": 4987,
    "Ġtax": 4988,
    "Ġpresses": 4989,
    "getable": 4990,
    "ountain": 4991,
    "Ġsunscreen": 4992,
    "Ġrob": 4993,
    "ĠRemember": 4994,
    "Ġmixed": 4995,
    "Ġtunnel": 4996,
    "col": 4997,
    "Ġapolog": 4998,
    "Ġcrackers": 4999,
    "ending": 5000,
    "Ġjoking": 5001,
    "idge": 5002,
    "Ġbrilliant": 5003,
    "ĠSandy": 5004,
    "ĠHenry": 5005,
    "Ġcloser": 5006,
    "Ġwashing": 5007,
    "ÿ": 5008,
    "Ġpicnics": 5009,
    "ucet": 5010,
    "Ġattention": 5011,
    "anges": 5012,
    "0": 5013,
    "ĠAlong": 5014,
    "ĠHoppy": 5015,
    "ĠZip": 5016,
    "Ġtrips": 5017,
    "lier": 5018,
    "ĠYellow": 5019,
    "Ġhanding": 5020,
    "Ġaside": 5021,
    "Ġhugs": 5022,
    "Ġaboard": 5023,
    "Ġantic": 5024,
    "ĠLiam": 5025,
    "Ġtipped": 5026,
    "Ġhedgehog": 5027,
    "um": 5028,
    "Ġmail": 5029,
    "Ġmanaged": 5030,
    "Ġremove": 5031,
    "Ġhummed": 5032,
    "Ġbaby": 5033,
    "Ġfog": 5034,
    "Ġsquished": 5035,
    "'s": 5036,
    "ð": 5037,
    "Ġcla": 5038,
    "Ġhumble": 5039,
    "Ġbirdhouse": 5040,
    "Ġinchworm": 5041,
    "Ġburger": 5042,
    "uit": 5043,
    "Ġjumps": 5044,
    "Ġrul": 5045,
    "Ġem": 5046,
    "act": 5047,
    "Ġatt": 5048,
    "Ġundone": 5049,
    "hn": 5050,
    "Ow": 5051,
    "Ġambulance": 5052,
    "Ġyelp": 5053,
    "ĠTwinkle": 5054,
    "Sadly": 5055,
    "ĠF": 5056,
    "Ġbuzzing": 5057,
    "jest": 5058,
    "ned": 5059,
    "Ġdip": 5060,
    "Ġsat": 5061,
    "Ġlose": 5062,
    "Ġmagnets": 5063,
    "ĠMic": 5064,
    "Rain": 5065,
    "Ġshoots": 5066,
    "raged": 5067,
    "Ġseas": 5068,
    "oring": 5069,
    "av": 5070,
    "owl": 5071,
    "ĠPeople": 5072,
    "Ġavoc": 5073,
    "Ġnorm": 5074,
    "Ġscolds": 5075,
    "Mat": 5076,
    "les": 5077,
    "Ġadded": 5078,
    "Ġsparkling": 5079,
    "ant": 5080,
    "oe": 5081,
    "ĠLooking": 5082,
    "ĠTime": 5083,
    "fast": 5084,
    "Ġitem": 5085,
    "Ġmoral": 5086,
    "ocer": 5087,
    "Ġmorning": 5088,
    "Ġcharm": 5089,
    "Ġnavy": 5090,
    "Ġenvironment": 5091,
    "Ġaccomplished": 5092,
    "Ġcomplain": 5093,
    "Which": 5094,
    "Ġat": 5095,
    "Ġmay": 5096,
    "ator": 5097,
    "Ġsplash": 5098,
    "Ġto": 5099,
    "Ġbend": 5100,
    "Ġmoonlight": 5101,
    "eb": 5102,
    "ø": 5103,
    "Ġbigger": 5104,
    "ď": 5105,
    "Ġby": 5106,
    "Ġmedals": 5107,
    "Ġswir": 5108,
    "Ġshovel": 5109,
    "Ġinstructions": 5110,
    "usan": 5111,
    "while": 5112,
    "ĠMary": 5113,
    "Ġsaus": 5114,
    "Ġdisc": 5115,
    "iscuit": 5116,
    "Ġbike": 5117,
    "Dad": 5118,
    "ĠTimmy": 5119,
    "Ġhist": 5120,
    "Ġbasket": 5121,
    "Ġcorn": 5122,
    "Ġcalmly": 5123,
    "Ġoh": 5124,
    "Ġcompan": 5125,
    "Ġwitch": 5126,
    "Sh": 5127,
    "Ġwaving": 5128,
    "But": 5129,
    "ĠBirds": 5130,
    "ventually": 5131,
    "Ġsits": 5132,
    "Ġscale": 5133,
    "Ġcousin": 5134,
    "Ġtarget": 5135,
    "Ġjellyfish": 5136,
    "Ġsimp": 5137,
    "Ġwant": 5138,
    "Ġknelt": 5139,
    "rie": 5140,
    "Ġraindr": 5141,
    "Ġbehavi": 5142,
    "Ġearned": 5143,
    "Ġacross": 5144,
    "racadabra": 5145,
    "aura": 5146,
    "Ġlungs": 5147,
    "Ġlectures": 5148,
    "Ġshr": 5149,
    "Ġfruit": 5150,
    "ĠLeo": 5151,
    "Ġnecks": 5152,
    "Ġweather": 5153,
    "ĠFido": 5154,
    "Ġdriving": 5155,
    "aughter": 5156,
    "Ġmighty": 5157,
    "Ġarrest": 5158,
    "ö": 5159,
    "Ġyach": 5160,
    "Ġfins": 5161,
    "Ġcalmed": 5162,
    "Ġreach": 5163,
    "ĠZoom": 5164,
    "Ġfriendly": 5165,
    "ĠMicroscope": 5166,
    "Ġalready": 5167,
    "Ġmarch": 5168,
    "Ġfridge": 5169,
    "Ġlily": 5170,
    "ĠQuickly": 5171,
    "Ġbatter": 5172,
    "Ġthicker": 5173,
    "Ġpeach": 5174,
    "ĠBuggy": 5175,
    "ummer": 5176,
    "Ġunlo": 5177,
    ",": 5178,
    "Ġgoals": 5179,
    "ĠHarry": 5180,
    "Ġshakes": 5181,
    "arter": 5182,
    "Ġbravest": 5183,
    "ĠFrosty": 5184,
    "ĠHurry": 5185,
    "ĠSwim": 5186,
    "On": 5187,
    "Kate": 5188,
    "Ġoverwhelmed": 5189,
    "Can": 5190,
    "ĠJanie": 5191,
    "htray": 5192,
    "¿": 5193,
    "aye": 5194,
    "Ġpounds": 5195,
    "Ġarrive": 5196,
    "igers": 5197,
    "gie": 5198,
    "Ġting": 5199,
    "Ġtoe": 5200,
    "light": 5201,
    "and": 5202,
    "Ġfloat": 5203,
    "Ġgirls": 5204,
    "Ġhorri": 5205,
    "isten": 5206,
    "Ġstomachs": 5207,
    "Ġhallway": 5208,
    "Ġeye": 5209,
    "k": 5210,
    "Ġworn": 5211,
    "Ġexpert": 5212,
    "Ġfacts": 5213,
    "Ġsipped": 5214,
    "Carl": 5215,
    "Ġcou": 5216,
    "ĠBobby": 5217,
    "Ġmater": 5218,
    "ĠSpicy": 5219,
    "Ġpuppet": 5220,
    "Ġbowls": 5221,
    "Ġdefin": 5222,
    "ĠBirdie": 5223,
    "Ġsupported": 5224,
    "Ġdrives": 5225,
    "ĠSomeone": 5226,
    "ĠRosa": 5227,
    "Ġdictionary": 5228,
    "Ġsuddenly": 5229,
    "Ġyours": 5230,
    "Ġinsisting": 5231,
    "Ġgot": 5232,
    "ĠBut": 5233,
    "Ġthe": 5234,
    "Ġwhy": 5235,
    "ast": 5236,
    "ĠWally": 5237,
    "ten": 5238,
    "'t": 5239,
    "Ġfan": 5240,
    "anna": 5241,
    "Ġsquealed": 5242,
    "Ġterri": 5243,
    "ã": 5244,
    "ention": 5245,
    "Ġdet": 5246,
    "that": 5247,
    "Ġbest": 5248,
    "Ġsoftly": 5249,
    "Ġlot": 5250,
    "atter": 5251,
    "Ġhealth": 5252,
    "Ġchicks": 5253,
    "Ġswims": 5254,
    "Ġpigeons": 5255,
    "ame": 5256,
    "Ġnights": 5257,
    "Sammy": 5258,
    "eese": 5259,
    "ir": 5260,
    "ĠEat": 5261,
    "bye": 5262,
    "Ġwra": 5263,
    "Ġunwra": 5264,
    "Ġhundred": 5265,
    "ĠOw": 5266,
    "Ġsacks": 5267,
    "Ġdress": 5268,
    "Ġtomato": 5269,
    "ĠSue": 5270,
    "Ġenviron": 5271,
    "ĠHer": 5272,
    "ĠSt": 5273,
    "ĠGina": 5274,
    "Ġve": 5275,
    "Ġsil": 5276,
    "ĠWoo": 5277,
    "ĠAnimals": 5278,
    "ĠRex": 5279,
    "Ù": 5280,
    "llow": 5281,
    "Ġuntied": 5282,
    "Ġpull": 5283,
    "ĠPo": 5284,
    "Ġmister": 5285,
    "Ġclown": 5286,
    "ĠSoon": 5287,
    "Ġlaying": 5288,
    "Ġtalked": 5289,
    "Ġstroke": 5290,
    "Ġstomped": 5291,
    "ĠV": 5292,
    "oof": 5293,
    "Ġbarks": 5294,
    "ings": 5295,
    "ĠBetsy": 5296,
    "For": 5297,
    "glasses": 5298,
    "Ġknew": 5299,
    "ĠGrace": 5300,
    "Ġscraped": 5301,
    "ĠFrankie": 5302,
    "Ġcorrectly": 5303,
    "oosh": 5304,
    "Ġimpressive": 5305,
    "Surprise": 5306,
    "inda": 5307,
    "Ġfriendships": 5308,
    "Ġplanning": 5309,
    "Ġcrack": 5310,
    "Always": 5311,
    "Ġenjoyable": 5312,
    "ĠMissile": 5313,
    "Ġshaking": 5314,
    "Ġcomput": 5315,
    "Ġcamping": 5316,
    "Ġmove": 5317,
    "Ġref": 5318,
    "Ġfascinated": 5319,
    "Alex": 5320,
    "Ġadmire": 5321,
    "Ġclerk": 5322,
    "ough": 5323,
    "Ġaw": 5324,
    "irpy": 5325,
    "Ġumbre": 5326,
    "Ġopera": 5327,
    "Ġmanag": 5328,
    "Ġparted": 5329,
    "Ġstarting": 5330,
    "ort": 5331,
    "Ġfront": 5332,
    "Ġhe": 5333,
    "Ġtakes": 5334,
    "Ġpicnic": 5335,
    "Ġqueens": 5336,
    "Ġargue": 5337,
    "Ġreplied": 5338,
    "Ġsmiling": 5339,
    "ena": 5340,
    ",'": 5341,
    "ummy": 5342,
    "Ġlong": 5343,
    "ittens": 5344,
    "Ġlime": 5345,
    "Ġfavorite": 5346,
    "Ġagreement": 5347,
    "ĠRyan": 5348,
    "Ġperfectly": 5349,
    "Ġmelody": 5350,
    "ĠTrucky": 5351,
    "Ġcoral": 5352,
    "Ġbeans": 5353,
    "Į": 5354,
    "Ġgoal": 5355,
    "Ġpresents": 5356,
    "aving": 5357,
    "Ġhoop": 5358,
    "hip": 5359,
    "Ġmarshmallows": 5360,
    "Ġstrips": 5361,
    "Ġagreed": 5362,
    "Ġdollar": 5363,
    "Ġyouth": 5364,
    "Ġhad": 5365,
    "Ġpres": 5366,
    "Ġwiz": 5367,
    "Ġswap": 5368,
    "ĠEliz": 5369,
    "]": 5370,
    "ch": 5371,
    "ifi": 5372,
    "Ġdate": 5373,
    "Ġsuffer": 5374,
    "Ġfreeze": 5375,
    "Ġscurried": 5376,
    "Ġmonth": 5377,
    "Ġcages": 5378,
    "Ġfishing": 5379,
    "Rabbit": 5380,
    "Ġwhales": 5381,
    "Ġbeds": 5382,
    "Ġsnow": 5383,
    "ĠMomo": 5384,
    "Ġspoon": 5385,
    "ĠMama": 5386,
    "own": 5387,
    "ider": 5388,
    "inted": 5389,
    "Ġscarves": 5390,
    "Ġgrowls": 5391,
    "Ġquieter": 5392,
    "Ġdeterm": 5393,
    "Ġpatches": 5394,
    "pa": 5395,
    "Ġeveryone": 5396,
    "ĠThis": 5397,
    "izing": 5398,
    "ĠT": 5399,
    "Ġswim": 5400,
    "Ġexploded": 5401,
    "Ġunfair": 5402,
    "ĠBoo": 5403,
    "Ġapp": 5404,
    "ĠR": 5405,
    "Ġshook": 5406,
    "more": 5407,
    "Ġcact": 5408,
    "Ġintrod": 5409,
    "Ġtheater": 5410,
    "Ġdigg": 5411,
    "Ġdisagre": 5412,
    "ded": 5413,
    "ĠRudy": 5414,
    "Ġsitu": 5415,
    "Û": 5416,
    "Ġmarbles": 5417,
    "Ġcolors": 5418,
    "Momo": 5419,
    "Ġspong": 5420,
    "Ġsurroundings": 5421,
    "ĠJilly": 5422,
    "Ġsees": 5423,
    "...": 5424,
    "lc": 5425,
    "ily": 5426,
    "Ġthan": 5427,
    "Ġplease": 5428,
    "Finn": 5429,
    "Ġleaking": 5430,
    "iness": 5431,
    "Ġskipping": 5432,
    "Ġbuildings": 5433,
    "ĠNobody": 5434,
    "Ġnumbered": 5435,
    "udy": 5436,
    "urp": 5437,
    "Ġu": 5438,
    "Ġnapped": 5439,
    "Ġwandered": 5440,
    "ird": 5441,
    "Pinky": 5442,
    "iers": 5443,
    "m": 5444,
    "Ġenthusia": 5445,
    "?!\"": 5446,
    "anut": 5447,
    "Ġsleeps": 5448,
    "essie": 5449,
    "Ġrocked": 5450,
    "Of": 5451,
    "ĠZoey": 5452,
    "Ġseek": 5453,
    "Jessie": 5454,
    "Ġdug": 5455,
    "Ġzooming": 5456,
    "ĠBeing": 5457,
    "Squeaky": 5458,
    "Ġcause": 5459,
    "~": 5460,
    "Ġnodding": 5461,
    "Ġchalk": 5462,
    "Ġants": 5463,
    "Ġshoo": 5464,
    "uddenly": 5465,
    "Ġwiggle": 5466,
    "Ġhills": 5467,
    "Ġmold": 5468,
    "otter": 5469,
    "ĠAmanda": 5470,
    "ĠOkay": 5471,
    "Ġunexpected": 5472,
    "Ġraindrops": 5473,
    "adium": 5474,
    "Ġbrand": 5475,
    "Ġstrong": 5476,
    "Ġvent": 5477,
    "unnel": 5478,
    "prin": 5479,
    "tuce": 5480,
    "colored": 5481,
    "¸": 5482,
    "Ġplay": 5483,
    "Ġdrew": 5484,
    "oose": 5485,
    "udge": 5486,
    "ĠMolly": 5487,
    "Ġsurrender": 5488,
    "Ġmirror": 5489,
    "place": 5490,
    "Ġnurse": 5491,
    "Ġel": 5492,
    "Ġgi": 5493,
    "Ġhangers": 5494,
    "Ġpoke": 5495,
    "racted": 5496,
    "Ġcrane": 5497,
    "Ġswung": 5498,
    "keeper": 5499,
    "erable": 5500,
    "rat": 5501,
    "arlings": 5502,
    "Ġfolder": 5503,
    "Bunny": 5504,
    "+": 5505,
    "Ġfamily": 5506,
    "Ġclaws": 5507,
    "Ġflapped": 5508,
    "Ġriver": 5509,
    "umber": 5510,
    "der": 5511,
    "Ġbed": 5512,
    "î": 5513,
    "Ġben": 5514,
    "Ġdogs": 5515,
    "Ġdirection": 5516,
    "Not": 5517,
    "Ġprog": 5518,
    "Ġnicer": 5519,
    "Ġhusband": 5520,
    "Ġowls": 5521,
    "Ġburst": 5522,
    "Ġshirt": 5523,
    "Ġwelcome": 5524,
    "Ġjacket": 5525,
    "iggie": 5526,
    "Ġactive": 5527,
    "urkey": 5528,
    "Ġmountain": 5529,
    "Ġmanage": 5530,
    "Ġweek": 5531,
    "Ġmovie": 5532,
    "sie": 5533,
    "this": 5534,
    "Ġtrick": 5535,
    "Ġhanging": 5536,
    "Ġenough": 5537,
    "Henry": 5538,
    "Ġbut": 5539,
    "Ġears": 5540,
    "ingo": 5541,
    "ĠImmediately": 5542,
    "Use": 5543,
    "Ġdam": 5544,
    "Ġstrokes": 5545,
    "Ġspo": 5546,
    "Ġwipe": 5547,
    "Ġbusy": 5548,
    "Ella": 5549,
    "Ġhider": 5550,
    "Ġastron": 5551,
    "Bug": 5552,
    "ĠBlue": 5553,
    "Ġcomf": 5554,
    "aid": 5555,
    "xu": 5556,
    "It": 5557,
    "ĠWith": 5558,
    "º": 5559,
    "ĠRia": 5560,
    "Ġmusician": 5561,
    "ding": 5562,
    "Ġcomp": 5563,
    "ime": 5564,
    "Ġtal": 5565,
    "imon": 5566,
    "ĠGreeny": 5567,
    "atch": 5568,
    "Ġbuses": 5569,
    "over": 5570,
    "ris": 5571,
    "Ġshrunk": 5572,
    "rent": 5573,
    "Ġleaf": 5574,
    "Ġdelighted": 5575,
    "Ġmysteries": 5576,
    "Ġsee": 5577,
    "unt": 5578,
    "Will": 5579,
    "ai": 5580,
    "Ġworm": 5581,
    "Birdy": 5582,
    "Ġtelevision": 5583,
    "Ġpanda": 5584,
    "Ġgiggle": 5585,
    "ile": 5586,
    "Ġhorses": 5587,
    "Ġpretend": 5588,
    "ĠBeef": 5589,
    "Ġrun": 5590,
    "Lilly": 5591,
    "Ġcocoa": 5592,
    "Ġhelmets": 5593,
    "elia": 5594,
    "ĠVivi": 5595,
    "Ġcomple": 5596,
    "K": 5597,
    "ĠBob": 5598,
    "Ġbra": 5599,
    "Ġour": 5600,
    "Ġswamp": 5601,
    "Ġwhistled": 5602,
    "Ġsoldier": 5603,
    "Mike": 5604,
    "ĠRing": 5605,
    "Ġsave": 5606,
    "eath": 5607,
    "Ġpedal": 5608,
    "cy": 5609,
    "chief": 5610,
    "Ġapologize": 5611,
    "ara": 5612,
    "ĠDid": 5613,
    "ably": 5614,
    "Ġnight": 5615,
    "Vroom": 5616,
    "Ġgarden": 5617,
    "Ġits": 5618,
    "Chloe": 5619,
    "Ġbull": 5620,
    "Ġhung": 5621,
    "Ġwhistling": 5622,
    "¬": 5623,
    "Ġdelivered": 5624,
    "Ġgreedy": 5625,
    "Ġcapt": 5626,
    "Ġtravelled": 5627,
    "ity": 5628,
    "Ġsurf": 5629,
    "ead": 5630,
    "Ġage": 5631,
    "Ġbumping": 5632,
    "Ġmissing": 5633,
    "Ġglittered": 5634,
    "Ġsearching": 5635,
    "ĠWould": 5636,
    "Ġclo": 5637,
    "mble": 5638,
    "Sure": 5639,
    "Ġuniversity": 5640,
    "ĠAm": 5641,
    "As": 5642,
    "Ġstairs": 5643,
    "Ġrestaurant": 5644,
    "Ġnews": 5645,
    "i": 5646,
    "Ġinvit": 5647,
    "Ġcompete": 5648,
    "ĠOtto": 5649,
    "Ġshouted": 5650,
    "Ġroll": 5651,
    "Ġdestroying": 5652,
    "ĠWhenever": 5653,
    "ĠTip": 5654,
    "ship": 5655,
    "Ġwait": 5656,
    "Ġche": 5657,
    "Ġencouragement": 5658,
    "Ġadventure": 5659,
    "Ġfloors": 5660,
    "Ġminding": 5661,
    "Ġshivering": 5662,
    "Ġsock": 5663,
    "Ġdig": 5664,
    "Tommy": 5665,
    "Ġrecognize": 5666,
    "ĠJon": 5667,
    "Ġbrought": 5668,
    "Ġincredible": 5669,
    "Ġexpect": 5670,
    "Ġvines": 5671,
    "y": 5672,
    "Ġshell": 5673,
    "ĠMillie": 5674,
    "Ġpeas": 5675,
    "cakes": 5676,
    "ĠMummy": 5677,
    "Ġprobably": 5678,
    "ĠâĢĶ": 5679,
    "Ġidea": 5680,
    "Ġseats": 5681,
    "ny": 5682,
    "ross": 5683,
    "Ġbeard": 5684,
    "Ġpies": 5685,
    "Ġball": 5686,
    "Ġhive": 5687,
    "ĠLater": 5688,
    "Mine": 5689,
    "Ġrinsed": 5690,
    "ĠEmily": 5691,
    "Ġmirac": 5692,
    "achel": 5693,
    "Ġsaid": 5694,
    "Ġsudden": 5695,
    "Ġcir": 5696,
    "ĠTed": 5697,
    "Ġpaintings": 5698,
    "Ġsends": 5699,
    "Ġjoke": 5700,
    "Ġmice": 5701,
    "Ġexamp": 5702,
    "Ġoasis": 5703,
    "Ab": 5704,
    "Ġremember": 5705,
    "ial": 5706,
    "Ġsaw": 5707,
    "Ġmoons": 5708,
    "allen": 5709,
    "ĠHor": 5710,
    "?\",": 5711,
    "urn": 5712,
    "Ġwag": 5713,
    "Le": 5714,
    "screen": 5715,
    "ous": 5716,
    "port": 5717,
    "Ġsausages": 5718,
    "ful": 5719,
    "Ġplayers": 5720,
    "Ġpersistent": 5721,
    "Ġstrings": 5722,
    "ĠZog": 5723,
    "Ġexcited": 5724,
    "Ġkicked": 5725,
    "Ġpunish": 5726,
    "ord": 5727,
    "ĠMimi": 5728,
    "aggie": 5729,
    "oun": 5730,
    "Ġcorrect": 5731,
    "ground": 5732,
    "h": 5733,
    "Ġrising": 5734,
    "Ġyell": 5735,
    "Ġwhat": 5736,
    "Ġtid": 5737,
    "yes": 5738,
    "Ġbarn": 5739,
    "Ġseashe": 5740,
    "Ġspells": 5741,
    "Ġrock": 5742,
    "ounce": 5743,
    "Ġsoaking": 5744,
    "lowers": 5745,
    "Ġsniffing": 5746,
    "ĠGranny": 5747,
    "sey": 5748,
    "Ġfield": 5749,
    "ĠLet": 5750,
    "Ġcomforted": 5751,
    "lu": 5752,
    "Ġtim": 5753,
    "Ġcity": 5754,
    "Nice": 5755,
    "Ġcabinet": 5756,
    "uce": 5757,
    "Ġclapped": 5758,
    "Ġvehicles": 5759,
    "ò": 5760,
    "Ġsweater": 5761,
    "Snowy": 5762,
    "Ġpretended": 5763,
    "pril": 5764,
    "Ġnovel": 5765,
    "Ġele": 5766,
    "Ġyoung": 5767,
    "ĠAlf": 5768,
    "Fred": 5769,
    "Ġbeach": 5770,
    "Ġspy": 5771,
    "Doctor": 5772,
    "Ġsy": 5773,
    "Ġmatter": 5774,
    "Ġplans": 5775,
    "Ġcell": 5776,
    "Ġyet": 5777,
    "Cl": 5778,
    "Ġcereal": 5779,
    "In": 5780,
    "¾": 5781,
    "id": 5782,
    "ĠRay": 5783,
    "loe": 5784,
    "Ġargu": 5785,
    "Ġshortcut": 5786,
    "Ġforgiving": 5787,
    "Ooh": 5788,
    "iley": 5789,
    "Ġkneeling": 5790,
    "Ġstirs": 5791,
    "Ġcows": 5792,
    "×": 5793,
    "iding": 5794,
    "Ġfriends": 5795,
    "Ġgrand": 5796,
    "ulpture": 5797,
    "Ġpie": 5798,
    "Ġtomorrow": 5799,
    "Ġpointed": 5800,
    "ĠSince": 5801,
    "ĠWhen": 5802,
    "Ġcons": 5803,
    "umm": 5804,
    "ĠPlay": 5805,
    "Ġdriver": 5806,
    "Joe": 5807,
    "in": 5808,
    "Ġargum": 5809,
    "'": 5810,
    "Ġsparkled": 5811,
    "Ġimp": 5812,
    "Ġairplane": 5813,
    "Ġjoins": 5814,
    "Ġstomach": 5815,
    "mediately": 5816,
    "Ġmint": 5817,
    "Ġdraws": 5818,
    "Ġpebble": 5819,
    "Please": 5820,
    "Ġnest": 5821,
    "Ġreceive": 5822,
    "Ġcookie": 5823,
    "affe": 5824,
    "ĠSo": 5825,
    "Ġspell": 5826,
    "Ġluxury": 5827,
    "Ġimpress": 5828,
    "Ġreads": 5829,
    "Ġannoying": 5830,
    "Ġcamp": 5831,
    "pp": 5832,
    "Ġlead": 5833,
    "Ġputting": 5834,
    "omeday": 5835,
    "Ġbacked": 5836,
    "Ġseeds": 5837,
    "Ġboo": 5838,
    "ipped": 5839,
    "Ġparticularly": 5840,
    "Ġastonished": 5841,
    "ĠMom": 5842,
    "Ġlifts": 5843,
    "Ġlanguage": 5844,
    "Ġmotor": 5845,
    "Ġjoined": 5846,
    "Ġchose": 5847,
    "Uh": 5848,
    "Ġthreads": 5849,
    "Ġflapping": 5850,
    "Ġmiracle": 5851,
    "Ġdecid": 5852,
    "Ġfamiliar": 5853,
    "Ġattem": 5854,
    "everse": 5855,
    "ĠSun": 5856,
    "Ġmild": 5857,
    "Ġdest": 5858,
    "Ġrealized": 5859,
    "Ġchef": 5860,
    "Ġnose": 5861,
    "ĠFairy": 5862,
    "ĠJoy": 5863,
    "Ġreminder": 5864,
    "Ġhesitant": 5865,
    "ĠMixie": 5866,
    "Ġelephants": 5867,
    "Ġtwelve": 5868,
    "Ġfrom": 5869,
    "Ġbeanstalk": 5870,
    "Ġkite": 5871,
    "Ġpinching": 5872,
    "Ö": 5873,
    "Ġwon": 5874,
    "Ġwaiting": 5875,
    "Ġimagine": 5876,
    "Ġnect": 5877,
    "Ġcho": 5878,
    "Ġcurtain": 5879,
    "ĠSam": 5880,
    "Ġasleep": 5881,
    "Ġentire": 5882,
    "ğ": 5883,
    "ĠAndy": 5884,
    "Ġacorn": 5885,
    "Ġshowed": 5886,
    "Ġmatt": 5887,
    "Ġtrees": 5888,
    "Ġpaintbrush": 5889,
    "Ġrazor": 5890,
    "ĠElla": 5891,
    "agine": 5892,
    "Ġham": 5893,
    "Ġgathering": 5894,
    "Ġtube": 5895,
    "Ġintelligence": 5896,
    "cles": 5897,
    "ilk": 5898,
    "Ġuniver": 5899,
    "Ġimage": 5900,
    "Ġtoss": 5901,
    "Ġdiary": 5902,
    "Ġelderly": 5903,
    "rod": 5904,
    "Ġblin": 5905,
    "Ġburrow": 5906,
    "ĠSleep": 5907,
    "ĠFl": 5908,
    "Ġruff": 5909,
    "Ġwhispered": 5910,
    "ative": 5911,
    "aw": 5912,
    "Ġshops": 5913,
    "Ġgar": 5914,
    "ven": 5915,
    "Ġappreciate": 5916,
    "Ġbump": 5917,
    "ach": 5918,
    "Ġthief": 5919,
    "Ġsteps": 5920,
    "Ġburied": 5921,
    "Ġpostman": 5922,
    "Ġdolls": 5923,
    "Ġropes": 5924,
    "azz": 5925,
    "Ġpoems": 5926,
    "Sophia": 5927,
    "ect": 5928,
    "Ġpopped": 5929,
    "Suzie": 5930,
    "Ġtemple": 5931,
    "ĠFirst": 5932,
    "ĠToday": 5933,
    "Ġmarked": 5934,
    "Ġfood": 5935,
    "ighing": 5936,
    "Ġaprons": 5937,
    "Whee": 5938,
    "Ġtoppings": 5939,
    "o": 5940,
    "á": 5941,
    "Ġrays": 5942,
    "Ġtouc": 5943,
    "ĠMax": 5944,
    "Ġmaze": 5945,
    "Ġpermit": 5946,
    "Ġskills": 5947,
    "Ġbroke": 5948,
    "Ġwho": 5949,
    "Ġsor": 5950,
    "Ġbreathing": 5951,
    "Ġsunf": 5952,
    "ere": 5953,
    "Ġtaken": 5954,
    "ĠSanta": 5955,
    "Ġsquishy": 5956,
    "inny": 5957,
    "Ġhudd": 5958,
    "Ġcovered": 5959,
    "Whiskers": 5960,
    "Ġdestroyed": 5961,
    "Ġbro": 5962,
    "Robby": 5963,
    "Ġtalking": 5964,
    "ila": 5965,
    "uck": 5966,
    "Ġcuddles": 5967,
    "ĠElsa": 5968,
    "Č": 5969,
    "years": 5970,
    "gar": 5971,
    "Ġraise": 5972,
    "Ġhotel": 5973,
    "Afterwards": 5974,
    "Ġsle": 5975,
    "Sweet": 5976,
    "Ġtired": 5977,
    "Ġleak": 5978,
    "Ġpurple": 5979,
    "Ġflight": 5980,
    "Mittens": 5981,
    "Ġlazy": 5982,
    "Ġbags": 5983,
    "Ġfarther": 5984,
    "nam": 5985,
    "Ġprettiest": 5986,
    "Ġbad": 5987,
    "om": 5988,
    "Ġsoup": 5989,
    "unk": 5990,
    "Ġvroom": 5991,
    "Ġprovided": 5992,
    "Ġobjects": 5993,
    "Ġdanced": 5994,
    "ĠVelvet": 5995,
    "Ġbelong": 5996,
    "ĠFin": 5997,
    "ĠEddie": 5998,
    "Ġprune": 5999,
    "Ġinc": 6000,
    "Ġkn": 6001,
    "Ġchosen": 6002,
    "Ġdisturbing": 6003,
    "nic": 6004,
    "Ġgroom": 6005,
    "Ġitems": 6006,
    "Ġincluding": 6007,
    "Ġquacks": 6008,
    "Ġreun": 6009,
    "osen": 6010,
    "ĠMoon": 6011,
    "ĠGrandma": 6012,
    "Ġkissed": 6013,
    "Ġwee": 6014,
    "Ġsunlight": 6015,
    "Ġsummer": 6016,
    "Ġblowing": 6017,
    "ĠRoger": 6018,
    "Adam": 6019,
    "Ġwobbled": 6020,
    "Ġsteep": 6021,
    "ĠZippy": 6022,
    "Ġstored": 6023,
    "Ġencou": 6024,
    "Ġwoof": 6025,
    "ĠShelly": 6026,
    "Ġsnat": 6027,
    "č": 6028,
    "Fire": 6029,
    "Ġkindness": 6030,
    "ĠSorry": 6031,
    "inary": 6032,
    "Ġscreams": 6033,
    "ĠRuby": 6034,
    "Ġloudly": 6035,
    "aste": 6036,
    "Ġcircus": 6037,
    "Ġvest": 6038,
    "Ġlaid": 6039,
    "ister": 6040,
    "Ġit": 6041,
    "Ġwreck": 6042,
    "Ġzebras": 6043,
    "Ġwept": 6044,
    "Ġbeginning": 6045,
    "Ġhoo": 6046,
    "Ġcups": 6047,
    "Ġfireplace": 6048,
    "Ġsending": 6049,
    "Ġstopping": 6050,
    "ĕ": 6051,
    "Ġsurfing": 6052,
    "ë": 6053,
    "Ġfew": 6054,
    "Ġbeautiful": 6055,
    "ados": 6056,
    "È": 6057,
    "Ġwhe": 6058,
    "lied": 6059,
    "ye": 6060,
    "Ġrealizes": 6061,
    "âĢĶ": 6062,
    "Ġstaying": 6063,
    "Ġstrength": 6064,
    "Ġweekend": 6065,
    "Z": 6066,
    "Ġcoup": 6067,
    "Ġinch": 6068,
    "rise": 6069,
    "Ġmailbox": 6070,
    "Ġorganize": 6071,
    "ĠBenny": 6072,
    "Ġhears": 6073,
    "Ġcrowd": 6074,
    "Ġcraft": 6075,
    "str": 6076,
    "aven": 6077,
    "Ġrips": 6078,
    "fere": 6079,
    "Ġexper": 6080,
    "get": 6081,
    "Ġpushed": 6082,
    "Ġcops": 6083,
    "Ġsword": 6084,
    "Ġru": 6085,
    "However": 6086,
    "Ġrust": 6087,
    "ucked": 6088,
    "atie": 6089,
    "ĠEliza": 6090,
    "Ġg": 6091,
    "Ġmus": 6092,
    "Ġenthusiasm": 6093,
    "ĠBy": 6094,
    "T": 6095,
    "Would": 6096,
    "Ġgif": 6097,
    "Ġvisit": 6098,
    "Mo": 6099,
    "Wow": 6100,
    "Ġcard": 6101,
    "Ġuns": 6102,
    "Ġoysters": 6103,
    "Ġcheat": 6104,
    "Ġwallet": 6105,
    "Ġmost": 6106,
    "Ġharb": 6107,
    "Ġregretted": 6108,
    "usion": 6109,
    "Ġthose": 6110,
    "Ġbully": 6111,
    "ĠHe": 6112,
    "ĠBella": 6113,
    "Ġrake": 6114,
    "ories": 6115,
    "igator": 6116,
    "Ġcras": 6117,
    "Ġimag": 6118,
    "Linda": 6119,
    "Ġdrip": 6120,
    "Ġchick": 6121,
    "Ġpencil": 6122,
    "Ġgoggles": 6123,
    "itty": 6124,
    "Ġsquares": 6125,
    "iced": 6126,
    "Ġincrease": 6127,
    "Ġfierce": 6128,
    "Ġuseful": 6129,
    "ĠPhil": 6130,
    "Ġstudying": 6131,
    "ĠD": 6132,
    "Ġconquered": 6133,
    "ĠJohnny": 6134,
    "Finally": 6135,
    "Ġdipped": 6136,
    "ĠHar": 6137,
    "anted": 6138,
    "ª": 6139,
    "Ġbaths": 6140,
    "iant": 6141,
    "eds": 6142,
    "ĠBall": 6143,
    "ĠJane": 6144,
    "ĠClara": 6145,
    "Ġcircle": 6146,
    "Ġsoftened": 6147,
    "Ġadds": 6148,
    "ĠMole": 6149,
    "3": 6150,
    "Ġvi": 6151,
    "Ġnoses": 6152,
    "Ġwaded": 6153,
    "ire": 6154,
    "ĠBetty": 6155,
    "Ġprints": 6156,
    "Ġrunning": 6157,
    "Ġseasons": 6158,
    "Abigail": 6159,
    "Ġsandcastle": 6160,
    "Ġaccident": 6161,
    "Ġspear": 6162,
    "airs": 6163,
    "iens": 6164,
    "ck": 6165,
    "Ġgiving": 6166,
    "Ġluggage": 6167,
    "Ġdisaster": 6168,
    "Ġplace": 6169,
    "eve": 6170,
    "Ġkit": 6171,
    "Ĥ": 6172,
    "Ġlion": 6173,
    "Ġdisappeared": 6174,
    "Ġbudge": 6175,
    "Ġexciting": 6176,
    "Ġartist": 6177,
    "Ġoyster": 6178,
    "Ġdangers": 6179,
    "Ġdaddy": 6180,
    "ume": 6181,
    "Ġthump": 6182,
    "Ġadmit": 6183,
    "Ġasked": 6184,
    "Ġgra": 6185,
    "Ġguit": 6186,
    "Really": 6187,
    "l": 6188,
    "Ġsprinkled": 6189,
    "ĠMel": 6190,
    "ophone": 6191,
    "pec": 6192,
    "Ġmonths": 6193,
    "ĠBrian": 6194,
    "Ġju": 6195,
    "Ġcastle": 6196,
    "Ġlistening": 6197,
    "ē": 6198,
    "ibbit": 6199,
    "Ġtrading": 6200,
    "ĠPuffy": 6201,
    "Ġlemonade": 6202,
    "Ġsunshine": 6203,
    "Who": 6204,
    "Ġclimbing": 6205,
    "Ġbubbles": 6206,
    "Ġspent": 6207,
    "Ġgrandson": 6208,
    "Tina": 6209,
    "Bella": 6210,
    "ĠLizzy": 6211,
    "mbre": 6212,
    "Ġmama": 6213,
    "Ġinv": 6214,
    "Ġoffic": 6215,
    "Ġconqu": 6216,
    "Ġsack": 6217,
    "ircle": 6218,
    "Ġothers": 6219,
    "See": 6220,
    "Ġrods": 6221,
    "umbling": 6222,
    "rom": 6223,
    "Ġbunnies": 6224,
    "Ġquit": 6225,
    "ouraged": 6226,
    "Ġthumbs": 6227,
    "iggles": 6228,
    "Ġterrified": 6229,
    "Ġplays": 6230,
    "Ġgreen": 6231,
    "Ġliquid": 6232,
    "orse": 6233,
    "solut": 6234,
    "Ġfurt": 6235,
    "Ġprince": 6236,
    "ign": 6237,
    "An": 6238,
    "Ġthrown": 6239,
    "Any": 6240,
    "Papa": 6241,
    "sa": 6242,
    "Ġthumb": 6243,
    "Ġpatient": 6244,
    "Ġclouds": 6245,
    "Ġhooks": 6246,
    "Ġsteth": 6247,
    "Ġcomets": 6248,
    "Ġharsh": 6249,
    "Ġsighs": 6250,
    "Ġmemory": 6251,
    "ĠPete": 6252,
    "Ġmuster": 6253,
    "Ġduck": 6254,
    "ĠOwl": 6255,
    "ĠDay": 6256,
    "Ġskipped": 6257,
    "Ġgre": 6258,
    "bbles": 6259,
    "Whose": 6260,
    "ĠMilly": 6261,
    "Ġcab": 6262,
    "Ġbowing": 6263,
    "ĠSara": 6264,
    "opter": 6265,
    "Ġbound": 6266,
    "ĠGreen": 6267,
    "Ġwent": 6268,
    "Ġwrit": 6269,
    "ah": 6270,
    "ange": 6271,
    "Ġtricycle": 6272,
    "Ġshout": 6273,
    "Ġturns": 6274,
    "icer": 6275,
    "Ġsnowman": 6276,
    "ng": 6277,
    "Ġcr": 6278,
    "Ġsell": 6279,
    "Ġsponge": 6280,
    "Ġflips": 6281,
    "lest": 6282,
    "ĠBoat": 6283,
    "Ġthu": 6284,
    "Ġdef": 6285,
    "Ġfalls": 6286,
    "Ġdetermined": 6287,
    "Ġtremble": 6288,
    "Ġmachine": 6289,
    "Found": 6290,
    "Ġmoving": 6291,
    "Ġcrab": 6292,
    "Ġwagged": 6293,
    "ble": 6294,
    "Ġexpecting": 6295,
    "Ġjokes": 6296,
    "Ġinvisible": 6297,
    "Ġgroups": 6298,
    "Ġcurly": 6299,
    "Ġbakery": 6300,
    "Ġmember": 6301,
    "Ġwarrior": 6302,
    "ipe": 6303,
    "Ġimpro": 6304,
    "r": 6305,
    "Ġgrandd": 6306,
    "Ġcoll": 6307,
    "Ġmakes": 6308,
    "oug": 6309,
    "Paul": 6310,
    "pecting": 6311,
    "Ġgrown": 6312,
    "Shoo": 6313,
    "Ġyes": 6314,
    "Ġpoint": 6315,
    "ĠAll": 6316,
    "saw": 6317,
    "Ġaccom": 6318,
    "Ġthinks": 6319,
    "Ġtorn": 6320,
    "ĠCally": 6321,
    "Bo": 6322,
    "Ġbathe": 6323,
    "ucy": 6324,
    "Ġseparated": 6325,
    "Ġgarbage": 6326,
    "Ġcra": 6327,
    "Ġfairy": 6328,
    "Ġstriking": 6329,
    "az": 6330,
    "Ġrather": 6331,
    "ople": 6332,
    "Ġbuttons": 6333,
    "Ġallowed": 6334,
    "Ġheat": 6335,
    "Ġbanged": 6336,
    "Ġbelonged": 6337,
    "rink": 6338,
    "Ġpuff": 6339,
    "Ġgener": 6340,
    "Ġprevent": 6341,
    "Ġstair": 6342,
    "Very": 6343,
    "ĠGilly": 6344,
    "Aunt": 6345,
    "Ġours": 6346,
    "Honey": 6347,
    "ĠDavid": 6348,
    "ĠNothing": 6349,
    "ĠUncle": 6350,
    "ives": 6351,
    "emember": 6352,
    "Mimi": 6353,
    "Ġsoapy": 6354,
    "Ġglove": 6355,
    "Ġwaste": 6356,
    "Mark": 6357,
    "Ġstumble": 6358,
    "Ġscores": 6359,
    "Ġteam": 6360,
    "Ġbott": 6361,
    "ĠPandy": 6362,
    "Ġowns": 6363,
    "Ġmaking": 6364,
    "Ġmight": 6365,
    "Ġstuck": 6366,
    "icorn": 6367,
    "Ġinterested": 6368,
    "Ġharder": 6369,
    "Ġpaw": 6370,
    "ĠPinchy": 6371,
    "Ġwisdom": 6372,
    "ommend": 6373,
    "Ġpancakes": 6374,
    "Ġtwig": 6375,
    "Ġwear": 6376,
    "Ġmelons": 6377,
    "Ġpose": 6378,
    "ĠWiggly": 6379,
    "Ġpri": 6380,
    "Ġtummies": 6381,
    "Ġadvice": 6382,
    "ĠAnn": 6383,
    "Ġbruises": 6384,
    "cycle": 6385,
    "gy": 6386,
    "ĠJen": 6387,
    "Ġrainbows": 6388,
    "Ġspeaks": 6389,
    "ĠBuzzy": 6390,
    "Ġdir": 6391,
    "Ġparty": 6392,
    "oomy": 6393,
    "Ġopp": 6394,
    "Ġcarrot": 6395,
    "Ġsens": 6396,
    "ĠHoot": 6397,
    "iv": 6398,
    "Ġher": 6399,
    "ĠSkip": 6400,
    "Ġchest": 6401,
    "ilet": 6402,
    "ă": 6403,
    "Ġwinners": 6404,
    "Froggy": 6405,
    "house": 6406,
    "ĠBubb": 6407,
    "Ġspilled": 6408,
    "Ġfix": 6409,
    "ari": 6410,
    "Ġofficers": 6411,
    "Ġyard": 6412,
    "Ġthankful": 6413,
    "ĠFriends": 6414,
    "ĠSque": 6415,
    "Ġsauce": 6416,
    "bulance": 6417,
    "Ġprevented": 6418,
    "Ġbathing": 6419,
    "Ġunlocked": 6420,
    "Ġreversing": 6421,
    "Ġdigs": 6422,
    "Ġscarf": 6423,
    "Ġcompetitive": 6424,
    "ĠRabbit": 6425,
    "Ġdriveway": 6426,
    "Run": 6427,
    "getic": 6428,
    "Ġloaded": 6429,
    "Ġspaces": 6430,
    "Ġrubs": 6431,
    "Ġbecoming": 6432,
    "Ġsplashing": 6433,
    "Ġcheered": 6434,
    "Ġdough": 6435,
    "ĠKayla": 6436,
    "é": 6437,
    "ulif": 6438,
    "Ġmin": 6439,
    "Ġencouraged": 6440,
    "p": 6441,
    "Ġgap": 6442,
    "ĠSw": 6443,
    "Ġexploration": 6444,
    "ĠTe": 6445,
    "Eww": 6446,
    "Ġstable": 6447,
    "!": 6448,
    "ĠMix": 6449,
    "Ġanger": 6450,
    "ĠThat": 6451,
    "Ġgrandfather": 6452,
    "not": 6453,
    "ĠCurious": 6454,
    "Ġshining": 6455,
    "ĠGoodbye": 6456,
    "Ġcur": 6457,
    "Ġwealth": 6458,
    "Ġpolish": 6459,
    "Ē": 6460,
    "Ġcord": 6461,
    "Ġgentle": 6462,
    "Shrink": 6463,
    "Ġcricket": 6464,
    "Ġremem": 6465,
    "yal": 6466,
    "Tr": 6467,
    "Ġwadd": 6468,
    "Ġbush": 6469,
    "Ġdep": 6470,
    "Ġwizard": 6471,
    "ulf": 6472,
    "Ġser": 6473,
    "cious": 6474,
    "Ġexhausted": 6475,
    "Jeff": 6476,
    "ear": 6477,
    "Ġdolph": 6478,
    "Ġlook": 6479,
    "Ġpasta": 6480,
    "Lucky": 6481,
    "Ġfresh": 6482,
    "Ġgather": 6483,
    "ĠQueen": 6484,
    "Ġcooperate": 6485,
    "aff": 6486,
    "Ġjet": 6487,
    "Ġcouldn": 6488,
    "Ġprinter": 6489,
    "Ġwriting": 6490,
    "Ġnext": 6491,
    "Ġopport": 6492,
    "Ġtooth": 6493,
    "ungle": 6494,
    "Ġswords": 6495,
    "Ġflags": 6496,
    "Ġfroze": 6497,
    "Ġthieves": 6498,
    "ĠGod": 6499,
    "akes": 6500,
    "ĠSuzie": 6501,
    "Ġzigzags": 6502,
    "Ġpal": 6503,
    "Ġcheck": 6504,
    "ĠGet": 6505,
    "igning": 6506,
    "Ġattic": 6507,
    "free": 6508,
    "Ġcollected": 6509,
    "ind": 6510,
    "inky": 6511,
    "These": 6512,
    "ĠWant": 6513,
    "Ġperm": 6514,
    "Ġpill": 6515,
    "Ġeither": 6516,
    "Ġknocking": 6517,
    "ady": 6518,
    "Ġfar": 6519,
    "Ġanswering": 6520,
    "ĠTry": 6521,
    "xy": 6522,
    "ael": 6523,
    "Ġpoor": 6524,
    "uzz": 6525,
    "cho": 6526,
    "Ġspice": 6527,
    "elly": 6528,
    "bie": 6529,
    "Ġspat": 6530,
    "ĠUp": 6531,
    "Ġblack": 6532,
    "Ġeast": 6533,
    "Ġworries": 6534,
    "Ġfacing": 6535,
    "Ġgrassy": 6536,
    "Ġpolished": 6537,
    "Ġlibr": 6538,
    "uly": 6539,
    "Ġknit": 6540,
    "Ġflutter": 6541,
    "ĠBet": 6542,
    "Ġuntangle": 6543,
    "Ġknight": 6544,
    "Ġfavourite": 6545,
    "Ġindependent": 6546,
    "Ġop": 6547,
    "Ġpastries": 6548,
    "Ġfinds": 6549,
    "ĠFiona": 6550,
    "ĠGiant": 6551,
    "Ġmill": 6552,
    "te": 6553,
    "Ġunfortunately": 6554,
    "Ġocc": 6555,
    "Zara": 6556,
    "hood": 6557,
    "Ġdisplay": 6558,
    "Ġprayers": 6559,
    "ance": 6560,
    "Ġsorts": 6561,
    "Ġforgets": 6562,
    "Ġsticking": 6563,
    "Lola": 6564,
    "Ġclothes": 6565,
    "Ġsniffled": 6566,
    "Jump": 6567,
    "keleton": 6568,
    "Mr": 6569,
    "head": 6570,
    "Ġlet": 6571,
    "Ġzipping": 6572,
    "Ġbase": 6573,
    "Ġespecially": 6574,
    "uggage": 6575,
    "Ġsomething": 6576,
    "ĠIsn": 6577,
    "Ġmoment": 6578,
    "Tuna": 6579,
    "Ġshield": 6580,
    "uster": 6581,
    "Ġplayd": 6582,
    "Ġprepare": 6583,
    "Ġplanting": 6584,
    "Ġdessert": 6585,
    "ĠWorking": 6586,
    "ĠStella": 6587,
    "ĠFlopsy": 6588,
    "Ġlaund": 6589,
    "Ġdefinitely": 6590,
    "Ġeyes": 6591,
    "ĠClose": 6592,
    "ĠSn": 6593,
    "Ġprick": 6594,
    "Ġsurfed": 6595,
    "ĠOur": 6596,
    "Ġprovide": 6597,
    "Spe": 6598,
    "Ġroaring": 6599,
    "Ġtriangles": 6600,
    "die": 6601,
    "Ġsqueak": 6602,
    "Ġinside": 6603,
    "Ġmeat": 6604,
    "Ġmen": 6605,
    "Boys": 6606,
    "Ġfixed": 6607,
    "Jess": 6608,
    "Ġann": 6609,
    "Ġtry": 6610,
    "Ġsus": 6611,
    "Ġadventures": 6612,
    "Ġtails": 6613,
    "ĠRaven": 6614,
    "sity": 6615,
    "Ġspills": 6616,
    "Ġfrog": 6617,
    "Ġcloudy": 6618,
    "ack": 6619,
    "Ġbaked": 6620,
    "Ġlollipops": 6621,
    "oga": 6622,
    "É": 6623,
    "Ġexch": 6624,
    "Ġcartoons": 6625,
    "ĠOutside": 6626,
    "fortunately": 6627,
    "Ġh": 6628,
    "Ġalien": 6629,
    "Ġgrowling": 6630,
    "Ġfluttered": 6631,
    "ĠJudy": 6632,
    "ark": 6633,
    "ĠRover": 6634,
    "roken": 6635,
    "Ġpar": 6636,
    "ĠBeaky": 6637,
    "Ġgrandchild": 6638,
    "Ġnoodles": 6639,
    "Ġcharming": 6640,
    "anced": 6641,
    "Ġchuck": 6642,
    "Ġpalms": 6643,
    "Ġlog": 6644,
    "Ġmission": 6645,
    "Ġasks": 6646,
    "ĠCh": 6647,
    "Ġdisgust": 6648,
    "Ġscreamed": 6649,
    "Ġreind": 6650,
    "ĠIn": 6651,
    "Ġreverse": 6652,
    "Ġsense": 6653,
    "iggly": 6654,
    "Ġbreaths": 6655,
    "Ġannounced": 6656,
    "Ġbuzz": 6657,
    "Ġstirring": 6658,
    "weed": 6659,
    "Ġstreets": 6660,
    "Ġbeads": 6661,
    "Ġfinding": 6662,
    "Ġkneel": 6663,
    "Moo": 6664,
    "Finny": 6665,
    "ĠSm": 6666,
    "Catch": 6667,
    "Ġwalls": 6668,
    "Ġbird": 6669,
    "Ġbeak": 6670,
    "d": 6671,
    "Ġrobbers": 6672,
    "ĠC": 6673,
    "Ġsuccessful": 6674,
    "Ġfolds": 6675,
    "Ġlemons": 6676,
    "Ġmugs": 6677,
    "Ġcarts": 6678,
    "onies": 6679,
    "Ġfort": 6680,
    "Ġzoom": 6681,
    "Ġswimming": 6682,
    "ĠLola": 6683,
    "Ġlung": 6684,
    "ĠSpeedy": 6685,
    "ĠCro": 6686,
    "Ġbuy": 6687,
    "eer": 6688,
    "Ġbridge": 6689,
    "Ġcolourful": 6690,
    "Ġfurry": 6691,
    "ĠJacky": 6692,
    "Ġships": 6693,
    "Ġsports": 6694,
    "Ġblame": 6695,
    "ĠHope": 6696,
    "Ġitself": 6697,
    "Ġcrown": 6698,
    "ump": 6699,
    "Ġwelcomed": 6700,
    "Ġring": 6701,
    "ĠEl": 6702,
    "line": 6703,
    "Ġsprinkles": 6704,
    "ashed": 6705,
    "ix": 6706,
    "Ġsunny": 6707,
    "Ġtipto": 6708,
    "Ġfreedom": 6709,
    "oved": 6710,
    "More": 6711,
    "Ġrefreshing": 6712,
    "Ġgrab": 6713,
    "Ġminer": 6714,
    "ĠMira": 6715,
    "Ġpout": 6716,
    "Ġconfused": 6717,
    "aws": 6718,
    "Ġsmiled": 6719,
    "less": 6720,
    "Ġtummy": 6721,
    "Ġwould": 6722,
    "ĠĊ": 6723,
    "Ġfif": 6724,
    "Ġscore": 6725,
    "ĠPenny": 6726,
    "Ġlifted": 6727,
    "Ġcous": 6728,
    "Ġotherwise": 6729,
    "Ġbats": 6730,
    "Ġweighing": 6731,
    "Ġbelongs": 6732,
    "Ġtemper": 6733,
    "Ġcrops": 6734,
    "Ġspreading": 6735,
    "İ": 6736,
    "Ġroar": 6737,
    "my": 6738,
    "And": 6739,
    "ĠX": 6740,
    "Ġforgot": 6741,
    "Ġbar": 6742,
    "ĠStep": 6743,
    "Ġsurv": 6744,
    "Play": 6745,
    "Ġblushed": 6746,
    "eterin": 6747,
    "ther": 6748,
    "Ġwebs": 6749,
    "lease": 6750,
    "Ġapple": 6751,
    "Ġhissed": 6752,
    "Ġdrive": 6753,
    "yd": 6754,
    "Ġpotion": 6755,
    "Ġreveal": 6756,
    "Ġnet": 6757,
    "Ġate": 6758,
    "Ġcheek": 6759,
    "Ġadding": 6760,
    "arning": 6761,
    "Ġlosing": 6762,
    "Ġburned": 6763,
    "Ġstripes": 6764,
    "ibi": 6765,
    "You": 6766,
    "Ġnotebook": 6767,
    "Ġghost": 6768,
    "Ġsafely": 6769,
    "Ġchirping": 6770,
    "Tilly": 6771,
    "Ġguardian": 6772,
    "ĠInside": 6773,
    "Ġquack": 6774,
    "Ġsmarter": 6775,
    "Ġcompleted": 6776,
    "Ġcoug": 6777,
    "annah": 6778,
    "Ġpreparing": 6779,
    "Ġlied": 6780,
    "Ġsmelly": 6781,
    "Ġattract": 6782,
    "Ġslap": 6783,
    "ining": 6784,
    "Ġspots": 6785,
    "Ġdesperate": 6786,
    "Ġticket": 6787,
    "ĠDee": 6788,
    "Ġurged": 6789,
    "ue": 6790,
    "vous": 6791,
    "Ġstack": 6792,
    "Ġrained": 6793,
    "Ġtonight": 6794,
    "ĠThank": 6795,
    "ĠSc": 6796,
    "oll": 6797,
    "Ġbeep": 6798,
    ".'\"": 6799,
    "Ġvoices": 6800,
    "Ġtickle": 6801,
    "Ĉ": 6802,
    "²": 6803,
    "Ġbouncy": 6804,
    "Ġchanging": 6805,
    "Ġglowed": 6806,
    "âĢĻ": 6807,
    "Ġfears": 6808,
    "Ġanother": 6809,
    "Ġenemies": 6810,
    "Ġseeker": 6811,
    "Ġalso": 6812,
    "Ġtrave": 6813,
    "Ġplanned": 6814,
    "ĠWhile": 6815,
    "Ġbrushing": 6816,
    "Ġleast": 6817,
    "unn": 6818,
    "ogo": 6819,
    "iddle": 6820,
    "Ġfuture": 6821,
    "Ġhope": 6822,
    "Ġscen": 6823,
    "bled": 6824,
    "ĠOld": 6825,
    "Ġbeating": 6826,
    "lor": 6827,
    "bbers": 6828,
    "Ġmembers": 6829,
    "ĠâĢ": 6830,
    "Ġtrampoline": 6831,
    "Ġhorn": 6832,
    "Ġtugging": 6833,
    "Ġsign": 6834,
    "Ġtremb": 6835,
    "Ġtwink": 6836,
    "ĠBecky": 6837,
    "Maria": 6838,
    "Ġtrot": 6839,
    "Ġdoorway": 6840,
    "urch": 6841,
    "riends": 6842,
    "Ġsays": 6843,
    "Ġsize": 6844,
    "ĠBee": 6845,
    "ĠSquee": 6846,
    "ĠMoppy": 6847,
    "Ġbricks": 6848,
    "alous": 6849,
    "Ġpeek": 6850,
    "ĠInch": 6851,
    "ddy": 6852,
    "Ġheard": 6853,
    "aved": 6854,
    "Ġpills": 6855,
    "Ġblueberry": 6856,
    "Ġbegin": 6857,
    "'.\"": 6858,
    "ebook": 6859,
    "Ġcrunchy": 6860,
    "per": 6861,
    "Ġsinger": 6862,
    "Ġmanners": 6863,
    "ĠMatilda": 6864,
    "ĠBally": 6865,
    "Ġcharacters": 6866,
    "Ġimpressed": 6867,
    "Ġconvers": 6868,
    "Ġgrowled": 6869,
    "Ġhatched": 6870,
    "ul": 6871,
    "ĠLike": 6872,
    "Big": 6873,
    "Ġsore": 6874,
    "Ġcroaked": 6875,
    "cked": 6876,
    "Ġconfl": 6877,
    "Ġhunting": 6878,
    "Ġinviting": 6879,
    "cks": 6880,
    "Ġhop": 6881,
    "Ġpinch": 6882,
    "Ġtwenty": 6883,
    "cond": 6884,
    "Ġdeer": 6885,
    "Ġlistened": 6886,
    "ĠJessie": 6887,
    "ĠSammy": 6888,
    "Ġnoon": 6889,
    "Ġvendor": 6890,
    "Ġsquee": 6891,
    "Ġslithered": 6892,
    "Ġdaughter": 6893,
    "Ted": 6894,
    "Ġseparate": 6895,
    "Ġcurious": 6896,
    "Ġmarriage": 6897,
    "bling": 6898,
    "Ġbubble": 6899,
    "Ġstepped": 6900,
    "Ġpoop": 6901,
    "Ġ\"": 6902,
    "Ġsuff": 6903,
    "Ġsets": 6904,
    "Ġpaint": 6905,
    "ĠJ": 6906,
    "Ġchain": 6907,
    "Ġcupboard": 6908,
    "Ġsepar": 6909,
    "Ġexamined": 6910,
    "ĠWh": 6911,
    "vant": 6912,
    "robe": 6913,
    "chie": 6914,
    "Ġph": 6915,
    "Ġhandsome": 6916,
    "Ġnecklaces": 6917,
    "Ġflying": 6918,
    "Ġpeaceful": 6919,
    "Ġdeclared": 6920,
    "Ġgoose": 6921,
    "udged": 6922,
    "ĠLiz": 6923,
    "Ġlaughing": 6924,
    "pan": 6925,
    "ĠHowever": 6926,
    "Fo": 6927,
    "Well": 6928,
    "Ġresist": 6929,
    "Ġst": 6930,
    "Ġstuffing": 6931,
    "ĠApp": 6932,
    "Ġconcerned": 6933,
    "Ġvibrant": 6934,
    "Ġhoney": 6935,
    "Ġforts": 6936,
    "Doggy": 6937,
    "Ġrecording": 6938,
    "Ġraccoon": 6939,
    "Ġflew": 6940,
    "abelle": 6941,
    "Ġperforming": 6942,
    "ĠCuddles": 6943,
    "Ġ2": 6944,
    "Fly": 6945,
    "Ġrelieved": 6946,
    "Ġbitten": 6947,
    "÷": 6948,
    "Ġanymore": 6949,
    "Ġfarthest": 6950,
    "Ġmag": 6951,
    "ĠJune": 6952,
    "Ġfab": 6953,
    "Ġgrass": 6954,
    "Ġsprang": 6955,
    "Hi": 6956,
    "Lou": 6957,
    "Ġpad": 6958,
    "Ġawhile": 6959,
    "ief": 6960,
    "Benny": 6961,
    "Ġtwice": 6962,
    "Ġtires": 6963,
    "Ġbreak": 6964,
    "Ġskill": 6965,
    "Ġtaxi": 6966,
    "Ġcase": 6967,
    "Ġruin": 6968,
    "irl": 6969,
    "Ġforgiveness": 6970,
    "Ġdragons": 6971,
    "Ġlooked": 6972,
    "Clara": 6973,
    "Ġowned": 6974,
    "Ġgroceries": 6975,
    "Ġspoil": 6976,
    "ient": 6977,
    "Ġequipment": 6978,
    "anny": 6979,
    "ĠSing": 6980,
    "ocular": 6981,
    "Ġbond": 6982,
    "Ġarri": 6983,
    "tha": 6984,
    "ote": 6985,
    "ĠAnnabelle": 6986,
    "Later": 6987,
    "corn": 6988,
    "ongratul": 6989,
    "Ġcracks": 6990,
    "Ġprint": 6991,
    "Ġpoking": 6992,
    "Ġpedaled": 6993,
    "htub": 6994,
    "Ġcutting": 6995,
    "Ġsimple": 6996,
    "Ġdrifted": 6997,
    "Ġgust": 6998,
    "rest": 6999,
    "Ġsticks": 7000,
    "Ġkayak": 7001,
    "Ġexams": 7002,
    "Ġfelt": 7003,
    "xygen": 7004,
    "D": 7005,
    "Ġspoonful": 7006,
    "Ġfed": 7007,
    "selves": 7008,
    "Ġcor": 7009,
    "ĠYawn": 7010,
    "ose": 7011,
    "Ġmix": 7012,
    "Ġdidn": 7013,
    "ĠJan": 7014,
    "fortable": 7015,
    "Ġcounting": 7016,
    "Ġwire": 7017,
    "Ġcolored": 7018,
    "We": 7019,
    "Ġdads": 7020,
    "Ġtodd": 7021,
    "laire": 7022,
    "ved": 7023,
    "Ġfond": 7024,
    "Ġam": 7025,
    "Ġcage": 7026,
    "Yummy": 7027,
    "µ": 7028,
    "Ġbye": 7029,
    "sty": 7030,
    "Ġhalves": 7031,
    "ĠDavey": 7032,
    "erp": 7033,
    "Ġcash": 7034,
    "ither": 7035,
    "chen": 7036,
    "idence": 7037,
    "irth": 7038,
    "Ġangels": 7039,
    "Poppy": 7040,
    "Ġt": 7041,
    "ĠRavi": 7042,
    "sit": 7043,
    "Ġforever": 7044,
    "Ġbuckets": 7045,
    "Ġnine": 7046,
    "Ġtide": 7047,
    "ĠFluffy": 7048,
    "ĠCo": 7049,
    "des": 7050,
    "Ġtrigger": 7051,
    "Ġputs": 7052,
    "Ġburns": 7053,
    "ĠMarie": 7054,
    "Ġleaves": 7055,
    "Ġbeeh": 7056,
    "Ġface": 7057,
    "Ġunderstands": 7058,
    "Ġwins": 7059,
    "Ġinstead": 7060,
    "Ġingredients": 7061,
    "Ġmarched": 7062,
    "Ġstra": 7063,
    "ĠPiggy": 7064,
    "Ġworst": 7065,
    "Ġbeetle": 7066,
    "Ġtrusts": 7067,
    "ĠCr": 7068,
    "Bear": 7069,
    "Ġk": 7070,
    "ĠBaa": 7071,
    "Ġthrew": 7072,
    "anwhile": 7073,
    "Ġbless": 7074,
    "onnie": 7075,
    "oon": 7076,
    "Ġlaundry": 7077,
    "ĠRel": 7078,
    "Ġparked": 7079,
    "Ġoutfit": 7080,
    "Pippin": 7081,
    "Ġprinted": 7082,
    "ĠEmmy": 7083,
    "Ġpine": 7084,
    "cker": 7085,
    "ream": 7086,
    "Ġthis": 7087,
    "ib": 7088,
    "ĠFred": 7089,
    "Uncle": 7090,
    "ĠRainbow": 7091,
    "ĠSmo": 7092,
    "ually": 7093,
    "ĠTriangle": 7094,
    "bang": 7095,
    "Ġdinner": 7096,
    "Ġeating": 7097,
    "ĠJazz": 7098,
    "Ġflavors": 7099,
    "Ġsnug": 7100,
    "ailable": 7101,
    "Ġflashed": 7102,
    "Ġpigs": 7103,
    "Ġresult": 7104,
    "vision": 7105,
    "Ġaisle": 7106,
    "Ġsandwiches": 7107,
    "Ġprinting": 7108,
    "choo": 7109,
    "Ġsuffering": 7110,
    "ooks": 7111,
    "Ġcoal": 7112,
    "ult": 7113,
    "Ġrhinoceros": 7114,
    "Ġignoring": 7115,
    "ĠTo": 7116,
    "Ġsuit": 7117,
    "Mary": 7118,
    "ĠStill": 7119,
    "Ġscrat": 7120,
    "Ġrabbit": 7121,
    "Ġsucceed": 7122,
    "Ġesc": 7123,
    "ĠHippy": 7124,
    "Ġwaffles": 7125,
    "Ġcutter": 7126,
    "Ġpaints": 7127,
    "oline": 7128,
    "inger": 7129,
    "N": 7130,
    "Ġrespond": 7131,
    "Ġpeel": 7132,
    "ĠShow": 7133,
    "ub": 7134,
    "Ġdo": 7135,
    "Ġrespons": 7136,
    "neath": 7137,
    "Ġexplaining": 7138,
    "ar": 7139,
    "Ġsteam": 7140,
    "ĠNutty": 7141,
    "Ġclean": 7142,
    "ushes": 7143,
    "Ġpage": 7144,
    "Ġspeed": 7145,
    "ĠYummy": 7146,
    "asp": 7147,
    "Ġunless": 7148,
    "Ġcupcake": 7149,
    "Ġexpl": 7150,
    "Ġseals": 7151,
    "Ġouch": 7152,
    "Ġpots": 7153,
    "Ġmixture": 7154,
    "Ġtopp": 7155,
    "¢": 7156,
    "ĠFroggy": 7157,
    "nd": 7158,
    "ĠFrom": 7159,
    "sses": 7160,
    "lph": 7161,
    "·": 7162,
    "Mad": 7163,
    "Ġevening": 7164,
    "Ġaf": 7165,
    "Ġbandage": 7166,
    "Ġbicy": 7167,
    "Ġwanting": 7168,
    "cuse": 7169,
    "chievous": 7170,
    "Luke": 7171,
    "Ġmunched": 7172,
    "Julia": 7173,
    "Ġwheat": 7174,
    "Lena": 7175,
    "Ď": 7176,
    "Ġbrains": 7177,
    "Ġpennies": 7178,
    "Ġsplashed": 7179,
    "Ġspring": 7180,
    "When": 7181,
    "ĠEllie": 7182,
    "Ġyarn": 7183,
    "Ġchallenge": 7184,
    "day": 7185,
    "Ġrustling": 7186,
    "Ġinteresting": 7187,
    "ading": 7188,
    "antha": 7189,
    "Ġrags": 7190,
    "Ġvet": 7191,
    "Ġsale": 7192,
    "Ġdirtier": 7193,
    "Ġtroubled": 7194,
    "Ġscratch": 7195,
    "adow": 7196,
    "Ġcelebr": 7197,
    "Hoppy": 7198,
    "Ġcust": 7199,
    "Ġseparating": 7200,
    "Ġhero": 7201,
    "ho": 7202,
    "Ġcarrying": 7203,
    "dile": 7204,
    "Ġmommies": 7205,
    "Ġrepe": 7206,
    "Ġremembered": 7207,
    "ĠMaddie": 7208,
    "Ġtwisted": 7209,
    "Gr": 7210,
    "P": 7211,
    "Ġexperience": 7212,
    "ĠFox": 7213,
    "Ġchoice": 7214,
    "iam": 7215,
    "'ll": 7216,
    "Ġmeowed": 7217,
    "aa": 7218,
    "Ġshrinking": 7219,
    "aver": 7220,
    "Everything": 7221,
    "Ġconc": 7222,
    "ĠSleepy": 7223,
    "Ġfoxes": 7224,
    "Ġokay": 7225,
    "z": 7226,
    "Ġlocal": 7227,
    "Ġsunglasses": 7228,
    "Ġswept": 7229,
    "abbit": 7230,
    "Ġtuna": 7231,
    "Ġsince": 7232,
    "Ġang": 7233,
    "Ġflowing": 7234,
    "ĠJess": 7235,
    "ĠFloppy": 7236,
    "Ġtongues": 7237,
    "ĠSasha": 7238,
    "ĠMartha": 7239,
    "icked": 7240,
    "Ġmist": 7241,
    "Ġhill": 7242,
    "Ġdrops": 7243,
    "Ġown": 7244,
    "Ġraced": 7245,
    "Ġast": 7246,
    "Ġtunes": 7247,
    "retch": 7248,
    "Ġwigg": 7249,
    "Ġbang": 7250,
    "ĠLuke": 7251,
    "Ġspears": 7252,
    "Ġlightning": 7253,
    "Ġthings": 7254,
    "Danny": 7255,
    "ĠQuick": 7256,
    "ĠTiny": 7257,
    "Ġinto": 7258,
    "Ġknow": 7259,
    "ĠAmelia": 7260,
    "Ġindepend": 7261,
    "Tweet": 7262,
    "anda": 7263,
    "Ġuntil": 7264,
    "Ġcreations": 7265,
    "Ġreally": 7266,
    "Ġsnowmen": 7267,
    "Ġtoast": 7268,
    "Everyone": 7269,
    "Ġnapkins": 7270,
    "Come": 7271,
    "Ġoxygen": 7272,
    "Ġreminded": 7273,
    "ĠNe": 7274,
    "ĠMeg": 7275,
    "Ġpuzzle": 7276,
    "eling": 7277,
    "Ġfriend": 7278,
    "b": 7279,
    "Ġpracticed": 7280,
    "ishing": 7281,
    "ses": 7282,
    "Ġmesmerized": 7283,
    "Ġnone": 7284,
    "igi": 7285,
    "Ġfirmly": 7286,
    "ĠTia": 7287,
    "ths": 7288,
    "Ġmittens": 7289,
    "Zoomy": 7290,
    "This": 7291,
    "ian": 7292,
    "Ġalone": 7293,
    "ĠLeave": 7294,
    "Ready": 7295,
    "Ġwears": 7296,
    "ĠSquirrel": 7297,
    "Ġcelebrated": 7298,
    "ĠMissy": 7299,
    "aren": 7300,
    "zy": 7301,
    "lay": 7302,
    "Ġglitter": 7303,
    "Ġhungry": 7304,
    "Ġzigzag": 7305,
    "Ġforth": 7306,
    "Ġmeeting": 7307,
    "Ġrainy": 7308,
    "Ġshow": 7309,
    "ell": 7310,
    "ĠMad": 7311,
    "Ġmatch": 7312,
    "Ġyears": 7313,
    "Ġslapping": 7314,
    "Ġstart": 7315,
    "apers": 7316,
    "Ġoccas": 7317,
    "Yes": 7318,
    "most": 7319,
    "Ġspikes": 7320,
    "Ġpopping": 7321,
    "hog": 7322,
    "ĠO": 7323,
    "Ġperformed": 7324,
    "'re": 7325,
    "ife": 7326,
    "Ġchimney": 7327,
    "Ġleaving": 7328,
    "cast": 7329,
    "ĠBo": 7330,
    "ĠHannah": 7331,
    "Ġguard": 7332,
    "ĠHorsie": 7333,
    "ĠLove": 7334,
    "ĠPinky": 7335,
    "Ġswirls": 7336,
    "Ġsteering": 7337,
    "Ġfly": 7338,
    "Jill": 7339,
    "Ġsnuggled": 7340,
    "Ġmall": 7341,
    "Ġsecrets": 7342,
    "oss": 7343,
    "Ġhopping": 7344,
    "Ġaeroplane": 7345,
    "Ġhurried": 7346,
    "Ġswaying": 7347,
    "Ġme": 7348,
    "Ġchips": 7349,
    "Ġroared": 7350,
    "Ġdamaged": 7351,
    "Ġint": 7352,
    "Ġdownstairs": 7353,
    "ever": 7354,
    "Ġattacked": 7355,
    "Fl": 7356,
    "Ġcustomer": 7357,
    "Mandy": 7358,
    "ĠBree": 7359,
    "Ġroses": 7360,
    "ella": 7361,
    "Ġseeking": 7362,
    "Ġonions": 7363,
    "Ġfire": 7364,
    "Ġamaz": 7365,
    "Ġhaven": 7366,
    "Ġsilly": 7367,
    "ĠRosie": 7368,
    "Ġended": 7369,
    "Ġnobody": 7370,
    "ĠAunt": 7371,
    "so": 7372,
    "lace": 7373,
    "Ġsquirted": 7374,
    "Zero": 7375,
    "Ġtip": 7376,
    "Ġset": 7377,
    "ĠBirthday": 7378,
    "ĠDolly": 7379,
    "Ġbank": 7380,
    "Ġwants": 7381,
    "Ġsure": 7382,
    "Ġfrost": 7383,
    "Ġeventually": 7384,
    "Ġfollowing": 7385,
    "Ġsty": 7386,
    "Ġwhistles": 7387,
    "a": 7388,
    "oni": 7389,
    "Jerry": 7390,
    "Ġarrived": 7391,
    "ora": 7392,
    "Ġcher": 7393,
    "Ġgardener": 7394,
    "ntil": 7395,
    "Ġbent": 7396,
    "snap": 7397,
    "Ġtrying": 7398,
    "Ġblooms": 7399,
    "Ġpepperoni": 7400,
    "Ġcherry": 7401,
    "alph": 7402,
    "Ġtriangle": 7403,
    "Ġflashing": 7404,
    "Ġsettled": 7405,
    "Ġreversed": 7406,
    "Ġstreng": 7407,
    "Ġavoid": 7408,
    "Ġemb": 7409,
    "Ġmatters": 7410,
    "Ġsmooth": 7411,
    "mm": 7412,
    "Ġsnatched": 7413,
    "aur": 7414,
    "Ġrefused": 7415,
    "Ġsyrup": 7416,
    "Ġcloset": 7417,
    "bers": 7418,
    "Ġshirts": 7419,
    "Ġtre": 7420,
    "Ġmarry": 7421,
    "Ġfluffy": 7422,
    "Ġunderneath": 7423,
    "Ġreading": 7424,
    "ĠSnowman": 7425,
    "Ġother": 7426,
    "Ġspinning": 7427,
    "Ġkicking": 7428,
    "Ġtant": 7429,
    "Ġpige": 7430,
    "Ġcurt": 7431,
    "Ġorder": 7432,
    "Ġemp": 7433,
    "Ġmo": 7434,
    "Ġresponse": 7435,
    "idey": 7436,
    "Ġwilling": 7437,
    "Ġcomplaining": 7438,
    "Ġforeshadow": 7439,
    "ĠSplash": 7440,
    "Ġtrusted": 7441,
    "en": 7442,
    "Ġseem": 7443,
    "ls": 7444,
    "ups": 7445,
    "Ġhammer": 7446,
    "Fluffy": 7447,
    "Ġx": 7448,
    "ĠBu": 7449,
    "Ġraining": 7450,
    "Oh": 7451,
    "Ġrepair": 7452,
    "Ġking": 7453,
    "Ġdod": 7454,
    "Ġfilled": 7455,
    "Ġshady": 7456,
    "Ġant": 7457,
    "Daddy": 7458,
    "Ġle": 7459,
    "Ġbalancing": 7460,
    "itter": 7461,
    "Ġfavour": 7462,
    "oceros": 7463,
    "Ġsmaller": 7464,
    "Robbie": 7465,
    "Ġprom": 7466,
    "Ġhide": 7467,
    "Ġtowns": 7468,
    "Ġdesks": 7469,
    "jo": 7470,
    "ears": 7471,
    "Ġstamp": 7472,
    "Ġbody": 7473,
    "Bobby": 7474,
    "ĠSpeed": 7475,
    "Ġdiscovery": 7476,
    "Ġserved": 7477,
    "Ġsymbol": 7478,
    "Ġcheap": 7479,
    "Ġsausage": 7480,
    "ĠMar": 7481,
    "Ġtells": 7482,
    "ĠCrusty": 7483,
    "rec": 7484,
    "ĠSophia": 7485,
    "Ġtar": 7486,
    "oph": 7487,
    "Ġcrocodiles": 7488,
    "yl": 7489,
    "Ġtowers": 7490,
    "welcome": 7491,
    "illy": 7492,
    "aker": 7493,
    "Ġart": 7494,
    "Ġrelief": 7495,
    "Ġlimes": 7496,
    "Ġhelpers": 7497,
    "Luckily": 7498,
    "Ġenormous": 7499,
    "Look": 7500,
    "Ġlistens": 7501,
    "ĠLots": 7502,
    "Ġfilling": 7503,
    "Ġpudd": 7504,
    "Ġfl": 7505,
    "elcome": 7506,
    "ries": 7507,
    "kend": 7508,
    "Ġroars": 7509,
    "Ġrelaxing": 7510,
    "aken": 7511,
    "Ġtor": 7512,
    "Ġtiger": 7513,
    "Ġsurround": 7514,
    "Ġrolls": 7515,
    "Ġcon": 7516,
    "othy": 7517,
    "Ġdear": 7518,
    "Ġdistant": 7519,
    "Ġbrightly": 7520,
    "£": 7521,
    "Ġdreaming": 7522,
    "amed": 7523,
    "ĠToby": 7524,
    "$": 7525,
    "ĠAlice": 7526,
    "Ġbackpacks": 7527,
    "Milly": 7528,
    "Ġshoes": 7529,
    "Ġmed": 7530,
    "zing": 7531,
    "Ġeveryday": 7532,
    "bee": 7533,
    "Ġwinning": 7534,
    "arrass": 7535,
    "Ġskirt": 7536,
    "Ġwatermel": 7537,
    "Ġglided": 7538,
    "iff": 7539,
    "Ġdoor": 7540,
    "Ġwaiter": 7541,
    "amie": 7542,
    "Ġrewarding": 7543,
    "ĠGold": 7544,
    "Ġstre": 7545,
    "Ġrode": 7546,
    "Ġthirsty": 7547,
    "Ġacted": 7548,
    "Ġforg": 7549,
    "Ġrotting": 7550,
    "ndma": 7551,
    "ĠZigzag": 7552,
    "Hold": 7553,
    "Ġhearts": 7554,
    "Ġsn": 7555,
    "ount": 7556,
    "Ġeager": 7557,
    "Ġumbrella": 7558,
    "Ġdeser": 7559,
    "Ġmeasure": 7560,
    "Ġdark": 7561,
    "ĠMabel": 7562,
    "Ġdoing": 7563,
    "Goodbye": 7564,
    "Ġthink": 7565,
    "Ġsurprise": 7566,
    "ays": 7567,
    "Ġjeep": 7568,
    "Ġwiping": 7569,
    "Ġrevealing": 7570,
    "Ġmush": 7571,
    "Ġpersistence": 7572,
    "lower": 7573,
    "Ġsilver": 7574,
    "Ġbloom": 7575,
    "Ġrequested": 7576,
    "web": 7577,
    "Ġcautiously": 7578,
    "Ġswimsuits": 7579,
    "Ġhold": 7580,
    "Ġwhoosh": 7581,
    "Ġscared": 7582,
    "Ġswallowed": 7583,
    "Ġjourneys": 7584,
    "ĠSteven": 7585,
    "Ġfolding": 7586,
    "Daisy": 7587,
    "Ġfin": 7588,
    "Ġwouldn": 7589,
    "Ġsafer": 7590,
    "Ġconn": 7591,
    "Ġobject": 7592,
    "vice": 7593,
    "Ġburnt": 7594,
    "Ġstupid": 7595,
    "Ġbodies": 7596,
    "abby": 7597,
    "Ġcongratul": 7598,
    "ú": 7599,
    "Beth": 7600,
    "ettle": 7601,
    "ĠSofia": 7602,
    "ĠDare": 7603,
    "con": 7604,
    "Ġribb": 7605,
    "Ġmiles": 7606,
    "uke": 7607,
    "ission": 7608,
    "rance": 7609,
    "Ġfirefighters": 7610,
    "Ġbroken": 7611,
    "Ġwelc": 7612,
    "Ġrealize": 7613,
    "Ġcompetition": 7614,
    "Ġbas": 7615,
    "Ġinf": 7616,
    "ĠMagic": 7617,
    "Ġspace": 7618,
    "Ġpengu": 7619,
    "ĠIce": 7620,
    "ract": 7621,
    "Ġbeneath": 7622,
    "pected": 7623,
    "ertain": 7624,
    "Su": 7625,
    "ory": 7626,
    "Ġcotton": 7627,
    "Ġlearnt": 7628,
    "Ġmattress": 7629,
    "Ġcupcakes": 7630,
    "ffe": 7631,
    "Ġtouched": 7632,
    "Ġtoo": 7633,
    "ĠAfter": 7634,
    "Ġwarmed": 7635,
    "Ġannoy": 7636,
    "eration": 7637,
    "All": 7638,
    "iable": 7639,
    "Ġeffort": 7640,
    "Ġname": 7641,
    "Ġmaker": 7642,
    "are": 7643,
    "ivery": 7644,
    "Ġexerc": 7645,
    "uxu": 7646,
    "Ġseemed": 7647,
    "Ġwip": 7648,
    "Ġfish": 7649,
    "Ġpainting": 7650,
    "Ġgate": 7651,
    "ĠComet": 7652,
    "Ġbamboo": 7653,
    "Ġowner": 7654,
    "Ġtelephone": 7655,
    "Ro": 7656,
    "Ġsoap": 7657,
    "Ġsomet": 7658,
    "Ġswapped": 7659,
    "Ġopened": 7660,
    "Ġpicking": 7661,
    "..": 7662,
    "Ġglee": 7663,
    "Ġsounded": 7664,
    "Ġlawy": 7665,
    "Sleep": 7666,
    "ong": 7667,
    "Ġpuddles": 7668,
    "Ġyield": 7669,
    "Ġoverwhel": 7670,
    "mare": 7671,
    "Ġstays": 7672,
    "row": 7673,
    "Wake": 7674,
    "Ġyogurt": 7675,
    "igger": 7676,
    "Ol": 7677,
    "Ġobe": 7678,
    "Ġfinal": 7679,
    "ĠFu": 7680,
    "Ġcashier": 7681,
    "Ġtools": 7682,
    "Ġjudge": 7683,
    "Ġair": 7684,
    "izzes": 7685,
    "Ġbirds": 7686,
    "Ġthanked": 7687,
    "Ġstat": 7688,
    "ĠMa": 7689,
    "met": 7690,
    "Friends": 7691,
    "Ġnaps": 7692,
    "ĠPeep": 7693,
    "Ġbetter": 7694,
    "Ġbuilders": 7695,
    "Ġcourt": 7696,
    "Ġflashlight": 7697,
    "Something": 7698,
    "ĠJoke": 7699,
    "uel": 7700,
    "Ġstores": 7701,
    "Ġrice": 7702,
    "Ġco": 7703,
    "Ġflipped": 7704,
    "Ġdecision": 7705,
    "edn": 7706,
    "itched": 7707,
    "ab": 7708,
    "Ġgranddaughter": 7709,
    "Ġquarreling": 7710,
    "Ġhum": 7711,
    "ĠBobbie": 7712,
    "Ġtwel": 7713,
    "Ġsupplies": 7714,
    "Ġhus": 7715,
    "Ġcleared": 7716,
    "Ġtransform": 7717,
    "Ġseriously": 7718,
    "Susan": 7719,
    "cle": 7720,
    "Ġwidened": 7721,
    "Ġtossing": 7722,
    "Ġmaps": 7723,
    "That": 7724,
    "Ġmessages": 7725,
    "Ġwarmer": 7726,
    "ĠJenna": 7727,
    "Ġrooms": 7728,
    "immering": 7729,
    "Ġquietly": 7730,
    "Ġjumped": 7731,
    "Ġdare": 7732,
    "Ġintelligent": 7733,
    "Ġsaying": 7734,
    "Make": 7735,
    "Ġrespectful": 7736,
    "Ġflown": 7737,
    "Ġbushy": 7738,
    "ĠWednesday": 7739,
    "ĠZack": 7740,
    "Ġdelicate": 7741,
    "als": 7742,
    "Ġtex": 7743,
    "ĠChirpy": 7744,
    "Ġpoison": 7745,
    "nder": 7746,
    "Ġend": 7747,
    "amp": 7748,
    "St": 7749,
    "room": 7750,
    "Ġarmchair": 7751,
    "Ġhisses": 7752,
    "Ġimagination": 7753,
    "Ġconversation": 7754,
    "Ġbehaviour": 7755,
    "ĠJamie": 7756,
    "Ġknows": 7757,
    "Ġpolar": 7758,
    "Ġfoot": 7759,
    "ĠFelix": 7760,
    "Ġgives": 7761,
    "ĠBloom": 7762,
    "Ġpeople": 7763,
    "Ġlit": 7764,
    "Ġwarm": 7765,
    "ince": 7766,
    "Ġaimed": 7767,
    "Ġcars": 7768,
    "Ġleaned": 7769,
    "Ġvelvet": 7770,
    "aug": 7771,
    "resses": 7772,
    "st": 7773,
    "Ha": 7774,
    "Ġguitars": 7775,
    "Ġnovels": 7776,
    "alley": 7777,
    "Ġpass": 7778,
    "Ġthr": 7779,
    "Ġadventur": 7780,
    "fus": 7781,
    "Ġunsure": 7782,
    "Ġwaddled": 7783,
    "icate": 7784,
    "Ġev": 7785,
    "Ġtrans": 7786,
    "Ġadults": 7787,
    "Ġneeded": 7788,
    "Ġinstantly": 7789,
    "Ġj": 7790,
    "ooky": 7791,
    "ĠBl": 7792,
    "Ġhowever": 7793,
    "Ġtrouble": 7794,
    "Ġaffect": 7795,
    "Ġte": 7796,
    "Ġfigure": 7797,
    "Ġwalk": 7798,
    "ĠJonny": 7799,
    "ippy": 7800,
    "Ġgetting": 7801,
    "Ġcosts": 7802,
    "^": 7803,
    "ĠJay": 7804,
    "Ġdent": 7805,
    "7": 7806,
    "Ġwin": 7807,
    "Ġhonest": 7808,
    "Ġdizzy": 7809,
    "Quack": 7810,
    "Ġallow": 7811,
    "Ġok": 7812,
    "ĠSp": 7813,
    "Ġcountryside": 7814,
    "Ġaeropl": 7815,
    "Ġsco": 7816,
    "Ġbroccoli": 7817,
    "Ġimproved": 7818,
    "Ġobeyed": 7819,
    "Ġprin": 7820,
    "Ġroot": 7821,
    "Ġpupp": 7822,
    "Ġheart": 7823,
    "Ġmoms": 7824,
    "Ġrose": 7825,
    "Ġfat": 7826,
    "Ġsnee": 7827,
    "ica": 7828,
    "urry": 7829,
    "Ġemer": 7830,
    "Ġlaught": 7831,
    "Ġpushes": 7832,
    "Ó": 7833,
    "Ġtasted": 7834,
    "ĠSal": 7835,
    "Ġwisely": 7836,
    "Ġexperienced": 7837,
    "the": 7838,
    "ester": 7839,
    "ched": 7840,
    "Ġholes": 7841,
    "Ġbandages": 7842,
    "Ġsnowballs": 7843,
    "bu": 7844,
    "ines": 7845,
    "Ġsort": 7846,
    "Ġpuddle": 7847,
    "Ġjars": 7848,
    "ĠCaptain": 7849,
    "ĠTammy": 7850,
    "Ġoccasion": 7851,
    "ħ": 7852,
    "ĠEventually": 7853,
    "rn": 7854,
    "<": 7855,
    "{": 7856,
    "ken": 7857,
    "Get": 7858,
    "Ġchases": 7859,
    "umbled": 7860,
    "If": 7861,
    "Ġhon": 7862,
    "Ġpops": 7863,
    "ĠNina": 7864,
    "ace": 7865,
    "aptain": 7866,
    "Ġpun": 7867,
    "Ġcudd": 7868,
    "Ġshapes": 7869,
    "Ġsend": 7870,
    "ĠGus": 7871,
    "og": 7872,
    "Ġmessy": 7873,
    "ĠPipp": 7874,
    "ĠStretch": 7875,
    "Ĩ": 7876,
    "Ġhelper": 7877,
    "Ġmagazine": 7878,
    "Ġprincesses": 7879,
    "ĠChess": 7880,
    "Ê": 7881,
    "Ġgoat": 7882,
    "Ġgoo": 7883,
    "Kitty": 7884,
    "Ġstop": 7885,
    "Ġspiders": 7886,
    "Ġphot": 7887,
    "Ġan": 7888,
    "Ġsleds": 7889,
    "Ġjolly": 7890,
    "Ġwave": 7891,
    "Ġsnowfl": 7892,
    "Ġtoolbox": 7893,
    "Ġexit": 7894,
    "Ġpokes": 7895,
    "Ġrich": 7896,
    "Ġpumpkins": 7897,
    "ĠSadie": 7898,
    "Ġbeauty": 7899,
    "Ġupstairs": 7900,
    "solutely": 7901,
    "Ġthought": 7902,
    "Ġfet": 7903,
    "Ġsoccer": 7904,
    "ĠJet": 7905,
    "here": 7906,
    "amond": 7907,
    "atient": 7908,
    "Ġforget": 7909,
    "Ġslipped": 7910,
    "appy": 7911,
    "ĠGerry": 7912,
    "orm": 7913,
    "op": 7914,
    "Ġrest": 7915,
    "Ġgolf": 7916,
    "Ġvanish": 7917,
    "Ġaware": 7918,
    "ary": 7919,
    "Ġsailed": 7920,
    "aced": 7921,
    "led": 7922,
    "sed": 7923,
    "Ġrinse": 7924,
    "Ġalright": 7925,
    "emy": 7926,
    "Ġresisted": 7927,
    "ifer": 7928,
    "ĠDeal": 7929,
    "quito": 7930,
    "ĠM": 7931,
    "Ġglasses": 7932,
    "Ġheartbroken": 7933,
    "Ġawesome": 7934,
    "Ġfever": 7935,
    "gan": 7936,
    "ĠPrin": 7937,
    "ently": 7938,
    "Ġanswered": 7939,
    "Ġmusic": 7940,
    "Ġappreci": 7941,
    "ĠWink": 7942,
    "Your": 7943,
    "Just": 7944,
    "ĠSh": 7945,
    "Ġforgave": 7946,
    "Ġposs": 7947,
    "Ġliz": 7948,
    "eropl": 7949,
    "Ġproperly": 7950,
    "Ġanswer": 7951,
    "Ġprod": 7952,
    "ely": 7953,
    "Ġgets": 7954,
    "ė": 7955,
    "Ġcontin": 7956,
    "Ġforgotten": 7957,
    "arden": 7958,
    "Ġdr": 7959,
    "Near": 7960,
    "Ġstretchy": 7961,
    "Ġship": 7962,
    "Ġvend": 7963,
    "airy": 7964,
    "Bubbles": 7965,
    "ĠSir": 7966,
    "Ġtalks": 7967,
    "Ġcuts": 7968,
    "Ġglad": 7969,
    "Ġcar": 7970,
    "ĠWhite": 7971,
    "rage": 7972,
    "Ġworse": 7973,
    "arm": 7974,
    "Ġbounced": 7975,
    "ĠPoppy": 7976,
    "Slow": 7977,
    "usie": 7978,
    "Ġboy": 7979,
    "Ġsincere": 7980,
    "Ġspit": 7981,
    "Ġairport": 7982,
    "Ġramp": 7983,
    "Ġsong": 7984,
    "Ġpicked": 7985,
    "ĠJody": 7986,
    "Mama": 7987,
    "Ġdem": 7988,
    "She": 7989,
    "ĠPuppy": 7990,
    "Ġmeadows": 7991,
    "lves": 7992,
    "Ġenergy": 7993,
    "Ġchoose": 7994,
    "Ġvac": 7995,
    "ĠJohnson": 7996,
    "Ġfiremen": 7997,
    "ĠTuesday": 7998,
    "ĠTwist": 7999,
    "utes": 8000,
    "ill": 8001,
    "berry": 8002,
    "Ġrat": 8003,
    "Ġaliens": 8004,
    "Ġdock": 8005,
    "Ġsparks": 8006,
    "Ġfisher": 8007,
    "ķ": 8008,
    "Ġfishes": 8009,
    "fish": 8010,
    "Ġforgetting": 8011,
    "Ġpecks": 8012,
    "Ġripe": 8013,
    "Ġcostume": 8014,
    "boo": 8015,
    "Ġrebuild": 8016,
    "Ġcleans": 8017,
    "ĠRace": 8018,
    "Ġbury": 8019,
    "Ġbill": 8020,
    "Ġcreative": 8021,
    "Ġgest": 8022,
    "Ġswam": 8023,
    "Ġapplaud": 8024,
    "Ġsoot": 8025,
    "po": 8026,
    "erc": 8027,
    "Ġdecide": 8028,
    "Ġwal": 8029,
    "Ġimprove": 8030,
    "ecture": 8031,
    "Sm": 8032,
    "rophone": 8033,
    "Ġdeliver": 8034,
    "Ġap": 8035,
    "Lila": 8036,
    "Ġspending": 8037,
    "ĠCloud": 8038,
    "Ġfearful": 8039,
    "Ġanx": 8040,
    "Ġchuckled": 8041,
    "Ġnibble": 8042,
    "kay": 8043,
    "Ġshine": 8044,
    "Ġvalue": 8045,
    "Ġracing": 8046,
    "Ġswimmer": 8047,
    "ĠGigi": 8048,
    "ipes": 8049,
    "oey": 8050,
    "Ġupon": 8051,
    "Ġspraying": 8052,
    "¯": 8053,
    "Ġbuilding": 8054,
    "Ġdefeated": 8055,
    "ĠFighting": 8056,
    "asis": 8057,
    "Ġsqueal": 8058,
    "Ġcoats": 8059,
    "Ġri": 8060,
    "Ġaddress": 8061,
    "ĠGabby": 8062,
    "Ġthrilled": 8063,
    "Sue": 8064,
    "Ġcrawling": 8065,
    "Susie": 8066,
    "utter": 8067,
    "Ġfurious": 8068,
    "cery": 8069,
    "Ġwh": 8070,
    "ĠPlaying": 8071,
    "Ġdoesn": 8072,
    "Ġbasement": 8073,
    "Ġbasketball": 8074,
    "ĠFle": 8075,
    "Outside": 8076,
    "ĠSad": 8077,
    "Ġresponded": 8078,
    "Ġhipp": 8079,
    "imed": 8080,
    "aught": 8081,
    "ello": 8082,
    "Ġtowards": 8083,
    "Ġbucket": 8084,
    "ĠBird": 8085,
    "Gra": 8086,
    "Ġrefreshed": 8087,
    "Ġweep": 8088,
    "was": 8089,
    "Emma": 8090,
    "unes": 8091,
    "Ġtank": 8092,
    "Ġstaff": 8093,
    "uggles": 8094,
    "Bluey": 8095,
    "Ġinsects": 8096,
    "Ġhelpful": 8097,
    "ging": 8098,
    "Ġstrip": 8099,
    "Together": 8100,
    "Ġpink": 8101,
    "Ġapology": 8102,
    "Ġbattle": 8103,
    "Ġmagazines": 8104,
    "reat": 8105,
    "Ġpath": 8106,
    "ilot": 8107,
    "Ġsleeping": 8108,
    "ĠMum": 8109,
    ">": 8110,
    "ula": 8111,
    "?'": 8112,
    "at": 8113,
    "shine": 8114,
    "Ġcoolest": 8115,
    "ided": 8116,
    "oop": 8117,
    "ndpa": 8118,
    "lee": 8119,
    "Ġmic": 8120,
    "Ġbreath": 8121,
    "Ġpra": 8122,
    "Ġjoining": 8123,
    "½": 8124,
    "Ġglitt": 8125,
    "Ġcrib": 8126,
    "dies": 8127,
    "ĠBang": 8128,
    "Ġbacks": 8129,
    "Ġstared": 8130,
    "Ġlast": 8131,
    "Ġpurse": 8132,
    "stri": 8133,
    "aring": 8134,
    "Ġdinosaur": 8135,
    "Ġearth": 8136,
    "Ġbeloved": 8137,
    "Ġdirt": 8138,
    "angled": 8139,
    "Ġsandw": 8140,
    "Ġbig": 8141,
    "Ġshould": 8142,
    "Ġforgiven": 8143,
    "Ġgoodness": 8144,
    "Ġcandle": 8145,
    "Â": 8146,
    "Ġcozy": 8147,
    "What": 8148,
    "Ġdisagree": 8149,
    "ĠOther": 8150,
    "Yeah": 8151,
    "Ġjewel": 8152,
    "ummies": 8153,
    "ugging": 8154,
    "Ġdrawn": 8155,
    "Ġhonesty": 8156,
    "Let": 8157,
    "Ġsigh": 8158,
    "Ġconflict": 8159,
    "Ġdrink": 8160,
    "Ġfore": 8161,
    "ĠCari": 8162,
    "Ġobserve": 8163,
    "arky": 8164,
    "Ġborrowed": 8165,
    "Ġcooks": 8166,
    "cept": 8167,
    "Ġnood": 8168,
    "ĠMon": 8169,
    "Ġinvent": 8170,
    "Excited": 8171,
    "Ġtease": 8172,
    "Ġwings": 8173,
    "Ġcool": 8174,
    "erry": 8175,
    "Ġbottle": 8176,
    "Ġquiz": 8177,
    "Ġform": 8178,
    "Ġbehave": 8179,
    "ass": 8180,
    "ason": 8181,
    "Ġlake": 8182,
    "ĠSaturday": 8183,
    "Ġoften": 8184,
    "Ġba": 8185,
    "Ġvisiting": 8186,
    "Ġlined": 8187,
    "ĠSnap": 8188,
    "G": 8189,
    "Ġhitting": 8190,
    "L": 8191,
    "thing": 8192,
    "Ġblow": 8193,
    "[": 8194,
    "Ġnosy": 8195,
    "Ġwaterfall": 8196,
    "Ġisn": 8197,
    "ĠLaura": 8198,
    "Ġstones": 8199,
    "ĠJo": 8200,
    "ĠToto": 8201,
    "Ġmarket": 8202,
    "gly": 8203,
    "Ġliked": 8204,
    "Ġbooks": 8205,
    "iona": 8206,
    "Ġecho": 8207,
    "Ġbulb": 8208,
    "ibb": 8209,
    "Ġwild": 8210,
    "Andy": 8211,
    "Kayla": 8212,
    "ĠEvery": 8213,
    "Ġpuzz": 8214,
    "pped": 8215,
    "ą": 8216,
    "Ġsilent": 8217,
    "ouched": 8218,
    "Ġsuggest": 8219,
    "Ġprob": 8220,
    "Ġlaser": 8221,
    "Ġglass": 8222,
    "Ġeagerly": 8223,
    "Ġcheerful": 8224,
    "Ġtumbled": 8225,
    "Ġchild": 8226,
    "ĠRiri": 8227,
    "Ġhelped": 8228,
    "Ġclues": 8229,
    "Ġmeows": 8230,
    "Stop": 8231,
    "Ġsecret": 8232,
    "icopter": 8233,
    "oys": 8234,
    "Ġhar": 8235,
    "Ġbookshelf": 8236,
    "known": 8237,
    "Õ": 8238,
    "ĠGray": 8239,
    "izz": 8240,
    "ffic": 8241,
    "Ġgro": 8242,
    "Ġlight": 8243,
    "Ġago": 8244,
    "Ġhealthier": 8245,
    "ror": 8246,
    "elery": 8247,
    "byes": 8248,
    "avid": 8249,
    "ana": 8250,
    "Ġhangs": 8251,
    "upt": 8252,
    "Ġthoughts": 8253,
    "Ġstranger": 8254,
    "quest": 8255,
    "ĠCici": 8256,
    "Ġcobweb": 8257,
    "please": 8258,
    "Hope": 8259,
    "Ġspeaker": 8260,
    "Ġcares": 8261,
    "ā": 8262,
    "ĠIzzy": 8263,
    "Ġknown": 8264,
    "ĠInky": 8265,
    "Ġsuggested": 8266,
    "ork": 8267,
    "ĠFinn": 8268,
    "ĠPat": 8269,
    "Ġl": 8270,
    "Sunny": 8271,
    "Ġempty": 8272,
    "Ġcrossing": 8273,
    "Ġcovering": 8274,
    "rup": 8275,
    "apping": 8276,
    "Ġdisturbed": 8277,
    "we": 8278,
    "ĠWithout": 8279,
    "asy": 8280,
    "Ġfuel": 8281,
    "ĠLouise": 8282,
    "Ġhours": 8283,
    "Ġeas": 8284,
    "Ġingred": 8285,
    "Ġcompletely": 8286,
    "Ġeverywhere": 8287,
    "Ġahead": 8288,
    "Ġchip": 8289,
    "Ġsqueezing": 8290,
    "ĠH": 8291,
    "Ġshower": 8292,
    "Ġletting": 8293,
    "Ġblankets": 8294,
    "ues": 8295,
    "Ġradishes": 8296,
    "Ġsa": 8297,
    "irm": 8298,
    "ĠSkelly": 8299,
    "Ġjuicy": 8300,
    "Ġwoman": 8301,
    "lets": 8302,
    "ĠTerry": 8303,
    "Ġsupporting": 8304,
    "Ġlibrarian": 8305,
    "Ġrivers": 8306,
    "ĠLizzie": 8307,
    "Ġdemanding": 8308,
    "Ġcob": 8309,
    "Ġen": 8310,
    "Ġmelts": 8311,
    "Ġangrily": 8312,
    "Ġfunn": 8313,
    "izes": 8314,
    "berries": 8315,
    "ĠCare": 8316,
    "ĠJoey": 8317,
    "ĠĠ": 8318,
    "ĠMaria": 8319,
    "Ġsoaked": 8320,
    "Ġpolitely": 8321,
    "Ġneigh": 8322,
    "Ġdisagreeing": 8323,
    "Ġcandy": 8324,
    "Ġwatered": 8325,
    "Ġdiscussing": 8326,
    "ĠLuc": 8327,
    "Ġmane": 8328,
    "ĠAlly": 8329,
    "kins": 8330,
    "Back": 8331,
    "Ġoctopus": 8332,
    "Ġwhen": 8333,
    "Ġmushroom": 8334,
    "Ġpa": 8335,
    "pt": 8336,
    "Ġsource": 8337,
    "ĠLi": 8338,
    "Ġdiving": 8339,
    "Ġrobots": 8340,
    "ĠPretty": 8341,
    "brush": 8342,
    "Ġresults": 8343,
    "itude": 8344,
    "ĠSe": 8345,
    "aghett": 8346,
    "ur": 8347,
    "Ġrecommend": 8348,
    "ĠNice": 8349,
    "Ġbald": 8350,
    "Ġdesert": 8351,
    "Ġbrush": 8352,
    "Excuse": 8353,
    "edic": 8354,
    "ĠTake": 8355,
    "Ġbleed": 8356,
    "Ġclips": 8357,
    "Ġnicest": 8358,
    "Like": 8359,
    "Ġcooler": 8360,
    "Ġmeal": 8361,
    "ĠBeep": 8362,
    "Wiggly": 8363,
    "Ġdrank": 8364,
    "Ġinvitation": 8365,
    "Ġknowledge": 8366,
    "Ġbalance": 8367,
    "Ġmarker": 8368,
    "Ġnormal": 8369,
    "Ġsafety": 8370,
    "Ġdesigns": 8371,
    "Ġpearl": 8372,
    "arth": 8373,
    "Ġforce": 8374,
    "Ġrocking": 8375,
    "Ġpaddled": 8376,
    "ail": 8377,
    "Ġpract": 8378,
    "Ġpret": 8379,
    "ouse": 8380,
    "Ġjoy": 8381,
    "ning": 8382,
    "ĠYour": 8383,
    "Ġplaying": 8384,
    "Ġcro": 8385,
    "ĠPatch": 8386,
    "steps": 8387,
    "Ġphones": 8388,
    "Ġweigh": 8389,
    "ĠCoal": 8390,
    "Ġpeacock": 8391,
    "Ġ'": 8392,
    "Ġgrace": 8393,
    "ĠEverywhere": 8394,
    "Ġble": 8395,
    "ĠAli": 8396,
    "Ġpenguins": 8397,
    "Ġwhimp": 8398,
    "ucky": 8399,
    "Ġcreek": 8400,
    "Ġnervously": 8401,
    "Ġyells": 8402,
    "Ġrow": 8403,
    "Ġsnaps": 8404,
    "Ġfarm": 8405,
    "Abby": 8406,
    "Ġnods": 8407,
    "Ġunderstand": 8408,
    "Ġzero": 8409,
    "Ġfr": 8410,
    "ĠMandy": 8411,
    "ĠSqu": 8412,
    "Ġjar": 8413,
    "ice": 8414,
    "ĠBye": 8415,
    "Car": 8416,
    "Ġstirred": 8417,
    "ipop": 8418,
    "Ġstarfish": 8419,
    "ĠBad": 8420,
    "Bl": 8421,
    "off": 8422,
    "Ġmodels": 8423,
    "ĠHi": 8424,
    "usia": 8425,
    "Sw": 8426,
    "ĊĊ": 8427,
    "ĠRe": 8428,
    "nded": 8429,
    "Ġtrusting": 8430,
    "ĠOnce": 8431,
    "Ġpers": 8432,
    "Ġsandcast": 8433,
    "Ġlearned": 8434,
    "Ġrotten": 8435,
    "Ġsaving": 8436,
    "Ġchill": 8437,
    "Ġdollhouse": 8438,
    "zes": 8439,
    "ibly": 8440,
    "Ġbathed": 8441,
    "Ġbutterflies": 8442,
    "Ġpipes": 8443,
    "Ġbranch": 8444,
    "Ġgrows": 8445,
    "Suddenly": 8446,
    "Ġwatching": 8447,
    "Ġtasks": 8448,
    "ĠCrabby": 8449,
    "Ġthoughtful": 8450,
    "Ġhats": 8451,
    "Ġknobs": 8452,
    "Ġcontrol": 8453,
    "Ġamount": 8454,
    "Ġpush": 8455,
    "Under": 8456,
    "que": 8457,
    "aghetti": 8458,
    "Ġbeam": 8459,
    "cess": 8460,
    "ĠGrumpy": 8461,
    "Ġtigers": 8462,
    "Ġaunt": 8463,
    "Ġcandles": 8464,
    "Ġscolded": 8465,
    "washer": 8466,
    "Ġgroan": 8467,
    "Ġcast": 8468,
    "Ġclimb": 8469,
    "Ġis": 8470,
    "Ġexpected": 8471,
    "Ġone": 8472,
    "Ġdull": 8473,
    "Maybe": 8474,
    "Try": 8475,
    "ions": 8476,
    "erg": 8477,
    "Ġballs": 8478,
    "Ġdumb": 8479,
    "Ġtwin": 8480,
    "atur": 8481,
    "Ġholiday": 8482,
    "oh": 8483,
    "Ġliqu": 8484,
    "Ġscram": 8485,
    "Ġclos": 8486,
    ")": 8487,
    "Ġstudent": 8488,
    "Ġtidying": 8489,
    "ĠRun": 8490,
    "scape": 8491,
    "Ġappeared": 8492,
    "Ġonly": 8493,
    "Ġadmir": 8494,
    "Ġshelter": 8495,
    "Ġheels": 8496,
    "ĠSettle": 8497,
    "Ġhairdresser": 8498,
    "Ġstudy": 8499,
    "Ġincre": 8500,
    "Ġused": 8501,
    "Ġfut": 8502,
    "Ġtrophy": 8503,
    "Ġruler": 8504,
    "Ġwith": 8505,
    "Bobo": 8506,
    "Ġtraps": 8507,
    "Ġboxes": 8508,
    "aroo": 8509,
    "Ġstrang": 8510,
    "û": 8511,
    "Ġdry": 8512,
    "Ġfil": 8513,
    "ĠMy": 8514,
    "Ġbelt": 8515,
    "Ġimportance": 8516,
    "Ġrecorded": 8517,
    "ĠBiggy": 8518,
    "ĠOt": 8519,
    "Ġnice": 8520,
    "Ġfisherman": 8521,
    "Ġpipe": 8522,
    "avi": 8523,
    "Ġhappens": 8524,
    "Ġtricky": 8525,
    "ĠYoga": 8526,
    "Ġdoors": 8527,
    "ĠIt": 8528,
    "Ġkeeper": 8529,
    "Ġworkers": 8530,
    "unnies": 8531,
    "Ġbri": 8532,
    "Ġdecorate": 8533,
    "Ġstret": 8534,
    "Ġreef": 8535,
    "pl": 8536,
    "Ġplaytime": 8537,
    "Ġent": 8538,
    "Ġbanana": 8539,
    "Ġhugged": 8540,
    "veal": 8541,
    "Ġapologized": 8542,
    "Ġmouse": 8543,
    "Ġknots": 8544,
    "ner": 8545,
    "ips": 8546,
    "Ġscurry": 8547,
    "ecca": 8548,
    "tle": 8549,
    "ards": 8550,
    "Ġusually": 8551,
    "ized": 8552,
    "Ġstreet": 8553,
    "Ok": 8554,
    "Ġpet": 8555,
    "Ġswe": 8556,
    "ond": 8557,
    "ulp": 8558,
    "ĠIron": 8559,
    "ĠCook": 8560,
    "X": 8561,
    "affes": 8562,
    "ĠYou": 8563,
    "Ġpirate": 8564,
    "Ġcelebration": 8565,
    "Ġunlocking": 8566,
    "Ġpedals": 8567,
    "Leave": 8568,
    "Today": 8569,
    "Ġje": 8570,
    "Ġrestored": 8571,
    "Are": 8572,
    "urrender": 8573,
    "nament": 8574,
    "Ġreal": 8575,
    "amb": 8576,
    "Ġcollection": 8577,
    "Ġrule": 8578,
    "year": 8579,
    "Jim": 8580,
    "Ġplayground": 8581,
    "lew": 8582,
    "ĠPeace": 8583,
    "Ġpacked": 8584,
    "Ġhurry": 8585,
    "oud": 8586,
    "Ġrefres": 8587,
    "Ġtravels": 8588,
    "Ġglobe": 8589,
    "keepers": 8590,
    "Ġmark": 8591,
    "Ġwishing": 8592,
    "ssible": 8593,
    "rr": 8594,
    "etah": 8595,
    "Ġspirit": 8596,
    "Ġoat": 8597,
    "riage": 8598,
    "Ġthorn": 8599,
    "Ġlistener": 8600,
    "Ġcentre": 8601,
    "Ġjuice": 8602,
    "Meanwhile": 8603,
    "joy": 8604,
    "Ġmassages": 8605,
    "ĠCut": 8606,
    "Ġserious": 8607,
    "expected": 8608,
    "emon": 8609,
    "Ġchocolate": 8610,
    "Ġreaching": 8611,
    "Ġdisagreed": 8612,
    "Ġkissing": 8613,
    "Ġgrowing": 8614,
    "Share": 8615,
    "ĠZoe": 8616,
    "Ġslipp": 8617,
    "Ġhonking": 8618,
    "ination": 8619,
    "Yesterday": 8620,
    "Ġpressed": 8621,
    "Ġmiserable": 8622,
    "asmine": 8623,
    "Claire": 8624,
    "Im": 8625,
    "Ġdecl": 8626,
    "Ġbru": 8627,
    "Never": 8628,
    "Ġsingers": 8629,
    "Ġbuilder": 8630,
    "dest": 8631,
    "ĠWilliam": 8632,
    "imes": 8633,
    "bo": 8634,
    "Ġdots": 8635,
    "Ġtelescope": 8636,
    "Ġattempt": 8637,
    "Ġrub": 8638,
    "Ġpassports": 8639,
    "eddy": 8640,
    "ourn": 8641,
    "Ġwooden": 8642,
    "Ġwhoever": 8643,
    "Ġsprayed": 8644,
    "Ġpolishing": 8645,
    "ueen": 8646,
    "Ġcareless": 8647,
    "abies": 8648,
    "iful": 8649,
    "Ġwiggling": 8650,
    "Å": 8651,
    "Ġawake": 8652,
    "Ġreg": 8653,
    "Woof": 8654,
    "ĠMelissa": 8655,
    "ĠTodd": 8656,
    "ĠWatch": 8657,
    "imb": 8658,
    "Maddy": 8659,
    "Ġmedal": 8660,
    "Ġnoisy": 8661,
    "Ġscoops": 8662,
    "Ġcopper": 8663,
    "Ġafter": 8664,
    "Ġmunch": 8665,
    "!'.": 8666,
    "Go": 8667,
    "Ġpassport": 8668,
    "Ġacce": 8669,
    "Ġrelease": 8670,
    "ense": 8671,
    "ĠBehind": 8672,
    "Ġtroubles": 8673,
    "¡": 8674,
    "Ġsafe": 8675,
    "mother": 8676,
    "ĠFish": 8677,
    "Ġcaterpill": 8678,
    "ĠAc": 8679,
    "ĠIcy": 8680,
    "Ġappearance": 8681,
    "Ġthird": 8682,
    "Ġm": 8683,
    "Ġrecogn": 8684,
    "Ġsc": 8685,
    "Ġrever": 8686,
    "Ġplant": 8687,
    "Ġstern": 8688,
    "Ġextra": 8689,
    "Ġkitten": 8690,
    "Ġsqueaky": 8691,
    "aged": 8692,
    "Ġcompass": 8693,
    "Ġbeyond": 8694,
    "Ġmoder": 8695,
    "Little": 8696,
    "Ġbaker": 8697,
    "Ġwheel": 8698,
    "Ġvill": 8699,
    "erest": 8700,
    "Ġcreamy": 8701,
    "Ġmeals": 8702,
    "Ġvibr": 8703,
    "Ġdiscovered": 8704,
    "live": 8705,
    "Ġshort": 8706,
    "ĠJoe": 8707,
    "ĠSpe": 8708,
    "Ġbit": 8709,
    "Ġspot": 8710,
    "Ġprop": 8711,
    "io": 8712,
    "Ġhand": 8713,
    "ĠCrab": 8714,
    "Ġun": 8715,
    "Ġcuddled": 8716,
    "Johnny": 8717,
    "its": 8718,
    "Ġknee": 8719,
    "Ġrisk": 8720,
    "Ġlips": 8721,
    "enty": 8722,
    "Ġmagic": 8723,
    "Ġnets": 8724,
    "Why": 8725,
    "Ġcoloring": 8726,
    "Ġflashes": 8727,
    "ĠMaggie": 8728,
    "Ġpaws": 8729,
    "Ġafar": 8730,
    "Ġtidy": 8731,
    "ĠRock": 8732,
    "Ġstung": 8733,
    "Ġdragon": 8734,
    "Ġmommy": 8735,
    "Ġexplorers": 8736,
    "Ġscattering": 8737,
    "Ġloudest": 8738,
    "ain": 8739,
    "et": 8740,
    "Ġsque": 8741,
    "Ġcomb": 8742,
    "Ġlikes": 8743,
    "Ġtrapped": 8744,
    "Ġhuge": 8745,
    "!'": 8746,
    "Wh": 8747,
    "Ġsharks": 8748,
    "Matt": 8749,
    "Ġugly": 8750,
    "Ġclimbs": 8751,
    "Ġsav": 8752,
    "igzag": 8753,
    "ĠJenn": 8754,
    "Ġlaces": 8755,
    "%": 8756,
    "Ġhut": 8757,
    "ĠPe": 8758,
    "Ġshoe": 8759,
    "Ġparade": 8760,
    "Ġowl": 8761,
    "Ġscient": 8762,
    "ook": 8763,
    "Ġswo": 8764,
    "Ġornaments": 8765,
    "Ġmasks": 8766,
    "Ġbookshe": 8767,
    "Ġfinish": 8768,
    "Ġbushes": 8769,
    "Ġdarkness": 8770,
    "Sque": 8771,
    "ingly": 8772,
    "Ġhit": 8773,
    "obody": 8774,
    "Ġlon": 8775,
    "Ġstraight": 8776,
    "Ġbluebird": 8777,
    "zzy": 8778,
    "Ġthud": 8779,
    "Ġexact": 8780,
    "Ġtrail": 8781,
    "Ġsmelling": 8782,
    "Ġbends": 8783,
    "Ġtasting": 8784,
    "ċ": 8785,
    "Ġchoo": 8786,
    "you": 8787,
    "Maya": 8788,
    "codile": 8789,
    "Ġof": 8790,
    "ang": 8791,
    "Ġcomfortable": 8792,
    "ĠTweety": 8793,
    "Ġscary": 8794,
    "rel": 8795,
    "Ġcrushed": 8796,
    "Ġveil": 8797,
    "sers": 8798,
    "Ġcloths": 8799,
    "Ġwarmly": 8800,
    "Ġangry": 8801,
    "ĠKiki": 8802,
    "Ġexplained": 8803,
    "Ġmuffin": 8804,
    "cus": 8805,
    "indy": 8806,
    "Ġmessage": 8807,
    "ent": 8808,
    "Ġtick": 8809,
    "ġ": 8810,
    "Ġcarries": 8811,
    "Ġgiraffe": 8812,
    "Ġherself": 8813,
    "ĠGive": 8814,
    "Ġchallen": 8815,
    "Ġhi": 8816,
    "ĠSomething": 8817,
    "Ġpuck": 8818,
    "ug": 8819,
    "Ĺ": 8820,
    "ĠSuddenly": 8821,
    "Ġgained": 8822,
    "Ġoperation": 8823,
    "Ġbeef": 8824,
    "up": 8825,
    "Ġcont": 8826,
    "ĠâĢĵ": 8827,
    "Ġautomobiles": 8828,
    "ially": 8829,
    "Ġmechanic": 8830,
    "ember": 8831,
    "ĠTruck": 8832,
    "Ġcrunch": 8833,
    "ĠKn": 8834,
    "Ġcrying": 8835,
    "Ġbud": 8836,
    "Pepper": 8837,
    "Ġbear": 8838,
    "<|endoftext|>": 8839,
    "Ġflap": 8840,
    "Ġcommon": 8841,
    "Ġmoved": 8842,
    "ĠSadly": 8843,
    "Ġword": 8844,
    "ĠClaire": 8845,
    "Ġpouring": 8846,
    "Ġdeeply": 8847,
    "Ġshark": 8848,
    "Ġcactus": 8849,
    "ĠCammy": 8850,
    "Rachel": 8851,
    "Ġweighed": 8852,
    "Ġ-": 8853,
    "isc": 8854,
    "Danger": 8855,
    "Ġgame": 8856,
    "Ġstrange": 8857,
    "Ġcom": 8858,
    "ales": 8859,
    "Ring": 8860,
    "ĠHoney": 8861,
    "Ġheight": 8862,
    "Ġscrub": 8863,
    "Buddy": 8864,
    "Ġcompassion": 8865,
    "Anne": 8866,
    "iches": 8867,
    "Ġtold": 8868,
    "Ġexc": 8869,
    "ival": 8870,
    "Ġdanger": 8871,
    "ilda": 8872,
    "Ġgray": 8873,
    "edient": 8874,
    "Ġvehic": 8875,
    "anie": 8876,
    "int": 8877,
    "cat": 8878,
    "Ġtongue": 8879,
    "Ġgratitude": 8880,
    "Ġintroduce": 8881,
    "Ġpeeked": 8882,
    "sess": 8883,
    "Ġding": 8884,
    "Ġscoot": 8885,
    "ĠTessa": 8886,
    "Ġbananas": 8887,
    "Ġcannot": 8888,
    "Dear": 8889,
    "Ġblink": 8890,
    "Ġprice": 8891,
    "isapp": 8892,
    "Ġcakes": 8893,
    "Ġstruggle": 8894,
    "Ġbuying": 8895,
    "Ġladder": 8896,
    "Ġhaird": 8897,
    "Ü": 8898,
    "ctory": 8899,
    "Yay": 8900,
    "Ġdiamonds": 8901,
    "Ġfeeling": 8902,
    "Ġshoot": 8903,
    "Ġlibrary": 8904,
    "Ġbiting": 8905,
    "ĠMr": 8906,
    "ured": 8907,
    "Lulu": 8908,
    "ĠElle": 8909,
    "Ġpandas": 8910,
    "Ġfreezing": 8911,
    "Ġwor": 8912,
    "ute": 8913,
    "Ġevent": 8914,
    "Ġsquish": 8915,
    "Ġwhisp": 8916,
    "ave": 8917,
    "Ġscoop": 8918,
    "Ġbook": 8919,
    "Ġsto": 8920,
    "Bob": 8921,
    "ĠJulie": 8922,
    "Ġdrivers": 8923,
    "Ġsou": 8924,
    "Ġalley": 8925,
    "Ġclay": 8926,
    "Ġfarmer": 8927,
    "¤": 8928,
    "Ġstuff": 8929,
    "Ġshares": 8930,
    "Ġfun": 8931,
    "Ġcowboys": 8932,
    "Ġdire": 8933,
    "Ġswollen": 8934,
    "Ġgor": 8935,
    "ek": 8936,
    "Ġtwirling": 8937,
    "Ġproperty": 8938,
    "Ġneedle": 8939,
    "ĠFrog": 8940,
    "Ġoffered": 8941,
    "Ġthrows": 8942,
    "Ġwo": 8943,
    "cessary": 8944,
    "Ġclock": 8945,
    "Ġdec": 8946,
    "Ġgenerosity": 8947,
    "Freddy": 8948,
    "Ġsalad": 8949,
    "Ġbeing": 8950,
    "Ġmem": 8951,
    "Ġbak": 8952,
    "ĠOff": 8953,
    "Got": 8954,
    "Ġsheep": 8955,
    "Ġmean": 8956,
    "Ġholding": 8957,
    "Ġdecorated": 8958,
    "irt": 8959,
    "Ġrusty": 8960,
    "ĠAmy": 8961,
    "Ġfamilies": 8962,
    "Ġenth": 8963,
    "Ġflies": 8964,
    "Ġdive": 8965,
    "Ġsatisfied": 8966,
    "Ġfamil": 8967,
    "Ġdou": 8968,
    "ess": 8969,
    "Ġcaution": 8970,
    "Ġmyster": 8971,
    "na": 8972,
    "Ġopinions": 8973,
    "Ġjugg": 8974,
    "Ġmarching": 8975,
    "ĠRobbie": 8976,
    "Ġstage": 8977,
    "ĠWaffle": 8978,
    "ĠAnd": 8979,
    "Ġdoorbell": 8980,
    "cuss": 8981,
    "Ġprett": 8982,
    "Ġfalling": 8983,
    "ĠGracie": 8984,
    "ive": 8985,
    "ĠPr": 8986,
    "Ġhonks": 8987,
    "Ġsip": 8988,
    "ĠHeli": 8989,
    "iri": 8990,
    "Teddy": 8991,
    "Ġcoo": 8992,
    "Ġuniforms": 8993,
    "ĠJust": 8994,
    "ĠCow": 8995,
    "Ġofficer": 8996,
    "Ġear": 8997,
    "Ġlump": 8998,
    "Remy": 8999,
    "Ġcreativity": 9000,
    "cing": 9001,
    "orsie": 9002,
    "Lily": 9003,
    "ĠSharing": 9004,
    "Ġgain": 9005,
    "father": 9006,
    "Ġyourself": 9007,
    "Ġchew": 9008,
    "Ġtimer": 9009,
    "Ġstretched": 9010,
    "ĠFinny": 9011,
    "Ġbus": 9012,
    "Ġlicking": 9013,
    "Ġimportant": 9014,
    "Ġcooed": 9015,
    "Ġrhin": 9016,
    "Ġjobs": 9017,
    "iction": 9018,
    "ames": 9019,
    "Ġscrew": 9020,
    "Amy": 9021,
    "atty": 9022,
    "Ġfireflies": 9023,
    "Ġcountries": 9024,
    "Ġpastels": 9025,
    "Ġwhenever": 9026,
    "rig": 9027,
    "Ġpray": 9028,
    "Ġoverjoyed": 9029,
    "ott": 9030,
    "Ġquite": 9031,
    "Ġtips": 9032,
    "ate": 9033,
    "Ġforehead": 9034,
    "Ġlending": 9035,
    "Ġsway": 9036,
    "Ġhun": 9037,
    "ĠIm": 9038,
    "Ġjack": 9039,
    "ont": 9040,
    "Ġwithout": 9041,
    "Ġfocused": 9042,
    "ĠSpike": 9043,
    "Ġoffice": 9044,
    "Ġshe": 9045,
    "Sun": 9046,
    "Ġpastry": 9047,
    "Ġsharing": 9048,
    "Ġsunrise": 9049,
    "isted": 9050,
    "Ġshrugs": 9051,
    "Emily": 9052,
    "ĠMany": 9053,
    "Ġhits": 9054,
    "ĠTiger": 9055,
    "ĠEach": 9056,
    "Eat": 9057,
    "Katie": 9058,
    "Ġdiscovering": 9059,
    "umpy": 9060,
    "urniture": 9061,
    "ĠLoop": 9062,
    "Ġdecorating": 9063,
    "ĠRicky": 9064,
    "Ġdestroy": 9065,
    "ĠGl": 9066,
    "Ġdel": 9067,
    "Ġrot": 9068,
    "Ġpunished": 9069,
    "athan": 9070,
    "Ġcones": 9071,
    "Ġgoats": 9072,
    "B": 9073,
    "Ġunderst": 9074,
    "ĠStay": 9075,
    "Ġwiggled": 9076,
    "Ġspend": 9077,
    "Ġinvite": 9078,
    "Ġdishwasher": 9079,
    "iting": 9080,
    "Ġzips": 9081,
    "llas": 9082,
    "Ġstole": 9083,
    "Ġcolder": 9084,
    "Ġgreeted": 9085,
    "Ġrece": 9086,
    "Ġjumper": 9087,
    "Ġmixing": 9088,
    "Ġpetting": 9089,
    "ĠTiti": 9090,
    "rrr": 9091,
    "Karen": 9092,
    "Ġmouths": 9093,
    "Ġspid": 9094,
    "unched": 9095,
    "ĠTwo": 9096,
    "Ġbrightest": 9097,
    "ythm": 9098,
    "Ġfor": 9099,
    "rmometer": 9100,
    "Ġdamage": 9101,
    "ĠHere": 9102,
    "ppers": 9103,
    "Ġtea": 9104,
    "Ġscaring": 9105,
    "Those": 9106,
    "Ġnumber": 9107,
    "acing": 9108,
    "Ġfrowned": 9109,
    "ĠNow": 9110,
    "Ġunf": 9111,
    "ĠLarry": 9112,
    "Ġforgive": 9113,
    "Happy": 9114,
    "Ġsit": 9115,
    "Ġfasc": 9116,
    "Ġdripped": 9117,
    "Ġboat": 9118,
    "Ġsurrounded": 9119,
    "Ġpaths": 9120,
    "ĠLightning": 9121,
    "Whenever": 9122,
    "ets": 9123,
    "Ġmiddle": 9124,
    "Ġloading": 9125,
    "Ġfake": 9126,
    "Ġcherries": 9127,
    "oor": 9128,
    "Ġloops": 9129,
    "Ġhour": 9130,
    "Ġgoodbyes": 9131,
    "Ġsnap": 9132,
    "Ġreindeer": 9133,
    "Ġmis": 9134,
    "ĠLia": 9135,
    "Ġson": 9136,
    "ĠJumpy": 9137,
    "Ġsu": 9138,
    "Ġturtle": 9139,
    "Ġtesting": 9140,
    "Bad": 9141,
    "unday": 9142,
    "Ġgoodbye": 9143,
    "hero": 9144,
    "Ġfaraway": 9145,
    "Ġrides": 9146,
    "Ġmade": 9147,
    "Ġcousins": 9148,
    "Ġemergen": 9149,
    "Ġor": 9150,
    "den": 9151,
    "mbers": 9152,
    "ĠPoor": 9153,
    "Ġwider": 9154,
    "Ġshrimp": 9155,
    "v": 9156,
    "Ġchallenges": 9157,
    "Ġcompetit": 9158,
    "Ġreply": 9159,
    "ĠFuzzy": 9160,
    "Ġtastes": 9161,
    "Ġbat": 9162,
    "Ġass": 9163,
    "Ġview": 9164,
    "Ġcross": 9165,
    "dam": 9166,
    "Ġneighb": 9167,
    "Ġideas": 9168,
    "Ġslam": 9169,
    "Ġorange": 9170,
    "ĠTweetie": 9171,
    "ĠGeorge": 9172,
    "body": 9173,
    "Ros": 9174,
    "Ġpop": 9175,
    "Ġyawning": 9176,
    "Ġgrin": 9177,
    "Ġbone": 9178,
    "iar": 9179,
    "Ġknees": 9180,
    "Ġbaking": 9181,
    "Ġruining": 9182,
    "izzie": 9183,
    "Ġpointing": 9184,
    "Ġboth": 9185,
    "Ġdrums": 9186,
    "ost": 9187,
    "Ġproudly": 9188,
    "Ġcampfire": 9189,
    "yler": 9190,
    "Ġwoke": 9191,
    "Ġbrighter": 9192,
    "Ġcowb": 9193,
    "Ġtweet": 9194,
    "Ġcaught": 9195,
    "oup": 9196,
    "ĠLilly": 9197,
    "Lia": 9198,
    "Ġtempt": 9199,
    "Ġtrue": 9200,
    "Ġearlier": 9201,
    "mies": 9202,
    "Ġthroat": 9203,
    "ĠPig": 9204,
    "ĠMat": 9205,
    "Ġglo": 9206,
    "Ġgir": 9207,
    "Ġjam": 9208,
    "Ġcrashed": 9209,
    "ĠThen": 9210,
    "Ġbounces": 9211,
    "Ġboats": 9212,
    "ceed": 9213,
    "right": 9214,
    "Ġgrasshopper": 9215,
    "ĠWendy": 9216,
    "Ġnail": 9217,
    "unity": 9218,
    "Ġcri": 9219,
    "Ġshampoo": 9220,
    "Ġty": 9221,
    "ĠCopper": 9222,
    "Ġcapes": 9223,
    "Ġseason": 9224,
    "ĠFishy": 9225,
    "Ġbec": 9226,
    "Ġfe": 9227,
    "Ġappro": 9228,
    "Dog": 9229,
    "1": 9230,
    "Ġunpacking": 9231,
    "Ġsneezes": 9232,
    "...\"": 9233,
    "Ġknights": 9234,
    "Ġsweet": 9235,
    "ived": 9236,
    "esome": 9237,
    "ri": 9238,
    "Oops": 9239,
    "Ġmarking": 9240,
    "Kiki": 9241,
    "Un": 9242,
    "Ġaudience": 9243,
    "Ġfo": 9244,
    "ern": 9245,
    "orry": 9246,
    "Cindy": 9247,
    "Zigzag": 9248,
    "Ġpale": 9249,
    "Ġtramp": 9250,
    "Ġones": 9251,
    "Ġstrangers": 9252,
    "Ġzooms": 9253,
    "Ġmelting": 9254,
    "Ġtraded": 9255,
    "Ġprayer": 9256,
    "Ġsorry": 9257,
    "Ġtrack": 9258,
    "Ġfloating": 9259,
    "Ġbee": 9260,
    "ensive": 9261,
    "Ġearly": 9262,
    "Ġwanted": 9263,
    "Ġpant": 9264,
    "Ġreturn": 9265,
    "Ġinsp": 9266,
    "isses": 9267,
    "Ġstatue": 9268,
    "ase": 9269,
    "Good": 9270,
    "Ġamazed": 9271,
    "ĠBounce": 9272,
    "ĠBirdy": 9273,
    "quet": 9274,
    "Ġmeasuring": 9275,
    "Ġgotten": 9276,
    "cope": 9277,
    "Ġfoam": 9278,
    "ĠBobo": 9279,
    "iling": 9280,
    "Ġdancers": 9281,
    "Ġgrabbed": 9282,
    "Ġslimy": 9283,
    "Ġfear": 9284,
    "Ġneither": 9285,
    "ivia": 9286,
    "Ġglowing": 9287,
    "Ġwinter": 9288,
    "Ġslapped": 9289,
    "Ġvase": 9290,
    "Quick": 9291,
    "Ġsimply": 9292,
    "Ġrare": 9293,
    "Ġafraid": 9294,
    "Nothing": 9295,
    "Ġcu": 9296,
    "Ġplan": 9297,
    "Ġbits": 9298,
    "ĠSeeing": 9299,
    "Ġcarp": 9300,
    "aisy": 9301,
    "ĠChris": 9302,
    "Ġshorter": 9303,
    "Ġdreamt": 9304,
    "ret": 9305,
    "uno": 9306,
    "oral": 9307,
    "Ġdeter": 9308,
    "Ġsquaw": 9309,
    "Ġlap": 9310,
    "ĠBubbles": 9311,
    "izza": 9312,
    "Ġtoddler": 9313,
    "Ġcrayons": 9314,
    "Ġsigning": 9315,
    "ĠDaniel": 9316,
    "Ġgun": 9317,
    "ssy": 9318,
    "Harry": 9319,
    "vet": 9320,
    "Ġwarnings": 9321,
    "Ġcaring": 9322,
    "Ġspill": 9323,
    "Ġdifference": 9324,
    "Ġneatly": 9325,
    "Ġparts": 9326,
    "ĠMay": 9327,
    "Ġtorto": 9328,
    "Ġrise": 9329,
    "und": 9330,
    "Ġhairdress": 9331,
    "ľ": 9332,
    "Ġobey": 9333,
    "ĠOver": 9334,
    "hny": 9335,
    "ony": 9336,
    "Ġdigging": 9337,
    "Ġmineral": 9338,
    "Ġhelping": 9339,
    "Ġsill": 9340,
    "Ġchase": 9341,
    "Ġlaptop": 9342,
    "raid": 9343,
    "ĠFollow": 9344,
    "Ġalligator": 9345,
    "Ġmule": 9346,
    "Ġfash": 9347,
    "Ġcone": 9348,
    "Ġslice": 9349,
    "ĠSundays": 9350,
    "Ġstuffed": 9351,
    "Ġhang": 9352,
    "Now": 9353,
    "iger": 9354,
    "Ġunp": 9355,
    "Ġinj": 9356,
    "ĠGlow": 9357,
    "venir": 9358,
    "Ġarg": 9359,
    "Ġswoop": 9360,
    "Ġroom": 9361,
    "Ġnowhere": 9362,
    "ction": 9363,
    "Ġarguing": 9364,
    "Ġfairies": 9365,
    "ause": 9366,
    "ges": 9367,
    "Ġdrawers": 9368,
    "Ġspecial": 9369,
    "ĠOrange": 9370,
    "Ġcirc": 9371,
    "Ġvisits": 9372,
    "Ġtidied": 9373,
    "ĠJolly": 9374,
    "Ġslept": 9375,
    "upid": 9376,
    "ree": 9377,
    "ĠPark": 9378,
    "Ġcalm": 9379,
    "stalk": 9380,
    "elvet": 9381,
    "Ġbor": 9382,
    "isdom": 9383,
    "Ġhelps": 9384,
    "Ġleading": 9385,
    "Ġpaddling": 9386,
    "Ġgrandparent": 9387,
    "Ġshut": 9388,
    "ĠSpin": 9389,
    "Ġpile": 9390,
    "Ġlock": 9391,
    "Ġlost": 9392,
    "Ġtune": 9393,
    "Ġfav": 9394,
    "ĠPen": 9395,
    "Ġhear": 9396,
    "Ġreward": 9397,
    "Ġdestination": 9398,
    "fted": 9399,
    "Ġcertain": 9400,
    "Ġrug": 9401,
    "¨": 9402,
    "Ġrobber": 9403,
    "Ġpo": 9404,
    "ĠBig": 9405,
    "Ġremembers": 9406,
    "Ġrested": 9407,
    "ones": 9408,
    "Ġcards": 9409,
    "son": 9410,
    "Ġfi": 9411,
    "imney": 9412,
    "Ġspices": 9413,
    "Ġflash": 9414,
    "Ġescape": 9415,
    "ĠFaye": 9416,
    "Ġscissors": 9417,
    "Ġcrumbs": 9418,
    "Ġtossed": 9419,
    "Thomas": 9420,
    "Ġmarble": 9421,
    "Ġclassmates": 9422,
    "keep": 9423,
    "Ġgaze": 9424,
    "chan": 9425,
    "Every": 9426,
    "ĠLuckily": 9427,
    "inal": 9428,
    "Ġbo": 9429,
    "Ġadmiration": 9430,
    "immer": 9431,
    "Ġpat": 9432,
    "Ġdecisions": 9433,
    "Ġcauliflower": 9434,
    "Ġfing": 9435,
    "Ġexcept": 9436,
    "Ġrec": 9437,
    "Ġhearing": 9438,
    "ĠTr": 9439,
    "urnit": 9440,
    "Ġyielded": 9441,
    "case": 9442,
    "Ġbuilt": 9443,
    "Ġselling": 9444,
    "Ġpages": 9445,
    "Ġeach": 9446,
    "Ġherb": 9447,
    "Ġheroes": 9448,
    "athy": 9449,
    "Ġpear": 9450,
    "prints": 9451,
    "Ġbirthday": 9452,
    "hett": 9453,
    "Ġvisited": 9454,
    "Ġavocado": 9455,
    "Ġbreaking": 9456,
    "Ġlip": 9457,
    "Ġchirped": 9458,
    "Time": 9459,
    "Ġmagical": 9460,
    "hole": 9461,
    "evin": 9462,
    "Ġshot": 9463,
    "ĠSqueak": 9464,
    "dd": 9465,
    "Ġtruth": 9466,
    "Ġstatues": 9467,
    "Ġill": 9468,
    "Ġtaps": 9469,
    "lly": 9470,
    "Or": 9471,
    "ĠWise": 9472,
    "Ġhim": 9473,
    "ize": 9474,
    "air": 9475,
    "illie": 9476,
    "Ġonion": 9477,
    "Ġwander": 9478,
    "ĠJacob": 9479,
    "Ġmov": 9480,
    "ĠDot": 9481,
    "ĠCandy": 9482,
    "Ġcounted": 9483,
    "Bessie": 9484,
    "Ġslices": 9485,
    "pted": 9486,
    "Ġimagining": 9487,
    "oppy": 9488,
    "Ġcenter": 9489,
    "smelling": 9490,
    "aches": 9491,
    "ĠJames": 9492,
    "Ġmosquito": 9493,
    "Ġsix": 9494,
    "Ġmood": 9495,
    "acob": 9496,
    "Ġherbs": 9497,
    "Ġvisitors": 9498,
    "Ġfrightened": 9499,
    "Ġicy": 9500,
    "Ġworth": 9501,
    "Ġconsequ": 9502,
    "Ġdripping": 9503,
    "Mar": 9504,
    "Ġsheet": 9505,
    "Ġconnect": 9506,
    "hed": 9507,
    "etty": 9508,
    "Ġsuperhero": 9509,
    "war": 9510,
    "Ġshimmering": 9511,
    "At": 9512,
    "Ġonce": 9513,
    "Ġbatteries": 9514,
    "cream": 9515,
    "dy": 9516,
    "®": 9517,
    "izzy": 9518,
    "Ġdedic": 9519,
    "Ġchecks": 9520,
    "Ġbrother": 9521,
    "Ġsteal": 9522,
    "Ġport": 9523,
    "Ġconvin": 9524,
    "Ġapplauding": 9525,
    "Ġroutine": 9526,
    "Ġthank": 9527,
    "kele": 9528,
    "Ġcut": 9529,
    "Ġbur": 9530,
    "Ġleg": 9531,
    "ĠLenny": 9532,
    "Ġmet": 9533,
    "ĠPatty": 9534,
    "Ġterrible": 9535,
    "ĠLion": 9536,
    "Ġsleep": 9537,
    "!\".": 9538,
    "Maggie": 9539,
    "À": 9540,
    "ale": 9541,
    "Ġnearby": 9542,
    "Ġvery": 9543,
    "¥": 9544,
    "Ġburgers": 9545,
    "Ġneed": 9546,
    "Ġflo": 9547,
    "Ġwatch": 9548,
    "ayla": 9549,
    "Ġserving": 9550,
    "Ġsucceeded": 9551,
    "Ġspooky": 9552,
    "Ġwonderful": 9553,
    "Remember": 9554,
    "Je": 9555,
    "Ġdin": 9556,
    "Ġdoes": 9557,
    "Ġsoared": 9558,
    "yard": 9559,
    "Ġjumping": 9560,
    "Ġharm": 9561,
    "ĠFo": 9562,
    "Ġriverbank": 9563,
    "Ġmon": 9564,
    "ĠYesterday": 9565,
    "ts": 9566,
    "Ġmarvel": 9567,
    "Ġbuddy": 9568,
    "ky": 9569,
    "Ġsadness": 9570,
    "ec": 9571,
    "Ġlid": 9572,
    "ĠNick": 9573,
    "Ġfirm": 9574,
    "five": 9575,
    "Ġwags": 9576,
    "ĠUniversity": 9577,
    "Ġpocket": 9578,
    "ubby": 9579,
    "Ġshined": 9580,
    "ĠAbbie": 9581,
    "Ġscra": 9582,
    "Ġdoctors": 9583,
    "Ġrele": 9584,
    "Ġpouch": 9585,
    "Ġlively": 9586,
    "da": 9587,
    "Ġsour": 9588,
    "Ġnaughty": 9589,
    "Ġener": 9590,
    "Ġdra": 9591,
    "Ġax": 9592,
    "Ġfox": 9593,
    "Ġlevel": 9594,
    "Ġgroup": 9595,
    "Ġcardboard": 9596,
    "ĠRuth": 9597,
    "Ġcoughed": 9598,
    "ness": 9599,
    "Ŀ": 9600,
    "ĠClimb": 9601,
    "Ġbuck": 9602,
    "ĠFlora": 9603,
    "Ò": 9604,
    "Ġknock": 9605,
    "Pete": 9606,
    "ĠDo": 9607,
    "ustr": 9608,
    "Ġsupplied": 9609,
    "rosty": 9610,
    "Close": 9611,
    "ults": 9612,
    "Ġgri": 9613,
    "Ġmessed": 9614,
    "hello": 9615,
    "Ġdarling": 9616,
    "attered": 9617,
    "omb": 9618,
    "Ġattitude": 9619,
    "Ġparties": 9620,
    "Ġcake": 9621,
    "ment": 9622,
    "Ġthro": 9623,
    "Ġtraffic": 9624,
    "Ġposit": 9625,
    "Ġwrink": 9626,
    "Ġsiren": 9627,
    "Ġexactly": 9628,
    "ĠMonkey": 9629,
    "Ġboots": 9630,
    "Grandpa": 9631,
    "Ġmitten": 9632,
    "Ġpotatoes": 9633,
    "Their": 9634,
    "Ġcheering": 9635,
    "Ġalmost": 9636,
    "Ġleave": 9637,
    "ake": 9638,
    "Ġthere": 9639,
    "ittle": 9640,
    "Ġcalls": 9641,
    "Ġpick": 9642,
    "andy": 9643,
    "Ġpainted": 9644,
    "vers": 9645,
    "her": 9646,
    "Ġprank": 9647,
    "Ġworked": 9648,
    "Ġmach": 9649,
    "Pip": 9650,
    "stead": 9651,
    "iment": 9652,
    "Ġbride": 9653,
    "Ġrider": 9654,
    "Ġmindful": 9655,
    "Ġinclu": 9656,
    "Ġtubes": 9657,
    "Ġtreehouse": 9658,
    "Ġminds": 9659,
    "Climb": 9660,
    "iest": 9661,
    "Ġmaybe": 9662,
    "Joy": 9663,
    "Ġtow": 9664,
    "ĠSteve": 9665,
    "fl": 9666,
    "ĠRob": 9667,
    "Ġblood": 9668,
    "Ġcuriously": 9669,
    "Ġpillow": 9670,
    "Ġbecame": 9671,
    "Ġdie": 9672,
    "ĠEverything": 9673,
    "Ġpeered": 9674,
    "Ġsoar": 9675,
    "Ġracer": 9676,
    "Ġtriang": 9677,
    "Ġpeaches": 9678,
    "Ġtrotted": 9679,
    "reek": 9680,
    "Ġuse": 9681,
    "uff": 9682,
    "Ġvegetable": 9683,
    "Ġpopcorn": 9684,
    "Ġself": 9685,
    "rey": 9686,
    "Ġtool": 9687,
    "ey": 9688,
    "ĠCD": 9689,
    "Ġducks": 9690,
    "Ġsolut": 9691,
    "olly": 9692,
    "Ġseaweed": 9693,
    "Ġcarried": 9694,
    "ĠSweet": 9695,
    "ĠWe": 9696,
    "Ã": 9697,
    "Ġstepping": 9698,
    "ĠPer": 9699,
    "Ġdelayed": 9700,
    "Trust": 9701,
    "Ġapart": 9702,
    "ering": 9703,
    "ĠFind": 9704,
    "ĠOtherwise": 9705,
    "Ġyoun": 9706,
    "Ġkites": 9707,
    "Ġdemand": 9708,
    "Ġglimmering": 9709,
    "ĠChrist": 9710,
    "fly": 9711,
    "ĉ": 9712,
    "Ġinterest": 9713,
    "ĠMan": 9714,
    "ged": 9715,
    "Ġcol": 9716,
    "heart": 9717,
    "Ġachieve": 9718,
    "Ġloop": 9719,
    "Ġwhich": 9720,
    "Ġkay": 9721,
    "Ġarms": 9722,
    "Ġarr": 9723,
    "acked": 9724,
    "Ġhunt": 9725,
    "Ġkeyhole": 9726,
    "Ġfeels": 9727,
    "Ġrubbing": 9728,
    "Ġbefore": 9729,
    "Ġshared": 9730,
    "ĠHis": 9731,
    "ra": 9732,
    "ulu": 9733,
    "bert": 9734,
    "ot": 9735,
    "Ġfest": 9736,
    "Lucy": 9737,
    "Ġdodged": 9738,
    "Ġpans": 9739,
    "ĠDespite": 9740,
    "au": 9741,
    "cited": 9742,
    "Unfortunately": 9743,
    "Ġbag": 9744,
    "Rob": 9745,
    "do": 9746,
    "Ġhelpless": 9747,
    "Ġslither": 9748,
    "Ġappl": 9749,
    "Grandma": 9750,
    "Ġglows": 9751,
    "ĠLaw": 9752,
    "Ġcarefully": 9753,
    "Ġdisob": 9754,
    "Ġteamwork": 9755,
    "Ġnibbled": 9756,
    "Ġmask": 9757,
    "Ġlear": 9758,
    "Ġriding": 9759,
    "Ġbravery": 9760,
    "Pat": 9761,
    "Ġwildflowers": 9762,
    "Ġjump": 9763,
    "Ġlearns": 9764,
    "Ġcheese": 9765,
    "blings": 9766,
    "Ġonto": 9767,
    "Ġsalt": 9768,
    "Ġdestro": 9769,
    "Ġthick": 9770,
    "Ġpony": 9771,
    "Ġsad": 9772,
    "Ġchatted": 9773,
    "Ġper": 9774,
    ",\"": 9775,
    "Ġgrumpy": 9776,
    "Ġstayed": 9777,
    "Ġwounds": 9778,
    "Ġraised": 9779,
    "\",": 9780,
    "ĠAb": 9781,
    "uckily": 9782,
    "Ġteles": 9783,
    "Ġfast": 9784,
    "Ġsocks": 9785,
    "Ġwhose": 9786,
    "Ġdiscover": 9787,
    "rass": 9788,
    "ject": 9789,
    "ugged": 9790,
    "Ġhoses": 9791,
    "Ġdial": 9792,
    "gest": 9793,
    "Ġvan": 9794,
    "ĠSlowly": 9795,
    "Ġfarmers": 9796,
    "Ġwife": 9797,
    "Ġpepper": 9798,
    "Ġfier": 9799,
    "Ġfour": 9800,
    "stop": 9801,
    "Ġwound": 9802,
    "ĠWhoever": 9803,
    "Ġmonster": 9804,
    "ĠRobert": 9805,
    "Ġinstrument": 9806,
    "zed": 9807,
    "Ġfigured": 9808,
    "So": 9809,
    "Ġspicy": 9810,
    "Ġaccompl": 9811,
    "Ġwere": 9812,
    "ĠBess": 9813,
    "Meow": 9814,
    "Ġexplore": 9815,
    "Ġpatients": 9816,
    "Ġmaster": 9817,
    "retty": 9818,
    "asers": 9819,
    "Ġkinds": 9820,
    "ĠThe": 9821,
    "Ġtickles": 9822,
    "(": 9823,
    "Ġcreat": 9824,
    "Ġman": 9825,
    "Ġobedient": 9826,
    "4": 9827,
    "Ġgu": 9828,
    "Ġmotion": 9829,
    "Ġmodern": 9830,
    "ĠMiss": 9831,
    "ered": 9832,
    "Ġdisobeyed": 9833,
    "Ġtwins": 9834,
    "igg": 9835,
    "Ġworms": 9836,
    "Ġpecked": 9837,
    "Ġwiser": 9838,
    "urple": 9839,
    "Ġcovers": 9840,
    "Ġfrustr": 9841,
    "Ġsearch": 9842,
    "Blue": 9843,
    "rian": 9844,
    "Ġmelon": 9845,
    "gg": 9846,
    "el": 9847,
    "medi": 9848,
    "rier": 9849,
    "Ġcreated": 9850,
    "Ġthrill": 9851,
    "Ġsadly": 9852,
    "ĠW": 9853,
    "ture": 9854,
    "Ġknob": 9855,
    "Ġchamber": 9856,
    "zen": 9857,
    "Ġtemp": 9858,
    "vering": 9859,
    "Ġno": 9860,
    "Ġdoggy": 9861,
    "Ġcalling": 9862,
    "ĠDizzy": 9863,
    "though": 9864,
    "unately": 9865,
    "§": 9866,
    "Ġrails": 9867,
    "Our": 9868,
    "Ġracers": 9869,
    "Ġmeets": 9870,
    "ĠSally": 9871,
    "Ġrobin": 9872,
    "isy": 9873,
    "urious": 9874,
    "ict": 9875,
    "Ġhood": 9876,
    "Ġhel": 9877,
    "Ġhappening": 9878,
    "Ġdangerous": 9879,
    "Ġattractive": 9880,
    "Ġbowed": 9881,
    "ĠHelping": 9882,
    "Ġwet": 9883,
    "ĠStop": 9884,
    "xible": 9885,
    "Ġdif": 9886,
    "Ġanxious": 9887,
    "ĺ": 9888,
    "Ġaccept": 9889,
    "lcan": 9890,
    "Ġdes": 9891,
    "Ġenvelope": 9892,
    "Ġur": 9893,
    "Ġopposite": 9894,
    "pop": 9895,
    "ĠLight": 9896,
    "Ġlem": 9897,
    "romise": 9898,
    "Ġmirr": 9899,
    "Ġoldest": 9900,
    "Ġenvious": 9901,
    "Ġemergency": 9902,
    "ĠJessica": 9903,
    "Ġtouch": 9904,
    "Ġpatted": 9905,
    "ities": 9906,
    "Splash": 9907,
    "Ġbinocular": 9908,
    "Ñ": 9909,
    "Ġtag": 9910,
    "ictionary": 9911,
    "Ġwhines": 9912,
    "Ġfro": 9913,
    "Ł": 9914,
    "Ġbadge": 9915,
    "ert": 9916,
    "Ġput": 9917,
    "Ġsidewalk": 9918,
    "Ġrecord": 9919,
    "Ġcrayon": 9920,
    "ĠNo": 9921,
    "Ġghosts": 9922,
    "Shh": 9923,
    "ĠPeanut": 9924,
    "Ġsplit": 9925,
    "Ġnever": 9926,
    "Ġfault": 9927,
    "uddy": 9928,
    "Ġmiller": 9929,
    "Ġcracked": 9930,
    "Ġkind": 9931,
    "Ġcliff": 9932,
    "ters": 9933,
    "jam": 9934,
    "Ë": 9935,
    "oggy": 9936,
    "Ġguards": 9937,
    "stairs": 9938,
    "ĠKip": 9939,
    "Ġcamel": 9940,
    "ĠGrand": 9941,
    "esday": 9942,
    "kelly": 9943,
    "Ġshyly": 9944,
    "ion": 9945,
    "Ġignored": 9946,
    "Ġlocked": 9947,
    "Ġsurprised": 9948,
    "isk": 9949,
    "otion": 9950,
    "lla": 9951,
    "Ġhips": 9952,
    "ic": 9953,
    "iday": 9954,
    "rench": 9955,
    "ex": 9956,
    "Ġgloomy": 9957,
    "lter": 9958,
    "ĠBra": 9959,
    "Ġjudges": 9960,
    "Jenny": 9961,
    "Ġkids": 9962,
    "ĠListen": 9963,
    "Ġcoins": 9964,
    "Ġcomplained": 9965,
    "ĠSparkle": 9966,
    "Ġstep": 9967,
    "Ġspray": 9968,
    "Ġwhole": 9969,
    "Ġbottles": 9970,
    "Pipp": 9971,
    "Ġwarned": 9972,
    "armer": 9973,
    "Ġmop": 9974,
    "Ġfailed": 9975,
    "Ġtried": 9976,
    "ĠRobo": 9977,
    "Ġflat": 9978,
    "Ġpilots": 9979,
    "Ġca": 9980,
    "ĠCan": 9981,
    "Ġsouvenir": 9982,
    "Ġfull": 9983,
    "Ġcheating": 9984,
    "ĠTree": 9985,
    "iel": 9986,
    "Ġrad": 9987,
    "anish": 9988,
    "Nick": 9989,
    "Ġautomobile": 9990,
    "Ġmassage": 9991,
    "Ġsunset": 9992,
    "Ġgoing": 9993,
    "tern": 9994,
    "Ġevery": 9995,
    "Ġlabel": 9996,
    "irrel": 9997,
    "Ġgraceful": 9998,
    "Ġtest": 9999
}