{
    "Ġmysteries": 0,
    "arp": 1,
    "Ġkindly": 2,
    "Ġnibble": 3,
    "evin": 4,
    "Ġcrushed": 5,
    "Ġstaff": 6,
    "scape": 7,
    "Grow": 8,
    "If": 9,
    "Ġsurfboard": 10,
    "Ġbuilders": 11,
    "Ġpeanut": 12,
    "Ġballoon": 13,
    "Ġdecorating": 14,
    "ĠRuby": 15,
    "Ġfilling": 16,
    "ist": 17,
    "mother": 18,
    "Ġdedic": 19,
    "ĠRollie": 20,
    "Ġcorner": 21,
    "Ġcomets": 22,
    "ock": 23,
    "Ġaudience": 24,
    "Ġrub": 25,
    "ĠFred": 26,
    "Ġfab": 27,
    "Ġdefe": 28,
    "Ġtorn": 29,
    "Ġweeping": 30,
    "eter": 31,
    "Ġwandered": 32,
    "Ġbrought": 33,
    "Ġworst": 34,
    "ĠYawn": 35,
    "ĠMrs": 36,
    "Ġbehaved": 37,
    "Ġsour": 38,
    "Snap": 39,
    "Ġwhe": 40,
    "Ġtemp": 41,
    "Ġpowers": 42,
    "Ġpromise": 43,
    "Ġdad": 44,
    "Ġcollar": 45,
    "ĠRing": 46,
    "Ġboy": 47,
    "Ġdressed": 48,
    "ress": 49,
    "Ġfour": 50,
    "Ġhooves": 51,
    "weet": 52,
    "Sleep": 53,
    "Ġlit": 54,
    "Ġfinding": 55,
    "Ġstrings": 56,
    "Ġsandwich": 57,
    "ĠPup": 58,
    "nger": 59,
    "Ġhole": 60,
    "Ġsav": 61,
    "ugged": 62,
    "Ġsatis": 63,
    "ĠViolet": 64,
    "Ġmerma": 65,
    "ĠUse": 66,
    "Ġhudd": 67,
    "Ġbre": 68,
    "Ġleap": 69,
    "ĠMomo": 70,
    "llas": 71,
    "Lola": 72,
    "ĠLittle": 73,
    "Ġimagining": 74,
    "ish": 75,
    "Ġstreets": 76,
    "Ġzip": 77,
    "Ħ": 78,
    "Ġpour": 79,
    "Ġgrowls": 80,
    "ĠDaddy": 81,
    "colored": 82,
    "Ġfootball": 83,
    "ot": 84,
    "Ġbubbling": 85,
    "Ġfaces": 86,
    "ï": 87,
    "rophone": 88,
    "Ġreceived": 89,
    "Ġstor": 90,
    "Ġseen": 91,
    "Ġwest": 92,
    "Ġscri": 93,
    "zzy": 94,
    "«": 95,
    "Ġroses": 96,
    "Ġfishing": 97,
    "Surprise": 98,
    "isted": 99,
    "Ġtalented": 100,
    "Ġindependent": 101,
    "sc": 102,
    "Ġsqueezes": 103,
    "Ġspear": 104,
    "Ġtops": 105,
    "Ġwinding": 106,
    "ere": 107,
    "K": 108,
    "verse": 109,
    "Ġagreed": 110,
    "Ġknowing": 111,
    "azz": 112,
    "Ġnect": 113,
    "Ġalligators": 114,
    "Ġkn": 115,
    "Ġsk": 116,
    "Ġcounter": 117,
    "Ġemer": 118,
    "Ġprickly": 119,
    "oun": 120,
    "Ġoyster": 121,
    "Ġlevel": 122,
    "Ġfat": 123,
    "Ġvet": 124,
    "ĠJane": 125,
    "Gigi": 126,
    "Ġavocado": 127,
    "Ġignored": 128,
    "Ġteamwork": 129,
    "Ġtigers": 130,
    "Ġvibrant": 131,
    "Ġjoin": 132,
    "Ġstumbled": 133,
    "that": 134,
    "Ġsunshine": 135,
    "ĠEverybody": 136,
    "ĠComet": 137,
    "Ġtravelled": 138,
    "Ġawhile": 139,
    "Ġpolitely": 140,
    "Ġsever": 141,
    "M": 142,
    "Ġaccepted": 143,
    "ĠFluffy": 144,
    "ric": 145,
    "Ġgrabs": 146,
    "uzz": 147,
    "Ġeating": 148,
    "aser": 149,
    "Ġbackpacks": 150,
    "Ġseat": 151,
    "Ġokay": 152,
    "ups": 153,
    "Ġscurried": 154,
    "pa": 155,
    "Ġroots": 156,
    "Ġmixer": 157,
    "Ġburrow": 158,
    "Ġdecorate": 159,
    "Ġbadge": 160,
    "ĠC": 161,
    "Ġwhispered": 162,
    "ited": 163,
    "hny": 164,
    "Ġpudd": 165,
    "Ġsleeping": 166,
    "Ġscary": 167,
    "Ġstadium": 168,
    "Ġshovels": 169,
    "ĠMy": 170,
    "Ġplayground": 171,
    "Ġvery": 172,
    "Ġscient": 173,
    "Ġforgotten": 174,
    "ards": 175,
    "Ġhelicopters": 176,
    "ĠMix": 177,
    "ĠRainbow": 178,
    "Ġtape": 179,
    "Ġgrows": 180,
    "Ġsneezes": 181,
    "Ġburned": 182,
    "Ġunlocked": 183,
    "Ġpause": 184,
    "ars": 185,
    "ha": 186,
    "Ġdove": 187,
    "Ġclos": 188,
    "Ġstrike": 189,
    "yler": 190,
    "Keep": 191,
    "Ġrisk": 192,
    "Ġmind": 193,
    "Ġcoins": 194,
    "Ġsilver": 195,
    "ĠTwist": 196,
    "Ġmats": 197,
    "fortunately": 198,
    "Ġglad": 199,
    "Ġdeter": 200,
    "Ġspark": 201,
    "Ġrust": 202,
    "ĠFlo": 203,
    "ĠBobby": 204,
    "ĠChe": 205,
    "Ġdriving": 206,
    "inger": 207,
    "ittle": 208,
    "Ġstranger": 209,
    "elieve": 210,
    "Ġduckling": 211,
    "ĠDavey": 212,
    "Ġding": 213,
    "Ġsigh": 214,
    "Ġjoy": 215,
    "Ġresponded": 216,
    "Beth": 217,
    "getic": 218,
    "keepers": 219,
    "ĠSandy": 220,
    "Ġswirl": 221,
    "so": 222,
    "âĢĻ": 223,
    "Ġmarching": 224,
    "Ġmarble": 225,
    "Ġworld": 226,
    "zoom": 227,
    "Try": 228,
    "Ġclassroom": 229,
    "'t": 230,
    "Ġrecord": 231,
    "Ġstool": 232,
    "ĠMissile": 233,
    "Ġbehind": 234,
    "Ġtast": 235,
    "stop": 236,
    "Ġcape": 237,
    "ĠWhy": 238,
    "ĠEnjoy": 239,
    "Ġmuffin": 240,
    "Share": 241,
    "Ĝ": 242,
    "Ġeager": 243,
    "ĠJudy": 244,
    "Sarah": 245,
    "Ġmirror": 246,
    "Ġdoorway": 247,
    "Ġsquishy": 248,
    "Ġunf": 249,
    "ine": 250,
    "ĠRuth": 251,
    "ola": 252,
    "Ġblinking": 253,
    "Ġbowls": 254,
    "Ġsparkling": 255,
    "Miss": 256,
    "ĠGoodbye": 257,
    "ormous": 258,
    "Ġwaters": 259,
    "Ġweighing": 260,
    "ĠFrom": 261,
    "Ġembarrassed": 262,
    "Ġsmarter": 263,
    "Ġusually": 264,
    "Ġjugg": 265,
    "Ġco": 266,
    "Ġattem": 267,
    "asers": 268,
    "Ġreplaced": 269,
    "Ġimag": 270,
    "Ġneedles": 271,
    "ĠToys": 272,
    "Ġloc": 273,
    "an": 274,
    "Ġquestioned": 275,
    "Ġspread": 276,
    "Ġbrightly": 277,
    "Ġelephant": 278,
    "ne": 279,
    "Ġord": 280,
    "Which": 281,
    "Ġastonished": 282,
    "erries": 283,
    "ĠRace": 284,
    "Ú": 285,
    "'.": 286,
    "Ġexperience": 287,
    "Ġmiss": 288,
    "Ġdumb": 289,
    "rel": 290,
    "Ġworry": 291,
    "Ġmus": 292,
    "medi": 293,
    "Ġchases": 294,
    "Ġblinked": 295,
    "Ġrusty": 296,
    "unes": 297,
    "Ġhello": 298,
    "His": 299,
    "ĠFu": 300,
    "Ġowned": 301,
    "Ġbackward": 302,
    "Ġreunited": 303,
    "Ġstickers": 304,
    "ĠTrue": 305,
    "Ġpistol": 306,
    "Ġbelt": 307,
    "Ġclear": 308,
    "Ġstrip": 309,
    "Ġfingers": 310,
    "Ġdate": 311,
    "Ġsy": 312,
    "Ġremembered": 313,
    "ense": 314,
    "Ro": 315,
    "Ġexploded": 316,
    "Ġtowel": 317,
    "Ġconfident": 318,
    "ared": 319,
    "Ġhouse": 320,
    "Ġpersist": 321,
    "Ġcab": 322,
    "Ġjob": 323,
    "Dad": 324,
    "Ġsponge": 325,
    "Ġfloors": 326,
    "Ġmake": 327,
    "uck": 328,
    "Ġdeep": 329,
    "Ġbeach": 330,
    "Ġtook": 331,
    "Ġbookcase": 332,
    "Ġforehead": 333,
    "ho": 334,
    "Jessica": 335,
    "allen": 336,
    "Ġhung": 337,
    "artin": 338,
    "Ġforks": 339,
    "Ġlighting": 340,
    "Ġsipped": 341,
    "Ġswimmer": 342,
    "host": 343,
    "ĠOl": 344,
    "Ġmass": 345,
    "ĠFifi": 346,
    "Ġlabel": 347,
    "Ġhealth": 348,
    "Ġbuses": 349,
    "Ġmedals": 350,
    "ĠStar": 351,
    "ouch": 352,
    "Ġleg": 353,
    "uel": 354,
    "æ": 355,
    "But": 356,
    "Ġegg": 357,
    "Ġsmartest": 358,
    "undred": 359,
    "ocked": 360,
    "izing": 361,
    "thy": 362,
    "Ġsmelled": 363,
    "Ġmemories": 364,
    "Ġdiscuss": 365,
    "Ġhealed": 366,
    "Ġkangaroos": 367,
    "Ġworm": 368,
    "Ġnibb": 369,
    "Well": 370,
    "Ru": 371,
    "ĠJake": 372,
    "rat": 373,
    "Ġcarrot": 374,
    "ighing": 375,
    "ĠMom": 376,
    "Ġtubes": 377,
    "Trust": 378,
    "Ġdoorbell": 379,
    "Ġprotection": 380,
    "ĠCrabby": 381,
    "child": 382,
    "Ġstretchy": 383,
    "af": 384,
    "Ġmilk": 385,
    "Ġaunt": 386,
    "ĠMaria": 387,
    "Ġrabbits": 388,
    "ĠJoey": 389,
    "Ġpolice": 390,
    "Shrink": 391,
    "ĠHowever": 392,
    "ings": 393,
    "Ġstrangers": 394,
    "Ġveil": 395,
    "Ġbreathed": 396,
    "Ġrealizes": 397,
    "ies": 398,
    "Ġsometime": 399,
    "Ġmagaz": 400,
    "g": 401,
    "outh": 402,
    "Ġaffect": 403,
    "ates": 404,
    "Ġclut": 405,
    "Ġlistened": 406,
    "Ġpurred": 407,
    "ĠSlowly": 408,
    "Ġsuddenly": 409,
    "Ġresults": 410,
    "Ġgall": 411,
    "oe": 412,
    "Ġsnowball": 413,
    "unny": 414,
    "Ġroll": 415,
    "ĠSw": 416,
    "Ġfurther": 417,
    "Ġexamined": 418,
    "Ġmeans": 419,
    "ĠRock": 420,
    "ĠSue": 421,
    "Buzzy": 422,
    "ĠMaisy": 423,
    "ĠBrownie": 424,
    "Ġadmir": 425,
    "ĠWelcome": 426,
    "utor": 427,
    "Ġhim": 428,
    "ĠTomorrow": 429,
    "bly": 430,
    "chanic": 431,
    "Ġdelayed": 432,
    "Ġresting": 433,
    "Ġfeeling": 434,
    "Ġgathered": 435,
    "Ġblew": 436,
    "Ġbaths": 437,
    "Ġvaluable": 438,
    "aw": 439,
    "Ġknot": 440,
    "Ġhurried": 441,
    "Ġjoked": 442,
    "Ġkisses": 443,
    "Ġdropped": 444,
    "ines": 445,
    "Ġvideos": 446,
    "Ġputting": 447,
    "'": 448,
    "aby": 449,
    "Ġquacked": 450,
    "Ġadd": 451,
    "cky": 452,
    "Ġhairy": 453,
    "Ġnovels": 454,
    "Ġhit": 455,
    "ĠLooking": 456,
    "repeat": 457,
    "Ġyours": 458,
    "qu": 459,
    "amond": 460,
    "ĠGod": 461,
    "Ġtoppings": 462,
    "Ġnightmare": 463,
    "Ġwhisp": 464,
    "Ġblast": 465,
    "ĠSleep": 466,
    "bbers": 467,
    "alley": 468,
    "Cra": 469,
    "Ġcompet": 470,
    "Ġmatching": 471,
    "ĺ": 472,
    "Ġare": 473,
    "Ġshe": 474,
    "Ġunw": 475,
    "Ġguesses": 476,
    "Ġthirsty": 477,
    "Ġspeaks": 478,
    "Ġgifts": 479,
    "urricane": 480,
    "Ġlions": 481,
    "Ġrepa": 482,
    "ĠEric": 483,
    "Magic": 484,
    "Wait": 485,
    "using": 486,
    "sp": 487,
    "Ġshows": 488,
    "Ġoutdo": 489,
    "Ġmight": 490,
    "Ġscolded": 491,
    "Ġlast": 492,
    "Sc": 493,
    "ĠBirds": 494,
    "kn": 495,
    "aroo": 496,
    "Ġtwirled": 497,
    "Ġtricked": 498,
    "Ġdetermined": 499,
    "After": 500,
    "ĠChew": 501,
    "Ġsecure": 502,
    "Ġmovie": 503,
    "itched": 504,
    "Ġwalking": 505,
    "Ġwhined": 506,
    "Ġrewarded": 507,
    "ading": 508,
    "ĠLilly": 509,
    "oor": 510,
    "Ġspike": 511,
    "Ġmarry": 512,
    "Ġflames": 513,
    "Ġwhist": 514,
    "Ġshut": 515,
    "Ġcuriosity": 516,
    "Ġfeeding": 517,
    "Ġtroubled": 518,
    "Ġrider": 519,
    "azor": 520,
    "ully": 521,
    "Ġtasting": 522,
    "Ġbehavior": 523,
    "ic": 524,
    "edient": 525,
    "Mabel": 526,
    "Ġcane": 527,
    "ichael": 528,
    "andra": 529,
    "Ġranger": 530,
    "Ġknown": 531,
    "Ġchocolates": 532,
    "unk": 533,
    "Ġairpl": 534,
    "Ġdent": 535,
    "Sp": 536,
    "Ġreversed": 537,
    "ca": 538,
    "ĠOrange": 539,
    "Ġtantrum": 540,
    "Ġwould": 541,
    "Ġsniffed": 542,
    "Ġeaten": 543,
    "Ġdiscovery": 544,
    "ĠFix": 545,
    "Ġdefeated": 546,
    "Ġint": 547,
    "Ġleak": 548,
    "Ġtricky": 549,
    "Ġtuck": 550,
    "Ġimages": 551,
    "Ġmarbles": 552,
    "Ġpoured": 553,
    "Ġmakes": 554,
    "Ġpeek": 555,
    "Ġencountered": 556,
    "Ġsug": 557,
    "Doggy": 558,
    "Ġtoolbox": 559,
    "ubby": 560,
    "Ġcupboard": 561,
    "ked": 562,
    "Ġsold": 563,
    "Ġanxious": 564,
    "Su": 565,
    "Ġcast": 566,
    "ues": 567,
    "Ġscrat": 568,
    "Ġannoying": 569,
    "aches": 570,
    "ĠKaty": 571,
    "bled": 572,
    "Ġspill": 573,
    "ĠChrist": 574,
    "Ġwhoosh": 575,
    "Ġfaster": 576,
    "oga": 577,
    "Ġfriendships": 578,
    "B": 579,
    "Ġmud": 580,
    "Ġmop": 581,
    "Ġmag": 582,
    "tock": 583,
    "ctions": 584,
    "ĠEmmy": 585,
    "Ġreminds": 586,
    "Bunny": 587,
    "Ġpatches": 588,
    "Ol": 589,
    "Lou": 590,
    "ĠEveryone": 591,
    "cut": 592,
    "Ġopening": 593,
    "Ġleather": 594,
    "ĠBetsy": 595,
    "Ġexciting": 596,
    "rilliant": 597,
    "ĠUnder": 598,
    "Ġflute": 599,
    "rmometer": 600,
    "Ġhesit": 601,
    "Ġbringing": 602,
    "Ġumbre": 603,
    "Ġrobbers": 604,
    "Ġdress": 605,
    "Ġnuzzled": 606,
    "Zoe": 607,
    "Ġstore": 608,
    "Ġpapers": 609,
    "Ġwire": 610,
    "Ġfire": 611,
    "Ġtreat": 612,
    "Ġwoman": 613,
    "osen": 614,
    "Ġdragon": 615,
    "aghetti": 616,
    "Ġcrumbs": 617,
    "welcome": 618,
    "Ġsadness": 619,
    "ĠJilly": 620,
    "Ġtruck": 621,
    "Ġbathe": 622,
    "Ġprayers": 623,
    "An": 624,
    "Ġloving": 625,
    "Ġlive": 626,
    "Ġtax": 627,
    "ĠShare": 628,
    "Ġpaper": 629,
    "Ġtalking": 630,
    "Ġbeneath": 631,
    "ĠMouse": 632,
    "Ġwaste": 633,
    "Ġrat": 634,
    "the": 635,
    "ĠPink": 636,
    "Ġsmiling": 637,
    "fus": 638,
    "ery": 639,
    "ĠĊ": 640,
    "Ġext": 641,
    "Ġaccompl": 642,
    "Ġspinning": 643,
    "Ġplaces": 644,
    "Ġrain": 645,
    "ud": 646,
    "omes": 647,
    "athy": 648,
    "Ġtight": 649,
    "band": 650,
    "ĠLaser": 651,
    "Ġdry": 652,
    "Ġaccom": 653,
    "Ġinstr": 654,
    "erts": 655,
    "Ġvacation": 656,
    "Ġaisle": 657,
    "app": 658,
    "Of": 659,
    "T": 660,
    "Ġabout": 661,
    "Ġsnaps": 662,
    "Ġattractive": 663,
    "Ġs": 664,
    "Ġsymbol": 665,
    "Ġunderstands": 666,
    "Ġtorto": 667,
    "Ġsandy": 668,
    "Ġreappeared": 669,
    "mies": 670,
    "owed": 671,
    "Ġsafely": 672,
    "Ġinstantly": 673,
    "ĠHenry": 674,
    "Ġroom": 675,
    "Where": 676,
    "Ġideas": 677,
    "Ġgate": 678,
    "ĠJe": 679,
    "Ġsur": 680,
    "ĠShark": 681,
    "Ġbulbs": 682,
    "Ġsearching": 683,
    "Ġdin": 684,
    "Ġshook": 685,
    "Ġscampered": 686,
    "Ġicky": 687,
    "Ġspit": 688,
    "Ġcle": 689,
    "Ġshoulder": 690,
    "Ġwiggled": 691,
    "Ġconvin": 692,
    "Ġsoaked": 693,
    "Ġchanging": 694,
    "Ġpeacock": 695,
    "Ġglittering": 696,
    "urt": 697,
    "Ġtwinkle": 698,
    "stic": 699,
    "Ġmatch": 700,
    "Ġintroduced": 701,
    "ng": 702,
    "ĠBubba": 703,
    "Ġspilled": 704,
    "Ġfut": 705,
    "Ġstem": 706,
    "Rain": 707,
    "as": 708,
    "ub": 709,
    "Ġangel": 710,
    "Ġscarf": 711,
    "Wh": 712,
    "scar": 713,
    "Linda": 714,
    "ĠAmelia": 715,
    "!\",": 716,
    "Ġchairs": 717,
    "Ġyelled": 718,
    "Ġhosp": 719,
    "Ġwith": 720,
    "ĠDragon": 721,
    "Ġdance": 722,
    "Ġpigeons": 723,
    "Ġwoodcutter": 724,
    "Ġaside": 725,
    "Ġscientist": 726,
    "ĠLinda": 727,
    "!âĢĻ": 728,
    "Uncle": 729,
    "Ġforever": 730,
    "Ġvalu": 731,
    "reed": 732,
    "Ġtastes": 733,
    "ĠSnap": 734,
    "Ġsnuck": 735,
    "Ġourselves": 736,
    "Ġscores": 737,
    "Ġcozy": 738,
    "Ġsinging": 739,
    "Ġthat": 740,
    "Ġcomfy": 741,
    "Ġseeds": 742,
    "ĠAmber": 743,
    "ĠWhile": 744,
    "Ġshinier": 745,
    "ĠJeff": 746,
    "Ġsiblings": 747,
    "Ġsandcastle": 748,
    "Ġleans": 749,
    "Ġfrom": 750,
    "Ġtelling": 751,
    "ĠCloud": 752,
    "Ġflowers": 753,
    "Ray": 754,
    "Ġstop": 755,
    "Ġsorted": 756,
    "Ġthanks": 757,
    "Ġjolly": 758,
    "ĠMaybe": 759,
    "ue": 760,
    "Ġgoggles": 761,
    "Ġdifferently": 762,
    "ĠSunny": 763,
    "ember": 764,
    "Ġrewards": 765,
    "Ġem": 766,
    "kins": 767,
    "Ġobeyed": 768,
    "Ġshower": 769,
    "bbed": 770,
    "ree": 771,
    "aged": 772,
    "Ġfav": 773,
    "Ġrealized": 774,
    "Ġcomput": 775,
    "Ġbiting": 776,
    "Ġexactly": 777,
    "Ġpetting": 778,
    "anges": 779,
    "Ġnotice": 780,
    "Ġmany": 781,
    "ĠMimi": 782,
    "Ġclick": 783,
    "Jerry": 784,
    "Eww": 785,
    "Ġme": 786,
    "Ġperched": 787,
    "iled": 788,
    "Ġborrowed": 789,
    "Ġfeast": 790,
    "Ġrepeating": 791,
    "alous": 792,
    "sie": 793,
    "Ġprin": 794,
    "oon": 795,
    "Ġcrawling": 796,
    "cast": 797,
    "oll": 798,
    "Ġhive": 799,
    "Ġpatience": 800,
    "Ġcurled": 801,
    "Ć": 802,
    "ĠMikey": 803,
    "Ġpointed": 804,
    "Ġmild": 805,
    "inky": 806,
    "uster": 807,
    "Ġthought": 808,
    "ĠJudge": 809,
    "Ġworn": 810,
    "cept": 811,
    "ĠMixy": 812,
    "gar": 813,
    "Ġnovel": 814,
    "Ġcompl": 815,
    "iron": 816,
    "ĠSimon": 817,
    "Ġticket": 818,
    "Ġbleeding": 819,
    "Ġpies": 820,
    "Jacob": 821,
    "Ġkeeping": 822,
    "Ġsandpit": 823,
    "ĠMila": 824,
    "Ġribb": 825,
    "man": 826,
    "Ġnone": 827,
    "Ġsharing": 828,
    "ĠJody": 829,
    "Ġclimbs": 830,
    "Ġeither": 831,
    "Ġisn": 832,
    "ĠThen": 833,
    "ĠDad": 834,
    "Ġhits": 835,
    "Ġadding": 836,
    "Ġripped": 837,
    "Both": 838,
    "Ġsnuggle": 839,
    "Ġbother": 840,
    "Ġsource": 841,
    "Ġhur": 842,
    "Ġscatter": 843,
    "ĠFish": 844,
    "Ġholiday": 845,
    "True": 846,
    "ventually": 847,
    "ĠNurse": 848,
    "ĠSteven": 849,
    "Ġop": 850,
    "Ġshares": 851,
    "Robbie": 852,
    "Ġcheese": 853,
    "y": 854,
    "Ġcrew": 855,
    "Ġhelp": 856,
    "Ġguessed": 857,
    "Ġbraver": 858,
    "Ġcrashed": 859,
    "Ġlaugh": 860,
    "ad": 861,
    "Ġoverjoyed": 862,
    "Ġ3": 863,
    "rom": 864,
    "Ġlimes": 865,
    "Ġpret": 866,
    "Ġbicycles": 867,
    "Ġbeast": 868,
    "Ġshoot": 869,
    "ellow": 870,
    "ena": 871,
    "Ġsafety": 872,
    "Ġforgive": 873,
    "Ġfi": 874,
    "Ch": 875,
    "ĠAlex": 876,
    "ma": 877,
    "Ġintelligent": 878,
    "Ġfar": 879,
    "?\",": 880,
    "hes": 881,
    "urpr": 882,
    "Ġspoiling": 883,
    "Excuse": 884,
    "Ġstern": 885,
    "Ġunderstand": 886,
    "Ġrevealed": 887,
    "rot": 888,
    "ĠFuzzy": 889,
    "Ġelse": 890,
    "repe": 891,
    "Ġinv": 892,
    "ibb": 893,
    "Ġstair": 894,
    "4": 895,
    "ĠLia": 896,
    "Ġbouncy": 897,
    "Tina": 898,
    "Ġgri": 899,
    "Lizzie": 900,
    "Ġtruly": 901,
    "ĠBro": 902,
    "Ġexchange": 903,
    "Ġwhen": 904,
    "Ġlight": 905,
    "eal": 906,
    "Mad": 907,
    "ĠStitch": 908,
    "cl": 909,
    "Ġpicnics": 910,
    "Ġresp": 911,
    "ĠFroggy": 912,
    "Ġpointy": 913,
    "Ġcuddly": 914,
    "Ġskipping": 915,
    "Ġbrain": 916,
    "_": 917,
    "Ö": 918,
    "Ġnasty": 919,
    "Ġfollowed": 920,
    "ship": 921,
    "ĠMarie": 922,
    "Ġcrash": 923,
    "Ġsquir": 924,
    "Ġblack": 925,
    "ĠEach": 926,
    "Ġships": 927,
    "irpy": 928,
    "Ġacorns": 929,
    "ac": 930,
    "Ġdisturb": 931,
    "Ġsymbols": 932,
    "Ġpowder": 933,
    "orking": 934,
    "ĠDotty": 935,
    "imal": 936,
    "Ġhumans": 937,
    "Ġfl": 938,
    "xt": 939,
    "Ġzookeeper": 940,
    "Ġbeg": 941,
    "Ġign": 942,
    "Ġencouragement": 943,
    "Ġimprove": 944,
    "Ġwisdom": 945,
    "Ġwanting": 946,
    "ĠJess": 947,
    "Ġweather": 948,
    "Ġfixer": 949,
    "Ġlaug": 950,
    "imb": 951,
    "People": 952,
    "ĠOut": 953,
    "Ġshadow": 954,
    "Climb": 955,
    "ture": 956,
    "Ġprobably": 957,
    "id": 958,
    "Ġac": 959,
    "Baby": 960,
    "Ġbold": 961,
    "âĢĿ": 962,
    "irst": 963,
    "Ġsuffer": 964,
    "Ġrespons": 965,
    "Ġrobot": 966,
    "lay": 967,
    "arted": 968,
    "Ġused": 969,
    "Ġstirs": 970,
    "ache": 971,
    "ower": 972,
    "Ġopin": 973,
    "ato": 974,
    "Ġlets": 975,
    "Ġtrash": 976,
    "Ġpanda": 977,
    "Ġmin": 978,
    "Ġchips": 979,
    "erp": 980,
    "Ġmicrow": 981,
    "å": 982,
    "And": 983,
    "Ġthank": 984,
    "ĠDare": 985,
    "Ġbal": 986,
    "Ġblonde": 987,
    "Ġminds": 988,
    "Ġweighs": 989,
    "Ġguilty": 990,
    "Eventually": 991,
    "Ġotherwise": 992,
    "Ġpatch": 993,
    "ĠElephant": 994,
    "Ġfoolish": 995,
    "Run": 996,
    "ĠTogether": 997,
    "Ġbus": 998,
    "chen": 999,
    "Ġhi": 1000,
    "Ġthoughts": 1001,
    "Ġhurts": 1002,
    "Ġartist": 1003,
    "raid": 1004,
    "Ġunpacking": 1005,
    "Ġmicrophone": 1006,
    "Ġsnuggled": 1007,
    "Ġprom": 1008,
    "cery": 1009,
    "Ġwhiskers": 1010,
    "ĠRob": 1011,
    "Ġwindowsill": 1012,
    "Ġthrough": 1013,
    "Ġspeed": 1014,
    "Ġcall": 1015,
    "Ġsobbing": 1016,
    "Ġslam": 1017,
    "Ġr": 1018,
    "Ġtreats": 1019,
    "Ġsuit": 1020,
    "Ġcereal": 1021,
    "Ġearlier": 1022,
    "Ha": 1023,
    "rmomet": 1024,
    "Ġconfused": 1025,
    "Ġchoo": 1026,
    "Ġnests": 1027,
    "fa": 1028,
    "Ġbud": 1029,
    "Ġweb": 1030,
    "Ġspong": 1031,
    "uckily": 1032,
    "boat": 1033,
    "Vroom": 1034,
    "Ġprotect": 1035,
    "Ġblowing": 1036,
    "Ġaeropl": 1037,
    "Ġsnowfl": 1038,
    "ĠSk": 1039,
    "Ġpeel": 1040,
    "Ġmean": 1041,
    "ient": 1042,
    "Sun": 1043,
    "ich": 1044,
    "Ġburn": 1045,
    "Ġlollipop": 1046,
    "aving": 1047,
    "Ġlikes": 1048,
    "this": 1049,
    "Ġbamboo": 1050,
    "Ġcups": 1051,
    "Ġflavors": 1052,
    "ĠRu": 1053,
    "ĠTom": 1054,
    "ipes": 1055,
    "Ġhair": 1056,
    "Ġfinal": 1057,
    "Ġamount": 1058,
    "Ġit": 1059,
    "Ġtwisty": 1060,
    "Ġpec": 1061,
    "W": 1062,
    "Ġmap": 1063,
    "Ġgrumpy": 1064,
    "Ġblock": 1065,
    "ĠPig": 1066,
    "Ġmanaged": 1067,
    "Instead": 1068,
    "Ġnurses": 1069,
    "ĠHis": 1070,
    "Ġdelicious": 1071,
    "Ġsqueal": 1072,
    "Ġsells": 1073,
    "Ġsh": 1074,
    "Ġjogged": 1075,
    "Ġhopes": 1076,
    "Ġdancer": 1077,
    "ĠBiggy": 1078,
    "Ġpeered": 1079,
    "Ġtreated": 1080,
    "Sweet": 1081,
    "rum": 1082,
    "Ġignorant": 1083,
    "Ġtapping": 1084,
    "Goodnight": 1085,
    "Ġshin": 1086,
    "gers": 1087,
    "Ġdive": 1088,
    "Ġrang": 1089,
    "Ġprinting": 1090,
    "mer": 1091,
    "Ġstare": 1092,
    "Ġdisg": 1093,
    "ĠJosh": 1094,
    "Ġwave": 1095,
    "Ġswans": 1096,
    "Ġflock": 1097,
    "Ġhippos": 1098,
    "ĠFel": 1099,
    "seum": 1100,
    "Ġdeaf": 1101,
    "Ġwand": 1102,
    "Ġowl": 1103,
    "Ġjoyful": 1104,
    "Ġmane": 1105,
    "blings": 1106,
    "ĠFr": 1107,
    "ĠSpe": 1108,
    "Ġnotebook": 1109,
    "Ġplayd": 1110,
    "Ġfog": 1111,
    "iday": 1112,
    "oney": 1113,
    "Ġless": 1114,
    "ĠMina": 1115,
    "uff": 1116,
    "Ġleopard": 1117,
    "Ġlots": 1118,
    "Ġpoke": 1119,
    "iss": 1120,
    "Ġmachines": 1121,
    "--": 1122,
    "Ġbang": 1123,
    "Everyone": 1124,
    "k": 1125,
    "Ġhummed": 1126,
    "Ġregular": 1127,
    "Ġmechanic": 1128,
    "Ġstr": 1129,
    "ĠRo": 1130,
    "Annie": 1131,
    "Ġbomb": 1132,
    "ĠPiggy": 1133,
    "eremy": 1134,
    "umm": 1135,
    "Ġwheel": 1136,
    "Ġfalling": 1137,
    "ict": 1138,
    "ops": 1139,
    "b": 1140,
    "Ġstick": 1141,
    "ial": 1142,
    "Chloe": 1143,
    "Ġparent": 1144,
    "Ġyell": 1145,
    "Ġnapkin": 1146,
    "Ġthemselves": 1147,
    "Ġkinds": 1148,
    "zed": 1149,
    "Ġnecklace": 1150,
    "Ġrake": 1151,
    "Ġting": 1152,
    "Ġfascinating": 1153,
    "Ġvendor": 1154,
    "Ġtemperature": 1155,
    "Ġsoared": 1156,
    "Ġopens": 1157,
    "Ġnot": 1158,
    "Ġmoder": 1159,
    "Ġconc": 1160,
    "Ġslice": 1161,
    "Ġhats": 1162,
    "Ġslips": 1163,
    "9": 1164,
    "ß": 1165,
    "Ġbad": 1166,
    "Ġcool": 1167,
    "Ġstretching": 1168,
    "Ġdusty": 1169,
    "ky": 1170,
    "Ġpolar": 1171,
    "Ġteleph": 1172,
    "fived": 1173,
    "ater": 1174,
    "Ġbathed": 1175,
    "Ġforgot": 1176,
    "Ġspills": 1177,
    "Ġwhoever": 1178,
    "Ġraised": 1179,
    "ĠNick": 1180,
    "Ġdrum": 1181,
    "Ġexp": 1182,
    "Ġsou": 1183,
    "Ġup": 1184,
    "Ġmelody": 1185,
    "Ġdeserved": 1186,
    "Ġcheap": 1187,
    "Ġfiles": 1188,
    "Ġdirty": 1189,
    "Ġcomforted": 1190,
    "Ġnapkins": 1191,
    "Ġtoaster": 1192,
    "der": 1193,
    "ados": 1194,
    "ĠSadie": 1195,
    "ĠOxy": 1196,
    "Ġawful": 1197,
    "Ġlearned": 1198,
    "gry": 1199,
    "Ġover": 1200,
    "Ġpaw": 1201,
    "iest": 1202,
    "ane": 1203,
    "Bye": 1204,
    "Ġtrot": 1205,
    "Ġsprinkles": 1206,
    "oo": 1207,
    "Ġborrow": 1208,
    "ĠPuppy": 1209,
    "Ġrelaxing": 1210,
    "Ġspend": 1211,
    "ĠHope": 1212,
    "!âĢĿ.": 1213,
    "Ġrice": 1214,
    "angu": 1215,
    "Ġmailed": 1216,
    "Ġcleaning": 1217,
    "Ġdots": 1218,
    "ĠThunder": 1219,
    "ask": 1220,
    "ĠPeep": 1221,
    "Put": 1222,
    "ivi": 1223,
    "jo": 1224,
    "im": 1225,
    "!\".": 1226,
    "aped": 1227,
    "There": 1228,
    "Ġdot": 1229,
    "Ġcute": 1230,
    "Ġbeloved": 1231,
    "Ġtrue": 1232,
    "ĠWaffle": 1233,
    "Ġrealised": 1234,
    "Ġreally": 1235,
    "Ġsniffing": 1236,
    "Ġflashed": 1237,
    "Ġmommies": 1238,
    "Ġarrive": 1239,
    "ĠRos": 1240,
    "Ġbumpy": 1241,
    "Ġresponse": 1242,
    "Ġwarmth": 1243,
    "Ġglued": 1244,
    "^": 1245,
    "hind": 1246,
    "Ġseats": 1247,
    "Ġtapped": 1248,
    "Ġsplashes": 1249,
    "Ġpecked": 1250,
    "Ġreturning": 1251,
    "llipop": 1252,
    "Ġcrossed": 1253,
    "Ġrefres": 1254,
    "Ġsurpr": 1255,
    "Ġface": 1256,
    "Ġolder": 1257,
    "Jack": 1258,
    "Ġburying": 1259,
    "ĠTammy": 1260,
    "Ġdesserts": 1261,
    "Ġdollar": 1262,
    "als": 1263,
    "Ġstops": 1264,
    "ĠMolly": 1265,
    "Ġtug": 1266,
    "ler": 1267,
    "Ġcousin": 1268,
    "Ġbuckles": 1269,
    "itty": 1270,
    "Ġadmiring": 1271,
    "Ġrising": 1272,
    "ute": 1273,
    "Ġespecially": 1274,
    "Ġweep": 1275,
    "ĠCro": 1276,
    "Ġsurrounded": 1277,
    "Ġtrips": 1278,
    "ering": 1279,
    "Ġsepar": 1280,
    "Ġtoilet": 1281,
    "Ġcash": 1282,
    "ises": 1283,
    "Che": 1284,
    "Sue": 1285,
    "erly": 1286,
    "Ġthing": 1287,
    "Ġboats": 1288,
    "Ġskipped": 1289,
    "Ġseparate": 1290,
    "yal": 1291,
    "j": 1292,
    "Ġscattering": 1293,
    "Mummy": 1294,
    "Ġline": 1295,
    "Ġsneezing": 1296,
    "omp": 1297,
    "ĠShe": 1298,
    "Ġalways": 1299,
    "Ġseeking": 1300,
    "Ġscrewdriver": 1301,
    "Ġrestaurant": 1302,
    "cer": 1303,
    "Ġsniffs": 1304,
    "ĠChewy": 1305,
    "Ġ4": 1306,
    "ĠBad": 1307,
    "Ġchef": 1308,
    "Ġslither": 1309,
    "ĠBow": 1310,
    "Ġarr": 1311,
    "Ġnight": 1312,
    "Ġconsider": 1313,
    "Ġcre": 1314,
    "Ġdigging": 1315,
    "Ġwatered": 1316,
    "ĠCuddles": 1317,
    "Ġplugged": 1318,
    "Ġcourageous": 1319,
    "@": 1320,
    "Ġsea": 1321,
    "Ġsand": 1322,
    "ĠEverything": 1323,
    "Ġbless": 1324,
    "osity": 1325,
    "immer": 1326,
    "Í": 1327,
    "Ġgorilla": 1328,
    "endy": 1329,
    "Ġshadows": 1330,
    "here": 1331,
    "Ġtore": 1332,
    "Ġlapt": 1333,
    "lest": 1334,
    "ummer": 1335,
    "ae": 1336,
    "Ġswimsuit": 1337,
    "Ġdraw": 1338,
    "Ġcomf": 1339,
    "Ġweren": 1340,
    "Ġthorns": 1341,
    "Leave": 1342,
    "Ġfile": 1343,
    "iger": 1344,
    "Ġprints": 1345,
    "eve": 1346,
    "ĠThere": 1347,
    "Ġlips": 1348,
    "Ġarri": 1349,
    "Ġmunch": 1350,
    "Ġproperly": 1351,
    "Ġind": 1352,
    "Ġgre": 1353,
    "iew": 1354,
    "ith": 1355,
    "Ġjeep": 1356,
    "Ġrubber": 1357,
    "ĠEnd": 1358,
    "ĠZero": 1359,
    "Ġrubbish": 1360,
    "ch": 1361,
    "cing": 1362,
    "Ġtouch": 1363,
    "Ġpouch": 1364,
    "Ġsparkled": 1365,
    "Ġhappily": 1366,
    "Ġins": 1367,
    "airs": 1368,
    "Ġdollhouse": 1369,
    "Ġcakes": 1370,
    "ape": 1371,
    "Lily": 1372,
    "Ġsurfed": 1373,
    "Ġshore": 1374,
    "Ġban": 1375,
    "Ġgerms": 1376,
    "ĠCle": 1377,
    "icing": 1378,
    "ĠTippy": 1379,
    "]": 1380,
    "Ġcops": 1381,
    "dy": 1382,
    "Ġvegg": 1383,
    "ĠHave": 1384,
    "Ġtree": 1385,
    "ved": 1386,
    "Ġpale": 1387,
    "Ġmoving": 1388,
    "Ġkeeper": 1389,
    "Susan": 1390,
    "rench": 1391,
    "Ġnest": 1392,
    "ball": 1393,
    "Ġfrost": 1394,
    "Ġbasement": 1395,
    "Ġproject": 1396,
    "ement": 1397,
    "Ġcharac": 1398,
    "Ġorgan": 1399,
    "Ġdistance": 1400,
    "Ġflame": 1401,
    "itude": 1402,
    "Ġpup": 1403,
    "Ġcushions": 1404,
    "Ġtaps": 1405,
    "Ġmeadows": 1406,
    "Ġmet": 1407,
    "Ġimaginary": 1408,
    "Ġpout": 1409,
    "Ŀ": 1410,
    "Ġposter": 1411,
    "ĠBirdy": 1412,
    "Ġwig": 1413,
    "Ġspaghetti": 1414,
    "Kayla": 1415,
    "Ġhelmets": 1416,
    "Ġeverything": 1417,
    "Ġspits": 1418,
    "Ġfavor": 1419,
    "Ġducks": 1420,
    "Katie": 1421,
    "Ġnectar": 1422,
    "Ġbulb": 1423,
    "F": 1424,
    "Ġsplit": 1425,
    "ĠNina": 1426,
    "igh": 1427,
    "Ġbattery": 1428,
    "Some": 1429,
    "Ġcertain": 1430,
    "Ġlazy": 1431,
    "Ġembarrass": 1432,
    "ophia": 1433,
    "lem": 1434,
    "Ġteach": 1435,
    "Ġpee": 1436,
    "Ġforgiveness": 1437,
    "Lilly": 1438,
    "Ġfountain": 1439,
    "ĠEllie": 1440,
    "Ġget": 1441,
    "old": 1442,
    "ĠLuc": 1443,
    "Roar": 1444,
    "Ġfart": 1445,
    "Ġaccomplished": 1446,
    "Ġputs": 1447,
    "Doctor": 1448,
    "Whee": 1449,
    "Ġeyes": 1450,
    "oomy": 1451,
    "Ġmirac": 1452,
    "`": 1453,
    "Ġcrayon": 1454,
    "Ġlotion": 1455,
    "Ġthird": 1456,
    "Bob": 1457,
    "Ġport": 1458,
    "Ġgar": 1459,
    "Ġinsects": 1460,
    "ways": 1461,
    "ĠJust": 1462,
    "Ġtightly": 1463,
    "art": 1464,
    "hi": 1465,
    ";": 1466,
    "Ġbull": 1467,
    "Ġjumping": 1468,
    "ĠOwl": 1469,
    "ĠSqueak": 1470,
    "angle": 1471,
    "Ġwindows": 1472,
    "Ġcup": 1473,
    "Ġrods": 1474,
    "ĠChip": 1475,
    "ĠMandy": 1476,
    "ision": 1477,
    "Ġbrick": 1478,
    "agull": 1479,
    "it": 1480,
    "Ġdisag": 1481,
    "Ġencou": 1482,
    "Ġruining": 1483,
    "Ġcreams": 1484,
    "Ġpadd": 1485,
    "Ġholding": 1486,
    "ĠThey": 1487,
    "Ġan": 1488,
    "oys": 1489,
    "Ġ'": 1490,
    "Ġconnected": 1491,
    "Ġchallen": 1492,
    "Ġbrushes": 1493,
    "Ġhanging": 1494,
    "Ġfold": 1495,
    "Ġbackwards": 1496,
    "Ġmesmerized": 1497,
    "Ġgates": 1498,
    "Ġfin": 1499,
    "ĠKelly": 1500,
    "ĠSnowman": 1501,
    "Ġmall": 1502,
    "Ġthere": 1503,
    "ĠPoppy": 1504,
    "Ġsplashed": 1505,
    "Ġig": 1506,
    "Ġstaying": 1507,
    "Ġsnapping": 1508,
    "Bu": 1509,
    "Ġshone": 1510,
    "njoy": 1511,
    "Ġwra": 1512,
    "Ġstruggle": 1513,
    "ĠLu": 1514,
    "Ġscur": 1515,
    "Clara": 1516,
    "andy": 1517,
    "Ġignoring": 1518,
    "Sophie": 1519,
    "Ġcust": 1520,
    "Ġmagical": 1521,
    "Ġforgi": 1522,
    "ĠPippa": 1523,
    "Ġbeating": 1524,
    "Ġlettuce": 1525,
    "Ġcabin": 1526,
    "À": 1527,
    "Ġplaying": 1528,
    "Ġsnowy": 1529,
    "Ġspaceship": 1530,
    "Ġscored": 1531,
    "Ġbelieved": 1532,
    "int": 1533,
    "Ġquest": 1534,
    "From": 1535,
    "ĠIce": 1536,
    "Ġgenie": 1537,
    "Ġfocus": 1538,
    "ĠTe": 1539,
    "Ġluckily": 1540,
    "Ġenter": 1541,
    "Ġstretched": 1542,
    "Ġcry": 1543,
    "Ġwhispers": 1544,
    "Ġsatisfaction": 1545,
    "Ġsurf": 1546,
    "Ġtick": 1547,
    "Ġcraw": 1548,
    "Ġbeam": 1549,
    "Ġflipped": 1550,
    "Ġlon": 1551,
    "Ġpouted": 1552,
    "ix": 1553,
    "Ġchased": 1554,
    "Ġlights": 1555,
    "ĠHar": 1556,
    "Ġruin": 1557,
    "Ġsitu": 1558,
    "Ġyourself": 1559,
    "Ġrolling": 1560,
    "Ġminer": 1561,
    "Ġspade": 1562,
    "Only": 1563,
    "Ġsunglasses": 1564,
    "Ġsale": 1565,
    "ĠJolly": 1566,
    "ĠPop": 1567,
    "Ġplease": 1568,
    "Ġdangerous": 1569,
    "aptain": 1570,
    "Joey": 1571,
    "Ġanyway": 1572,
    "Ġpuzzle": 1573,
    "ĠUp": 1574,
    "Ġsteam": 1575,
    "Ġbruises": 1576,
    "ions": 1577,
    "Ġbite": 1578,
    "Ġgenerous": 1579,
    "Ġattacked": 1580,
    "Steve": 1581,
    "Ġshimmering": 1582,
    "n": 1583,
    "Ġloves": 1584,
    "Ġsound": 1585,
    "ivery": 1586,
    "ĠAt": 1587,
    "Ġpart": 1588,
    "loo": 1589,
    "q": 1590,
    "Ġten": 1591,
    "ĠIzzy": 1592,
    "Ġnur": 1593,
    "Ġplaytime": 1594,
    "Ġhissed": 1595,
    "Ġnearly": 1596,
    "Ġsuffered": 1597,
    "ion": 1598,
    "rr": 1599,
    "Ġterri": 1600,
    "ĠShadow": 1601,
    "ĠSpark": 1602,
    "Ġweekend": 1603,
    "let": 1604,
    "Ġyear": 1605,
    "Ġany": 1606,
    "Jessie": 1607,
    "Ġshrink": 1608,
    "Robby": 1609,
    "Ġtiptoed": 1610,
    "ster": 1611,
    "Ġboard": 1612,
    "Ġtied": 1613,
    "Ġteddy": 1614,
    "Ġskills": 1615,
    "Ġpotatoes": 1616,
    "Ġinvest": 1617,
    "ĠBefore": 1618,
    "Ġthanking": 1619,
    "Ġblanket": 1620,
    "ircle": 1621,
    "Ġbas": 1622,
    "Ġpink": 1623,
    "jam": 1624,
    "Ġrides": 1625,
    "Ġthrown": 1626,
    "chievous": 1627,
    "ades": 1628,
    "ica": 1629,
    "Ġumbrellas": 1630,
    "Ġrevealing": 1631,
    "Y": 1632,
    "\\": 1633,
    "Ġelderly": 1634,
    "Ġwidened": 1635,
    "ongrat": 1636,
    "Ġsigned": 1637,
    "Ġnumbered": 1638,
    "Ġla": 1639,
    "Ġnapping": 1640,
    "Ġalligator": 1641,
    "ĠMike": 1642,
    "ĠKatie": 1643,
    "ield": 1644,
    "ĠZoomy": 1645,
    "ĠAn": 1646,
    "ĠRudy": 1647,
    "Ġheight": 1648,
    "Ġhealthier": 1649,
    "ĠFinally": 1650,
    "Ġhalf": 1651,
    "Ġhallway": 1652,
    "Ġupon": 1653,
    "Ġpackages": 1654,
    "Ġshyly": 1655,
    "Ġseasons": 1656,
    "Ġrebu": 1657,
    "ĠAna": 1658,
    "Ġhooks": 1659,
    "ĠTriangle": 1660,
    "Ġraven": 1661,
    "Ġscale": 1662,
    "Ġgems": 1663,
    "Ġscooter": 1664,
    "Ġrestless": 1665,
    "ĠâĢĺ": 1666,
    "Ġscar": 1667,
    "Ġstolen": 1668,
    "ĠTra": 1669,
    "Jazz": 1670,
    "Ġmixing": 1671,
    "Ġwhimpered": 1672,
    "ĠSwim": 1673,
    "Ġinch": 1674,
    "Ġsudden": 1675,
    "rect": 1676,
    "Ġkings": 1677,
    "Ġserved": 1678,
    "Ġmoney": 1679,
    "Ġcur": 1680,
    "Ü": 1681,
    "Ġruler": 1682,
    "Ġrefreshed": 1683,
    "Ġaware": 1684,
    "Ġkeeps": 1685,
    "Ġyawning": 1686,
    "ĠAuntie": 1687,
    "Ġdecl": 1688,
    "Ġfireworks": 1689,
    "Ġperformance": 1690,
    "Ġplayer": 1691,
    "coa": 1692,
    "agine": 1693,
    "usie": 1694,
    "Ġraked": 1695,
    "Ġhere": 1696,
    "Ġing": 1697,
    "Ġsisters": 1698,
    "Ġwraps": 1699,
    "Ġtables": 1700,
    "Ġfight": 1701,
    "Þ": 1702,
    "Ġhowever": 1703,
    "Ġbackyard": 1704,
    "Ġstands": 1705,
    "âĢ": 1706,
    "Ġpopping": 1707,
    "Ġnature": 1708,
    "ĠDr": 1709,
    "Ġplanes": 1710,
    "Ġvalue": 1711,
    "Ġenjoy": 1712,
    "mers": 1713,
    "ĠTrucky": 1714,
    "ason": 1715,
    "Ġtopp": 1716,
    "Ġnear": 1717,
    "Ġbecoming": 1718,
    "Ġblank": 1719,
    "Ġsuperhero": 1720,
    "Ġsadly": 1721,
    "affle": 1722,
    "ĠBoo": 1723,
    "ĠJ": 1724,
    "Ġshiver": 1725,
    "Ġbye": 1726,
    "Ġinvites": 1727,
    "Ġfew": 1728,
    "Ġtaped": 1729,
    "Ġtrans": 1730,
    "Ġhor": 1731,
    "Ġmarched": 1732,
    "fied": 1733,
    "Ġshould": 1734,
    "Ġfits": 1735,
    "ĠDin": 1736,
    "Ġenjoying": 1737,
    "ĠCome": 1738,
    "Ġmouse": 1739,
    "ĠBear": 1740,
    "Ġmoment": 1741,
    "Ġdangers": 1742,
    "Ġdisappointment": 1743,
    "ĠPe": 1744,
    "Ġpatted": 1745,
    "Ġballs": 1746,
    "Ġdisob": 1747,
    "issa": 1748,
    "³": 1749,
    "irthday": 1750,
    "Ġsal": 1751,
    "ĠTooth": 1752,
    "Ġbutterfly": 1753,
    "Ġreplied": 1754,
    "Ġadults": 1755,
    "į": 1756,
    "Ġneither": 1757,
    "Ġrelieved": 1758,
    "Ġspun": 1759,
    "Ġpanicked": 1760,
    "Ġglo": 1761,
    "Ġtornado": 1762,
    "Joe": 1763,
    "Ġdiving": 1764,
    "Ġcap": 1765,
    "lf": 1766,
    "Tom": 1767,
    "Ġcreep": 1768,
    "Ġraindr": 1769,
    "Ġexperienced": 1770,
    "icious": 1771,
    "Ġsel": 1772,
    "ĠPuffy": 1773,
    "Ġreminding": 1774,
    "Bless": 1775,
    "ĠZipper": 1776,
    "7": 1777,
    "Ġfeet": 1778,
    "Ġfrogs": 1779,
    "v": 1780,
    "Ġactivity": 1781,
    "Ġchee": 1782,
    "Ġwatched": 1783,
    "Ġguessing": 1784,
    "Ġfollow": 1785,
    "Ġfolder": 1786,
    "Ġwow": 1787,
    "Ġgiant": 1788,
    "kele": 1789,
    "Ġtriangle": 1790,
    "Ġechoed": 1791,
    "ches": 1792,
    "Ġspells": 1793,
    "Ġmodern": 1794,
    "rigerator": 1795,
    "pl": 1796,
    "yle": 1797,
    "Ġantic": 1798,
    "que": 1799,
    "lephant": 1800,
    "Ġpapa": 1801,
    "Ġgrandma": 1802,
    "ilet": 1803,
    "Ġsubway": 1804,
    "Ġcherry": 1805,
    "riage": 1806,
    "Ġstill": 1807,
    "Ġworrying": 1808,
    "Ġfarther": 1809,
    "ĠAnn": 1810,
    "Ġhesitant": 1811,
    "ĠCo": 1812,
    "Mrs": 1813,
    "ĠBlack": 1814,
    "Ġburnt": 1815,
    "Ġgrumbled": 1816,
    "Ġwasting": 1817,
    "Ġpulling": 1818,
    "acy": 1819,
    "Ġyum": 1820,
    "Ġdamage": 1821,
    "Ġstepped": 1822,
    "Ġdri": 1823,
    "Ġring": 1824,
    "lcano": 1825,
    "Ġframe": 1826,
    "aug": 1827,
    "off": 1828,
    "Ġluxury": 1829,
    "istle": 1830,
    "ĊĊ": 1831,
    "aybe": 1832,
    "Ġtires": 1833,
    "Ġmarshmallows": 1834,
    ">": 1835,
    "Ġsheet": 1836,
    "Ġsw": 1837,
    "Ġwins": 1838,
    "Ġstage": 1839,
    "ored": 1840,
    "Ġsafer": 1841,
    "Ġastronauts": 1842,
    "Ġracer": 1843,
    "Ġprettiest": 1844,
    "Sandy": 1845,
    "Ġtransform": 1846,
    "Ġcertainly": 1847,
    "ĠMat": 1848,
    "ĠD": 1849,
    "ppy": 1850,
    "Ġsent": 1851,
    "Ġloudest": 1852,
    "Ġsurvive": 1853,
    "Ġconfl": 1854,
    "Ġyet": 1855,
    "Ġsteak": 1856,
    "Ġgifted": 1857,
    "Ġlake": 1858,
    "Ġseals": 1859,
    "ĠFlutter": 1860,
    "Ġcheck": 1861,
    "ots": 1862,
    "istory": 1863,
    "Ġwarri": 1864,
    "Ġbicycle": 1865,
    "Ġrewarding": 1866,
    "ashing": 1867,
    "ĠRalph": 1868,
    "Ġlost": 1869,
    "ĠVelvet": 1870,
    "Ġrespon": 1871,
    "Ġpushing": 1872,
    "Ġearned": 1873,
    "Ġheel": 1874,
    "Ġinstruments": 1875,
    "me": 1876,
    "Ġrug": 1877,
    "Ġcherries": 1878,
    "Not": 1879,
    "Ġcrumb": 1880,
    "Ġattack": 1881,
    "Ġsimply": 1882,
    "ĠSundays": 1883,
    "lling": 1884,
    "?\".": 1885,
    "Tuna": 1886,
    "ĠNear": 1887,
    "Ġclose": 1888,
    "Ġmot": 1889,
    "Ġacorn": 1890,
    "Ġsqueeze": 1891,
    "ĠInch": 1892,
    "ĠWould": 1893,
    "Ġbroccoli": 1894,
    "Ġprun": 1895,
    "ĠLucky": 1896,
    "Ġsalt": 1897,
    "nded": 1898,
    "Ġbarber": 1899,
    "Ġnapped": 1900,
    "Ġpromised": 1901,
    "hile": 1902,
    "Ġsniff": 1903,
    "Ġfound": 1904,
    "Ġsaus": 1905,
    "ĠRub": 1906,
    "Ġteams": 1907,
    "Ġwatermelon": 1908,
    "Ġsirens": 1909,
    "Ġteeth": 1910,
    "hic": 1911,
    "Rex": 1912,
    "Ġdolphins": 1913,
    "Shh": 1914,
    "Ġthieves": 1915,
    "Ġbaked": 1916,
    "Ġbigger": 1917,
    "ĠBinky": 1918,
    "Ġteam": 1919,
    "Ġfrosting": 1920,
    "Ġwobble": 1921,
    "Ġmotorcycles": 1922,
    "Ġpassenger": 1923,
    "Ġinstruct": 1924,
    "Ġexc": 1925,
    "Ġiron": 1926,
    "Ġvi": 1927,
    "Ġtasks": 1928,
    "C": 1929,
    "icy": 1930,
    "Ġgroup": 1931,
    "brush": 1932,
    "Ġhelps": 1933,
    "ĠCarla": 1934,
    "Ġpulled": 1935,
    "usia": 1936,
    "Ġheart": 1937,
    "Ġfetched": 1938,
    "ers": 1939,
    "Ġcosts": 1940,
    "Ġtease": 1941,
    "Ġtheirs": 1942,
    "Ġsmooth": 1943,
    "Ġduring": 1944,
    "Ġdelivery": 1945,
    "Yes": 1946,
    "Ğ": 1947,
    "Ġdresser": 1948,
    "Ġunder": 1949,
    "Ġson": 1950,
    "fted": 1951,
    "Ġrotting": 1952,
    "Ġshade": 1953,
    "Ġbuttons": 1954,
    "Mr": 1955,
    "Ġshouting": 1956,
    "is": 1957,
    "Ġsplas": 1958,
    "elt": 1959,
    "lle": 1960,
    "Ġhas": 1961,
    "Ĕ": 1962,
    "Ġspeak": 1963,
    "hee": 1964,
    "Ġgoal": 1965,
    "Ġmarried": 1966,
    "ĠFarmer": 1967,
    "Ġbrushing": 1968,
    "reeze": 1969,
    "Ġty": 1970,
    "Ġtreehouse": 1971,
    "Ġunpack": 1972,
    "Ġsweet": 1973,
    "ĠBibi": 1974,
    "iced": 1975,
    "Lia": 1976,
    "ĠCh": 1977,
    "Ġroars": 1978,
    "gy": 1979,
    "Ġmel": 1980,
    "Ġundone": 1981,
    "umble": 1982,
    "Ġsolve": 1983,
    "Ġtri": 1984,
    "Ġbumps": 1985,
    "Ġpiece": 1986,
    "Ġdiary": 1987,
    "¢": 1988,
    "Ġceiling": 1989,
    "Ġcompassionate": 1990,
    "ĠTh": 1991,
    "!'.": 1992,
    "Ġown": 1993,
    "ĠWilly": 1994,
    "Ġexcite": 1995,
    "Bella": 1996,
    "Ġjewels": 1997,
    "Ġocc": 1998,
    "ĠEm": 1999,
    "raged": 2000,
    "Ġtoug": 2001,
    "ucky": 2002,
    "lied": 2003,
    "Ġtasted": 2004,
    "Ġsupply": 2005,
    "?'": 2006,
    "Ġstomp": 2007,
    "Ġletters": 2008,
    "els": 2009,
    "Ġghosts": 2010,
    "Ġconf": 2011,
    "Ġsteady": 2012,
    "Ġoppos": 2013,
    "Ġspoiled": 2014,
    "Ġbunny": 2015,
    "Ġwhip": 2016,
    "ĠChess": 2017,
    "Ġspecial": 2018,
    "Ġat": 2019,
    "Ġgaze": 2020,
    "ening": 2021,
    "Ġcan": 2022,
    "Ġblamed": 2023,
    "Ġhugging": 2024,
    "Make": 2025,
    "ĠDid": 2026,
    "Ġcaterpill": 2027,
    "Ġvanilla": 2028,
    "ĠSomeone": 2029,
    "Ġproudly": 2030,
    "May": 2031,
    "Ġapolog": 2032,
    "Ġhighest": 2033,
    "Ġsoldiers": 2034,
    "Ġfash": 2035,
    "Ġtonight": 2036,
    "rest": 2037,
    "Ġtrotted": 2038,
    "Ġagre": 2039,
    "dom": 2040,
    "Ġoutfit": 2041,
    "Ġhurt": 2042,
    "Dr": 2043,
    "Ġthe": 2044,
    "Ġhumble": 2045,
    "Ġsnat": 2046,
    "ĠJen": 2047,
    "Ġrespected": 2048,
    "Grandpa": 2049,
    "ĠDina": 2050,
    "Ġfurniture": 2051,
    "ator": 2052,
    "ce": 2053,
    "Ġhat": 2054,
    "Ġprepared": 2055,
    "Ġpuddles": 2056,
    "Ġsweep": 2057,
    "arlings": 2058,
    "Ġrocket": 2059,
    "Are": 2060,
    "alm": 2061,
    "ffe": 2062,
    "Ġcleaner": 2063,
    "Our": 2064,
    "umpy": 2065,
    "Ġev": 2066,
    "ĠRun": 2067,
    "Ġsmiley": 2068,
    "Ġunknown": 2069,
    "Ġwritten": 2070,
    "Ġfly": 2071,
    "Ġparents": 2072,
    "Ġsl": 2073,
    "pted": 2074,
    "Ġknew": 2075,
    "oved": 2076,
    "uctantly": 2077,
    "thank": 2078,
    "ired": 2079,
    "Ġmodel": 2080,
    "Ġsprang": 2081,
    "Ġknocking": 2082,
    "Ġpant": 2083,
    "Ġwears": 2084,
    "anes": 2085,
    "Ġpartic": 2086,
    "Ġlaught": 2087,
    "Ġview": 2088,
    "ċ": 2089,
    "Ġheal": 2090,
    "ched": 2091,
    "itted": 2092,
    "Ġfinishing": 2093,
    "ĠSn": 2094,
    "Ġpe": 2095,
    "Ġdesert": 2096,
    "Ġadded": 2097,
    "Ġtown": 2098,
    "Ġtag": 2099,
    "Ġhides": 2100,
    "Ġcopy": 2101,
    "Ġjoins": 2102,
    "live": 2103,
    "ĠDeal": 2104,
    "ĠBonnie": 2105,
    "Papa": 2106,
    "Ġfright": 2107,
    "edic": 2108,
    "Ġdeser": 2109,
    "arky": 2110,
    "Ġlarge": 2111,
    "prints": 2112,
    "dest": 2113,
    "Ġsnowballs": 2114,
    "Ġmoral": 2115,
    "Ġwarmed": 2116,
    "Ġchance": 2117,
    "Ġtrail": 2118,
    "Kiki": 2119,
    "ĠMartha": 2120,
    "Ġcrept": 2121,
    "ntil": 2122,
    "igi": 2123,
    "Ġspat": 2124,
    "Ġmeadow": 2125,
    "Ġrefrigerator": 2126,
    "Ġscarecrow": 2127,
    "Ġmaps": 2128,
    "flowers": 2129,
    "itely": 2130,
    "Ġtwenty": 2131,
    "Ġsecret": 2132,
    "ink": 2133,
    "Ġrel": 2134,
    "Ġproper": 2135,
    "Ġcalmer": 2136,
    "Give": 2137,
    "ĠJoe": 2138,
    "Ġdestroy": 2139,
    "Ġham": 2140,
    "Ġsacks": 2141,
    "Ġmuster": 2142,
    "ries": 2143,
    "Ġreun": 2144,
    "Please": 2145,
    "orn": 2146,
    "ĠRobby": 2147,
    "Ġstepping": 2148,
    "ĠJune": 2149,
    "unt": 2150,
    "Ġstra": 2151,
    "omobile": 2152,
    "Ġnotes": 2153,
    "ĠSir": 2154,
    "Ġmoon": 2155,
    "iling": 2156,
    "ĠLion": 2157,
    "ĠSpot": 2158,
    "Ġfrustrated": 2159,
    "Ġplanned": 2160,
    "Ġsniffled": 2161,
    "Ġwants": 2162,
    "Ġkindness": 2163,
    "Ġinf": 2164,
    "Ġeagerly": 2165,
    "Ġseagulls": 2166,
    "freeze": 2167,
    "Ġmention": 2168,
    "if": 2169,
    "Ġsitting": 2170,
    "ears": 2171,
    "pecting": 2172,
    "Ġanything": 2173,
    "Ġdemand": 2174,
    "Ġleash": 2175,
    "Ġbec": 2176,
    "Ġdared": 2177,
    "ani": 2178,
    "unnel": 2179,
    "venir": 2180,
    "Ġbeautiful": 2181,
    "web": 2182,
    "Ġrips": 2183,
    "Ġselling": 2184,
    "ancy": 2185,
    "Ġproperty": 2186,
    "Ġmetal": 2187,
    "Ġjumper": 2188,
    "Ł": 2189,
    "Ġsurv": 2190,
    "Ġmelting": 2191,
    "Ġlunchtime": 2192,
    "Ġboys": 2193,
    "la": 2194,
    "É": 2195,
    "Ġposes": 2196,
    "Ġsco": 2197,
    "Ġargument": 2198,
    "ver": 2199,
    "Ġstorm": 2200,
    "Should": 2201,
    "ĠYes": 2202,
    "Ġnearest": 2203,
    "Ġstrawberry": 2204,
    "Ġtrucks": 2205,
    "Ĭ": 2206,
    "te": 2207,
    "Ġpresents": 2208,
    "day": 2209,
    "Ġhun": 2210,
    "time": 2211,
    "Ġasleep": 2212,
    "Ġsolved": 2213,
    "Ġbeing": 2214,
    "mie": 2215,
    "ody": 2216,
    "ul": 2217,
    "Ġzigzags": 2218,
    "Ġple": 2219,
    "Ġwrapped": 2220,
    "Ġshelf": 2221,
    "Ġgives": 2222,
    "Ġstro": 2223,
    "ĠAll": 2224,
    "Ġsmells": 2225,
    "Qu": 2226,
    "Ġ\"": 2227,
    "ĠJan": 2228,
    "Arrr": 2229,
    "Ġdefin": 2230,
    "ĠWh": 2231,
    "Ġtraveled": 2232,
    "âĢĿ,": 2233,
    "noon": 2234,
    "ipe": 2235,
    "Ġmess": 2236,
    "Ġchew": 2237,
    "Ġgrandparents": 2238,
    "Ġvolcano": 2239,
    "Ġbest": 2240,
    "Ġthumb": 2241,
    "Ġmeowed": 2242,
    "ĠLaura": 2243,
    "Ġdis": 2244,
    "ĠMillie": 2245,
    "Ġgrinned": 2246,
    "Ġbrother": 2247,
    "P": 2248,
    "Ġmirr": 2249,
    "Ġdisgust": 2250,
    "Ġjet": 2251,
    "Ġends": 2252,
    "Ġnightmares": 2253,
    "Ġhol": 2254,
    "Kitty": 2255,
    "Ġmorning": 2256,
    "Ġnothing": 2257,
    "Ġmissed": 2258,
    "Ġdecorated": 2259,
    "Ġdesperate": 2260,
    "Ġjacket": 2261,
    "Ġeas": 2262,
    "Ġpeas": 2263,
    "Ġcub": 2264,
    "ĊĠ": 2265,
    "Ġsees": 2266,
    "Ġbeauty": 2267,
    "Unfortunately": 2268,
    "Ġketchup": 2269,
    "Ġoffering": 2270,
    "Ġswap": 2271,
    "avi": 2272,
    "ĠU": 2273,
    "Ġthings": 2274,
    "Ġeffort": 2275,
    "Ġhappen": 2276,
    "I": 2277,
    "Ġais": 2278,
    "Ġshield": 2279,
    "Ġmicrowave": 2280,
    "erg": 2281,
    "Ġgrowl": 2282,
    "uppy": 2283,
    "Ġinvisible": 2284,
    "Ġroaring": 2285,
    "Ġcrowded": 2286,
    "Ġuntangle": 2287,
    "¾": 2288,
    "Ġrot": 2289,
    "Ġcar": 2290,
    "Ġopportunity": 2291,
    "Ġchar": 2292,
    "ives": 2293,
    "rup": 2294,
    "Ġconvers": 2295,
    "Ġfr": 2296,
    "Ġingred": 2297,
    "opter": 2298,
    "ļ": 2299,
    "years": 2300,
    "Ġtummy": 2301,
    "Ġexamining": 2302,
    "ĠMoo": 2303,
    "¯": 2304,
    "Ġheels": 2305,
    "Bounce": 2306,
    "Ġesc": 2307,
    "meow": 2308,
    "kend": 2309,
    "Ġropes": 2310,
    "akes": 2311,
    "Ġdeterm": 2312,
    "Ġsnugg": 2313,
    "ĠLizzie": 2314,
    "Ġcom": 2315,
    "Ġseems": 2316,
    "Ġlied": 2317,
    "Ġfreed": 2318,
    "fused": 2319,
    "ered": 2320,
    "Ĺ": 2321,
    "Under": 2322,
    "Ġluxu": 2323,
    "Ġslim": 2324,
    "Ġmaster": 2325,
    "led": 2326,
    "[": 2327,
    "ĠEarth": 2328,
    "Ġcrystal": 2329,
    "orter": 2330,
    "Ġgrateful": 2331,
    "ifully": 2332,
    "lc": 2333,
    "Ġflash": 2334,
    "Ġdesper": 2335,
    "Pepper": 2336,
    "Ġaprons": 2337,
    "Ġknit": 2338,
    "Ġswamp": 2339,
    "Ġgather": 2340,
    "ĠSl": 2341,
    "ĠSince": 2342,
    "Ġwrites": 2343,
    "Ġbody": 2344,
    "ĠThese": 2345,
    "Ġforgave": 2346,
    "Ġfootprints": 2347,
    "Ġplay": 2348,
    "ú": 2349,
    "ĠShelly": 2350,
    "Ġrin": 2351,
    "Ġpasses": 2352,
    "ĠTimmy": 2353,
    "mb": 2354,
    "ĠSilver": 2355,
    "ats": 2356,
    "ĠClean": 2357,
    "Ġlic": 2358,
    "ĠDolly": 2359,
    "ove": 2360,
    "Ġsupposed": 2361,
    "Ġspot": 2362,
    "ĠKitty": 2363,
    "Ġpaint": 2364,
    "Ġlaces": 2365,
    "Ġgl": 2366,
    "Ġpower": 2367,
    "Zigzag": 2368,
    "anger": 2369,
    "Ġinstead": 2370,
    "Daisy": 2371,
    "Ġdogs": 2372,
    "Ġpleas": 2373,
    "Ġbanged": 2374,
    "Ġunderground": 2375,
    "ď": 2376,
    "Ġcheat": 2377,
    "Ġspilling": 2378,
    "Ġkites": 2379,
    "Ġgaz": 2380,
    "ilda": 2381,
    "Ġwarmly": 2382,
    "Ġconcerned": 2383,
    "Ġharbor": 2384,
    "Ġlab": 2385,
    "ustr": 2386,
    "pite": 2387,
    "Ġarrows": 2388,
    "Ġstitches": 2389,
    "Ġrumbling": 2390,
    "Mittens": 2391,
    "ĠTessa": 2392,
    "ĠFlap": 2393,
    "Ġenergy": 2394,
    "ĠSleepy": 2395,
    "ĠEd": 2396,
    "Ġheaded": 2397,
    "Ġpandas": 2398,
    "Ġdare": 2399,
    "0": 2400,
    "Ġsimple": 2401,
    "Ġlaughter": 2402,
    "í": 2403,
    "Ġmummy": 2404,
    "Ġsub": 2405,
    "Ġknow": 2406,
    "Ġdances": 2407,
    "rier": 2408,
    "Ġfireplace": 2409,
    "ĠB": 2410,
    "Ġpunished": 2411,
    "ĠHeli": 2412,
    "uffy": 2413,
    "Ġbrothers": 2414,
    "Ġpacked": 2415,
    "Ġrained": 2416,
    "atient": 2417,
    "ĠSaturday": 2418,
    "ump": 2419,
    "Ġtid": 2420,
    "Ġlove": 2421,
    "aff": 2422,
    "Ġgasps": 2423,
    "ĠSmoke": 2424,
    "Ġfinished": 2425,
    "Ġcapes": 2426,
    "Max": 2427,
    "Lizzy": 2428,
    "Ġdiscouraged": 2429,
    "Ġpaintbrush": 2430,
    "ĠBloom": 2431,
    "Ġways": 2432,
    "!âĢĿ": 2433,
    "Ġrins": 2434,
    "bert": 2435,
    "Ġlittle": 2436,
    "Ġrepe": 2437,
    "Ġtunnel": 2438,
    "Ġacted": 2439,
    "Ġseveral": 2440,
    "ĠFlopsy": 2441,
    "Ġdonkey": 2442,
    "ĠFido": 2443,
    "Ġthud": 2444,
    "At": 2445,
    "ĠCircle": 2446,
    "Ġactions": 2447,
    "Ġsometimes": 2448,
    "ĠThis": 2449,
    "Ġstreet": 2450,
    "Ġcamping": 2451,
    "ĝ": 2452,
    "Ġbanan": 2453,
    "ped": 2454,
    "ĠWhich": 2455,
    "Ġscoop": 2456,
    "Ġhoo": 2457,
    "Somet": 2458,
    "Ġrode": 2459,
    "Ġsong": 2460,
    "Finny": 2461,
    "less": 2462,
    "ept": 2463,
    "Ġannounced": 2464,
    "Ġwooden": 2465,
    "Ġtossing": 2466,
    "Dino": 2467,
    "Ġbush": 2468,
    "Guess": 2469,
    "Ġsomething": 2470,
    "Henry": 2471,
    "Ġbe": 2472,
    "Ġmicroscope": 2473,
    "mine": 2474,
    "hog": 2475,
    "ĠHappy": 2476,
    "Ġsmelly": 2477,
    "Ġsnowflake": 2478,
    "ĠListen": 2479,
    "Ġpraised": 2480,
    "ĠPenelope": 2481,
    "Ġglittered": 2482,
    "ĠSally": 2483,
    "Ġanticipation": 2484,
    "Ġdec": 2485,
    "Ġstructure": 2486,
    "Ġgreeted": 2487,
    "Ġattract": 2488,
    "Ġcouple": 2489,
    "ucture": 2490,
    "ĠRosa": 2491,
    "elcome": 2492,
    "Ġnine": 2493,
    "Ġlearn": 2494,
    "Ġamazed": 2495,
    "Ġplanting": 2496,
    "Ġwonders": 2497,
    "Ġseemed": 2498,
    "rec": 2499,
    "Ġfrustration": 2500,
    "Ġcave": 2501,
    "Ġrepeats": 2502,
    "Ġcrow": 2503,
    "Ý": 2504,
    "Ġopinion": 2505,
    "Ġcupcake": 2506,
    "Ġforeshadow": 2507,
    "Ġmen": 2508,
    "xible": 2509,
    "Ġrecorder": 2510,
    "osaur": 2511,
    "Mon": 2512,
    "Ġpicked": 2513,
    "bow": 2514,
    "Ġsell": 2515,
    "Ġzoom": 2516,
    "ĠOff": 2517,
    "Ġsandwiches": 2518,
    "Ġspider": 2519,
    "ts": 2520,
    "Ġsaving": 2521,
    "ould": 2522,
    "Ġthread": 2523,
    "Ġcocoon": 2524,
    "Ġadventures": 2525,
    "Ġkeep": 2526,
    "Ġnames": 2527,
    "Ġpictures": 2528,
    "Ġcaulif": 2529,
    "Ġquiet": 2530,
    "¦": 2531,
    "Ġriding": 2532,
    "ĠFor": 2533,
    "Ġsure": 2534,
    "Ġpossess": 2535,
    "Ġsill": 2536,
    "Ġfailed": 2537,
    "Ġsoot": 2538,
    "Ġce": 2539,
    "ĠRoar": 2540,
    "Ġchallenges": 2541,
    "Ġslices": 2542,
    "Ġleaking": 2543,
    "Ġcontrol": 2544,
    "Ġled": 2545,
    "Ġslammed": 2546,
    "Someone": 2547,
    "James": 2548,
    "Ġshh": 2549,
    "Ġmovies": 2550,
    "Ġbouquet": 2551,
    "Ġrainbow": 2552,
    "Ġgain": 2553,
    "Ġarrest": 2554,
    "Ġflight": 2555,
    "Ġgrant": 2556,
    "Grace": 2557,
    "Ġraising": 2558,
    "Ġdrinks": 2559,
    "or": 2560,
    "Ġsticky": 2561,
    "Ġru": 2562,
    "eese": 2563,
    "Ġpaints": 2564,
    "Ġsooner": 2565,
    "Ġthrows": 2566,
    "irm": 2567,
    "¶": 2568,
    "Ġherself": 2569,
    "Ġmommy": 2570,
    "ank": 2571,
    "º": 2572,
    "Me": 2573,
    "Ġspots": 2574,
    "Ġminded": 2575,
    "Ġshooed": 2576,
    "Ġteaspoon": 2577,
    "Ġdarker": 2578,
    "Ġrout": 2579,
    "Ġpowerful": 2580,
    "Ġanywhere": 2581,
    "chor": 2582,
    "Ġmonkeys": 2583,
    "Ġrich": 2584,
    "Ġwinter": 2585,
    "ĠFle": 2586,
    "Ġmelon": 2587,
    "Ġcans": 2588,
    "Ted": 2589,
    "Ġpile": 2590,
    "Ġthrew": 2591,
    "Ġdrink": 2592,
    "ĠCut": 2593,
    "Ġsweaty": 2594,
    "pack": 2595,
    "ĠKing": 2596,
    "Ġbirdc": 2597,
    "oscope": 2598,
    "Ġlocked": 2599,
    "Ġleaned": 2600,
    "Ġgroan": 2601,
    "Ġcustomer": 2602,
    "Ġdecide": 2603,
    "ĉ": 2604,
    "Ġpalm": 2605,
    "ĠOxygen": 2606,
    "Ġcleared": 2607,
    "Ġinter": 2608,
    "That": 2609,
    "Ġpastel": 2610,
    "Ġunlo": 2611,
    "Ġfooled": 2612,
    "Ġstretch": 2613,
    "otter": 2614,
    "Ġpastry": 2615,
    "Friends": 2616,
    "Thomas": 2617,
    "Ġstrips": 2618,
    "aze": 2619,
    "anced": 2620,
    "Ġprize": 2621,
    "Ġseriously": 2622,
    "David": 2623,
    "Ġeng": 2624,
    "Ġmeet": 2625,
    "Ġdoor": 2626,
    "Ī": 2627,
    "ĠJacob": 2628,
    "come": 2629,
    "Ġacts": 2630,
    "Ġexclaimed": 2631,
    "Ġmotor": 2632,
    "Ġg": 2633,
    "ĠWhiskers": 2634,
    "Chirpy": 2635,
    "Ġzookeepers": 2636,
    "Ġfreez": 2637,
    "Ġgoodnight": 2638,
    "Ġpebbles": 2639,
    "Ġarms": 2640,
    "Ġbaa": 2641,
    "Ġhorns": 2642,
    "ĠMoppy": 2643,
    "Ġstamps": 2644,
    "Ġnewspaper": 2645,
    "Ġspoons": 2646,
    "Ġba": 2647,
    "Ġoffer": 2648,
    "Ġsuc": 2649,
    "What": 2650,
    "Ġwhistle": 2651,
    "lph": 2652,
    "ĠAg": 2653,
    "Ġsings": 2654,
    "ĠStella": 2655,
    "Ġsort": 2656,
    "val": 2657,
    "Ġappreciated": 2658,
    "Ġflour": 2659,
    "ĠCathy": 2660,
    "Ġice": 2661,
    "Ġenthusia": 2662,
    "Ġpra": 2663,
    "Ġbrave": 2664,
    "lo": 2665,
    "Ahoy": 2666,
    "dded": 2667,
    "Ġornaments": 2668,
    "Ġguess": 2669,
    "Ġthan": 2670,
    "Their": 2671,
    "ă": 2672,
    "Ġnext": 2673,
    "Ġargue": 2674,
    "Ġattic": 2675,
    "Ġshovel": 2676,
    "Ġheroes": 2677,
    "Ġlangu": 2678,
    "Ġsituations": 2679,
    "Ġfall": 2680,
    "opes": 2681,
    "Ġmarking": 2682,
    "Ġswo": 2683,
    "Mmm": 2684,
    "storm": 2685,
    "oph": 2686,
    "Ġcolours": 2687,
    "irac": 2688,
    "arge": 2689,
    "Ġclerk": 2690,
    "ites": 2691,
    "ently": 2692,
    "Ġshared": 2693,
    "Buddy": 2694,
    "Ġhelped": 2695,
    "Ġgrandparent": 2696,
    "uggles": 2697,
    "Ġdough": 2698,
    "Ġmatey": 2699,
    "ood": 2700,
    "Ġcent": 2701,
    "ugging": 2702,
    "Ġquieter": 2703,
    "Ġsparks": 2704,
    "Ġreward": 2705,
    "Days": 2706,
    "Dolly": 2707,
    "Ġnibbled": 2708,
    "Ġmailing": 2709,
    "Ġalone": 2710,
    "ĠPaul": 2711,
    "ouched": 2712,
    "Ġswollen": 2713,
    "Ġcreamy": 2714,
    "Ġsnar": 2715,
    "Ġfactory": 2716,
    "ĠSc": 2717,
    "Ġplans": 2718,
    "Ġproviding": 2719,
    "Ġcartoon": 2720,
    "Ġphotos": 2721,
    "E": 2722,
    "sw": 2723,
    "Ġvillagers": 2724,
    "Ġfins": 2725,
    "Ġfuture": 2726,
    "Ġbar": 2727,
    "ragon": 2728,
    "Ġwonderful": 2729,
    "Ġmeow": 2730,
    "Ġcountries": 2731,
    "Ġslimy": 2732,
    "Ă": 2733,
    "ĠAr": 2734,
    "Ġpushes": 2735,
    "lled": 2736,
    "Ġspotted": 2737,
    "Ġscowl": 2738,
    "Ġraincoat": 2739,
    "Ġcloset": 2740,
    "step": 2741,
    "Ġlines": 2742,
    "ĠWo": 2743,
    "Ġlift": 2744,
    "Ġswooped": 2745,
    "looking": 2746,
    "Ġdisagreement": 2747,
    "Ġgreet": 2748,
    "Snowy": 2749,
    "Ġgratitude": 2750,
    "Ġblocks": 2751,
    "Ġsneezed": 2752,
    "Ġscooped": 2753,
    "Ġclub": 2754,
    "ĠHo": 2755,
    "ĠMum": 2756,
    "Ġshines": 2757,
    "hood": 2758,
    "Ġkitten": 2759,
    "Ġone": 2760,
    "Zero": 2761,
    "Ġamaz": 2762,
    "ated": 2763,
    "Ġrock": 2764,
    "ampoo": 2765,
    "Ġchewing": 2766,
    "Ġmad": 2767,
    "Mark": 2768,
    "Ġhurry": 2769,
    "ave": 2770,
    "î": 2771,
    "Ġtele": 2772,
    "ouse": 2773,
    "Ġbored": 2774,
    "Ġcoloured": 2775,
    "Ġyelped": 2776,
    "Ġspray": 2777,
    "udge": 2778,
    "Ġglass": 2779,
    "Ġornament": 2780,
    "Ġanimal": 2781,
    "Moral": 2782,
    "Remember": 2783,
    "Ġicy": 2784,
    "Ġhonked": 2785,
    "Ġpopcorn": 2786,
    "arac": 2787,
    "and": 2788,
    "Ê": 2789,
    "ĠRita": 2790,
    "ita": 2791,
    "ain": 2792,
    "Ġspl": 2793,
    "OK": 2794,
    "cakes": 2795,
    "Ġperforming": 2796,
    "idence": 2797,
    "Ġspid": 2798,
    "Ġpad": 2799,
    "Brrr": 2800,
    "Ġcalend": 2801,
    "nament": 2802,
    "Ġwhimp": 2803,
    "Ġmuffins": 2804,
    "Because": 2805,
    "ĠLater": 2806,
    "ssy": 2807,
    "Ġbuckets": 2808,
    "Ġinc": 2809,
    "Ġsecrets": 2810,
    "atur": 2811,
    "irth": 2812,
    "Ġvel": 2813,
    "Ġscurrying": 2814,
    "Ġtrust": 2815,
    "Ġimagine": 2816,
    "Ġmosquito": 2817,
    "ĠQ": 2818,
    "Ġresult": 2819,
    "ĠInside": 2820,
    "Ġcact": 2821,
    "?\"": 2822,
    "Ġhelping": 2823,
    "ely": 2824,
    "Ġseconds": 2825,
    "Ġwelc": 2826,
    "Ġneck": 2827,
    "Ġstronger": 2828,
    "eer": 2829,
    "Ġolive": 2830,
    "Ġquick": 2831,
    "ingo": 2832,
    "Ġcheeks": 2833,
    "imp": 2834,
    "i": 2835,
    "Don": 2836,
    "ĠLe": 2837,
    "utter": 2838,
    "Ġpet": 2839,
    "Ġchores": 2840,
    "Ġkne": 2841,
    "Ġdarling": 2842,
    "Ġslapped": 2843,
    "Ġturtles": 2844,
    "Ġcotton": 2845,
    "itter": 2846,
    "Who": 2847,
    "Ġvegetable": 2848,
    "ll": 2849,
    "Ġturtle": 2850,
    "Ġcoloring": 2851,
    "ilities": 2852,
    "jamas": 2853,
    "Ġtrophy": 2854,
    "Ġswoop": 2855,
    "Ġskull": 2856,
    "Ġcenter": 2857,
    "Ġdrip": 2858,
    "Ġfoggy": 2859,
    "ushing": 2860,
    "eterinarian": 2861,
    "Ġjump": 2862,
    "Ġexpl": 2863,
    "Co": 2864,
    "ł": 2865,
    "Ġplanet": 2866,
    "Ġrocking": 2867,
    "Ġwiped": 2868,
    "Ġper": 2869,
    "ĠUncle": 2870,
    "Tw": 2871,
    "Ġlicked": 2872,
    "Ġreason": 2873,
    "va": 2874,
    "Ġcommon": 2875,
    "Ġrag": 2876,
    "Ġwindow": 2877,
    "Ġaud": 2878,
    "Ġlaughing": 2879,
    "Ġlike": 2880,
    "ed": 2881,
    "ittens": 2882,
    "Ġz": 2883,
    "ĠZigzag": 2884,
    "ough": 2885,
    "ĠNothing": 2886,
    "Ġmaterials": 2887,
    "Ġeagle": 2888,
    "aid": 2889,
    "Ġtipped": 2890,
    "Ġhood": 2891,
    "ĠCD": 2892,
    "Here": 2893,
    "Ġcrying": 2894,
    "aven": 2895,
    "Ï": 2896,
    "Ġsharks": 2897,
    "Ġcrocodiles": 2898,
    "Ġmat": 2899,
    "Ġmedicine": 2900,
    "leep": 2901,
    "Ġcourse": 2902,
    "Ġspeeding": 2903,
    "ied": 2904,
    "Ġworries": 2905,
    "Ġswings": 2906,
    "Ġkneeled": 2907,
    "ly": 2908,
    "Ġmar": 2909,
    "ĠSqueaky": 2910,
    "Ġtoast": 2911,
    "ayla": 2912,
    "Ġbecome": 2913,
    "ĠMommy": 2914,
    "Mouse": 2915,
    "Ġname": 2916,
    "ĠFrank": 2917,
    "Ġenvelope": 2918,
    "Ġefforts": 2919,
    "Ġtwisted": 2920,
    "ĠThomas": 2921,
    "Ġsailors": 2922,
    "Ġfinally": 2923,
    "anut": 2924,
    "ĠAre": 2925,
    "Ġtidy": 2926,
    "ĠSarah": 2927,
    "Ġbreeze": 2928,
    "Ġrobots": 2929,
    "Ġpalms": 2930,
    "Ġpin": 2931,
    "Ġnorm": 2932,
    "Ġvelvet": 2933,
    "Ġshooting": 2934,
    "Ġrule": 2935,
    "Ġoutfits": 2936,
    "am": 2937,
    "Ġlarger": 2938,
    "Ġdecision": 2939,
    "Ġinclu": 2940,
    "itches": 2941,
    "Ġbread": 2942,
    "Ġmore": 2943,
    "Ġthin": 2944,
    "Ġdemanded": 2945,
    "ased": 2946,
    "orsie": 2947,
    "Ġdestroyed": 2948,
    "§": 2949,
    "ded": 2950,
    "Ġmagnifying": 2951,
    "Toys": 2952,
    "Ġforce": 2953,
    "Ġenvious": 2954,
    "Ġpebble": 2955,
    "Ġparade": 2956,
    "igger": 2957,
    "awn": 2958,
    "Ġswitched": 2959,
    "Ġexperiences": 2960,
    "Ġdrawn": 2961,
    "Ġgoo": 2962,
    "Ġim": 2963,
    "ğ": 2964,
    "Ġknobs": 2965,
    "Ġcray": 2966,
    "Ġonce": 2967,
    "Ġeveryday": 2968,
    "its": 2969,
    "Ġscratches": 2970,
    "ggles": 2971,
    "Ġsan": 2972,
    "Ġfashion": 2973,
    "Boo": 2974,
    "Ġsewed": 2975,
    "Ġtom": 2976,
    "Ġcomplet": 2977,
    "Ġunite": 2978,
    "ĠMichael": 2979,
    "ē": 2980,
    "ror": 2981,
    "Ġprint": 2982,
    "adow": 2983,
    "Ġcollect": 2984,
    "se": 2985,
    "Ġmountains": 2986,
    "Ġshocked": 2987,
    "Ġpull": 2988,
    "Ġcuc": 2989,
    "Ġbought": 2990,
    "Ġlipstick": 2991,
    "Ġhide": 2992,
    "Ġgest": 2993,
    "Ġsends": 2994,
    "Ġshrimp": 2995,
    "arrow": 2996,
    "Ġkid": 2997,
    "Ġhotter": 2998,
    "Ġplayful": 2999,
    "abra": 3000,
    "Ġpuck": 3001,
    "Ġmy": 3002,
    "berry": 3003,
    "Ġsteep": 3004,
    "Ġage": 3005,
    "Ġhappier": 3006,
    "ĠGiant": 3007,
    "Ġhands": 3008,
    "Ġaccidentally": 3009,
    "you": 3010,
    "Ġplaced": 3011,
    "inny": 3012,
    "ĠPaws": 3013,
    "Ġthief": 3014,
    "ĠEva": 3015,
    "Ġwagon": 3016,
    "Ġhop": 3017,
    "Ġjo": 3018,
    "Play": 3019,
    "Ġpalace": 3020,
    "Ralph": 3021,
    "ĠHold": 3022,
    "ĠWise": 3023,
    "Ġfans": 3024,
    "Ġbare": 3025,
    "Ġhedge": 3026,
    "Ġguys": 3027,
    "found": 3028,
    "Ġbottom": 3029,
    "Ġgener": 3030,
    "ebra": 3031,
    "Ġtexture": 3032,
    "Ġsparkle": 3033,
    "vering": 3034,
    "ost": 3035,
    "ĠGrandpa": 3036,
    "Ġcare": 3037,
    "Ġdoctor": 3038,
    "ĠSquirrel": 3039,
    "Ġcharacters": 3040,
    "Ġwinner": 3041,
    "Ġsmoke": 3042,
    "Ġexplained": 3043,
    "iers": 3044,
    "Ġjelly": 3045,
    "Ġawesome": 3046,
    "ilt": 3047,
    "Ġtortoise": 3048,
    "Ġsplash": 3049,
    "Ġinteresting": 3050,
    "Ġspeaker": 3051,
    "Ġunhappy": 3052,
    "Ġbefore": 3053,
    "Ġplant": 3054,
    "Ġexams": 3055,
    "Ġtraffic": 3056,
    "Ġstories": 3057,
    "Ġdads": 3058,
    "Deal": 3059,
    "Ġmaterial": 3060,
    "ĠStop": 3061,
    "Ġcloths": 3062,
    "lla": 3063,
    "Ġcourt": 3064,
    "Ġappreci": 3065,
    "Ġwrap": 3066,
    "Ġyield": 3067,
    "Jamie": 3068,
    "Ġm": 3069,
    "Ġsurprised": 3070,
    "Ġfork": 3071,
    "Ġpretend": 3072,
    "oc": 3073,
    "Ġpupp": 3074,
    "o": 3075,
    "ĠTeddy": 3076,
    "ÿ": 3077,
    "os": 3078,
    "well": 3079,
    "Ġunderneath": 3080,
    "ĠFiona": 3081,
    "Ġhelper": 3082,
    "Ġopposite": 3083,
    "Ġlanding": 3084,
    "Ġsir": 3085,
    "Ġswallowed": 3086,
    "Ġadmired": 3087,
    "Ġmarvel": 3088,
    "Ġawe": 3089,
    "Ġcont": 3090,
    "pes": 3091,
    "dog": 3092,
    "mbers": 3093,
    "Ġimpro": 3094,
    "amed": 3095,
    "Ġto": 3096,
    "Ġas": 3097,
    "Â": 3098,
    "ĠZoe": 3099,
    "Ġsuns": 3100,
    "Ġscolds": 3101,
    "Ġcooks": 3102,
    "ouraged": 3103,
    "ĠMama": 3104,
    "Ġlar": 3105,
    "Ġscratched": 3106,
    "Ġpinch": 3107,
    "Ġwink": 3108,
    "Ġhidden": 3109,
    "Ġinspired": 3110,
    "po": 3111,
    "Ew": 3112,
    "ĠBecause": 3113,
    "Ġplain": 3114,
    "house": 3115,
    "Ġne": 3116,
    "ĠReliable": 3117,
    "Ġbiggest": 3118,
    "ĠBehind": 3119,
    "Ġhope": 3120,
    "Ġlistens": 3121,
    "Ġdays": 3122,
    "fter": 3123,
    "Ġattention": 3124,
    "Ġtrembling": 3125,
    "Ġhear": 3126,
    "Ġmush": 3127,
    "Ġwheels": 3128,
    "ert": 3129,
    "Ġlicking": 3130,
    "Ġhaircuts": 3131,
    "ĠYour": 3132,
    "Ġtested": 3133,
    "irt": 3134,
    "riends": 3135,
    "bb": 3136,
    "Ġ-": 3137,
    "ĠX": 3138,
    "ique": 3139,
    "ipment": 3140,
    "Ġarg": 3141,
    "Slowly": 3142,
    "Ġswinging": 3143,
    "rosty": 3144,
    "tha": 3145,
    "ĠAnimal": 3146,
    "Ġbond": 3147,
    "Ġhugged": 3148,
    "Ġtell": 3149,
    "Ġdestro": 3150,
    "Ġdra": 3151,
    "Ġoctopus": 3152,
    "Ġbees": 3153,
    "Ġsqueezing": 3154,
    "ĠClimb": 3155,
    "ĠSuper": 3156,
    "Ġte": 3157,
    "not": 3158,
    "ite": 3159,
    "Ġvill": 3160,
    "rass": 3161,
    "Ġtheater": 3162,
    "ocer": 3163,
    "Ġwildflowers": 3164,
    "Ġnod": 3165,
    "bu": 3166,
    "Ġblow": 3167,
    "Ġcrops": 3168,
    "ĠDodo": 3169,
    "Ġseller": 3170,
    "anwhile": 3171,
    "Ġafternoon": 3172,
    "Ġzebras": 3173,
    "ĠRover": 3174,
    "comfortable": 3175,
    "Ġpetals": 3176,
    "Ġsits": 3177,
    "Ġmermaid": 3178,
    "Ġknelt": 3179,
    "Ġcoo": 3180,
    "Ġblueberry": 3181,
    "Ġbeeped": 3182,
    "Ġalright": 3183,
    "Ġbend": 3184,
    "ĠOr": 3185,
    "Ġdependable": 3186,
    "ĠFlora": 3187,
    "Ġforgiving": 3188,
    "Ġanticip": 3189,
    "roken": 3190,
    "Ġhelpers": 3191,
    "Ġbroom": 3192,
    "spec": 3193,
    "ĠHor": 3194,
    "oni": 3195,
    "eat": 3196,
    "Ġbuzz": 3197,
    "Ġbor": 3198,
    "ility": 3199,
    "ppies": 3200,
    "Ġno": 3201,
    "ĠJo": 3202,
    "+": 3203,
    "Ġtent": 3204,
    "Ġbreathe": 3205,
    "Ġmedic": 3206,
    "Ġgobbled": 3207,
    "Ġneeded": 3208,
    "Bow": 3209,
    "ned": 3210,
    "Ġappearance": 3211,
    "ĠElsie": 3212,
    "Ġburns": 3213,
    "%": 3214,
    "Ġhiss": 3215,
    "steps": 3216,
    "Ġsn": 3217,
    "Ġimagined": 3218,
    "Ġscream": 3219,
    "Ġeventually": 3220,
    "Charlie": 3221,
    "end": 3222,
    "Ġalong": 3223,
    "Ġyesterday": 3224,
    "ĠAlways": 3225,
    "ĠSuzie": 3226,
    "Ġcombed": 3227,
    "urious": 3228,
    "Ġdresses": 3229,
    "ĠPrince": 3230,
    "Ġeat": 3231,
    "Ġknowled": 3232,
    "Ġmessy": 3233,
    "Ġscrewd": 3234,
    "Ó": 3235,
    "Ġmix": 3236,
    "Ġcliff": 3237,
    "Ġhar": 3238,
    "Ġand": 3239,
    "inted": 3240,
    "Slow": 3241,
    "Cindy": 3242,
    "Millie": 3243,
    "Ġgrassho": 3244,
    "Ġmyself": 3245,
    "Ġachieved": 3246,
    "Ġflap": 3247,
    "Ġbasket": 3248,
    "Ġwasn": 3249,
    "Ġcaut": 3250,
    "Ġguarding": 3251,
    "Ġbeetle": 3252,
    "Ġflaps": 3253,
    "Ġremained": 3254,
    "Ġtouc": 3255,
    "Ġworkers": 3256,
    "Spe": 3257,
    "Ġlocks": 3258,
    "board": 3259,
    "Ġmule": 3260,
    "Ġseparating": 3261,
    "Wiggly": 3262,
    "Ġnervously": 3263,
    "ĠAngel": 3264,
    "Ġwife": 3265,
    "¹": 3266,
    "Ġlearns": 3267,
    "When": 3268,
    "Ġgrandson": 3269,
    "ĠLots": 3270,
    "Ġdripped": 3271,
    "ĠPolly": 3272,
    "Ġminute": 3273,
    "Ġgirls": 3274,
    "Ġleaning": 3275,
    "Ġreaching": 3276,
    "ym": 3277,
    "ummies": 3278,
    "Ġcord": 3279,
    "isa": 3280,
    "Ġchocolate": 3281,
    "Ġpract": 3282,
    "Ġangrily": 3283,
    "Ġcontro": 3284,
    "ĠSte": 3285,
    "Ġresisted": 3286,
    "Ġrefle": 3287,
    "Ġchanges": 3288,
    "Ġhappened": 3289,
    "Ġcop": 3290,
    "Ġpeaches": 3291,
    "Ġribbons": 3292,
    "cope": 3293,
    "Ġbalancing": 3294,
    "ra": 3295,
    "Ġgroaned": 3296,
    "Ġgarbage": 3297,
    "Ġtwists": 3298,
    "anda": 3299,
    "Ġfor": 3300,
    "ĠHug": 3301,
    "prin": 3302,
    "Ġcream": 3303,
    "Ġrhin": 3304,
    "Ġcous": 3305,
    "ĠTweet": 3306,
    "z": 3307,
    "Ġsizes": 3308,
    "ĠCammy": 3309,
    "Ġcells": 3310,
    "Ġbutter": 3311,
    "Ġtap": 3312,
    "ĠKevin": 3313,
    "Ġracing": 3314,
    "Ġslip": 3315,
    "Ġappreciate": 3316,
    "Ġself": 3317,
    "Ġsocks": 3318,
    "Ġmoonlight": 3319,
    "Amy": 3320,
    "ber": 3321,
    "ĠFire": 3322,
    "Ġlot": 3323,
    "Ġshapes": 3324,
    "wards": 3325,
    "Ġsnakes": 3326,
    "Ä": 3327,
    "Ġhardly": 3328,
    "ĠGary": 3329,
    "Ġstarted": 3330,
    "Ġpoppies": 3331,
    "Ġmesses": 3332,
    "Ġcircus": 3333,
    "Ġshallow": 3334,
    "Ġsofter": 3335,
    "ĠFo": 3336,
    "Ġthreads": 3337,
    "Ġcharm": 3338,
    "Ġpicnic": 3339,
    "Ġhanding": 3340,
    "Ġsounded": 3341,
    "Ġdrawers": 3342,
    "Ġtooth": 3343,
    "Gra": 3344,
    "Lulu": 3345,
    "Ġvests": 3346,
    "Ġgentle": 3347,
    "Ġbake": 3348,
    "ĠEls": 3349,
    "Ġre": 3350,
    "Ġscare": 3351,
    "...\"": 3352,
    "Ġrose": 3353,
    "Ġset": 3354,
    "avid": 3355,
    "ĠBert": 3356,
    "Ġmaker": 3357,
    "Ġclimbed": 3358,
    "ĠSt": 3359,
    "Ġsounds": 3360,
    "Mikey": 3361,
    "ount": 3362,
    "Ġpromises": 3363,
    "Ġskirt": 3364,
    "Ġkneel": 3365,
    "Ġgreen": 3366,
    "Ġhealing": 3367,
    "Ġhot": 3368,
    "Ē": 3369,
    "erry": 3370,
    "aty": 3371,
    "ĠNavy": 3372,
    "ĠLisa": 3373,
    "Ġpaddle": 3374,
    "Ġshivering": 3375,
    "Ġdishes": 3376,
    "ĠSofty": 3377,
    "Ġplayhouse": 3378,
    "Ġcurious": 3379,
    "Ġmiles": 3380,
    "iform": 3381,
    "Ġleapt": 3382,
    "Ġsqueaky": 3383,
    "Ġlands": 3384,
    "Ġpassports": 3385,
    "Ġnodding": 3386,
    "ĠJackie": 3387,
    "Ġlowered": 3388,
    "Ġyes": 3389,
    "Ġgloves": 3390,
    "ĠJump": 3391,
    "Ġpleaded": 3392,
    "Ġbund": 3393,
    "ĠBooks": 3394,
    "Ġke": 3395,
    "Ò": 3396,
    "corn": 3397,
    "Ġhairdresser": 3398,
    "ĠBet": 3399,
    "Ġeast": 3400,
    "Ġsticks": 3401,
    "boards": 3402,
    "Ġmouth": 3403,
    "Ġprog": 3404,
    "ssess": 3405,
    "During": 3406,
    "ef": 3407,
    "Ġflip": 3408,
    "Ġunz": 3409,
    "Surrender": 3410,
    "fly": 3411,
    "ĠHoot": 3412,
    "Ġhig": 3413,
    "Ġbudge": 3414,
    "co": 3415,
    "Ġcolour": 3416,
    "Ġcreat": 3417,
    "ĠWisdom": 3418,
    "Ġscreen": 3419,
    "Ġrare": 3420,
    "Ġyour": 3421,
    "Ġslept": 3422,
    "ĠRh": 3423,
    "Ġwash": 3424,
    "Ġstole": 3425,
    "ĠLight": 3426,
    "ĠDo": 3427,
    "Ġpleasure": 3428,
    "ĠYummy": 3429,
    "Ġconflict": 3430,
    "Ġout": 3431,
    "Ġswitch": 3432,
    "Ġstart": 3433,
    "Bessie": 3434,
    "O": 3435,
    "ĠSnow": 3436,
    "Ġhand": 3437,
    "uring": 3438,
    "isy": 3439,
    "Ġago": 3440,
    "wk": 3441,
    "Ġgra": 3442,
    "Hold": 3443,
    "anta": 3444,
    "ĠSuzy": 3445,
    "Ġweapons": 3446,
    "Ġra": 3447,
    "Ġdecid": 3448,
    "rrr": 3449,
    "Ġmama": 3450,
    "Ġran": 3451,
    "ĠTaking": 3452,
    "Ġdoing": 3453,
    "stairs": 3454,
    "ĠFighting": 3455,
    "Ġordinary": 3456,
    "Hope": 3457,
    "Together": 3458,
    "bbled": 3459,
    "Ġwhy": 3460,
    "Ġpaws": 3461,
    "Gr": 3462,
    "ill": 3463,
    "ĠAlf": 3464,
    "Ġfier": 3465,
    "Ġveterinarian": 3466,
    "Ġvan": 3467,
    "Ġab": 3468,
    "iting": 3469,
    "ĠCindy": 3470,
    "Ġluggage": 3471,
    "Ġbow": 3472,
    "Ġseeing": 3473,
    "under": 3474,
    "ations": 3475,
    "Ġaston": 3476,
    "Ġtube": 3477,
    "ones": 3478,
    "Ġchip": 3479,
    "Ġcabinet": 3480,
    "Ġbird": 3481,
    "Ġp": 3482,
    "Ġlawyer": 3483,
    "f": 3484,
    "Ġtwo": 3485,
    "please": 3486,
    "Ġdiffic": 3487,
    "Ġhold": 3488,
    "Ġladyb": 3489,
    "Ġshrank": 3490,
    "Ġevening": 3491,
    "»": 3492,
    "ĠMic": 3493,
    "Ġwashed": 3494,
    "Ġzipped": 3495,
    "Playing": 3496,
    "antastic": 3497,
    "Ġsword": 3498,
    "ĠO": 3499,
    "asure": 3500,
    "Ġsign": 3501,
    "Ġtipto": 3502,
    "five": 3503,
    "ĠFind": 3504,
    "ie": 3505,
    "Ġdone": 3506,
    "ory": 3507,
    "Ġri": 3508,
    "Ġdanc": 3509,
    "Ġpeach": 3510,
    "Ġonward": 3511,
    "Ġis": 3512,
    "Ġrh": 3513,
    "par": 3514,
    "Ġdrag": 3515,
    "sit": 3516,
    "Ġgoats": 3517,
    "Ġfocused": 3518,
    "iona": 3519,
    "Meanwhile": 3520,
    "Ġnobody": 3521,
    "G": 3522,
    "Ġwinked": 3523,
    "Rabbit": 3524,
    "Ġstretches": 3525,
    "Ġstreamers": 3526,
    "Bluey": 3527,
    "Ġ10": 3528,
    "Ġeraser": 3529,
    "Ġangels": 3530,
    "amber": 3531,
    "ĠWho": 3532,
    "Ġfascinated": 3533,
    "Ġreverse": 3534,
    "Ġeff": 3535,
    "ĠAbi": 3536,
    "sers": 3537,
    "ĠEat": 3538,
    "Ġsweetheart": 3539,
    "Bee": 3540,
    "Ġuniverse": 3541,
    "Ġlean": 3542,
    "Ġrow": 3543,
    "htray": 3544,
    "Ġfloated": 3545,
    "Ġvisits": 3546,
    "¨": 3547,
    "Ġprincess": 3548,
    "ĠBirthday": 3549,
    "Binky": 3550,
    "ĠJacky": 3551,
    "Ġmeasured": 3552,
    "Ġminerals": 3553,
    "Ġstroke": 3554,
    "Ġobser": 3555,
    "lers": 3556,
    "Ġbl": 3557,
    "um": 3558,
    "Ġshrug": 3559,
    "Ġbows": 3560,
    "Ġfridge": 3561,
    "Ġmu": 3562,
    "Ġcries": 3563,
    "Ġjumps": 3564,
    "Ġequipment": 3565,
    "Ġjourneys": 3566,
    "lets": 3567,
    "Ġfreeze": 3568,
    "Ġlock": 3569,
    "Ġtype": 3570,
    "Ġbill": 3571,
    "Ġclowns": 3572,
    "Ġhe": 3573,
    "ĠCara": 3574,
    "Ġdiscover": 3575,
    "Ġcookies": 3576,
    "Ġstudents": 3577,
    "oose": 3578,
    "Ġtweet": 3579,
    "ĠCharlotte": 3580,
    "Ġclum": 3581,
    "Ġknots": 3582,
    "Ġtalked": 3583,
    "Ġknows": 3584,
    "Ġmemory": 3585,
    "ĠSad": 3586,
    "Ġrecognize": 3587,
    "Ġfreezing": 3588,
    "Ġseashe": 3589,
    "ider": 3590,
    "Ġheavy": 3591,
    "Ġsuggestion": 3592,
    "ser": 3593,
    "Ġjog": 3594,
    "ĠIn": 3595,
    "Ġchase": 3596,
    "Ġbacked": 3597,
    "Ġtowns": 3598,
    "Pete": 3599,
    "erm": 3600,
    "ĠLet": 3601,
    "aa": 3602,
    "Hmm": 3603,
    "cused": 3604,
    "ĠHelp": 3605,
    "Ġsym": 3606,
    "ĠRia": 3607,
    "Ġtelescope": 3608,
    "Ġniece": 3609,
    "Ġwakes": 3610,
    "Ġforgetting": 3611,
    "ĠWell": 3612,
    "¡": 3613,
    "Ġtaxi": 3614,
    "Ġfolds": 3615,
    "=": 3616,
    "Ġkit": 3617,
    "Ġterrified": 3618,
    "Ġmagazine": 3619,
    "Ġafar": 3620,
    "ĠSkelly": 3621,
    "Ġstre": 3622,
    "Ġdestination": 3623,
    "glasses": 3624,
    "Ġmovements": 3625,
    "oral": 3626,
    "Ġyoun": 3627,
    "Ġshirt": 3628,
    "fully": 3629,
    "Ġzero": 3630,
    "Ġstrength": 3631,
    "ogn": 3632,
    "ĠRatty": 3633,
    "Lucy": 3634,
    "uper": 3635,
    "Ġsuits": 3636,
    "Ġneeds": 3637,
    "Ġwobbled": 3638,
    "Ġclot": 3639,
    "Ġbu": 3640,
    "Ġinto": 3641,
    "Ġdar": 3642,
    "ĠMr": 3643,
    "Ġkittens": 3644,
    "Ġpal": 3645,
    "Ġlemons": 3646,
    "ĠButter": 3647,
    "sequ": 3648,
    "aren": 3649,
    "Ġcreak": 3650,
    "fl": 3651,
    "Ġfade": 3652,
    "Ġsport": 3653,
    "bank": 3654,
    "Ġtremb": 3655,
    "Ġbook": 3656,
    "Wow": 3657,
    "ĠBeep": 3658,
    "Ġhangs": 3659,
    "eb": 3660,
    "Ġswimsuits": 3661,
    "ĠFrosty": 3662,
    "Jess": 3663,
    "ur": 3664,
    "Ġscold": 3665,
    "Ġprop": 3666,
    "ĠJay": 3667,
    "Ġpresented": 3668,
    "Ġbatteries": 3669,
    "Ġradio": 3670,
    "Ġfinish": 3671,
    "Ġaway": 3672,
    "Ġwiggling": 3673,
    "oey": 3674,
    "Ġbuilt": 3675,
    "È": 3676,
    "uke": 3677,
    "Ġfit": 3678,
    "Ġdizzy": 3679,
    "ĠMarch": 3680,
    "Ġlucky": 3681,
    "ido": 3682,
    "ĠAng": 3683,
    "Ġgave": 3684,
    "Ġsore": 3685,
    "ĠN": 3686,
    "Ġmitten": 3687,
    "ĠYet": 3688,
    "Ġpoppy": 3689,
    "Ġmagnif": 3690,
    "Ġrested": 3691,
    "arlie": 3692,
    "Ġgap": 3693,
    "br": 3694,
    "Ġencouraging": 3695,
    "ı": 3696,
    "ime": 3697,
    "Ġdoll": 3698,
    "Ġtimer": 3699,
    "ĠMar": 3700,
    "Ġthinks": 3701,
    "ibbles": 3702,
    "ame": 3703,
    "Ġrobe": 3704,
    "Ġwriggled": 3705,
    "ricane": 3706,
    "Ġsticker": 3707,
    "Ġlife": 3708,
    "abby": 3709,
    "Ġserve": 3710,
    "Ġcheered": 3711,
    "Ġfear": 3712,
    "Ġwashing": 3713,
    "Ġbags": 3714,
    "Ġsheets": 3715,
    "ĠFirst": 3716,
    "Ġoranges": 3717,
    "Ġwriting": 3718,
    "ents": 3719,
    "Ġdisappeared": 3720,
    "ĠTurt": 3721,
    "Ġhum": 3722,
    "illed": 3723,
    "Sharing": 3724,
    "Hi": 3725,
    "Ġtickle": 3726,
    "Ġbeak": 3727,
    "Snow": 3728,
    "Ġpipes": 3729,
    "ĠKayla": 3730,
    "ĠCook": 3731,
    "ĠPlease": 3732,
    "Ġmuscles": 3733,
    "Mama": 3734,
    "Ġfilled": 3735,
    "Ġsnowman": 3736,
    "Ġclue": 3737,
    "Ġfarthest": 3738,
    "Ġnut": 3739,
    "ĠLeave": 3740,
    "aggie": 3741,
    "Ġseaweed": 3742,
    "ĠRight": 3743,
    "Ġbeautifully": 3744,
    "munk": 3745,
    "Ġfacts": 3746,
    "Ġsweeter": 3747,
    "Ġbright": 3748,
    "Ġworker": 3749,
    "Ġgigg": 3750,
    "Ġnaps": 3751,
    "Ġshrugs": 3752,
    "Ġperfectly": 3753,
    "Ġsmashed": 3754,
    "Ġsuch": 3755,
    "able": 3756,
    "ĠTodd": 3757,
    "Ġfreedom": 3758,
    "Pandy": 3759,
    "Ġasked": 3760,
    "Ġmaking": 3761,
    "Ġzooming": 3762,
    "Ġguns": 3763,
    "vant": 3764,
    "avy": 3765,
    "Ġflashes": 3766,
    "Ġearn": 3767,
    "ila": 3768,
    "Ġhelpful": 3769,
    "Ġpours": 3770,
    "ĠMittens": 3771,
    "ird": 3772,
    "Ġwee": 3773,
    "Suddenly": 3774,
    "Ġsprink": 3775,
    "ĠJohn": 3776,
    "Ġexplains": 3777,
    "Rob": 3778,
    "Ġdifference": 3779,
    "adabra": 3780,
    "ĠTrust": 3781,
    "ull": 3782,
    "ĠHops": 3783,
    "king": 3784,
    "Ġalarm": 3785,
    "Ġwilling": 3786,
    "ĠDoggy": 3787,
    "Emily": 3788,
    "Ġmerry": 3789,
    "usion": 3790,
    "Ġproblem": 3791,
    "Ġshouted": 3792,
    "Ġcausing": 3793,
    "Ġzoomed": 3794,
    "ĠFlappy": 3795,
    "Near": 3796,
    "ĠJimmy": 3797,
    "ĠDan": 3798,
    "Ġapron": 3799,
    "Ġguy": 3800,
    "Ġcow": 3801,
    "Ġawoke": 3802,
    "Ġbranches": 3803,
    "Ġkinder": 3804,
    "Ġbitten": 3805,
    "Ġmachine": 3806,
    "wh": 3807,
    "Jon": 3808,
    "Ġhatched": 3809,
    "...": 3810,
    "Ġexpert": 3811,
    "Ġmater": 3812,
    "Ġheartbroken": 3813,
    "Ġdrums": 3814,
    "Ġwounds": 3815,
    "Ġcl": 3816,
    "Or": 3817,
    "Ġtablet": 3818,
    "Ġchild": 3819,
    "elia": 3820,
    "Ġmosquitoes": 3821,
    "ĠHi": 3822,
    "bulance": 3823,
    "Ġpermitted": 3824,
    "ò": 3825,
    "Ġsle": 3826,
    "ĠDizzy": 3827,
    "Ġclass": 3828,
    "Ġvillag": 3829,
    "Ġtallest": 3830,
    "ä": 3831,
    "ogo": 3832,
    "Ġarrow": 3833,
    "Ġenc": 3834,
    "Ġdelight": 3835,
    "Ġrainco": 3836,
    "Ġunicorn": 3837,
    "Ġrescue": 3838,
    "ĠKate": 3839,
    "Ġours": 3840,
    "ather": 3841,
    "Ġflashlight": 3842,
    "Ġspoon": 3843,
    "Ġbrown": 3844,
    "Ġglowed": 3845,
    "Ġsense": 3846,
    "Ġwrist": 3847,
    "Ġplot": 3848,
    "Ġsneaky": 3849,
    "Ġrestored": 3850,
    "Ġpajamas": 3851,
    "Ġactivities": 3852,
    "Ġwinds": 3853,
    "lcan": 3854,
    "xy": 3855,
    "Ġgets": 3856,
    "Ġexplain": 3857,
    "d": 3858,
    "ipping": 3859,
    "ĠQuack": 3860,
    "ĠBun": 3861,
    "Ġmo": 3862,
    "Ġpainter": 3863,
    "Ġtimid": 3864,
    "eah": 3865,
    "ecting": 3866,
    "Curious": 3867,
    "Ġbeen": 3868,
    "Ġbushy": 3869,
    "č": 3870,
    "Ġgi": 3871,
    "Ġalmost": 3872,
    "lex": 3873,
    "Ġdeed": 3874,
    "Ġbodies": 3875,
    "Ġcollapsed": 3876,
    "Ġhills": 3877,
    "Ġpleased": 3878,
    "ĠTess": 3879,
    "Ġleaving": 3880,
    "Ġpedaled": 3881,
    "Ġok": 3882,
    "Ġrubs": 3883,
    "Ġpenguin": 3884,
    "itt": 3885,
    "Ġtr": 3886,
    "Ġaction": 3887,
    "ze": 3888,
    "Pip": 3889,
    "ĠYesterday": 3890,
    "Ġcottage": 3891,
    "Ġupside": 3892,
    "Ġref": 3893,
    "Ġrepeated": 3894,
    "Ġcrickets": 3895,
    "Ella": 3896,
    "ĠSlinky": 3897,
    "Ġwiz": 3898,
    "Ġcalmly": 3899,
    "Ġdisplayed": 3900,
    "ĠGerry": 3901,
    "S": 3902,
    "Ġbak": 3903,
    "ĠInky": 3904,
    "snap": 3905,
    "Ġcreek": 3906,
    "Ġkeys": 3907,
    "Ġstrum": 3908,
    "Ġpants": 3909,
    "Ġswir": 3910,
    "Ġdodged": 3911,
    "Ġburgers": 3912,
    "inkle": 3913,
    "Ġlearnt": 3914,
    "Ġleft": 3915,
    "Ġgrowing": 3916,
    "Ġcor": 3917,
    "ĠHenny": 3918,
    "Ġpack": 3919,
    "Ġlibr": 3920,
    "ize": 3921,
    "ĠâĢĵ": 3922,
    "Ġgone": 3923,
    "Ġreal": 3924,
    "Ġforts": 3925,
    "Ġbarked": 3926,
    "Ġcurtain": 3927,
    "Ġchipmunk": 3928,
    "Ġfield": 3929,
    "Ġflips": 3930,
    "ĠJohnson": 3931,
    "Ġsensation": 3932,
    "une": 3933,
    "ĠJessie": 3934,
    "Ġtremble": 3935,
    "yard": 3936,
    "Ġspent": 3937,
    "Ġsmaller": 3938,
    "Ġtune": 3939,
    "ĠBoun": 3940,
    "Ġenviron": 3941,
    "Ġsincere": 3942,
    "ĠKiki": 3943,
    "Ġsqueaked": 3944,
    "Ġtwelve": 3945,
    "Ġsuper": 3946,
    "Ġdelay": 3947,
    "ĠQu": 3948,
    "ĠJenna": 3949,
    "Ġpick": 3950,
    "Tilly": 3951,
    "ĠDave": 3952,
    "ĠReady": 3953,
    "Ġherb": 3954,
    "Ġsomewhere": 3955,
    "Ġle": 3956,
    "tain": 3957,
    "Ġtripped": 3958,
    "resses": 3959,
    "ulb": 3960,
    "Ġbump": 3961,
    "Ġclo": 3962,
    "Ġboat": 3963,
    "Ġsnow": 3964,
    "Ġhen": 3965,
    "Ġostriches": 3966,
    "Ġshortcut": 3967,
    "ĠLook": 3968,
    "Ġink": 3969,
    "Ġimagination": 3970,
    "Ġdr": 3971,
    "lu": 3972,
    "Ġtrembled": 3973,
    "Ġevil": 3974,
    "ouquet": 3975,
    "Ġunsure": 3976,
    "Ġfrown": 3977,
    "very": 3978,
    "Ġlow": 3979,
    "Ġpay": 3980,
    "sol": 3981,
    "Ġth": 3982,
    "Ġdrove": 3983,
    "Ġreading": 3984,
    "Ġseven": 3985,
    "Ġdiscussing": 3986,
    "Ġloops": 3987,
    "Ġocean": 3988,
    "Ġavoid": 3989,
    "Ġtracks": 3990,
    "Ġsucceed": 3991,
    "Ġnatur": 3992,
    "Ġbushes": 3993,
    "Ġdestroying": 3994,
    "..": 3995,
    "ry": 3996,
    "Ġbeaut": 3997,
    "ney": 3998,
    "ling": 3999,
    "Ġdelivered": 4000,
    "Ġolives": 4001,
    "Ġreef": 4002,
    "Ġbeds": 4003,
    "Ġmeeting": 4004,
    "ĠJason": 4005,
    "Ġrefuse": 4006,
    "Ġtossed": 4007,
    "Ġostrich": 4008,
    "Ġbox": 4009,
    "Kids": 4010,
    "ty": 4011,
    "Ġyoga": 4012,
    "Ġscene": 4013,
    "Ġdip": 4014,
    "ĠFlick": 4015,
    "Ġheard": 4016,
    "Ġfigured": 4017,
    "Ġcamel": 4018,
    "Ġlie": 4019,
    "ope": 4020,
    "Ġkneeling": 4021,
    "Ġkeyhole": 4022,
    "ately": 4023,
    "Ġsm": 4024,
    "ragile": 4025,
    "Ġband": 4026,
    "Ġdish": 4027,
    "Ġtoy": 4028,
    "Ġafterwards": 4029,
    "Ġtrave": 4030,
    "joyed": 4031,
    "Ġvisiting": 4032,
    "Ġobey": 4033,
    "Ġsack": 4034,
    "ĠFinny": 4035,
    "Ġbecomes": 4036,
    "vy": 4037,
    "ĠLila": 4038,
    "Ġbirdhouse": 4039,
    "Ġavocados": 4040,
    "kin": 4041,
    "Ġcooed": 4042,
    "Ġbrilliant": 4043,
    "Ġinstructions": 4044,
    "fere": 4045,
    "Ġswayed": 4046,
    "ended": 4047,
    "ĠCar": 4048,
    "ocular": 4049,
    "Ġstrange": 4050,
    "lies": 4051,
    "Ġsuggest": 4052,
    "Ġboards": 4053,
    "Ġmakeup": 4054,
    "aded": 4055,
    "Ġpurr": 4056,
    "Ġaimed": 4057,
    "eed": 4058,
    "Ġsunscreen": 4059,
    "Ġwipe": 4060,
    "ĠMegan": 4061,
    "ĠRes": 4062,
    "men": 4063,
    "ĠQuick": 4064,
    "Finn": 4065,
    "ĠToto": 4066,
    "Ġslide": 4067,
    "Ġintroduc": 4068,
    "ph": 4069,
    "free": 4070,
    "Ġsingers": 4071,
    "Ġliving": 4072,
    "nic": 4073,
    "aken": 4074,
    "ĠBub": 4075,
    "shaped": 4076,
    "Ros": 4077,
    "ĠNot": 4078,
    "Ġbravest": 4079,
    "Ġnormal": 4080,
    "Tara": 4081,
    "Ġdried": 4082,
    "ungle": 4083,
    "Ġnow": 4084,
    "±": 4085,
    "set": 4086,
    "Ġblocking": 4087,
    "ĠTweetie": 4088,
    "Ġzebra": 4089,
    "Ġpouring": 4090,
    "Ġcluck": 4091,
    "Listen": 4092,
    "Ġtumbled": 4093,
    "Ġtake": 4094,
    "ĠP": 4095,
    "Ġbegged": 4096,
    "Ġhimself": 4097,
    "Ġcomplaining": 4098,
    "Ġpeanuts": 4099,
    "ĠWe": 4100,
    "Ġguitar": 4101,
    "ĠOK": 4102,
    "Find": 4103,
    "Ġhuman": 4104,
    "thing": 4105,
    "ĠRobbie": 4106,
    "Ġfleas": 4107,
    "ĠCoal": 4108,
    "Ġarrives": 4109,
    "ĠBuzzy": 4110,
    "ĠGigi": 4111,
    "Ġwider": 4112,
    "Ġrad": 4113,
    "Ġwa": 4114,
    "Ġoutdoors": 4115,
    "Ġapples": 4116,
    "urn": 4117,
    "Ġincred": 4118,
    "ý": 4119,
    "Ġbatter": 4120,
    "Ġstacking": 4121,
    "Ġlid": 4122,
    "espite": 4123,
    "ĠSpirit": 4124,
    "ø": 4125,
    "Ġquilt": 4126,
    "She": 4127,
    "Ġstir": 4128,
    "Ġsolution": 4129,
    "Ġlaw": 4130,
    "Ġcuddles": 4131,
    "Ġdived": 4132,
    "Ġlamp": 4133,
    "Ġbrush": 4134,
    "ĠSeeing": 4135,
    "Ġbra": 4136,
    "Ġcomet": 4137,
    "ec": 4138,
    "Ġslap": 4139,
    "Ġperform": 4140,
    "Ġumbrella": 4141,
    "round": 4142,
    "Ġcongratul": 4143,
    "Ġexamine": 4144,
    "Ġshoo": 4145,
    "Ġwas": 4146,
    "ĠHalloween": 4147,
    "Ġautomobiles": 4148,
    "Ġshoes": 4149,
    "ĠKay": 4150,
    "Ġgrabbing": 4151,
    "ortunately": 4152,
    "ĠWhere": 4153,
    "though": 4154,
    "Ġchatted": 4155,
    "Ġpockets": 4156,
    "Ġroot": 4157,
    "Ġruined": 4158,
    "ĠGo": 4159,
    "Ġordered": 4160,
    "Ġmood": 4161,
    "Ġknight": 4162,
    "ĠMabel": 4163,
    "ected": 4164,
    "ito": 4165,
    "Ġreply": 4166,
    "Ġprank": 4167,
    "Ġpatient": 4168,
    "ushes": 4169,
    "ĠOther": 4170,
    "ebecca": 4171,
    "Ġmittens": 4172,
    "Ġlamb": 4173,
    "Ġcreativity": 4174,
    "entr": 4175,
    "Ġgiggling": 4176,
    "vroom": 4177,
    "ĠâĢ": 4178,
    "Ġwherever": 4179,
    "Ġsandcastles": 4180,
    "ĠBug": 4181,
    "eration": 4182,
    "gie": 4183,
    "ĠI": 4184,
    "adium": 4185,
    "Ġcollecting": 4186,
    "sess": 4187,
    "Ġcra": 4188,
    "Ġbott": 4189,
    "ctor": 4190,
    "Ġmysterious": 4191,
    "Ġincre": 4192,
    "ott": 4193,
    "Ġpuff": 4194,
    "Ġrubb": 4195,
    "Ġfast": 4196,
    "Ġasking": 4197,
    "Ġstupid": 4198,
    "oto": 4199,
    "Beep": 4200,
    "oman": 4201,
    "Ġthrilled": 4202,
    "ach": 4203,
    "Ġcardboard": 4204,
    "Ġjuice": 4205,
    "Ġsince": 4206,
    "Fine": 4207,
    "Ġmanners": 4208,
    "of": 4209,
    "Ġperson": 4210,
    "Ġzigzag": 4211,
    "Ġcrown": 4212,
    "Luna": 4213,
    "Ġreapp": 4214,
    "ĠJulie": 4215,
    ",": 4216,
    "Ġsquinted": 4217,
    "Ġthese": 4218,
    "Zoom": 4219,
    "uddy": 4220,
    "Ġgoat": 4221,
    "illy": 4222,
    "uddles": 4223,
    "ĠBobo": 4224,
    "Ġphones": 4225,
    "Ġwhisper": 4226,
    "Ġstack": 4227,
    "Ġcuddled": 4228,
    "ex": 4229,
    "Two": 4230,
    "Ġdesign": 4231,
    "Ġwished": 4232,
    "Ġcoal": 4233,
    "ye": 4234,
    "Ġstanding": 4235,
    "Ġdancing": 4236,
    "Ġunl": 4237,
    "asmine": 4238,
    "Ġsorts": 4239,
    "Ġbusiness": 4240,
    "Ġlaughs": 4241,
    "Ġedge": 4242,
    "Ġchin": 4243,
    "Ġtowers": 4244,
    "Ġque": 4245,
    "Ġsnowflakes": 4246,
    "ĠCaptain": 4247,
    "Ġthunder": 4248,
    "Ġcards": 4249,
    "aste": 4250,
    "Ġcows": 4251,
    "Ġfisher": 4252,
    "Ġbikes": 4253,
    "ĠT": 4254,
    "ĠSqu": 4255,
    "ĠTri": 4256,
    "ĠTell": 4257,
    "Ġrhythm": 4258,
    "Ġgonna": 4259,
    "Ġbutterflies": 4260,
    "lease": 4261,
    "Ġswe": 4262,
    "iver": 4263,
    "Ġsatisfa": 4264,
    "Ġgiggled": 4265,
    "Ġma": 4266,
    "Ġwarned": 4267,
    "Spike": 4268,
    "beep": 4269,
    "Ġpizzas": 4270,
    "Ġhearts": 4271,
    "arrass": 4272,
    "Ġemb": 4273,
    "Ġletting": 4274,
    "Ġsock": 4275,
    "Ġblooming": 4276,
    "Ġunexpected": 4277,
    "Ġcostume": 4278,
    "Ġowns": 4279,
    "Pat": 4280,
    "ira": 4281,
    "ctop": 4282,
    "Ġsway": 4283,
    "ö": 4284,
    "arning": 4285,
    "place": 4286,
    "ĠMe": 4287,
    "Ġwr": 4288,
    "abel": 4289,
    "Ġdetect": 4290,
    "Ġflowing": 4291,
    "Ġgazed": 4292,
    "Ġpast": 4293,
    "ĠMiss": 4294,
    "irsty": 4295,
    "Ġtearing": 4296,
    "ross": 4297,
    "Ġhoop": 4298,
    "Ġcollection": 4299,
    "Ġbin": 4300,
    "Ġstruggling": 4301,
    "Fish": 4302,
    "Ġpain": 4303,
    "Ġcrawl": 4304,
    "Ġsquirrel": 4305,
    "Ġkey": 4306,
    "broken": 4307,
    "Ġrolls": 4308,
    "ĠHannah": 4309,
    "Ġlifting": 4310,
    "Ġneedle": 4311,
    "ĠElla": 4312,
    "umbled": 4313,
    "Ġstamp": 4314,
    "Ġcheerful": 4315,
    "Ġreach": 4316,
    "Ġstumble": 4317,
    "Ġapp": 4318,
    "Ġpa": 4319,
    "Ġpumpkins": 4320,
    "Ġexpensive": 4321,
    "Frog": 4322,
    "Ġempty": 4323,
    "Ġsplashing": 4324,
    "vin": 4325,
    "Ġbucket": 4326,
    "Ø": 4327,
    "Ġpainted": 4328,
    "mediately": 4329,
    "Ġwhenever": 4330,
    "Ġother": 4331,
    "Ġsty": 4332,
    "Ġchoose": 4333,
    "ors": 4334,
    "Ġcough": 4335,
    "Ġeld": 4336,
    "Ġtissue": 4337,
    "ĠTuesday": 4338,
    "angled": 4339,
    "ĠAbbie": 4340,
    "ow": 4341,
    "self": 4342,
    "Ġresponsible": 4343,
    "Ġrockets": 4344,
    "Ġorganize": 4345,
    "Ġwatching": 4346,
    "Ġcompletely": 4347,
    "ide": 4348,
    "Ġenemies": 4349,
    "ĠFrog": 4350,
    "Ġseed": 4351,
    "Ġax": 4352,
    "iley": 4353,
    "We": 4354,
    "orry": 4355,
    "Out": 4356,
    "Ġintelligence": 4357,
    "Ġwallet": 4358,
    "However": 4359,
    "Ġdentist": 4360,
    "Ġwe": 4361,
    "Ġwealth": 4362,
    "apa": 4363,
    "Ġwater": 4364,
    "Ġtrains": 4365,
    "Ġdears": 4366,
    "Ġbear": 4367,
    "Ġthem": 4368,
    "Ġhealthy": 4369,
    "Ġalert": 4370,
    "Mike": 4371,
    "Ġscared": 4372,
    "Ġmarker": 4373,
    "Ġsp": 4374,
    "Ġbreat": 4375,
    "Ġfaded": 4376,
    "Ġimproving": 4377,
    "eds": 4378,
    "Ġexcept": 4379,
    "Ġvent": 4380,
    "Ġrushed": 4381,
    "Ġrules": 4382,
    "Get": 4383,
    "Ġmill": 4384,
    "Ġlear": 4385,
    "Ġpounced": 4386,
    "ĠCurious": 4387,
    "ĠIm": 4388,
    "Can": 4389,
    "en": 4390,
    "Ġfriends": 4391,
    "Ġdesigns": 4392,
    "Since": 4393,
    "John": 4394,
    "mare": 4395,
    "Ġbegin": 4396,
    "Ġwiggly": 4397,
    "Ġcubs": 4398,
    "Ġhid": 4399,
    "ying": 4400,
    "Ġshrinking": 4401,
    "Ġmonths": 4402,
    "Ġteles": 4403,
    "Ġsuccessfully": 4404,
    "obile": 4405,
    "Ġstom": 4406,
    "Ġcompeting": 4407,
    "ĠThings": 4408,
    "¸": 4409,
    "Ġwob": 4410,
    "Ġbumped": 4411,
    "Ġgym": 4412,
    "Ġbunnies": 4413,
    "Ġsave": 4414,
    "Ġbounce": 4415,
    "Next": 4416,
    "Ġmugs": 4417,
    "Ġguests": 4418,
    "ĠBrian": 4419,
    "Ġbrushed": 4420,
    "ĠOw": 4421,
    "Speedy": 4422,
    "Ġsomeday": 4423,
    "uest": 4424,
    "Ġloading": 4425,
    "ĠAsh": 4426,
    "Ġlollipops": 4427,
    "aut": 4428,
    "Ě": 4429,
    "ĠDon": 4430,
    "ĠSofia": 4431,
    "Ġhomework": 4432,
    "her": 4433,
    "ured": 4434,
    "Ġwindy": 4435,
    "Ġclever": 4436,
    "Ġsnack": 4437,
    "Ġlaundry": 4438,
    "Ġtoe": 4439,
    "Ġstubborn": 4440,
    "ĠPine": 4441,
    "Ġenvironment": 4442,
    "Milo": 4443,
    "Mum": 4444,
    "Ġcamera": 4445,
    "Ġunderstanding": 4446,
    "Ġspoonful": 4447,
    "Ġwithout": 4448,
    "Inside": 4449,
    "Ġnap": 4450,
    "Ġhandsome": 4451,
    "ĠRavi": 4452,
    "ĠTiger": 4453,
    "Ġturns": 4454,
    "oup": 4455,
    "on": 4456,
    "Ġwarnings": 4457,
    "Ġif": 4458,
    "Zara": 4459,
    "iles": 4460,
    "Ġwouldn": 4461,
    "ool": 4462,
    "Ġwake": 4463,
    "Ġhotel": 4464,
    "Gina": 4465,
    "Ġbananas": 4466,
    "oceros": 4467,
    "night": 4468,
    "ĠSamantha": 4469,
    "Ġwitch": 4470,
    "io": 4471,
    "Ġlooks": 4472,
    "ĠDot": 4473,
    "Ġsights": 4474,
    "Ġhoc": 4475,
    "Ġpeck": 4476,
    "Ġsoapy": 4477,
    "form": 4478,
    "Ġflood": 4479,
    "Ġclimb": 4480,
    "Ġspoke": 4481,
    "Ġpraying": 4482,
    "etty": 4483,
    "Ġexploration": 4484,
    "Ġflexible": 4485,
    "Ġbr": 4486,
    "Ġsharp": 4487,
    "Ġcaw": 4488,
    "Ġexercises": 4489,
    "az": 4490,
    "Ġbusy": 4491,
    "Ġtop": 4492,
    "body": 4493,
    "Ġbanana": 4494,
    "Ġgrow": 4495,
    "Ġkissed": 4496,
    "adually": 4497,
    "Ġball": 4498,
    "Ġorange": 4499,
    "ĠCat": 4500,
    "Ġelectric": 4501,
    "ffic": 4502,
    "ĠAmy": 4503,
    "Ġmissile": 4504,
    "Ġsettled": 4505,
    "ĠMae": 4506,
    "Ġsnort": 4507,
    "Dan": 4508,
    "Ġoverwhelmed": 4509,
    "Ġknife": 4510,
    "Ġman": 4511,
    "Ġtip": 4512,
    "Let": 4513,
    "Ġplastic": 4514,
    "Ġglue": 4515,
    "Ġlifted": 4516,
    "L": 4517,
    "ton": 4518,
    "Ġpermit": 4519,
    "ĠAm": 4520,
    "Ġtwins": 4521,
    "Ġscrews": 4522,
    "Ġproud": 4523,
    "Ġgardener": 4524,
    "ĠPinchy": 4525,
    "Ġpackage": 4526,
    "Ġrelease": 4527,
    "ab": 4528,
    "ĠStay": 4529,
    "Ġfle": 4530,
    "Ġdev": 4531,
    "ĠCl": 4532,
    "Ġpopped": 4533,
    "Ġarguing": 4534,
    "Ġlighter": 4535,
    "Ġskunk": 4536,
    "Ġpoems": 4537,
    "Ġtow": 4538,
    "nies": 4539,
    "Ġow": 4540,
    "Ġthump": 4541,
    "Ġdog": 4542,
    "ssss": 4543,
    "Ġodd": 4544,
    "Ġobserved": 4545,
    "Ġstat": 4546,
    "aghett": 4547,
    "ĠTina": 4548,
    "ĠDoctor": 4549,
    "Ġyawned": 4550,
    "mel": 4551,
    "Ġblueberries": 4552,
    "Behind": 4553,
    "Ġuncle": 4554,
    "abies": 4555,
    "arl": 4556,
    "Ġpinching": 4557,
    "ance": 4558,
    "Ġslippery": 4559,
    "atie": 4560,
    "bie": 4561,
    "fit": 4562,
    "Ġwo": 4563,
    "Ġfloating": 4564,
    "ĠJill": 4565,
    "nder": 4566,
    "Ġswaying": 4567,
    "Ġpreparing": 4568,
    "Ġtwink": 4569,
    "ê": 4570,
    "ĠOver": 4571,
    "ious": 4572,
    "umbers": 4573,
    "Ġsmile": 4574,
    "Ġcautious": 4575,
    "Even": 4576,
    "ĠAnna": 4577,
    "us": 4578,
    "Ġpiles": 4579,
    "Ġsurely": 4580,
    "Ġflew": 4581,
    "ĠClaire": 4582,
    "Ġsnug": 4583,
    "Ġmystery": 4584,
    "Ġour": 4585,
    "Little": 4586,
    "ĠTommy": 4587,
    "Ġexact": 4588,
    "Jane": 4589,
    "Ġcartoons": 4590,
    "Ġcirc": 4591,
    "sorry": 4592,
    "les": 4593,
    "Ġdecoration": 4594,
    "Ġopport": 4595,
    "stead": 4596,
    "hel": 4597,
    "ĠBiggie": 4598,
    "Look": 4599,
    "Ġgrape": 4600,
    "Ġengines": 4601,
    "Ġcreature": 4602,
    "die": 4603,
    "ait": 4604,
    "Ð": 4605,
    "Ġpunish": 4606,
    "ć": 4607,
    "ose": 4608,
    "Ġimpressive": 4609,
    "ibly": 4610,
    "Ġgirl": 4611,
    "Ġtail": 4612,
    "Ġpupils": 4613,
    "ĠAc": 4614,
    "Sure": 4615,
    "ecause": 4616,
    "ĠAmanda": 4617,
    "Ġreached": 4618,
    "Ġvehicles": 4619,
    "Ġpoem": 4620,
    "Ġha": 4621,
    "Ġcastles": 4622,
    "chool": 4623,
    "Ġparted": 4624,
    "Ġbuild": 4625,
    "Ġfirm": 4626,
    "ath": 4627,
    "ĠPandy": 4628,
    "Ġpilots": 4629,
    "Ġboots": 4630,
    "etah": 4631,
    "Ġdinosaurs": 4632,
    "Ġlava": 4633,
    "Ġloyalty": 4634,
    "Ġcrocodile": 4635,
    "Ġcashier": 4636,
    "rac": 4637,
    "Ġsnowmen": 4638,
    "Ġcocoa": 4639,
    "Ġmuscle": 4640,
    "Ġve": 4641,
    "Ġopen": 4642,
    "Ġcolourful": 4643,
    "Ġstream": 4644,
    "Ġthen": 4645,
    "Ġshady": 4646,
    "ushed": 4647,
    "Ġteachers": 4648,
    "Ġansw": 4649,
    "nn": 4650,
    "5": 4651,
    "Ġconsequences": 4652,
    "Ġwar": 4653,
    "Ġast": 4654,
    "ndma": 4655,
    "Ġtummies": 4656,
    "agic": 4657,
    "ednesday": 4658,
    "Ġdreamed": 4659,
    "Ġpow": 4660,
    "Ġlet": 4661,
    "Ġsomeone": 4662,
    "3": 4663,
    "Ġsleeps": 4664,
    "Use": 4665,
    "Ġb": 4666,
    "inch": 4667,
    "Ġfurious": 4668,
    "ales": 4669,
    "Ġblushed": 4670,
    "ip": 4671,
    "Ġshall": 4672,
    "Ġcooked": 4673,
    "Ġtank": 4674,
    "sters": 4675,
    "ien": 4676,
    "Ġstruggled": 4677,
    "Ġsupplies": 4678,
    "Ġje": 4679,
    "way": 4680,
    "Maddy": 4681,
    "Ġbuckled": 4682,
    "Ġlaid": 4683,
    "Ġrec": 4684,
    "Ġsewing": 4685,
    "ĠWhat": 4686,
    "aking": 4687,
    "ieves": 4688,
    "ĠNext": 4689,
    "ĠM": 4690,
    "Ġfell": 4691,
    "codile": 4692,
    "Ġpose": 4693,
    "ountain": 4694,
    "Ġtower": 4695,
    "Squeaky": 4696,
    "isc": 4697,
    "Ġstreng": 4698,
    "Sara": 4699,
    ")": 4700,
    "yan": 4701,
    "Ab": 4702,
    "Three": 4703,
    "ĠLife": 4704,
    "ĠGrump": 4705,
    "Ġprovided": 4706,
    "Wake": 4707,
    "Ġwrink": 4708,
    "Ġbooth": 4709,
    "ames": 4710,
    "ĠLike": 4711,
    "Ġchicks": 4712,
    "Ġraccoon": 4713,
    "Ġloyal": 4714,
    "Ġbuzzed": 4715,
    "immering": 4716,
    "Ġunlocking": 4717,
    "igzag": 4718,
    "Ġcharge": 4719,
    "ĠScissors": 4720,
    "Ġshave": 4721,
    "ĠJoan": 4722,
    "ĠBunny": 4723,
    "Ġlaund": 4724,
    "Ġslithered": 4725,
    "ĠFinn": 4726,
    "Ġrod": 4727,
    "Ġremoved": 4728,
    "ire": 4729,
    "fortable": 4730,
    "Ġbends": 4731,
    "hip": 4732,
    "Ġpoliceman": 4733,
    "ect": 4734,
    "Abracadabra": 4735,
    "age": 4736,
    "au": 4737,
    "Ġsails": 4738,
    "ĠLou": 4739,
    "ĠBop": 4740,
    "ination": 4741,
    "Ġfill": 4742,
    "ĠHoppy": 4743,
    "ĠBella": 4744,
    "Ġsays": 4745,
    "ĠWill": 4746,
    "Ġable": 4747,
    "Ġspe": 4748,
    "Ġarm": 4749,
    "urb": 4750,
    "ĠMon": 4751,
    "ĠSparkle": 4752,
    "Ġavailable": 4753,
    "Ġreass": 4754,
    "ĠChicky": 4755,
    "Ġprotecting": 4756,
    "Ġminutes": 4757,
    "Ġfries": 4758,
    "Ġglared": 4759,
    "Chicky": 4760,
    "Ġbone": 4761,
    "ĠSo": 4762,
    "ummy": 4763,
    "guess": 4764,
    "Ġbuy": 4765,
    "Ġsternly": 4766,
    "cher": 4767,
    "Ġbark": 4768,
    "ĠPeanut": 4769,
    "Ġotters": 4770,
    "ĠRosie": 4771,
    "Ġtidied": 4772,
    "ĠChr": 4773,
    "ause": 4774,
    "Ġcri": 4775,
    "Ġpressed": 4776,
    "Ġsucceeded": 4777,
    "Ġdug": 4778,
    "Ġthanked": 4779,
    "by": 4780,
    "Ġvict": 4781,
    "Ġpocket": 4782,
    "aisies": 4783,
    "à": 4784,
    "bbie": 4785,
    "Ġpirate": 4786,
    "Ġpresses": 4787,
    "oggy": 4788,
    "Le": 4789,
    "Ġstuck": 4790,
    "aster": 4791,
    "ĠFollow": 4792,
    "Ġnosy": 4793,
    "htub": 4794,
    "ĠSm": 4795,
    "Ġsad": 4796,
    "ĠBob": 4797,
    "ctopus": 4798,
    "row": 4799,
    "Ġpainful": 4800,
    "Ġpills": 4801,
    "Ġo": 4802,
    "Ġcir": 4803,
    "Ġqueen": 4804,
    "Ġpie": 4805,
    "Ġmes": 4806,
    "ĠZip": 4807,
    "phant": 4808,
    "Ġsend": 4809,
    "Ġpurple": 4810,
    "Ġtests": 4811,
    "Bird": 4812,
    "mates": 4813,
    "Ġwoods": 4814,
    "Ġstroked": 4815,
    "Ġvegetables": 4816,
    "Ġbalan": 4817,
    "shadow": 4818,
    "iches": 4819,
    "Ġslapping": 4820,
    "istol": 4821,
    "Ġallowed": 4822,
    "Ġnewfound": 4823,
    "Ġflutter": 4824,
    "Ġcrab": 4825,
    "ories": 4826,
    "Ġsquirted": 4827,
    "Sadly": 4828,
    "Ġstayed": 4829,
    "Ġsteal": 4830,
    "over": 4831,
    "c": 4832,
    "Ġt": 4833,
    "lter": 4834,
    "Ġbattle": 4835,
    "ent": 4836,
    "ĠTuna": 4837,
    "Jenny": 4838,
    "Ġbowl": 4839,
    "Ġimp": 4840,
    "ĠPapa": 4841,
    "Ġcontin": 4842,
    "ĠLenny": 4843,
    "Ġfelt": 4844,
    "Ġworse": 4845,
    "Ġexplor": 4846,
    "Ġon": 4847,
    "ĠGrumpy": 4848,
    "Ġrowed": 4849,
    "Jimmy": 4850,
    "Ġglows": 4851,
    "Ġhapp": 4852,
    "Ġmushroom": 4853,
    "oppy": 4854,
    "Ġsquished": 4855,
    "ĠSpin": 4856,
    "ĠChristmas": 4857,
    "Suzie": 4858,
    "th": 4859,
    "Pipp": 4860,
    "Ġart": 4861,
    "Ġmarve": 4862,
    "Ġmuff": 4863,
    "Ġcoop": 4864,
    "Ġuntied": 4865,
    "Ġhardest": 4866,
    "ick": 4867,
    "urp": 4868,
    "pper": 4869,
    "Ġweap": 4870,
    "ĠTerry": 4871,
    "Ġlocal": 4872,
    "Ġfamous": 4873,
    "gan": 4874,
    "ister": 4875,
    "ĠGranny": 4876,
    "Something": 4877,
    "Want": 4878,
    "Ġcarried": 4879,
    "ĠWink": 4880,
    "ged": 4881,
    "Ġinsisted": 4882,
    "own": 4883,
    "ĠBuzz": 4884,
    "Ġlend": 4885,
    "amma": 4886,
    "Ġforget": 4887,
    "Ġhated": 4888,
    "althy": 4889,
    "Ġemergency": 4890,
    "Ġinterest": 4891,
    "Ġoffic": 4892,
    "Ġequ": 4893,
    "Ġrest": 4894,
    "sn": 4895,
    "Ġwoke": 4896,
    "Ġqu": 4897,
    "Ġhangers": 4898,
    "ĠSnuggles": 4899,
    "Ġraindrops": 4900,
    "Ġcalmed": 4901,
    "Ġsparkly": 4902,
    "Ġgolf": 4903,
    "Ġbrains": 4904,
    "Ġsongs": 4905,
    "Ġchasing": 4906,
    "oring": 4907,
    "Ġtired": 4908,
    "This": 4909,
    "Ġspringing": 4910,
    "ore": 4911,
    "ission": 4912,
    "cho": 4913,
    "Suzy": 4914,
    "ĠKaren": 4915,
    "ĠOn": 4916,
    "Ġso": 4917,
    "izz": 4918,
    "Ġwelcoming": 4919,
    "Ġlosing": 4920,
    "he": 4921,
    "Ġappl": 4922,
    "Ġspreading": 4923,
    "¤": 4924,
    "²": 4925,
    "Ġblackboard": 4926,
    "ĠAnne": 4927,
    "Ġscissors": 4928,
    "Ġlandscape": 4929,
    "ĠMay": 4930,
    "al": 4931,
    "ĠMad": 4932,
    "Ġresponsib": 4933,
    "Rocky": 4934,
    "Ġargued": 4935,
    "rs": 4936,
    "Ġstamped": 4937,
    "ĠRebecca": 4938,
    "Ġbride": 4939,
    "Ġcarp": 4940,
    "ĠFe": 4941,
    "iam": 4942,
    "ĠNobody": 4943,
    "Ġreleased": 4944,
    "ass": 4945,
    "ĠâĢľ": 4946,
    "Ġpersistence": 4947,
    "Ġfif": 4948,
    "Ġbuildings": 4949,
    "Ġd": 4950,
    "inal": 4951,
    "Ġmotion": 4952,
    "Ġdolls": 4953,
    "đ": 4954,
    "ĠBo": 4955,
    "Ġpatiently": 4956,
    "isty": 4957,
    "Ġday": 4958,
    "Ġreg": 4959,
    "Ġthr": 4960,
    "Ġnoise": 4961,
    "ĠJerry": 4962,
    "jest": 4963,
    "enty": 4964,
    "Ġcloudy": 4965,
    "ibi": 4966,
    "ou": 4967,
    "Ġfeed": 4968,
    "izzes": 4969,
    "Ġzips": 4970,
    "Ġfollows": 4971,
    "Ow": 4972,
    "Ġhedgehog": 4973,
    "ck": 4974,
    "aced": 4975,
    "iolet": 4976,
    "Ġdrivers": 4977,
    "isk": 4978,
    "Ġrecommended": 4979,
    "Ġharder": 4980,
    "Ġplayers": 4981,
    "Ġnamed": 4982,
    "Ġwag": 4983,
    "Ġpaddling": 4984,
    "Ġtowards": 4985,
    "ĠDavid": 4986,
    "Watch": 4987,
    "Ġarmchair": 4988,
    "Ġwarm": 4989,
    "gly": 4990,
    "Ġprepare": 4991,
    "Ġjoke": 4992,
    "Ġunpacked": 4993,
    "Ġpine": 4994,
    "reverse": 4995,
    "Ġteased": 4996,
    "ĠMagic": 4997,
    "Ġquizzes": 4998,
    "Ġvine": 4999,
    "Mar": 5000,
    "ĠTweety": 5001,
    "Ġcage": 5002,
    "Ġmixed": 5003,
    "Ġheavier": 5004,
    "Û": 5005,
    "Ġgame": 5006,
    "s": 5007,
    "Î": 5008,
    "Mother": 5009,
    "Pinky": 5010,
    "Ġcareful": 5011,
    "ĠCrab": 5012,
    "Ġactor": 5013,
    "Ġstrokes": 5014,
    "ĠBlinky": 5015,
    "ĠĠ": 5016,
    "Ġmeals": 5017,
    "Ġupset": 5018,
    "Toby": 5019,
    "ĠJet": 5020,
    "rons": 5021,
    "Ġdon": 5022,
    "Ġdull": 5023,
    "Ġstomped": 5024,
    "Ġund": 5025,
    "Ġbreaths": 5026,
    "Ġtours": 5027,
    "Ġlawn": 5028,
    "Ġmeasure": 5029,
    "More": 5030,
    "er": 5031,
    "Ġfestival": 5032,
    "amil": 5033,
    "Ġnecklaces": 5034,
    "Ġwhistled": 5035,
    "Ġcaterpillar": 5036,
    "washer": 5037,
    "Ġsus": 5038,
    "aurant": 5039,
    "û": 5040,
    "ĠTre": 5041,
    "Ġartwork": 5042,
    "Ġcracker": 5043,
    "iving": 5044,
    "ume": 5045,
    "Ġcompetition": 5046,
    "nce": 5047,
    "Ġfig": 5048,
    "Ġfireflies": 5049,
    "Ġslipped": 5050,
    "fish": 5051,
    "w": 5052,
    "Ġroar": 5053,
    "ccer": 5054,
    "Ġfirst": 5055,
    "Ġpebb": 5056,
    "et": 5057,
    "ucy": 5058,
    "Ġuseful": 5059,
    "edding": 5060,
    "Ġslowed": 5061,
    "Ġdrinking": 5062,
    "Ġheading": 5063,
    "#": 5064,
    "olin": 5065,
    "Ġbounced": 5066,
    "Ġvo": 5067,
    "ging": 5068,
    "ak": 5069,
    "illie": 5070,
    "Ġnew": 5071,
    "ĠBr": 5072,
    "Ġdirt": 5073,
    "ddie": 5074,
    "ĠStill": 5075,
    "Ġsoar": 5076,
    "Ġphoto": 5077,
    "Ġtaken": 5078,
    "Ġagreement": 5079,
    "Ġunh": 5080,
    "Ġbeyond": 5081,
    "Ġhave": 5082,
    "izes": 5083,
    "Ġwondered": 5084,
    "ĠLuke": 5085,
    "bage": 5086,
    "Ġtears": 5087,
    "Ġcorners": 5088,
    "Ġunlock": 5089,
    "Ġmushrooms": 5090,
    "Ġbran": 5091,
    "Timmy": 5092,
    "reat": 5093,
    "ching": 5094,
    "Ġadventure": 5095,
    "Ġcalls": 5096,
    "Ġreind": 5097,
    "Ġmeant": 5098,
    "Ġbeetles": 5099,
    "Jen": 5100,
    "unday": 5101,
    "ĠPrincess": 5102,
    "Ġen": 5103,
    "Ġmixture": 5104,
    "una": 5105,
    "Freeze": 5106,
    "Ġwaits": 5107,
    "Ġencourage": 5108,
    "ĠBall": 5109,
    "Ġmate": 5110,
    "Ġdrown": 5111,
    "son": 5112,
    "Ġspooky": 5113,
    "Ġsilent": 5114,
    "Ġwait": 5115,
    "Å": 5116,
    "Ġscamp": 5117,
    "ĠYoga": 5118,
    "Ġbat": 5119,
    "ut": 5120,
    "hett": 5121,
    "ments": 5122,
    "rod": 5123,
    "Ġsunrise": 5124,
    "Ġluckiest": 5125,
    "Ġpounds": 5126,
    "ĠCrusty": 5127,
    "Ġplucked": 5128,
    "Ġdrying": 5129,
    "ached": 5130,
    "Ġcarry": 5131,
    "Tony": 5132,
    "Ġcarts": 5133,
    "Ġprecious": 5134,
    "Ġangrier": 5135,
    "ia": 5136,
    "Ġeggs": 5137,
    "Ġpositive": 5138,
    "ĠSing": 5139,
    "icorn": 5140,
    "atter": 5141,
    "xygen": 5142,
    "Ġpolished": 5143,
    "yth": 5144,
    "Ġburied": 5145,
    "Ġonions": 5146,
    "Ġcons": 5147,
    "Ġwis": 5148,
    "Ġfish": 5149,
    "str": 5150,
    "ally": 5151,
    "Ġvis": 5152,
    "Ġstation": 5153,
    "ĠKit": 5154,
    "ĠRyan": 5155,
    "Ġfront": 5156,
    "Ġtwel": 5157,
    "Ì": 5158,
    "Ġpaintings": 5159,
    "?": 5160,
    "Ġdrive": 5161,
    "Ġraft": 5162,
    "Yay": 5163,
    "ĠJul": 5164,
    "Ġlesson": 5165,
    "Ġbeaming": 5166,
    "Olive": 5167,
    "Ġsilence": 5168,
    "Ġwaving": 5169,
    "Ġjournal": 5170,
    "Ġgrew": 5171,
    "Teddy": 5172,
    "itch": 5173,
    "Ġoverwhel": 5174,
    "ĠSpidey": 5175,
    "Ġmissing": 5176,
    "Ġtest": 5177,
    "war": 5178,
    "ĠJessica": 5179,
    "ork": 5180,
    "Ġdaisy": 5181,
    "Ġadds": 5182,
    ".âĢĿ": 5183,
    "Ġscra": 5184,
    "Ġchildren": 5185,
    "Ġmarks": 5186,
    "ĠPenny": 5187,
    "ppers": 5188,
    "eor": 5189,
    "Anna": 5190,
    "emy": 5191,
    "Ġstomach": 5192,
    "Ġparts": 5193,
    "ipped": 5194,
    "Ġmelt": 5195,
    "ature": 5196,
    "Ġbetween": 5197,
    "Ġappreciation": 5198,
    "Have": 5199,
    "ĠBarky": 5200,
    "Ġwisely": 5201,
    "Ġwid": 5202,
    "ĠAnother": 5203,
    "Ġlem": 5204,
    "ise": 5205,
    "Ġwhere": 5206,
    "Ġcracked": 5207,
    "Ġcour": 5208,
    "Ġcompetitive": 5209,
    "Ġlever": 5210,
    "Ġoxygen": 5211,
    "Ġacce": 5212,
    "Ġjoyfully": 5213,
    "ĠToday": 5214,
    "ccol": 5215,
    "Ġfood": 5216,
    "Ġgoodbye": 5217,
    "ĠCats": 5218,
    "Ġbean": 5219,
    "Ġlooked": 5220,
    "ness": 5221,
    "Ġsor": 5222,
    "Woof": 5223,
    "Ġmark": 5224,
    "Ġbeamed": 5225,
    "Ġshivered": 5226,
    "uce": 5227,
    "iri": 5228,
    "Ġaloud": 5229,
    "Ġu": 5230,
    "ĠPippin": 5231,
    "Ġawake": 5232,
    "Ġedges": 5233,
    "ĠSunday": 5234,
    "ĠLizzy": 5235,
    "go": 5236,
    "Ġeasier": 5237,
    "Ġbrakes": 5238,
    "Ġcouch": 5239,
    "cycle": 5240,
    "Ġsqueak": 5241,
    "Je": 5242,
    "\"": 5243,
    "Ġbed": 5244,
    "ĠWonder": 5245,
    "Mimi": 5246,
    "Ġstacked": 5247,
    "Ġsuck": 5248,
    "ter": 5249,
    "Ġcreations": 5250,
    "ĠWorking": 5251,
    "Ġvisitors": 5252,
    "ĠLiza": 5253,
    "Ġsquealed": 5254,
    "Ġshouldn": 5255,
    "erable": 5256,
    "Ġdrowned": 5257,
    "Ġchose": 5258,
    "ĠLaw": 5259,
    "ĠMilo": 5260,
    "Ġcaught": 5261,
    "yond": 5262,
    "Ġhomes": 5263,
    "ets": 5264,
    "Back": 5265,
    "ĠWhoever": 5266,
    "ĠEventually": 5267,
    "Ġorder": 5268,
    "Ġwatering": 5269,
    "Ġmodels": 5270,
    "Ġstyle": 5271,
    "As": 5272,
    "gl": 5273,
    "Liz": 5274,
    "Ġbones": 5275,
    "ĠMonkey": 5276,
    "Ġinvitation": 5277,
    "asha": 5278,
    "Ġdo": 5279,
    "ĠF": 5280,
    "appy": 5281,
    "Ġburning": 5282,
    "Ġcreated": 5283,
    "ee": 5284,
    "enry": 5285,
    "Ġsandw": 5286,
    "Ġlevers": 5287,
    "Before": 5288,
    "Car": 5289,
    "Ġigloo": 5290,
    "Ġprinter": 5291,
    "Ġwinners": 5292,
    "Ġknob": 5293,
    "Ġcomp": 5294,
    "Ġanswering": 5295,
    "dam": 5296,
    "Ġtricks": 5297,
    "oy": 5298,
    "ued": 5299,
    "ĠClose": 5300,
    "ither": 5301,
    "ate": 5302,
    "They": 5303,
    "Ġchain": 5304,
    "ont": 5305,
    "Ġunp": 5306,
    "Ġaboard": 5307,
    "Ġrunning": 5308,
    "Ġbeeh": 5309,
    "ĠPl": 5310,
    "Ď": 5311,
    "Ġgem": 5312,
    "Ġneare": 5313,
    "Ġskill": 5314,
    "Ġfamilies": 5315,
    "Ġspikes": 5316,
    "Ġbunch": 5317,
    "Ġhappy": 5318,
    "Ġking": 5319,
    "Ġweaker": 5320,
    "ĠIf": 5321,
    "Ġcould": 5322,
    "ĠWendy": 5323,
    "erk": 5324,
    "Ġnods": 5325,
    "Ġpeppers": 5326,
    "Ġleave": 5327,
    "ĠPip": 5328,
    "Ġdou": 5329,
    "Ġrecording": 5330,
    "ĠĊĠ": 5331,
    "Tiny": 5332,
    "Ġmagazines": 5333,
    "Ġscurry": 5334,
    "Ġdefinitely": 5335,
    "match": 5336,
    "sses": 5337,
    "Ġsank": 5338,
    "Ġpretended": 5339,
    "Ġdiffere": 5340,
    "Ġpatients": 5341,
    "aur": 5342,
    "Ġdragonfly": 5343,
    "Ġlived": 5344,
    "Ġsol": 5345,
    "Ġcats": 5346,
    "Ġidea": 5347,
    "Ġtoday": 5348,
    "ard": 5349,
    "llen": 5350,
    "Ġexplaining": 5351,
    "Ġclock": 5352,
    "Ġnavy": 5353,
    "Ġpop": 5354,
    "Ġwarrior": 5355,
    "ĠMag": 5356,
    "ort": 5357,
    "isses": 5358,
    "Ġfaced": 5359,
    "Ġwaff": 5360,
    "Ġcafe": 5361,
    "Ġres": 5362,
    "ĠWinky": 5363,
    "Ġrecorded": 5364,
    "ar": 5365,
    "Ġlongest": 5366,
    "Ġrepairing": 5367,
    "Õ": 5368,
    "ming": 5369,
    "bell": 5370,
    "Ġdecisions": 5371,
    "Ġgoose": 5372,
    "Ġstopping": 5373,
    "Ġbothered": 5374,
    "Ġrefreshing": 5375,
    "il": 5376,
    "anna": 5377,
    "Ġchooses": 5378,
    "affes": 5379,
    "Ġweak": 5380,
    "alf": 5381,
    "ĠDuck": 5382,
    "Ġoften": 5383,
    "rag": 5384,
    "Ġsouvenir": 5385,
    "Ġdriveway": 5386,
    "Ġinterested": 5387,
    "Ġbuddy": 5388,
    "Ġsleepy": 5389,
    "Ġbo": 5390,
    "ĥ": 5391,
    "Ġdeclared": 5392,
    "otion": 5393,
    "Ġpracticed": 5394,
    "Ġwell": 5395,
    "Ġknock": 5396,
    "Ġpencils": 5397,
    "Ġdigg": 5398,
    "Ġcurtains": 5399,
    "Ġregretted": 5400,
    "Ġplace": 5401,
    "Ġquarrel": 5402,
    "Ġsupport": 5403,
    "*": 5404,
    "ĠChloe": 5405,
    "Ġclown": 5406,
    "ordinary": 5407,
    "Ġpens": 5408,
    "Ġskies": 5409,
    "vision": 5410,
    "Ġsurround": 5411,
    "bby": 5412,
    "zen": 5413,
    "Ġcalling": 5414,
    "Ġseesaw": 5415,
    "Ġberries": 5416,
    "Ġgrandchild": 5417,
    "Ġtool": 5418,
    "Ġmomma": 5419,
    "stand": 5420,
    "ĠAnt": 5421,
    "ĠJenny": 5422,
    "ĠIs": 5423,
    "Penny": 5424,
    "Ġchick": 5425,
    "Ġplan": 5426,
    "aps": 5427,
    "ophie": 5428,
    "Ġnoticing": 5429,
    "Ġclip": 5430,
    "Ġchirp": 5431,
    "Ġofficers": 5432,
    "Ġwhines": 5433,
    "ĠMake": 5434,
    "Ġcares": 5435,
    "Blue": 5436,
    "ital": 5437,
    "ingly": 5438,
    "Carl": 5439,
    "umbling": 5440,
    "ĠLi": 5441,
    "Ġcrashing": 5442,
    "Ġchews": 5443,
    "Ġsaw": 5444,
    "mered": 5445,
    "Ġtrading": 5446,
    "Ġapplaud": 5447,
    "Ġcovers": 5448,
    "Ġden": 5449,
    "Ġadm": 5450,
    "erpill": 5451,
    "hero": 5452,
    "cake": 5453,
    "'s": 5454,
    "ever": 5455,
    "Ġgir": 5456,
    "Ġcurly": 5457,
    "Ġholes": 5458,
    "Ġending": 5459,
    "Ġobedient": 5460,
    "Ġselfish": 5461,
    "box": 5462,
    "Froggy": 5463,
    "Ġreveal": 5464,
    "Ġbetter": 5465,
    "Ġnewsp": 5466,
    "Ġtrick": 5467,
    "Ġpres": 5468,
    "Ġmajest": 5469,
    "Ġj": 5470,
    "Ġoldest": 5471,
    "Ġeach": 5472,
    "unately": 5473,
    "Ġquiz": 5474,
    "Ġcobweb": 5475,
    "ª": 5476,
    "Ġleader": 5477,
    "ĠBrown": 5478,
    "asp": 5479,
    "Ġgrowled": 5480,
    "Ġtalents": 5481,
    "Ġsight": 5482,
    "Ġlaying": 5483,
    "Ġcrunch": 5484,
    "ebook": 5485,
    "Many": 5486,
    "laimed": 5487,
    "Ġsweeties": 5488,
    "ousy": 5489,
    "Ġintellig": 5490,
    "anging": 5491,
    "Ġinviting": 5492,
    "ino": 5493,
    "na": 5494,
    "Ġguest": 5495,
    "Ġraking": 5496,
    "Ġlegs": 5497,
    "Ġcrisp": 5498,
    "Ġventured": 5499,
    "Ġrise": 5500,
    "ĠJames": 5501,
    "ĠCharlie": 5502,
    "ĠAnd": 5503,
    "Ġgained": 5504,
    "Ġconcer": 5505,
    "Ġdi": 5506,
    "Ġcandles": 5507,
    "Ġargu": 5508,
    "Ġcarries": 5509,
    "'ll": 5510,
    "ĠIt": 5511,
    "Ġramp": 5512,
    "Ġnoticed": 5513,
    "Ġspices": 5514,
    "x": 5515,
    "Ġboun": 5516,
    "ĠGilly": 5517,
    "omet": 5518,
    "ĠPinch": 5519,
    "Ġpurpose": 5520,
    "Ġwaved": 5521,
    "Ġgen": 5522,
    "ĠG": 5523,
    "Ġcolored": 5524,
    "ĠBally": 5525,
    "Ġneed": 5526,
    "Ġneighb": 5527,
    "X": 5528,
    "Ġpeacefully": 5529,
    "Ġstriking": 5530,
    "Al": 5531,
    "ug": 5532,
    "Ġtaking": 5533,
    "Ġdelivering": 5534,
    "N": 5535,
    "Ġf": 5536,
    "Ġghost": 5537,
    "Ġcontinued": 5538,
    "itting": 5539,
    "Ġcloses": 5540,
    "ris": 5541,
    "are": 5542,
    "Ġthrow": 5543,
    "Ġpuppet": 5544,
    "Ġsyrup": 5545,
    "Ġcried": 5546,
    "Ġspins": 5547,
    "hen": 5548,
    "iversity": 5549,
    "Ġbroke": 5550,
    "Ġunfortunately": 5551,
    "erpiece": 5552,
    "Ġmatter": 5553,
    "Ġbabies": 5554,
    "Ġprayer": 5555,
    "Ġimpatient": 5556,
    "dd": 5557,
    "Ġthough": 5558,
    "Ġgrandpa": 5559,
    "Ġcounts": 5560,
    "Nothing": 5561,
    "Ġshorts": 5562,
    "Ġkids": 5563,
    "ized": 5564,
    "Ġtrack": 5565,
    "Ġpicture": 5566,
    "Ġanother": 5567,
    "ĠCoco": 5568,
    "Ġspr": 5569,
    "!": 5570,
    "dding": 5571,
    "bble": 5572,
    "Ġsmelt": 5573,
    "Ġallow": 5574,
    "Ġho": 5575,
    "ĠGood": 5576,
    "Ġbleed": 5577,
    "Ġveggies": 5578,
    "Ġwishes": 5579,
    "Ġclosing": 5580,
    "Ġfrozen": 5581,
    "uesday": 5582,
    "Ġscrew": 5583,
    "Sunny": 5584,
    "Ġrunner": 5585,
    "Ġdrifted": 5586,
    "Ġthink": 5587,
    "Ġmov": 5588,
    "Ġexcitement": 5589,
    "Yuck": 5590,
    "Ġalley": 5591,
    "Thank": 5592,
    "See": 5593,
    "Ġnoon": 5594,
    "Ġdump": 5595,
    "Ġcracks": 5596,
    "Ġdarlings": 5597,
    "Ġraining": 5598,
    "Ġdetails": 5599,
    "Ġthreat": 5600,
    "ther": 5601,
    "ĠCally": 5602,
    "Outside": 5603,
    "Ġerase": 5604,
    "Ġpill": 5605,
    "Ġrobber": 5606,
    "Ġhead": 5607,
    "rily": 5608,
    "ĠPeople": 5609,
    "ĠGold": 5610,
    "Ġcrowns": 5611,
    "Ġyells": 5612,
    "Ġyarn": 5613,
    "ail": 5614,
    "Ġinvite": 5615,
    "Ġpeeking": 5616,
    "ob": 5617,
    "ising": 5618,
    "Ę": 5619,
    "6": 5620,
    "umb": 5621,
    "Ġpeeked": 5622,
    "Ġatt": 5623,
    "aye": 5624,
    "ĠDanny": 5625,
    "Yeah": 5626,
    "Ġmisses": 5627,
    "Ġperfect": 5628,
    "Ġmeal": 5629,
    "Ġyacht": 5630,
    "uddenly": 5631,
    "Ġannoyed": 5632,
    "Ġcook": 5633,
    "Ġexample": 5634,
    "Ġescap": 5635,
    "Ġpigeon": 5636,
    "Ġcooking": 5637,
    "Ġdam": 5638,
    "Momma": 5639,
    "Ġanger": 5640,
    "ting": 5641,
    "ward": 5642,
    "Ġrestore": 5643,
    "Kate": 5644,
    "Ġtasty": 5645,
    "Ġdoors": 5646,
    "Poppy": 5647,
    "Ġopera": 5648,
    "usted": 5649,
    "µ": 5650,
    "Ġsighs": 5651,
    "Ġdro": 5652,
    "Ġsalon": 5653,
    "re": 5654,
    "ĠAndrew": 5655,
    "Ġmade": 5656,
    "iding": 5657,
    "Ġzooms": 5658,
    "Ġtalent": 5659,
    "ses": 5660,
    "Ġsaying": 5661,
    "fast": 5662,
    "ative": 5663,
    "ĠAbigail": 5664,
    "ight": 5665,
    "ĠIts": 5666,
    "Owl": 5667,
    "ĠFriend": 5668,
    "Ġresc": 5669,
    "elvet": 5670,
    "Ġpasta": 5671,
    "Ġmiller": 5672,
    "quito": 5673,
    "inking": 5674,
    "light": 5675,
    "Ġeag": 5676,
    "ĠMoon": 5677,
    "ĠLarry": 5678,
    "annah": 5679,
    "Ġtwirl": 5680,
    "Ġexplorers": 5681,
    "Ġrespond": 5682,
    "Ġstyles": 5683,
    "anged": 5684,
    "Sammy": 5685,
    "Ġfighting": 5686,
    "Ġshining": 5687,
    "Today": 5688,
    "Ġcamp": 5689,
    "Ġvalued": 5690,
    "Her": 5691,
    "Ġrefused": 5692,
    "eep": 5693,
    "Ġter": 5694,
    "ign": 5695,
    "Ġwet": 5696,
    "Ġate": 5697,
    "Ġyelp": 5698,
    "Ġbeh": 5699,
    "ĠJim": 5700,
    "Ġshowed": 5701,
    "Ġsummer": 5702,
    "Ġextraordinary": 5703,
    "Ġoat": 5704,
    "Ġwork": 5705,
    "Ġstood": 5706,
    "bird": 5707,
    "ai": 5708,
    "Ġsleep": 5709,
    "Ġfloor": 5710,
    "Ġteac": 5711,
    "Ġvillage": 5712,
    "ash": 5713,
    "udy": 5714,
    "elly": 5715,
    "Ġoy": 5716,
    "Ġcircle": 5717,
    "ĠHow": 5718,
    "izzy": 5719,
    "Ġnurse": 5720,
    "Ġuniform": 5721,
    "George": 5722,
    "Ġnicer": 5723,
    "Ġwhatever": 5724,
    "hing": 5725,
    "ĠWolf": 5726,
    "Ġgod": 5727,
    "udd": 5728,
    "Ġswimming": 5729,
    "elery": 5730,
    "per": 5731,
    "Ġyellow": 5732,
    "Ġtwisting": 5733,
    "ĠSophie": 5734,
    "ĠLuna": 5735,
    "Ġearthquake": 5736,
    "Ġpepper": 5737,
    "Ġknee": 5738,
    "ctric": 5739,
    "Ġgiven": 5740,
    "Ġwore": 5741,
    "father": 5742,
    "Ġhuge": 5743,
    "Ġgrate": 5744,
    "robe": 5745,
    "Ġgenerosity": 5746,
    "Ġdelicate": 5747,
    "acing": 5748,
    "Ġanswer": 5749,
    "Ġcrawled": 5750,
    "Ġsoldier": 5751,
    "Ġhopeful": 5752,
    "Ġsingle": 5753,
    "Ġbirdcage": 5754,
    "Ġwords": 5755,
    "abbit": 5756,
    "Ġwhale": 5757,
    "Ġfancy": 5758,
    "Ġbadger": 5759,
    "Ġturn": 5760,
    "Ġlime": 5761,
    "Ġfixed": 5762,
    "acles": 5763,
    "ĠTV": 5764,
    "Ġmotorcycle": 5765,
    "Ġfox": 5766,
    "Ġdiscovering": 5767,
    "Jim": 5768,
    "romise": 5769,
    "Ġdirections": 5770,
    "Peter": 5771,
    "Ġimport": 5772,
    "Ġachieve": 5773,
    "ĠClara": 5774,
    "fort": 5775,
    "ĠQuickly": 5776,
    "ĠSof": 5777,
    "Ġthrone": 5778,
    "cil": 5779,
    "zing": 5780,
    "Ġcame": 5781,
    "Ġjoining": 5782,
    "Ġunusual": 5783,
    "ĠWhite": 5784,
    "iet": 5785,
    "Ġmouths": 5786,
    "ld": 5787,
    "Ġsneaks": 5788,
    "Ġaw": 5789,
    "Ġhitting": 5790,
    "Į": 5791,
    "ĠW": 5792,
    "Ġcoll": 5793,
    "Ġstealing": 5794,
    "ĠSorry": 5795,
    "Ġgoals": 5796,
    "Ġonwards": 5797,
    "Ġpair": 5798,
    "ude": 5799,
    "weed": 5800,
    "Ġjumped": 5801,
    "Ġpretends": 5802,
    "It": 5803,
    "Ġphot": 5804,
    "Ġrainy": 5805,
    "Ġopp": 5806,
    "Ġsame": 5807,
    "D": 5808,
    "es": 5809,
    "Ġcomforting": 5810,
    "iction": 5811,
    "Ġcush": 5812,
    "Ġdan": 5813,
    "Ġnice": 5814,
    "ĠBubb": 5815,
    "Ġtrap": 5816,
    "Ġpurrs": 5817,
    "Ġworked": 5818,
    "Ġbur": 5819,
    "Ġnewspapers": 5820,
    "Á": 5821,
    "rey": 5822,
    "Ġplug": 5823,
    "ĠBoat": 5824,
    "Ġpotion": 5825,
    "Ġstarfish": 5826,
    "Ġbells": 5827,
    "Ġbell": 5828,
    "Daddy": 5829,
    "Ġmoments": 5830,
    "Later": 5831,
    "Ġafter": 5832,
    "Ġdrop": 5833,
    "Ġexamp": 5834,
    "ead": 5835,
    "Be": 5836,
    "Ġsped": 5837,
    "Ġsmall": 5838,
    "nam": 5839,
    "Ġpretending": 5840,
    "Ġrepair": 5841,
    "ccoli": 5842,
    "Ġagain": 5843,
    "Ġremain": 5844,
    "rew": 5845,
    "Ġturkey": 5846,
    "Ġsailed": 5847,
    "lee": 5848,
    "how": 5849,
    "Ġblooms": 5850,
    "Ġcloser": 5851,
    "ë": 5852,
    "Ġpu": 5853,
    "R": 5854,
    "ĠPinky": 5855,
    "Ġstatues": 5856,
    "Ġmailbox": 5857,
    "ĠZoom": 5858,
    "Ġbreaking": 5859,
    "ĠFlicker": 5860,
    "Ġrelax": 5861,
    "Ġlung": 5862,
    "Sh": 5863,
    "Ġweek": 5864,
    "ig": 5865,
    "Ġpond": 5866,
    "Ġinches": 5867,
    "ĠYellow": 5868,
    "Ġglided": 5869,
    "Ġintrod": 5870,
    "Ġcontest": 5871,
    "olog": 5872,
    "ĠToo": 5873,
    "ulf": 5874,
    "Ġwaking": 5875,
    "Ġstay": 5876,
    "ĠR": 5877,
    "ķ": 5878,
    "araway": 5879,
    "ĠGive": 5880,
    "Ġchuckled": 5881,
    "Ġeye": 5882,
    "Ġcollap": 5883,
    "av": 5884,
    "Ġbending": 5885,
    "Ġrun": 5886,
    "Ġneighbours": 5887,
    "Ġenough": 5888,
    "upt": 5889,
    "quake": 5890,
    "Ġsa": 5891,
    "Ġsear": 5892,
    "und": 5893,
    "Ġlull": 5894,
    "Ġ2": 5895,
    "ĠAs": 5896,
    "Ġrepaired": 5897,
    "Ġpeeped": 5898,
    "Ġairport": 5899,
    "Ġladder": 5900,
    "Ġpractice": 5901,
    "ctory": 5902,
    "Ġhusband": 5903,
    "Ġmove": 5904,
    "Ġskin": 5905,
    "Ġprevented": 5906,
    "Ġsquares": 5907,
    "Ġuncomfortable": 5908,
    "Ġstew": 5909,
    "ari": 5910,
    "Ġhoops": 5911,
    "Ġaeroplanes": 5912,
    "alloween": 5913,
    "Ġoccas": 5914,
    "angaroo": 5915,
    "Ġcat": 5916,
    "ters": 5917,
    "Ġparty": 5918,
    "Ġingredients": 5919,
    "Ġtal": 5920,
    "Ġshelter": 5921,
    "Ġcowb": 5922,
    "Ġsky": 5923,
    "ĠBingo": 5924,
    "Buzz": 5925,
    "Ġeverybody": 5926,
    "Ġenthusiasm": 5927,
    "ay": 5928,
    "artled": 5929,
    "mend": 5930,
    "ĠPrin": 5931,
    "Ġshot": 5932,
    "Ġexha": 5933,
    "ĠSara": 5934,
    "Ġenv": 5935,
    "Ġcages": 5936,
    "Ġunus": 5937,
    "Ġsize": 5938,
    "ilot": 5939,
    "Ġschool": 5940,
    "Ġro": 5941,
    "Follow": 5942,
    "des": 5943,
    "Ġdoves": 5944,
    "ween": 5945,
    "Ġneighbourhood": 5946,
    "Ġshy": 5947,
    "irit": 5948,
    "Ġclearing": 5949,
    "Ġreminder": 5950,
    "ren": 5951,
    "Ġpeep": 5952,
    "Ġsat": 5953,
    "âĢĶ": 5954,
    "ģ": 5955,
    "Ġpressing": 5956,
    "ĠCatty": 5957,
    "Ġwinning": 5958,
    "Ġsurrender": 5959,
    "Ġloose": 5960,
    "Ġbelow": 5961,
    "Ġkite": 5962,
    "Ġache": 5963,
    "Ġpancakes": 5964,
    "Ġbound": 5965,
    "rap": 5966,
    "Ġlying": 5967,
    "Ġquite": 5968,
    "Ġwept": 5969,
    "Isn": 5970,
    "Ġgrassy": 5971,
    "Ġneighbors": 5972,
    "Ġsu": 5973,
    "Ġimmediately": 5974,
    "ĠNe": 5975,
    "Ġsweets": 5976,
    "Ė": 5977,
    "Ġtwinkled": 5978,
    "Ġshopkeeper": 5979,
    "Ġresist": 5980,
    "wise": 5981,
    "Ġmayor": 5982,
    "ĠMatt": 5983,
    "Fly": 5984,
    "Ġtidying": 5985,
    "Ġsliding": 5986,
    "ey": 5987,
    "Ġdecides": 5988,
    "Ġpennies": 5989,
    "Ġmelted": 5990,
    "Ġhungry": 5991,
    "ĠMatilda": 5992,
    "Ġwaterfall": 5993,
    "Ġtelevision": 5994,
    "Ġadult": 5995,
    "Ġmagnets": 5996,
    "Ġenormous": 5997,
    "unity": 5998,
    "ĠTheir": 5999,
    "ian": 6000,
    "Ġhorizon": 6001,
    "Ben": 6002,
    "Ġblankets": 6003,
    "Ġashtray": 6004,
    "Ġey": 6005,
    "Ġdid": 6006,
    "le": 6007,
    "Ġpermission": 6008,
    "Ġsnatched": 6009,
    "Ġpedals": 6010,
    "chie": 6011,
    "Ġmed": 6012,
    "Ġadmire": 6013,
    "Never": 6014,
    "Ġposs": 6015,
    "ĠMonster": 6016,
    "Ġpengu": 6017,
    "Ġsi": 6018,
    "Ġhis": 6019,
    "Ġlicense": 6020,
    "Ġwaddled": 6021,
    "Ġrespectful": 6022,
    "ĠSnowy": 6023,
    "Ġapproach": 6024,
    "ĠMin": 6025,
    "ve": 6026,
    "Ġchubby": 6027,
    "Ġrob": 6028,
    "Ġpro": 6029,
    "omed": 6030,
    "Ġexch": 6031,
    "Ġavo": 6032,
    "Ġrobin": 6033,
    "ĠBl": 6034,
    "Ġmailman": 6035,
    "İ": 6036,
    "ĠTr": 6037,
    "Ġhates": 6038,
    "Ġrele": 6039,
    "Ġcutting": 6040,
    "Ġput": 6041,
    "Ġboring": 6042,
    "Ġweighed": 6043,
    "Ġsurface": 6044,
    "Ġpenguins": 6045,
    "ĠBarry": 6046,
    "Ġsprays": 6047,
    "Yum": 6048,
    "Ġmagnet": 6049,
    "Ġenjoyable": 6050,
    "pp": 6051,
    "ĠHopper": 6052,
    "Ġabo": 6053,
    "Ġstep": 6054,
    "oud": 6055,
    "Ġcurl": 6056,
    "Ġpuddle": 6057,
    "Ġflick": 6058,
    "ĠJulia": 6059,
    "Ġmatt": 6060,
    "Ġcowboy": 6061,
    "Ġowners": 6062,
    "Ġdisagree": 6063,
    "l": 6064,
    "Ġhours": 6065,
    "ĠRain": 6066,
    "Frank": 6067,
    "Ġlater": 6068,
    "Ġunique": 6069,
    "order": 6070,
    "Ġchoosing": 6071,
    "ĠSure": 6072,
    "Ġtraveling": 6073,
    "Ġbooks": 6074,
    "lves": 6075,
    "Ġteacher": 6076,
    "Ġecho": 6077,
    "igers": 6078,
    "Ġcomplained": 6079,
    "Ç": 6080,
    "Ġarea": 6081,
    "Ġunderwater": 6082,
    "Ġvanished": 6083,
    "Ġsteth": 6084,
    "Ġcrystals": 6085,
    "llo": 6086,
    "Ġliked": 6087,
    "Ġwalls": 6088,
    "Ġborn": 6089,
    "ĠIron": 6090,
    "ĠAbby": 6091,
    "working": 6092,
    "Ġstuffed": 6093,
    "Ġbench": 6094,
    "aura": 6095,
    "Ġcounted": 6096,
    "iggly": 6097,
    "ĠSpeed": 6098,
    "ern": 6099,
    "Ġmountain": 6100,
    "Rock": 6101,
    "Ġnoisy": 6102,
    "Ġglove": 6103,
    "ĠToby": 6104,
    "Ġdear": 6105,
    "Ġrece": 6106,
    "Ġword": 6107,
    "ighed": 6108,
    "Ġair": 6109,
    "good": 6110,
    "ĠCher": 6111,
    "cident": 6112,
    "Afterwards": 6113,
    "Ġmanager": 6114,
    "Ġscrub": 6115,
    "Ġthroughout": 6116,
    "Ġtheir": 6117,
    "Ġhad": 6118,
    "gg": 6119,
    "Ġrecogn": 6120,
    "Ġthose": 6121,
    "Ġplates": 6122,
    "Ġdrift": 6123,
    "ĠRoo": 6124,
    "Ġdif": 6125,
    "Ġgooey": 6126,
    "Ġdisobey": 6127,
    "etch": 6128,
    "Ġlending": 6129,
    "Ġcity": 6130,
    "act": 6131,
    "Ġhook": 6132,
    "Ġwhich": 6133,
    "Am": 6134,
    "ults": 6135,
    "Ġstudy": 6136,
    "Ġtea": 6137,
    "Ġdeeper": 6138,
    "render": 6139,
    "ĠSanta": 6140,
    "aspoon": 6141,
    "Ġplate": 6142,
    "Ġflow": 6143,
    "crow": 6144,
    "pect": 6145,
    "ĠPeter": 6146,
    "Ġknocks": 6147,
    "Bl": 6148,
    "itten": 6149,
    "line": 6150,
    "ĠLina": 6151,
    "Ġexerc": 6152,
    "Ġusual": 6153,
    "Ġshouts": 6154,
    "vous": 6155,
    "ĠRocky": 6156,
    "Ġgrand": 6157,
    "aws": 6158,
    "ĠPete": 6159,
    "Ġbrace": 6160,
    "Ġang": 6161,
    "Ġfun": 6162,
    "Ġambulance": 6163,
    "Ġflying": 6164,
    "Ġrail": 6165,
    "Ġgrocery": 6166,
    "Ġlives": 6167,
    "Ġtickles": 6168,
    "Ġph": 6169,
    "Always": 6170,
    "ĠSu": 6171,
    "Ġpan": 6172,
    "Ġbracelet": 6173,
    "Ġescape": 6174,
    "Ġbookshe": 6175,
    "Ġwhispering": 6176,
    "Bug": 6177,
    "Ġfence": 6178,
    "ĠTry": 6179,
    "Ġamazing": 6180,
    "ĠK": 6181,
    "do": 6182,
    "Ġbee": 6183,
    "Ġbaking": 6184,
    "Ġstri": 6185,
    "Ġscreamed": 6186,
    "Ġladybug": 6187,
    "Ġkay": 6188,
    "Ġfisherman": 6189,
    "ĠUniversity": 6190,
    "Ġcuriously": 6191,
    "Ġcouldn": 6192,
    "Ġbookshelf": 6193,
    "urrender": 6194,
    "ĠHelen": 6195,
    "Ġblouse": 6196,
    "Ġcarrying": 6197,
    "Ġloop": 6198,
    "Ġsto": 6199,
    "ĠMicroscope": 6200,
    "ĠHarry": 6201,
    "Ġgardens": 6202,
    "Kim": 6203,
    "why": 6204,
    "ĠZog": 6205,
    "Ġhorses": 6206,
    "Ġhearing": 6207,
    "Ġpus": 6208,
    "Wally": 6209,
    "Ġdifferent": 6210,
    "hole": 6211,
    "Ġbeginning": 6212,
    "Ġcolder": 6213,
    "Ġcrowd": 6214,
    "Ġweigh": 6215,
    "ailable": 6216,
    "Once": 6217,
    "gether": 6218,
    "Ġduck": 6219,
    "ĠLand": 6220,
    "Ġsurprise": 6221,
    "ĠMo": 6222,
    "ĠMummy": 6223,
    "Ġfro": 6224,
    "Ġhears": 6225,
    "ĠRed": 6226,
    "Luckily": 6227,
    "ais": 6228,
    "Ġcomfort": 6229,
    "Ġcaused": 6230,
    "Ġhard": 6231,
    "urniture": 6232,
    "fe": 6233,
    "ĠWhale": 6234,
    "Ġastronaut": 6235,
    "Ġpencil": 6236,
    "ony": 6237,
    "sed": 6238,
    "Ġmustache": 6239,
    "a": 6240,
    "Ġdead": 6241,
    "Ġmonkey": 6242,
    "ĠRachel": 6243,
    "aisy": 6244,
    "Ġsmallest": 6245,
    "Ġwhose": 6246,
    "Ġtruth": 6247,
    "Ġvibr": 6248,
    "Ġcrossing": 6249,
    "ĠMia": 6250,
    "Ġpurp": 6251,
    "Ġgrocer": 6252,
    "Ġunable": 6253,
    "Ġbuilding": 6254,
    "Ġstall": 6255,
    "Ġhippo": 6256,
    "Ġbroken": 6257,
    "Ġinsist": 6258,
    "ĠWithout": 6259,
    "Ġbut": 6260,
    "Ġattaching": 6261,
    "lly": 6262,
    "Ġparrot": 6263,
    "}": 6264,
    "bang": 6265,
    "Ġmoves": 6266,
    "ĠThank": 6267,
    "ĠHolly": 6268,
    "Ġgu": 6269,
    "Ġworth": 6270,
    "ĠMuffin": 6271,
    "Ġshine": 6272,
    "Ġpinched": 6273,
    "Ġdiscoveries": 6274,
    "Come": 6275,
    "ĠChirp": 6276,
    "Ġdiscussed": 6277,
    "ĠBones": 6278,
    "isapp": 6279,
    "Ġwashes": 6280,
    "Ġmusician": 6281,
    "Ġlower": 6282,
    "Ġbeep": 6283,
    "Does": 6284,
    "Ġleaf": 6285,
    "Ġtwir": 6286,
    "Zip": 6287,
    "Mat": 6288,
    "Ġcu": 6289,
    "lowers": 6290,
    "Ġmuch": 6291,
    "Ġdep": 6292,
    "ĠSharing": 6293,
    "Ġrude": 6294,
    "Ġsmart": 6295,
    "Ġnoses": 6296,
    "Maybe": 6297,
    "÷": 6298,
    "Ġcircles": 6299,
    "Hey": 6300,
    "Ġsang": 6301,
    "anny": 6302,
    "Ġreluctantly": 6303,
    "Ġencouraged": 6304,
    "Ġuntil": 6305,
    "ĠJu": 6306,
    "ĠGeorge": 6307,
    "Ġpotato": 6308,
    "Ġspo": 6309,
    "op": 6310,
    "ĠJones": 6311,
    "Ġenergetic": 6312,
    "onna": 6313,
    "uno": 6314,
    "sm": 6315,
    "Ġmiserable": 6316,
    "Ġshed": 6317,
    "Ġsighed": 6318,
    "Ġurge": 6319,
    "ack": 6320,
    "Ġchecking": 6321,
    "Ġplaydate": 6322,
    "Ġpaid": 6323,
    "Ġgrapes": 6324,
    "Ġslow": 6325,
    "fire": 6326,
    "cited": 6327,
    "Ġrocked": 6328,
    "Ġdisc": 6329,
    "ĩ": 6330,
    "Ġtrunk": 6331,
    "Ġthinking": 6332,
    "Ġsens": 6333,
    "ons": 6334,
    "aved": 6335,
    "Ġinchworm": 6336,
    "Ġelevator": 6337,
    "Ġfore": 6338,
    "Ġmints": 6339,
    "Ġswim": 6340,
    "Ġrecognized": 6341,
    "Ġcoats": 6342,
    "Ġinstrument": 6343,
    "Ë": 6344,
    "Ġsculpture": 6345,
    "lace": 6346,
    "Ġcaptain": 6347,
    "Ġdifferences": 6348,
    "Ġaliens": 6349,
    "Ġsteering": 6350,
    "ĠHoney": 6351,
    "ult": 6352,
    "Ġgreedy": 6353,
    "Ġnicely": 6354,
    "Ġbike": 6355,
    "Ġexplore": 6356,
    "Ġlady": 6357,
    "ĠMan": 6358,
    "Ġbelieving": 6359,
    "Ġpool": 6360,
    "Lila": 6361,
    "Ġworking": 6362,
    "ester": 6363,
    "Ġhut": 6364,
    "Ġmos": 6365,
    "ure": 6366,
    "Ann": 6367,
    "Ġyelling": 6368,
    "Ġyummy": 6369,
    "luffy": 6370,
    "Ġchilly": 6371,
    "water": 6372,
    "Ġscru": 6373,
    "Ġchalk": 6374,
    "ĠOkay": 6375,
    "ellig": 6376,
    "Ġtails": 6377,
    "Ġannoy": 6378,
    "ô": 6379,
    "Ġhug": 6380,
    "Ġsett": 6381,
    "Ġpokes": 6382,
    "Ġdeliver": 6383,
    "upid": 6384,
    "Ġheav": 6385,
    "ĠWith": 6386,
    "Ġperfume": 6387,
    "Ġbacks": 6388,
    "ĠFreddie": 6389,
    "Ġexit": 6390,
    "ĠEven": 6391,
    "Ġimpress": 6392,
    "Ġscattered": 6393,
    "Ġwound": 6394,
    "fall": 6395,
    "Ġabove": 6396,
    "dies": 6397,
    "Danger": 6398,
    "Ġlent": 6399,
    "Ġplayroom": 6400,
    "Ġprince": 6401,
    "Ġringing": 6402,
    "Ġheld": 6403,
    "Ġkiss": 6404,
    "achel": 6405,
    "Ġcrunchy": 6406,
    "Andy": 6407,
    "Coco": 6408,
    "Hello": 6409,
    "Ġcontain": 6410,
    "ael": 6411,
    "Ġcome": 6412,
    "ĠGrandma": 6413,
    "Ġfull": 6414,
    "Ġsheep": 6415,
    "ention": 6416,
    "ĠBy": 6417,
    "Ġarrived": 6418,
    "aky": 6419,
    "ĠThanks": 6420,
    "Ġinside": 6421,
    "Ġcomple": 6422,
    "Ġdragons": 6423,
    "á": 6424,
    "ag": 6425,
    "Ġfaucet": 6426,
    "Ġsearch": 6427,
    "Ġshells": 6428,
    "Ġdisapp": 6429,
    "Ġpipe": 6430,
    "ĠReddy": 6431,
    "ĠGreen": 6432,
    "Ġproblems": 6433,
    "Polly": 6434,
    "cess": 6435,
    "Ġmarked": 6436,
    ",'": 6437,
    "ĠJean": 6438,
    "Ġhorn": 6439,
    "ashed": 6440,
    "Ġchuck": 6441,
    "ndpa": 6442,
    "pping": 6443,
    "Is": 6444,
    "Ġtempt": 6445,
    "ĠSugar": 6446,
    "ĠEddie": 6447,
    "om": 6448,
    "Ġbank": 6449,
    "aught": 6450,
    "Ġdressing": 6451,
    "Ġsupplied": 6452,
    "Ġmeasuring": 6453,
    "ĠMath": 6454,
    "dile": 6455,
    "Ġcontinue": 6456,
    "iki": 6457,
    "Ġfloat": 6458,
    "Ġstains": 6459,
    "Remy": 6460,
    "Ġtangled": 6461,
    "Ġmesmer": 6462,
    "ensive": 6463,
    "Ġforgiven": 6464,
    "Ġfishes": 6465,
    "Ġkayak": 6466,
    "Ġbaseball": 6467,
    "Ġdrops": 6468,
    "ĠMax": 6469,
    "Ġpumpkin": 6470,
    "Ġbathrobe": 6471,
    "Ġexperien": 6472,
    "neath": 6473,
    "ret": 6474,
    "Ġflapped": 6475,
    "Ġpige": 6476,
    "Ġtogether": 6477,
    "iginal": 6478,
    "ĠApp": 6479,
    "Ġboot": 6480,
    "rnie": 6481,
    "Ġstacks": 6482,
    "cuse": 6483,
    "Ġbaby": 6484,
    "Ġtraps": 6485,
    "amp": 6486,
    "Ġjack": 6487,
    "essie": 6488,
    "ĠGray": 6489,
    "allow": 6490,
    "Ġdrew": 6491,
    "Ġprincesses": 6492,
    "Ġapproached": 6493,
    "abelle": 6494,
    "oh": 6495,
    "Ġbag": 6496,
    "ĠEveryday": 6497,
    "Ġpassen": 6498,
    "Đ": 6499,
    "Ġank": 6500,
    "Ġpass": 6501,
    "ĠSusie": 6502,
    "Ġscram": 6503,
    "½": 6504,
    "Ġlo": 6505,
    "Ġimpressed": 6506,
    "umes": 6507,
    "arm": 6508,
    "Ġkicks": 6509,
    "imed": 6510,
    "ĠNancy": 6511,
    "Ġchange": 6512,
    "Got": 6513,
    "Ġcomputers": 6514,
    "Ġmarket": 6515,
    "Leo": 6516,
    "ĠBaa": 6517,
    "Ġsnorted": 6518,
    "enny": 6519,
    "Ġclap": 6520,
    "Ġworms": 6521,
    "Ġpoison": 6522,
    "ĠBlink": 6523,
    "Ġgarden": 6524,
    "Ġobjects": 6525,
    "Ġgathering": 6526,
    "Michael": 6527,
    "vered": 6528,
    "Ġrecipe": 6529,
    "Ġstain": 6530,
    "Ġprob": 6531,
    "Ġthumbs": 6532,
    "Ġmagic": 6533,
    "den": 6534,
    "poison": 6535,
    "ĠLoop": 6536,
    "Ġsuff": 6537,
    "Ġtiny": 6538,
    "asty": 6539,
    "ĠPipp": 6540,
    "port": 6541,
    "Ġdesk": 6542,
    "Ġdemanding": 6543,
    "Ġmine": 6544,
    "Ġsho": 6545,
    "Ġencount": 6546,
    "Ġrolled": 6547,
    "Ġhadn": 6548,
    "Ġattach": 6549,
    "Ġwaded": 6550,
    "ĠHop": 6551,
    "Ġfantastic": 6552,
    "Ġharmless": 6553,
    "pan": 6554,
    "Ġglimmering": 6555,
    "Ġkick": 6556,
    "ĠElle": 6557,
    "Ġspicy": 6558,
    "ĠSomet": 6559,
    "Ġcarefully": 6560,
    "Ġquit": 6561,
    "Ah": 6562,
    "Ġvest": 6563,
    "Ġties": 6564,
    "Milly": 6565,
    "Ġforgives": 6566,
    "ĠTara": 6567,
    "Like": 6568,
    "Ġowner": 6569,
    "ellie": 6570,
    "Ġbecause": 6571,
    "Ġpar": 6572,
    "Ġwal": 6573,
    "Why": 6574,
    "Ġboo": 6575,
    "Ġswallow": 6576,
    "Mine": 6577,
    "Ġfis": 6578,
    "Ġwaffles": 6579,
    "Ġfuel": 6580,
    "Ġpepperoni": 6581,
    "use": 6582,
    "Ġrebuild": 6583,
    "chan": 6584,
    "Ġcareless": 6585,
    "ided": 6586,
    "Ġharm": 6587,
    "Ġbeat": 6588,
    "Sw": 6589,
    "Ġdamaged": 6590,
    "Ġhome": 6591,
    "Ġcannot": 6592,
    "Ġlouder": 6593,
    "Ġwithin": 6594,
    "Ġlunch": 6595,
    "Ġfamiliar": 6596,
    "Ġswall": 6597,
    "Ġcrayons": 6598,
    "ĠSun": 6599,
    "Ġscarves": 6600,
    "Ġvac": 6601,
    "Ġtaller": 6602,
    "Ġbouncing": 6603,
    "Ġmis": 6604,
    "pe": 6605,
    "zy": 6606,
    "Ġmelts": 6607,
    "iscuit": 6608,
    "Ġrainbows": 6609,
    "Ġparticularly": 6610,
    "ened": 6611,
    "ĠChirpy": 6612,
    "Ġill": 6613,
    "ĠLeo": 6614,
    "âĢĿ.": 6615,
    "etchup": 6616,
    "Nick": 6617,
    "Ġjunk": 6618,
    "isp": 6619,
    "laire": 6620,
    "ĠSpeedy": 6621,
    "Ġtextures": 6622,
    "emember": 6623,
    "Ġsafari": 6624,
    "Quick": 6625,
    "Ġdire": 6626,
    "Ġclaw": 6627,
    "Ġimaginations": 6628,
    "Ġjudges": 6629,
    "Ġvalley": 6630,
    "Ġfirefight": 6631,
    "Ġsec": 6632,
    "Ġplayed": 6633,
    "Ġribbon": 6634,
    "Ġharb": 6635,
    "Ġsprinkled": 6636,
    "H": 6637,
    "Ġpearl": 6638,
    "Ġapplause": 6639,
    "imes": 6640,
    "Ġcandle": 6641,
    "Ġhalves": 6642,
    "Ġtoo": 6643,
    "Ġacting": 6644,
    "Ġcho": 6645,
    "Ġcomb": 6646,
    "Ġtravelling": 6647,
    "Ġwhine": 6648,
    "Ġgrasshopper": 6649,
    "ĠStartled": 6650,
    "Ġseek": 6651,
    "Dave": 6652,
    "Ġmarriage": 6653,
    "Ġpointing": 6654,
    "Ġsunflower": 6655,
    "sy": 6656,
    "Ġy": 6657,
    "ĠPen": 6658,
    "Ġtwig": 6659,
    "Ġgot": 6660,
    "Ġwarmer": 6661,
    "Ġacross": 6662,
    "Ġstrongest": 6663,
    "Ġneighbour": 6664,
    "Ġincrease": 6665,
    "Ġhunters": 6666,
    "Ġkilled": 6667,
    "Ġdial": 6668,
    "Ġinsect": 6669,
    "Ġhonking": 6670,
    "Ġrings": 6671,
    "Ġstores": 6672,
    "vent": 6673,
    "Ġstarting": 6674,
    "Ġpers": 6675,
    "Ġcovering": 6676,
    "Maya": 6677,
    "Ġsobbed": 6678,
    "Ġcooperate": 6679,
    "Ġremembering": 6680,
    "Ġed": 6681,
    "Ġprice": 6682,
    "Ġcampfire": 6683,
    "Ġbelongings": 6684,
    "Ġletter": 6685,
    "ĠPuff": 6686,
    "Ġtoddler": 6687,
    "ady": 6688,
    "ĠMint": 6689,
    "Ġmeowing": 6690,
    "Ġche": 6691,
    "work": 6692,
    "ages": 6693,
    "ĠElly": 6694,
    "Ġsil": 6695,
    "Ġbanging": 6696,
    "Ġalso": 6697,
    "Ġpainting": 6698,
    "owl": 6699,
    "ç": 6700,
    "Ġtuna": 6701,
    "Ġflavor": 6702,
    "Ġhers": 6703,
    "Ġfirmly": 6704,
    "Ġpersistent": 6705,
    "Ġfierce": 6706,
    "Ġhelicopter": 6707,
    "Ġfil": 6708,
    "Ġadvent": 6709,
    "Ġslipping": 6710,
    "ĠNora": 6711,
    "Ġguitars": 6712,
    "Ġexpecting": 6713,
    "Ġuntie": 6714,
    "Ġchefs": 6715,
    "Ġahead": 6716,
    "aper": 6717,
    "imi": 6718,
    "Ġmasks": 6719,
    "Ġregret": 6720,
    "Ġscratch": 6721,
    "Ġcelebrating": 6722,
    "st": 6723,
    "Th": 6724,
    "Ġdownstairs": 6725,
    "Ġfur": 6726,
    "Ġslid": 6727,
    "Ġfrightened": 6728,
    "Ġcatches": 6729,
    "Ġshock": 6730,
    "Ġonion": 6731,
    "ĠHurry": 6732,
    "Ġenth": 6733,
    "Ġhon": 6734,
    "any": 6735,
    "Ġmanage": 6736,
    "Ġwise": 6737,
    "Ġwip": 6738,
    "Ġchest": 6739,
    "cidents": 6740,
    "ĠDuke": 6741,
    "Ġlate": 6742,
    "Ġcostumes": 6743,
    "Ġquarreled": 6744,
    "Ġador": 6745,
    "igg": 6746,
    "Ġbutton": 6747,
    "Ġli": 6748,
    "¿": 6749,
    "Ġfeel": 6750,
    "wel": 6751,
    "ek": 6752,
    "Ġdifficult": 6753,
    "Ġconqu": 6754,
    "Ġpenny": 6755,
    "dle": 6756,
    "Ġhus": 6757,
    "Soon": 6758,
    "Ġcheating": 6759,
    "aked": 6760,
    "$": 6761,
    "Ġunderst": 6762,
    "ier": 6763,
    "Ġoccasion": 6764,
    "J": 6765,
    "ĠAnimals": 6766,
    "Ġwhales": 6767,
    "ĠFaye": 6768,
    "Ġbehaviour": 6769,
    "Ġserious": 6770,
    "Ġher": 6771,
    "ictionary": 6772,
    "ĠMus": 6773,
    "Ġenjoyed": 6774,
    "Ġostri": 6775,
    "Ġtriang": 6776,
    "Ġscoops": 6777,
    "ĠOliver": 6778,
    "ale": 6779,
    "Ġstuff": 6780,
    "Ġpre": 6781,
    "Ġremove": 6782,
    "Ġuniforms": 6783,
    "esses": 6784,
    "Ġuns": 6785,
    "Ġcube": 6786,
    "Ġmassages": 6787,
    "Very": 6788,
    "Ġoysters": 6789,
    "iddle": 6790,
    "Ġlanguage": 6791,
    "Ġwasted": 6792,
    "Ġsmo": 6793,
    "Sam": 6794,
    "Ġrack": 6795,
    "Ġdisagre": 6796,
    "oosh": 6797,
    "Ġglee": 6798,
    "Ġpound": 6799,
    "Ġner": 6800,
    "Ġblin": 6801,
    "Ġprizes": 6802,
    "Ġblame": 6803,
    "Ġbelonged": 6804,
    "Ġsneeze": 6805,
    "eorge": 6806,
    "Ġsix": 6807,
    "solutely": 6808,
    "Ġbadly": 6809,
    "Ġrope": 6810,
    "Ġdream": 6811,
    "pected": 6812,
    "Ġmay": 6813,
    "ĠTree": 6814,
    "ract": 6815,
    "Ġvehic": 6816,
    "Ġcared": 6817,
    "ĸ": 6818,
    "ief": 6819,
    "Ġgrass": 6820,
    "Ġwind": 6821,
    "Ġbury": 6822,
    "ep": 6823,
    "Ġlumber": 6824,
    "Ġbitter": 6825,
    "Ġmug": 6826,
    "Ġpolish": 6827,
    "Ġdepend": 6828,
    "Ġsnee": 6829,
    "ĠRay": 6830,
    "Ġinvestig": 6831,
    "Ġbracelets": 6832,
    "Ġwatch": 6833,
    "Ġyach": 6834,
    "ĠDee": 6835,
    "Ġglow": 6836,
    "Ġremem": 6837,
    "Ġcomplain": 6838,
    "ĠTruck": 6839,
    "Ġhel": 6840,
    "Ġtwin": 6841,
    "Ġfree": 6842,
    "ment": 6843,
    "stri": 6844,
    "ĠGl": 6845,
    "Ġmessage": 6846,
    "isible": 6847,
    "ĠLucy": 6848,
    "Ġer": 6849,
    "un": 6850,
    "ĠOlly": 6851,
    "Ġmoons": 6852,
    "ĠHello": 6853,
    "ĠRolly": 6854,
    "Ġbenches": 6855,
    "Ġshow": 6856,
    "Ġk": 6857,
    "Ġcreating": 6858,
    "Ġhisses": 6859,
    "Ġradishes": 6860,
    "idey": 6861,
    "Abigail": 6862,
    "Ġpages": 6863,
    "Ċ": 6864,
    "Ġfre": 6865,
    "Ġtoothbrush": 6866,
    "Ġhoped": 6867,
    "Ġadvice": 6868,
    "apped": 6869,
    "ct": 6870,
    "Ġbarks": 6871,
    "Ġnose": 6872,
    "ĠPh": 6873,
    "ippy": 6874,
    "ib": 6875,
    "ĠEverywhere": 6876,
    "ival": 6877,
    "Ġbumping": 6878,
    "Ġcam": 6879,
    "Ġyou": 6880,
    "Ġsmell": 6881,
    "vator": 6882,
    "Ġits": 6883,
    "Yummy": 6884,
    "ised": 6885,
    "Ġpans": 6886,
    "Ġpaying": 6887,
    "Ġbeanstalk": 6888,
    "ĠAva": 6889,
    "Ġdir": 6890,
    "Ġcollected": 6891,
    "udden": 6892,
    "Ġloaded": 6893,
    "Ġmembers": 6894,
    "Ġdisappoin": 6895,
    "Ġbead": 6896,
    "Ġwoken": 6897,
    "sey": 6898,
    "Ġcustom": 6899,
    "med": 6900,
    "Ġwelcome": 6901,
    "Æ": 6902,
    "Ġfind": 6903,
    "ĠTwinkle": 6904,
    "Ġclaws": 6905,
    "ids": 6906,
    "plash": 6907,
    "Ġpeace": 6908,
    "Ġam": 6909,
    "Ex": 6910,
    "ĠWoof": 6911,
    "Ġcompanion": 6912,
    "Ġcrawls": 6913,
    "Ġrealise": 6914,
    "land": 6915,
    "Ġmentioned": 6916,
    "Paul": 6917,
    "Ġglitt": 6918,
    "retty": 6919,
    "ĠRazor": 6920,
    "Ġobject": 6921,
    "Ġmattered": 6922,
    "Ġtesting": 6923,
    "ĠE": 6924,
    "Ġfool": 6925,
    "Ġicing": 6926,
    "Ġdiamond": 6927,
    "Ġpump": 6928,
    "pop": 6929,
    "ina": 6930,
    "Ġrabbit": 6931,
    "iskers": 6932,
    "Squ": 6933,
    "mbre": 6934,
    "ĠSe": 6935,
    "Ġ''": 6936,
    "Happy": 6937,
    "Abby": 6938,
    "Ġblows": 6939,
    "Ġothers": 6940,
    "Ġracers": 6941,
    "Ġaccomplish": 6942,
    "Ġrepeat": 6943,
    "cient": 6944,
    "Ġhugs": 6945,
    "ation": 6946,
    "read": 6947,
    "ĠSque": 6948,
    "Ġtreasures": 6949,
    "Ġearly": 6950,
    "gr": 6951,
    "Ġbeaver": 6952,
    "Ġguide": 6953,
    "ü": 6954,
    "ĠAdam": 6955,
    "Ġleading": 6956,
    "Ġw": 6957,
    "riend": 6958,
    "Ù": 6959,
    "used": 6960,
    "Ġinvitations": 6961,
    "Ġflea": 6962,
    "ides": 6963,
    "Ġgiraffes": 6964,
    "Ġwriter": 6965,
    "Ġdoggy": 6966,
    "ĠPam": 6967,
    "Ġtour": 6968,
    "reg": 6969,
    "Ġwine": 6970,
    "up": 6971,
    "ĠFriends": 6972,
    "Ġsadder": 6973,
    "ĠBoom": 6974,
    "Ġpicking": 6975,
    "Ġstored": 6976,
    "Ġclean": 6977,
    "atty": 6978,
    "Ġjungle": 6979,
    "Ġsorting": 6980,
    "aturday": 6981,
    "Ġstomachs": 6982,
    "ĠMel": 6983,
    "Ġadmit": 6984,
    "Ġsome": 6985,
    "ĠEliz": 6986,
    "Ġcounting": 6987,
    "ĠCarl": 6988,
    "Ġpaddled": 6989,
    "Ġfragile": 6990,
    "Q": 6991,
    "ĠOt": 6992,
    "Ġimportant": 6993,
    "ĠSusan": 6994,
    "Ġgears": 6995,
    "Ġthick": 6996,
    "Ġsuccess": 6997,
    "Sm": 6998,
    "Ġdod": 6999,
    "Ġcudd": 7000,
    "ili": 7001,
    "£": 7002,
    "Ġwhat": 7003,
    "vel": 7004,
    "Ġsweat": 7005,
    "ust": 7006,
    "Ġann": 7007,
    "Ġpizz": 7008,
    "Ġask": 7009,
    "Ġdaisies": 7010,
    "Ġmessed": 7011,
    "ñ": 7012,
    "Ġspoil": 7013,
    "ĠCow": 7014,
    "Ġread": 7015,
    "Ġway": 7016,
    "Dog": 7017,
    "Ġwealthy": 7018,
    "iens": 7019,
    "Ġtra": 7020,
    "ilo": 7021,
    "alth": 7022,
    "known": 7023,
    "Ġstars": 7024,
    "Ġplants": 7025,
    "Ġknees": 7026,
    "bed": 7027,
    "Still": 7028,
    "ĠSome": 7029,
    "Ġdrank": 7030,
    "ĠFrankie": 7031,
    "Ġsprinkle": 7032,
    "ĠSadly": 7033,
    "Ġrep": 7034,
    "Ġknocked": 7035,
    "Ġheat": 7036,
    "Ġtells": 7037,
    "Ġwizard": 7038,
    "Ġteapot": 7039,
    "Ġbluebird": 7040,
    "ĠBaby": 7041,
    "Ġmeas": 7042,
    "Ġgro": 7043,
    "Fl": 7044,
    "Ġtrusted": 7045,
    "ĠRon": 7046,
    "Aunt": 7047,
    "Ġcheaper": 7048,
    "Hop": 7049,
    "ived": 7050,
    "Ġreflection": 7051,
    "aughter": 7052,
    "chair": 7053,
    "orm": 7054,
    "Ġbillboard": 7055,
    "ĠZack": 7056,
    "icate": 7057,
    "Ġsomet": 7058,
    "Ġright": 7059,
    "Ġoperation": 7060,
    "Ġcomfortable": 7061,
    "Ġfasc": 7062,
    "Ġrecommend": 7063,
    "<": 7064,
    "ground": 7065,
    "Ġstove": 7066,
    "Ġwalk": 7067,
    "Ġshoots": 7068,
    "Ġponies": 7069,
    "Ġexploring": 7070,
    "ĠLee": 7071,
    "Ġoats": 7072,
    "Ġtall": 7073,
    "Ń": 7074,
    "Ġrem": 7075,
    "ik": 7076,
    "Ġpirates": 7077,
    "Ġadventurous": 7078,
    "ĠâĢĶ": 7079,
    "Ġrather": 7080,
    "Ġbig": 7081,
    "Ġgrandd": 7082,
    "Ġ5": 7083,
    "Ġagree": 7084,
    "uth": 7085,
    "Just": 7086,
    "imon": 7087,
    "Ġshake": 7088,
    "Ġbring": 7089,
    "ĠTed": 7090,
    "/": 7091,
    "Ġfeather": 7092,
    "creams": 7093,
    "\",": 7094,
    "ual": 7095,
    "Ġcandy": 7096,
    "ĠInstead": 7097,
    "Ġofficer": 7098,
    "Joy": 7099,
    "Ġsolving": 7100,
    "Ġweeks": 7101,
    "Ġfaith": 7102,
    "Ġignor": 7103,
    "Ġscratching": 7104,
    "Ġviolin": 7105,
    "Ġamazement": 7106,
    "Ġfrowning": 7107,
    "Ġtide": 7108,
    "þ": 7109,
    "Good": 7110,
    "Ġdrawer": 7111,
    "Ġdisplay": 7112,
    "ĠRufus": 7113,
    "Ġcactus": 7114,
    "Ġbehave": 7115,
    "Ġpark": 7116,
    "Ġlungs": 7117,
    "be": 7118,
    "Ġrubbed": 7119,
    "Ġh": 7120,
    "fic": 7121,
    "Ġmenu": 7122,
    "Br": 7123,
    "Ġc": 7124,
    "Ġbald": 7125,
    "ourn": 7126,
    "ous": 7127,
    "Ġouch": 7128,
    "Ġside": 7129,
    "Ġchanged": 7130,
    "Ġyounger": 7131,
    "ast": 7132,
    "ĠBu": 7133,
    "Ġpetted": 7134,
    "ĠWatch": 7135,
    "Ġincluded": 7136,
    "Ġriverbank": 7137,
    "Ġexplored": 7138,
    "Ġancient": 7139,
    "Ġconsequ": 7140,
    "pot": 7141,
    "ossible": 7142,
    "Ġforests": 7143,
    "Ġapologize": 7144,
    "Stay": 7145,
    "ĭ": 7146,
    "onies": 7147,
    "ĠTony": 7148,
    "Ġbrid": 7149,
    "Maggie": 7150,
    "Ġneatly": 7151,
    "Ġrescuing": 7152,
    "lor": 7153,
    "Ġquietly": 7154,
    "de": 7155,
    "Ġeven": 7156,
    "Ġtaste": 7157,
    "Ġstud": 7158,
    "oug": 7159,
    "Ġde": 7160,
    "eet": 7161,
    "Ġcoolest": 7162,
    "rent": 7163,
    "Ġrubbing": 7164,
    "kelly": 7165,
    "ĠOutside": 7166,
    "ī": 7167,
    "tern": 7168,
    "Ġmem": 7169,
    "ound": 7170,
    "rework": 7171,
    "ĠEvery": 7172,
    "Ġpears": 7173,
    "ners": 7174,
    "Ġshelves": 7175,
    "ivity": 7176,
    "Ġlad": 7177,
    "Ġgas": 7178,
    "Ġpol": 7179,
    "Ollie": 7180,
    "Ġmistake": 7181,
    "Ġbinoculars": 7182,
    "ife": 7183,
    "Ġloud": 7184,
    "Ġsweetest": 7185,
    "affe": 7186,
    "oby": 7187,
    "Ġfollowing": 7188,
    "Ġpostman": 7189,
    "iful": 7190,
    "Ġdock": 7191,
    "Ġmist": 7192,
    "ĠDaniel": 7193,
    "esday": 7194,
    "ax": 7195,
    "Ġfalls": 7196,
    "Ġlizards": 7197,
    "Ġpage": 7198,
    "bol": 7199,
    "ĠRel": 7200,
    "ĠBouncy": 7201,
    "ugar": 7202,
    "Ġvoices": 7203,
    "Ġminding": 7204,
    "Ġuse": 7205,
    "ĠLola": 7206,
    "Ġcott": 7207,
    "but": 7208,
    "Ġhaird": 7209,
    "Ġtoward": 7210,
    "Ġsaid": 7211,
    "Ġbits": 7212,
    "Ġheaven": 7213,
    "arian": 7214,
    "yl": 7215,
    "Ġhissing": 7216,
    "Ġfluffy": 7217,
    "ĠSweet": 7218,
    "ĠOpen": 7219,
    "ĠPeace": 7220,
    "Ġlemonade": 7221,
    "Ġlion": 7222,
    "Ġsupporting": 7223,
    "Ġdancers": 7224,
    "Ġfe": 7225,
    "Ġpuppy": 7226,
    "Ġmail": 7227,
    "Ġpoking": 7228,
    "Ġscrubbed": 7229,
    "Ġastron": 7230,
    "Ġunited": 7231,
    "Ġentered": 7232,
    "Ġeasy": 7233,
    "Ġbelie": 7234,
    "ì": 7235,
    "Ġlog": 7236,
    "Ġbreak": 7237,
    "Ġcart": 7238,
    "Jake": 7239,
    "Ġpuzz": 7240,
    "our": 7241,
    "In": 7242,
    "ĠBess": 7243,
    "Ġscrambled": 7244,
    "Ġchurch": 7245,
    "Ġashamed": 7246,
    "Ġtomato": 7247,
    "Ġhay": 7248,
    "ĠElsa": 7249,
    "ĠCari": 7250,
    "udged": 7251,
    "Ġsides": 7252,
    "Ġmusic": 7253,
    "Bill": 7254,
    "Ġchimney": 7255,
    "ome": 7256,
    "Ġhelpless": 7257,
    "Ġblond": 7258,
    "Ġtarget": 7259,
    "Ġgranted": 7260,
    "era": 7261,
    "ĠDe": 7262,
    "ĠLiam": 7263,
    "Ġcauliflower": 7264,
    "Julie": 7265,
    "Ġnood": 7266,
    "With": 7267,
    "Ġsausages": 7268,
    "U": 7269,
    "Ġward": 7270,
    "orrow": 7271,
    "Sorry": 7272,
    "Ġsing": 7273,
    "ht": 7274,
    "Ġanswers": 7275,
    "Ġmister": 7276,
    "cle": 7277,
    "Ġroof": 7278,
    "Ġengine": 7279,
    "ceed": 7280,
    "Ġtickled": 7281,
    "Ġmost": 7282,
    "Ġoffered": 7283,
    "Sophia": 7284,
    "Ġhumming": 7285,
    "Ġhurting": 7286,
    "Ġswirls": 7287,
    "Ġcleaned": 7288,
    "Ġmice": 7289,
    "ĠAlong": 7290,
    "Ġfoxes": 7291,
    "Ġzipping": 7292,
    "ray": 7293,
    "Ġgloomy": 7294,
    "seph": 7295,
    "umber": 7296,
    "Ġground": 7297,
    "Ġwiser": 7298,
    "Ġshops": 7299,
    "Ġfairy": 7300,
    "Ġfive": 7301,
    "Ġavoc": 7302,
    "Ġlessons": 7303,
    "Ġtouches": 7304,
    "Ġskirts": 7305,
    "Ġchopped": 7306,
    "Ġpuzzled": 7307,
    "Ġ1": 7308,
    "Ġelbow": 7309,
    "Ġaccidents": 7310,
    "St": 7311,
    "Ġquar": 7312,
    "Ġchicken": 7313,
    "Ġbreakfast": 7314,
    "Ġhops": 7315,
    "Ġboth": 7316,
    "Ġlearner": 7317,
    "è": 7318,
    "Ġscreaming": 7319,
    "Ġtugged": 7320,
    "Ġrequest": 7321,
    "head": 7322,
    "Ġhatch": 7323,
    "Ġcheering": 7324,
    "Ġcand": 7325,
    "Ġcooler": 7326,
    "Ġide": 7327,
    "ĠDara": 7328,
    "Ġnets": 7329,
    "uct": 7330,
    "Claire": 7331,
    "Ġhanger": 7332,
    "Ġgray": 7333,
    "ĠThose": 7334,
    "Ġincredible": 7335,
    "Ġtask": 7336,
    "uffin": 7337,
    "On": 7338,
    "Ġparties": 7339,
    "Ġgross": 7340,
    "Ġlump": 7341,
    "shmallow": 7342,
    "izzie": 7343,
    "Ġthroat": 7344,
    "Ġtickling": 7345,
    "hn": 7346,
    "Ġpretty": 7347,
    "Ġsecurity": 7348,
    "?âĢĿ": 7349,
    "Ġtong": 7350,
    "asses": 7351,
    "Ġshown": 7352,
    "dge": 7353,
    "Ġgroom": 7354,
    "Ġfuzzy": 7355,
    "icky": 7356,
    "Eat": 7357,
    "Ġwrapper": 7358,
    "ĠHe": 7359,
    "Ġdecided": 7360,
    "Ġcold": 7361,
    "Ġdesigning": 7362,
    "Ġdragged": 7363,
    "Ġtents": 7364,
    "ive": 7365,
    "Ġbricks": 7366,
    "edy": 7367,
    "Ġbru": 7368,
    "Ġgrill": 7369,
    "amboo": 7370,
    "rosc": 7371,
    "Ġfirefighters": 7372,
    "rance": 7373,
    "Ġpays": 7374,
    "Ġpets": 7375,
    "How": 7376,
    "Ġeasily": 7377,
    "Ġwaited": 7378,
    "Ġtickets": 7379,
    "antha": 7380,
    "ĠMindy": 7381,
    "Ġriver": 7382,
    "aver": 7383,
    "rie": 7384,
    "ays": 7385,
    "Ġsoap": 7386,
    "ĠSomething": 7387,
    "ama": 7388,
    "Ġsugar": 7389,
    "Ġtear": 7390,
    "Help": 7391,
    "Ġcryst": 7392,
    "Ġrace": 7393,
    "ĠPepper": 7394,
    "ro": 7395,
    "Ġdesigned": 7396,
    "Ġchop": 7397,
    "Ġvanish": 7398,
    "Ġboil": 7399,
    "Ġraced": 7400,
    "Ġspiky": 7401,
    "Ġmission": 7402,
    "Ġaround": 7403,
    "Ġfrog": 7404,
    "Ġdark": 7405,
    "Ġtrouble": 7406,
    "Ġsled": 7407,
    "Ġprov": 7408,
    "Ġenvelopes": 7409,
    "ful": 7410,
    "Ġtar": 7411,
    "Ġcopied": 7412,
    "ear": 7413,
    "Ġvehicle": 7414,
    "Ġlemon": 7415,
    "uly": 7416,
    "sty": 7417,
    "Ġripp": 7418,
    "Ġcol": 7419,
    "Ġcause": 7420,
    "Ġnicest": 7421,
    "Ġlovely": 7422,
    "Ġpanic": 7423,
    "Ġscaring": 7424,
    "Ġstings": 7425,
    "Stop": 7426,
    "Em": 7427,
    "Ġremind": 7428,
    "Ġwor": 7429,
    "Ġrid": 7430,
    "Ġbrings": 7431,
    "ĠSuddenly": 7432,
    "ifi": 7433,
    "isten": 7434,
    "Ġdespite": 7435,
    "Ġfaint": 7436,
    "ó": 7437,
    "Whenever": 7438,
    "Ġdem": 7439,
    "del": 7440,
    "Ġhundred": 7441,
    "Ġlecture": 7442,
    "Ġfamil": 7443,
    "Ġsticking": 7444,
    "ggy": 7445,
    "ĠJamie": 7446,
    "ities": 7447,
    "ĠSammy": 7448,
    "cc": 7449,
    "Ġkind": 7450,
    "Ġwheat": 7451,
    "Ġsunlight": 7452,
    "ĠChick": 7453,
    "iable": 7454,
    "Ġexcited": 7455,
    "rick": 7456,
    "Ġchair": 7457,
    "issors": 7458,
    "Ġmoo": 7459,
    "Ġturt": 7460,
    "Ġwere": 7461,
    "cream": 7462,
    "ĠOh": 7463,
    "Ġdetermination": 7464,
    "ĠRemy": 7465,
    "Ġstable": 7466,
    "Ġfurry": 7467,
    "Ġsoftly": 7468,
    "ula": 7469,
    "Ġadmiration": 7470,
    "Ġallowing": 7471,
    "Ġjar": 7472,
    "Ducky": 7473,
    "Ġstarts": 7474,
    "Ġmonster": 7475,
    "ĠBeef": 7476,
    "ĠWant": 7477,
    "Ġhammer": 7478,
    "ĠPatty": 7479,
    "Ġfa": 7480,
    "Ġcompete": 7481,
    "ĠSquee": 7482,
    "ĠOlive": 7483,
    "Ġbuzzing": 7484,
    "ifer": 7485,
    "Ġpony": 7486,
    "ĠA": 7487,
    "While": 7488,
    "Ġstand": 7489,
    "expected": 7490,
    "Thanks": 7491,
    "ĠCra": 7492,
    "Ġgust": 7493,
    "-": 7494,
    "Ġpopsic": 7495,
    "Ġdist": 7496,
    "Ġred": 7497,
    "Ġdel": 7498,
    "Ġcapt": 7499,
    "Ġhigh": 7500,
    "iel": 7501,
    "ĠBoth": 7502,
    "Ġwill": 7503,
    "cles": 7504,
    "Ġjoined": 7505,
    "Ġtractor": 7506,
    "ant": 7507,
    "ĠSettle": 7508,
    "Ġpole": 7509,
    "ĠTiny": 7510,
    "Ġforgets": 7511,
    "Fin": 7512,
    "ĠBra": 7513,
    "Ġexpected": 7514,
    "Ġgif": 7515,
    "orth": 7516,
    "ĠAndy": 7517,
    "Ġfact": 7518,
    "Ġcloud": 7519,
    "tuce": 7520,
    "Ġquacks": 7521,
    "Ġsidewalk": 7522,
    "Ġsoon": 7523,
    "Ġprunes": 7524,
    "Ġtakes": 7525,
    "Ġmattress": 7526,
    "Ġlaughed": 7527,
    "Ġwhistles": 7528,
    "ĠGreeny": 7529,
    "V": 7530,
    "Ġwoof": 7531,
    "Ġtools": 7532,
    "Ĳ": 7533,
    "ĠEx": 7534,
    "Ġthoughtful": 7535,
    "Ġdistant": 7536,
    "Ġsqueezed": 7537,
    "Ġvisit": 7538,
    "Your": 7539,
    "Ġpoin": 7540,
    "ĠJelly": 7541,
    "ined": 7542,
    "Ġtwist": 7543,
    "Ġhandful": 7544,
    "Ġfair": 7545,
    "Ġtrying": 7546,
    "Ġteasing": 7547,
    "Ġpassing": 7548,
    "Lena": 7549,
    "Ġpecks": 7550,
    "Ġsmelling": 7551,
    "iz": 7552,
    "Ġbehavi": 7553,
    "Ġtre": 7554,
    "Ġcreatures": 7555,
    "Ġunwrapped": 7556,
    "ĠAfter": 7557,
    "Ġhunter": 7558,
    ".'": 7559,
    "Ġaccept": 7560,
    "irrel": 7561,
    "ĠTilly": 7562,
    "Ġsofa": 7563,
    "Ġrip": 7564,
    "Ġcoup": 7565,
    "ĠJazz": 7566,
    "Ġdelic": 7567,
    "Ġwaist": 7568,
    "ĠWally": 7569,
    "ibbit": 7570,
    "Ġairplane": 7571,
    "Ġinst": 7572,
    "Ġglasses": 7573,
    "Ġfavourite": 7574,
    "Moo": 7575,
    "Ġpath": 7576,
    "ora": 7577,
    "omb": 7578,
    "Ġhaircut": 7579,
    "Ġmighty": 7580,
    "Ġprove": 7581,
    "Ġe": 7582,
    "Ġnumber": 7583,
    "Ġbeads": 7584,
    "ĠPo": 7585,
    "Ġsunflowers": 7586,
    "ĠAunt": 7587,
    "Ġwaves": 7588,
    "Ġwre": 7589,
    "Ġlily": 7590,
    "no": 7591,
    "Ġad": 7592,
    "Ġpost": 7593,
    "Ġsilly": 7594,
    "Ġsandbox": 7595,
    "Ġfoot": 7596,
    "Ġdripping": 7597,
    "Ġaccomplishment": 7598,
    "cker": 7599,
    "ĠEliza": 7600,
    "ought": 7601,
    "rm": 7602,
    "Ġcher": 7603,
    "Ġchallenge": 7604,
    "Ġcelery": 7605,
    "Ġnail": 7606,
    "Every": 7607,
    "Ġshoe": 7608,
    "ĠRicky": 7609,
    "Ġhoping": 7610,
    "Ġfetch": 7611,
    "Ġtwigs": 7612,
    "Ġcoffee": 7613,
    "Ġmor": 7614,
    "ĠGina": 7615,
    "Ġsinger": 7616,
    "ð": 7617,
    "Ġdollars": 7618,
    "Ġgerm": 7619,
    "Ġlong": 7620,
    "ĠTw": 7621,
    "Ġachie": 7622,
    "mble": 7623,
    "Ġspending": 7624,
    "Ġsweetly": 7625,
    ".\"": 7626,
    "Ġtough": 7627,
    "ĠPat": 7628,
    "Ġslower": 7629,
    "oof": 7630,
    "ably": 7631,
    "To": 7632,
    "8": 7633,
    "shine": 7634,
    "Ġperformed": 7635,
    "ĠKids": 7636,
    "zes": 7637,
    "Ġmedal": 7638,
    "Ġbugs": 7639,
    "Ġsquare": 7640,
    "Ġwhile": 7641,
    "Ġcushion": 7642,
    "ĠCici": 7643,
    "Ġquacking": 7644,
    "ff": 7645,
    "Ġprick": 7646,
    "ĠNana": 7647,
    "Ġcalm": 7648,
    "Ġhipp": 7649,
    "Ġfunny": 7650,
    "ap": 7651,
    "Ġslides": 7652,
    "Ġsandcast": 7653,
    "Ġmach": 7654,
    "¬": 7655,
    "Ġentire": 7656,
    "ĠMore": 7657,
    "Ġbecame": 7658,
    "Ġthey": 7659,
    "Ġstones": 7660,
    "Ġgiggle": 7661,
    "Ġbarking": 7662,
    "case": 7663,
    "Ġtwirling": 7664,
    "Ġlose": 7665,
    "Ġland": 7666,
    "ĠRobo": 7667,
    "Jul": 7668,
    "u": 7669,
    "what": 7670,
    "Ġtoss": 7671,
    "Ġlawy": 7672,
    "Ġtrumpet": 7673,
    "Ġluck": 7674,
    "obody": 7675,
    "Ġunt": 7676,
    "Ġlightning": 7677,
    "Ġfeelings": 7678,
    "Baa": 7679,
    "ĠOur": 7680,
    "Ġwanted": 7681,
    "Ġlanguages": 7682,
    "Ġnaughty": 7683,
    "Ġconcentr": 7684,
    "Ġremember": 7685,
    "Everything": 7686,
    "Ġmeets": 7687,
    "Ġtreasure": 7688,
    "Ġswims": 7689,
    "Ġbaskets": 7690,
    "Ġyoungest": 7691,
    "Ġcomm": 7692,
    "ĠSpring": 7693,
    "Ġorganizing": 7694,
    "Ġsurrendered": 7695,
    "Ġreversing": 7696,
    "Ġsweetie": 7697,
    "ace": 7698,
    "Ġmindful": 7699,
    "ream": 7700,
    "Ġyielded": 7701,
    "selves": 7702,
    "Ġperm": 7703,
    "specially": 7704,
    "Ġaccident": 7705,
    "Ġpoor": 7706,
    "Ġleast": 7707,
    "Jill": 7708,
    "Ġcrazy": 7709,
    "Ġdictionary": 7710,
    "ffee": 7711,
    "Ġdidn": 7712,
    "Ġpic": 7713,
    "arry": 7714,
    "Ġsuitcase": 7715,
    "Ġbandages": 7716,
    "Ġdisagreeing": 7717,
    "Ġstartled": 7718,
    "2": 7719,
    "ĠSlow": 7720,
    "Ġpassed": 7721,
    "Ġgiggles": 7722,
    "sing": 7723,
    "Ġpo": 7724,
    "Ġbelly": 7725,
    "ried": 7726,
    "ĠZippy": 7727,
    "Lisa": 7728,
    "omas": 7729,
    "iff": 7730,
    "Ġsee": 7731,
    "ĠSpicy": 7732,
    "ĠBird": 7733,
    "Ġlap": 7734,
    "ĠShow": 7735,
    "Ġsnake": 7736,
    "Ġcrib": 7737,
    "ths": 7738,
    "ĠSil": 7739,
    "iggy": 7740,
    "smelling": 7741,
    "Ġdisgusting": 7742,
    "Ġowls": 7743,
    "ĠMira": 7744,
    "One": 7745,
    "Ġgrin": 7746,
    "Ġmath": 7747,
    "amiliar": 7748,
    "Ġgold": 7749,
    "My": 7750,
    "Take": 7751,
    "loe": 7752,
    "Ġitchy": 7753,
    "hello": 7754,
    "chief": 7755,
    "Ġfinds": 7756,
    "Ġescaped": 7757,
    "Ġun": 7758,
    "é": 7759,
    "Ġrazor": 7760,
    "Red": 7761,
    "ĠMark": 7762,
    "most": 7763,
    "con": 7764,
    "Ġwild": 7765,
    "Ġtrou": 7766,
    "fore": 7767,
    "Mira": 7768,
    "ails": 7769,
    "Ġjourn": 7770,
    "ĠOne": 7771,
    "pped": 7772,
    "Ġsorry": 7773,
    "Ġwish": 7774,
    "Ġlizard": 7775,
    "igning": 7776,
    "Ġuniversity": 7777,
    "Ġsailing": 7778,
    "Ġrough": 7779,
    "Ġpoint": 7780,
    "Ġlifts": 7781,
    "Ġranch": 7782,
    "Ġcaution": 7783,
    "ala": 7784,
    "Ġtugging": 7785,
    "Sometimes": 7786,
    "Ġcroaked": 7787,
    "Ġpatterns": 7788,
    "ĠWhistle": 7789,
    "Ġbothering": 7790,
    "Ġwelcomed": 7791,
    "ĠJax": 7792,
    "Ribbit": 7793,
    "Ġrisks": 7794,
    "Pe": 7795,
    "Ġhaving": 7796,
    "Cl": 7797,
    "Ġtray": 7798,
    "Ġgroups": 7799,
    "joy": 7800,
    "Ġsports": 7801,
    "Great": 7802,
    "Ġar": 7803,
    "Ġcheated": 7804,
    "Ġjealous": 7805,
    "Ġmarshmallow": 7806,
    "ecture": 7807,
    "Ġgrandmother": 7808,
    "Ġimportance": 7809,
    "Ġfake": 7810,
    "Jan": 7811,
    "Oops": 7812,
    "Ġsprayed": 7813,
    "Ġap": 7814,
    "Ġprettier": 7815,
    "Oh": 7816,
    "ĠSky": 7817,
    "Ġaeroplane": 7818,
    "Close": 7819,
    "Ġrelie": 7820,
    "Ġbathtub": 7821,
    "Ġclouds": 7822,
    "Ġsquirrels": 7823,
    "ice": 7824,
    "Ġdishwasher": 7825,
    "Ġexam": 7826,
    "Ġwreck": 7827,
    "retch": 7828,
    "ĠTo": 7829,
    "Ġdown": 7830,
    "yd": 7831,
    "Ġshirts": 7832,
    "ĠBig": 7833,
    "Ġlip": 7834,
    "Ġfills": 7835,
    "covered": 7836,
    "e": 7837,
    "ĠWoo": 7838,
    "ĠTip": 7839,
    "ù": 7840,
    "getable": 7841,
    "ythm": 7842,
    "Ġrelief": 7843,
    "Ġfix": 7844,
    "Ġcheerfully": 7845,
    "{": 7846,
    "da": 7847,
    "Ġguard": 7848,
    "Ġhider": 7849,
    "Ġcraft": 7850,
    "pril": 7851,
    "Ġmelons": 7852,
    "mm": 7853,
    "Ġur": 7854,
    "Ġgarage": 7855,
    "Ġreminded": 7856,
    "Ġterrible": 7857,
    "Ġpiano": 7858,
    "Ġstar": 7859,
    "Ġbackpack": 7860,
    "Ġusing": 7861,
    "Ġflags": 7862,
    "Ġwrinkled": 7863,
    "Ġcheer": 7864,
    "Ġca": 7865,
    "Ġsnacks": 7866,
    "Ą": 7867,
    "Ġmatched": 7868,
    "By": 7869,
    "ir": 7870,
    "Ġbubble": 7871,
    "ating": 7872,
    "Ġapple": 7873,
    "Ġplanets": 7874,
    "Ġtouching": 7875,
    "â": 7876,
    "ĠJonny": 7877,
    "Ġwondering": 7878,
    "Ġshattered": 7879,
    "Ġwrong": 7880,
    "Ġfoods": 7881,
    "ble": 7882,
    "ge": 7883,
    "Ġthro": 7884,
    "cket": 7885,
    "Bad": 7886,
    "Ġgoodies": 7887,
    "Ġcreation": 7888,
    "kay": 7889,
    "Ġclicked": 7890,
    "ulif": 7891,
    "Ġease": 7892,
    "Ġlace": 7893,
    "apers": 7894,
    "Ġmineral": 7895,
    "Ġcost": 7896,
    "Mom": 7897,
    "Catch": 7898,
    "Ġtime": 7899,
    "Ġgr": 7900,
    "ĠSometimes": 7901,
    "opl": 7902,
    "Ġerasers": 7903,
    "Ġride": 7904,
    "Ġmeaning": 7905,
    "Ġpushed": 7906,
    "Ġsc": 7907,
    "Ġthrill": 7908,
    "Ġpit": 7909,
    "Ġhairdress": 7910,
    "Ġjourney": 7911,
    "inary": 7912,
    "Choo": 7913,
    "Fo": 7914,
    "eterin": 7915,
    "ild": 7916,
    "icked": 7917,
    "ĠBubbles": 7918,
    "Ġpeaceful": 7919,
    "Ġinvited": 7920,
    "Ġfirefighter": 7921,
    "Ġlooking": 7922,
    "Ġasks": 7923,
    "Ġgolden": 7924,
    "Ġdisturbed": 7925,
    "ucked": 7926,
    "Ġkicking": 7927,
    "Ġpillows": 7928,
    "Ġfarmer": 7929,
    "ivia": 7930,
    "Ġpriv": 7931,
    "Ġswan": 7932,
    "Ġyummiest": 7933,
    "Ġbrighter": 7934,
    "ulp": 7935,
    "Ġexplorer": 7936,
    "Ġemerged": 7937,
    "Ġsimp": 7938,
    "Ġsmiles": 7939,
    "Ġwhite": 7940,
    "Ġwhole": 7941,
    "ĠVroom": 7942,
    "Ġpen": 7943,
    "armer": 7944,
    "(": 7945,
    "Ġrails": 7946,
    "Ġanytime": 7947,
    "Ġwarn": 7948,
    "Ġhose": 7949,
    "Ġfires": 7950,
    "ĠThat": 7951,
    "Ġoriginal": 7952,
    "Ġdeer": 7953,
    "Ġmoms": 7954,
    "Alice": 7955,
    "Ġfam": 7956,
    "rious": 7957,
    "Lucky": 7958,
    "ĠPr": 7959,
    "All": 7960,
    "Ġlay": 7961,
    "ĠSharp": 7962,
    "aint": 7963,
    "Ġlicks": 7964,
    "Ġknights": 7965,
    "Ġprinted": 7966,
    "ĠOtto": 7967,
    "ince": 7968,
    "Ġbinocular": 7969,
    "ĠOlivia": 7970,
    "Ġpur": 7971,
    "Ġcosy": 7972,
    "?âĢĿ.": 7973,
    "Ġcricket": 7974,
    "ĠCan": 7975,
    "Ġfabric": 7976,
    "iment": 7977,
    "Ġchirping": 7978,
    "Ġwon": 7979,
    "Ġbegan": 7980,
    "Ġgoodbyes": 7981,
    "Ġpray": 7982,
    "Ġmistakes": 7983,
    "urple": 7984,
    "ecca": 7985,
    "Ġwishing": 7986,
    "ĠBuggy": 7987,
    "Ġfist": 7988,
    "Ġav": 7989,
    "eling": 7990,
    "erc": 7991,
    "Ġcuddle": 7992,
    "Ġleaves": 7993,
    "ah": 7994,
    "ĠPer": 7995,
    "Ġsailor": 7996,
    "Ġfriendship": 7997,
    "erest": 7998,
    "Ġdesperately": 7999,
    "Ġstret": 8000,
    "sity": 8001,
    "Ġpots": 8002,
    "Ġradish": 8003,
    "alk": 8004,
    "Ġload": 8005,
    "ĠLung": 8006,
    "Ġdrawing": 8007,
    "Ġtant": 8008,
    "ĠWhenever": 8009,
    "anted": 8010,
    "Ġhang": 8011,
    "Ġshakes": 8012,
    "ĠMary": 8013,
    "Ġuses": 8014,
    "Ġnights": 8015,
    "Ġinclude": 8016,
    "ĠGrand": 8017,
    "Ġsoup": 8018,
    "Ġwalked": 8019,
    "Ġevent": 8020,
    "urity": 8021,
    "cycles": 8022,
    "Ġclapping": 8023,
    "Ġeverywhere": 8024,
    "Ġclothes": 8025,
    "Ġrooms": 8026,
    "ĠFoxy": 8027,
    "Ġvines": 8028,
    "Ġexpect": 8029,
    "heart": 8030,
    "Ġlimp": 8031,
    "Ġtraded": 8032,
    "Ġtex": 8033,
    "Bubbles": 8034,
    "Ġcla": 8035,
    "ella": 8036,
    "Ġtrade": 8037,
    "urkey": 8038,
    "ĠGabby": 8039,
    "Ġgrab": 8040,
    "Ġdust": 8041,
    "ĠSparky": 8042,
    "Big": 8043,
    "ara": 8044,
    "Ġsquaw": 8045,
    "Ġseem": 8046,
    "Jeff": 8047,
    "Ġoven": 8048,
    "Ġlonger": 8049,
    "Ġstructures": 8050,
    "Ġyaw": 8051,
    "lyn": 8052,
    "Ġnodded": 8053,
    "Ġincluding": 8054,
    "Ġlabels": 8055,
    "Ġoil": 8056,
    "Ġphone": 8057,
    "ĠAlthough": 8058,
    "unched": 8059,
    "Ġfunn": 8060,
    "rill": 8061,
    "Ġbasketball": 8062,
    "Ġstorms": 8063,
    "ę": 8064,
    "ĠOld": 8065,
    "oline": 8066,
    "ĠEl": 8067,
    "Ġsail": 8068,
    "riger": 8069,
    "Ġste": 8070,
    "aughty": 8071,
    "Ġroad": 8072,
    "Ġhist": 8073,
    "ĠMousy": 8074,
    "Ġfoam": 8075,
    "Ġguardian": 8076,
    "Ġstorekeeper": 8077,
    "Splash": 8078,
    "ĵ": 8079,
    "ĠSmo": 8080,
    "Ġtouched": 8081,
    "Ġhappiest": 8082,
    "Ġrows": 8083,
    "Ġstaring": 8084,
    "Ġpacking": 8085,
    "ri": 8086,
    "Ġyouth": 8087,
    "Ġmask": 8088,
    "ĠBen": 8089,
    "ipp": 8090,
    "Ġattempts": 8091,
    "Ġplays": 8092,
    "orted": 8093,
    "ĠQueen": 8094,
    "Ġbreath": 8095,
    "Ġmold": 8096,
    "Ġflav": 8097,
    "Ġpracticing": 8098,
    "Ġlogs": 8099,
    "Ġanimals": 8100,
    "Ġsafe": 8101,
    "ĠDoes": 8102,
    "ken": 8103,
    "olly": 8104,
    "Ġcongratulated": 8105,
    "Ġpupil": 8106,
    "Ġcroak": 8107,
    "idy": 8108,
    "Ġtemper": 8109,
    "Ġshorter": 8110,
    "Ġcompetit": 8111,
    "Ġtomatoes": 8112,
    "Ġgum": 8113,
    "Ġstraight": 8114,
    "Ġpassengers": 8115,
    "Ġlectures": 8116,
    "ĠSocky": 8117,
    "Ġtroph": 8118,
    "Ġjudge": 8119,
    "Achoo": 8120,
    "ĠOnly": 8121,
    "Ġbiscuit": 8122,
    "Ġgun": 8123,
    "attered": 8124,
    "Ġtrigger": 8125,
    "ĠImmediately": 8126,
    "Ġdoesn": 8127,
    "orse": 8128,
    "Ġtwice": 8129,
    "nie": 8130,
    "Ġcountry": 8131,
    "Ġhappening": 8132,
    "Ġrealize": 8133,
    "worm": 8134,
    "Ġsigning": 8135,
    "ĠBumpy": 8136,
    "Ġchosen": 8137,
    "'.\"": 8138,
    "Ġfootsteps": 8139,
    "Ġfairies": 8140,
    "Ġherbs": 8141,
    "ven": 8142,
    "Ġintroduce": 8143,
    "Ġpattern": 8144,
    "emies": 8145,
    "Ġsweater": 8146,
    "Betty": 8147,
    "Ġpear": 8148,
    "Ġjoking": 8149,
    "ipop": 8150,
    "elling": 8151,
    "Ġfan": 8152,
    "ĠHere": 8153,
    "Ġexcitedly": 8154,
    "rage": 8155,
    "Ġflies": 8156,
    "ĠBee": 8157,
    "ade": 8158,
    "Ġpri": 8159,
    "Ġdolphin": 8160,
    "Ġspears": 8161,
    "Ġnuts": 8162,
    "Johnny": 8163,
    "ĠZ": 8164,
    "ĠUntil": 8165,
    "Ġnever": 8166,
    "Ġcob": 8167,
    "Ġtravels": 8168,
    "Ġbirthday": 8169,
    "hew": 8170,
    "Ġwho": 8171,
    "Ġrever": 8172,
    "Jo": 8173,
    "Ġtalks": 8174,
    "Ġstethoscope": 8175,
    "Ġcras": 8176,
    "eath": 8177,
    "Ġloudly": 8178,
    "urry": 8179,
    ",\"": 8180,
    "Ġneighborhood": 8181,
    "Ġchecks": 8182,
    "Ġseas": 8183,
    "Ġroared": 8184,
    "Ġyears": 8185,
    "Ġchoice": 8186,
    "Ġjuicy": 8187,
    "Ġsecond": 8188,
    "Ġsigns": 8189,
    "Ġst": 8190,
    "keeper": 8191,
    "ĠBill": 8192,
    "ĠAnnabelle": 8193,
    "ipper": 8194,
    "Ġswing": 8195,
    "',": 8196,
    "Ġsunf": 8197,
    "gest": 8198,
    "Billy": 8199,
    "Ġeveryone": 8200,
    "iggles": 8201,
    "©": 8202,
    ":": 8203,
    "Ġhockey": 8204,
    "Ġdeserve": 8205,
    "Ġoverw": 8206,
    "Ahh": 8207,
    "ĠIcy": 8208,
    "Ġitself": 8209,
    "ond": 8210,
    "Ġtor": 8211,
    "Ġplanning": 8212,
    "ĠZara": 8213,
    "Matt": 8214,
    "ten": 8215,
    "Ġspec": 8216,
    "Ġtroubles": 8217,
    "Ġn": 8218,
    "Ġurged": 8219,
    "Ġmic": 8220,
    "ible": 8221,
    "Ġfilthy": 8222,
    "astic": 8223,
    "Ġability": 8224,
    "ĠWednesday": 8225,
    "ke": 8226,
    "For": 8227,
    "Ġfet": 8228,
    "Ġquarreling": 8229,
    "Ġcompan": 8230,
    "ĠSplash": 8231,
    "vest": 8232,
    "Ġmint": 8233,
    "anie": 8234,
    "Ġpun": 8235,
    "Ġappear": 8236,
    "quest": 8237,
    "Ġtempted": 8238,
    "Ġguards": 8239,
    "Ġknives": 8240,
    "ĠUn": 8241,
    "oss": 8242,
    "ĠCr": 8243,
    "Ġcopper": 8244,
    "r": 8245,
    "ě": 8246,
    "ĠAshley": 8247,
    "Ġflashing": 8248,
    "Ġyog": 8249,
    "Ġwarning": 8250,
    "bbles": 8251,
    "vice": 8252,
    "iar": 8253,
    "Ġpilot": 8254,
    "ung": 8255,
    "Ġdaddy": 8256,
    "Ġwagging": 8257,
    "ĠNutty": 8258,
    "Ġcones": 8259,
    "ĠBye": 8260,
    "Ġmuseum": 8261,
    "Mo": 8262,
    "Ġscreams": 8263,
    "Ġhour": 8264,
    "Ġblood": 8265,
    "Ġform": 8266,
    "llie": 8267,
    "Ġbrus": 8268,
    "ĠMine": 8269,
    "Ġsoda": 8270,
    "ĠFly": 8271,
    "ially": 8272,
    "Ġscoot": 8273,
    "õ": 8274,
    "âĢ¦": 8275,
    "ĠDaisy": 8276,
    "ĠGra": 8277,
    "Ġcelebration": 8278,
    "Ġcooper": 8279,
    "Ġmoat": 8280,
    "Ġrains": 8281,
    "Ġbase": 8282,
    "quet": 8283,
    "Ġpieces": 8284,
    "Ġtunes": 8285,
    "ero": 8286,
    "ssible": 8287,
    "Ġapologized": 8288,
    "·": 8289,
    "oop": 8290,
    "Those": 8291,
    "ĠJon": 8292,
    "Ġbully": 8293,
    "el": 8294,
    "Ġchecked": 8295,
    "A": 8296,
    "Ġtelephone": 8297,
    "Hannah": 8298,
    "Ġprayed": 8299,
    "Ġactiv": 8300,
    "ĠStep": 8301,
    "Ġchatting": 8302,
    "unch": 8303,
    "ĠJoy": 8304,
    "Ġears": 8305,
    "Ġgrandfather": 8306,
    "og": 8307,
    "Ġtiger": 8308,
    "Ġwh": 8309,
    "Ġfrowned": 8310,
    "Zoomy": 8311,
    "ĠBeth": 8312,
    "Ġwadd": 8313,
    "Adam": 8314,
    "ences": 8315,
    "keleton": 8316,
    "ĠFairy": 8317,
    "Ġhistory": 8318,
    "ĠWoolly": 8319,
    "Ġwaffle": 8320,
    "Silly": 8321,
    "Ġindepend": 8322,
    "Ġingredient": 8323,
    "irts": 8324,
    "ĠPeggy": 8325,
    "Ġfeels": 8326,
    "Ġugly": 8327,
    "Ġshoulders": 8328,
    "Ġjewel": 8329,
    "get": 8330,
    "Ġel": 8331,
    "Ġfurt": 8332,
    "ĠJohnny": 8333,
    "Anne": 8334,
    "emon": 8335,
    "Okay": 8336,
    "Ġcut": 8337,
    "rink": 8338,
    "Ġsoil": 8339,
    "Ġlaser": 8340,
    "ĠMany": 8341,
    "Ġhonks": 8342,
    "Ġquack": 8343,
    "Alright": 8344,
    "Ġappeared": 8345,
    "Ball": 8346,
    "Bear": 8347,
    "we": 8348,
    "ĠTiti": 8349,
    "Ġfascin": 8350,
    "Ġbars": 8351,
    "umpet": 8352,
    "Ġcuri": 8353,
    "ĠPick": 8354,
    "Ġdisco": 8355,
    "Ġbelieve": 8356,
    "Ġitems": 8357,
    "Ġcaterpillars": 8358,
    "Ġtemple": 8359,
    "Ġelectricity": 8360,
    "Ġdarkness": 8361,
    "ner": 8362,
    "Ġorders": 8363,
    "Whiskers": 8364,
    "ished": 8365,
    "Bobo": 8366,
    "ĠAnnie": 8367,
    "Ġdoctors": 8368,
    "ana": 8369,
    "Ġhandle": 8370,
    "Spot": 8371,
    "The": 8372,
    "cks": 8373,
    "Ġshiny": 8374,
    "ips": 8375,
    "Ġrats": 8376,
    "Ġfacing": 8377,
    "Ġfolded": 8378,
    "net": 8379,
    "ang": 8380,
    "ĠBuddy": 8381,
    "Ġtucked": 8382,
    "Ġdaughter": 8383,
    "igail": 8384,
    "ĠBecky": 8385,
    "Ġcalled": 8386,
    "Ġapology": 8387,
    "Ġneigh": 8388,
    "Ġclimbing": 8389,
    "was": 8390,
    "Ġpoop": 8391,
    "Ġtypes": 8392,
    "Ġdest": 8393,
    "Ġtwinkling": 8394,
    "Ġflapping": 8395,
    "elope": 8396,
    "Ġpot": 8397,
    "Ġswung": 8398,
    "Ġfine": 8399,
    "Ġcaring": 8400,
    "Ġfirefly": 8401,
    "Ġwipes": 8402,
    "ĠDay": 8403,
    "Ġsister": 8404,
    "Ġbowing": 8405,
    "ĠPark": 8406,
    "Ġmooed": 8407,
    "onest": 8408,
    "ĠNo": 8409,
    "while": 8410,
    "ĠRaven": 8411,
    "Ġleop": 8412,
    "Ġearth": 8413,
    "ĠSoon": 8414,
    "Ġfever": 8415,
    "Ġscent": 8416,
    "Ġneat": 8417,
    "Ġsquash": 8418,
    "ĠNut": 8419,
    "ĠFlop": 8420,
    "ĠAli": 8421,
    "Ġscraped": 8422,
    "Ġflag": 8423,
    "Ġchill": 8424,
    "Ġsurprising": 8425,
    "Ġburger": 8426,
    "m": 8427,
    "andas": 8428,
    "Ġslowly": 8429,
    "ĠChris": 8430,
    "Ġconfidence": 8431,
    "right": 8432,
    "Ġupstairs": 8433,
    "Ġshaped": 8434,
    "ours": 8435,
    "Ġrinsed": 8436,
    "Ġdoorstep": 8437,
    "Now": 8438,
    "Ġbubbles": 8439,
    "ĠBounce": 8440,
    "Ġrul": 8441,
    "ush": 8442,
    "Ġag": 8443,
    "bo": 8444,
    "Ġlook": 8445,
    "Ġcookie": 8446,
    "ually": 8447,
    "Ġnoises": 8448,
    "Ġgrowling": 8449,
    "esome": 8450,
    "river": 8451,
    "ĠLuckily": 8452,
    "Ġfinishes": 8453,
    "usty": 8454,
    "ĠGet": 8455,
    "Ġhiding": 8456,
    "!\"": 8457,
    "hed": 8458,
    "Ġloses": 8459,
    "Ġunwra": 8460,
    "Ġoh": 8461,
    "Ġmust": 8462,
    "amb": 8463,
    "Ġsausage": 8464,
    "ĠSasha": 8465,
    "ĠFin": 8466,
    "Ġimproved": 8467,
    "Ġtrain": 8468,
    "Ġfresh": 8469,
    "pt": 8470,
    "Ġspy": 8471,
    "ĠMother": 8472,
    "Ġyoung": 8473,
    "Ġpillow": 8474,
    "Ġrescued": 8475,
    "Ġuniver": 8476,
    "ĠPlay": 8477,
    "Boys": 8478,
    "Ġjets": 8479,
    "ny": 8480,
    "Ġlaws": 8481,
    "Ġcon": 8482,
    "Freddy": 8483,
    "ins": 8484,
    "Ġgetting": 8485,
    "Ġdef": 8486,
    "cie": 8487,
    "ĠStretch": 8488,
    "Ġonto": 8489,
    "Ġdinner": 8490,
    "Ġcase": 8491,
    "Ġjars": 8492,
    "Ġwool": 8493,
    "Ġsets": 8494,
    "Ġdet": 8495,
    "Ġju": 8496,
    "Mary": 8497,
    "Ġmischievous": 8498,
    "Ġlearning": 8499,
    "Ġexplo": 8500,
    "oth": 8501,
    "othy": 8502,
    "Ġsalad": 8503,
    "Re": 8504,
    "asis": 8505,
    "Ġconvinced": 8506,
    "arter": 8507,
    "Ġfloats": 8508,
    "ighting": 8509,
    "Ġvisitor": 8510,
    "Ġhigher": 8511,
    "out": 8512,
    "Dear": 8513,
    "ning": 8514,
    "stick": 8515,
    "indr": 8516,
    "Ġcastle": 8517,
    "Ġboss": 8518,
    "Ġsweaters": 8519,
    "Ġdanger": 8520,
    "ike": 8521,
    "Ġembra": 8522,
    "ĠGogo": 8523,
    "Sad": 8524,
    "ĠMeg": 8525,
    "Fr": 8526,
    "Ġanswered": 8527,
    "Ġjobs": 8528,
    "Ġinvent": 8529,
    "Ġswapped": 8530,
    "Karen": 8531,
    "Ġcorn": 8532,
    "Ġscares": 8533,
    "Ġparked": 8534,
    "OO": 8535,
    "Ĥ": 8536,
    "Ġswam": 8537,
    "Z": 8538,
    "Ġbridges": 8539,
    "Ġcro": 8540,
    "Ġfault": 8541,
    "Ġhorse": 8542,
    "ĠYou": 8543,
    "Ġbathroom": 8544,
    "These": 8545,
    "iky": 8546,
    "Ġcentre": 8547,
    "Ġsun": 8548,
    "Ġfroze": 8549,
    "aids": 8550,
    "Ġsetting": 8551,
    "bers": 8552,
    "onnie": 8553,
    "Ġhunting": 8554,
    "play": 8555,
    "Ġtire": 8556,
    "Ġmarkers": 8557,
    "Ġfrowns": 8558,
    "Ġdipped": 8559,
    "ĠCare": 8560,
    "alph": 8561,
    "asy": 8562,
    "Ġend": 8563,
    "Ġstared": 8564,
    "emma": 8565,
    "Ġprune": 8566,
    "ĠDucky": 8567,
    "Ġsaf": 8568,
    "Ġbaker": 8569,
    "Ġsew": 8570,
    "Ġcard": 8571,
    "Ġgood": 8572,
    "Ġsnap": 8573,
    "Ġsatisfied": 8574,
    "Ġgasped": 8575,
    "Ġautomobile": 8576,
    "Ġflown": 8577,
    "bee": 8578,
    "Ġruff": 8579,
    "Ġemergen": 8580,
    ".'\"": 8581,
    "Ġweeds": 8582,
    "Ġfo": 8583,
    "Ġanx": 8584,
    "Ġdied": 8585,
    "ĠWooly": 8586,
    "ube": 8587,
    "Ġbathing": 8588,
    "Ġyard": 8589,
    "Ġfarmers": 8590,
    "Ġwigg": 8591,
    "Ġlies": 8592,
    "Ġpolite": 8593,
    "ĠGracie": 8594,
    "ĠBlue": 8595,
    "Ġstubb": 8596,
    "Ġsiren": 8597,
    "Ġrotten": 8598,
    "Ġcheetah": 8599,
    "Ġpicks": 8600,
    "Ġfriend": 8601,
    "everse": 8602,
    "Ġvinegar": 8603,
    "Ġcou": 8604,
    "Ġsuggested": 8605,
    "Ġbri": 8606,
    "acob": 8607,
    "Ġserving": 8608,
    "Ġgrat": 8609,
    "Ġseal": 8610,
    "oot": 8611,
    "ĠMole": 8612,
    "Ġreceive": 8613,
    "Whose": 8614,
    "Č": 8615,
    "ammy": 8616,
    "Ġpeeled": 8617,
    "key": 8618,
    "ĠAb": 8619,
    "Ġcorrect": 8620,
    "ĠBubu": 8621,
    "Ġcoughed": 8622,
    "Ġstun": 8623,
    "Ġbeard": 8624,
    "Ġhill": 8625,
    "Ġrepl": 8626,
    "Ġchopping": 8627,
    "ĠCopper": 8628,
    "ĠDespite": 8629,
    "antly": 8630,
    "Ġbuck": 8631,
    "Any": 8632,
    "ĠOf": 8633,
    "imney": 8634,
    "Ġpossible": 8635,
    "Ġbeside": 8636,
    "Ġsteer": 8637,
    "ind": 8638,
    "esterday": 8639,
    "Hurry": 8640,
    "Ġsituation": 8641,
    "Sque": 8642,
    "Ġexercise": 8643,
    "Ġstung": 8644,
    "ĠPoor": 8645,
    "Ġpaused": 8646,
    "Ġtrusts": 8647,
    "Ġkitchen": 8648,
    "Ġwide": 8649,
    "Ġpigs": 8650,
    "Ġbicy": 8651,
    "Ġsit": 8652,
    "ĠMissy": 8653,
    "Ġparks": 8654,
    "Ô": 8655,
    "Ġunfamiliar": 8656,
    "cu": 8657,
    "icer": 8658,
    "Ġoak": 8659,
    "Ġfields": 8660,
    "isions": 8661,
    "Ġdreams": 8662,
    "Ġclearly": 8663,
    "ĠFox": 8664,
    "oger": 8665,
    "Then": 8666,
    "Ġstirred": 8667,
    "Ġpulls": 8668,
    "No": 8669,
    "Ġforg": 8670,
    "Ġtomorrow": 8671,
    "Ooh": 8672,
    "est": 8673,
    "Ġsink": 8674,
    "Ġcrack": 8675,
    "Ġthankful": 8676,
    "ĠLouise": 8677,
    "Ġberry": 8678,
    "cious": 8679,
    "ĠMaggie": 8680,
    "osed": 8681,
    "Ġresponsibility": 8682,
    "Ġmonsters": 8683,
    "Ġhorri": 8684,
    "\".": 8685,
    "ess": 8686,
    "bles": 8687,
    "ĠPast": 8688,
    "Ġsnapped": 8689,
    "Ġarranged": 8690,
    "ĠAlly": 8691,
    "Ġback": 8692,
    "Ġtie": 8693,
    "ĠWiggly": 8694,
    "Tweet": 8695,
    "Ġnatural": 8696,
    "Ġgift": 8697,
    "igator": 8698,
    "elp": 8699,
    "Ġstrong": 8700,
    "ĠBilly": 8701,
    "Ġyawn": 8702,
    "ĠZee": 8703,
    "ĠLily": 8704,
    "iant": 8705,
    "Ġblink": 8706,
    "ĠQuacky": 8707,
    "ident": 8708,
    "Ġtale": 8709,
    "Ġbellies": 8710,
    "Ġaut": 8711,
    "Ġwings": 8712,
    "Ġcaps": 8713,
    "Ġstu": 8714,
    "Ġstrawberries": 8715,
    "Ġperf": 8716,
    "berries": 8717,
    "oke": 8718,
    "Ġcelebrated": 8719,
    "Ġtrees": 8720,
    "ĠGlow": 8721,
    "Benny": 8722,
    "Ġspice": 8723,
    "ĠHelping": 8724,
    "ĠPet": 8725,
    "Ġbuying": 8726,
    "ĠPatch": 8727,
    "Ġgently": 8728,
    "ĠRara": 8729,
    "ello": 8730,
    "ople": 8731,
    "Ġforth": 8732,
    "Each": 8733,
    "He": 8734,
    "Ġones": 8735,
    "Ġbehaving": 8736,
    "arden": 8737,
    "Ġemp": 8738,
    "elie": 8739,
    "Ġcreative": 8740,
    "Ġplenty": 8741,
    "Ġsqu": 8742,
    "ell": 8743,
    "icking": 8744,
    "Ġincreased": 8745,
    "ophone": 8746,
    "Ġchirped": 8747,
    "ĠBessie": 8748,
    "Ġhall": 8749,
    "Ġfilms": 8750,
    "ĠHippy": 8751,
    "ining": 8752,
    "Ġv": 8753,
    "Ľ": 8754,
    "Ġconquered": 8755,
    "uggage": 8756,
    "ĠFelix": 8757,
    "Ġthu": 8758,
    "ĠV": 8759,
    "Ġweird": 8760,
    "ĠH": 8761,
    "ĠS": 8762,
    "Ġcrabs": 8763,
    "Ġextra": 8764,
    "Ġfireman": 8765,
    "Ġbottles": 8766,
    "Ġstone": 8767,
    "lish": 8768,
    "Ġgrown": 8769,
    "Ġnews": 8770,
    "Ġcrouched": 8771,
    "Ġonly": 8772,
    "Ġwrite": 8773,
    "Ġbit": 8774,
    "Ġstruck": 8775,
    "Ġblocked": 8776,
    "Ġisland": 8777,
    "Ġtying": 8778,
    "Ġgive": 8779,
    "Ġfeathers": 8780,
    "Im": 8781,
    "Ġfastest": 8782,
    "Ġdeserves": 8783,
    "ring": 8784,
    "Ġglitter": 8785,
    "Ġreaches": 8786,
    "ord": 8787,
    "¼": 8788,
    "Ġsuffering": 8789,
    "Ġrivers": 8790,
    "Ġcharming": 8791,
    "ĠBeing": 8792,
    "Ġdessert": 8793,
    "Molly": 8794,
    "gu": 8795,
    "rough": 8796,
    "ĠSnake": 8797,
    "where": 8798,
    "Ġfluttered": 8799,
    "Ġdirection": 8800,
    "Ġwear": 8801,
    "Ġdisturbing": 8802,
    "Ġwing": 8803,
    "Goodbye": 8804,
    "Ġtw": 8805,
    "Ġnecks": 8806,
    "col": 8807,
    "Ġret": 8808,
    "Ġcrane": 8809,
    "Ġhow": 8810,
    "Ġmagn": 8811,
    "Ġtravel": 8812,
    "ĠDog": 8813,
    "Ġsquee": 8814,
    "Ġattitude": 8815,
    "Ġbites": 8816,
    "Ġdiamonds": 8817,
    "Ġcomputer": 8818,
    "uses": 8819,
    "ounce": 8820,
    "Ġinsp": 8821,
    "Ġremote": 8822,
    "Ġflat": 8823,
    "cond": 8824,
    "Ġyucky": 8825,
    "Ġl": 8826,
    "Ġsuperheroes": 8827,
    "ĠBerry": 8828,
    "'d": 8829,
    "ounced": 8830,
    "Ġenemy": 8831,
    "ĠBobbie": 8832,
    "hest": 8833,
    "otte": 8834,
    "Ġdeeply": 8835,
    "Ġlibrarian": 8836,
    "Ġgreat": 8837,
    "Ġhospital": 8838,
    "Ġvictory": 8839,
    "Ġopened": 8840,
    "Ġspeaking": 8841,
    "Ġjazz": 8842,
    "Ġready": 8843,
    "ĠSophia": 8844,
    "nt": 8845,
    "Ġdrawings": 8846,
    "Ġrags": 8847,
    "ange": 8848,
    "Ġcoral": 8849,
    "Ġinsisting": 8850,
    "Emma": 8851,
    "Ġgrabbed": 8852,
    "Ġsprout": 8853,
    "ĠJaney": 8854,
    "all": 8855,
    "low": 8856,
    "Ġdiscovered": 8857,
    "Ġpeeks": 8858,
    "Sally": 8859,
    "Alex": 8860,
    "more": 8861,
    "Ġchoices": 8862,
    "Ġbloom": 8863,
    "Mia": 8864,
    "xu": 8865,
    "Ġwolf": 8866,
    "Ġgranddaughter": 8867,
    "Ġkissing": 8868,
    "illa": 8869,
    "Ġjewelry": 8870,
    "Ġapplauded": 8871,
    "rn": 8872,
    "Ġmer": 8873,
    "Ġconnect": 8874,
    "ĠSkip": 8875,
    "Ġrocks": 8876,
    "Ġcond": 8877,
    "Ġsmiled": 8878,
    "Ġcelebr": 8879,
    "ĠSpike": 8880,
    "ã": 8881,
    "Being": 8882,
    "ĠBree": 8883,
    "Ġbandage": 8884,
    "Ġtried": 8885,
    "Ġpoints": 8886,
    "Ġdriver": 8887,
    "zie": 8888,
    "side": 8889,
    "ĠFishy": 8890,
    "Ġactive": 8891,
    "Ġinjured": 8892,
    "Fifi": 8893,
    "ĠSam": 8894,
    "Ġsick": 8895,
    "ĠStan": 8896,
    "ĠRose": 8897,
    "ĠMomma": 8898,
    "Ġex": 8899,
    "Ġbeehive": 8900,
    "Ġvide": 8901,
    "Ġsurfing": 8902,
    "Ġgroceries": 8903,
    "ĠFreddy": 8904,
    "Ġpuppets": 8905,
    "ĠRobert": 8906,
    "Ķ": 8907,
    "Ġsauce": 8908,
    "Ġmunched": 8909,
    "rigued": 8910,
    "Rose": 8911,
    "Ġcountryside": 8912,
    "Ġjogging": 8913,
    "Ġquickly": 8914,
    "Ĉ": 8915,
    "Ġcarrots": 8916,
    "Ġsalty": 8917,
    "°": 8918,
    "ready": 8919,
    "Ġindeed": 8920,
    "ĠMaya": 8921,
    "Ġshopping": 8922,
    "com": 8923,
    "Ġgiving": 8924,
    "Ġtowels": 8925,
    "ueen": 8926,
    "Ġpiggy": 8927,
    "unn": 8928,
    "shm": 8929,
    "Ġwaiter": 8930,
    "Ġpedal": 8931,
    "Ġpolishing": 8932,
    "Ġwiping": 8933,
    "Ļ": 8934,
    "Ġsaved": 8935,
    "Ġprod": 8936,
    "Ġpastries": 8937,
    "Ġtodd": 8938,
    "Ġmasterpiece": 8939,
    "Ġbelongs": 8940,
    "ase": 8941,
    "pen": 8942,
    "ores": 8943,
    "Ġthicker": 8944,
    "ĠKeep": 8945,
    "ė": 8946,
    "Ġpuppies": 8947,
    "Ġinj": 8948,
    "Ġintrigued": 8949,
    "ark": 8950,
    "Excited": 8951,
    "Ava": 8952,
    "Ġspring": 8953,
    "eddy": 8954,
    "urch": 8955,
    "Ġprot": 8956,
    "Ġwant": 8957,
    "Go": 8958,
    "Luke": 8959,
    "Ġmast": 8960,
    "lebr": 8961,
    "Ġbreaks": 8962,
    "ley": 8963,
    "Ġhonesty": 8964,
    "Ġcowboys": 8965,
    "Ġadventur": 8966,
    "Ġjokes": 8967,
    "Ġrespect": 8968,
    "ĠApril": 8969,
    "Ġnails": 8970,
    "ishes": 8971,
    "Ġlively": 8972,
    "Ġfought": 8973,
    "Ġelf": 8974,
    "apping": 8975,
    "Hoppy": 8976,
    "ĠRuff": 8977,
    "air": 8978,
    "Ġcatch": 8979,
    "Ġtongues": 8980,
    "Ġgrace": 8981,
    "Nice": 8982,
    "Ġsomebody": 8983,
    "Ġfather": 8984,
    "Ġgo": 8985,
    "ake": 8986,
    "Ġstroll": 8987,
    "elle": 8988,
    "tt": 8989,
    "Ġcoach": 8990,
    "Ġdelighted": 8991,
    "Ġtongue": 8992,
    "Ġa": 8993,
    "Ġyourselves": 8994,
    "bbing": 8995,
    "ĠGill": 8996,
    "Ġhanded": 8997,
    "my": 8998,
    "Ġcutter": 8999,
    "Ġthis": 9000,
    "eropl": 9001,
    "Ġval": 9002,
    "Ġharsh": 9003,
    "ium": 9004,
    "Ġdreamt": 9005,
    "'re": 9006,
    "Ġdraws": 9007,
    "Ġshell": 9008,
    "Ġstrang": 9009,
    "Ġchewed": 9010,
    "Ġnam": 9011,
    "Ġsteps": 9012,
    "Ġsoak": 9013,
    "ommend": 9014,
    "Ġswept": 9015,
    "1": 9016,
    "Nina": 9017,
    "ĠLulu": 9018,
    "ġ": 9019,
    "Fred": 9020,
    "Ġhappiness": 9021,
    "Ġwhistling": 9022,
    "Ġlist": 9023,
    "Ġsuccessful": 9024,
    "Ġintently": 9025,
    "ĠRoger": 9026,
    "ĳ": 9027,
    "bye": 9028,
    "Ġmember": 9029,
    "ĠCandy": 9030,
    "uing": 9031,
    "Ġamused": 9032,
    "vers": 9033,
    "&": 9034,
    "stalk": 9035,
    "Ġparticular": 9036,
    "Ġpearls": 9037,
    "Ġdisagreed": 9038,
    "Ġwoodcut": 9039,
    "Ġsurroundings": 9040,
    "Ġdoes": 9041,
    "Ġbranch": 9042,
    "Ġwrench": 9043,
    "Ġguit": 9044,
    "tle": 9045,
    "Ġforward": 9046,
    "etter": 9047,
    "Bobby": 9048,
    "Ġleads": 9049,
    "Ġmother": 9050,
    "Ġreindeer": 9051,
    "uit": 9052,
    "Ġdanced": 9053,
    "Ġworks": 9054,
    "Ġfolding": 9055,
    "ĠNice": 9056,
    "sa": 9057,
    "isdom": 9058,
    "Ġdecorations": 9059,
    "Ġdinosaur": 9060,
    "Ġdesks": 9061,
    "Uh": 9062,
    "Ġencourag": 9063,
    "Ġreplace": 9064,
    "Ġprovide": 9065,
    "Ġattached": 9066,
    "Ġold": 9067,
    "Ġpurse": 9068,
    "Ġimpossible": 9069,
    "Ġhoriz": 9070,
    "ealing": 9071,
    "Ġpoked": 9072,
    "Ġloved": 9073,
    "Shoo": 9074,
    "|": 9075,
    "Ġbuckle": 9076,
    "<|endoftext|>": 9077,
    "Ġanyone": 9078,
    "Ruby": 9079,
    "Ġballoons": 9080,
    "Ġinse": 9081,
    "Ġremembers": 9082,
    "oin": 9083,
    "Ġdisobeyed": 9084,
    "omeday": 9085,
    "Ġpins": 9086,
    "Ġfing": 9087,
    "Ġbedroom": 9088,
    "Ġcheckout": 9089,
    "h": 9090,
    "Quack": 9091,
    "ĠGrace": 9092,
    "Ġalien": 9093,
    "ĠExcited": 9094,
    "Ġbalance": 9095,
    "ĠMelissa": 9096,
    "Ġnote": 9097,
    "ens": 9098,
    "Ġfriendly": 9099,
    "Ġhopped": 9100,
    "Ġpresent": 9101,
    "Yesterday": 9102,
    "Un": 9103,
    "ĠWin": 9104,
    "ary": 9105,
    "Ġcoat": 9106,
    "Ġaim": 9107,
    "ĠMa": 9108,
    "Ġotter": 9109,
    "Ġobserving": 9110,
    "Ġsque": 9111,
    "Ġfavorite": 9112,
    "Ġunderstood": 9113,
    "Ġfearful": 9114,
    "Ġreassured": 9115,
    "Ġchess": 9116,
    "ĠHel": 9117,
    "Ġscore": 9118,
    "Maria": 9119,
    "ily": 9120,
    "Ġmodest": 9121,
    "Ġpitch": 9122,
    "Ġaff": 9123,
    "Ġsurprises": 9124,
    "Ġtem": 9125,
    "ĠY": 9126,
    "Did": 9127,
    "Ġinvestigate": 9128,
    "Ġcount": 9129,
    "Ġsailboat": 9130,
    "Birdy": 9131,
    "ject": 9132,
    "Ġped": 9133,
    "Ġmum": 9134,
    "Ġor": 9135,
    "boo": 9136,
    "lls": 9137,
    "ĠRex": 9138,
    "Ġnuzz": 9139,
    "Ġstuffing": 9140,
    "Ġporch": 9141,
    "Ġch": 9142,
    "icopter": 9143,
    "ulu": 9144,
    "ction": 9145,
    "ety": 9146,
    "'m": 9147,
    "eth": 9148,
    "Ġevery": 9149,
    "Ġsearched": 9150,
    "Ĵ": 9151,
    "ĠAlice": 9152,
    "?!\"": 9153,
    "Ġant": 9154,
    "Ġlistening": 9155,
    "Ġsneaked": 9156,
    "ĠSmith": 9157,
    "oom": 9158,
    "ĠTwo": 9159,
    "Ġmassage": 9160,
    "ĠMaddy": 9161,
    "ĠMixie": 9162,
    "year": 9163,
    "Ġturning": 9164,
    "Ġkitty": 9165,
    "Ġkingdom": 9166,
    "Ġtriangles": 9167,
    "ges": 9168,
    "Ġpl": 9169,
    "Ġvend": 9170,
    "Welcome": 9171,
    "ĠHer": 9172,
    "ol": 9173,
    "Ġcupcakes": 9174,
    "anish": 9175,
    "ā": 9176,
    "ving": 9177,
    "'ve": 9178,
    "Ġtilted": 9179,
    "ucet": 9180,
    "ĠPlaying": 9181,
    "irl": 9182,
    "Ġclosed": 9183,
    "Ġincreasing": 9184,
    "Ġservant": 9185,
    "Ġwearing": 9186,
    "Ġwood": 9187,
    "Ġbelts": 9188,
    "Ġangry": 9189,
    "Ġbarn": 9190,
    "ĠBuster": 9191,
    "ĠLightning": 9192,
    "Ring": 9193,
    "Ġgoing": 9194,
    "Meow": 9195,
    "Ġdrives": 9196,
    "Ġcompass": 9197,
    "Cat": 9198,
    "Ġbent": 9199,
    "ced": 9200,
    "Ġoff": 9201,
    "Ġtaught": 9202,
    "Ġoutside": 9203,
    "Ġbeans": 9204,
    "llow": 9205,
    "ĠGus": 9206,
    "Ġexhausted": 9207,
    "ado": 9208,
    "Ġtil": 9209,
    "ĠGr": 9210,
    "aul": 9211,
    "Ġswords": 9212,
    "Ġflower": 9213,
    "ĠMilly": 9214,
    "Ġtable": 9215,
    "Ġseason": 9216,
    "Ġcoug": 9217,
    "ĠKim": 9218,
    "ĠBut": 9219,
    "Ġtips": 9220,
    "Ġlim": 9221,
    "Ġfixing": 9222,
    "ulpture": 9223,
    "Ġfavour": 9224,
    "Ġrelaxed": 9225,
    "Ġactually": 9226,
    "cus": 9227,
    "Ġclay": 9228,
    "cuss": 9229,
    "Ġpig": 9230,
    "Ġmatches": 9231,
    "Ġthrowing": 9232,
    "Ā": 9233,
    "ĠFl": 9234,
    "Julia": 9235,
    "Ġtrusting": 9236,
    "ĠPhil": 9237,
    "Ġprett": 9238,
    "Ġneighbor": 9239,
    "ugg": 9240,
    "Ġbro": 9241,
    "byes": 9242,
    "Ġdolph": 9243,
    "Ġbowed": 9244,
    "Ġtrapped": 9245,
    "Ġtunnels": 9246,
    "Ġgeese": 9247,
    "ĠOnce": 9248,
    "ĠThe": 9249,
    "Ġmeat": 9250,
    "ĠBluey": 9251,
    "Ġsquish": 9252,
    "Ġfluttering": 9253,
    "Ġbutterf": 9254,
    "ted": 9255,
    "Ġcleans": 9256,
    "ĠKip": 9257,
    "Ġcalendar": 9258,
    "ĠTia": 9259,
    "ĠAny": 9260,
    "Ġsoftened": 9261,
    "Ġcautiously": 9262,
    "Ġmuddy": 9263,
    "ft": 9264,
    "Ġbubb": 9265,
    "¥": 9266,
    "Ġgotten": 9267,
    "Ġbarrel": 9268,
    "Ġyumm": 9269,
    "Ġgoodness": 9270,
    "Ġaren": 9271,
    "Ġliz": 9272,
    "arlotte": 9273,
    "Ġcross": 9274,
    "Ġmatters": 9275,
    "arent": 9276,
    "hings": 9277,
    "ĠJack": 9278,
    "Ġfilm": 9279,
    "Ġenvel": 9280,
    "Ġreturn": 9281,
    "Ġmarch": 9282,
    "Ġsupported": 9283,
    "Ġlistener": 9284,
    "Ġinvit": 9285,
    "airy": 9286,
    "Ġdisappear": 9287,
    "Ġcheers": 9288,
    "Ġfu": 9289,
    "Ġzipp": 9290,
    "Ġwent": 9291,
    "ĠVivi": 9292,
    "ĠHerb": 9293,
    "ĠSal": 9294,
    "Ġgazing": 9295,
    "Ġdisappearing": 9296,
    "Ġcone": 9297,
    "Bang": 9298,
    "Ġtutor": 9299,
    "Ġcorrectly": 9300,
    "Ok": 9301,
    "Ġjackets": 9302,
    "ĠPretty": 9303,
    "Ġwonder": 9304,
    "Ġthorn": 9305,
    "inda": 9306,
    "one": 9307,
    "Ġcompleted": 9308,
    "Ġaf": 9309,
    "Ġfinger": 9310,
    "ĠRabbit": 9311,
    "other": 9312,
    "Ġroads": 9313,
    "ence": 9314,
    "Ġspraying": 9315,
    "Ġadorable": 9316,
    "Ġbel": 9317,
    "ook": 9318,
    "ĠL": 9319,
    "lew": 9320,
    "zag": 9321,
    "ĠRusty": 9322,
    "rob": 9323,
    "Ġspace": 9324,
    "Ġtry": 9325,
    "iggie": 9326,
    "Ġformed": 9327,
    "ĠTime": 9328,
    "Ġsip": 9329,
    "Ġpaths": 9330,
    "Ġob": 9331,
    "ves": 9332,
    "Ġpress": 9333,
    "Ġcloth": 9334,
    "ĠRemember": 9335,
    "Ġsunny": 9336,
    "Ġreturned": 9337,
    "Ġdie": 9338,
    "Ġruns": 9339,
    "Ġrely": 9340,
    "Ġwolves": 9341,
    "Ġshaking": 9342,
    "Ġstripes": 9343,
    "ĠHorsie": 9344,
    "Ġbounces": 9345,
    "Ġboxes": 9346,
    "Ġhawk": 9347,
    "Ġdes": 9348,
    "Ġcr": 9349,
    "Ġtimes": 9350,
    "Ġreads": 9351,
    "ĠBe": 9352,
    "Ġfiremen": 9353,
    "Ġstring": 9354,
    "Ġattempt": 9355,
    "Ġnervous": 9356,
    "Do": 9357,
    "Ġfallen": 9358,
    "uc": 9359,
    "Ġturned": 9360,
    "oming": 9361,
    "Ġtempting": 9362,
    "Ġcolor": 9363,
    "Ġloo": 9364,
    "×": 9365,
    "Ġkicked": 9366,
    "Ġlined": 9367,
    "ilk": 9368,
    "Ġalthough": 9369,
    "Ġpopular": 9370,
    "Ouch": 9371,
    "ĠTim": 9372,
    "idge": 9373,
    "Ġact": 9374,
    "Ġconn": 9375,
    "Ġlead": 9376,
    "Ġdrain": 9377,
    "Ġgear": 9378,
    "Ġpunishment": 9379,
    "Ġbeaks": 9380,
    "Ġwatches": 9381,
    "Ġpizza": 9382,
    "Ġexper": 9383,
    "Ġyogurt": 9384,
    "Mommy": 9385,
    "Ġhunt": 9386,
    "ĠCars": 9387,
    "Ġener": 9388,
    "Ġship": 9389,
    "Ġstopped": 9390,
    "Danny": 9391,
    "Ģ": 9392,
    "aud": 9393,
    "Ġrush": 9394,
    "Ġspies": 9395,
    "Ġfights": 9396,
    "bl": 9397,
    "Ġpir": 9398,
    "ishing": 9399,
    "Ġwrigg": 9400,
    "Ġhappens": 9401,
    "Ġpat": 9402,
    "Ġroutine": 9403,
    "ĠTurtle": 9404,
    "ĠMatch": 9405,
    "rig": 9406,
    "Ġbet": 9407,
    "Ġhurricane": 9408,
    "Ġwat": 9409,
    "epend": 9410,
    "Ġscooters": 9411,
    "Ġhoney": 9412,
    "Ġtalk": 9413,
    "Ġoasis": 9414,
    "ongratul": 9415,
    "Ġsting": 9416,
    "Ġtub": 9417,
    "Ġexpress": 9418,
    "Ġwagged": 9419,
    "coon": 9420,
    "Ġcovered": 9421,
    "Ġseeker": 9422,
    "ĠRe": 9423,
    "pr": 9424,
    "Ġfond": 9425,
    "Ġcatching": 9426,
    "Ġjam": 9427,
    "ĠAccidents": 9428,
    "Ġlaptop": 9429,
    "to": 9430,
    "ĠCoby": 9431,
    "Mandy": 9432,
    "ĠOllie": 9433,
    "Tim": 9434,
    "Ġqueens": 9435,
    "Ġrhino": 9436,
    "Ġkangaroo": 9437,
    "Ġwrapping": 9438,
    "Ġbirds": 9439,
    "Ġraces": 9440,
    "Ġse": 9441,
    "Ġstudent": 9442,
    "Ġcoming": 9443,
    "ĠBirdie": 9444,
    "âĢľ": 9445,
    "Ġbridge": 9446,
    "Ġsettle": 9447,
    "arn": 9448,
    "Ġcolors": 9449,
    "Ġbrightest": 9450,
    "urse": 9451,
    "uch": 9452,
    "parent": 9453,
    "Ġtries": 9454,
    "ote": 9455,
    "Ġcompany": 9456,
    "Ġmon": 9457,
    "Ġconversation": 9458,
    "ĠRiri": 9459,
    "Ġwatermel": 9460,
    "Ġspin": 9461,
    "Ġclaps": 9462,
    "otten": 9463,
    "Ġfort": 9464,
    "lt": 9465,
    "Ġgracefully": 9466,
    ".": 9467,
    "Ġent": 9468,
    "Ġpr": 9469,
    "Ġnumbers": 9470,
    "ing": 9471,
    "Ġass": 9472,
    "Ġbravely": 9473,
    "Ġeight": 9474,
    "Ġchickens": 9475,
    "ĠNever": 9476,
    "pid": 9477,
    "Ġpeople": 9478,
    "Ġwall": 9479,
    "Ġalive": 9480,
    "Ġbloomed": 9481,
    "Tree": 9482,
    "Ġbeef": 9483,
    "choo": 9484,
    "ĠVicky": 9485,
    "Ġjug": 9486,
    "Ġshrugged": 9487,
    "rin": 9488,
    "Ġx": 9489,
    "Ġplane": 9490,
    "Ġsnail": 9491,
    "Ġall": 9492,
    "asing": 9493,
    "roscope": 9494,
    "Ġdess": 9495,
    "rian": 9496,
    "Ġshop": 9497,
    "Ġmeows": 9498,
    "Fire": 9499,
    "Ġseparated": 9500,
    "Ġhouses": 9501,
    "keep": 9502,
    "seek": 9503,
    "Really": 9504,
    "lower": 9505,
    "ĠTyler": 9506,
    "!'": 9507,
    "ħ": 9508,
    "ĠSee": 9509,
    "Ġafford": 9510,
    "Ġin": 9511,
    "Ġtricycle": 9512,
    "een": 9513,
    "gen": 9514,
    "Ġgent": 9515,
    "Ġsoaring": 9516,
    "racadabra": 9517,
    "Ġcubes": 9518,
    "Finally": 9519,
    "sh": 9520,
    "ĠAchoo": 9521,
    "ĠWil": 9522,
    "Ġmanag": 9523,
    "ĠBa": 9524,
    "cean": 9525,
    "Ġfigures": 9526,
    "Ġprep": 9527,
    "Ġinstrum": 9528,
    "Ġgoes": 9529,
    "Ġwrit": 9530,
    "Ġburst": 9531,
    "Ġorganized": 9532,
    "ans": 9533,
    "Ġvoice": 9534,
    "reek": 9535,
    "ĠLiz": 9536,
    "Ġwires": 9537,
    "Ġdreaming": 9538,
    "Ġanymore": 9539,
    "Ġpride": 9540,
    "Ġskeleton": 9541,
    "amie": 9542,
    "Ġbravery": 9543,
    "Ġvase": 9544,
    "arth": 9545,
    "racted": 9546,
    "Ġscr": 9547,
    "Ġcourage": 9548,
    "mas": 9549,
    "Ġsquashes": 9550,
    "Sn": 9551,
    "Ġcheek": 9552,
    "Ġspell": 9553,
    "ular": 9554,
    "rise": 9555,
    "Ġcelebrate": 9556,
    "irr": 9557,
    "Ġseagull": 9558,
    "Ġrequested": 9559,
    "Ġspirit": 9560,
    "endant": 9561,
    "Ready": 9562,
    "ĠBeaky": 9563,
    "usan": 9564,
    "Ġplanted": 9565,
    "ĠTake": 9566,
    "Ġcars": 9567,
    "athan": 9568,
    "Ġcustomers": 9569,
    "Ġreliable": 9570,
    "Ġshr": 9571,
    "Ġlanded": 9572,
    "ĠJanie": 9573,
    "ity": 9574,
    "Ġapologised": 9575,
    "solut": 9576,
    "Ġheads": 9577,
    "Ġwin": 9578,
    "Ġlibrary": 9579,
    "t": 9580,
    "®": 9581,
    "Ġcompassion": 9582,
    "Ġunless": 9583,
    "Ġmom": 9584,
    "Ġtoes": 9585,
    "Jump": 9586,
    "Ġhero": 9587,
    "ĠZoey": 9588,
    "Ġsoccer": 9589,
    "Ġshape": 9590,
    "Ġdigs": 9591,
    "ĠKn": 9592,
    "Ġcontent": 9593,
    "ŀ": 9594,
    "Ġlonely": 9595,
    "Fluffy": 9596,
    "izza": 9597,
    "Ġbug": 9598,
    "Ġclips": 9599,
    "Ġdig": 9600,
    "Ġstudied": 9601,
    "Ġliqu": 9602,
    "Ġfirework": 9603,
    "Ġdirtier": 9604,
    "Ġposit": 9605,
    "Ġtold": 9606,
    "ici": 9607,
    "Ġble": 9608,
    "Ġclues": 9609,
    "Ġbreathing": 9610,
    "ą": 9611,
    "ĠFloppy": 9612,
    "Ġmaze": 9613,
    "Ġsneak": 9614,
    "Honey": 9615,
    "Ġdeal": 9616,
    "Ġfrustr": 9617,
    "Ġcurt": 9618,
    "Ġteaching": 9619,
    "Ġfigure": 9620,
    "Ġworried": 9621,
    "Ġargum": 9622,
    "Bo": 9623,
    "ĠPut": 9624,
    "ĠMaddie": 9625,
    "Ġapplauding": 9626,
    "Ġpassport": 9627,
    "Ġitch": 9628,
    "Ġal": 9629,
    "ĠOtherwise": 9630,
    "saw": 9631,
    "Ġcomplete": 9632,
    "nd": 9633,
    "Ġfruit": 9634,
    "Ġbottle": 9635,
    "ooks": 9636,
    "Ġentrance": 9637,
    "Ġrustling": 9638,
    "Ġtim": 9639,
    "screen": 9640,
    "Tommy": 9641,
    "Ġpush": 9642,
    "Ġcandies": 9643,
    "Ġsoft": 9644,
    "Ġstays": 9645,
    "ĠJojo": 9646,
    "cessary": 9647,
    "Ġscales": 9648,
    "Ġmessages": 9649,
    "ĠEmily": 9650,
    "Ġnearby": 9651,
    "Ġaxe": 9652,
    "Ġmaybe": 9653,
    "Ġapart": 9654,
    "indy": 9655,
    "Rachel": 9656,
    "atch": 9657,
    "ĠSteve": 9658,
    "Ġwobbly": 9659,
    "Ġchocol": 9660,
    "pit": 9661,
    "Ġmole": 9662,
    "Ġbeet": 9663,
    "Ġendings": 9664,
    "Ġkept": 9665,
    "Ġglob": 9666,
    "Ġof": 9667,
    "Ġpops": 9668,
    "Ġcover": 9669,
    "room": 9670,
    "cked": 9671,
    "Ġhoses": 9672,
    "Susie": 9673,
    "Ġfruits": 9674,
    "Ġfamily": 9675,
    "Ġjellyfish": 9676,
    "Ġsay": 9677,
    "So": 9678,
    "ĠSp": 9679,
    "Ġnation": 9680,
    "Ġraise": 9681,
    "Ġvisited": 9682,
    "Ġjud": 9683,
    "´": 9684,
    "Ġdisappointed": 9685,
    "Ġweapon": 9686,
    "uxu": 9687,
    "Ġdisappoint": 9688,
    "~": 9689,
    "Ġever": 9690,
    "Ġstitch": 9691,
    "utes": 9692,
    "Ġwiggle": 9693,
    "ĠLove": 9694,
    "Ġvideo": 9695,
    "Ġspaces": 9696,
    "Ġshout": 9697,
    "ĠBenny": 9698,
    "Ġglobe": 9699,
    "ison": 9700,
    "Ġcolorful": 9701,
    "Ġglowing": 9702,
    "ext": 9703,
    "Grandma": 9704,
    "Ġovercome": 9705,
    "em": 9706,
    "Ġprotected": 9707,
    "Ġcreate": 9708,
    "Elly": 9709,
    "Ġbuilder": 9710,
    "Ġtighter": 9711,
    "aring": 9712,
    "ience": 9713,
    "ete": 9714,
    "Ġstudying": 9715,
    "Ġwrote": 9716,
    "Ġfiref": 9717,
    "Ġgesture": 9718,
    "Ġsnip": 9719,
    "Open": 9720,
    "Ġsolut": 9721,
    "nna": 9722,
    "veal": 9723,
    "Ġweight": 9724,
    "Ġclapped": 9725,
    "iny": 9726,
    "Ġtramp": 9727,
    "Ġcontainer": 9728,
    "Ġforest": 9729,
    "Ġshrunk": 9730,
    "Ġash": 9731,
    "Ġenthusiastic": 9732,
    "Ġcousins": 9733,
    "ĠTears": 9734,
    "Ġignore": 9735,
    "Ġrumble": 9736,
    "Ã": 9737,
    "Ġcobwebs": 9738,
    "Ġsteel": 9739,
    "acked": 9740,
    "edn": 9741,
    "Ġrays": 9742,
    "Ġsending": 9743,
    "Ġmyster": 9744,
    "reci": 9745,
    "len": 9746,
    "ooky": 9747,
    "Ġshampoo": 9748,
    "Ġobserve": 9749,
    "Ġcarpet": 9750,
    "iness": 9751,
    "ĠSh": 9752,
    "ĠToot": 9753,
    "unnies": 9754,
    "Ġribbit": 9755,
    "Ġhesitation": 9756,
    "ĠBetty": 9757,
    "acock": 9758,
    "Ġbossy": 9759,
    "Ġbears": 9760,
    "Ġaddress": 9761,
    "Ġcell": 9762,
    "Ġtroll": 9763,
    "Ġzoo": 9764,
    "ashes": 9765,
    "uess": 9766,
    "Ġwaiting": 9767,
    "Found": 9768,
    "Ġwags": 9769,
    "Ġskip": 9770,
    "Ġshort": 9771,
    "Ġitem": 9772,
    "ĠJenn": 9773,
    "cy": 9774,
    "Ġstatue": 9775,
    "Ġants": 9776,
    "Ġgrey": 9777,
    "Ġchamber": 9778,
    "Ġmiddle": 9779,
    "Ġthree": 9780,
    "Ġdropping": 9781,
    "Ġser": 9782,
    "Ġgames": 9783,
    "Ġafraid": 9784,
    "ending": 9785,
    "Ġbakery": 9786,
    "Ġjail": 9787,
    "ĠEmma": 9788,
    "ĠLena": 9789,
    "Ġfaraway": 9790,
    "ong": 9791,
    "Ġfears": 9792,
    "Ġhate": 9793,
    "Ġboom": 9794,
    "at": 9795,
    "Ġrac": 9796,
    "Ġcoin": 9797,
    "Ġfest": 9798,
    "Ġbarely": 9799,
    "ile": 9800,
    "Ġnet": 9801,
    "Ġjust": 9802,
    "Ġhelmet": 9803,
    "Ġthermometer": 9804,
    "pec": 9805,
    "Ġhips": 9806,
    "Ġblown": 9807,
    "Ġquestions": 9808,
    "Ġsoaking": 9809,
    "Pippin": 9810,
    "Ġwalks": 9811,
    "Ġstraw": 9812,
    "Rosie": 9813,
    "Ġhesitated": 9814,
    "ĠWilliam": 9815,
    "Ġsparkles": 9816,
    "Ġpuzzles": 9817,
    "Ġlisten": 9818,
    "Ġshined": 9819,
    "Ġfed": 9820,
    "Ġopinions": 9821,
    "Ġagainst": 9822,
    "Ġliquid": 9823,
    "Ġcrackers": 9824,
    "Harry": 9825,
    "Ġbrand": 9826,
    "ĠZiggy": 9827,
    "Ġben": 9828,
    "alend": 9829,
    "Ġnetwork": 9830,
    "Ġoffice": 9831,
    "ĠPot": 9832,
    "Ġunfair": 9833,
    "Ġripe": 9834,
    "Ġby": 9835,
    "Ġbats": 9836,
    "Ġmonth": 9837,
    "Ġwebs": 9838,
    "ĕ": 9839,
    "Ġdisaster": 9840,
    "Ġclassmates": 9841,
    "ĠWait": 9842,
    "Ġended": 9843,
    "Ġgiraffe": 9844,
    "Ġprevent": 9845,
    "Ġround": 9846,
    "Ġchat": 9847,
    "Ġnoodles": 9848,
    "Ġvroom": 9849,
    "bit": 9850,
    "Ġelephants": 9851,
    "iece": 9852,
    "Ġscen": 9853,
    "zz": 9854,
    "Ġele": 9855,
    "Ġwardrobe": 9856,
    "in": 9857,
    "ĠJoke": 9858,
    "Ġzipper": 9859,
    "Ġmagician": 9860,
    "Ġclumsy": 9861,
    "Ġsupp": 9862,
    "Ġclosely": 9863,
    "Ġtrip": 9864,
    "Ġexpression": 9865,
    "Ġhopping": 9866,
    "Ġcuts": 9867,
    "Ġbedtime": 9868,
    "ron": 9869,
    "Ġpor": 9870,
    "reen": 9871,
    "Ġhabit": 9872,
    "Ġshark": 9873,
    "ss": 9874,
    "Tr": 9875,
    "Ġsne": 9876,
    "p": 9877,
    "Ġsleds": 9878,
    "Ġbubbly": 9879,
    "ls": 9880,
    "ĠIsn": 9881,
    "Ġdaring": 9882,
    "First": 9883,
    "Ġspiders": 9884,
    "Momo": 9885,
    "Ġcake": 9886,
    "Ġbelong": 9887,
    "Ġdecor": 9888,
    "ĠRich": 9889,
    "Ġfreezer": 9890,
    "irp": 9891,
    "Ñ": 9892,
    "Ġ": 9893,
    "Ġus": 9894,
    "Ġshowing": 9895,
    "Ġrinse": 9896,
    "ĠNow": 9897,
    "Ġanchor": 9898,
    "Ġcere": 9899,
    "Ġslipp": 9900,
    "Ġwedding": 9901,
    ",âĢĿ": 9902,
    "ertain": 9903,
    "ĠSay": 9904,
    "met": 9905,
    "Ġquestion": 9906,
    "Ġrhinoceros": 9907,
    "Ġtoys": 9908,
    "ĠWhee": 9909,
    "Ġknowledge": 9910,
    "Ġappro": 9911,
    "Ġalready": 9912,
    "Ġgasp": 9913,
    "Ġstirring": 9914,
    "iv": 9915,
    "Ġshare": 9916,
    "Ġnowhere": 9917,
    "Ġstrugg": 9918,
    "Ġtrampoline": 9919,
    "Ġholds": 9920,
    "Ġbath": 9921,
    "Ġgor": 9922,
    "Surpr": 9923,
    "Ġagrees": 9924,
    "bling": 9925,
    "Ġsunset": 9926,
    "Ġhaven": 9927,
    "aker": 9928,
    "red": 9929,
    "ĠWhen": 9930,
    "Too": 9931,
    "iti": 9932,
    "Ġfarm": 9933,
    "Ġblue": 9934,
    "Ġwandering": 9935,
    "Ġmiracle": 9936,
    "walk": 9937,
    "Ġstory": 9938,
    "ding": 9939,
    "Ġhonest": 9940,
    "ĠUni": 9941,
    "Ġrushing": 9942,
    "Ġcommun": 9943,
    "ĠUnfortunately": 9944,
    "vet": 9945,
    "Ġlick": 9946,
    "Ġteaches": 9947,
    "ition": 9948,
    "Would": 9949,
    "irring": 9950,
    "Ġear": 9951,
    "Ġcable": 9952,
    "Time": 9953,
    "Ġshap": 9954,
    "yes": 9955,
    "Ġflo": 9956,
    "eared": 9957,
    "ger": 9958,
    "ĠWater": 9959,
    "Ġpastels": 9960,
    "lier": 9961,
    "ľ": 9962,
    "urnit": 9963,
    "cat": 9964,
    "ĠDino": 9965,
    "res": 9966,
    "asket": 9967,
    "Ellie": 9968,
    "Ġstairs": 9969,
    "Ġhonk": 9970,
    "bul": 9971,
    "Ġbalanced": 9972,
    "Ĩ": 9973,
    "You": 9974,
    "Ġcomes": 9975,
    "ĠAl": 9976,
    "Ġinfant": 9977,
    "Will": 9978,
    "Ġeats": 9979,
    "Ġtin": 9980,
    "Ġjing": 9981,
    "Ġimage": 9982,
    "Ġamong": 9983,
    "ilty": 9984,
    "Josh": 9985,
    "ettle": 9986,
    "ddy": 9987,
    "look": 9988,
    "Ġmoved": 9989,
    "Ġgraceful": 9990,
    "Ġgrip": 9991,
    "Ġrealizing": 9992,
    "ĠBang": 9993,
    "Ġpian": 9994,
    "Ġwander": 9995,
    "Ġvowed": 9996,
    "Ġtiss": 9997,
    "ĠJumpy": 9998,
    "Ġobe": 9999
}