{
    "Mira": 0,
    "ĠOK": 1,
    "Ġnapkins": 2,
    "Ġhot": 3,
    "Ġchairs": 4,
    "ueen": 5,
    "Ġaccomplish": 6,
    "Ġgained": 7,
    "Ġplanned": 8,
    "br": 9,
    "Ġdefin": 10,
    "ĠRosa": 11,
    "oto": 12,
    "Ġwolves": 13,
    "Ġsilver": 14,
    "Ġclay": 15,
    "Ġremove": 16,
    "Ġmach": 17,
    "Ġpaddle": 18,
    "Ġfasc": 19,
    "Ġpalm": 20,
    "ipping": 21,
    "Ġdifferent": 22,
    "Ġtight": 23,
    "Ġserving": 24,
    "Ġalert": 25,
    "codile": 26,
    "Ġcent": 27,
    "Ġhanging": 28,
    "Ġapproach": 29,
    "ita": 30,
    "Ġhosp": 31,
    "ĠBuster": 32,
    "Ġaeropl": 33,
    "Ġlesson": 34,
    "ĠAs": 35,
    "Quack": 36,
    "ised": 37,
    "dge": 38,
    "ppers": 39,
    "ĠSince": 40,
    "Ġpipes": 41,
    "Ġdecorate": 42,
    "Ġscar": 43,
    "Ġresult": 44,
    "Ġtables": 45,
    "Ġstage": 46,
    "Really": 47,
    "Ġopposite": 48,
    "emon": 49,
    "Ġwarned": 50,
    "Ġaliens": 51,
    "Ġasking": 52,
    "Ġracing": 53,
    "Ġlaughed": 54,
    "Ġmarble": 55,
    "Ġfall": 56,
    "Ġsettled": 57,
    "ĠCara": 58,
    "ocular": 59,
    "Ġdraw": 60,
    "arge": 61,
    "Ġbowing": 62,
    "Ġchanged": 63,
    "Ġaccepted": 64,
    "ower": 65,
    "Ġlawn": 66,
    "berries": 67,
    "elope": 68,
    "Ġwoman": 69,
    "Ġtoothbrush": 70,
    "Ġclick": 71,
    "ĠEddie": 72,
    "Ġadmiration": 73,
    "ĠLoop": 74,
    "Ġcartoons": 75,
    "Ġim": 76,
    "zzy": 77,
    "Ġcovering": 78,
    "Ġpan": 79,
    "Whiskers": 80,
    "Ġsquirrels": 81,
    "urt": 82,
    "Ġstories": 83,
    "Ġostrich": 84,
    "Ġrumbling": 85,
    "Ġtown": 86,
    "ĠLittle": 87,
    "ĠPapa": 88,
    "ĠPete": 89,
    "Ġeffort": 90,
    "Ġwasting": 91,
    "Ġcould": 92,
    "Ġbunch": 93,
    "ĠTip": 94,
    "Ġmoon": 95,
    "Ġsongs": 96,
    "Ġbirdcage": 97,
    "walk": 98,
    "meow": 99,
    "Ġquacked": 100,
    "X": 101,
    "Ġgi": 102,
    "Ġboard": 103,
    "Ġbeginning": 104,
    "Ġpirate": 105,
    "Ġcopied": 106,
    "Ġelderly": 107,
    "Ġpasta": 108,
    "Ġedge": 109,
    "Rex": 110,
    "Ġchip": 111,
    "ircle": 112,
    "Ġturn": 113,
    "Ġflap": 114,
    "Ġwalks": 115,
    "ss": 116,
    "Ġserved": 117,
    "Ġbunny": 118,
    "Ġtrap": 119,
    "Ġblueberry": 120,
    "Ġwish": 121,
    "Ġlooks": 122,
    "ĠGerry": 123,
    "affle": 124,
    "Ġshrug": 125,
    "Ġinvites": 126,
    "ĠJon": 127,
    "Ġth": 128,
    "Ġfu": 129,
    "Ġstraw": 130,
    "!âĢĿ": 131,
    "Ġleash": 132,
    "Ġthorn": 133,
    "Ġunz": 134,
    "Ġsizes": 135,
    "oceros": 136,
    "Ġdecisions": 137,
    "Ġpulls": 138,
    "ĠPip": 139,
    "Ġscreams": 140,
    "idge": 141,
    "Ġhealthier": 142,
    "ĠCro": 143,
    "ĠG": 144,
    "Ġgoodbye": 145,
    "Ġchicks": 146,
    "Ġdolls": 147,
    "fter": 148,
    "Little": 149,
    "Ġregular": 150,
    "Ġvolcano": 151,
    "ĠReliable": 152,
    "Ġto": 153,
    "Ġthem": 154,
    "ĠPenny": 155,
    "Each": 156,
    "Ġmagical": 157,
    "Ġcraw": 158,
    "Ġst": 159,
    "arl": 160,
    "Ġpapers": 161,
    "Ġshook": 162,
    "Ġargued": 163,
    "Teddy": 164,
    "ĠUp": 165,
    "most": 166,
    "ver": 167,
    "ĠThose": 168,
    "Ġignoring": 169,
    "Ġinter": 170,
    "ĠBouncy": 171,
    "Ġocc": 172,
    "Ġfollow": 173,
    "Ġcrossed": 174,
    "Ġbounces": 175,
    "des": 176,
    "Ġrubber": 177,
    "Ġfaint": 178,
    "ĠYawn": 179,
    "ield": 180,
    "Ġfoxes": 181,
    "Ġoccasion": 182,
    "lies": 183,
    "ma": 184,
    "Ġrely": 185,
    "Ġteaches": 186,
    "Soon": 187,
    "Ġacross": 188,
    "ĠLeave": 189,
    "Ġbudge": 190,
    "ĠN": 191,
    "edy": 192,
    "ammy": 193,
    "veal": 194,
    "Ġunexpected": 195,
    "ensive": 196,
    "Ġdefeated": 197,
    "ives": 198,
    "app": 199,
    "Ġfins": 200,
    "Ġalarm": 201,
    "Ġsparkled": 202,
    "Ġbothered": 203,
    "Ġfield": 204,
    "Ġrust": 205,
    "Ġclouds": 206,
    "Ġbubbly": 207,
    "ĠFin": 208,
    "Ġaff": 209,
    "Ġpoor": 210,
    "Ġsurprising": 211,
    "ĠWhenever": 212,
    "pped": 213,
    "ief": 214,
    "Ġwiggling": 215,
    "Ġpige": 216,
    "Ġpopped": 217,
    "Ġbroom": 218,
    "Ġlending": 219,
    "ĠVicky": 220,
    "Ġsings": 221,
    "Ġstretch": 222,
    "Ġprunes": 223,
    "Ġmeowed": 224,
    "Ġexperiences": 225,
    "ick": 226,
    "Ġvests": 227,
    "Ġyellow": 228,
    "rect": 229,
    "ĠThings": 230,
    "Ġbreeze": 231,
    "uce": 232,
    "was": 233,
    "hind": 234,
    "adually": 235,
    "Ġtugged": 236,
    "Ġwiped": 237,
    "Ġexhausted": 238,
    "ĠWinky": 239,
    "Ġrevealing": 240,
    "Ġwere": 241,
    "cited": 242,
    "Ġsyrup": 243,
    "Ġumbre": 244,
    "Ġsweetly": 245,
    "Ġuniver": 246,
    "Ġreassured": 247,
    "om": 248,
    "Ġpower": 249,
    "pes": 250,
    "Ġfarther": 251,
    "ĠWell": 252,
    "ĠInside": 253,
    "Ġscent": 254,
    "Ġshelter": 255,
    "Ġrepa": 256,
    "ilt": 257,
    "Matt": 258,
    "Ġsidewalk": 259,
    "Ġblushed": 260,
    "Ġburnt": 261,
    "iv": 262,
    "Ġyet": 263,
    "Quick": 264,
    "ails": 265,
    "ater": 266,
    "Ġgrowing": 267,
    "Hop": 268,
    "Ġinsisted": 269,
    "Ġpanda": 270,
    "Steve": 271,
    "ility": 272,
    "Ġpracticing": 273,
    "Ġsailing": 274,
    "Ġlower": 275,
    "Ġan": 276,
    "Ġcreation": 277,
    "Ġdar": 278,
    "cope": 279,
    "Ġimport": 280,
    "Ġrabbits": 281,
    "oke": 282,
    "Ġdespite": 283,
    "Re": 284,
    "ĠSophia": 285,
    "Ġnamed": 286,
    "Ġapron": 287,
    "na": 288,
    "Pete": 289,
    "ĠTree": 290,
    "racadabra": 291,
    "Ġhoops": 292,
    "iving": 293,
    "Ġfond": 294,
    "aughter": 295,
    "ues": 296,
    "Ġrubbish": 297,
    "Ġinstead": 298,
    "Ġasleep": 299,
    "ilot": 300,
    "Ġwatched": 301,
    "Ġshoulders": 302,
    "ĠMittens": 303,
    "Ġmanners": 304,
    "Ġgrowling": 305,
    "Lou": 306,
    "Ġconcerned": 307,
    "Ahh": 308,
    "ĠPat": 309,
    "Ġorgan": 310,
    "Ġbus": 311,
    "ĠRyan": 312,
    "Ġactually": 313,
    "ĠFairy": 314,
    "Two": 315,
    "Ġmineral": 316,
    "Ġbalanced": 317,
    "Ġhaircuts": 318,
    "op": 319,
    "alloween": 320,
    "Ġserious": 321,
    "umbers": 322,
    "Ġtilted": 323,
    "Ġcollap": 324,
    "urple": 325,
    "ĠEat": 326,
    "Ġwig": 327,
    "ĠFishy": 328,
    "Ġbreathed": 329,
    "Ġthird": 330,
    "Ġsix": 331,
    "Silly": 332,
    "âĢ¦": 333,
    "Ġchamber": 334,
    "Ġefforts": 335,
    "Ġsweaty": 336,
    "Ġtied": 337,
    "arden": 338,
    "Ġdrives": 339,
    "Ġbeanstalk": 340,
    "Ġsmarter": 341,
    "ke": 342,
    "Ġshoulder": 343,
    "Then": 344,
    "Ġbamboo": 345,
    "kay": 346,
    "Ġtea": 347,
    "ĠSnuggles": 348,
    "Ġfig": 349,
    "lf": 350,
    "Ġriding": 351,
    "Ġwondering": 352,
    "ed": 353,
    "Ġpastel": 354,
    "Ġpie": 355,
    "Ġvill": 356,
    "Ġselling": 357,
    "use": 358,
    "net": 359,
    "Ġblue": 360,
    "Ġcott": 361,
    "ĠAg": 362,
    "Ġgrand": 363,
    "ĠZoe": 364,
    "rie": 365,
    "Ġcap": 366,
    "Ġcreams": 367,
    "Ġpuppet": 368,
    "Ġremembering": 369,
    "Ġduring": 370,
    "Ġlearn": 371,
    "Ġprot": 372,
    "rass": 373,
    "ters": 374,
    "Ġcon": 375,
    "Tuna": 376,
    "Ġdripped": 377,
    "ard": 378,
    "Ġfluffy": 379,
    "Ġpizzas": 380,
    "Ġenemies": 381,
    "ppy": 382,
    "Ġworst": 383,
    "ĠWoolly": 384,
    "Ġpride": 385,
    "fic": 386,
    "Ġtie": 387,
    "Ġwaiter": 388,
    ".": 389,
    "an": 390,
    "Olive": 391,
    "appy": 392,
    "Speedy": 393,
    "Ġhas": 394,
    "ĠWisdom": 395,
    "Lisa": 396,
    "Carl": 397,
    "Ġcrossing": 398,
    "Am": 399,
    "Ġshined": 400,
    "ulb": 401,
    "Ġokay": 402,
    "Ġdoctors": 403,
    "Ġargument": 404,
    "imi": 405,
    "Ġdiffic": 406,
    "Ġa": 407,
    "ses": 408,
    "Dino": 409,
    "Yesterday": 410,
    "Ġhero": 411,
    "ely": 412,
    "Ro": 413,
    "read": 414,
    "Ġspending": 415,
    "Ġfestival": 416,
    "Ġscreen": 417,
    "Ġpouch": 418,
    "ĠMine": 419,
    "Ġsatisfaction": 420,
    "ton": 421,
    "Ġsaf": 422,
    "Ġseesaw": 423,
    "Ġeyes": 424,
    "Ġnearly": 425,
    "Ġbreat": 426,
    "Help": 427,
    "Ġachieve": 428,
    "Ġis": 429,
    "Ġprob": 430,
    "Ġrefuse": 431,
    "Ġbell": 432,
    "ĠElephant": 433,
    "Ġblocking": 434,
    "Ġtoddler": 435,
    "Ġnow": 436,
    "º": 437,
    "Ġfrost": 438,
    "Ġinstructions": 439,
    "Ġcomple": 440,
    "Ġseparated": 441,
    "ĠChirp": 442,
    "É": 443,
    "Ralph": 444,
    "Ġleaned": 445,
    "ĠEmmy": 446,
    "ec": 447,
    "Ġrips": 448,
    "Ġrubbing": 449,
    "Ġseaweed": 450,
    "ĠFinn": 451,
    "Ġink": 452,
    "shadow": 453,
    "Ġstaff": 454,
    "'": 455,
    "ĠEvery": 456,
    "Ġripped": 457,
    "arac": 458,
    "Ġnever": 459,
    "Ġcontent": 460,
    "Ġdefinitely": 461,
    "Ġbehaviour": 462,
    "fire": 463,
    "Ġsaved": 464,
    "Ġnews": 465,
    "kele": 466,
    "ĠMe": 467,
    "ĠOther": 468,
    "Next": 469,
    "Ġtwigs": 470,
    "Ġseriously": 471,
    "Ġweeks": 472,
    "Ġtissue": 473,
    "ĠCoal": 474,
    "Ġfruit": 475,
    "Ġcows": 476,
    "Ġplane": 477,
    "ĠAva": 478,
    "Ġlift": 479,
    "Ġcrocodiles": 480,
    "Ġsav": 481,
    "Ġdark": 482,
    "Ġsearching": 483,
    "Ġcarts": 484,
    "lph": 485,
    "bell": 486,
    "Ġleak": 487,
    "ĠLisa": 488,
    "ĠSe": 489,
    "Ġshakes": 490,
    "come": 491,
    "Ġdoors": 492,
    "ĠHop": 493,
    "Deal": 494,
    "Ġdefe": 495,
    "Sm": 496,
    "cho": 497,
    "xu": 498,
    "au": 499,
    "anges": 500,
    "rons": 501,
    "Ġsincere": 502,
    "ft": 503,
    "iet": 504,
    "+": 505,
    "Ġpoems": 506,
    "Ġwalls": 507,
    "Where": 508,
    "Ġfunn": 509,
    "Ġrides": 510,
    "Ġcomf": 511,
    "Ġcoal": 512,
    "Ġhangers": 513,
    "Ab": 514,
    "ushing": 515,
    "Ġvend": 516,
    "aid": 517,
    "Ġvibr": 518,
    "Ġraised": 519,
    "flowers": 520,
    "Ġquickly": 521,
    "ĠLots": 522,
    "omobile": 523,
    "Ġcomplaining": 524,
    "Are": 525,
    "ĠChristmas": 526,
    "ĠSuddenly": 527,
    "aced": 528,
    "Ġintently": 529,
    "Ġbaby": 530,
    "John": 531,
    "Ġanxious": 532,
    "nie": 533,
    "Ġnights": 534,
    "Ġbelong": 535,
    "Ġtucked": 536,
    "Ġyours": 537,
    "Ġclosely": 538,
    "idey": 539,
    "Ġpolice": 540,
    "Ġlaundry": 541,
    "ć": 542,
    "ny": 543,
    "Ġcold": 544,
    "Ġweeping": 545,
    "Bu": 546,
    "Ġcollar": 547,
    "Ġstars": 548,
    "Ġthink": 549,
    "Ġrealized": 550,
    "Ġwatering": 551,
    "þ": 552,
    "Ġeverything": 553,
    "Ġcase": 554,
    "Ġbo": 555,
    "laimed": 556,
    "Ġhurried": 557,
    "s": 558,
    "Ġstreet": 559,
    "Ġdro": 560,
    "Ġshelf": 561,
    "Mouse": 562,
    "Ġcertain": 563,
    "Ġformed": 564,
    "Ġtoe": 565,
    "Ġexcept": 566,
    "seum": 567,
    "Ġenjoyable": 568,
    "Ġplaydate": 569,
    "Ġluggage": 570,
    "arent": 571,
    "ounce": 572,
    "Ġknew": 573,
    "Ġstall": 574,
    "cker": 575,
    "Ġgod": 576,
    "Ġgiven": 577,
    "Ġsparkles": 578,
    "ky": 579,
    "Ġitems": 580,
    "Ġyear": 581,
    "Be": 582,
    "ĠAll": 583,
    "Ġcrawl": 584,
    "aren": 585,
    "Ġfollowing": 586,
    "Ġtele": 587,
    "Fluffy": 588,
    "Ġgiraffes": 589,
    "Ĉ": 590,
    "Ġfest": 591,
    "Ġgoal": 592,
    "edient": 593,
    "Ġcreate": 594,
    "athan": 595,
    "poison": 596,
    "Ġfridge": 597,
    "Ġdecorated": 598,
    "ė": 599,
    "po": 600,
    "Ġdiary": 601,
    "elcome": 602,
    "Ġdirt": 603,
    "ĠP": 604,
    "Ġheavier": 605,
    "upid": 606,
    "Ġsnip": 607,
    "arlie": 608,
    "Ġcollect": 609,
    "imp": 610,
    "Ġlemon": 611,
    "Ġsur": 612,
    "Ġfolded": 613,
    "ĠToby": 614,
    "Ġboot": 615,
    "Ġyourself": 616,
    "Ġwherever": 617,
    "Ġmore": 618,
    "Ġdears": 619,
    "Ġslice": 620,
    "Miss": 621,
    "Ġpuzzle": 622,
    "Ġboth": 623,
    "Ġfiref": 624,
    "Ġglided": 625,
    "Ġfamilies": 626,
    "Ġkid": 627,
    "Tony": 628,
    "ĠLarry": 629,
    "Ġfade": 630,
    "Ġfollows": 631,
    "Ġtornado": 632,
    "ĠRon": 633,
    "Ġfinally": 634,
    "Ġtrusted": 635,
    "Meow": 636,
    "chief": 637,
    "Ġcourageous": 638,
    "Ġcurious": 639,
    "Ġcube": 640,
    "Ġdone": 641,
    "Ġcrazy": 642,
    "Ġprettiest": 643,
    "ĠOf": 644,
    "Ġbuy": 645,
    "hing": 646,
    "Ġfabric": 647,
    "aroo": 648,
    "ĠInch": 649,
    "Grace": 650,
    "Ġstack": 651,
    "Ġob": 652,
    "Ġapproached": 653,
    "Ġgrape": 654,
    "Ġambulance": 655,
    "Ġsquish": 656,
    "Ġswirl": 657,
    "Ġgorilla": 658,
    "Ġsw": 659,
    "ĠWelcome": 660,
    "Ġflies": 661,
    "raid": 662,
    "Ġhoney": 663,
    "ross": 664,
    "Ġchosen": 665,
    "Ġstripes": 666,
    "Ġpoin": 667,
    "Ġsparkly": 668,
    "Ġdecoration": 669,
    "well": 670,
    "Ġunderstand": 671,
    "yth": 672,
    "Ġweighed": 673,
    "Poppy": 674,
    "Ġspy": 675,
    "Ġwiggle": 676,
    "ĠPlay": 677,
    "Ġcurly": 678,
    "die": 679,
    "Ġsides": 680,
    "ĠPippin": 681,
    "ĠMummy": 682,
    "iers": 683,
    "ĠNut": 684,
    "Ġafternoon": 685,
    "Ġsmiles": 686,
    "fa": 687,
    "Ġchirp": 688,
    "ĠSasha": 689,
    "Ġmoons": 690,
    "*": 691,
    "Ġstirring": 692,
    "Ġimages": 693,
    "Luna": 694,
    "Ġtruth": 695,
    "Ġobey": 696,
    "Ġmessed": 697,
    "Ġmermaid": 698,
    "rnie": 699,
    "Ġdigs": 700,
    "itt": 701,
    "Ġpassports": 702,
    "Ġours": 703,
    "Ġcarry": 704,
    "Ġbraver": 705,
    "Ġproviding": 706,
    "Ġpound": 707,
    "ĠSofia": 708,
    "gry": 709,
    "Ġend": 710,
    "Bobo": 711,
    "Ġprotection": 712,
    "Ġgrateful": 713,
    "Ġagrees": 714,
    "Ġrode": 715,
    "Ġspiders": 716,
    "Ġtowns": 717,
    "Ġcareless": 718,
    "ĠHel": 719,
    "Ġstore": 720,
    "xygen": 721,
    "comfortable": 722,
    "Ġflames": 723,
    "Elly": 724,
    "Ġchirping": 725,
    "Ġnoodles": 726,
    "Ġacting": 727,
    "Ġwoof": 728,
    "Ġbrushed": 729,
    "erries": 730,
    "Ġstom": 731,
    "ĠFaye": 732,
    "Ġsnug": 733,
    "Ġwing": 734,
    "Ġpuzzles": 735,
    "Ġcozy": 736,
    "Ġalligator": 737,
    "ray": 738,
    "Ġhim": 739,
    "Ġnails": 740,
    "Ġrescue": 741,
    "Ġgrabbing": 742,
    "Ġouch": 743,
    "Ġstrongest": 744,
    "ellig": 745,
    "Ġclip": 746,
    "Ġbars": 747,
    "9": 748,
    "Zero": 749,
    "Ġhurting": 750,
    "Ġyummy": 751,
    "Ġwritten": 752,
    "Ġdesert": 753,
    "g": 754,
    "Ġremote": 755,
    "angu": 756,
    "Ġoperation": 757,
    "Ġopin": 758,
    "Ġuniforms": 759,
    "Ġdish": 760,
    "Ġtide": 761,
    "Ġopinions": 762,
    "Ġautomobiles": 763,
    "fl": 764,
    "Ġoutside": 765,
    "Ġgift": 766,
    "Ġeats": 767,
    "Ġimproved": 768,
    "rier": 769,
    "Ġcoolest": 770,
    "Ġne": 771,
    "Ġslap": 772,
    "ĠCrusty": 773,
    "Ġmilk": 774,
    "ě": 775,
    "Ġtested": 776,
    "Ġtents": 777,
    "Ġlicked": 778,
    "Ġnation": 779,
    "Ġwears": 780,
    "Ġfr": 781,
    "Ġfactory": 782,
    "ches": 783,
    "ai": 784,
    "Ġfuture": 785,
    "ĠSir": 786,
    "Ġbackpack": 787,
    "Ġwat": 788,
    "Ġknowled": 789,
    "lves": 790,
    "essie": 791,
    "Penny": 792,
    "Ġpaid": 793,
    "Ġmountains": 794,
    "sty": 795,
    "ĠHor": 796,
    "Ġforks": 797,
    "ĠBree": 798,
    "corn": 799,
    "Ġbedroom": 800,
    "ĠJilly": 801,
    "Ġsnowflake": 802,
    "ame": 803,
    "Ġtelevision": 804,
    "Ġfault": 805,
    "ause": 806,
    "Ġpays": 807,
    "iding": 808,
    "Ġcounts": 809,
    "working": 810,
    "Ġmagician": 811,
    "xy": 812,
    "ber": 813,
    "Ġweek": 814,
    "del": 815,
    "Ġthroat": 816,
    "ĠBop": 817,
    "Ġseashe": 818,
    "Ġdove": 819,
    "isdom": 820,
    "Ġdigging": 821,
    "ue": 822,
    "h": 823,
    "allen": 824,
    "Ġint": 825,
    "Ġseats": 826,
    "ĠTheir": 827,
    "Ġfurious": 828,
    "They": 829,
    "Ġnumber": 830,
    "Ġterrible": 831,
    "omet": 832,
    "Ġplastic": 833,
    "Ġtwinkle": 834,
    "ĠWithout": 835,
    "Beth": 836,
    "Ġsquished": 837,
    "Ġmarkers": 838,
    "Ġpassport": 839,
    "ids": 840,
    "ĠHerb": 841,
    "ĠBeaky": 842,
    "Ġnurses": 843,
    "Ġbal": 844,
    "aur": 845,
    "ĠTiger": 846,
    "Ġstrugg": 847,
    "Ġcircus": 848,
    "Ġchecking": 849,
    "Ġsip": 850,
    "Ĩ": 851,
    "ĠInky": 852,
    "Wally": 853,
    "ara": 854,
    "Bl": 855,
    "Ġfoot": 856,
    "Ġpassing": 857,
    "Ġunwrapped": 858,
    "Ġundone": 859,
    "boat": 860,
    "Ġalong": 861,
    "gan": 862,
    "Ġlaughs": 863,
    "Ġhelping": 864,
    "Ru": 865,
    "Ġpetted": 866,
    "Ġrainco": 867,
    "Ġdancer": 868,
    "Ġeasy": 869,
    "anced": 870,
    "ĠJump": 871,
    "ĠMindy": 872,
    "Ġjoyful": 873,
    "ading": 874,
    "¹": 875,
    "son": 876,
    "Ġseasons": 877,
    "Ġpermitted": 878,
    "Ġpaws": 879,
    "Ġbeneath": 880,
    "lla": 881,
    "lly": 882,
    "ĠPine": 883,
    "Ġrice": 884,
    "Ġcompl": 885,
    "Ġcab": 886,
    "Dear": 887,
    ".âĢĿ": 888,
    "Ġbatter": 889,
    "Ġtank": 890,
    "ancy": 891,
    "Ġmaze": 892,
    "ĠKaren": 893,
    "Ġsal": 894,
    "Ġtremb": 895,
    "ĠTia": 896,
    "icy": 897,
    "as": 898,
    "Ġsore": 899,
    "Ġhill": 900,
    "uth": 901,
    "¬": 902,
    "Ġtruly": 903,
    "Ġbinoculars": 904,
    "Lulu": 905,
    "Ġaunt": 906,
    "Ġsoapy": 907,
    "Ġrestless": 908,
    "Ġitem": 909,
    "ĠGrand": 910,
    "Ġwagon": 911,
    "you": 912,
    "Ġlist": 913,
    "ĠSam": 914,
    "ĠBerry": 915,
    "Ġnecklaces": 916,
    "Ġreversed": 917,
    "ĠDara": 918,
    "Ġstrawberries": 919,
    "Ġsea": 920,
    "Ġsnuggle": 921,
    "Ġserve": 922,
    "ian": 923,
    "Coco": 924,
    "Ġwords": 925,
    "Ġpray": 926,
    "Ġapplauding": 927,
    "Grow": 928,
    "Ġworkers": 929,
    "Ġfairy": 930,
    "Ġw": 931,
    "Ġwore": 932,
    "Ġnibble": 933,
    "ĠJo": 934,
    "Ġneat": 935,
    "Jill": 936,
    "yl": 937,
    "ĠYesterday": 938,
    "Ġtray": 939,
    "Ġpetting": 940,
    "Ġseen": 941,
    "Ġwinds": 942,
    "Ġpoliceman": 943,
    "Ġdelicious": 944,
    "Ġnoticed": 945,
    "Ġteasing": 946,
    "ĠMoo": 947,
    "Ġcar": 948,
    "Ġcra": 949,
    "chanic": 950,
    "ĠSp": 951,
    "ĠSte": 952,
    "Ġswap": 953,
    "Bye": 954,
    "Ġdisagre": 955,
    "illy": 956,
    "ric": 957,
    "Ġclues": 958,
    "ĥ": 959,
    "Ġunderwater": 960,
    "Â": 961,
    "ĠEmma": 962,
    "ight": 963,
    "Ġcountries": 964,
    "ĠFiona": 965,
    "ments": 966,
    "Ġstraight": 967,
    "Ġmu": 968,
    "Ġearly": 969,
    "ĠTogether": 970,
    "Ġpaintbrush": 971,
    "Ġlaug": 972,
    "Ġfart": 973,
    "Ġlanded": 974,
    "Ġtorn": 975,
    "Ġkitten": 976,
    "Ġshrunk": 977,
    "ĠCra": 978,
    "Ġexplain": 979,
    "Ġcuts": 980,
    "Ġstomach": 981,
    "Ġlectures": 982,
    "utes": 983,
    "oby": 984,
    "Ġpeas": 985,
    "Something": 986,
    "Ġhoop": 987,
    "Ġplug": 988,
    "bage": 989,
    "Ġbuckles": 990,
    "ĠAng": 991,
    "bulance": 992,
    "aged": 993,
    "Ġkicked": 994,
    "Ġchild": 995,
    "bb": 996,
    "Ġscaring": 997,
    "Ġpresses": 998,
    "(": 999,
    "Ġbuild": 1000,
    "Great": 1001,
    "Ġobe": 1002,
    "Ġshy": 1003,
    "Ġpointy": 1004,
    "res": 1005,
    "Ġsunglasses": 1006,
    "covered": 1007,
    "Ġdripping": 1008,
    "imal": 1009,
    "Ġever": 1010,
    "Ġmic": 1011,
    "Freddy": 1012,
    "ipped": 1013,
    "ĠHope": 1014,
    "Ġvelvet": 1015,
    "Ġwires": 1016,
    "ĠCat": 1017,
    "Ġtil": 1018,
    "Ġraft": 1019,
    "Ġpa": 1020,
    "Ġwob": 1021,
    "Ġlives": 1022,
    "Ġtwel": 1023,
    "Ġclips": 1024,
    "Ġhanded": 1025,
    "Ġweather": 1026,
    "Ġswans": 1027,
    "asing": 1028,
    "iles": 1029,
    "Ġmeans": 1030,
    "Ġreads": 1031,
    "Ġgolden": 1032,
    "thing": 1033,
    "Ġinterest": 1034,
    "Ġfrog": 1035,
    "Ġneither": 1036,
    "Ġbuilt": 1037,
    "Ġborrow": 1038,
    "Ġbathroom": 1039,
    "Ġfrustration": 1040,
    "ĠQueen": 1041,
    "May": 1042,
    "Ġins": 1043,
    "ÿ": 1044,
    "iction": 1045,
    "Ġwasn": 1046,
    "Ġsofa": 1047,
    "Ġshivered": 1048,
    "Ġtreasure": 1049,
    "ĠQuick": 1050,
    "Ġmailed": 1051,
    "Ġour": 1052,
    "Ġwaits": 1053,
    "Toys": 1054,
    "Ġchirped": 1055,
    "ĠBeef": 1056,
    "Ġseagulls": 1057,
    "Ġeye": 1058,
    "Ġnote": 1059,
    "irsty": 1060,
    "Ġbeautifully": 1061,
    "Ġshape": 1062,
    "Ġscratched": 1063,
    "ibbit": 1064,
    "Ġforgives": 1065,
    "Ġhop": 1066,
    "yle": 1067,
    "ĠWolf": 1068,
    "ĠMad": 1069,
    "Ġpupils": 1070,
    "ories": 1071,
    "ricane": 1072,
    "Ġexperienced": 1073,
    "Nina": 1074,
    "bling": 1075,
    "Ġflip": 1076,
    "ĠHer": 1077,
    "Got": 1078,
    "Ġcocoa": 1079,
    "ang": 1080,
    "Ġumbrella": 1081,
    "Ġpoop": 1082,
    "Ġhelmet": 1083,
    "Ġfl": 1084,
    "this": 1085,
    "Ġlie": 1086,
    "Ġbound": 1087,
    "Ġbreakfast": 1088,
    "Ġsnake": 1089,
    "Ġingredient": 1090,
    "ĠJake": 1091,
    "Ġhedgehog": 1092,
    "Ġchipmunk": 1093,
    "Ġpeacefully": 1094,
    "ĠOlive": 1095,
    "Ġskill": 1096,
    "Ġglo": 1097,
    "Ġmonster": 1098,
    "Ġdragon": 1099,
    "Ġcheating": 1100,
    "iens": 1101,
    "Ġmailing": 1102,
    "Ġclass": 1103,
    "Ġappro": 1104,
    "Ġescaped": 1105,
    "immering": 1106,
    "Ġset": 1107,
    "iss": 1108,
    "ĠJohnny": 1109,
    "Ġwhip": 1110,
    "what": 1111,
    "Ġcosy": 1112,
    "ê": 1113,
    "Ġflexible": 1114,
    "Ġheav": 1115,
    "ĠNobody": 1116,
    "Ġswallowed": 1117,
    "Ġcandies": 1118,
    "ebecca": 1119,
    "iew": 1120,
    "Ġtoes": 1121,
    "Jake": 1122,
    "Charlie": 1123,
    "Ġstacks": 1124,
    "Ġbecame": 1125,
    "Ġsnowmen": 1126,
    "Ġdisgust": 1127,
    "asses": 1128,
    "Ġlabels": 1129,
    "airy": 1130,
    "Ġactive": 1131,
    "Ġjogged": 1132,
    "pted": 1133,
    "Ġte": 1134,
    "Ġwho": 1135,
    "ĠLena": 1136,
    "Ġhundred": 1137,
    "Ġluxury": 1138,
    "Bless": 1139,
    "cast": 1140,
    "Ġmus": 1141,
    "Ġteach": 1142,
    "ĠRuby": 1143,
    "Ġshot": 1144,
    "but": 1145,
    "Ġrequest": 1146,
    "Kim": 1147,
    "Ġdipped": 1148,
    "Ġconqu": 1149,
    "Ġbuildings": 1150,
    "Ġcomputer": 1151,
    "ĠJerry": 1152,
    "Ġbattery": 1153,
    "Ġmanag": 1154,
    "Ġvo": 1155,
    "Boo": 1156,
    "Ġbutterf": 1157,
    "Rabbit": 1158,
    "prin": 1159,
    "ĠJay": 1160,
    "ove": 1161,
    "ĠBinky": 1162,
    "unately": 1163,
    "ayla": 1164,
    "ĠBumpy": 1165,
    "Ġhar": 1166,
    "Ġwid": 1167,
    "cycle": 1168,
    "Ġpart": 1169,
    "u": 1170,
    "Ġlearner": 1171,
    "Ġwarmly": 1172,
    "Ġcloth": 1173,
    "Bounce": 1174,
    "Ġinsp": 1175,
    "K": 1176,
    "Ġbehaving": 1177,
    "akes": 1178,
    "ĠClose": 1179,
    "Ġgolf": 1180,
    "Ġteaching": 1181,
    "Ġstopped": 1182,
    "itude": 1183,
    "Ġdesigned": 1184,
    "Ġkiss": 1185,
    "Polly": 1186,
    "Ġmusician": 1187,
    "Ġladyb": 1188,
    "Ġmask": 1189,
    "zes": 1190,
    "Ġter": 1191,
    "Ġgl": 1192,
    "Ġuseful": 1193,
    "ø": 1194,
    "Ġgames": 1195,
    "erry": 1196,
    "ĠJet": 1197,
    "Ġpinched": 1198,
    "Ġcell": 1199,
    "ames": 1200,
    "ased": 1201,
    "Ġsprinkled": 1202,
    "Ġsuccessfully": 1203,
    "Ġpicks": 1204,
    "Ġintelligence": 1205,
    "Katie": 1206,
    "Ġheard": 1207,
    "rs": 1208,
    "keleton": 1209,
    "Ġcricket": 1210,
    "orsie": 1211,
    "Ġsand": 1212,
    "ship": 1213,
    "Open": 1214,
    "Molly": 1215,
    "Ann": 1216,
    "kins": 1217,
    "Ġcleans": 1218,
    "Ġwishing": 1219,
    "ĠTiti": 1220,
    "Ġcompet": 1221,
    "Ġdesperate": 1222,
    "Ġfour": 1223,
    "Ġprin": 1224,
    "Ġcount": 1225,
    "Ġweb": 1226,
    "ĠGabby": 1227,
    "Ġcudd": 1228,
    "Slowly": 1229,
    "Ġtextures": 1230,
    "cil": 1231,
    "Ġlucky": 1232,
    "Ġyarn": 1233,
    "bly": 1234,
    "mie": 1235,
    "ĳ": 1236,
    "Ġsting": 1237,
    "ĠNana": 1238,
    "Ġpair": 1239,
    "Ġprod": 1240,
    "Ġflame": 1241,
    "cessary": 1242,
    "Ġexploring": 1243,
    "Ġsecret": 1244,
    "rew": 1245,
    "Ġporch": 1246,
    "Ġsoldiers": 1247,
    "Ġsqueezed": 1248,
    "-": 1249,
    "Ġincred": 1250,
    "heart": 1251,
    "ĠOwl": 1252,
    "ining": 1253,
    "Ġwhispered": 1254,
    "Ġgotten": 1255,
    "ĠTwinkle": 1256,
    "isted": 1257,
    "creams": 1258,
    "Ý": 1259,
    "uct": 1260,
    "Ġbrightly": 1261,
    "vroom": 1262,
    "Ġgreedy": 1263,
    "racted": 1264,
    "er": 1265,
    "Ġignore": 1266,
    "Ġannoyed": 1267,
    "ym": 1268,
    "ĠTre": 1269,
    "Ġpr": 1270,
    "ached": 1271,
    "Ġequ": 1272,
    "Ġcolor": 1273,
    "Ġgrasshopper": 1274,
    "Ġoil": 1275,
    "mm": 1276,
    "acing": 1277,
    "ĠAnne": 1278,
    "Ġmeowing": 1279,
    "ĠMousy": 1280,
    "Ġwithin": 1281,
    "Ġquacks": 1282,
    "Ġsighed": 1283,
    "Ġburning": 1284,
    "Ġdinner": 1285,
    "cake": 1286,
    "ĠSlinky": 1287,
    "Ġindepend": 1288,
    "Ġattract": 1289,
    "Ġarrived": 1290,
    "Ġwine": 1291,
    "Ġyawned": 1292,
    "ided": 1293,
    "ĠSaturday": 1294,
    "Ġbloom": 1295,
    "Ġfis": 1296,
    "Ġtwisty": 1297,
    "spec": 1298,
    "ĠMrs": 1299,
    "Ġdentist": 1300,
    "Ġdesigning": 1301,
    "Ġoff": 1302,
    "Ġbas": 1303,
    "Ġpossess": 1304,
    "Ġpadd": 1305,
    "ĠLuna": 1306,
    "!âĢĿ.": 1307,
    "Ġscarecrow": 1308,
    "Ġfootball": 1309,
    "Sun": 1310,
    "Ġsheets": 1311,
    "Ġrealise": 1312,
    "Ġhere": 1313,
    "Ġjazz": 1314,
    "vice": 1315,
    "Ġtalking": 1316,
    "ola": 1317,
    "ĠQu": 1318,
    "Ġfuel": 1319,
    "Ġfarm": 1320,
    "Ġbr": 1321,
    "Ġmitten": 1322,
    "Ġwoodcutter": 1323,
    "Ġequipment": 1324,
    "Ġknob": 1325,
    "ĠIt": 1326,
    "Ġdinosaurs": 1327,
    "Ah": 1328,
    "Ġconquered": 1329,
    "Ġweapon": 1330,
    "colored": 1331,
    "Ġwarn": 1332,
    "Ġplans": 1333,
    "ĠJody": 1334,
    "Ġheartbroken": 1335,
    "ish": 1336,
    "Ġtooth": 1337,
    "Ġinterested": 1338,
    "Ġdecision": 1339,
    "ssible": 1340,
    "Ġimagination": 1341,
    "Found": 1342,
    "Ġmarriage": 1343,
    "Chloe": 1344,
    "Ġpants": 1345,
    "pop": 1346,
    "Ġcomet": 1347,
    "Ġmagaz": 1348,
    "ĠDee": 1349,
    "ature": 1350,
    "ĠCher": 1351,
    "Ġlying": 1352,
    "Ġstructure": 1353,
    "Ġheart": 1354,
    "Ġman": 1355,
    "Ġadded": 1356,
    "chan": 1357,
    "Ġsurf": 1358,
    "Ġseconds": 1359,
    "Ġfair": 1360,
    "ĠPeanut": 1361,
    "worm": 1362,
    "Ġstretching": 1363,
    "Ġrinsed": 1364,
    "Ġfreeze": 1365,
    "Ġchair": 1366,
    "ating": 1367,
    "Ġdeep": 1368,
    "Sarah": 1369,
    "Ġe": 1370,
    "Ġcared": 1371,
    "Karen": 1372,
    "Ġswim": 1373,
    "Ġsurfed": 1374,
    "Ġtheir": 1375,
    "Ġmodern": 1376,
    "Ġdoves": 1377,
    "al": 1378,
    "Ġoctopus": 1379,
    "ĠCopper": 1380,
    "Ġnobody": 1381,
    "Ġguitars": 1382,
    "dog": 1383,
    "ĠSquee": 1384,
    "Ġdamaged": 1385,
    "Ġcompassionate": 1386,
    "ĠMarch": 1387,
    "Ġconsequences": 1388,
    "Ġprank": 1389,
    "ĠJen": 1390,
    "Ġcur": 1391,
    "Ġaccomplished": 1392,
    "play": 1393,
    "Ġmugs": 1394,
    "ĠMartha": 1395,
    "Ġplot": 1396,
    "Ġdare": 1397,
    "U": 1398,
    "ust": 1399,
    "udge": 1400,
    "Ġsqueaked": 1401,
    "yd": 1402,
    "ĠRoo": 1403,
    "Ġparty": 1404,
    "ĠCarla": 1405,
    "Ġclicked": 1406,
    "Ġrepe": 1407,
    "ashes": 1408,
    "Ġsink": 1409,
    "Ġsighs": 1410,
    "Ġremained": 1411,
    "Ġsteal": 1412,
    "oman": 1413,
    "Ġspicy": 1414,
    "Ġtrains": 1415,
    "ub": 1416,
    "Ġin": 1417,
    "Ġenv": 1418,
    "Ġaxe": 1419,
    "ĠWatch": 1420,
    "Ġfront": 1421,
    "evin": 1422,
    "Ġrockets": 1423,
    "Ġtwins": 1424,
    "Hi": 1425,
    "ĠJones": 1426,
    "Ġknocks": 1427,
    "Ġsqueaky": 1428,
    "ilty": 1429,
    "ze": 1430,
    "ĠFlick": 1431,
    "Ġembra": 1432,
    "Ī": 1433,
    "À": 1434,
    "Ġpopular": 1435,
    "fully": 1436,
    "ats": 1437,
    "Ġyard": 1438,
    "ger": 1439,
    "ĠBuzzy": 1440,
    "Ġcrept": 1441,
    "ipp": 1442,
    "Ġyoga": 1443,
    "Ġmechanic": 1444,
    "Ġlined": 1445,
    "Ġcares": 1446,
    "Ġpile": 1447,
    "Julia": 1448,
    "Ġpin": 1449,
    "Ġgarage": 1450,
    "Ġnoon": 1451,
    "ase": 1452,
    "Ġmixing": 1453,
    "Ġsoft": 1454,
    "Ġnests": 1455,
    "Ġastonished": 1456,
    "Ġwhere": 1457,
    "Ġseeker": 1458,
    "Slow": 1459,
    "Ġwisdom": 1460,
    "Ġhonest": 1461,
    "Ġzookeepers": 1462,
    "Ġexpensive": 1463,
    "Ġfaucet": 1464,
    "Ġmath": 1465,
    "Ġbody": 1466,
    "arlotte": 1467,
    "here": 1468,
    "Ġmass": 1469,
    "Ġbeard": 1470,
    "ustr": 1471,
    "Ġspaces": 1472,
    "Ġpops": 1473,
    "Ġconf": 1474,
    "Ġbringing": 1475,
    "ĠKim": 1476,
    "Ġopens": 1477,
    "Ġinst": 1478,
    "Ġcandle": 1479,
    "Ġgirls": 1480,
    "Ġbank": 1481,
    "Ġopened": 1482,
    "Ġrunner": 1483,
    "Ġpad": 1484,
    "Ġfetch": 1485,
    "Tiny": 1486,
    "elly": 1487,
    "Ġconfidence": 1488,
    "Ġsinger": 1489,
    "Ġdate": 1490,
    "Ġcroak": 1491,
    "Ġexplored": 1492,
    "?!\"": 1493,
    "Ġgrey": 1494,
    "Ġcome": 1495,
    "Ġposter": 1496,
    "ded": 1497,
    "Ġb": 1498,
    "ĠTony": 1499,
    "Ġblamed": 1500,
    "Ġprick": 1501,
    "ĠBear": 1502,
    "Ġshorts": 1503,
    "child": 1504,
    "Ġshirt": 1505,
    "ouquet": 1506,
    "Ġstudying": 1507,
    "Ġchanges": 1508,
    "arter": 1509,
    "Ġt": 1510,
    "oney": 1511,
    "Ġdecide": 1512,
    "Rosie": 1513,
    "Ġavailable": 1514,
    "Ġdriving": 1515,
    "ĠAn": 1516,
    "Ġgrandd": 1517,
    "Ġinside": 1518,
    "ĠBeing": 1519,
    "iced": 1520,
    "ĠKids": 1521,
    "Ġshrugs": 1522,
    "Ġmission": 1523,
    "Ġwheat": 1524,
    "Ġbarrel": 1525,
    "fied": 1526,
    "work": 1527,
    "Ġput": 1528,
    "Ġwaffles": 1529,
    "ragile": 1530,
    "Ġtogether": 1531,
    "Ġjumped": 1532,
    "Lucy": 1533,
    "Ġcute": 1534,
    "Ġrefreshed": 1535,
    "Ġtracks": 1536,
    "bul": 1537,
    "Ġeff": 1538,
    "agic": 1539,
    "Ġpets": 1540,
    "est": 1541,
    "band": 1542,
    "Ġcatching": 1543,
    "[": 1544,
    "c": 1545,
    "Ġwelcome": 1546,
    "fortunately": 1547,
    "Ġlived": 1548,
    "Moo": 1549,
    "Ġstar": 1550,
    "Ġscoops": 1551,
    "Ġperfectly": 1552,
    "Ġpro": 1553,
    "Ġmovie": 1554,
    "£": 1555,
    "Guess": 1556,
    "Ġwhine": 1557,
    "Ġhours": 1558,
    "Ġsew": 1559,
    "aven": 1560,
    "Ġwake": 1561,
    "me": 1562,
    "Ġpancakes": 1563,
    "Ġag": 1564,
    "arth": 1565,
    "Ġup": 1566,
    "Ġexpecting": 1567,
    "Ġbellies": 1568,
    "ĠE": 1569,
    "Ġspinning": 1570,
    "Ġjumping": 1571,
    "Ġcatches": 1572,
    "Ġeas": 1573,
    "eet": 1574,
    "Ġfash": 1575,
    "a": 1576,
    "ira": 1577,
    "Ġpracticed": 1578,
    "Ġoverwhelmed": 1579,
    "Peter": 1580,
    "ĠZee": 1581,
    "hed": 1582,
    "Ġriverbank": 1583,
    "Ġsat": 1584,
    "Ġostri": 1585,
    "Ġso": 1586,
    "opes": 1587,
    "Ġkitty": 1588,
    "Ġfoolish": 1589,
    "Ġmelody": 1590,
    "Ġmagnet": 1591,
    "Ġhun": 1592,
    "Ġ2": 1593,
    "Ġdaring": 1594,
    "Ġpee": 1595,
    "Ġrays": 1596,
    "Ġlick": 1597,
    "Ġencou": 1598,
    "Ġgray": 1599,
    "ailable": 1600,
    "Ġcrayon": 1601,
    "Ġport": 1602,
    "Ġstupid": 1603,
    "Ġbang": 1604,
    "Ġthings": 1605,
    "ĠHorsie": 1606,
    "Nick": 1607,
    "Ġtaller": 1608,
    "ctopus": 1609,
    "Ġoutfits": 1610,
    "Ġdam": 1611,
    "Ġcoup": 1612,
    "ming": 1613,
    "Ġslither": 1614,
    "Ġruin": 1615,
    "Ġperforming": 1616,
    "ough": 1617,
    "ĠPr": 1618,
    "dile": 1619,
    "Ġtwir": 1620,
    "Ġappreciated": 1621,
    "ended": 1622,
    "ared": 1623,
    "Ġcrisp": 1624,
    "Ġfields": 1625,
    "ventually": 1626,
    "Ġsled": 1627,
    "ĠRight": 1628,
    "Ġcream": 1629,
    "Ġfootprints": 1630,
    "ugar": 1631,
    "Ġmarching": 1632,
    "Ġraces": 1633,
    "Ġting": 1634,
    "Ġbeaming": 1635,
    "aking": 1636,
    "Ġfoam": 1637,
    "Ġbye": 1638,
    "Ġsp": 1639,
    "Ġpigeons": 1640,
    "Ġnewfound": 1641,
    "Ġfigures": 1642,
    "Ġkneel": 1643,
    "Ġhugs": 1644,
    "Mama": 1645,
    "ivia": 1646,
    "ĠGold": 1647,
    "Ġcoo": 1648,
    "Ġthere": 1649,
    "Ġcolors": 1650,
    "ooky": 1651,
    "Ġpunished": 1652,
    "Ġtwirl": 1653,
    "Ġenthusiastic": 1654,
    "Ġcri": 1655,
    "Ġstair": 1656,
    "Ġbasket": 1657,
    "Ġloudest": 1658,
    "Ġtesting": 1659,
    "edn": 1660,
    "ĠSara": 1661,
    "Ġfight": 1662,
    "Ġsel": 1663,
    "Froggy": 1664,
    "ĠToot": 1665,
    "fused": 1666,
    "Ġdonkey": 1667,
    "Ġjam": 1668,
    "ĠK": 1669,
    "ĠRob": 1670,
    "Ġstroll": 1671,
    "Ġadventure": 1672,
    "ic": 1673,
    "ĠRobo": 1674,
    "ĠAmy": 1675,
    "ishing": 1676,
    "Ġrelaxing": 1677,
    "ens": 1678,
    "Ġpandas": 1679,
    "Julie": 1680,
    "Ġtangled": 1681,
    "Ġpoking": 1682,
    "Ġyogurt": 1683,
    "Doctor": 1684,
    "Ġoasis": 1685,
    "ĠLilly": 1686,
    "aa": 1687,
    "ars": 1688,
    "Ġheaded": 1689,
    "Because": 1690,
    "Ġreminded": 1691,
    "Ġincreased": 1692,
    "Ġforgotten": 1693,
    "ĠOlivia": 1694,
    "Ġcelebr": 1695,
    "ĠAndy": 1696,
    "zy": 1697,
    "Ġautomobile": 1698,
    "eep": 1699,
    "Ġrevealed": 1700,
    "Ġmeadows": 1701,
    "Maybe": 1702,
    "Ġtuna": 1703,
    "Ġspec": 1704,
    "nic": 1705,
    "aff": 1706,
    "č": 1707,
    "Ġboo": 1708,
    "Ġsometimes": 1709,
    "Ġwo": 1710,
    "Ġve": 1711,
    "Ġfacts": 1712,
    "Ġadmired": 1713,
    "Ġgentle": 1714,
    "Ġcuriosity": 1715,
    "Ġbitter": 1716,
    "Ġkept": 1717,
    "Ġparticular": 1718,
    "Ġphones": 1719,
    "Ġwhale": 1720,
    "Ġrecognized": 1721,
    "Ġspr": 1722,
    "Ġsteady": 1723,
    "Ġglitter": 1724,
    "Ġinsisting": 1725,
    "Ġfolds": 1726,
    "Ġrele": 1727,
    "urkey": 1728,
    "¯": 1729,
    "order": 1730,
    "ĠBig": 1731,
    "There": 1732,
    "Ġdisagreement": 1733,
    "ĠQ": 1734,
    "ĠWill": 1735,
    "ighed": 1736,
    "rigerator": 1737,
    "Ġclaps": 1738,
    "ĠSpicy": 1739,
    "Ġsolut": 1740,
    "Ġthanked": 1741,
    "Ġwhe": 1742,
    "ises": 1743,
    "Ġtaking": 1744,
    "uxu": 1745,
    "zen": 1746,
    "Ġdetect": 1747,
    "Eat": 1748,
    "Ġconnected": 1749,
    "Ġhated": 1750,
    "Ġsailboat": 1751,
    "Ġtemper": 1752,
    "ention": 1753,
    "Ġhairdresser": 1754,
    "Ġparrot": 1755,
    "Ġfrom": 1756,
    "Surprise": 1757,
    "Ġvase": 1758,
    "Ġback": 1759,
    "Ġdiscovering": 1760,
    "Ġstomped": 1761,
    "ĠAli": 1762,
    "Ġmoral": 1763,
    "under": 1764,
    "Ġmischievous": 1765,
    "Ġwrote": 1766,
    "ge": 1767,
    "ĠFreddie": 1768,
    "Bob": 1769,
    "ĠVroom": 1770,
    "ĠSpin": 1771,
    "Ġlegs": 1772,
    "Mimi": 1773,
    "ĠAb": 1774,
    "otte": 1775,
    "Ġblow": 1776,
    "Ġmountain": 1777,
    "Ġten": 1778,
    "Ġexpect": 1779,
    "Ġfile": 1780,
    "Ġscares": 1781,
    "Ġbanged": 1782,
    "ĠOff": 1783,
    "Ġsomewhere": 1784,
    "iece": 1785,
    "Ġcheering": 1786,
    "Ġcliff": 1787,
    "ĠTammy": 1788,
    "Ġlicense": 1789,
    "Ġme": 1790,
    "Ġdolphins": 1791,
    "ll": 1792,
    "Ġgrace": 1793,
    "Ġpu": 1794,
    "water": 1795,
    "onna": 1796,
    "quet": 1797,
    "Ġmedicine": 1798,
    "Ġlem": 1799,
    "ifi": 1800,
    "Ġcol": 1801,
    "Ġimpatient": 1802,
    "³": 1803,
    "Ġnovels": 1804,
    "ĠJe": 1805,
    "ĉ": 1806,
    "Ġannounced": 1807,
    "undred": 1808,
    "Pe": 1809,
    "Ġapple": 1810,
    "Ġspray": 1811,
    "Ġdrinks": 1812,
    "l": 1813,
    "Ġstyles": 1814,
    "so": 1815,
    "Ġintelligent": 1816,
    "amp": 1817,
    "ĠSmoke": 1818,
    "Ġwaist": 1819,
    "Ġsailed": 1820,
    "Ġpowerful": 1821,
    "ĠSquirrel": 1822,
    "ĠMaggie": 1823,
    "Ġmeow": 1824,
    "he": 1825,
    "Ġtent": 1826,
    "ĠAbi": 1827,
    "Ġgoodbyes": 1828,
    "ĠSpot": 1829,
    "Ġsure": 1830,
    "Ġyell": 1831,
    "obody": 1832,
    "igator": 1833,
    "Ġdan": 1834,
    "ern": 1835,
    "Ġgif": 1836,
    "Ġhorn": 1837,
    "Ġspits": 1838,
    "Ġswitched": 1839,
    "hel": 1840,
    "ĠNot": 1841,
    "Ġtiptoed": 1842,
    "Ġperfume": 1843,
    "isty": 1844,
    "ĠBiggie": 1845,
    "eath": 1846,
    "Ġslices": 1847,
    "Ġcharm": 1848,
    "Ġpur": 1849,
    "Ġgrowled": 1850,
    "ĠR": 1851,
    "Ġtouched": 1852,
    "Bow": 1853,
    "Alex": 1854,
    "y": 1855,
    "Ġmay": 1856,
    "Ġtricky": 1857,
    "yan": 1858,
    "Ġflood": 1859,
    "Ġluckiest": 1860,
    "beep": 1861,
    "Ġtex": 1862,
    "Ġwiggled": 1863,
    "ilk": 1864,
    "Ġdelay": 1865,
    "ĠBirdy": 1866,
    "Ġsuff": 1867,
    "Ġshield": 1868,
    "Ġticket": 1869,
    "ĠS": 1870,
    "Ġmovies": 1871,
    "Ġactions": 1872,
    "Wait": 1873,
    "Ġsplash": 1874,
    "ĠAnna": 1875,
    "Ġclimb": 1876,
    "Ġpowers": 1877,
    "ĠBall": 1878,
    "Ġunsure": 1879,
    "Ġmessages": 1880,
    "Sharing": 1881,
    "rig": 1882,
    "Hmm": 1883,
    "Ġdemanding": 1884,
    "Ġracers": 1885,
    "Ġshelves": 1886,
    "imes": 1887,
    "aky": 1888,
    "ĠPlease": 1889,
    "Ġhug": 1890,
    "Ġbro": 1891,
    "Ġdisappoint": 1892,
    "atter": 1893,
    "Ġliquid": 1894,
    "Ġloved": 1895,
    "Ġanticip": 1896,
    "Ġrail": 1897,
    "Ġbouncy": 1898,
    "ure": 1899,
    "Ġsewed": 1900,
    "Ġfriendships": 1901,
    "Ġflick": 1902,
    "Ġsurpr": 1903,
    "ountain": 1904,
    "ĠLife": 1905,
    "aul": 1906,
    "ĠRub": 1907,
    "Ġvegg": 1908,
    "yes": 1909,
    "Ġlaser": 1910,
    "Ġaccompl": 1911,
    "osed": 1912,
    "Ġtastes": 1913,
    "Ġcarrying": 1914,
    "An": 1915,
    "Ġketchup": 1916,
    "Ġflavors": 1917,
    "Ġlever": 1918,
    "ĠCow": 1919,
    "Ġhur": 1920,
    "isp": 1921,
    "nament": 1922,
    "ĠWoo": 1923,
    "anie": 1924,
    "Ġsearch": 1925,
    "Ġquizzes": 1926,
    "Ġhoc": 1927,
    "Ġcircles": 1928,
    "Ġsteps": 1929,
    "ĠJonny": 1930,
    "Ġnone": 1931,
    "hew": 1932,
    "year": 1933,
    "ĠFor": 1934,
    "ither": 1935,
    "Ġparent": 1936,
    "Ġwhined": 1937,
    "Tim": 1938,
    "nce": 1939,
    "Nothing": 1940,
    "Ġop": 1941,
    "Ġwandering": 1942,
    "Ġcheerfully": 1943,
    "itely": 1944,
    "ĠFr": 1945,
    "Ġcour": 1946,
    "Ġdared": 1947,
    "ued": 1948,
    "Ġrings": 1949,
    "Ġbits": 1950,
    "i": 1951,
    "Ġsec": 1952,
    "Ġzipped": 1953,
    "ages": 1954,
    "Ġtwisted": 1955,
    "Ġexit": 1956,
    "orrow": 1957,
    "ĠCathy": 1958,
    "ĠAlong": 1959,
    "Ġtaught": 1960,
    "iform": 1961,
    "ĠâĢľ": 1962,
    "ep": 1963,
    "ĠLeo": 1964,
    "Ġwaste": 1965,
    "Ġcards": 1966,
    "Ġwild": 1967,
    "Frog": 1968,
    "Ġextra": 1969,
    "Ġdifficult": 1970,
    "Ġclothes": 1971,
    "Ġvehicles": 1972,
    "Gr": 1973,
    "vin": 1974,
    "Ġtook": 1975,
    "ĠUncle": 1976,
    "Ġdoggy": 1977,
    "'m": 1978,
    "Ġfixing": 1979,
    "venir": 1980,
    "Ġbalance": 1981,
    "Ġbeamed": 1982,
    "George": 1983,
    "Ġspe": 1984,
    "Ġnapping": 1985,
    "uest": 1986,
    "ĠPaul": 1987,
    "Ġdeterm": 1988,
    "ĠYet": 1989,
    "Remember": 1990,
    "Ġmind": 1991,
    "Ġchooses": 1992,
    "ĠSusie": 1993,
    "Ġcreep": 1994,
    "Ġladder": 1995,
    "ĠSue": 1996,
    "airs": 1997,
    "Ġtoppings": 1998,
    "Ġfirefly": 1999,
    "Ġearlier": 2000,
    "Ġmagn": 2001,
    "va": 2002,
    "Beep": 2003,
    "Ġalive": 2004,
    "Ġearned": 2005,
    "un": 2006,
    "Ġhelpful": 2007,
    "ighing": 2008,
    "Ġquarrel": 2009,
    "Ġmushrooms": 2010,
    "lo": 2011,
    "Ġdestination": 2012,
    "Ġshines": 2013,
    "Ġantic": 2014,
    "Ġpacking": 2015,
    "ime": 2016,
    "Ġtipto": 2017,
    "ĠSleepy": 2018,
    "Mommy": 2019,
    "Ġwheel": 2020,
    "ĠSweet": 2021,
    "Ġmotion": 2022,
    "Ġtow": 2023,
    "ē": 2024,
    "Too": 2025,
    "oe": 2026,
    "Ġpresented": 2027,
    "Ġcook": 2028,
    "Ġpuppies": 2029,
    "ĠBonnie": 2030,
    "Ġbright": 2031,
    "Ġglove": 2032,
    "1": 2033,
    "Ġpebble": 2034,
    "Ġstrips": 2035,
    "Ġgrant": 2036,
    "Ġmedal": 2037,
    "Ġresting": 2038,
    "Ġsipped": 2039,
    "isk": 2040,
    "Ġsun": 2041,
    "Ġsuitcase": 2042,
    "ail": 2043,
    "Ġtry": 2044,
    ")": 2045,
    "Ġriver": 2046,
    "Ġmuddy": 2047,
    "'s": 2048,
    "Ġmeasured": 2049,
    "orking": 2050,
    "Ġlistening": 2051,
    "Ġlandscape": 2052,
    "Ġspell": 2053,
    "Ġfaraway": 2054,
    "Ġpounced": 2055,
    "Ġpause": 2056,
    "ĠPam": 2057,
    "Ġsleeping": 2058,
    "Ġsheet": 2059,
    "Time": 2060,
    "Ġprint": 2061,
    "Ġrepeat": 2062,
    "Sad": 2063,
    "Ġacce": 2064,
    "Ġ-": 2065,
    "retty": 2066,
    "Ġcreations": 2067,
    "Ġunlocked": 2068,
    "neath": 2069,
    "on": 2070,
    "Ġtwelve": 2071,
    "Rocky": 2072,
    "Ġcush": 2073,
    "Ġwhose": 2074,
    "âĢĶ": 2075,
    "Ġspoiling": 2076,
    "Ġtrying": 2077,
    "pa": 2078,
    "Ġhusband": 2079,
    "Ġprov": 2080,
    "Ġif": 2081,
    "ĠDave": 2082,
    "Ġtimer": 2083,
    "era": 2084,
    "Ġfavor": 2085,
    "Ġmeals": 2086,
    "Ġbubble": 2087,
    "Ġshirts": 2088,
    "Ġkne": 2089,
    "oom": 2090,
    "Ġsofter": 2091,
    "Ġunpack": 2092,
    "Ġwebs": 2093,
    "ssess": 2094,
    "Ġbookcase": 2095,
    "ĠL": 2096,
    "Ġfinishing": 2097,
    "Ġapolog": 2098,
    "Ġeraser": 2099,
    "ggy": 2100,
    "Ġpre": 2101,
    "Ġthey": 2102,
    "Ġsquash": 2103,
    "Yes": 2104,
    "Ġhit": 2105,
    "Shrink": 2106,
    "Ġseparate": 2107,
    "Ġjugg": 2108,
    "nam": 2109,
    "Ġfragile": 2110,
    "Ġanimal": 2111,
    "ĠLuke": 2112,
    "ĠCurious": 2113,
    "cuss": 2114,
    "ĠBrown": 2115,
    "Ġsource": 2116,
    "ĕ": 2117,
    "Ġpony": 2118,
    "No": 2119,
    "Ġchange": 2120,
    "otion": 2121,
    "cked": 2122,
    "Ġgrinned": 2123,
    "Ġhumans": 2124,
    "Ġbrought": 2125,
    "Ġstacking": 2126,
    "ked": 2127,
    "Ġmeat": 2128,
    "ĠCindy": 2129,
    "ĠMatch": 2130,
    "Ġbuzzed": 2131,
    "Ġdoorway": 2132,
    "ĠRainbow": 2133,
    "Ġglad": 2134,
    "Ġconsider": 2135,
    "Ġimagined": 2136,
    "erest": 2137,
    "Ġinstrum": 2138,
    "Ġfascinated": 2139,
    "Ġcheese": 2140,
    "ĠPaws": 2141,
    "Ġdraws": 2142,
    "Ġlies": 2143,
    "Ġpearls": 2144,
    "Ġforgi": 2145,
    "Ġfeels": 2146,
    "Ġfiles": 2147,
    "ĠUniversity": 2148,
    "ĠBang": 2149,
    "ĠBut": 2150,
    "Ġtravel": 2151,
    "oved": 2152,
    "Ġmicrowave": 2153,
    "ular": 2154,
    "ness": 2155,
    "ĠWhistle": 2156,
    "Ġfreezer": 2157,
    "Ġnight": 2158,
    "Ġcardboard": 2159,
    "Ġped": 2160,
    "Ġhat": 2161,
    "Ġblinking": 2162,
    "Ġrebuild": 2163,
    "Ġfish": 2164,
    "ĠAdam": 2165,
    "ted": 2166,
    "Ġcray": 2167,
    "Ġhook": 2168,
    "Ġtrot": 2169,
    "Under": 2170,
    "Ġhis": 2171,
    "uggles": 2172,
    "oth": 2173,
    "itty": 2174,
    "lest": 2175,
    "Ġeasily": 2176,
    "Ġlungs": 2177,
    "Ġmeant": 2178,
    "Ġlunch": 2179,
    "her": 2180,
    "ock": 2181,
    "Ġmister": 2182,
    "ĠBirds": 2183,
    "Ġemp": 2184,
    "Ġgre": 2185,
    "Ġnam": 2186,
    "Ġbracelets": 2187,
    "âĢĻ": 2188,
    "Ġtowards": 2189,
    "Ġplayful": 2190,
    "Ġpretends": 2191,
    "washer": 2192,
    "Ġshone": 2193,
    "Ġbrick": 2194,
    "Ġelse": 2195,
    "ĠRebecca": 2196,
    "Ġbandage": 2197,
    "Being": 2198,
    "Ġdrawing": 2199,
    "indr": 2200,
    "Ġu": 2201,
    "ę": 2202,
    "Ġsad": 2203,
    "Ġd": 2204,
    "ĠQuacky": 2205,
    "Ġscattering": 2206,
    "ĠPark": 2207,
    "Ġlangu": 2208,
    "Ġcrab": 2209,
    "Ġrins": 2210,
    "sh": 2211,
    "Ġdisagree": 2212,
    "bby": 2213,
    "anna": 2214,
    "Zara": 2215,
    "Ġdead": 2216,
    "mend": 2217,
    "oup": 2218,
    "ging": 2219,
    "Ġfancy": 2220,
    "Ġsleeps": 2221,
    "Ġfle": 2222,
    "ĠFifi": 2223,
    "Ġaccidents": 2224,
    "Ġburied": 2225,
    "Ġkeeper": 2226,
    "Ġcompany": 2227,
    "Ġbackwards": 2228,
    "set": 2229,
    "Ġplenty": 2230,
    "Ġdrain": 2231,
    "Ġchee": 2232,
    "Ġfif": 2233,
    "Ġobserving": 2234,
    "Ġjar": 2235,
    "ched": 2236,
    "Ġsneaky": 2237,
    "hings": 2238,
    "Ġcobweb": 2239,
    "Ġmess": 2240,
    "Ġrare": 2241,
    "Ġkn": 2242,
    "andy": 2243,
    "Ġvowed": 2244,
    "Ġwitch": 2245,
    "Ġrepl": 2246,
    "Ġmap": 2247,
    "ictionary": 2248,
    "Ġwar": 2249,
    "Ġjoin": 2250,
    "Ġfin": 2251,
    "we": 2252,
    "Pippin": 2253,
    "Ġsupplies": 2254,
    "Ġsteel": 2255,
    "ĠThese": 2256,
    "ative": 2257,
    "Ġreaching": 2258,
    "Ġtests": 2259,
    "Ġmeets": 2260,
    "ward": 2261,
    "icky": 2262,
    "ember": 2263,
    "ets": 2264,
    "ĠSunday": 2265,
    "j": 2266,
    "Ġpillow": 2267,
    "Ġseas": 2268,
    "Ġwatered": 2269,
    "Ġfilm": 2270,
    "Ġchurch": 2271,
    "Ġfires": 2272,
    "unn": 2273,
    "Ġrocked": 2274,
    "Ġcand": 2275,
    "Ġcloud": 2276,
    "ott": 2277,
    "roscope": 2278,
    "Ġexactly": 2279,
    "Ġforce": 2280,
    "Ġpaths": 2281,
    "cused": 2282,
    "Ġoranges": 2283,
    "Ġsolved": 2284,
    "Joey": 2285,
    "Ġfans": 2286,
    "uper": 2287,
    "Ġreun": 2288,
    "Ġswimmer": 2289,
    "rec": 2290,
    "Ġharmless": 2291,
    "Ġhealthy": 2292,
    "Ġdrivers": 2293,
    "Ġoffice": 2294,
    "Ġwonders": 2295,
    "Ġchasing": 2296,
    "Ġdeer": 2297,
    "Ġwindy": 2298,
    "Ġproperty": 2299,
    "Ġfre": 2300,
    "ĠNo": 2301,
    "Ġcounted": 2302,
    "sers": 2303,
    "Ġmove": 2304,
    "Ġshark": 2305,
    "Ġpupil": 2306,
    "Ġstayed": 2307,
    "Ġtag": 2308,
    "Ġadventurous": 2309,
    "Ġloc": 2310,
    "Ġprettier": 2311,
    "Ġstir": 2312,
    "Should": 2313,
    "Car": 2314,
    "Ġhut": 2315,
    "ĠOlly": 2316,
    "ĠAlthough": 2317,
    "Ġcarried": 2318,
    "Have": 2319,
    "ith": 2320,
    "Ġlovely": 2321,
    "Ġweight": 2322,
    "Ġglared": 2323,
    "Ġglob": 2324,
    "Ġtop": 2325,
    "Ġhive": 2326,
    "Ġsty": 2327,
    "ĠSomet": 2328,
    "ital": 2329,
    "From": 2330,
    "Ġmatter": 2331,
    "ĠSqu": 2332,
    "Ġneighborhood": 2333,
    "uster": 2334,
    "Ġrustling": 2335,
    "ogn": 2336,
    "Ġcarefully": 2337,
    "rmometer": 2338,
    "ĠSammy": 2339,
    "Ġsuccessful": 2340,
    "Ġrescuing": 2341,
    "Ġsy": 2342,
    "Ġblouse": 2343,
    "Ġwags": 2344,
    "Ġsqueal": 2345,
    "Ġnormal": 2346,
    "Ġrhinoceros": 2347,
    "Ġstart": 2348,
    "Ġrotten": 2349,
    "Ġreminding": 2350,
    "Ě": 2351,
    "ucy": 2352,
    "ĠAm": 2353,
    "ġ": 2354,
    "Ġpicnic": 2355,
    "Ġboats": 2356,
    "Ġcomforted": 2357,
    "Ġasks": 2358,
    "Ġyoung": 2359,
    "Ġdangers": 2360,
    "Ġshyly": 2361,
    "Ġfavour": 2362,
    "Ġspiky": 2363,
    "Ġunpacked": 2364,
    "uctantly": 2365,
    "Ġpocket": 2366,
    "Ġfigure": 2367,
    "Ġsafely": 2368,
    "og": 2369,
    "Ġpit": 2370,
    "Ġtheirs": 2371,
    "sp": 2372,
    "Ġmentioned": 2373,
    "Ġswam": 2374,
    "ffic": 2375,
    "ĠTV": 2376,
    "Ġwhist": 2377,
    "ĠTrust": 2378,
    "Ġsomeone": 2379,
    "ĠUnder": 2380,
    "Ġcalled": 2381,
    "Ġdry": 2382,
    "Ġeverybody": 2383,
    "Ġthemselves": 2384,
    "eal": 2385,
    "Ġfil": 2386,
    "Ġexciting": 2387,
    "Ġmold": 2388,
    "Ġrush": 2389,
    "Ġex": 2390,
    "ĠTwo": 2391,
    "Ġbeeped": 2392,
    "ĠDaddy": 2393,
    "Ġdie": 2394,
    "Ġblink": 2395,
    "ouraged": 2396,
    "Ġpraying": 2397,
    "Ġunwra": 2398,
    "ĠMaisy": 2399,
    "apers": 2400,
    "icking": 2401,
    "Ġrider": 2402,
    "Ġstone": 2403,
    "thy": 2404,
    "Ġinse": 2405,
    "Ġfeet": 2406,
    "Ġbones": 2407,
    "Ġfav": 2408,
    "Ġok": 2409,
    "Ġdef": 2410,
    "iri": 2411,
    "ĠSuper": 2412,
    "Ġarrow": 2413,
    "Ġslips": 2414,
    "Ġcandles": 2415,
    "Ella": 2416,
    "Ġspeaker": 2417,
    "iting": 2418,
    "Ġsquashes": 2419,
    "Ġpencil": 2420,
    "Ġbells": 2421,
    "Ġmirror": 2422,
    "ĠOrange": 2423,
    "Ġzigzag": 2424,
    "Ġpatted": 2425,
    "ĠAlways": 2426,
    "Ġinstruct": 2427,
    "ĠFloppy": 2428,
    "nded": 2429,
    "self": 2430,
    "Spot": 2431,
    "ful": 2432,
    "ĠMegan": 2433,
    "Come": 2434,
    "ĠChick": 2435,
    "r": 2436,
    "eed": 2437,
    "Ġpassen": 2438,
    "Ġloudly": 2439,
    "ute": 2440,
    "Bessie": 2441,
    "Tilly": 2442,
    "ĠBefore": 2443,
    "Ġdried": 2444,
    "ĠStep": 2445,
    "Ġplanning": 2446,
    "Do": 2447,
    "Ġurge": 2448,
    "Ġtal": 2449,
    "Ġcough": 2450,
    "ĠDr": 2451,
    "Ġdesper": 2452,
    "ugging": 2453,
    "Ġstern": 2454,
    "ĠDanny": 2455,
    "ĠNancy": 2456,
    "ĠJenn": 2457,
    "Ġcabinet": 2458,
    "njoy": 2459,
    "\"": 2460,
    "Ġstairs": 2461,
    "Ġdisappointed": 2462,
    "Ġwhines": 2463,
    "ĠWe": 2464,
    "Ċ": 2465,
    "Ġappeared": 2466,
    "Ġengines": 2467,
    "ul": 2468,
    "rilliant": 2469,
    "Ġused": 2470,
    "Ġtreated": 2471,
    "Ġsouvenir": 2472,
    "Bubbles": 2473,
    "Ġpattern": 2474,
    "Ġstarting": 2475,
    "ĠJanie": 2476,
    "epend": 2477,
    "Ġsquir": 2478,
    "Mittens": 2479,
    "Ġlove": 2480,
    "Ġrusty": 2481,
    "Ġbowed": 2482,
    "ĠWorking": 2483,
    "Ġsc": 2484,
    "Ġbird": 2485,
    "ĠFoxy": 2486,
    "Ġrin": 2487,
    "Ġbel": 2488,
    "Ġcelebration": 2489,
    "Luke": 2490,
    "When": 2491,
    "Ġbean": 2492,
    "Ġsnowfl": 2493,
    "ĠMonster": 2494,
    "pan": 2495,
    "Woof": 2496,
    "uess": 2497,
    "Ġar": 2498,
    "?\"": 2499,
    "ipes": 2500,
    "sa": 2501,
    "arp": 2502,
    "Ġpackages": 2503,
    "Ġrubb": 2504,
    "Ġsnar": 2505,
    "ĠFlap": 2506,
    "Ġskipping": 2507,
    "Ġrepair": 2508,
    "Ġpurrs": 2509,
    "Ġsnee": 2510,
    "Ġsport": 2511,
    "Ġbiscuit": 2512,
    "÷": 2513,
    "Ġwooden": 2514,
    "Ġhider": 2515,
    "uddy": 2516,
    "Ġmissile": 2517,
    "Ġtempted": 2518,
    "Ġpurred": 2519,
    "Ġzoom": 2520,
    "rap": 2521,
    "z": 2522,
    "Ġnearby": 2523,
    "irpy": 2524,
    "oop": 2525,
    "ĠA": 2526,
    "Ġbutterfly": 2527,
    "Ġsunrise": 2528,
    "Ġfree": 2529,
    "Ġmonth": 2530,
    "ĠCarl": 2531,
    "Ġberry": 2532,
    "Ġangels": 2533,
    "Fine": 2534,
    "Ġbucket": 2535,
    "Ġzipping": 2536,
    "Ġsm": 2537,
    "ĠRos": 2538,
    "ĠDespite": 2539,
    "ĠMother": 2540,
    "ĠTweety": 2541,
    "Ġmater": 2542,
    "ĠSpeedy": 2543,
    "Ġinchworm": 2544,
    "Ġsomething": 2545,
    "Ġtease": 2546,
    "ull": 2547,
    "Ġsailors": 2548,
    "ĠMonkey": 2549,
    "Ġbeast": 2550,
    "ĠMat": 2551,
    "Ġcontin": 2552,
    "Ġgrows": 2553,
    "amb": 2554,
    "Ġchose": 2555,
    "Ġbroke": 2556,
    "Ą": 2557,
    "vision": 2558,
    "Ġworms": 2559,
    "Ġorange": 2560,
    "ĠBubba": 2561,
    "Tree": 2562,
    "Ġpoint": 2563,
    "Ġorganized": 2564,
    "Ġleads": 2565,
    "Ġknow": 2566,
    "iky": 2567,
    "v": 2568,
    "ush": 2569,
    "Ġpaying": 2570,
    "Ġzipper": 2571,
    "Linda": 2572,
    "Ġpatience": 2573,
    "Ġnine": 2574,
    "Ġstared": 2575,
    "Ġscurry": 2576,
    "Ġmatching": 2577,
    "Ġnicer": 2578,
    "Ġsong": 2579,
    "Ġoats": 2580,
    "Ġsupplied": 2581,
    "Ġradish": 2582,
    "Ġspeaking": 2583,
    "igh": 2584,
    "Ġmodest": 2585,
    "wise": 2586,
    "Ġsigns": 2587,
    "oscope": 2588,
    "Ġicy": 2589,
    "ĠEmily": 2590,
    "Ġstarfish": 2591,
    "Ġtablet": 2592,
    "Ġlad": 2593,
    "Ġcloths": 2594,
    "Ġow": 2595,
    "etah": 2596,
    "Ġsoared": 2597,
    "Ġtightly": 2598,
    "Ġcor": 2599,
    "Ġrep": 2600,
    "Ġvideos": 2601,
    "Ġbeads": 2602,
    "Ġcurt": 2603,
    "ired": 2604,
    "Isn": 2605,
    "asp": 2606,
    "Ġbackward": 2607,
    "chair": 2608,
    "Ġyelped": 2609,
    "Ġchuck": 2610,
    "Ġsituation": 2611,
    "umbling": 2612,
    "owl": 2613,
    "ĠâĢĵ": 2614,
    "Ġhus": 2615,
    "ĠFarmer": 2616,
    "Ġplace": 2617,
    "Ġdanger": 2618,
    "Uh": 2619,
    "ĠBu": 2620,
    "Ġlean": 2621,
    "Ġburn": 2622,
    "Ġpaint": 2623,
    "Ġchick": 2624,
    "Ġnodding": 2625,
    "Ġhills": 2626,
    "Ġupon": 2627,
    "ĠMon": 2628,
    "Ġsky": 2629,
    "Ġembarrassed": 2630,
    "Ġdisappearing": 2631,
    "cycles": 2632,
    "Ġbrush": 2633,
    "Ġbacks": 2634,
    "Ġstrong": 2635,
    "Ġtiger": 2636,
    "Ġyouth": 2637,
    "Mad": 2638,
    "ĠZoom": 2639,
    "ĠMom": 2640,
    "Ġwashing": 2641,
    "ĠWhite": 2642,
    "Ġgroom": 2643,
    "ĠSpring": 2644,
    "ced": 2645,
    "umb": 2646,
    "Ġbox": 2647,
    "ommend": 2648,
    "Ġtunnel": 2649,
    "ason": 2650,
    "Ġbeyond": 2651,
    "riends": 2652,
    "Ġshown": 2653,
    "Ġk": 2654,
    "ĠGranny": 2655,
    "Ġmeas": 2656,
    "Ġingred": 2657,
    "Ġpuppy": 2658,
    "Ġcollection": 2659,
    "ĠBlink": 2660,
    "ĠRara": 2661,
    "±": 2662,
    "Ġmagnets": 2663,
    "Ġhimself": 2664,
    "Ġpain": 2665,
    "ula": 2666,
    "ĠDavid": 2667,
    "Ġsecurity": 2668,
    "Ġpinching": 2669,
    "Want": 2670,
    "Ġwell": 2671,
    "Ġburned": 2672,
    "Ġj": 2673,
    "acked": 2674,
    "ĠKiki": 2675,
    "Ġrem": 2676,
    "Ġce": 2677,
    "Ġnoisy": 2678,
    "Ġowls": 2679,
    "Back": 2680,
    "ĠRita": 2681,
    "Ġrisks": 2682,
    "Ġloses": 2683,
    "Ġstones": 2684,
    "place": 2685,
    "Ġcampfire": 2686,
    "Ġshow": 2687,
    "Ġfascin": 2688,
    "elp": 2689,
    "ĠKay": 2690,
    "Ġgener": 2691,
    "Ġgigg": 2692,
    "Ġtortoise": 2693,
    "Ġstrength": 2694,
    "Ġparties": 2695,
    "Ġagain": 2696,
    "Ġreading": 2697,
    "Ġwhat": 2698,
    "av": 2699,
    "Ġwinner": 2700,
    "Ġage": 2701,
    "Her": 2702,
    "ract": 2703,
    "ĠOr": 2704,
    "ĠMatt": 2705,
    "Ġthree": 2706,
    "Ġlanding": 2707,
    "apa": 2708,
    "Susie": 2709,
    "Ġlaughter": 2710,
    "Ġtwist": 2711,
    "Ġsituations": 2712,
    "Ġapologised": 2713,
    "Mine": 2714,
    "Ġdad": 2715,
    "ourn": 2716,
    "Snow": 2717,
    "ĠFluffy": 2718,
    "Ġdisplayed": 2719,
    "Ġopportunity": 2720,
    "ĠFelix": 2721,
    "unk": 2722,
    "¿": 2723,
    "Ġgoats": 2724,
    "Ġgobbled": 2725,
    "ĠGiant": 2726,
    "¡": 2727,
    "Ġdock": 2728,
    "ĠSpe": 2729,
    "Ġscored": 2730,
    "Ġname": 2731,
    "ĠWonder": 2732,
    "Ġcoat": 2733,
    "Ġsweets": 2734,
    "Ġwrist": 2735,
    "Ġsoot": 2736,
    "Ġbrighter": 2737,
    "Ġsteak": 2738,
    "Ġevil": 2739,
    "Ġskies": 2740,
    "Ġdesign": 2741,
    "ĠWould": 2742,
    "Ġstored": 2743,
    "Ġolder": 2744,
    "Ġgems": 2745,
    "Ġsoil": 2746,
    "Ġgust": 2747,
    "rot": 2748,
    "den": 2749,
    "azor": 2750,
    "Ġneighbors": 2751,
    "Ġreindeer": 2752,
    "Ġconfused": 2753,
    "ream": 2754,
    "ost": 2755,
    "Ġstarted": 2756,
    "llipop": 2757,
    "ĠEach": 2758,
    "Ġrainy": 2759,
    "Ġyumm": 2760,
    "Ġsplashes": 2761,
    "Ġlar": 2762,
    "Ġmoms": 2763,
    "onnie": 2764,
    "Ġknown": 2765,
    "Ġwhimpered": 2766,
    "Ġcreature": 2767,
    "ĠTweetie": 2768,
    "Ġnavy": 2769,
    "ĠBobo": 2770,
    "Ġmin": 2771,
    "rance": 2772,
    "ĠGrump": 2773,
    "Ġsalad": 2774,
    "dy": 2775,
    "Ġfurther": 2776,
    "Ġsk": 2777,
    "ou": 2778,
    "Zoomy": 2779,
    "Ġpeanuts": 2780,
    "Ġche": 2781,
    "ĠRes": 2782,
    "Ġcurtain": 2783,
    "Ġdaisy": 2784,
    "Ġcomfortable": 2785,
    "Ñ": 2786,
    "Ġunderst": 2787,
    "Max": 2788,
    "ntil": 2789,
    "Ġthrows": 2790,
    "Ġblame": 2791,
    "Ġwear": 2792,
    "Ġsingle": 2793,
    "cles": 2794,
    "Ġcastles": 2795,
    "igi": 2796,
    "Ġloo": 2797,
    "Ġyourselves": 2798,
    "Vroom": 2799,
    "Ġdiscussed": 2800,
    "wards": 2801,
    "Č": 2802,
    "Ġslipped": 2803,
    "Ġthrill": 2804,
    "ĠUnfortunately": 2805,
    "Ġhallway": 2806,
    "Ġunicorn": 2807,
    "Ġknots": 2808,
    "ing": 2809,
    "Ġseven": 2810,
    "Ġsounded": 2811,
    "hic": 2812,
    "Ġrob": 2813,
    "Ġforgiving": 2814,
    "Ġbond": 2815,
    "ĠOh": 2816,
    "Eww": 2817,
    "rum": 2818,
    "Ġrowed": 2819,
    "Ġphoto": 2820,
    "Ġsang": 2821,
    "ĠStay": 2822,
    "Ġfacing": 2823,
    "shine": 2824,
    "Ġbelonged": 2825,
    "ump": 2826,
    "In": 2827,
    "lace": 2828,
    "Excuse": 2829,
    "Ġtip": 2830,
    "Ġget": 2831,
    "Ġgiraffe": 2832,
    "Ġfireman": 2833,
    "wk": 2834,
    "Ġhorses": 2835,
    "Baby": 2836,
    "Ġurged": 2837,
    "Ġshoe": 2838,
    "ĠSadie": 2839,
    "Ġexcitement": 2840,
    "ĠIron": 2841,
    "Ġsto": 2842,
    "Ġphotos": 2843,
    "Ġbackyard": 2844,
    "ĠMr": 2845,
    "Ġvegetables": 2846,
    "Ġones": 2847,
    "rel": 2848,
    "Ġspong": 2849,
    "ĠMandy": 2850,
    "itted": 2851,
    "Ġrains": 2852,
    "Ġsmoke": 2853,
    "Our": 2854,
    "Ġform": 2855,
    "Ġtable": 2856,
    "Ġexploration": 2857,
    "ache": 2858,
    "Ġdidn": 2859,
    "Ġearn": 2860,
    "Ġlaws": 2861,
    "Amy": 2862,
    "Ġnovel": 2863,
    "Ġcame": 2864,
    "Ġchips": 2865,
    "ĠMaybe": 2866,
    "ĠSamantha": 2867,
    "Ġturned": 2868,
    "Ġamong": 2869,
    "Ġgraceful": 2870,
    "Ġlifting": 2871,
    "Ġleg": 2872,
    "Alright": 2873,
    "Ġproblem": 2874,
    "Ġpersistent": 2875,
    "Those": 2876,
    "Ġsinging": 2877,
    "Ġtrigger": 2878,
    "Ġhumming": 2879,
    "Ġma": 2880,
    "ĠAmanda": 2881,
    "Ġopening": 2882,
    "Ġcops": 2883,
    "Ġreliable": 2884,
    "ĠGilly": 2885,
    "Ġsymbol": 2886,
    "Ġoffer": 2887,
    "Ġbathing": 2888,
    "Ġtired": 2889,
    "Ġsticking": 2890,
    "aut": 2891,
    "Ġcarpet": 2892,
    "'ll": 2893,
    "Ġherb": 2894,
    "Ġgear": 2895,
    "Ġguessing": 2896,
    "Ġwiggly": 2897,
    "ĠBen": 2898,
    "Ġjourn": 2899,
    "Ġbaseball": 2900,
    "tt": 2901,
    "Ġreverse": 2902,
    "ĠOxygen": 2903,
    "Ġattack": 2904,
    "Ġflashes": 2905,
    "Ġcontainer": 2906,
    "Ġscore": 2907,
    "Ġswimsuit": 2908,
    "aturday": 2909,
    "Ġwhispering": 2910,
    "Yummy": 2911,
    "Ġslimy": 2912,
    "Ġwouldn": 2913,
    "Ġseek": 2914,
    "Ġmajest": 2915,
    "ĠZigzag": 2916,
    "Ġlent": 2917,
    "Ġsize": 2918,
    "Ġramp": 2919,
    "Boys": 2920,
    "ĠRoar": 2921,
    "Ġoutdo": 2922,
    "Ġclo": 2923,
    "ĠBubb": 2924,
    "Ġate": 2925,
    "!": 2926,
    "Ġawake": 2927,
    "Benny": 2928,
    "Ġnervously": 2929,
    "Ġsweet": 2930,
    "Ġchop": 2931,
    "Ġsneak": 2932,
    "ĠHis": 2933,
    "ition": 2934,
    "Ġlaund": 2935,
    "d": 2936,
    "Ġpres": 2937,
    "Ġpoints": 2938,
    "ĠHi": 2939,
    "Ġn": 2940,
    "°": 2941,
    "Ġfeed": 2942,
    "Ġlocks": 2943,
    "Ġjunk": 2944,
    "hero": 2945,
    "ĠEarth": 2946,
    "Ġem": 2947,
    "Ġsetting": 2948,
    "Ġburrow": 2949,
    "Ġrepeats": 2950,
    "ssss": 2951,
    "Ġspooky": 2952,
    "ĠMint": 2953,
    "Does": 2954,
    "Ġtries": 2955,
    "Ġmaterials": 2956,
    "ĠIm": 2957,
    "Ġnibbled": 2958,
    "Ġattach": 2959,
    "sc": 2960,
    "Ġgardens": 2961,
    "Ġsnow": 2962,
    "ĠWhere": 2963,
    "il": 2964,
    "Ġyummiest": 2965,
    "/": 2966,
    "oppy": 2967,
    "Ġtriang": 2968,
    "ĠFo": 2969,
    "ation": 2970,
    "}": 2971,
    "Ġyelled": 2972,
    "Ġleast": 2973,
    "Ġlighter": 2974,
    "usia": 2975,
    "Ġgiggle": 2976,
    "parent": 2977,
    "Adam": 2978,
    "Ġhorri": 2979,
    "Ġwaved": 2980,
    "Ġmes": 2981,
    "eddy": 2982,
    "Ġtears": 2983,
    "ĠJack": 2984,
    "Buzzy": 2985,
    "aby": 2986,
    "ents": 2987,
    "rage": 2988,
    "atie": 2989,
    "Ġflash": 2990,
    "Ġac": 2991,
    "Ġg": 2992,
    "Ġcoats": 2993,
    "Ġsymbols": 2994,
    "Ġsne": 2995,
    "Ġscrambled": 2996,
    "Ġunfortunately": 2997,
    "Ġswimsuits": 2998,
    "Ok": 2999,
    "Ġdirty": 3000,
    "ĠBob": 3001,
    "Ġam": 3002,
    "Ġignor": 3003,
    "Ġmiller": 3004,
    "ĠTara": 3005,
    "Spike": 3006,
    "Ġhead": 3007,
    "ose": 3008,
    "Ġcelebrate": 3009,
    "ĠWhoever": 3010,
    "oug": 3011,
    "Ġother": 3012,
    "Ġcoin": 3013,
    "Ġbuses": 3014,
    "Ġelephants": 3015,
    "Ġglittered": 3016,
    "Ġgrown": 3017,
    "Ġshining": 3018,
    "ĠLenny": 3019,
    "Hold": 3020,
    "thank": 3021,
    "abelle": 3022,
    "Tara": 3023,
    "ĠPl": 3024,
    "ĠWhile": 3025,
    "ering": 3026,
    "ĠSettle": 3027,
    "Ġsometime": 3028,
    "Ġwall": 3029,
    "Ġcalls": 3030,
    "ĠBally": 3031,
    "bol": 3032,
    "Ġtwig": 3033,
    "Ġroars": 3034,
    "Ġmoved": 3035,
    "Ġinvitations": 3036,
    "other": 3037,
    "Ġargum": 3038,
    "Ú": 3039,
    "ĠJoan": 3040,
    "Ġplan": 3041,
    "Ġforever": 3042,
    "ĠHalloween": 3043,
    "art": 3044,
    "ground": 3045,
    "Ġrushing": 3046,
    "Ġraindr": 3047,
    "Ġcryst": 3048,
    "Ġbrushing": 3049,
    "vy": 3050,
    "mel": 3051,
    "Ġhammer": 3052,
    "ĠTerry": 3053,
    "Ġtugging": 3054,
    "Ġcolorful": 3055,
    "ĠJax": 3056,
    "Ġsnowball": 3057,
    "Ġkayak": 3058,
    "own": 3059,
    "body": 3060,
    "Ġdoing": 3061,
    "aura": 3062,
    "Ġwiser": 3063,
    "Ġshooting": 3064,
    "Ġchallenge": 3065,
    "Ġmoments": 3066,
    "ĠLu": 3067,
    "Ġattaching": 3068,
    "Ġresponsible": 3069,
    "hi": 3070,
    "Ġrespected": 3071,
    "Ġaut": 3072,
    "Ġgrandson": 3073,
    "Ġhappens": 3074,
    "Ġfur": 3075,
    "Ġgooey": 3076,
    "ped": 3077,
    "ishes": 3078,
    "ĠMomma": 3079,
    "ă": 3080,
    "Ġpalms": 3081,
    "Ġfashion": 3082,
    "Ġease": 3083,
    "Ġhandle": 3084,
    "Ġfolding": 3085,
    "Ġneedle": 3086,
    "Ġlend": 3087,
    "Ġcomm": 3088,
    "Ġstings": 3089,
    "Ġelbow": 3090,
    "Ġgasped": 3091,
    "ë": 3092,
    "aper": 3093,
    "Ġstor": 3094,
    "anes": 3095,
    "Ġleaf": 3096,
    "Ġlimp": 3097,
    "Ġchew": 3098,
    "Ġmyself": 3099,
    "Ġreflection": 3100,
    "Ġaccept": 3101,
    "Ġtossing": 3102,
    "Ġinvest": 3103,
    "irts": 3104,
    "Ġspreading": 3105,
    "Ġkinds": 3106,
    "Ĝ": 3107,
    "itched": 3108,
    "ĠBro": 3109,
    "Ġsupported": 3110,
    "Ġfirmly": 3111,
    "Ġgrip": 3112,
    "Ġawe": 3113,
    "Ġweren": 3114,
    "Ġcop": 3115,
    "Ġnew": 3116,
    "Ġmenu": 3117,
    "zie": 3118,
    "ĠGreen": 3119,
    "Ġsneezes": 3120,
    "Ġtall": 3121,
    "Ġtool": 3122,
    "Ġindeed": 3123,
    "ĠThe": 3124,
    "Ġsmell": 3125,
    "chool": 3126,
    "Ġspread": 3127,
    "Ġvoices": 3128,
    "Ġgot": 3129,
    "ĠPot": 3130,
    "ĠShow": 3131,
    "Ġbru": 3132,
    "Ġknobs": 3133,
    "Ġwhoosh": 3134,
    "ocer": 3135,
    "unny": 3136,
    "mates": 3137,
    "Ġstick": 3138,
    "fted": 3139,
    "Ġindependent": 3140,
    "Ġtwirled": 3141,
    "andra": 3142,
    "ĠJul": 3143,
    "Ġsandcastle": 3144,
    "mine": 3145,
    "Ġcarp": 3146,
    "ony": 3147,
    "Ġcouch": 3148,
    "ĠClara": 3149,
    "Ġbends": 3150,
    "Ġawoke": 3151,
    "Ġgroups": 3152,
    "eah": 3153,
    "Ġaffect": 3154,
    "Ġhoped": 3155,
    "Ġenthusia": 3156,
    "ĠLinda": 3157,
    "ĠKaty": 3158,
    "Ġpeanut": 3159,
    "Ġcr": 3160,
    "Ġcracker": 3161,
    "ĠI": 3162,
    "ael": 3163,
    "Ġsnapped": 3164,
    "V": 3165,
    "Ġleop": 3166,
    "Ġreminds": 3167,
    "rest": 3168,
    "Ġdollar": 3169,
    "ĠApp": 3170,
    "Ġscores": 3171,
    "ck": 3172,
    "Ġdug": 3173,
    "ĠFriends": 3174,
    "Ġlonely": 3175,
    "ĠTommy": 3176,
    "Ġceiling": 3177,
    "Ġdip": 3178,
    "Ġanymore": 3179,
    "Ġreturned": 3180,
    "Ġearth": 3181,
    "Ġfighting": 3182,
    "Ġotherwise": 3183,
    "Ġeagerly": 3184,
    "Ġdots": 3185,
    "Ġfrogs": 3186,
    "Ġhopes": 3187,
    "Sam": 3188,
    "Į": 3189,
    "Ġdiscovery": 3190,
    "Ġdarlings": 3191,
    "Ġships": 3192,
    "Ġmicroscope": 3193,
    "retch": 3194,
    "Ġand": 3195,
    "Ġwhales": 3196,
    "Ġgasp": 3197,
    "vest": 3198,
    "ĠScissors": 3199,
    "Splash": 3200,
    "Ġlizards": 3201,
    "ĠChirpy": 3202,
    "Ġminer": 3203,
    "Ġbow": 3204,
    "Ġbothering": 3205,
    "Ġtape": 3206,
    "Ġimaginary": 3207,
    "ĠTim": 3208,
    "Ġtemp": 3209,
    "Ġendings": 3210,
    "ĠEric": 3211,
    "ĠWhee": 3212,
    "Ġinvite": 3213,
    "cu": 3214,
    "ĠDodo": 3215,
    "Ġbaking": 3216,
    "Ġchar": 3217,
    "ĠMore": 3218,
    "Ġwink": 3219,
    "Ġleaning": 3220,
    "Ġspid": 3221,
    "Ġscarf": 3222,
    "Ġcompletely": 3223,
    "Ġunlo": 3224,
    "Á": 3225,
    "Ġcalmer": 3226,
    "Ġmar": 3227,
    "ĠBubbles": 3228,
    "ĠJoe": 3229,
    "Ġcounting": 3230,
    "ween": 3231,
    "Ġshovel": 3232,
    "ĠPolly": 3233,
    "Ġgranted": 3234,
    "Ġothers": 3235,
    "Ġrolled": 3236,
    "sing": 3237,
    "ĠNothing": 3238,
    "Ġreached": 3239,
    "Ġspaceship": 3240,
    "Ġnet": 3241,
    "Che": 3242,
    "Ġwand": 3243,
    "Ġscarves": 3244,
    "Ġfrozen": 3245,
    "Ġclassroom": 3246,
    "ĠUn": 3247,
    "outh": 3248,
    "cidents": 3249,
    "aped": 3250,
    "Ġencouraging": 3251,
    "Ġnoises": 3252,
    "Ġown": 3253,
    "iny": 3254,
    "ĠPoppy": 3255,
    "Û": 3256,
    "and": 3257,
    "Ġpine": 3258,
    "mble": 3259,
    "unday": 3260,
    "Ġof": 3261,
    "ĠVelvet": 3262,
    "esome": 3263,
    "ĠFlutter": 3264,
    "leep": 3265,
    "Ġtoaster": 3266,
    "Ġconfident": 3267,
    "Ġc": 3268,
    "Ġtiny": 3269,
    "ĠMin": 3270,
    "Ġav": 3271,
    "Ġrespect": 3272,
    "ĠMouse": 3273,
    "Ġjungle": 3274,
    "Ġday": 3275,
    "Ġpopcorn": 3276,
    "inny": 3277,
    "Ġshortcut": 3278,
    "Ġrepaired": 3279,
    "Ġunusual": 3280,
    "Ġmate": 3281,
    "Ġfier": 3282,
    "ore": 3283,
    "Jazz": 3284,
    "Ġshoots": 3285,
    "Ġinsist": 3286,
    "Ġsailor": 3287,
    "Ġcomes": 3288,
    "Ġsleepy": 3289,
    "Ġgoals": 3290,
    "Ġinvisible": 3291,
    "Ġglittering": 3292,
    "Ġpeeks": 3293,
    "Cat": 3294,
    "Ġspices": 3295,
    "¼": 3296,
    "Take": 3297,
    "Ġmatched": 3298,
    "ĠNe": 3299,
    "Which": 3300,
    "Ġwounds": 3301,
    "Ġinstruments": 3302,
    "Ġreminder": 3303,
    "Ġtreats": 3304,
    "\",": 3305,
    "Ġpockets": 3306,
    "Ġhad": 3307,
    "imb": 3308,
    "ĠCatty": 3309,
    "Ġsnowflakes": 3310,
    "lter": 3311,
    "Ġbumpy": 3312,
    "Ġourselves": 3313,
    "hett": 3314,
    "Ġshock": 3315,
    "Ġpeeked": 3316,
    "Ġgain": 3317,
    "Ġbunnies": 3318,
    "ibbles": 3319,
    "Ġru": 3320,
    "Ġslithered": 3321,
    "Maddy": 3322,
    "Ġfab": 3323,
    "ĠPippa": 3324,
    "Ġpictures": 3325,
    "Ġpeppers": 3326,
    "Ġpennies": 3327,
    "Ġstrange": 3328,
    "achel": 3329,
    "ĠOnce": 3330,
    "el": 3331,
    "fort": 3332,
    "Ġslowly": 3333,
    "Ġsmall": 3334,
    "Ġhuge": 3335,
    "Ġruler": 3336,
    "iggles": 3337,
    "Ġmonths": 3338,
    "Ġinc": 3339,
    "Ġdistant": 3340,
    "Ġmassages": 3341,
    "Ġtant": 3342,
    "ans": 3343,
    "Ġentrance": 3344,
    "ħ": 3345,
    "ĠNever": 3346,
    "Ġdull": 3347,
    "Ġstr": 3348,
    "ĠSpark": 3349,
    "Ġsadly": 3350,
    "Ġchef": 3351,
    "Ġunpacking": 3352,
    "Ġmyster": 3353,
    "Ġcuddled": 3354,
    "Ġminds": 3355,
    "Ġkeyhole": 3356,
    "Ġstriking": 3357,
    "arlings": 3358,
    "Ġsque": 3359,
    "Ġzoo": 3360,
    "Ġwearing": 3361,
    "ut": 3362,
    "Ġpus": 3363,
    "Ġreaches": 3364,
    "Ġconcentr": 3365,
    "Ġrot": 3366,
    "Ġrece": 3367,
    "Ġbad": 3368,
    "Ġsa": 3369,
    "Ġsitu": 3370,
    "Ġalley": 3371,
    "eterin": 3372,
    "Ġperched": 3373,
    "ĠAr": 3374,
    "Ġflew": 3375,
    "ious": 3376,
    "Ġjo": 3377,
    "ophone": 3378,
    "Ġdump": 3379,
    "Ġsets": 3380,
    "ident": 3381,
    "Ġsneaked": 3382,
    "Ġinf": 3383,
    "&": 3384,
    "ĠLaura": 3385,
    "Ġshare": 3386,
    "Ġlaughing": 3387,
    "ĠAndrew": 3388,
    "ĠTweet": 3389,
    "Ġdads": 3390,
    "Ġedges": 3391,
    "Ġspoke": 3392,
    "Ġsacks": 3393,
    "rod": 3394,
    "Rain": 3395,
    "gly": 3396,
    "Ġbridges": 3397,
    "Ġloaded": 3398,
    "Ġalso": 3399,
    "5": 3400,
    "Ġke": 3401,
    "Ġpen": 3402,
    "Ġcuddle": 3403,
    "Ġjourney": 3404,
    "Ġbeside": 3405,
    "ĠMolly": 3406,
    "Ġashamed": 3407,
    "Ġdistance": 3408,
    "Ġpleaded": 3409,
    "Ġvalued": 3410,
    "Ġburying": 3411,
    "Ġbubbles": 3412,
    "es": 3413,
    "Ġcuddly": 3414,
    "ĠCome": 3415,
    "ongratul": 3416,
    "Lucky": 3417,
    "Ġwrapped": 3418,
    "weet": 3419,
    "Ġholds": 3420,
    "Ġdeser": 3421,
    "Ġflown": 3422,
    "ay": 3423,
    "Ġpunish": 3424,
    "Ġnur": 3425,
    "Ġpopsic": 3426,
    "Ġrefres": 3427,
    "Ġseemed": 3428,
    "ĠMax": 3429,
    "Ġbake": 3430,
    "stand": 3431,
    "Ġexample": 3432,
    "Ġfuzzy": 3433,
    "eropl": 3434,
    "unnies": 3435,
    "Ġcostume": 3436,
    "Ġbutterflies": 3437,
    "Ġbigger": 3438,
    "Ġtasting": 3439,
    "oming": 3440,
    ",\"": 3441,
    "ash": 3442,
    "Ġpant": 3443,
    "Ġmed": 3444,
    "scar": 3445,
    "Ġingredients": 3446,
    "xt": 3447,
    "Ġweak": 3448,
    "Ġclos": 3449,
    "Ġgranddaughter": 3450,
    "Ġadd": 3451,
    "?âĢĿ": 3452,
    "Ġbrakes": 3453,
    "Ġimag": 3454,
    "Ġenjoy": 3455,
    "Ġworm": 3456,
    "Ġtask": 3457,
    "Ġexperien": 3458,
    "sey": 3459,
    "ĠJumpy": 3460,
    "using": 3461,
    "Ġneighbourhood": 3462,
    "ĠDan": 3463,
    "ĠSkelly": 3464,
    "ophie": 3465,
    "Ġeach": 3466,
    "Ġmomma": 3467,
    "ingly": 3468,
    "urnit": 3469,
    "Ġout": 3470,
    "ĠWhen": 3471,
    "Ġuncle": 3472,
    "Ġpots": 3473,
    "igger": 3474,
    "Ġskirts": 3475,
    "ally": 3476,
    "Danny": 3477,
    "Ġlid": 3478,
    "Ġtearing": 3479,
    "Ted": 3480,
    "Ġneatly": 3481,
    "Ġtalked": 3482,
    "ĠMy": 3483,
    "Ġread": 3484,
    "ĠKatie": 3485,
    "resses": 3486,
    "ivity": 3487,
    "Ġchocolates": 3488,
    "oga": 3489,
    "Dan": 3490,
    "omeday": 3491,
    "Ġhalves": 3492,
    "Ġcoloring": 3493,
    "amiliar": 3494,
    "Ġank": 3495,
    "Ġwatch": 3496,
    "ĠWhy": 3497,
    "Ġspeed": 3498,
    "Ġlighting": 3499,
    "ups": 3500,
    "ĠFe": 3501,
    "Ġweeds": 3502,
    "Ġvan": 3503,
    "Ġhopping": 3504,
    "Ġcomplete": 3505,
    "Ġstorms": 3506,
    "Ġcreativity": 3507,
    "Ġsomet": 3508,
    "Ġtrans": 3509,
    "ume": 3510,
    "Ġexam": 3511,
    "Ġenthusiasm": 3512,
    "Ġletting": 3513,
    "Ġbutter": 3514,
    "Ġcool": 3515,
    "one": 3516,
    "Ġtemple": 3517,
    "Ava": 3518,
    "Ġflips": 3519,
    "Ġtreehouse": 3520,
    "urry": 3521,
    "Ġfilling": 3522,
    "Ġexercise": 3523,
    "Ribbit": 3524,
    "Ġgardener": 3525,
    "lcano": 3526,
    "ĠRay": 3527,
    "Ġhops": 3528,
    "Ġshrink": 3529,
    "Ġshopping": 3530,
    "Ġty": 3531,
    "ĠGr": 3532,
    "Ġzip": 3533,
    "Ġleap": 3534,
    "Ġluckily": 3535,
    "ĠFlicker": 3536,
    "arn": 3537,
    "iskers": 3538,
    "Ġrace": 3539,
    "pit": 3540,
    "Ġarranged": 3541,
    "Ġleans": 3542,
    "Ġrocks": 3543,
    "ĠPenelope": 3544,
    "Ġangry": 3545,
    "Ġcheered": 3546,
    "Ġdeal": 3547,
    ",âĢĿ": 3548,
    "Ġheel": 3549,
    "ĠDe": 3550,
    "Ġbending": 3551,
    "ĠAlice": 3552,
    "able": 3553,
    "ree": 3554,
    "Ġjoyfully": 3555,
    "Grandpa": 3556,
    "Ġrope": 3557,
    "Ġbusy": 3558,
    "Ġjokes": 3559,
    "uffy": 3560,
    "olly": 3561,
    "Ġinteresting": 3562,
    "Ġpatch": 3563,
    "Fl": 3564,
    "Ġinvestig": 3565,
    "iday": 3566,
    "izzy": 3567,
    "Ġknights": 3568,
    "Ġdecided": 3569,
    "Ġwhenever": 3570,
    "vered": 3571,
    "Ġstitches": 3572,
    "Ġseeds": 3573,
    "usie": 3574,
    "Ġtoug": 3575,
    "ĠWant": 3576,
    "Ġcalling": 3577,
    "Ġoccas": 3578,
    "Ġcons": 3579,
    "Ĳ": 3580,
    "enry": 3581,
    "Ġbarked": 3582,
    "Ġcam": 3583,
    "Ġtwinkled": 3584,
    "Ġnoise": 3585,
    "Ġare": 3586,
    "She": 3587,
    "Ġdropping": 3588,
    "Ġpuddles": 3589,
    "Ġdrums": 3590,
    "Ġstudied": 3591,
    "Ġsell": 3592,
    "Ġvehic": 3593,
    "Ġornament": 3594,
    "ĠThank": 3595,
    "Ġjellyfish": 3596,
    "vering": 3597,
    "ĠCats": 3598,
    "¢": 3599,
    "Ġburger": 3600,
    "Ġyaw": 3601,
    "Ġdollhouse": 3602,
    "Ġonce": 3603,
    "Ġrecipe": 3604,
    "Ġhow": 3605,
    "Ġp": 3606,
    "Ġrod": 3607,
    "fish": 3608,
    "Ġred": 3609,
    "âĢľ": 3610,
    "Ġparents": 3611,
    "ī": 3612,
    "Ġocean": 3613,
    "Ġey": 3614,
    "ĠDo": 3615,
    "osaur": 3616,
    "repe": 3617,
    "Ġprepare": 3618,
    "llie": 3619,
    "$": 3620,
    "Ġpool": 3621,
    "ebra": 3622,
    "Ġsecond": 3623,
    "ĠAnt": 3624,
    "Ġentire": 3625,
    "Ġpriv": 3626,
    "Three": 3627,
    "Ġmole": 3628,
    "ĠMia": 3629,
    "Ġmo": 3630,
    "umble": 3631,
    "Ġsafety": 3632,
    "ĠIn": 3633,
    "ĠBecky": 3634,
    "Ġ10": 3635,
    "Ġmelted": 3636,
    "Ġtalents": 3637,
    "Ġhats": 3638,
    "ĠYes": 3639,
    "Ġattractive": 3640,
    "Ġgrandma": 3641,
    "ĠMark": 3642,
    "Ġhanger": 3643,
    "Ġnatur": 3644,
    "Ġcamp": 3645,
    "Ġadventures": 3646,
    "Ġdictionary": 3647,
    "ĠJoke": 3648,
    "Ġhiding": 3649,
    "Ġord": 3650,
    "ĠRose": 3651,
    "Ġhands": 3652,
    "ĠSimon": 3653,
    "Ġtells": 3654,
    "Ġvillag": 3655,
    "Ġfit": 3656,
    "Ġfarthest": 3657,
    "Ġcaut": 3658,
    "Ġfantastic": 3659,
    "rac": 3660,
    "Ġfut": 3661,
    "Ġsiren": 3662,
    "Ġactiv": 3663,
    "ertain": 3664,
    "Ġcomplain": 3665,
    "Frank": 3666,
    "ching": 3667,
    "Ġelectric": 3668,
    "ho": 3669,
    "Ġsmiled": 3670,
    "ored": 3671,
    "ĠBet": 3672,
    "ĠMikey": 3673,
    "Ġhomework": 3674,
    "Ġsco": 3675,
    "Ġgets": 3676,
    "Ġtrees": 3677,
    "Today": 3678,
    "bl": 3679,
    "Ġnowhere": 3680,
    "umes": 3681,
    "ĠSm": 3682,
    "la": 3683,
    "Ġdelight": 3684,
    "ĠBiggy": 3685,
    "Ġmatches": 3686,
    "my": 3687,
    "Ġsniffs": 3688,
    "Ġsweat": 3689,
    "Ġsaving": 3690,
    "Ġrobots": 3691,
    "Ġlog": 3692,
    "Ġadorable": 3693,
    "rough": 3694,
    "ĸ": 3695,
    "Ġscrewdriver": 3696,
    "Ġstool": 3697,
    "Ġapplause": 3698,
    "Ġbarking": 3699,
    "Ġpieces": 3700,
    "Ġtriangle": 3701,
    "Ġblown": 3702,
    "Ġclosed": 3703,
    "sy": 3704,
    "Ġcrawled": 3705,
    "Ô": 3706,
    "Ġanywhere": 3707,
    "Ġdisagreed": 3708,
    "ĠLuc": 3709,
    "Ġfooled": 3710,
    "Ġstole": 3711,
    "Ġcamping": 3712,
    "Ġkindly": 3713,
    "Ġgave": 3714,
    "Ġexplo": 3715,
    "Ġpear": 3716,
    "Ġhadn": 3717,
    "ĠâĢĺ": 3718,
    "Ġpigeon": 3719,
    "rup": 3720,
    "Ġfireflies": 3721,
    "Ġcolored": 3722,
    "Ġill": 3723,
    "Ġapplauded": 3724,
    "Ġmicrophone": 3725,
    "Ġdrop": 3726,
    "Ġresponsibility": 3727,
    "Ġvest": 3728,
    "Ġfallen": 3729,
    "Ġsuddenly": 3730,
    "Ġexact": 3731,
    "sol": 3732,
    "Ġumbrellas": 3733,
    "Ġowner": 3734,
    "Ġbl": 3735,
    "Ġtype": 3736,
    "Ġhabit": 3737,
    "Ġ1": 3738,
    "Ġobject": 3739,
    "!\"": 3740,
    "astic": 3741,
    "Ġpatches": 3742,
    "omes": 3743,
    "Ġlung": 3744,
    "Ġwater": 3745,
    "Ġbee": 3746,
    "Ġsubway": 3747,
    "Wow": 3748,
    "cus": 3749,
    "Ġcoins": 3750,
    "Ġproperly": 3751,
    "Ġmats": 3752,
    "Ġsheep": 3753,
    "hood": 3754,
    "Ġconcer": 3755,
    "Ġmushroom": 3756,
    "Momma": 3757,
    "Ġpink": 3758,
    "Ġchefs": 3759,
    "ĠLizzie": 3760,
    "ĠBoun": 3761,
    "ived": 3762,
    "Ġstuffing": 3763,
    "Ġprince": 3764,
    "Ġraced": 3765,
    "Ġbuilders": 3766,
    "Ġaccidentally": 3767,
    "Ġmom": 3768,
    "Ġri": 3769,
    "Ġbefore": 3770,
    "Ġostriches": 3771,
    "Ġcongratulated": 3772,
    "Ġlaugh": 3773,
    "Ġcow": 3774,
    "Ġmention": 3775,
    "ĠDina": 3776,
    "oys": 3777,
    "Ġquilt": 3778,
    "Ġsuns": 3779,
    "Achoo": 3780,
    "Ġqueen": 3781,
    "Ġshade": 3782,
    "Ġdessert": 3783,
    "Ġdisappeared": 3784,
    "Ġlip": 3785,
    "Ġcrowns": 3786,
    "Ġbenches": 3787,
    "Ġghosts": 3788,
    "Ġaw": 3789,
    "Ġmusic": 3790,
    "Ġsees": 3791,
    "ile": 3792,
    "elery": 3793,
    "Ġglued": 3794,
    "Ġfisherman": 3795,
    "Ġdrifted": 3796,
    "ĠHave": 3797,
    "Ġsweep": 3798,
    "Ġvi": 3799,
    "ĠZoey": 3800,
    "Ġbare": 3801,
    "Ġbaker": 3802,
    "owed": 3803,
    "zag": 3804,
    "Ġlessons": 3805,
    "Ġgame": 3806,
    "fore": 3807,
    "oosh": 3808,
    "Ġpounds": 3809,
    "ĠOxy": 3810,
    "Ġlarger": 3811,
    "Ġsnort": 3812,
    "Ġun": 3813,
    "our": 3814,
    "ĠWhiskers": 3815,
    "Ġtoo": 3816,
    "do": 3817,
    "n": 3818,
    "Ġjoking": 3819,
    "ĠSadly": 3820,
    "`": 3821,
    "Ġmedals": 3822,
    "ĠMary": 3823,
    "Ġending": 3824,
    "Ġsuffered": 3825,
    "Ġmuseum": 3826,
    "Ġalready": 3827,
    "Ġveil": 3828,
    "awn": 3829,
    "Out": 3830,
    "uke": 3831,
    "Ġyears": 3832,
    "armer": 3833,
    "Ġbouquet": 3834,
    "ange": 3835,
    "ĠHug": 3836,
    "ĠIts": 3837,
    "ĠJane": 3838,
    "Ġhappy": 3839,
    "web": 3840,
    "Ġenough": 3841,
    "fus": 3842,
    "ĠFind": 3843,
    "le": 3844,
    "con": 3845,
    "man": 3846,
    "ama": 3847,
    "Ġraking": 3848,
    "Ġsquealed": 3849,
    "Ġthese": 3850,
    "ĠLouise": 3851,
    "ized": 3852,
    "Ġaside": 3853,
    "Ġcomputers": 3854,
    "Ġpat": 3855,
    "ĠToto": 3856,
    "Ġrefused": 3857,
    "Jerry": 3858,
    "Ġbubb": 3859,
    "Ġbricks": 3860,
    "Ġunderstanding": 3861,
    "Ġarr": 3862,
    "Ġunp": 3863,
    "Ġelevator": 3864,
    "Ġspraying": 3865,
    "Ġperformance": 3866,
    "Ġwheels": 3867,
    "Ġballoon": 3868,
    "Ġslippery": 3869,
    "hog": 3870,
    "angaroo": 3871,
    "Ġbookshe": 3872,
    "Maya": 3873,
    "ĠHo": 3874,
    "Ġwait": 3875,
    "Ġhair": 3876,
    "ial": 3877,
    "Ġtrusts": 3878,
    "sw": 3879,
    "Ġflashing": 3880,
    "Ġplanting": 3881,
    "gest": 3882,
    "ĠCandy": 3883,
    "Ġsniff": 3884,
    "Ġtractor": 3885,
    "Ġhits": 3886,
    "Ġhide": 3887,
    "Ġsearched": 3888,
    "Ġarm": 3889,
    "Ġfinal": 3890,
    "omas": 3891,
    "ĠDin": 3892,
    "Ġhe": 3893,
    "Ġpiles": 3894,
    "ĠâĢ": 3895,
    "Ġdesperately": 3896,
    "seek": 3897,
    "Ġsolve": 3898,
    "Ġwrigg": 3899,
    "Ġnapped": 3900,
    "hes": 3901,
    "ĵ": 3902,
    "Ġlarge": 3903,
    "Ġlast": 3904,
    "Ġsalon": 3905,
    "Ġrhin": 3906,
    "ĠBessie": 3907,
    "ĠAlly": 3908,
    "lier": 3909,
    "Ġcomfort": 3910,
    "Ġwhite": 3911,
    "ĠRazor": 3912,
    "reci": 3913,
    "bbles": 3914,
    "omp": 3915,
    "guess": 3916,
    "ĠShare": 3917,
    "Ġwith": 3918,
    "ĠNow": 3919,
    "Ġrough": 3920,
    "Ġcongratul": 3921,
    "ĠTooth": 3922,
    "Ġcont": 3923,
    "Ġwobbly": 3924,
    "ĠOur": 3925,
    "Ġfilled": 3926,
    "Ġsweetie": 3927,
    "Ġminded": 3928,
    "Ġdumb": 3929,
    "Ġlaw": 3930,
    "ib": 3931,
    "etchup": 3932,
    "Ġthinking": 3933,
    "Ġsneaks": 3934,
    "¶": 3935,
    "Ġgrumpy": 3936,
    "Ġmarched": 3937,
    "ence": 3938,
    "Ġpicture": 3939,
    "Ġsupporting": 3940,
    "Ġdist": 3941,
    "Ġcleaning": 3942,
    "Ġmatt": 3943,
    "iam": 3944,
    "ect": 3945,
    "Ġtickle": 3946,
    "Ġflavor": 3947,
    "Ġwarning": 3948,
    "Ġcertainly": 3949,
    "Ġeager": 3950,
    "anny": 3951,
    "Ę": 3952,
    "Ġgreeted": 3953,
    "cket": 3954,
    "Ġdiamonds": 3955,
    "Ġtore": 3956,
    "Ġsports": 3957,
    "esterday": 3958,
    "ashed": 3959,
    "Ġgrew": 3960,
    "ike": 3961,
    "Ġturtle": 3962,
    "Ġoldest": 3963,
    "ebook": 3964,
    "Ġcherry": 3965,
    "Ġshave": 3966,
    "Ġreturn": 3967,
    "Ġwidened": 3968,
    "Ġmodels": 3969,
    "Ġpositive": 3970,
    "Ġtoast": 3971,
    "Ġechoed": 3972,
    "Ġodd": 3973,
    "Ġpalace": 3974,
    "Ġdoesn": 3975,
    "munk": 3976,
    "Ġlosing": 3977,
    "âĢ": 3978,
    "Would": 3979,
    "Ġcaused": 3980,
    "!'": 3981,
    "Ġguarding": 3982,
    "Ġroad": 3983,
    "loo": 3984,
    "Ġheld": 3985,
    "Ġshake": 3986,
    "Ġswoop": 3987,
    "Ġcrashing": 3988,
    "Ġheal": 3989,
    "endant": 3990,
    "Ġuses": 3991,
    "ĠJenny": 3992,
    "ĠDino": 3993,
    "Ġblonde": 3994,
    "Ġworry": 3995,
    "Ġcottage": 3996,
    "Ġdrowned": 3997,
    "ĠZog": 3998,
    "Ġsave": 3999,
    "ous": 4000,
    "ĠPoor": 4001,
    "Ġrubbed": 4002,
    "ĠFrosty": 4003,
    "Ġplates": 4004,
    "Ġdog": 4005,
    "icing": 4006,
    "Ġbud": 4007,
    "Ġprep": 4008,
    "Ġterri": 4009,
    "Ġpiano": 4010,
    "Ġinfant": 4011,
    "Ġcandy": 4012,
    "lls": 4013,
    "anta": 4014,
    "Ġclot": 4015,
    "ichael": 4016,
    "Ġble": 4017,
    "Ġ4": 4018,
    "Ġl": 4019,
    "What": 4020,
    "irit": 4021,
    "ĠStartled": 4022,
    "Ġtrapped": 4023,
    "Ġshowed": 4024,
    "Ġastronaut": 4025,
    "ĠĊ": 4026,
    "Ġamazing": 4027,
    "Ġolive": 4028,
    "Ġcrumbs": 4029,
    "ĭ": 4030,
    "For": 4031,
    "Ġdrawn": 4032,
    "Ġwon": 4033,
    "Ġmicrow": 4034,
    "king": 4035,
    "Ġscissors": 4036,
    "Ġoyster": 4037,
    "emember": 4038,
    "Ġsnack": 4039,
    "Ġconversation": 4040,
    "Like": 4041,
    "ã": 4042,
    "ĠBa": 4043,
    "Ġsoak": 4044,
    "Ġchoosing": 4045,
    "Ġleopard": 4046,
    "Ġarmchair": 4047,
    "Ġmanager": 4048,
    "Ġmailbox": 4049,
    "Ġaim": 4050,
    "Ġwind": 4051,
    "Ġmule": 4052,
    "ĠCut": 4053,
    "ĠRobby": 4054,
    "Ġwee": 4055,
    "Ġgest": 4056,
    "Ġpic": 4057,
    "Ġh": 4058,
    "Ġthanks": 4059,
    "Ġlock": 4060,
    "Ġbathed": 4061,
    "Climb": 4062,
    "Ġeating": 4063,
    "Ġball": 4064,
    "any": 4065,
    "Ġharm": 4066,
    "Ġconflict": 4067,
    "Ġyach": 4068,
    "Ġsnap": 4069,
    "Ù": 4070,
    "day": 4071,
    "Ġinch": 4072,
    "Ġwhoever": 4073,
    "ĠSundays": 4074,
    "Ġunderground": 4075,
    "ĠFlopsy": 4076,
    "Ġblueberries": 4077,
    "ĠSay": 4078,
    "irm": 4079,
    "Ġmark": 4080,
    "Ġpolish": 4081,
    "Ġbuzz": 4082,
    "Ġspirit": 4083,
    "Ġwardrobe": 4084,
    "Ġsi": 4085,
    "ĠAnn": 4086,
    "Ġmiddle": 4087,
    "Ġletters": 4088,
    "hest": 4089,
    "Ġcrushed": 4090,
    "vous": 4091,
    "Ġallowing": 4092,
    "Ġplayers": 4093,
    "Ġpudd": 4094,
    "ur": 4095,
    "Ġfearful": 4096,
    "Ġfloor": 4097,
    "Thanks": 4098,
    "Ġlied": 4099,
    "Ġwoodcut": 4100,
    "Ġvalue": 4101,
    "Ġbubbling": 4102,
    "Ġbottle": 4103,
    "Betty": 4104,
    "air": 4105,
    "ana": 4106,
    "Eventually": 4107,
    "Ġfing": 4108,
    "Ġdirection": 4109,
    "Ġcharac": 4110,
    "Ġbath": 4111,
    "Ġsett": 4112,
    "ĠRocky": 4113,
    "Honey": 4114,
    "'ve": 4115,
    "byes": 4116,
    "ĠSnowy": 4117,
    "Ġsays": 4118,
    "ĠStill": 4119,
    "ĠFlo": 4120,
    "Ray": 4121,
    "less": 4122,
    "Ġacted": 4123,
    "Claire": 4124,
    "Ġdoor": 4125,
    "Ġsped": 4126,
    "Ġclap": 4127,
    "Ġservant": 4128,
    "Ġbrings": 4129,
    "Ġbring": 4130,
    "ot": 4131,
    "med": 4132,
    "Ġpeace": 4133,
    "Ġsewing": 4134,
    "Ġpassenger": 4135,
    "Leave": 4136,
    "Ġspark": 4137,
    "Ġtempt": 4138,
    "Ġscratch": 4139,
    "othy": 4140,
    "ĠPinchy": 4141,
    "iable": 4142,
    "Ġleft": 4143,
    "Ġjoked": 4144,
    "Ġbaskets": 4145,
    "Ġo": 4146,
    "de": 4147,
    "Ġtricks": 4148,
    "irrel": 4149,
    "irt": 4150,
    "6": 4151,
    "act": 4152,
    "Ġspoiled": 4153,
    "Okay": 4154,
    "Ġcobwebs": 4155,
    "Ġahead": 4156,
    "Ġesc": 4157,
    "Ġspin": 4158,
    ".'\"": 4159,
    "Ġflea": 4160,
    "ĠApril": 4161,
    "Ġchalk": 4162,
    "Ġcastle": 4163,
    "Ġhorns": 4164,
    "if": 4165,
    "ctop": 4166,
    "Ġexpression": 4167,
    "ĠOne": 4168,
    "Ġrel": 4169,
    "Ġstumble": 4170,
    "Ġscratching": 4171,
    "Ġicing": 4172,
    "Ġdisob": 4173,
    "Ġplaying": 4174,
    "ĠTuesday": 4175,
    "Ġinvestigate": 4176,
    "igzag": 4177,
    "Ġrealize": 4178,
    "free": 4179,
    "Ġfog": 4180,
    "idy": 4181,
    "Ġachie": 4182,
    "ance": 4183,
    "Ġreply": 4184,
    "brush": 4185,
    "Ġcubs": 4186,
    "ips": 4187,
    "Ġyield": 4188,
    "Ġbag": 4189,
    "Ġweap": 4190,
    "Ġbandages": 4191,
    "ĠPuffy": 4192,
    "ĠFrom": 4193,
    "Ġmiles": 4194,
    "ulf": 4195,
    "Ġsaying": 4196,
    "Ġprevented": 4197,
    "yal": 4198,
    "Ġbroccoli": 4199,
    "Ġvery": 4200,
    "Ġoverjoyed": 4201,
    "Ġcotton": 4202,
    "ĠNina": 4203,
    "ĠIsn": 4204,
    "ĠJacky": 4205,
    "ense": 4206,
    "Ġstrokes": 4207,
    "Ġrip": 4208,
    "Ġattem": 4209,
    "Ġbull": 4210,
    "ĠMay": 4211,
    "Ġtake": 4212,
    "ĠPepper": 4213,
    "of": 4214,
    "Ġtomato": 4215,
    "cess": 4216,
    "Ġel": 4217,
    "Ġquarreled": 4218,
    "ĠTo": 4219,
    "Ġswimming": 4220,
    "¸": 4221,
    "ĠElle": 4222,
    "arry": 4223,
    "Ġpizza": 4224,
    "iant": 4225,
    "Get": 4226,
    "Ġimprove": 4227,
    "Ġearthquake": 4228,
    "Ġmos": 4229,
    "ĠCare": 4230,
    "dom": 4231,
    "Ġexchange": 4232,
    "Ġhold": 4233,
    "Ġshort": 4234,
    "Ġshowing": 4235,
    "Ġuntil": 4236,
    "Alice": 4237,
    "men": 4238,
    "Ġimpossible": 4239,
    "Ġmade": 4240,
    "ube": 4241,
    "Ġstroke": 4242,
    "ĠHow": 4243,
    "Ġfarmers": 4244,
    "Ġmunch": 4245,
    "Ġtwo": 4246,
    "acob": 4247,
    "Ġslapping": 4248,
    "Ġbugs": 4249,
    "Ġartist": 4250,
    "Ġjud": 4251,
    "Ġpowder": 4252,
    "Ġsandbox": 4253,
    "Ġtre": 4254,
    "Ġtipped": 4255,
    "Ġfaces": 4256,
    "Ġmost": 4257,
    "ingo": 4258,
    "Tommy": 4259,
    "Ġeasier": 4260,
    "Ġrushed": 4261,
    "Mike": 4262,
    "Ġready": 4263,
    "Ġswims": 4264,
    "Ġbuzzing": 4265,
    "issa": 4266,
    "ey": 4267,
    "Ġbeetle": 4268,
    "dded": 4269,
    "ß": 4270,
    "§": 4271,
    "Ġdeeply": 4272,
    "Õ": 4273,
    "Ġer": 4274,
    "st": 4275,
    "Ġbeat": 4276,
    "Ġhist": 4277,
    "ecture": 4278,
    "Ġbattle": 4279,
    "Ġhurt": 4280,
    "Ġcactus": 4281,
    "Ġfool": 4282,
    "Ġalright": 4283,
    "ĠBrownie": 4284,
    "steps": 4285,
    "Mum": 4286,
    "Ġbless": 4287,
    "ĠWil": 4288,
    "Ġgaze": 4289,
    "anged": 4290,
    "Finny": 4291,
    "í": 4292,
    "Ġrun": 4293,
    "Ahoy": 4294,
    "Ġraven": 4295,
    "H": 4296,
    "Ġinstrument": 4297,
    "sorry": 4298,
    "Ġswamp": 4299,
    "Ġframe": 4300,
    "ó": 4301,
    "ĠEliza": 4302,
    "gen": 4303,
    "Ġprinted": 4304,
    "Ġcollapsed": 4305,
    "Ġsmashed": 4306,
    "ould": 4307,
    "Ġcover": 4308,
    "Ġincluding": 4309,
    "Ġpupp": 4310,
    "ĠCar": 4311,
    "Ġdanc": 4312,
    "Ġfocused": 4313,
    "Ġrestore": 4314,
    "Ġquietly": 4315,
    "Ġlead": 4316,
    "Ġbelts": 4317,
    "ª": 4318,
    "Ġwound": 4319,
    "ĠSmo": 4320,
    "urse": 4321,
    "Ġcaps": 4322,
    "Ġcomets": 4323,
    "ites": 4324,
    "Ġdiffere": 4325,
    "Ġrails": 4326,
    "rr": 4327,
    "Ġcrew": 4328,
    "ially": 4329,
    "Ġeven": 4330,
    "Ġtreat": 4331,
    "Inside": 4332,
    "Ġmeasuring": 4333,
    "ĠRuth": 4334,
    "Give": 4335,
    "Ġvanished": 4336,
    "ipop": 4337,
    "Ġju": 4338,
    "Ġwet": 4339,
    "Thomas": 4340,
    "Ġdisplay": 4341,
    "Ġhugged": 4342,
    "Ġlong": 4343,
    "Ġminding": 4344,
    "Ġgifted": 4345,
    "Ġbeautiful": 4346,
    "Ġchases": 4347,
    "Ġrecorder": 4348,
    "Ġinsect": 4349,
    "Ġsuggest": 4350,
    "Ġstubborn": 4351,
    "ĠBy": 4352,
    "boo": 4353,
    "Ġrealizes": 4354,
    "Only": 4355,
    "Ġcaught": 4356,
    "ushes": 4357,
    "Ġnail": 4358,
    "iness": 4359,
    "Ġscreaming": 4360,
    "Ġpoured": 4361,
    "Ġjet": 4362,
    "Ġerase": 4363,
    "Ġbeauty": 4364,
    "Ġcompass": 4365,
    "Ġdisappoin": 4366,
    "Ġdragged": 4367,
    "ĠHippy": 4368,
    "Ġlater": 4369,
    "Ġhappened": 4370,
    "Ġflowing": 4371,
    "gie": 4372,
    "ĠPe": 4373,
    "ination": 4374,
    "Ġpapa": 4375,
    "ĠElsa": 4376,
    "O": 4377,
    "Ġpuck": 4378,
    "Ġwinding": 4379,
    "Ġcalmly": 4380,
    "Bang": 4381,
    "Ġwhistling": 4382,
    "Kids": 4383,
    "Ġobeyed": 4384,
    "em": 4385,
    "Ġtra": 4386,
    "fived": 4387,
    "Ġfed": 4388,
    "Ġbicy": 4389,
    "Ġexplorer": 4390,
    "Ġfalls": 4391,
    "Ġtrusting": 4392,
    "Ġfinger": 4393,
    "Ġrobber": 4394,
    "James": 4395,
    "Mia": 4396,
    "Ġfence": 4397,
    "ĠHelp": 4398,
    "Ġsausage": 4399,
    "ĠEm": 4400,
    "ĠWo": 4401,
    "Ġloud": 4402,
    "Ġgarden": 4403,
    "Ġcorners": 4404,
    "hny": 4405,
    "ĠBilly": 4406,
    "Ġprotected": 4407,
    "ĠJosh": 4408,
    "Ġcreated": 4409,
    "althy": 4410,
    "mer": 4411,
    "str": 4412,
    "Ġincluded": 4413,
    ",'": 4414,
    "b": 4415,
    "Ġeag": 4416,
    "Ġgroaned": 4417,
    "ace": 4418,
    "Ġstitch": 4419,
    "Ġdelivering": 4420,
    "Ġtapping": 4421,
    "Ġmessy": 4422,
    "Ġwiping": 4423,
    "Ġattempt": 4424,
    "Ġreturning": 4425,
    "per": 4426,
    "Ġballoons": 4427,
    "ĠPig": 4428,
    "Ġfox": 4429,
    "Ġholding": 4430,
    "R": 4431,
    "Ġdeserved": 4432,
    "Ġargu": 4433,
    "Sc": 4434,
    "ice": 4435,
    "Ġhealed": 4436,
    "Ġund": 4437,
    "Ġtr": 4438,
    "ings": 4439,
    "Ġfolder": 4440,
    "ala": 4441,
    "ilo": 4442,
    "Ġchubby": 4443,
    "This": 4444,
    "Ġbought": 4445,
    "By": 4446,
    "Ġprizes": 4447,
    "unch": 4448,
    "Ġisn": 4449,
    "ences": 4450,
    "et": 4451,
    "good": 4452,
    "Ġjolly": 4453,
    "ĠZ": 4454,
    "ĠPeace": 4455,
    "ĠBobbie": 4456,
    "uck": 4457,
    "As": 4458,
    "Ġscurried": 4459,
    "Ġlate": 4460,
    "ĠAna": 4461,
    "Ġbirthday": 4462,
    "Ġagre": 4463,
    "Ġzoomed": 4464,
    "Ġpeach": 4465,
    "ines": 4466,
    "ĠSanta": 4467,
    "Ġthumb": 4468,
    "ad": 4469,
    "isa": 4470,
    "Ġtongues": 4471,
    "Ġgrow": 4472,
    "Ġtalented": 4473,
    "Ġyounger": 4474,
    "Ġbaths": 4475,
    "ro": 4476,
    "alm": 4477,
    "Ġblast": 4478,
    "Ġtripped": 4479,
    "der": 4480,
    "Ġschool": 4481,
    "Ġshadow": 4482,
    "ĠNavy": 4483,
    "Ġwinners": 4484,
    "ĠAnother": 4485,
    "Ġwizard": 4486,
    "Ġplants": 4487,
    "Ġaf": 4488,
    "Ġjuicy": 4489,
    "Ġple": 4490,
    "ĠBow": 4491,
    "Ġrespond": 4492,
    "Ġturning": 4493,
    "Ġwatermelon": 4494,
    "ĠFreddy": 4495,
    "ĠJess": 4496,
    "Ġdestroying": 4497,
    "Ġmud": 4498,
    "Ġtax": 4499,
    "the": 4500,
    "Ġpepperoni": 4501,
    "ty": 4502,
    "ĠAfter": 4503,
    "Ġunus": 4504,
    "ured": 4505,
    "ia": 4506,
    "Ġbuckled": 4507,
    "Ġear": 4508,
    "ĠAunt": 4509,
    "Ġleader": 4510,
    "artled": 4511,
    "asy": 4512,
    "Ġlamb": 4513,
    "ĠMole": 4514,
    "ies": 4515,
    "Ġgratitude": 4516,
    "Ch": 4517,
    "J": 4518,
    "Ġactor": 4519,
    "Ġdrum": 4520,
    "Ġdire": 4521,
    "Ġyes": 4522,
    "Ġhitting": 4523,
    "ĠBirthday": 4524,
    "Ġteapot": 4525,
    "Ġherself": 4526,
    "Ġuntangle": 4527,
    "Ġscampered": 4528,
    "ĠMa": 4529,
    "Ġgrandpa": 4530,
    "Ġsoftened": 4531,
    "Ġpaw": 4532,
    "Ġcounter": 4533,
    "Ġtops": 4534,
    "edic": 4535,
    "Ġbrain": 4536,
    "Ġparks": 4537,
    "Ġlic": 4538,
    "Ġthump": 4539,
    "udged": 4540,
    "ill": 4541,
    "urch": 4542,
    "Ġapples": 4543,
    "ened": 4544,
    "Ġmachine": 4545,
    "Ġpout": 4546,
    "asmine": 4547,
    "Ġtowel": 4548,
    "Ġgently": 4549,
    "Ġwrapping": 4550,
    "ones": 4551,
    "ask": 4552,
    "ops": 4553,
    "Can": 4554,
    "Ġpost": 4555,
    "Ġhesitated": 4556,
    "Ġcells": 4557,
    "Ġspeeding": 4558,
    "ĠCars": 4559,
    "Ġdisag": 4560,
    "Ġcurl": 4561,
    "Ġnuzzled": 4562,
    "Ġcla": 4563,
    "Ġbreathing": 4564,
    "ĠVivi": 4565,
    "ĠDoes": 4566,
    "ch": 4567,
    "Ġvegetable": 4568,
    "Ġsuperhero": 4569,
    "Ġgazed": 4570,
    "Ġdisagreeing": 4571,
    "Ġsign": 4572,
    "ĠToys": 4573,
    "Ġover": 4574,
    "ond": 4575,
    "Ġmagazine": 4576,
    "Ġpurp": 4577,
    "ken": 4578,
    "ulif": 4579,
    "Ġtar": 4580,
    "Ġsoaked": 4581,
    "ien": 4582,
    "eration": 4583,
    "G": 4584,
    "ĠJudy": 4585,
    "acy": 4586,
    "Ġfalling": 4587,
    "Ġdifference": 4588,
    "Ġha": 4589,
    "ort": 4590,
    "ĠRobbie": 4591,
    "Ġforgiveness": 4592,
    "Ġhides": 4593,
    "isible": 4594,
    "Ġthis": 4595,
    "Ġconvers": 4596,
    "Ġyells": 4597,
    "Ġfly": 4598,
    "Ġsatisfied": 4599,
    "Ġfamous": 4600,
    "Ġswings": 4601,
    "Ġtemperature": 4602,
    "ados": 4603,
    "Ġremembered": 4604,
    "irth": 4605,
    "olin": 4606,
    "Ġappreci": 4607,
    "ac": 4608,
    "lease": 4609,
    "Ġchores": 4610,
    "uggage": 4611,
    "rom": 4612,
    "Look": 4613,
    "Ġgather": 4614,
    "Ġpages": 4615,
    "Ġco": 4616,
    "Ġoy": 4617,
    "Ġsever": 4618,
    "bee": 4619,
    "Sara": 4620,
    "Ġdisobey": 4621,
    "araway": 4622,
    "m": 4623,
    "ĠD": 4624,
    "Ġner": 4625,
    "ĠListen": 4626,
    "ĠCharlie": 4627,
    "icate": 4628,
    "Ġwarm": 4629,
    "Ġshrank": 4630,
    "Gra": 4631,
    "Ġmirac": 4632,
    "ĠSing": 4633,
    "Ġfrown": 4634,
    "Ġerasers": 4635,
    "Ġmorning": 4636,
    "Ġmetal": 4637,
    "ester": 4638,
    "ĠLee": 4639,
    "ö": 4640,
    "Ġsuccess": 4641,
    "Bobby": 4642,
    "ĠW": 4643,
    "Th": 4644,
    "Ġclock": 4645,
    "Ġdeclared": 4646,
    "nger": 4647,
    "ĠSomething": 4648,
    "ĠJoy": 4649,
    "Ġripp": 4650,
    "¤": 4651,
    "Ġpatient": 4652,
    "Ġdest": 4653,
    "ĠCharlotte": 4654,
    "nn": 4655,
    "iolet": 4656,
    "upt": 4657,
    "time": 4658,
    "ng": 4659,
    "cakes": 4660,
    "ĠPrin": 4661,
    "Ġhairy": 4662,
    "Ġscooped": 4663,
    "Ġrealizing": 4664,
    "Ġhowever": 4665,
    "Ġslim": 4666,
    "Ġminute": 4667,
    "On": 4668,
    "elieve": 4669,
    "Ġgrandfather": 4670,
    "Ġwasted": 4671,
    "ĠChrist": 4672,
    "ĠTw": 4673,
    "Ġpenguins": 4674,
    "Ġjail": 4675,
    "Millie": 4676,
    "Ġmanage": 4677,
    "Sammy": 4678,
    "shmallow": 4679,
    "Ġca": 4680,
    "Ġsym": 4681,
    "Ġdecorations": 4682,
    "Ġchess": 4683,
    "Ġwiz": 4684,
    "Ġfright": 4685,
    "Ġavocado": 4686,
    "ĠBibi": 4687,
    "Ġdestroy": 4688,
    "Stay": 4689,
    "Ġtriangles": 4690,
    "ĠEl": 4691,
    "pe": 4692,
    "Ġbuckets": 4693,
    "»": 4694,
    "Ġmarker": 4695,
    "Ġrabbit": 4696,
    "Or": 4697,
    "Ġmoat": 4698,
    "Ġdrawer": 4699,
    "ili": 4700,
    "Ġtoward": 4701,
    "Ġcash": 4702,
    "ĠChloe": 4703,
    "Ġtaxi": 4704,
    "Ġears": 4705,
    "Ġrainbow": 4706,
    "Ġcloser": 4707,
    "ince": 4708,
    "andas": 4709,
    "orth": 4710,
    "ĠKn": 4711,
    "ĠEnjoy": 4712,
    "Ġbleed": 4713,
    "Ġloyalty": 4714,
    "Ġquar": 4715,
    "Ġstory": 4716,
    "aded": 4717,
    "ĠSugar": 4718,
    "Ġpens": 4719,
    "ich": 4720,
    "Ġworth": 4721,
    "ĠViolet": 4722,
    "Ġisland": 4723,
    "Ġstare": 4724,
    "Ġbloomed": 4725,
    "After": 4726,
    "ulp": 4727,
    "With": 4728,
    "ound": 4729,
    "ĠDoggy": 4730,
    "Ġscru": 4731,
    "oey": 4732,
    "ĠHopper": 4733,
    "Ġchatted": 4734,
    "lowers": 4735,
    "Ġrout": 4736,
    "Ġwaded": 4737,
    "ĠTry": 4738,
    "Ġnice": 4739,
    "Ġjudges": 4740,
    "Ġcat": 4741,
    "Ġkilled": 4742,
    "Ġkids": 4743,
    "ĠTri": 4744,
    "Ġlaid": 4745,
    "Ġshadows": 4746,
    "Ġblows": 4747,
    "ĠAmber": 4748,
    "Ġpepper": 4749,
    "Ġrecognize": 4750,
    "bird": 4751,
    "Ġhappily": 4752,
    "no": 4753,
    "Ġsquee": 4754,
    "Ex": 4755,
    "Ġscene": 4756,
    "ĠAt": 4757,
    "Ġfleas": 4758,
    "Ġinclu": 4759,
    "Ġcautious": 4760,
    "Ġrivers": 4761,
    "Ġplant": 4762,
    "ily": 4763,
    "Ġtimes": 4764,
    "Ä": 4765,
    "Î": 4766,
    "Ġangrier": 4767,
    "asket": 4768,
    "Ġtear": 4769,
    "Ġmarvel": 4770,
    "ending": 4771,
    "Ġfirefight": 4772,
    "S": 4773,
    "Z": 4774,
    "<": 4775,
    "Ġdepend": 4776,
    "Ġhears": 4777,
    "Ġtoolbox": 4778,
    "fly": 4779,
    "Ġdolphin": 4780,
    "Ġcooks": 4781,
    "Ġseeking": 4782,
    "Ġlava": 4783,
    "Ġdesks": 4784,
    "ĠPandy": 4785,
    "Ġstruggled": 4786,
    "Ġwarmth": 4787,
    "Ġsomeday": 4788,
    "Ġcushion": 4789,
    "hello": 4790,
    "Ġblood": 4791,
    "Ġowners": 4792,
    "Ġtires": 4793,
    "Ġinclude": 4794,
    "Ġ3": 4795,
    "Ġhay": 4796,
    "Ġunderneath": 4797,
    "Ġsilent": 4798,
    "Ġaboard": 4799,
    "ĠRusty": 4800,
    "Ġpouted": 4801,
    "Ġborn": 4802,
    "Ġfind": 4803,
    "Ġpastry": 4804,
    "Ġprobably": 4805,
    "Ġthu": 4806,
    "erc": 4807,
    "Ġanyone": 4808,
    "Ġfill": 4809,
    "sm": 4810,
    "Ġcountryside": 4811,
    "chen": 4812,
    "Ġmotorcycles": 4813,
    "Ġcircle": 4814,
    "Ġblowing": 4815,
    "Ġpour": 4816,
    "Find": 4817,
    "Hey": 4818,
    "Ġstethoscope": 4819,
    "ĠSparkle": 4820,
    "Ġkisses": 4821,
    "Ġfet": 4822,
    "Ġwriter": 4823,
    "Ġbe": 4824,
    "Ġtubes": 4825,
    "Ġsticks": 4826,
    "ĠTippy": 4827,
    "riend": 4828,
    "stri": 4829,
    "Ġcheer": 4830,
    "ĠY": 4831,
    "Ġsnuggled": 4832,
    "Ġlunchtime": 4833,
    "Jenny": 4834,
    "Ġais": 4835,
    "Ġv": 4836,
    "Ġind": 4837,
    "Ġstrawberry": 4838,
    "Ġshaking": 4839,
    "Ġs": 4840,
    "urricane": 4841,
    "Ġfought": 4842,
    "boards": 4843,
    "Ġwise": 4844,
    "Ġmoonlight": 4845,
    "Ġfroze": 4846,
    "Ġunhappy": 4847,
    "Ġaction": 4848,
    "Ġguit": 4849,
    "Ġpleased": 4850,
    "Ġburgers": 4851,
    "Ġsocks": 4852,
    "Ġwelcoming": 4853,
    "Ġprepared": 4854,
    "Ġflaps": 4855,
    "Ġtom": 4856,
    "Ġwrapper": 4857,
    "Ġquest": 4858,
    "ido": 4859,
    "ĠSparky": 4860,
    "First": 4861,
    "oh": 4862,
    "ppies": 4863,
    "Ġloading": 4864,
    "Ġteam": 4865,
    "Ġalmost": 4866,
    "ĠZippy": 4867,
    "Ġhig": 4868,
    "Ġsmiley": 4869,
    "Ġdough": 4870,
    "Ġgenie": 4871,
    "Ġboun": 4872,
    "Ġspun": 4873,
    "Ġtapped": 4874,
    "iggie": 4875,
    "Ġresponsib": 4876,
    "Ġrebu": 4877,
    "Ġunf": 4878,
    "Ġnapkin": 4879,
    "Ġafford": 4880,
    "pt": 4881,
    "Ġnuts": 4882,
    "Ġbehavior": 4883,
    "val": 4884,
    "Ġcheerful": 4885,
    "Ġstartled": 4886,
    "Ġsternly": 4887,
    "ĠHannah": 4888,
    "Ġcan": 4889,
    "iled": 4890,
    "Ġspoonful": 4891,
    "cky": 4892,
    "Ġdollars": 4893,
    "Ġfaith": 4894,
    "Ġstreamers": 4895,
    "Ġhesitant": 4896,
    "Ġwaffle": 4897,
    "Ġinstantly": 4898,
    "Ġcatch": 4899,
    "Ġfor": 4900,
    "ĠRun": 4901,
    "Ġeat": 4902,
    "Ġthank": 4903,
    "Ġgor": 4904,
    "Ġcompan": 4905,
    "Ġclowns": 4906,
    "Ġreally": 4907,
    "ĠMilly": 4908,
    "agull": 4909,
    "ĠStella": 4910,
    "Ġprovide": 4911,
    "ster": 4912,
    "Ġstream": 4913,
    "ĠOutside": 4914,
    "Ġmirr": 4915,
    "Ġpo": 4916,
    "ĠAny": 4917,
    "Ġpot": 4918,
    "ĠLily": 4919,
    "rat": 4920,
    "ĠPinch": 4921,
    "ı": 4922,
    "ĠWith": 4923,
    "ĠMae": 4924,
    "Ġmelts": 4925,
    "Lizzie": 4926,
    "Ġbrave": 4927,
    "Ġgoing": 4928,
    "Ġjewel": 4929,
    "Ġwhile": 4930,
    "solutely": 4931,
    "ĠBarky": 4932,
    "Jess": 4933,
    "Later": 4934,
    "İ": 4935,
    "cc": 4936,
    "ddie": 4937,
    "bble": 4938,
    "Ġtraps": 4939,
    "Ġreplaced": 4940,
    "Ġbats": 4941,
    "ving": 4942,
    "ĠTime": 4943,
    "Ġmeows": 4944,
    "Ġplugged": 4945,
    "Ġoften": 4946,
    "Ġtrash": 4947,
    "Ġdrank": 4948,
    "Ġtasks": 4949,
    "=": 4950,
    "Ġwants": 4951,
    "elia": 4952,
    "ĠDoctor": 4953,
    "Ġotters": 4954,
    "Ġdelayed": 4955,
    "ĠBub": 4956,
    "Ġmix": 4957,
    "Ouch": 4958,
    "Ġneare": 4959,
    "ĠFriend": 4960,
    "Ġnest": 4961,
    "Ġcapt": 4962,
    "Ġhon": 4963,
    "Ġsu": 4964,
    "Ġbanan": 4965,
    "He": 4966,
    "Ġsparks": 4967,
    "ĠBetty": 4968,
    "Ġcrawling": 4969,
    "ank": 4970,
    "All": 4971,
    "Ġdiamond": 4972,
    "Ġnotebook": 4973,
    "mas": 4974,
    "Ġcowboy": 4975,
    "etty": 4976,
    "Ġtroubles": 4977,
    "oot": 4978,
    "Ġyou": 4979,
    "Ġchickens": 4980,
    "Ġraked": 4981,
    "Ġsugar": 4982,
    "mbers": 4983,
    "Suzie": 4984,
    "ogo": 4985,
    "rill": 4986,
    "Su": 4987,
    "Ġthermometer": 4988,
    "x": 4989,
    "Ġsupposed": 4990,
    "ĠKeep": 4991,
    "Ġcalm": 4992,
    "athy": 4993,
    "Ġfive": 4994,
    "ĠDeal": 4995,
    "Ġunfair": 4996,
    "aptain": 4997,
    "Ġrul": 4998,
    "ĠAnnabelle": 4999,
    "Ġcopy": 5000,
    "ĠBird": 5001,
    "Ġtried": 5002,
    "Ġsurv": 5003,
    "Ġstealing": 5004,
    "Ġfi": 5005,
    "Ġlight": 5006,
    "Ġpill": 5007,
    "Squ": 5008,
    "ĠFlop": 5009,
    "Ġshapes": 5010,
    "Ġslept": 5011,
    "Ġproudly": 5012,
    "Ġpoppies": 5013,
    "Ġboys": 5014,
    "elt": 5015,
    "Ġflutter": 5016,
    "Ġpressing": 5017,
    "cident": 5018,
    "Ġfirework": 5019,
    "Ġadds": 5020,
    "Ġmistakes": 5021,
    "itten": 5022,
    "Ġgold": 5023,
    "Ġbeet": 5024,
    "ĠF": 5025,
    "Ġbre": 5026,
    "Ġdeserve": 5027,
    "Ġtiss": 5028,
    "Ġleaking": 5029,
    "Joe": 5030,
    "ĠPinky": 5031,
    "Ġwaking": 5032,
    "Ġtelescope": 5033,
    "Ġmarve": 5034,
    "nna": 5035,
    "Ġroutine": 5036,
    "Ġlines": 5037,
    "Ġmodel": 5038,
    "Ġsweater": 5039,
    "Ġcaring": 5040,
    "Ġunite": 5041,
    "Ġcast": 5042,
    "ifully": 5043,
    "Ġhood": 5044,
    "Ġsurfboard": 5045,
    "ĠLike": 5046,
    "Ġcourse": 5047,
    "Ġlapt": 5048,
    "Ġkites": 5049,
    "ĠSl": 5050,
    "ĠLaw": 5051,
    "Ġavoc": 5052,
    "\\": 5053,
    "Ġcharge": 5054,
    "ĠLiza": 5055,
    "Ġsor": 5056,
    "Ġfine": 5057,
    "Ġexamined": 5058,
    "Ġright": 5059,
    "Wh": 5060,
    "Emma": 5061,
    "Ò": 5062,
    "ĠChe": 5063,
    "Ġswirls": 5064,
    "Ġscra": 5065,
    "crow": 5066,
    "Ġenvelopes": 5067,
    "Bee": 5068,
    "Ġcry": 5069,
    "iel": 5070,
    "ĠTruck": 5071,
    "Ġwaters": 5072,
    "ven": 5073,
    "Put": 5074,
    "Ġle": 5075,
    "Ġelf": 5076,
    "Hurry": 5077,
    "Ġawesome": 5078,
    "ĠFuzzy": 5079,
    "oose": 5080,
    "Ġpotato": 5081,
    "ousy": 5082,
    "Ġabout": 5083,
    "ealing": 5084,
    "urrender": 5085,
    "lt": 5086,
    "abel": 5087,
    "chie": 5088,
    "Ġdropped": 5089,
    "Ġat": 5090,
    "Ġsock": 5091,
    "ĠTilly": 5092,
    "Ġarms": 5093,
    "Ġwalking": 5094,
    "eremy": 5095,
    "Ġdress": 5096,
    "Ġusually": 5097,
    "Ġpassengers": 5098,
    "Ollie": 5099,
    "ĠBaa": 5100,
    "ĠBr": 5101,
    "Ġshouts": 5102,
    "Ġnect": 5103,
    "ĠCoby": 5104,
    "Ġlanguage": 5105,
    "Ġpuff": 5106,
    "Ġsells": 5107,
    "Ġopp": 5108,
    "Ġnervous": 5109,
    "Share": 5110,
    "rily": 5111,
    "Ġquick": 5112,
    "Ġappreciation": 5113,
    "ý": 5114,
    "ept": 5115,
    "e": 5116,
    "Ġride": 5117,
    "Ġducks": 5118,
    "htray": 5119,
    "ĠKate": 5120,
    "Ġliked": 5121,
    "Ġhard": 5122,
    "Ġspilled": 5123,
    "Ġleading": 5124,
    "Kiki": 5125,
    "Ġmagazines": 5126,
    "Ġmindful": 5127,
    "ook": 5128,
    "bbers": 5129,
    "ĠJimmy": 5130,
    "Ġmommy": 5131,
    "Ġinv": 5132,
    "ĠLight": 5133,
    "ĠFlora": 5134,
    "Someone": 5135,
    "rin": 5136,
    "Ellie": 5137,
    "Ġwindow": 5138,
    "Ġshine": 5139,
    "Ġhelped": 5140,
    "Ġfavourite": 5141,
    "Ġbegged": 5142,
    "Ġchin": 5143,
    "Ġwaddled": 5144,
    "Ġspade": 5145,
    "Ġannoying": 5146,
    "Ġwelcomed": 5147,
    "ouched": 5148,
    "Br": 5149,
    "Ġfriendly": 5150,
    "ddy": 5151,
    "Ġany": 5152,
    "Ġsmelly": 5153,
    "Ġsirens": 5154,
    "Ġcl": 5155,
    "Ġmake": 5156,
    "Ġvideo": 5157,
    "Ġgasps": 5158,
    "Run": 5159,
    "Wiggly": 5160,
    "una": 5161,
    "ction": 5162,
    "Jan": 5163,
    "und": 5164,
    "Ġarrows": 5165,
    "aids": 5166,
    "Ġevent": 5167,
    "Ġgoodies": 5168,
    "Ġstring": 5169,
    "Ġthread": 5170,
    "te": 5171,
    "Ġbeam": 5172,
    "Ġjets": 5173,
    "Ġpian": 5174,
    "Behind": 5175,
    "Ġvacation": 5176,
    "Ġremind": 5177,
    "oral": 5178,
    "Ġfears": 5179,
    "Ġdeserves": 5180,
    "ĠThunder": 5181,
    "Ġsandcastles": 5182,
    "Ġparted": 5183,
    "Remy": 5184,
    "Ġspice": 5185,
    "ĠĠ": 5186,
    "Ġshopkeeper": 5187,
    "Ġstud": 5188,
    "ell": 5189,
    "chor": 5190,
    "Ġsleep": 5191,
    "Ġgrandparents": 5192,
    "Ġplayroom": 5193,
    "Ġpec": 5194,
    "Ġugly": 5195,
    "vel": 5196,
    "Ġload": 5197,
    "asure": 5198,
    "Ġsalty": 5199,
    "Snap": 5200,
    "attered": 5201,
    "vant": 5202,
    "Ġmug": 5203,
    "Ġpet": 5204,
    "ble": 5205,
    "ĠLulu": 5206,
    "Ġmemory": 5207,
    "Bluey": 5208,
    "t": 5209,
    "Ġsecrets": 5210,
    "Ġreversing": 5211,
    "Ros": 5212,
    "Ġamazed": 5213,
    "ĠChr": 5214,
    "iest": 5215,
    "Ġnose": 5216,
    "icorn": 5217,
    "{": 5218,
    "Ġpopping": 5219,
    "Ġoppos": 5220,
    "ĠAccidents": 5221,
    "Ġsplashed": 5222,
    "Ġmel": 5223,
    "Ġhugging": 5224,
    "Ġtouch": 5225,
    "Ġnext": 5226,
    "Ġsn": 5227,
    "cut": 5228,
    "Ġcho": 5229,
    "eter": 5230,
    "ĠSof": 5231,
    "Ġguesses": 5232,
    "Ġengine": 5233,
    "Ġintroduce": 5234,
    "Ġwarmed": 5235,
    "Ġsimply": 5236,
    "Ġbees": 5237,
    "Ġcane": 5238,
    "ggles": 5239,
    "Ġener": 5240,
    "đ": 5241,
    "Ġide": 5242,
    "ĠEverything": 5243,
    "ĠUntil": 5244,
    "Ġfollowed": 5245,
    "Ġblanket": 5246,
    "Ġcup": 5247,
    "Ġhesit": 5248,
    "Ġpromise": 5249,
    ":": 5250,
    "Ġfurniture": 5251,
    "Ġevening": 5252,
    "Ġbites": 5253,
    "oun": 5254,
    "fast": 5255,
    "ĠWh": 5256,
    "ĠMan": 5257,
    "id": 5258,
    "itter": 5259,
    "Co": 5260,
    "Ġsnapping": 5261,
    "Ġmonsters": 5262,
    "ĠSt": 5263,
    "Ġclerk": 5264,
    "Ġque": 5265,
    "Ġflags": 5266,
    "Ġdifferences": 5267,
    "Ġbiting": 5268,
    "that": 5269,
    "Ġignorant": 5270,
    "Ġchatting": 5271,
    "Ġlawy": 5272,
    "Ġass": 5273,
    "Joy": 5274,
    "Why": 5275,
    "Ġdownstairs": 5276,
    "mare": 5277,
    "ient": 5278,
    "Ġwool": 5279,
    "Ġmall": 5280,
    "Ġigloo": 5281,
    "Ġrang": 5282,
    "Ġexerc": 5283,
    "Ġdrown": 5284,
    "bye": 5285,
    "Ġhate": 5286,
    "ina": 5287,
    "Ġmaterial": 5288,
    "Ġspoon": 5289,
    "Ġmaps": 5290,
    "Ġthreat": 5291,
    "Ġfountain": 5292,
    "lor": 5293,
    "Ġtail": 5294,
    "atch": 5295,
    "Ġchewed": 5296,
    "oy": 5297,
    "ais": 5298,
    "Ġcarrot": 5299,
    "Ġhall": 5300,
    "Ġhairdress": 5301,
    "Ġsoaring": 5302,
    "Ġscurrying": 5303,
    "arrass": 5304,
    "ĠDid": 5305,
    "irthday": 5306,
    "Ġribbon": 5307,
    "Ġwide": 5308,
    "Ġsnowy": 5309,
    "Ġph": 5310,
    "Ġcorrect": 5311,
    "udd": 5312,
    "Ġmelon": 5313,
    "Ġspins": 5314,
    "Ġmum": 5315,
    "Ġspoons": 5316,
    "Ġhelmets": 5317,
    "Ġsandy": 5318,
    "Ġpurple": 5319,
    "Ġdear": 5320,
    "ĠM": 5321,
    "Ġfireplace": 5322,
    "over": 5323,
    "Ġminerals": 5324,
    "unnel": 5325,
    "Ġtrips": 5326,
    "Ġpir": 5327,
    "Ġgate": 5328,
    "ĠTom": 5329,
    "--": 5330,
    "why": 5331,
    "Ġwhen": 5332,
    "ooks": 5333,
    "Ġoh": 5334,
    "Ġmesses": 5335,
    "Mother": 5336,
    "Ġpicking": 5337,
    "Ġhangs": 5338,
    "Ġhole": 5339,
    "Ġlocked": 5340,
    "Ġstand": 5341,
    "Ġdance": 5342,
    "?\",": 5343,
    "Ġpleas": 5344,
    "Ġthoughtful": 5345,
    "Ġshut": 5346,
    "Ġlizard": 5347,
    "Ġwhatever": 5348,
    "oc": 5349,
    "Ġbush": 5350,
    "Ġlace": 5351,
    "Ġhappen": 5352,
    "ote": 5353,
    "Ġblooming": 5354,
    "Ġtruck": 5355,
    "Ġattention": 5356,
    "ĠRemy": 5357,
    "Ġchilly": 5358,
    "Ġspears": 5359,
    "ĠKelly": 5360,
    "û": 5361,
    "ĠJelly": 5362,
    "Ġself": 5363,
    "ĠTrucky": 5364,
    "Ġuntie": 5365,
    "Annie": 5366,
    "ucet": 5367,
    "Ġleaving": 5368,
    "Ł": 5369,
    "Ġancient": 5370,
    "ĠCally": 5371,
    "È": 5372,
    "Ġspace": 5373,
    "Ġlay": 5374,
    "Ġrecorded": 5375,
    "Ġswitch": 5376,
    "Fifi": 5377,
    "Ġgirl": 5378,
    "Ġshop": 5379,
    "Hoppy": 5380,
    "Ġespecially": 5381,
    "Ġshin": 5382,
    "Ġrinse": 5383,
    "Ġhonks": 5384,
    ">": 5385,
    "Me": 5386,
    "Just": 5387,
    "Ø": 5388,
    "aster": 5389,
    "end": 5390,
    "ù": 5391,
    "form": 5392,
    "Ġ''": 5393,
    "Ġactivity": 5394,
    "Ġthro": 5395,
    "Ġcartoon": 5396,
    "ĠB": 5397,
    "Ġsummer": 5398,
    "Ġhelper": 5399,
    "Suzy": 5400,
    "Ġpurpose": 5401,
    "Ġdrops": 5402,
    "Ġastron": 5403,
    "Ġvoice": 5404,
    "Ġdep": 5405,
    "Ġrods": 5406,
    "ĠFix": 5407,
    "Ġlips": 5408,
    "Ġbackpacks": 5409,
    "Ġdusty": 5410,
    "ĠSophie": 5411,
    "~": 5412,
    "Ġsandcast": 5413,
    "Ġbury": 5414,
    "Ġarrive": 5415,
    "vers": 5416,
    "ĠHurry": 5417,
    "Ġproud": 5418,
    "W": 5419,
    "Ġtickles": 5420,
    "Ġexha": 5421,
    "Ġcustomers": 5422,
    "Ġpeek": 5423,
    "Jack": 5424,
    "Ġcreatures": 5425,
    "Ġsnakes": 5426,
    "Ġroots": 5427,
    "ortunately": 5428,
    "sses": 5429,
    "everse": 5430,
    "Ġpiggy": 5431,
    "Ġplanes": 5432,
    "Ġborrowed": 5433,
    "Ġpeeped": 5434,
    "Ġwaterfall": 5435,
    "C": 5436,
    "Ġgloomy": 5437,
    "Ġexcite": 5438,
    "Ġcond": 5439,
    "Ġwip": 5440,
    "2": 5441,
    "ĠZipper": 5442,
    "Ġnames": 5443,
    "uddles": 5444,
    "oo": 5445,
    "Ġwre": 5446,
    "?'": 5447,
    "Ġimagine": 5448,
    "Ġnumbered": 5449,
    "Ġexploded": 5450,
    "ĠSunny": 5451,
    "Zip": 5452,
    "Ġdaddy": 5453,
    "ummies": 5454,
    "ragon": 5455,
    "Ġconc": 5456,
    "ĠLove": 5457,
    "Ġper": 5458,
    "Ġiron": 5459,
    "Ġtraveling": 5460,
    "ory": 5461,
    "oger": 5462,
    "ena": 5463,
    "Ġchuckled": 5464,
    "Ġmatch": 5465,
    "ĠO": 5466,
    "nies": 5467,
    "Ġwobbled": 5468,
    "Ġvillagers": 5469,
    "Ġwashes": 5470,
    "Mabel": 5471,
    "cream": 5472,
    "shaped": 5473,
    "Ġbooth": 5474,
    "iggly": 5475,
    "Ġyog": 5476,
    "Ġenergetic": 5477,
    "ĠFirst": 5478,
    "Ġfriend": 5479,
    "Ġupset": 5480,
    "Ġbreak": 5481,
    "Ġaisle": 5482,
    "oin": 5483,
    "ouse": 5484,
    "pect": 5485,
    "Ġencourage": 5486,
    "Some": 5487,
    "Lily": 5488,
    "Ġbehave": 5489,
    "Ġnoses": 5490,
    "Ġoat": 5491,
    "ĠJim": 5492,
    "low": 5493,
    "ĠZiggy": 5494,
    "Ġreass": 5495,
    "o": 5496,
    "Ġfits": 5497,
    "Ġcontinue": 5498,
    "Ġonto": 5499,
    "old": 5500,
    "Ġnotice": 5501,
    "Ġsmells": 5502,
    "Ġposes": 5503,
    "artin": 5504,
    "Ġdrift": 5505,
    "Ġeither": 5506,
    "Paul": 5507,
    "vet": 5508,
    "Ġguests": 5509,
    "ement": 5510,
    "Ġal": 5511,
    "Ġcause": 5512,
    "Ġthud": 5513,
    "Ġfixer": 5514,
    "Ġstorm": 5515,
    "Ġpeople": 5516,
    "lem": 5517,
    "Ġwhistle": 5518,
    "igg": 5519,
    "Ġdreamed": 5520,
    "Lia": 5521,
    "Ġflowers": 5522,
    "Ġwhisper": 5523,
    "ctions": 5524,
    "ize": 5525,
    "ĠIs": 5526,
    "Ġjoining": 5527,
    "ĠGeorge": 5528,
    "ĠMaddy": 5529,
    "Ġhandsome": 5530,
    "Ġwolf": 5531,
    "Ġknows": 5532,
    "Ġexercises": 5533,
    "Ġhesitation": 5534,
    "Ġlow": 5535,
    "Gina": 5536,
    "Ġmouth": 5537,
    "Ġlearns": 5538,
    "Ġdial": 5539,
    "Ġscattered": 5540,
    "Ġseems": 5541,
    "Ġdetails": 5542,
    "ser": 5543,
    "aring": 5544,
    "orse": 5545,
    "Ġenth": 5546,
    "Ġhearing": 5547,
    "Goodbye": 5548,
    "Ġteeth": 5549,
    "Ġlit": 5550,
    "Ġlecture": 5551,
    "Ġstra": 5552,
    "ĊĊ": 5553,
    "Ġthrilled": 5554,
    "ĠJean": 5555,
    "ĠCircle": 5556,
    "ĠEd": 5557,
    "Ġcurled": 5558,
    "ce": 5559,
    "Ġtraded": 5560,
    "ĠBloom": 5561,
    "Ġwrench": 5562,
    "ĠRiri": 5563,
    "Ġscientist": 5564,
    "Ġencouragement": 5565,
    "Tina": 5566,
    "Ġorganize": 5567,
    "Ġcage": 5568,
    "ĠGina": 5569,
    "ĠIce": 5570,
    "é": 5571,
    "Ġopen": 5572,
    "pper": 5573,
    "ĠJessica": 5574,
    "ery": 5575,
    "Ġteamwork": 5576,
    "Ġagree": 5577,
    "ĠBooks": 5578,
    "ĠTimmy": 5579,
    "Ġashtray": 5580,
    "Ġdetermination": 5581,
    "Ġsmaller": 5582,
    "Ġroads": 5583,
    "Ġmoo": 5584,
    "Ġseller": 5585,
    "Ġspotted": 5586,
    "Ġexams": 5587,
    "Ġexcited": 5588,
    "Ġprevent": 5589,
    "izzes": 5590,
    "ñ": 5591,
    "Ġmakes": 5592,
    "Ġmem": 5593,
    "ĠRabbit": 5594,
    "Ġcras": 5595,
    "Ġpl": 5596,
    "ual": 5597,
    "icer": 5598,
    "Ġcord": 5599,
    "ody": 5600,
    "Ġstomachs": 5601,
    "Ġdoorstep": 5602,
    "Ġbranches": 5603,
    "Ġcamera": 5604,
    "Ġcheers": 5605,
    "Kitty": 5606,
    "bled": 5607,
    "Ġcut": 5608,
    "Ġpig": 5609,
    "Ġleapt": 5610,
    "ģ": 5611,
    "ĠBeth": 5612,
    "Ġcups": 5613,
    "Ġharder": 5614,
    "Ġrake": 5615,
    "Ġwhistles": 5616,
    "Bird": 5617,
    "Ġquiet": 5618,
    "ĠAngel": 5619,
    "ĠImmediately": 5620,
    "urniture": 5621,
    "Bug": 5622,
    "Ġcosts": 5623,
    "ĠDavey": 5624,
    "ĠButter": 5625,
    "Ġden": 5626,
    "Mar": 5627,
    "Ġmarried": 5628,
    "ĠSal": 5629,
    "ĠJ": 5630,
    "Instead": 5631,
    "Ġsnail": 5632,
    "F": 5633,
    "Let": 5634,
    "ane": 5635,
    "Ġfew": 5636,
    "iful": 5637,
    "Fr": 5638,
    "Ġabo": 5639,
    "Q": 5640,
    "ĠDuck": 5641,
    "Ġcutter": 5642,
    "ip": 5643,
    "ĠFel": 5644,
    "Ġprayed": 5645,
    "ĠAbbie": 5646,
    "dding": 5647,
    "And": 5648,
    "io": 5649,
    "Ġthose": 5650,
    "is": 5651,
    "Ġdarker": 5652,
    "sequ": 5653,
    "Sadly": 5654,
    "Ġpatients": 5655,
    "Ġrever": 5656,
    "Ġpainful": 5657,
    "Ġfore": 5658,
    "Ġstuffed": 5659,
    "Ġspikes": 5660,
    "ĠSwim": 5661,
    "Blue": 5662,
    "ium": 5663,
    "Ġmachines": 5664,
    "Sn": 5665,
    "specially": 5666,
    "Ġnood": 5667,
    "Ġthicker": 5668,
    "aw": 5669,
    "ķ": 5670,
    "B": 5671,
    "Ġhand": 5672,
    "¾": 5673,
    "Ġliz": 5674,
    "Rock": 5675,
    "Ġjug": 5676,
    "Ġjeep": 5677,
    "mother": 5678,
    "Ġscrewd": 5679,
    "Ġguitar": 5680,
    "ĠBo": 5681,
    "Ġpeered": 5682,
    "Ġfaced": 5683,
    "cept": 5684,
    "Ġfeelings": 5685,
    "olog": 5686,
    "Ġpump": 5687,
    "ĠDucky": 5688,
    "ist": 5689,
    "ĠFido": 5690,
    "Ġupside": 5691,
    "Ġadult": 5692,
    "umber": 5693,
    "Ġclue": 5694,
    "Ġwindows": 5695,
    "Ġtouching": 5696,
    "Ġgreat": 5697,
    "ellie": 5698,
    "irst": 5699,
    "Ġwilling": 5700,
    "aught": 5701,
    "Ġdeliver": 5702,
    "asis": 5703,
    "Ġdr": 5704,
    "Ġdoctor": 5705,
    "Ġcact": 5706,
    "Ġfishes": 5707,
    "ĠZack": 5708,
    "ĠDog": 5709,
    "But": 5710,
    "Ġlearnt": 5711,
    "Ġhardest": 5712,
    "Ġpaintings": 5713,
    "Ġrepeated": 5714,
    "Ġknees": 5715,
    "osen": 5716,
    "lets": 5717,
    "ĠPatch": 5718,
    "Ġhel": 5719,
    "Ġcherries": 5720,
    "Ġprop": 5721,
    "tock": 5722,
    "Ġbook": 5723,
    "Ġstre": 5724,
    "Ġapologized": 5725,
    "Whee": 5726,
    "Ġrewards": 5727,
    "ĠCari": 5728,
    "ĠBun": 5729,
    "Ġcalend": 5730,
    "Ġmotorcycle": 5731,
    "Ġleave": 5732,
    "Ġfrustrated": 5733,
    "Ġreplied": 5734,
    "Ġjealous": 5735,
    "Ġsneezed": 5736,
    "Ġwithout": 5737,
    "Ġobser": 5738,
    "Ġallow": 5739,
    "ĠQuack": 5740,
    "Ġfilms": 5741,
    "igning": 5742,
    "Ġbeating": 5743,
    "Ġbuck": 5744,
    "ier": 5745,
    "Ġbounce": 5746,
    "Ġcharacters": 5747,
    "Ġsoccer": 5748,
    "Ġmer": 5749,
    "Ġsoldier": 5750,
    "Ġslam": 5751,
    "Ġdisobeyed": 5752,
    "Ġlake": 5753,
    "ĠSometimes": 5754,
    "ĠCook": 5755,
    "Ġrows": 5756,
    "Sometimes": 5757,
    "Ġres": 5758,
    "Ġstatues": 5759,
    "ĠOkay": 5760,
    "ĠJamie": 5761,
    "ha": 5762,
    "room": 5763,
    "¦": 5764,
    "angle": 5765,
    "Ġmommies": 5766,
    "Ë": 5767,
    "Ġli": 5768,
    "Ġcrunch": 5769,
    "ĠMira": 5770,
    "Ġbrother": 5771,
    "Ġfamily": 5772,
    "Ġhopeful": 5773,
    "Mandy": 5774,
    "Ġclimbs": 5775,
    "jest": 5776,
    "Ġcowboys": 5777,
    "ĠRock": 5778,
    "Ġnewspaper": 5779,
    "Ġhonesty": 5780,
    "Ġmeaning": 5781,
    "Ġshops": 5782,
    "indy": 5783,
    "ĠGracie": 5784,
    "Ġsigning": 5785,
    "Ġplanted": 5786,
    "ĠPhil": 5787,
    "However": 5788,
    "Ġintrigued": 5789,
    "Ġrich": 5790,
    "ophia": 5791,
    "ĠMuffin": 5792,
    "Ġclaw": 5793,
    "esses": 5794,
    "Ġbananas": 5795,
    "Ġlisten": 5796,
    "Ġbaa": 5797,
    "Ġknocking": 5798,
    "ĠBoat": 5799,
    "Ġexplore": 5800,
    "ĠCl": 5801,
    "ĠPen": 5802,
    "els": 5803,
    "Ġbelieve": 5804,
    "Ġpun": 5805,
    "ĠCrab": 5806,
    "Ġshares": 5807,
    "Ġrather": 5808,
    "You": 5809,
    "Ġad": 5810,
    "Ġlikes": 5811,
    "Dad": 5812,
    "Al": 5813,
    "Ġflute": 5814,
    "Jessie": 5815,
    "Ġdisturbed": 5816,
    "Ġmush": 5817,
    "Ġrecord": 5818,
    "Ġsniffed": 5819,
    "Tw": 5820,
    "Ġforgot": 5821,
    "Ġthrough": 5822,
    "inted": 5823,
    "Ġsoar": 5824,
    "Ġplaces": 5825,
    "pp": 5826,
    "Ġputting": 5827,
    "ĠNear": 5828,
    "Ġstret": 5829,
    "ĠX": 5830,
    "Ġshampoo": 5831,
    "een": 5832,
    "ĠOtherwise": 5833,
    "ast": 5834,
    "Ġbottles": 5835,
    "Ġref": 5836,
    "omb": 5837,
    "Ġbottom": 5838,
    "Ġmisses": 5839,
    "Ġmarch": 5840,
    "ison": 5841,
    "Ġinstr": 5842,
    "Susan": 5843,
    "pecting": 5844,
    "Whenever": 5845,
    "iley": 5846,
    "Ġapologize": 5847,
    "llas": 5848,
    "ten": 5849,
    "ĠAsh": 5850,
    "Ġbeef": 5851,
    "Ġmot": 5852,
    "Ġstreng": 5853,
    "Ġskipped": 5854,
    "Fred": 5855,
    "ctor": 5856,
    "Ġworried": 5857,
    "ĠFollow": 5858,
    "Ġdig": 5859,
    "Ġtwenty": 5860,
    "mers": 5861,
    "Ġglobe": 5862,
    "Ġland": 5863,
    "ĠMel": 5864,
    "amil": 5865,
    "Ġinvitation": 5866,
    "Ġmist": 5867,
    "Ġcowb": 5868,
    "Ġarrives": 5869,
    "ise": 5870,
    "Ġrecommend": 5871,
    "vator": 5872,
    "ment": 5873,
    "Ĵ": 5874,
    "Ġblank": 5875,
    "Ġdestro": 5876,
    "Ġended": 5877,
    "Ġastronauts": 5878,
    "isc": 5879,
    "Ġrefle": 5880,
    "abby": 5881,
    "Ġbumped": 5882,
    "Ġbrushes": 5883,
    "Ġpretending": 5884,
    "Ġknowledge": 5885,
    "Ġparts": 5886,
    "ĠHoot": 5887,
    "Ġsunflowers": 5888,
    "Ġhid": 5889,
    "look": 5890,
    "riger": 5891,
    "Ġlibrary": 5892,
    "Ġwealthy": 5893,
    "Ġguard": 5894,
    "Ġcheap": 5895,
    "ĠEls": 5896,
    "Ġknife": 5897,
    "Ġsaus": 5898,
    "Ġforgive": 5899,
    "Ġrise": 5900,
    "Ġgreet": 5901,
    "more": 5902,
    "Ġsorts": 5903,
    "Ġbecause": 5904,
    "Maria": 5905,
    "Ġoysters": 5906,
    "Ġmoder": 5907,
    "ĠSil": 5908,
    "Ġcooed": 5909,
    "Ġsteep": 5910,
    "Ġflying": 5911,
    "cl": 5912,
    "Ġgates": 5913,
    "Ė": 5914,
    "ĠRachel": 5915,
    "Ġlion": 5916,
    "Ġclown": 5917,
    "ĠBuggy": 5918,
    "Ruby": 5919,
    "ion": 5920,
    "Ġquieter": 5921,
    "Ġshh": 5922,
    "urb": 5923,
    "Ġmesmer": 5924,
    "Ġgrin": 5925,
    "Ġfriends": 5926,
    "Ġpuddle": 5927,
    "Ġenjoyed": 5928,
    "Ġdriveway": 5929,
    "cks": 5930,
    "Ġoffic": 5931,
    "illa": 5932,
    "Ġsort": 5933,
    "Ġthrone": 5934,
    "Ġdown": 5935,
    "Ġhouse": 5936,
    "Ġbulb": 5937,
    "ò": 5938,
    "inky": 5939,
    "Ġlemons": 5940,
    "0": 5941,
    "ĠCrabby": 5942,
    "icked": 5943,
    "Ġshooed": 5944,
    "ĠBones": 5945,
    "step": 5946,
    "rench": 5947,
    "Ġattempts": 5948,
    "ĠCici": 5949,
    "Ġremem": 5950,
    "Ġpicked": 5951,
    "Ġimportant": 5952,
    "@": 5953,
    "Ġwant": 5954,
    "ĠOw": 5955,
    "Ġmarking": 5956,
    "Ġtouc": 5957,
    "erpiece": 5958,
    "Goodnight": 5959,
    "ĠChewy": 5960,
    "Ġcautiously": 5961,
    "Ġtwin": 5962,
    "Ġreunited": 5963,
    "repeat": 5964,
    "Ġbuilding": 5965,
    "Ġgen": 5966,
    "Ġchecked": 5967,
    "ulu": 5968,
    "uses": 5969,
    "aughty": 5970,
    "avy": 5971,
    "Ġcouldn": 5972,
    "ouch": 5973,
    "ĠBra": 5974,
    "gether": 5975,
    "Ġruns": 5976,
    "ĠGet": 5977,
    "Ġhapp": 5978,
    "Ġpromises": 5979,
    "Ġkite": 5980,
    "Ġdelivery": 5981,
    "Ġbund": 5982,
    "Ġwishes": 5983,
    "ĠSome": 5984,
    "ĠHenny": 5985,
    "Ġlouder": 5986,
    "ieves": 5987,
    "Ġsweeter": 5988,
    "Ġsurprise": 5989,
    "Ġpers": 5990,
    "Ġdelighted": 5991,
    "arky": 5992,
    "Emily": 5993,
    "Ġpours": 5994,
    "ider": 5995,
    "Ġfo": 5996,
    "ĠHenry": 5997,
    "Ġabove": 5998,
    "Bella": 5999,
    "Ġbows": 6000,
    "Ġgym": 6001,
    "Ġforgave": 6002,
    "it": 6003,
    "ĠPuff": 6004,
    "Ġtaken": 6005,
    "Ġnods": 6006,
    "Ġslowed": 6007,
    "ĠMum": 6008,
    "Ġcrunchy": 6009,
    "Ġonly": 6010,
    "aved": 6011,
    "Ġstro": 6012,
    "Ġtidying": 6013,
    "ĠMabel": 6014,
    "Ġhippo": 6015,
    "ĠYou": 6016,
    "Ġkeeps": 6017,
    "Ġslide": 6018,
    "Ġlistens": 6019,
    "Ġbleeding": 6020,
    "ĠRing": 6021,
    "Ġsunny": 6022,
    "Ġlabel": 6023,
    "Ġquit": 6024,
    "Ġexamp": 6025,
    "Ġbeaut": 6026,
    "chievous": 6027,
    "Ġhistory": 6028,
    "ach": 6029,
    "Ġstructures": 6030,
    "Spe": 6031,
    "Ġstat": 6032,
    "Ġbadly": 6033,
    "arted": 6034,
    "ark": 6035,
    "Ġsl": 6036,
    "Ġold": 6037,
    "Ġjumper": 6038,
    "ĠTurt": 6039,
    "Ġwould": 6040,
    "Ġsomebody": 6041,
    "Ġrose": 6042,
    "Ġscolds": 6043,
    "Ġcaptain": 6044,
    "ead": 6045,
    "Ġcopper": 6046,
    "Ġbin": 6047,
    "Ġann": 6048,
    "Ħ": 6049,
    "Ġding": 6050,
    "unity": 6051,
    "Ġplanets": 6052,
    "Ġele": 6053,
    "Ġwill": 6054,
    "Ġcolourful": 6055,
    "Ġwander": 6056,
    "rework": 6057,
    "Oops": 6058,
    "ĠWaffle": 6059,
    "ĠGary": 6060,
    "Ġwatches": 6061,
    "Mikey": 6062,
    "Ġfairies": 6063,
    "Ġeveryone": 6064,
    "ef": 6065,
    "ĠOld": 6066,
    "Ġcoach": 6067,
    "Ġshells": 6068,
    "Ġy": 6069,
    "river": 6070,
    "iron": 6071,
    "Ġcake": 6072,
    "Ġhotel": 6073,
    "Ġdiscoveries": 6074,
    "ĠYellow": 6075,
    "dam": 6076,
    "Ġla": 6077,
    "Ġuntied": 6078,
    "bank": 6079,
    "th": 6080,
    "ĠNurse": 6081,
    "Sue": 6082,
    "Ġshorter": 6083,
    "ĠEva": 6084,
    "Ġlamp": 6085,
    "Ġcareful": 6086,
    "Ġspent": 6087,
    "alous": 6088,
    "ndpa": 6089,
    "ĠHappy": 6090,
    "Ġinjured": 6091,
    "oll": 6092,
    "storm": 6093,
    "Ġdem": 6094,
    "im": 6095,
    "Ġspear": 6096,
    "Ġtale": 6097,
    "ned": 6098,
    "Kate": 6099,
    "Ġbelie": 6100,
    "ex": 6101,
    "Snowy": 6102,
    "anish": 6103,
    "stic": 6104,
    "Ġzebra": 6105,
    "ĠPuppy": 6106,
    "Ġrewarding": 6107,
    "ople": 6108,
    "ah": 6109,
    "Ġunable": 6110,
    "orry": 6111,
    "Ġjewels": 6112,
    "ĠSh": 6113,
    "Ġbushy": 6114,
    "Ġenvelope": 6115,
    "ĠTessa": 6116,
    "Ġdust": 6117,
    "Ġamount": 6118,
    "Ġjobs": 6119,
    "Ġeaten": 6120,
    "ĠSusan": 6121,
    "ĠFox": 6122,
    "Ġbravest": 6123,
    "ĠMixy": 6124,
    "Ġempty": 6125,
    "Ġheat": 6126,
    "gu": 6127,
    "ĠJohn": 6128,
    "isions": 6129,
    "Ġchest": 6130,
    "Ġdragons": 6131,
    "lling": 6132,
    "Ġunlocking": 6133,
    "Ġfeeding": 6134,
    "ĠBad": 6135,
    "reen": 6136,
    "aken": 6137,
    "apping": 6138,
    "Ġbitten": 6139,
    "Ġsqueeze": 6140,
    "Ġkey": 6141,
    "Ġparade": 6142,
    "Ġboards": 6143,
    "ilities": 6144,
    "P": 6145,
    "Ġweigh": 6146,
    "Ġsatisfa": 6147,
    "Ġspecial": 6148,
    "ung": 6149,
    "Ġmarket": 6150,
    "ĠMoppy": 6151,
    "Ġcoop": 6152,
    "Ġgiving": 6153,
    "ĠKit": 6154,
    "Ġsurprises": 6155,
    "Ġfloors": 6156,
    "<|endoftext|>": 6157,
    "Ġhatch": 6158,
    "Ġsepar": 6159,
    "Ġsticky": 6160,
    "Ġlistened": 6161,
    "ĠAl": 6162,
    "Ġpushes": 6163,
    "ĠLi": 6164,
    "Ġwatermel": 6165,
    "ulpture": 6166,
    "Ġmoves": 6167,
    "ĠBarry": 6168,
    "unes": 6169,
    "plash": 6170,
    "elle": 6171,
    "Ġluxu": 6172,
    "Ġacorn": 6173,
    "Ġpurse": 6174,
    "Ġyacht": 6175,
    "Ġsuggested": 6176,
    "zz": 6177,
    "Ġspo": 6178,
    "Ġbelt": 6179,
    "ucky": 6180,
    "Ġtick": 6181,
    "Ġtowers": 6182,
    "Ġtin": 6183,
    "Ġmatters": 6184,
    "Ġexcitedly": 6185,
    "Ġpup": 6186,
    "Ġyucky": 6187,
    "Sophia": 6188,
    "Ġemer": 6189,
    "ĠStar": 6190,
    "ont": 6191,
    "Ġhi": 6192,
    "Ġsingers": 6193,
    "Ġnodded": 6194,
    "ĠJohnson": 6195,
    "Ġbicycles": 6196,
    "pack": 6197,
    "ĠMissy": 6198,
    "Ġnewspapers": 6199,
    "Ġnaughty": 6200,
    "Ġaccomplishment": 6201,
    "Ġprayers": 6202,
    "Ġnatural": 6203,
    "ĠSnowman": 6204,
    "Ġpenguin": 6205,
    "Ġthumbs": 6206,
    "ğ": 6207,
    "Ġbumping": 6208,
    "ĠMoon": 6209,
    "Ġgazing": 6210,
    "Ï": 6211,
    "let": 6212,
    "Ġcity": 6213,
    "ĠTh": 6214,
    "ecca": 6215,
    "Ġturkey": 6216,
    "Ġtrou": 6217,
    "affe": 6218,
    "Ġadmit": 6219,
    "Ġtire": 6220,
    "Ġrescued": 6221,
    "ave": 6222,
    "Whose": 6223,
    "Ġsquirrel": 6224,
    "urity": 6225,
    "Ġemergency": 6226,
    "Ben": 6227,
    "Ġbarks": 6228,
    "Ġhealth": 6229,
    "Ġchewing": 6230,
    "Ġprom": 6231,
    "ecting": 6232,
    "Ġbecoming": 6233,
    "ĠNora": 6234,
    "Ġgetting": 6235,
    "Ġstomp": 6236,
    "Ġhighest": 6237,
    "Ġtalks": 6238,
    "Je": 6239,
    "ĠFrank": 6240,
    "Ġscare": 6241,
    "irring": 6242,
    "Ġripe": 6243,
    "ĠCuddles": 6244,
    "Ġfixed": 6245,
    "Ġcloset": 6246,
    "ecause": 6247,
    "iggy": 6248,
    "Ġholes": 6249,
    "Curious": 6250,
    "Ġsteth": 6251,
    "ą": 6252,
    "Ġcushions": 6253,
    "Ġforward": 6254,
    "Ġfloated": 6255,
    "Ġsatis": 6256,
    "eling": 6257,
    "Ġholiday": 6258,
    "One": 6259,
    "Ġsense": 6260,
    "Very": 6261,
    "Ġreplace": 6262,
    "Ē": 6263,
    "ĠTyler": 6264,
    "Ġunh": 6265,
    "His": 6266,
    "Rachel": 6267,
    "Ġtwinkling": 6268,
    "Ġbone": 6269,
    "ers": 6270,
    "ĠRh": 6271,
    "pen": 6272,
    "Ġhospital": 6273,
    "igers": 6274,
    "ĠOnly": 6275,
    "Ġdemanded": 6276,
    "Ġpick": 6277,
    "Ġhappiest": 6278,
    "Ġdarkness": 6279,
    "Ġends": 6280,
    "Ġwakes": 6281,
    "Ġrelie": 6282,
    "Ġmemories": 6283,
    "Ġdiscouraged": 6284,
    "Ġent": 6285,
    "llo": 6286,
    "Ġjing": 6287,
    "ĠWhich": 6288,
    "ready": 6289,
    "Ġconsequ": 6290,
    "Ġpilot": 6291,
    "Ġliqu": 6292,
    "Ġlicks": 6293,
    "Ġguards": 6294,
    "ĠOt": 6295,
    "iling": 6296,
    "ĠSlow": 6297,
    "Ġlaces": 6298,
    "Ġgr": 6299,
    "Ġmissed": 6300,
    "Ġtomatoes": 6301,
    "ampoo": 6302,
    "ĠOl": 6303,
    "ĠPh": 6304,
    "Ġrolling": 6305,
    "Ġletter": 6306,
    "ythm": 6307,
    "Robby": 6308,
    "ĠCloud": 6309,
    "Ġsnat": 6310,
    "Ġkicks": 6311,
    "Ġwallet": 6312,
    "q": 6313,
    "Ġfeast": 6314,
    "Ġho": 6315,
    "Ġthieves": 6316,
    "abra": 6317,
    "Ġicky": 6318,
    "Ġsharing": 6319,
    "Ġbutton": 6320,
    "Ġweapons": 6321,
    "ĠFl": 6322,
    "Ġtrail": 6323,
    "Ġslower": 6324,
    "Ġgonna": 6325,
    "Ġnasty": 6326,
    "ĠEliz": 6327,
    "Sweet": 6328,
    "Ġglow": 6329,
    "Ġattached": 6330,
    "Jul": 6331,
    "Ġsupply": 6332,
    "Ġdrip": 6333,
    "Ġbreaks": 6334,
    "Ġlightning": 6335,
    "ari": 6336,
    "Ġcrowded": 6337,
    "ent": 6338,
    "Ġbed": 6339,
    "Sophie": 6340,
    "ucked": 6341,
    "Ġplayed": 6342,
    "ĠChicky": 6343,
    "Ġgrapes": 6344,
    "Ġafar": 6345,
    "Ġflapped": 6346,
    "Ġpaddling": 6347,
    "Ġaccom": 6348,
    "Ġdisgusting": 6349,
    "Ġdess": 6350,
    "Ġweighing": 6351,
    "Ġaud": 6352,
    "Lizzy": 6353,
    "Ġhen": 6354,
    "Ġhear": 6355,
    "ĠMeg": 6356,
    "Now": 6357,
    "ĠLila": 6358,
    "ĠGigi": 6359,
    "Ġlet": 6360,
    "Ġtours": 6361,
    "aser": 6362,
    "robe": 6363,
    "Ġbill": 6364,
    "Ġtossed": 6365,
    "Ġthought": 6366,
    "ĠSomeone": 6367,
    "Mary": 6368,
    "Ġtweet": 6369,
    "Ġranch": 6370,
    "Dr": 6371,
    "Ġcooking": 6372,
    "Ġstri": 6373,
    "als": 6374,
    "Ġafter": 6375,
    "aybe": 6376,
    "ĠThomas": 6377,
    "icious": 6378,
    "Momo": 6379,
    "aghett": 6380,
    "Ġsoon": 6381,
    "Ġcir": 6382,
    "Ġrhino": 6383,
    "ĠOn": 6384,
    "Ġshattered": 6385,
    "Ġhopped": 6386,
    "aspoon": 6387,
    "Ġcle": 6388,
    "Ġmelting": 6389,
    "aver": 6390,
    "Ġcentre": 6391,
    "Ġsqueak": 6392,
    "Ġrain": 6393,
    "Ġtorto": 6394,
    "cher": 6395,
    "Ġstrip": 6396,
    "antly": 6397,
    "Ġcontest": 6398,
    "angled": 6399,
    "ĠGl": 6400,
    "Ġre": 6401,
    "Ġval": 6402,
    "Ġmagnif": 6403,
    "Ġpurr": 6404,
    "Ġrac": 6405,
    "Ġsteam": 6406,
    "umpy": 6407,
    "ĠTr": 6408,
    "Ġroses": 6409,
    "Toby": 6410,
    "Ġstopping": 6411,
    "Ġpumpkins": 6412,
    "ĠSn": 6413,
    "Ġpersist": 6414,
    "ĠWilly": 6415,
    "Ġdecorating": 6416,
    "Mrs": 6417,
    "Ġvisited": 6418,
    "ite": 6419,
    "Ġsandwiches": 6420,
    "Sh": 6421,
    "Ġcust": 6422,
    "Ġshivering": 6423,
    "Ġbirds": 6424,
    "Freeze": 6425,
    "Milo": 6426,
    "ĠSlowly": 6427,
    "Ġnuzz": 6428,
    "Ġpins": 6429,
    "rrr": 6430,
    "ĠRe": 6431,
    "ĠPeter": 6432,
    "Ġf": 6433,
    "Ġcrocodile": 6434,
    "Ġinvent": 6435,
    "Ġweep": 6436,
    "up": 6437,
    "Ġweird": 6438,
    "Ġrequested": 6439,
    "Ġprog": 6440,
    "Ġmarbles": 6441,
    "Ġtalk": 6442,
    "Ġwider": 6443,
    "Ġsobbed": 6444,
    "Ġus": 6445,
    "Ġanytime": 6446,
    "Ġpajamas": 6447,
    "ours": 6448,
    "roken": 6449,
    "lcan": 6450,
    "Ġknelt": 6451,
    "ĠH": 6452,
    "Ġtickling": 6453,
    "Keep": 6454,
    "ade": 6455,
    "Ġhelicopter": 6456,
    "bert": 6457,
    "Ġboring": 6458,
    "tha": 6459,
    "Ġamaz": 6460,
    "Ġdecl": 6461,
    "Ġattic": 6462,
    "Ġcuddles": 6463,
    "Ġfast": 6464,
    "Ġnothing": 6465,
    "smelling": 6466,
    "Ow": 6467,
    "Ġcomfy": 6468,
    "Ġlo": 6469,
    "ide": 6470,
    "Ġworker": 6471,
    "ors": 6472,
    "ild": 6473,
    "Ġworries": 6474,
    "Ġjoy": 6475,
    "tle": 6476,
    "Ġmuster": 6477,
    "Ġpigs": 6478,
    "Ġsponge": 6479,
    "ĠSandy": 6480,
    "Ġanything": 6481,
    "Ġpressed": 6482,
    "ĠYummy": 6483,
    "Ġpeeking": 6484,
    "ĠBuddy": 6485,
    "rophone": 6486,
    "etter": 6487,
    "ĠLucy": 6488,
    "Ġreveal": 6489,
    "Ġtexture": 6490,
    "Surpr": 6491,
    "Ġunl": 6492,
    "gl": 6493,
    "Ġpizz": 6494,
    "Ġcrystals": 6495,
    "ĠMommy": 6496,
    "Ġvisitor": 6497,
    "Ġgro": 6498,
    "OK": 6499,
    "Ġblackboard": 6500,
    "Ġgenerosity": 6501,
    "Danger": 6502,
    "Ġevery": 6503,
    "Ġscrews": 6504,
    "cuse": 6505,
    "Ġsince": 6506,
    "Ġbet": 6507,
    "Ġlab": 6508,
    "Ġbelow": 6509,
    "Ġcub": 6510,
    "Here": 6511,
    "Ġguys": 6512,
    "ĠRollie": 6513,
    "ĠKitty": 6514,
    "D": 6515,
    "Ġhalf": 6516,
    "Ġgrabbed": 6517,
    "Ġcupcakes": 6518,
    "Ġstretchy": 6519,
    "Ġprotect": 6520,
    "Ġpitch": 6521,
    "Ġmooed": 6522,
    "Ġswallow": 6523,
    "Ġovercome": 6524,
    "ĠEveryday": 6525,
    "Ġecho": 6526,
    "Ġprints": 6527,
    "Ġfrowns": 6528,
    "acock": 6529,
    "Ġlibr": 6530,
    "Ġfloating": 6531,
    "Mark": 6532,
    "Ġexch": 6533,
    "Ġanimals": 6534,
    "Ġflashed": 6535,
    "ĠInstead": 6536,
    "ol": 6537,
    "stalk": 6538,
    "Ġdedic": 6539,
    "Ġdecides": 6540,
    "Ġsuper": 6541,
    "Ġscamp": 6542,
    "Ġhunters": 6543,
    "Ġpolished": 6544,
    "Ġuncomfortable": 6545,
    "Zigzag": 6546,
    "Ġsausages": 6547,
    "Ġcheek": 6548,
    "Ġcomb": 6549,
    "ĠKing": 6550,
    "People": 6551,
    "Ġen": 6552,
    "Ġsold": 6553,
    "Ġswung": 6554,
    "Ġthief": 6555,
    "Jimmy": 6556,
    "Ġpor": 6557,
    "Ġtrucks": 6558,
    "rick": 6559,
    "_": 6560,
    "Ġpolite": 6561,
    "Ġfeather": 6562,
    "Ġinviting": 6563,
    "Ġhelp": 6564,
    "While": 6565,
    "erk": 6566,
    "Ġjelly": 6567,
    "ļ": 6568,
    "ĠSee": 6569,
    "Everyone": 6570,
    "in": 6571,
    "ry": 6572,
    "ĠJudge": 6573,
    "ount": 6574,
    "ister": 6575,
    "Ġpans": 6576,
    "Ġnecklace": 6577,
    "ĠBess": 6578,
    "Ġpack": 6579,
    "Ġstain": 6580,
    "Ġpolishing": 6581,
    "Ġthat": 6582,
    "ling": 6583,
    "Ġclimbing": 6584,
    "Ġcob": 6585,
    "ĠRemember": 6586,
    "Ġbite": 6587,
    "ĠPeople": 6588,
    "ool": 6589,
    "Ġzookeeper": 6590,
    "Ġclean": 6591,
    "Ġgreen": 6592,
    "uit": 6593,
    "otter": 6594,
    "atur": 6595,
    "Ġskip": 6596,
    "Ġcrabs": 6597,
    "Ġtime": 6598,
    "Ġsudden": 6599,
    "Ġoffering": 6600,
    "Ġbor": 6601,
    "ĠBounce": 6602,
    "'.": 6603,
    "Ġbully": 6604,
    "int": 6605,
    "ities": 6606,
    "Ġpresent": 6607,
    "Ġmixture": 6608,
    "quito": 6609,
    "Ġimagining": 6610,
    "Ġworking": 6611,
    "Ġballs": 6612,
    "ried": 6613,
    "Ġcats": 6614,
    "omed": 6615,
    "Ġwashed": 6616,
    "Ġoutfit": 6617,
    "Ġorder": 6618,
    "ĠLook": 6619,
    "ĠSofty": 6620,
    "Big": 6621,
    "ĠElly": 6622,
    "Ġbadger": 6623,
    "Ġdeed": 6624,
    "Ġcroaked": 6625,
    "ome": 6626,
    "Ġscream": 6627,
    "Ġsettle": 6628,
    "Ġbalan": 6629,
    "eve": 6630,
    "Ġreapp": 6631,
    "Ġmad": 6632,
    "Ġtoilet": 6633,
    "Ġmast": 6634,
    "Ġcreative": 6635,
    "!âĢĻ": 6636,
    "Ġtrunk": 6637,
    "Ġtug": 6638,
    "joyed": 6639,
    "Ġbrothers": 6640,
    "aurant": 6641,
    "Ġsoda": 6642,
    "ug": 6643,
    "Ġcones": 6644,
    "ĠMixie": 6645,
    "Ġcomplet": 6646,
    "Ġeggs": 6647,
    "Ġperfect": 6648,
    "Ġdou": 6649,
    "Ġlook": 6650,
    "Of": 6651,
    "Ġdaisies": 6652,
    "Ġbarber": 6653,
    "itch": 6654,
    "ongrat": 6655,
    "Ġcubes": 6656,
    "Ġmoving": 6657,
    "Ġanswers": 6658,
    "ĠBirdie": 6659,
    "Ġbowls": 6660,
    "E": 6661,
    "Ġang": 6662,
    "Ġstronger": 6663,
    "Ġhol": 6664,
    "Ġpenny": 6665,
    "Ġtrampoline": 6666,
    "Still": 6667,
    "ô": 6668,
    "Ġmysteries": 6669,
    "Ġsou": 6670,
    "Ġapp": 6671,
    "Bill": 6672,
    "Ġpose": 6673,
    "ĠCle": 6674,
    "Ġdelicate": 6675,
    "Ġtim": 6676,
    "Ġfirefighter": 6677,
    "se": 6678,
    "Ġavoid": 6679,
    "Ġpret": 6680,
    "Ġhose": 6681,
    "Ġsunflower": 6682,
    "Ġrested": 6683,
    "Ġraining": 6684,
    "Ġflipped": 6685,
    "Ġcovered": 6686,
    "Ġimmediately": 6687,
    "elie": 6688,
    "Ġexplaining": 6689,
    "Ġpath": 6690,
    "Ġribb": 6691,
    "Ġelephant": 6692,
    "Ġpushing": 6693,
    "Friends": 6694,
    "imed": 6695,
    "Ġsitting": 6696,
    "Ġblew": 6697,
    "Ġpiece": 6698,
    "Ġdanced": 6699,
    "Ġsug": 6700,
    "Ġzooming": 6701,
    "Ġstroked": 6702,
    "ĠKevin": 6703,
    "iz": 6704,
    "ä": 6705,
    "Ġsword": 6706,
    "Ġkings": 6707,
    "į": 6708,
    "Ġled": 6709,
    "nder": 6710,
    "vent": 6711,
    "Ġbomb": 6712,
    "Ġgroup": 6713,
    "Ġcooper": 6714,
    "Ġscared": 6715,
    "Ġtumbled": 6716,
    "Ġwent": 6717,
    "ĠFinally": 6718,
    "Ġguardian": 6719,
    "ĠThen": 6720,
    "Ġwrink": 6721,
    "Ġdeaf": 6722,
    "Ġclub": 6723,
    "Ġor": 6724,
    "Ġmonkeys": 6725,
    "pected": 6726,
    "Ġdisapp": 6727,
    "Sandy": 6728,
    "Ġfrowning": 6729,
    "Ġser": 6730,
    "Ġmis": 6731,
    "ĠTina": 6732,
    "Ġfigured": 6733,
    "Ġgrandchild": 6734,
    "Ġgesture": 6735,
    "Ġswall": 6736,
    "iar": 6737,
    "unched": 6738,
    "ĠSilver": 6739,
    "isses": 6740,
    "Ġscur": 6741,
    "These": 6742,
    "ĠChess": 6743,
    "icopter": 6744,
    "Ġcoll": 6745,
    "Ġunder": 6746,
    "Ġcracks": 6747,
    "Ġfirst": 6748,
    "Ġspilling": 6749,
    "ĠSque": 6750,
    "anut": 6751,
    "hee": 6752,
    "Ġbehaved": 6753,
    "Ġstruggle": 6754,
    "Ġloves": 6755,
    "Ġgrab": 6756,
    "Ġsprayed": 6757,
    "lied": 6758,
    "Ġpushed": 6759,
    "Ġadventur": 6760,
    "Ġacts": 6761,
    "Ġwash": 6762,
    "Ġentered": 6763,
    "Ġflat": 6764,
    "am": 6765,
    "ĠAmelia": 6766,
    "ience": 6767,
    "Ġwandered": 6768,
    "Ġeight": 6769,
    "Ġlawyer": 6770,
    "ĠMath": 6771,
    "rent": 6772,
    "erg": 6773,
    "Ġsurfing": 6774,
    "ner": 6775,
    "Ġbeaks": 6776,
    "ilda": 6777,
    "Ġhearts": 6778,
    "ĠMus": 6779,
    "Ġincreasing": 6780,
    "Ġpacked": 6781,
    "Ġants": 6782,
    "Ġexamine": 6783,
    "ĠShelly": 6784,
    "com": 6785,
    "Ġraincoat": 6786,
    "ished": 6787,
    "Ġtopp": 6788,
    "Lena": 6789,
    "ear": 6790,
    "'t": 6791,
    "Ġstickers": 6792,
    "Ġhers": 6793,
    "yard": 6794,
    "Ġcere": 6795,
    "Ġreluctantly": 6796,
    "Ġsle": 6797,
    "ivery": 6798,
    "Ġphone": 6799,
    "bles": 6800,
    "Ġusing": 6801,
    "umpet": 6802,
    "Ġdifferently": 6803,
    "Un": 6804,
    "Ġoverw": 6805,
    "us": 6806,
    "Ġtomorrow": 6807,
    "Ġcrib": 6808,
    "Ġpilots": 6809,
    "Ġpointing": 6810,
    "Đ": 6811,
    "antastic": 6812,
    "Ġdresses": 6813,
    "Ġshady": 6814,
    "ucture": 6815,
    "ĠRich": 6816,
    "ĠHar": 6817,
    "Ġhunting": 6818,
    "head": 6819,
    "Ġseagull": 6820,
    "Ġtransform": 6821,
    "ĠThere": 6822,
    "ĠHold": 6823,
    "Ġmust": 6824,
    "oring": 6825,
    "Ġrobbers": 6826,
    "Ġguess": 6827,
    "Ġanger": 6828,
    "Ġblin": 6829,
    "ĠToday": 6830,
    "Ġquite": 6831,
    "Ġrec": 6832,
    "Ġwonder": 6833,
    "Finally": 6834,
    "wel": 6835,
    "Yeah": 6836,
    "round": 6837,
    "Ġwagged": 6838,
    "Ġrepairing": 6839,
    "Ġsit": 6840,
    "ilet": 6841,
    "Ġcrystal": 6842,
    "Ġgerm": 6843,
    "Ġpuppets": 6844,
    "Ġbeetles": 6845,
    "ĠAnd": 6846,
    "Fin": 6847,
    "Ġrecommended": 6848,
    "host": 6849,
    "Ġhippos": 6850,
    "Ġventured": 6851,
    "Ġpotatoes": 6852,
    "Ġseal": 6853,
    "inch": 6854,
    "pping": 6855,
    "Ġadvice": 6856,
    "ision": 6857,
    "Ġteachers": 6858,
    "Ġwin": 6859,
    "Owl": 6860,
    "ĠSc": 6861,
    "Ġwrinkled": 6862,
    "Once": 6863,
    "hile": 6864,
    "Ġqu": 6865,
    "Ġhumble": 6866,
    "8": 6867,
    "Did": 6868,
    "p": 6869,
    "ici": 6870,
    "ĠMicroscope": 6871,
    "Ġseed": 6872,
    "Ġlets": 6873,
    "Ġsunlight": 6874,
    "Ġlumber": 6875,
    "Ġ\"": 6876,
    "âĢĿ": 6877,
    "Ġmosquito": 6878,
    "ĠSeeing": 6879,
    "Ġcostumes": 6880,
    "ð": 6881,
    "Ġdrink": 6882,
    "aving": 6883,
    "Ġthrowing": 6884,
    "Ġswir": 6885,
    "ĠMaddie": 6886,
    "ccer": 6887,
    "Ġfreez": 6888,
    "Ġscram": 6889,
    "imney": 6890,
    "Ġbirdhouse": 6891,
    "Ġunt": 6892,
    "Ġprett": 6893,
    "²": 6894,
    "Ġvehicle": 6895,
    "ĠBlinky": 6896,
    "orted": 6897,
    "ĠDaniel": 6898,
    "Ġfetched": 6899,
    "Ġwis": 6900,
    "Ġstanding": 6901,
    "Ġed": 6902,
    "are": 6903,
    "Ġpassed": 6904,
    "Ġbetter": 6905,
    "ĠTomorrow": 6906,
    "Ġfell": 6907,
    "Well": 6908,
    "Ġbored": 6909,
    "Ġfiremen": 6910,
    "Ġchat": 6911,
    "Ġcutting": 6912,
    "Ġdriver": 6913,
    "Ġkind": 6914,
    "Ġsails": 6915,
    "ye": 6916,
    "aches": 6917,
    "ĠLiam": 6918,
    "Ġblooms": 6919,
    "Oh": 6920,
    "anging": 6921,
    "Ġbecome": 6922,
    "Ġusual": 6923,
    "ndma": 6924,
    "Ġhummed": 6925,
    "Ġfinding": 6926,
    "ĠCr": 6927,
    "ated": 6928,
    "ĠMina": 6929,
    "Ġpaints": 6930,
    "Ć": 6931,
    "Ġbran": 6932,
    "Ġgun": 6933,
    "Ġplanet": 6934,
    "gr": 6935,
    "Ġcustomer": 6936,
    "ĩ": 6937,
    "Ġsprinkle": 6938,
    "Ġcall": 6939,
    "Ġcrouched": 6940,
    "Ġpostman": 6941,
    "ipper": 6942,
    "Ġhappiness": 6943,
    "Ġsurely": 6944,
    "Henry": 6945,
    "ĠTra": 6946,
    "Ġtraveled": 6947,
    "Ġde": 6948,
    "Jane": 6949,
    "Aunt": 6950,
    "Ġpow": 6951,
    "ĠOtto": 6952,
    "Ġclear": 6953,
    "ĠSnake": 6954,
    "ĠBye": 6955,
    "Arrr": 6956,
    "eterinarian": 6957,
    "ĠAnnie": 6958,
    "ipe": 6959,
    "ĠNick": 6960,
    "Ġrad": 6961,
    "ero": 6962,
    "Ġbridge": 6963,
    "Ġpartic": 6964,
    "ĠChris": 6965,
    "ign": 6966,
    "Ġlike": 6967,
    "ĠToo": 6968,
    "Ġswinging": 6969,
    "ĠRu": 6970,
    "Ġheading": 6971,
    "Ġbroken": 6972,
    "æ": 6973,
    "Mom": 6974,
    "Ġbit": 6975,
    "Ġwire": 6976,
    "ella": 6977,
    "Ġdoll": 6978,
    "Ġjob": 6979,
    "Ġtwice": 6980,
    "Ġprickly": 6981,
    "Ļ": 6982,
    "Your": 6983,
    "Make": 6984,
    "Ġmeadow": 6985,
    "Ġpasses": 6986,
    "Ġcoug": 6987,
    "Ġscowl": 6988,
    "Ġexamining": 6989,
    "Ġstem": 6990,
    "Ġchoices": 6991,
    "Abby": 6992,
    "Ġstrike": 6993,
    "Ġdances": 6994,
    "ĠHelping": 6995,
    "Ġenc": 6996,
    "Ġflag": 6997,
    "Ġwhich": 6998,
    "pite": 6999,
    "Ġlump": 7000,
    "Ġdancers": 7001,
    "Ġwaiting": 7002,
    "Ġpage": 7003,
    "ĠStop": 7004,
    "ssy": 7005,
    "Ġchopped": 7006,
    "Ġbegan": 7007,
    "dest": 7008,
    "prints": 7009,
    "Sque": 7010,
    "Ġmarry": 7011,
    "Ġwoken": 7012,
    "az": 7013,
    "Ġjust": 7014,
    "Ġpokes": 7015,
    "Ġfather": 7016,
    "Ġfriendship": 7017,
    "Ð": 7018,
    "ved": 7019,
    "esday": 7020,
    "ĠEveryone": 7021,
    "Ġfluttered": 7022,
    "Ġfeeling": 7023,
    "Ń": 7024,
    "Ġsurprised": 7025,
    "cean": 7026,
    "Ġbags": 7027,
    "Ġcafe": 7028,
    "Ġscary": 7029,
    "Ġache": 7030,
    "Ġdresser": 7031,
    "¨": 7032,
    "ron": 7033,
    "Ġcontrol": 7034,
    "Ġboom": 7035,
    "Ġskunk": 7036,
    "Ġworn": 7037,
    "Ġexperience": 7038,
    "ĠPer": 7039,
    "ther": 7040,
    "sters": 7041,
    "onies": 7042,
    "Ġkick": 7043,
    "Ġtheater": 7044,
    "Ġlooked": 7045,
    "Ġjuice": 7046,
    "Ġchase": 7047,
    "Ġkneeling": 7048,
    "Ġdogs": 7049,
    "á": 7050,
    "Ġshoes": 7051,
    "Ġdecid": 7052,
    "ĠSuzie": 7053,
    "stead": 7054,
    "Ġswan": 7055,
    "Ġcu": 7056,
    "Ġannoy": 7057,
    "co": 7058,
    "Ġrubs": 7059,
    "Ġsounds": 7060,
    "Ġreceive": 7061,
    "Ġbeak": 7062,
    "ĠLooking": 7063,
    "Ġmaking": 7064,
    "Ġimp": 7065,
    "Ġable": 7066,
    "bit": 7067,
    "alley": 7068,
    "Ġexplorers": 7069,
    "mediately": 7070,
    "ĠAchoo": 7071,
    "ĠLand": 7072,
    "ged": 7073,
    "Ġtest": 7074,
    "Ġneck": 7075,
    "Ġstrum": 7076,
    "At": 7077,
    "Ġrelieved": 7078,
    "Ġshall": 7079,
    "Ġboat": 7080,
    "Ġch": 7081,
    "Ġairplane": 7082,
    "Ġtuck": 7083,
    "ĠGra": 7084,
    "Ġap": 7085,
    "Ġhelpless": 7086,
    "Ġowned": 7087,
    "Ġsoaking": 7088,
    "Ġlevel": 7089,
    "Ġjourneys": 7090,
    "ique": 7091,
    "Red": 7092,
    "Ġjudge": 7093,
    "Ġwildflowers": 7094,
    "Ġwarnings": 7095,
    "Ġpuzz": 7096,
    "Cra": 7097,
    "Since": 7098,
    "ĠWait": 7099,
    "Ġstranger": 7100,
    "Ġoak": 7101,
    "Ġamused": 7102,
    "Ġexplained": 7103,
    "ra": 7104,
    "Ġhigher": 7105,
    "!\",": 7106,
    "Ġpanic": 7107,
    "Ġtid": 7108,
    "Ol": 7109,
    "Ġgoodnight": 7110,
    "emies": 7111,
    "not": 7112,
    "Ġtaped": 7113,
    "Ġhelps": 7114,
    "Ġworse": 7115,
    "Ġliving": 7116,
    "Ġcolder": 7117,
    "umm": 7118,
    "Ġguilty": 7119,
    "ú": 7120,
    "Bunny": 7121,
    "Ġraising": 7122,
    "Ġpull": 7123,
    "Ġbadge": 7124,
    "oss": 7125,
    "âĢĿ,": 7126,
    "Ġunless": 7127,
    "Ġgrate": 7128,
    "Ġmelons": 7129,
    "Ġpatiently": 7130,
    "Ġdodged": 7131,
    "Ġarea": 7132,
    "ab": 7133,
    "gar": 7134,
    "Ġbeach": 7135,
    "Ġstood": 7136,
    "Ġregretted": 7137,
    "Ġstacked": 7138,
    "Ġgross": 7139,
    "Ġpills": 7140,
    "?\".": 7141,
    "ĠWoof": 7142,
    "quest": 7143,
    "Ġwarrior": 7144,
    "Ġkneeled": 7145,
    "Ġteams": 7146,
    "aye": 7147,
    "Ġwhistled": 7148,
    "Ġscolded": 7149,
    "Yuck": 7150,
    "ĠRufus": 7151,
    "Ġvinegar": 7152,
    "Ĥ": 7153,
    "Ġescap": 7154,
    "Ġteddy": 7155,
    "Ġwins": 7156,
    "Ġvaluable": 7157,
    "ĠTake": 7158,
    "Ģ": 7159,
    "ert": 7160,
    "amond": 7161,
    "ĠMillie": 7162,
    "Ġpri": 7163,
    "house": 7164,
    "Ġkissing": 7165,
    "Use": 7166,
    "bbing": 7167,
    "ĠClean": 7168,
    "Ġappl": 7169,
    "Ġpoppy": 7170,
    "Ġcrack": 7171,
    "Ġgerms": 7172,
    "Ġcakes": 7173,
    "Ġbelieved": 7174,
    "Ġwr": 7175,
    "ordinary": 7176,
    "ĠBlue": 7177,
    "Ġthirsty": 7178,
    "oud": 7179,
    "ĠSuzy": 7180,
    "Ġglitt": 7181,
    "Ġhaircut": 7182,
    "Ġsorted": 7183,
    "ins": 7184,
    "ĠJulie": 7185,
    "Ġgoo": 7186,
    "da": 7187,
    "ĠWho": 7188,
    "Ġprice": 7189,
    "Ġapplaud": 7190,
    "dle": 7191,
    "Ġdelic": 7192,
    "Ġloops": 7193,
    "Ġshrinking": 7194,
    "Ġrh": 7195,
    "ap": 7196,
    "Ġsquirted": 7197,
    "Ġcombed": 7198,
    "Ġshimmering": 7199,
    "Ġadmiring": 7200,
    "Ġtips": 7201,
    "ring": 7202,
    "ĠĊĠ": 7203,
    "Ġnearest": 7204,
    "ĠRobert": 7205,
    "lle": 7206,
    "Ġsuperheroes": 7207,
    "Ġstorekeeper": 7208,
    "ĠZip": 7209,
    "Ġpush": 7210,
    "ee": 7211,
    "keepers": 7212,
    "ator": 7213,
    "Ġstep": 7214,
    "®": 7215,
    "Ġexp": 7216,
    "Ġdishes": 7217,
    "Ġtrue": 7218,
    "Ġteased": 7219,
    "Ġstamped": 7220,
    "Ġcupboard": 7221,
    "Ġcocoon": 7222,
    "ag": 7223,
    "medi": 7224,
    "arning": 7225,
    "Ġairport": 7226,
    "Ġhisses": 7227,
    "iger": 7228,
    "Ġpulled": 7229,
    "stairs": 7230,
    "Ġnecks": 7231,
    "Ġfaster": 7232,
    "Ġrewarded": 7233,
    "Ġcommun": 7234,
    "Ġgoose": 7235,
    "f": 7236,
    "utter": 7237,
    "ĠRicky": 7238,
    "Ġcheat": 7239,
    "Ġvine": 7240,
    "Ġcoming": 7241,
    "Ġapology": 7242,
    "ĠJu": 7243,
    "Sally": 7244,
    "Ġhurts": 7245,
    "Ġclum": 7246,
    "reed": 7247,
    "ied": 7248,
    "Ġdin": 7249,
    "Ġspike": 7250,
    "Ġlevers": 7251,
    "Ġyour": 7252,
    "Ġsunf": 7253,
    "Ġstepping": 7254,
    "Play": 7255,
    "Ġsend": 7256,
    "Ġfoods": 7257,
    "Ġhooks": 7258,
    "Ġchicken": 7259,
    "erly": 7260,
    "Ġvisits": 7261,
    "Ġcorner": 7262,
    "Ġwoke": 7263,
    "lephant": 7264,
    "Ġbasketball": 7265,
    "ĠTeddy": 7266,
    "ĠEllie": 7267,
    "Ġreal": 7268,
    "Ġtrain": 7269,
    "Ġideas": 7270,
    "oph": 7271,
    "Ġvent": 7272,
    "Ġbanana": 7273,
    "Ġrecogn": 7274,
    "Ġquarreling": 7275,
    "avid": 7276,
    "iti": 7277,
    "Ġaddress": 7278,
    "en": 7279,
    "way": 7280,
    "Uncle": 7281,
    "Ġponies": 7282,
    "edding": 7283,
    "Ġforgiven": 7284,
    "ľ": 7285,
    "ippy": 7286,
    "Ġitself": 7287,
    "asers": 7288,
    "Ġpicnics": 7289,
    "k": 7290,
    "Ġquack": 7291,
    "lew": 7292,
    "Ġsqueezes": 7293,
    "Ġbike": 7294,
    "Ġfeathers": 7295,
    "Ġworks": 7296,
    "Ġbirdc": 7297,
    "Ġfingers": 7298,
    "Ġneedles": 7299,
    "ĠBunny": 7300,
    "Pandy": 7301,
    "Ġgas": 7302,
    "Ġpract": 7303,
    "Ġlaught": 7304,
    "Nice": 7305,
    "Ġsour": 7306,
    "Ġtutor": 7307,
    "Ġrepeating": 7308,
    "Ġwalk": 7309,
    "Ġtem": 7310,
    "Qu": 7311,
    "Ġotter": 7312,
    "irr": 7313,
    "Ġrealised": 7314,
    "Ġtummy": 7315,
    "Ġbrace": 7316,
    "Ġcelebrated": 7317,
    "Ġairpl": 7318,
    "ĠRia": 7319,
    "Pinky": 7320,
    "stop": 7321,
    "ĠAshley": 7322,
    "Ġjars": 7323,
    "Ġpretend": 7324,
    "though": 7325,
    "Ġyoun": 7326,
    ".\"": 7327,
    "Ġsqu": 7328,
    "Ġconvin": 7329,
    "ĠWiggly": 7330,
    "Ġstamps": 7331,
    "Ġdinosaur": 7332,
    "iddle": 7333,
    "Ġfailed": 7334,
    "Ġgaz": 7335,
    "Ġexper": 7336,
    "Ġshinier": 7337,
    "izza": 7338,
    "Ġbulbs": 7339,
    "Ġshouted": 7340,
    "Ġtub": 7341,
    "bers": 7342,
    "ress": 7343,
    "Ġmaker": 7344,
    "Ġplayd": 7345,
    "Ġart": 7346,
    "Yum": 7347,
    "isten": 7348,
    "Ġslipp": 7349,
    "Ġemergen": 7350,
    "Ġhelpers": 7351,
    "Ġidea": 7352,
    "ations": 7353,
    "Is": 7354,
    "Ġincre": 7355,
    "Ġexplor": 7356,
    "Ġenvironment": 7357,
    "Ġstay": 7358,
    "ĠLe": 7359,
    "Choo": 7360,
    "ately": 7361,
    "Ġbehind": 7362,
    "Ġzooms": 7363,
    "Ġwisely": 7364,
    "Ġby": 7365,
    "aug": 7366,
    "ape": 7367,
    "ully": 7368,
    "ĠAbigail": 7369,
    "Ġ5": 7370,
    "ossible": 7371,
    "umbled": 7372,
    "Ġniece": 7373,
    "Ġlull": 7374,
    "Ġmagic": 7375,
    "Ġcars": 7376,
    "Ġyelling": 7377,
    "Ġcabin": 7378,
    "Ġstyle": 7379,
    "Ġwhisp": 7380,
    "ĠNice": 7381,
    "box": 7382,
    "ica": 7383,
    "freeze": 7384,
    "Ġstudent": 7385,
    "ĠJacob": 7386,
    "Mat": 7387,
    "rigued": 7388,
    "Ġremoved": 7389,
    "par": 7390,
    "Ġparticularly": 7391,
    "Ġteles": 7392,
    "Ġmustache": 7393,
    "ners": 7394,
    "Ġmassage": 7395,
    "urpr": 7396,
    "Ġbicycle": 7397,
    "Ġmouse": 7398,
    "ungle": 7399,
    "Ġlights": 7400,
    "Ġnewsp": 7401,
    "Ġgrocery": 7402,
    "Dolly": 7403,
    "Ġdirections": 7404,
    "Ġmen": 7405,
    "Ġflapping": 7406,
    "irl": 7407,
    "Ġcaulif": 7408,
    "bie": 7409,
    "Ġbench": 7410,
    "ĠNext": 7411,
    "Ġsan": 7412,
    "solut": 7413,
    "Sw": 7414,
    "Ġmesmerized": 7415,
    "ĠGrandpa": 7416,
    "Ġstretches": 7417,
    "Ġorganizing": 7418,
    "zing": 7419,
    "Ġthick": 7420,
    "Ġfe": 7421,
    "'.\"": 7422,
    "Ġship": 7423,
    "Ġremain": 7424,
    "Ġstands": 7425,
    "Ġhello": 7426,
    "ĠTrue": 7427,
    "Ġmiss": 7428,
    "Ġgrassho": 7429,
    "ĊĠ": 7430,
    "ffe": 7431,
    "Ġmill": 7432,
    "iona": 7433,
    "Ġpeacock": 7434,
    "Shh": 7435,
    "Ġstaring": 7436,
    "Dave": 7437,
    "Ġdod": 7438,
    "Ġcheckout": 7439,
    "Ġsights": 7440,
    "Ġhealing": 7441,
    "Ġrestaurant": 7442,
    "Many": 7443,
    "Ġskull": 7444,
    "Ġinspired": 7445,
    "Ġroot": 7446,
    "Ġwondered": 7447,
    "os": 7448,
    "ive": 7449,
    "ĠGrumpy": 7450,
    "aisy": 7451,
    "Ġaware": 7452,
    "Ġdid": 7453,
    "Ġrolls": 7454,
    "Ġsway": 7455,
    "Ġlot": 7456,
    "Ġdamage": 7457,
    "ady": 7458,
    "ĠFrog": 7459,
    "ĠSocky": 7460,
    "Ġdive": 7461,
    "Ġmother": 7462,
    "ceed": 7463,
    "ettle": 7464,
    "Ġvalley": 7465,
    "Ġforget": 7466,
    "Ġchain": 7467,
    "nd": 7468,
    "Y": 7469,
    "Ġz": 7470,
    "Ġrug": 7471,
    "Ġaway": 7472,
    "ashing": 7473,
    "Ġtoss": 7474,
    "Ġpole": 7475,
    "ots": 7476,
    "ions": 7477,
    "ĠHere": 7478,
    "aste": 7479,
    "ĠLuckily": 7480,
    "Ġanticipation": 7481,
    "Ġbooks": 7482,
    "Ġsimple": 7483,
    "ĠSky": 7484,
    "Ġaudience": 7485,
    "Ġarrest": 7486,
    "Æ": 7487,
    "unt": 7488,
    "Ġmedic": 7489,
    "usan": 7490,
    "ĠPiggy": 7491,
    "Ġdesk": 7492,
    "Ġunlock": 7493,
    "Ġgri": 7494,
    "erable": 7495,
    "Ġwatching": 7496,
    "Ġmissing": 7497,
    "Dog": 7498,
    "ĠJust": 7499,
    "Ġamazement": 7500,
    "Ġorders": 7501,
    "Ġlollipop": 7502,
    "ĠSqueak": 7503,
    "Ġsail": 7504,
    "Ġground": 7505,
    "Ġhonk": 7506,
    "istory": 7507,
    "Ġencouraged": 7508,
    "Jamie": 7509,
    "Ġsuggestion": 7510,
    "Ġsooner": 7511,
    "Ġsending": 7512,
    "Ġcompetitive": 7513,
    "Ġair": 7514,
    "Ġscales": 7515,
    "Clara": 7516,
    "ley": 7517,
    "Ġmeal": 7518,
    "Ġfix": 7519,
    "Ġcountry": 7520,
    "ĠSteven": 7521,
    "Ă": 7522,
    "Ġlost": 7523,
    "cy": 7524,
    "Ġthough": 7525,
    "Ġbreath": 7526,
    "Ġnicely": 7527,
    "ax": 7528,
    "Ġdirtier": 7529,
    "ĠRuff": 7530,
    "Ġtraffic": 7531,
    "Ġmany": 7532,
    "imon": 7533,
    "uesday": 7534,
    "Ġbrilliant": 7535,
    "Ġhaving": 7536,
    "Ġpark": 7537,
    "Ġmuffins": 7538,
    "Ġspeaks": 7539,
    "Ġolives": 7540,
    "Ġluck": 7541,
    "ined": 7542,
    "Ġking": 7543,
    "ĠJoey": 7544,
    "ĠBingo": 7545,
    "Ġtrave": 7546,
    "´": 7547,
    "Ġsuck": 7548,
    "ĠMix": 7549,
    "Ġing": 7550,
    "Ġbelly": 7551,
    "Ġpeep": 7552,
    "Ġmine": 7553,
    "Ġgum": 7554,
    "Ġobserved": 7555,
    "Ġrobin": 7556,
    "Ġdangerous": 7557,
    "Ġdes": 7558,
    "Ġlose": 7559,
    "Anna": 7560,
    "ĠSharing": 7561,
    "Ġscratches": 7562,
    "Ġsmelling": 7563,
    "Ġdrawers": 7564,
    "Ġpengu": 7565,
    "Ġnetwork": 7566,
    "Ġconvinced": 7567,
    "Ġordinary": 7568,
    "Ġtunnels": 7569,
    "dd": 7570,
    "ards": 7571,
    "aint": 7572,
    "ĠThey": 7573,
    "oline": 7574,
    "Ġshrugged": 7575,
    "Ġreason": 7576,
    "Ġzero": 7577,
    "Ġlear": 7578,
    "Always": 7579,
    "Ġtongue": 7580,
    "Ġafraid": 7581,
    "Ġswords": 7582,
    "elling": 7583,
    "Ġside": 7584,
    "ually": 7585,
    "Ġsmallest": 7586,
    "Ġimpro": 7587,
    "Ġhunter": 7588,
    "Ġneeds": 7589,
    "Ġask": 7590,
    "Ġunique": 7591,
    "Ġra": 7592,
    "Ġrising": 7593,
    "ĠGo": 7594,
    "Ġscreamed": 7595,
    "oni": 7596,
    "quake": 7597,
    "Ġangrily": 7598,
    "Ġchallenges": 7599,
    "Ġcro": 7600,
    "Ġcollecting": 7601,
    "Ġsack": 7602,
    "Ġbend": 7603,
    "cle": 7604,
    "Ġmon": 7605,
    "Ġavo": 7606,
    "Ġrelax": 7607,
    "Ġsnowballs": 7608,
    "Ġstation": 7609,
    "Ġrats": 7610,
    "Ġtough": 7611,
    "zed": 7612,
    "ĠRosie": 7613,
    "Ġhurricane": 7614,
    "Even": 7615,
    "iscuit": 7616,
    "ĠCD": 7617,
    "Ġmint": 7618,
    "Ġtrading": 7619,
    "mb": 7620,
    "Ġsurface": 7621,
    "ĠEverywhere": 7622,
    "Roar": 7623,
    "Ġmayor": 7624,
    "Ġbodies": 7625,
    "Ġdiscussing": 7626,
    "Ġcheated": 7627,
    "Ġflo": 7628,
    "Ġsteering": 7629,
    "Ġforgetting": 7630,
    "Ġenjoying": 7631,
    "ales": 7632,
    "Ġtrouble": 7633,
    "Ġbec": 7634,
    "Sp": 7635,
    "ĠIf": 7636,
    "Ġoven": 7637,
    "Ġforeshadow": 7638,
    "Ġjackets": 7639,
    "Ġfold": 7640,
    "Ġhunt": 7641,
    "Ġgrandparent": 7642,
    "aws": 7643,
    "ĠRed": 7644,
    "Ġresponse": 7645,
    "Ġpecked": 7646,
    "'re": 7647,
    "Ġplaytime": 7648,
    "Ġdived": 7649,
    "Ġstun": 7650,
    "Ġtrip": 7651,
    "rink": 7652,
    "ĠFle": 7653,
    "sie": 7654,
    "ĠElla": 7655,
    "Ġsil": 7656,
    "Ġinj": 7657,
    "Ġsticker": 7658,
    "Ġflower": 7659,
    "uc": 7660,
    "ŀ": 7661,
    "Ġtails": 7662,
    "Ġcluck": 7663,
    "Ġglowed": 7664,
    "Ġpirates": 7665,
    "aps": 7666,
    "Ġagreed": 7667,
    "Ġshower": 7668,
    "Pepper": 7669,
    "Ġpractice": 7670,
    "abbit": 7671,
    "Ġangel": 7672,
    "Ġruff": 7673,
    "Ġtrumpet": 7674,
    "tern": 7675,
    "Ġperm": 7676,
    "Ġprinting": 7677,
    "Ġyoungest": 7678,
    "Ġgiggled": 7679,
    "Ġcontain": 7680,
    "Ġcre": 7681,
    "Ġfamil": 7682,
    "Ġgroan": 7683,
    "Ġnot": 7684,
    "Ġcashier": 7685,
    "More": 7686,
    "ĠJulia": 7687,
    "Ġcomp": 7688,
    "ĠMarie": 7689,
    "Ġcreek": 7690,
    "Ġwanting": 7691,
    "Ġghost": 7692,
    "ĠRain": 7693,
    "ĠKip": 7694,
    "Ġmarshmallow": 7695,
    "uff": 7696,
    "Ó": 7697,
    "Ġhardly": 7698,
    "ife": 7699,
    "Ġbushes": 7700,
    "Ġcable": 7701,
    "Ġremember": 7702,
    "Ġbiggest": 7703,
    "Ġsisters": 7704,
    "ball": 7705,
    "Ġbumps": 7706,
    "Ġuse": 7707,
    "Ġbossy": 7708,
    "izzie": 7709,
    "ary": 7710,
    "Ġtonight": 7711,
    "lish": 7712,
    "âĢĿ.": 7713,
    "Ġig": 7714,
    "sess": 7715,
    "Ġbat": 7716,
    "ik": 7717,
    "Ġfreedom": 7718,
    "atient": 7719,
    "espite": 7720,
    "Ġraise": 7721,
    "Ġtouches": 7722,
    "dies": 7723,
    "Ġflashlight": 7724,
    "ently": 7725,
    "Ġprecious": 7726,
    "Ġbeans": 7727,
    "Ġpossible": 7728,
    "ĠUni": 7729,
    "Ġyawn": 7730,
    "Ġrelaxed": 7731,
    "L": 7732,
    "Ġcuri": 7733,
    "Ġwhimp": 7734,
    "Ġcookie": 7735,
    "Ġtold": 7736,
    "Ġglee": 7737,
    "Ġdif": 7738,
    "alph": 7739,
    "Ġtempting": 7740,
    "Ġblocks": 7741,
    "Ġhomes": 7742,
    "Ġstumbled": 7743,
    "ĠAlex": 7744,
    "Ġladybug": 7745,
    "Ġadmir": 7746,
    "ĠRex": 7747,
    "Ġoxygen": 7748,
    "Ġmixed": 7749,
    "So": 7750,
    "scape": 7751,
    "Try": 7752,
    "ĠHoppy": 7753,
    "Ġmama": 7754,
    "Ġmanaged": 7755,
    "Leo": 7756,
    "Ġscrub": 7757,
    "Ġbruises": 7758,
    "Ġclut": 7759,
    "Ġclosing": 7760,
    "Ġclapped": 7761,
    "Ġchildren": 7762,
    "cond": 7763,
    "Ġsho": 7764,
    "Ġfork": 7765,
    "Ġencourag": 7766,
    "ri": 7767,
    "Ġpistol": 7768,
    "Ġgives": 7769,
    "Ġtroph": 7770,
    "aisies": 7771,
    "ĠChip": 7772,
    "Ġstepped": 7773,
    "Ġglowing": 7774,
    "Ġdisg": 7775,
    "Ġenvel": 7776,
    "Ġmet": 7777,
    "coon": 7778,
    "ited": 7779,
    "Ring": 7780,
    "Chirpy": 7781,
    "Ġwanted": 7782,
    "Ġsafe": 7783,
    "Ġcomput": 7784,
    "Ġbeeh": 7785,
    "sed": 7786,
    "ĠSnap": 7787,
    "Ġaccident": 7788,
    "Ġcompeting": 7789,
    "izes": 7790,
    "Sleep": 7791,
    "Ġmor": 7792,
    "Ġtreasures": 7793,
    "Ġgive": 7794,
    "Ġsparkle": 7795,
    "Ġspit": 7796,
    "?": 7797,
    "Jim": 7798,
    "Ġteleph": 7799,
    "expected": 7800,
    "Ġcompleted": 7801,
    "Ġhandful": 7802,
    "ĠMany": 7803,
    "ĠFlappy": 7804,
    "Ġresponded": 7805,
    "Ġcurtains": 7806,
    "Em": 7807,
    "Ġtour": 7808,
    "Ġacorns": 7809,
    "Chicky": 7810,
    "ĠGrandma": 7811,
    "ł": 7812,
    "Ġstove": 7813,
    "ĠDare": 7814,
    "Ġunfamiliar": 7815,
    "Ġwhy": 7816,
    "Ġdisturb": 7817,
    "Ġsolving": 7818,
    "Ball": 7819,
    "·": 7820,
    "Ġshe": 7821,
    "Ġsome": 7822,
    "uring": 7823,
    "Ġsent": 7824,
    "Ġswooped": 7825,
    "Ġtummies": 7826,
    "Ġlady": 7827,
    "Ġsnaps": 7828,
    "ere": 7829,
    "Ġcheaper": 7830,
    "gg": 7831,
    "Moral": 7832,
    "Ġrainbows": 7833,
    "Ġmouths": 7834,
    "Ġlands": 7835,
    "Ġsquares": 7836,
    "Ġfear": 7837,
    "aghetti": 7838,
    "Ġhanding": 7839,
    "ĠRavi": 7840,
    "Ġappearance": 7841,
    "Ġsiblings": 7842,
    "Ġbrown": 7843,
    "Ġfist": 7844,
    "Ġskirt": 7845,
    "ht": 7846,
    "Ġstop": 7847,
    "Ġdel": 7848,
    "Ġclimbed": 7849,
    "Will": 7850,
    "board": 7851,
    "Ġscen": 7852,
    "Happy": 7853,
    "Ġsprays": 7854,
    "Ġreg": 7855,
    "Ġmop": 7856,
    "Mmm": 7857,
    "Ġsank": 7858,
    "gers": 7859,
    "Ġfarmer": 7860,
    "Ġglows": 7861,
    "ates": 7862,
    "ake": 7863,
    "Ġsight": 7864,
    "Ġbusiness": 7865,
    "Ġkangaroos": 7866,
    "illie": 7867,
    "Ġsunshine": 7868,
    "ĠDolly": 7869,
    "Ġ": 7870,
    "Ġpal": 7871,
    "Please": 7872,
    "ĠWater": 7873,
    "age": 7874,
    "Ġmeeting": 7875,
    "ĠWhale": 7876,
    "eb": 7877,
    "Ġseason": 7878,
    "ĠCammy": 7879,
    "ĠWise": 7880,
    "ying": 7881,
    "Yay": 7882,
    "Ġfreezing": 7883,
    "Ġshallow": 7884,
    "Ġdrag": 7885,
    "out": 7886,
    "Ġbump": 7887,
    "Ġsuffering": 7888,
    "Ġflock": 7889,
    "Ġtypes": 7890,
    "Meanwhile": 7891,
    "utor": 7892,
    "Ġhates": 7893,
    "Ġgoodness": 7894,
    "Ġbeh": 7895,
    "Trust": 7896,
    "Ġbacked": 7897,
    "Ġsaid": 7898,
    "Ġwal": 7899,
    "It": 7900,
    "Ġboy": 7901,
    "ff": 7902,
    "Ġcelebrating": 7903,
    "Ġdizzy": 7904,
    "Ġgap": 7905,
    "Ġcrawls": 7906,
    "Ġquestion": 7907,
    "Ġskeleton": 7908,
    "Ġworked": 7909,
    "Ġdisappointment": 7910,
    "how": 7911,
    "Ġcorrectly": 7912,
    "ĠPet": 7913,
    "ĠJenna": 7914,
    "Ġtravelling": 7915,
    "Ġcone": 7916,
    "uffin": 7917,
    "Ġclaws": 7918,
    "Ġcollected": 7919,
    "ire": 7920,
    "ĠHops": 7921,
    "Ġchocol": 7922,
    "Ġknot": 7923,
    "ugg": 7924,
    "shm": 7925,
    "Ġrunning": 7926,
    "ĠIcy": 7927,
    "Ġpipe": 7928,
    "ĠGill": 7929,
    "Playing": 7930,
    "bbed": 7931,
    "sity": 7932,
    "Ġroof": 7933,
    "Bad": 7934,
    "Ġblocked": 7935,
    "Ġpuzzled": 7936,
    "ĠLina": 7937,
    "Ġpolar": 7938,
    "jo": 7939,
    "Ġtricked": 7940,
    "mered": 7941,
    "Ġunknown": 7942,
    "Ġplay": 7943,
    "Ġsir": 7944,
    "à": 7945,
    "Ġperson": 7946,
    "Ġpastries": 7947,
    "ĠEverybody": 7948,
    "Ooh": 7949,
    "rian": 7950,
    "Fo": 7951,
    "Ġcoloured": 7952,
    "Ġhudd": 7953,
    "Ġcorn": 7954,
    "Ġfinishes": 7955,
    "Ġsnuck": 7956,
    "Ġforts": 7957,
    "istle": 7958,
    "ĠElsie": 7959,
    "Ġspill": 7960,
    "Ġvibrant": 7961,
    "Bear": 7962,
    "Ġkit": 7963,
    "Ġexc": 7964,
    "Ġgoat": 7965,
    "Days": 7966,
    "reat": 7967,
    "...": 7968,
    "bow": 7969,
    "Ġadding": 7970,
    "Ġpetals": 7971,
    "Ġtwink": 7972,
    "affes": 7973,
    "Ġposit": 7974,
    "¥": 7975,
    "Ġdaughter": 7976,
    "Ġlimes": 7977,
    "kn": 7978,
    "Ġslow": 7979,
    "Ġroll": 7980,
    "ĠPretty": 7981,
    "ĠOpen": 7982,
    "ood": 7983,
    "I": 7984,
    "Ġdri": 7985,
    "Ġknowing": 7986,
    "Ġrestored": 7987,
    "Ġwas": 7988,
    "isapp": 7989,
    "Ġrhythm": 7990,
    "Ġrelease": 7991,
    "Ġbegin": 7992,
    "Ġmattress": 7993,
    "Ĭ": 7994,
    "fere": 7995,
    "Finn": 7996,
    "Ġterrified": 7997,
    "ĠExcited": 7998,
    "Ġgathering": 7999,
    "Ġcomplained": 8000,
    "Ġtwisting": 8001,
    "ĠRo": 8002,
    "Ġlonger": 8003,
    "orm": 8004,
    "Ready": 8005,
    "Ġprove": 8006,
    "Ġthin": 8007,
    "Ġdigg": 8008,
    "ĠMilo": 8009,
    "Ġtube": 8010,
    "ĠGray": 8011,
    "atty": 8012,
    "Ġopport": 8013,
    "Ġcloses": 8014,
    "Ġje": 8015,
    "ls": 8016,
    "Ġtickled": 8017,
    "ĠWink": 8018,
    "Ġtree": 8019,
    "getable": 8020,
    "glasses": 8021,
    "ĠTess": 8022,
    "five": 8023,
    "htub": 8024,
    "anger": 8025,
    "ries": 8026,
    "Ġsill": 8027,
    "Ġfort": 8028,
    "alend": 8029,
    "Ġshould": 8030,
    "bu": 8031,
    "Ġmonkey": 8032,
    "Ġpastels": 8033,
    "line": 8034,
    "Ġwood": 8035,
    "Ġneighbor": 8036,
    "ato": 8037,
    "Ġfilthy": 8038,
    "Ġknit": 8039,
    "Ġtwirling": 8040,
    "ĠLung": 8041,
    "Ġben": 8042,
    "Ġcloudy": 8043,
    "Ġwra": 8044,
    "Cl": 8045,
    "Ġwonderful": 8046,
    "Ġwa": 8047,
    "Ġwinked": 8048,
    "Ġharb": 8049,
    "Ġbedtime": 8050,
    "Daisy": 8051,
    "um": 8052,
    "ugged": 8053,
    "Ġposs": 8054,
    "ĠHello": 8055,
    "Ġpeeled": 8056,
    "ĠDragon": 8057,
    "Ġcelery": 8058,
    "Ġsteer": 8059,
    "Ġenormous": 8060,
    "Ġplease": 8061,
    "Ġstops": 8062,
    "Ġmystery": 8063,
    "Ġmessage": 8064,
    "A": 8065,
    "lay": 8066,
    "Ġvac": 8067,
    "coa": 8068,
    "Ġfa": 8069,
    "ĠLiz": 8070,
    "Ġsupp": 8071,
    "ĠSteve": 8072,
    "Ġtrack": 8073,
    "inary": 8074,
    "OO": 8075,
    "Ġplain": 8076,
    "Ġperform": 8077,
    "w": 8078,
    "Ġattitude": 8079,
    "Ġnut": 8080,
    "Ġharsh": 8081,
    "Ġowns": 8082,
    "Ġforg": 8083,
    "Ġscatter": 8084,
    "Ġwhispers": 8085,
    "eorge": 8086,
    "ittle": 8087,
    "Ġyawning": 8088,
    "Bo": 8089,
    "Ġgem": 8090,
    "Ġhor": 8091,
    "The": 8092,
    "ummy": 8093,
    "Ġadvent": 8094,
    "Ġcoughed": 8095,
    "Ġcommon": 8096,
    "ĠAnimal": 8097,
    "Ġstable": 8098,
    "rise": 8099,
    "Ġtools": 8100,
    "Ġawful": 8101,
    "Ġblond": 8102,
    "Ġberries": 8103,
    "Ġhungry": 8104,
    "ĠSpike": 8105,
    "ċ": 8106,
    "Ġhang": 8107,
    "Ġjoined": 8108,
    "berry": 8109,
    "Ġpedal": 8110,
    "laire": 8111,
    "Ġmosquitoes": 8112,
    "ong": 8113,
    "ĠTurtle": 8114,
    "Ġmaybe": 8115,
    "zoom": 8116,
    "Ġbug": 8117,
    "endy": 8118,
    "Ġwadd": 8119,
    "Ġjack": 8120,
    "Ġprayer": 8121,
    "Ġclever": 8122,
    "ning": 8123,
    "iver": 8124,
    "Ġdelivered": 8125,
    "Ğ": 8126,
    "Ġpeaceful": 8127,
    "Ġribbons": 8128,
    "adabra": 8129,
    "Ġscri": 8130,
    "Ġpackage": 8131,
    "Buzz": 8132,
    "Ġeast": 8133,
    "ising": 8134,
    "kin": 8135,
    "Ġslides": 8136,
    "uzz": 8137,
    "Ġclapping": 8138,
    "Ġfirm": 8139,
    "Ġmeet": 8140,
    "Ġsupport": 8141,
    "igail": 8142,
    "Ġmummy": 8143,
    "Ġpreparing": 8144,
    "pril": 8145,
    "Ġheroes": 8146,
    "Ġdisappear": 8147,
    "ctory": 8148,
    "Ġplaced": 8149,
    "ĠRolly": 8150,
    "noon": 8151,
    "Ġbeds": 8152,
    "Ġchoose": 8153,
    "Ġdream": 8154,
    "Ġtravels": 8155,
    "Ġglimmering": 8156,
    "Ġfat": 8157,
    "ednesday": 8158,
    "Ġavocados": 8159,
    "Ġropes": 8160,
    "Ġfastest": 8161,
    "Ġbother": 8162,
    "ĠBubu": 8163,
    "ĠBe": 8164,
    "Ġhoriz": 8165,
    "Ġcracked": 8166,
    "Ġswo": 8167,
    "Ġwipes": 8168,
    "Ġsobbing": 8169,
    "Ġcompetit": 8170,
    "Ġimaginations": 8171,
    "Ġpanicked": 8172,
    "Ġstrang": 8173,
    "Ġraccoon": 8174,
    "fall": 8175,
    "Ġsnorted": 8176,
    "Ġit": 8177,
    "Ġcrackers": 8178,
    "ct": 8179,
    "ture": 8180,
    "Ġdiving": 8181,
    "Ġimportance": 8182,
    "Ġperf": 8183,
    "antha": 8184,
    "ĠMar": 8185,
    "Ġintrod": 8186,
    "Ġeng": 8187,
    "â": 8188,
    "rmomet": 8189,
    "Ġcraft": 8190,
    "Ġwished": 8191,
    "ĠAre": 8192,
    "Ġshout": 8193,
    "Ġgrowl": 8194,
    "Ġdeeper": 8195,
    "Robbie": 8196,
    "Thank": 8197,
    "ath": 8198,
    "ain": 8199,
    "rious": 8200,
    "Sure": 8201,
    "Ġkitchen": 8202,
    "otten": 8203,
    "Ġthan": 8204,
    "Ġnap": 8205,
    "ete": 8206,
    "Ġdarling": 8207,
    "Ġfisher": 8208,
    "ding": 8209,
    "ĠSpirit": 8210,
    "Ġspills": 8211,
    "Ġcrumb": 8212,
    "Ġincredible": 8213,
    "Ġeventually": 8214,
    "Ġboots": 8215,
    "eth": 8216,
    "Ġfeel": 8217,
    "amed": 8218,
    "ope": 8219,
    "!\".": 8220,
    "Ġfootsteps": 8221,
    "urious": 8222,
    "ĠReddy": 8223,
    "Ġuniverse": 8224,
    "ibly": 8225,
    "Jen": 8226,
    "Ġconfl": 8227,
    "Milly": 8228,
    "Ġsadness": 8229,
    "Ġreach": 8230,
    "Stop": 8231,
    "Ġornaments": 8232,
    "land": 8233,
    "µ": 8234,
    "ext": 8235,
    "ĠTriangle": 8236,
    "ĠMake": 8237,
    "If": 8238,
    "Ġcrown": 8239,
    "Ġboil": 8240,
    "Their": 8241,
    "Ġsister": 8242,
    "Daddy": 8243,
    "Ġthorns": 8244,
    "Ġpe": 8245,
    "Ġoffered": 8246,
    "Ġdemand": 8247,
    "Ġvict": 8248,
    "Ġvet": 8249,
    "asha": 8250,
    "Ġswing": 8251,
    "T": 8252,
    "Ġveterinarian": 8253,
    "Ġlap": 8254,
    "Ġrocking": 8255,
    "Ġcans": 8256,
    "Ġscrew": 8257,
    "Both": 8258,
    "Ġscale": 8259,
    "ĠLet": 8260,
    "Ġsquinted": 8261,
    "ĠNutty": 8262,
    "Ġobserve": 8263,
    "avi": 8264,
    "uel": 8265,
    "Ġremembers": 8266,
    "Ġresist": 8267,
    "Ġteac": 8268,
    "Ġgracefully": 8269,
    "Ġbalancing": 8270,
    "Ġtunes": 8271,
    "Ġadmire": 8272,
    "Ew": 8273,
    "ĠSharp": 8274,
    "or": 8275,
    "Ġmattered": 8276,
    "Ġshrimp": 8277,
    "Ġwindowsill": 8278,
    "Ġface": 8279,
    "Ġfurt": 8280,
    "uly": 8281,
    "Zoe": 8282,
    "ĠWooly": 8283,
    "Ġsneezing": 8284,
    "Ġway": 8285,
    "Ġleaves": 8286,
    "Hannah": 8287,
    "Í": 8288,
    "be": 8289,
    "Ġheads": 8290,
    "ĝ": 8291,
    "Ġtong": 8292,
    "ĠLizzy": 8293,
    "Ġbest": 8294,
    "Ġgood": 8295,
    "Ġseparating": 8296,
    "ushed": 8297,
    "Ha": 8298,
    "ld": 8299,
    "Sorry": 8300,
    "ĠWilliam": 8301,
    "Ġbur": 8302,
    "Ġyesterday": 8303,
    "enty": 8304,
    "Ġmasks": 8305,
    "Ġreef": 8306,
    "Ġward": 8307,
    "Ġsmelled": 8308,
    "Ġtor": 8309,
    "Ġcalmed": 8310,
    "Ġbase": 8311,
    "Ġbreaths": 8312,
    "ĠCan": 8313,
    "Ġtast": 8314,
    "Ġmy": 8315,
    "Ġbeaver": 8316,
    "Ġexpected": 8317,
    "Ġheels": 8318,
    "Ġappear": 8319,
    "iff": 8320,
    "red": 8321,
    "ĠTell": 8322,
    "wh": 8323,
    "ĠTaking": 8324,
    "Ġrags": 8325,
    "Ġrobe": 8326,
    "Ġlifted": 8327,
    "ĠTwist": 8328,
    "Ġsimp": 8329,
    "ival": 8330,
    "bang": 8331,
    "Ġwaff": 8332,
    "les": 8333,
    "Ġbreaking": 8334,
    "Ġcreating": 8335,
    "Ġpedaled": 8336,
    "Ġbatteries": 8337,
    "Ġchance": 8338,
    "Ġfrosting": 8339,
    "ĠUse": 8340,
    "Ġenviron": 8341,
    "Ġsculpture": 8342,
    "Ġfever": 8343,
    "Ġexpert": 8344,
    "Tr": 8345,
    "Ġsmile": 8346,
    "ĠMag": 8347,
    "Ġpoke": 8348,
    "Ġaeroplane": 8349,
    "ĠFroggy": 8350,
    "Ġsnowman": 8351,
    "Ġcharming": 8352,
    "ifer": 8353,
    "Ġpass": 8354,
    "Ġlowered": 8355,
    "Ġarri": 8356,
    "Ġembarrass": 8357,
    "arrow": 8358,
    "aze": 8359,
    "ĠWednesday": 8360,
    "Ġrumble": 8361,
    "Ġsandwich": 8362,
    "ict": 8363,
    "Ġthrow": 8364,
    "Ġeagle": 8365,
    "Ġreleased": 8366,
    "ud": 8367,
    "Ġanx": 8368,
    "Ġhonked": 8369,
    "Ġthanking": 8370,
    "agine": 8371,
    "emy": 8372,
    "Ġsear": 8373,
    "Ġbent": 8374,
    "Ġash": 8375,
    "Ġcuc": 8376,
    "Ġviolin": 8377,
    "Ġoutdoors": 8378,
    "Ġpleasure": 8379,
    "Ġtap": 8380,
    "Ġsaw": 8381,
    "Ġmasterpiece": 8382,
    "Ġplays": 8383,
    "Ġwings": 8384,
    "Ü": 8385,
    "Ġbikes": 8386,
    "Ġloyal": 8387,
    "ĠJolly": 8388,
    "uppy": 8389,
    "Ġthe": 8390,
    "ĠYour": 8391,
    "ĠGus": 8392,
    "Ġtying": 8393,
    "Ġtroll": 8394,
    "Ġupstairs": 8395,
    "Ġsandw": 8396,
    "Ġkeys": 8397,
    "Ġsh": 8398,
    "ne": 8399,
    "Ġfamiliar": 8400,
    "Ġchimney": 8401,
    "Ġseals": 8402,
    "Ġhissed": 8403,
    "Ġsol": 8404,
    "Ġspaghetti": 8405,
    "ĠMic": 8406,
    "arm": 8407,
    "ĠBert": 8408,
    "Ġgiggling": 8409,
    "Ġpaused": 8410,
    "Ġsalt": 8411,
    "å": 8412,
    "Ġimpressive": 8413,
    "Ġforests": 8414,
    "Ġspoil": 8415,
    "Ġlettuce": 8416,
    "Ġpersistence": 8417,
    "Ġpecks": 8418,
    "Ġnicest": 8419,
    "Ġbra": 8420,
    "Ġscoop": 8421,
    "Ġbeloved": 8422,
    "ected": 8423,
    "ffee": 8424,
    "ď": 8425,
    "enny": 8426,
    "ĠTed": 8427,
    "Ġpainted": 8428,
    "Ġhour": 8429,
    "Ġgathered": 8430,
    "Ġlife": 8431,
    "ĠHeli": 8432,
    "Ġrisk": 8433,
    "ĠFrankie": 8434,
    "Ġexpl": 8435,
    "Ġshr": 8436,
    "Ġsurroundings": 8437,
    "Ġshed": 8438,
    "Ġroom": 8439,
    "rosc": 8440,
    "Ġnaps": 8441,
    "Lola": 8442,
    "Ġthinks": 8443,
    "Ġstarts": 8444,
    "go": 8445,
    "ĠGoodbye": 8446,
    "Ġhoo": 8447,
    "Ġmunched": 8448,
    "Ġgrass": 8449,
    "used": 8450,
    "ar": 8451,
    "Ġvictory": 8452,
    "%": 8453,
    "ler": 8454,
    "Ġarg": 8455,
    "Ġdancing": 8456,
    "3": 8457,
    "fe": 8458,
    "Ġclose": 8459,
    "phant": 8460,
    "Ġmuscle": 8461,
    "Ġprotecting": 8462,
    "Ġdecor": 8463,
    "Ġpearl": 8464,
    "Ġparked": 8465,
    "Excited": 8466,
    "Ġstolen": 8467,
    "ĠAc": 8468,
    "udden": 8469,
    "Ġneighbours": 8470,
    "onest": 8471,
    "Ġanswering": 8472,
    "Ġstatue": 8473,
    "Grandma": 8474,
    "ĠSo": 8475,
    "romise": 8476,
    "osity": 8477,
    "Ġsorry": 8478,
    "Ġbuilder": 8479,
    "hen": 8480,
    "Ġstains": 8481,
    "Ġintroduced": 8482,
    "Ġproper": 8483,
    "render": 8484,
    "oor": 8485,
    "«": 8486,
    "ello": 8487,
    "Ġvel": 8488,
    "Ġmatey": 8489,
    "Ġdrive": 8490,
    "Ġvanish": 8491,
    "Ġjournal": 8492,
    "ges": 8493,
    "Ġtighter": 8494,
    "Ġpaper": 8495,
    "illed": 8496,
    "Ġbecomes": 8497,
    "ĠStretch": 8498,
    "Ġmight": 8499,
    "Ġcourage": 8500,
    "Ġpeaches": 8501,
    "Ġtower": 8502,
    "Ġlotion": 8503,
    "ĠAlf": 8504,
    "Ġmane": 8505,
    "Ġcuriously": 8506,
    "verse": 8507,
    "Ġbuckle": 8508,
    "Ġproblems": 8509,
    "Ġneighbour": 8510,
    "Ġcoral": 8511,
    "Ġspots": 8512,
    "Ġlaying": 8513,
    "Ġsurvive": 8514,
    "Ġencountered": 8515,
    "Ġsoap": 8516,
    "Ġhedge": 8517,
    "Ġhave": 8518,
    "ĠReady": 8519,
    "Ġchanging": 8520,
    "Ġmember": 8521,
    "Ġknives": 8522,
    "Ġev": 8523,
    "ait": 8524,
    "Ġwigg": 8525,
    "Rob": 8526,
    "ird": 8527,
    "ĠDon": 8528,
    "ae": 8529,
    "Ġskin": 8530,
    "Ġtidy": 8531,
    "Ġbasement": 8532,
    "...\"": 8533,
    "Ġdir": 8534,
    "Ġbut": 8535,
    "Ġsnatched": 8536,
    "ĠU": 8537,
    "etch": 8538,
    "Ġkissed": 8539,
    "Ġcrowd": 8540,
    "ix": 8541,
    "ĠHe": 8542,
    "Catch": 8543,
    "af": 8544,
    "Before": 8545,
    "Ġlions": 8546,
    "Ġglass": 8547,
    "Ġshoot": 8548,
    "Ġsharks": 8549,
    "Ġcages": 8550,
    "itting": 8551,
    "izz": 8552,
    "7": 8553,
    "Ġdreaming": 8554,
    "ĠSmith": 8555,
    "Ġgroceries": 8556,
    "Ġscrubbed": 8557,
    "Ġhonking": 8558,
    "Ġwork": 8559,
    "ĠMagic": 8560,
    "Ġimage": 8561,
    "Ġarguing": 8562,
    "lower": 8563,
    "Ġpumpkin": 8564,
    "î": 8565,
    "Ġexplains": 8566,
    "Ġsquishy": 8567,
    "ĠBeep": 8568,
    "Ġcolours": 8569,
    "Ġhorizon": 8570,
    "Ġwreck": 8571,
    "Ġsunscreen": 8572,
    "Ġkicking": 8573,
    "?âĢĿ.": 8574,
    "Ġsound": 8575,
    "lebr": 8576,
    "Ġsniffled": 8577,
    "Ġdrove": 8578,
    "Ġsub": 8579,
    "ani": 8580,
    "Ġhorse": 8581,
    "Ġson": 8582,
    "Ġvisit": 8583,
    "Ġdependable": 8584,
    "Ġgloves": 8585,
    "Ġnear": 8586,
    "Ġsafari": 8587,
    "Ġrotting": 8588,
    "Ġfrowned": 8589,
    "issors": 8590,
    "Ġbowl": 8591,
    "ittens": 8592,
    "Ġtravelled": 8593,
    "Ġstuff": 8594,
    "key": 8595,
    "une": 8596,
    "Ġweighs": 8597,
    "David": 8598,
    "Ġsucceed": 8599,
    "Ġbelongings": 8600,
    "Ġmarshmallows": 8601,
    "Ġcereal": 8602,
    "Good": 8603,
    "Ġyum": 8604,
    "Lilly": 8605,
    "During": 8606,
    "Ġrespon": 8607,
    "Ġbears": 8608,
    "ĠBoth": 8609,
    "Ġcrashed": 8610,
    "emma": 8611,
    "ror": 8612,
    "ject": 8613,
    "cing": 8614,
    "Ġsmartest": 8615,
    "ĠJames": 8616,
    "yler": 8617,
    "Ġguide": 8618,
    "Suddenly": 8619,
    "Ġbounced": 8620,
    "Ġshows": 8621,
    "ĠStitch": 8622,
    "all": 8623,
    "ĠEventually": 8624,
    "Ġheaven": 8625,
    "Ġbuying": 8626,
    "Ġbri": 8627,
    "Ġpatterns": 8628,
    "Ġlogs": 8629,
    "Zoom": 8630,
    "reg": 8631,
    "ĠFred": 8632,
    "Ġpunishment": 8633,
    "Ġfluttering": 8634,
    "ĠBehind": 8635,
    "Ġduckling": 8636,
    "Ġcaution": 8637,
    "Ġcontinued": 8638,
    "ĠBoom": 8639,
    "ĠThis": 8640,
    "Ġsneeze": 8641,
    "Abigail": 8642,
    "Ġattacked": 8643,
    "Ġdoes": 8644,
    "Ġpress": 8645,
    "Ġseat": 8646,
    "ĠThanks": 8647,
    "Ġracer": 8648,
    "Jacob": 8649,
    "!'.": 8650,
    "Ġprincess": 8651,
    "Ġr": 8652,
    "ado": 8653,
    "Ġpears": 8654,
    "ccol": 8655,
    "erm": 8656,
    "ĠLightning": 8657,
    "Ġlanguages": 8658,
    "ĠSoon": 8659,
    "Ġeverywhere": 8660,
    "ĠLola": 8661,
    "Ġsens": 8662,
    "Ġham": 8663,
    "bbled": 8664,
    "ork": 8665,
    "ĠMichael": 8666,
    "Ġneighb": 8667,
    "ĠOver": 8668,
    "Ġjogging": 8669,
    "lled": 8670,
    "eat": 8671,
    "Ġgrocer": 8672,
    "Ê": 8673,
    "Ġbreathe": 8674,
    "Ġwobble": 8675,
    "Ġonwards": 8676,
    "Ġcreak": 8677,
    "Tweet": 8678,
    "amie": 8679,
    "Ġcrickets": 8680,
    "Ġwaited": 8681,
    "Ġneeded": 8682,
    "ons": 8683,
    "Ġsweeties": 8684,
    "ĠSpidey": 8685,
    "Ġwarmer": 8686,
    "Ġnoticing": 8687,
    "Ġjump": 8688,
    "Ġignored": 8689,
    "Ġgrandmother": 8690,
    "Ã": 8691,
    "Fish": 8692,
    "Ġquestioned": 8693,
    "eer": 8694,
    "Jo": 8695,
    "stick": 8696,
    "Ġdet": 8697,
    "Ġhaven": 8698,
    "nt": 8699,
    "Ġfelt": 8700,
    "Ġtroubled": 8701,
    "oof": 8702,
    "Ġwipe": 8703,
    "Ġcooler": 8704,
    "Ġfoggy": 8705,
    "Ġmagnifying": 8706,
    "ĠEven": 8707,
    "Ġknee": 8708,
    "kelly": 8709,
    "ĠTears": 8710,
    "ine": 8711,
    "Ġitchy": 8712,
    "Ġur": 8713,
    "ĠGrace": 8714,
    "Ġgu": 8715,
    "Ġnibb": 8716,
    "Ġintellig": 8717,
    "Ġsmo": 8718,
    "Ġwagging": 8719,
    "We": 8720,
    "Ġvisiting": 8721,
    "Ġthankful": 8722,
    "Ġbeg": 8723,
    "Ġsweetheart": 8724,
    "Never": 8725,
    "hn": 8726,
    "|": 8727,
    "Ġspies": 8728,
    "Ġbinocular": 8729,
    "Ġfirefighters": 8730,
    "Ġowl": 8731,
    "Ġloose": 8732,
    "right": 8733,
    "ĠSw": 8734,
    "Ġsharp": 8735,
    "Ġstuck": 8736,
    "Ġlibrarian": 8737,
    "Ġrules": 8738,
    "Ġartwork": 8739,
    "Hope": 8740,
    "pl": 8741,
    "ĠFly": 8742,
    "Ġcausing": 8743,
    "Pip": 8744,
    "Ġcried": 8745,
    "ĠSure": 8746,
    "Ġmerry": 8747,
    "Ġcrow": 8748,
    "row": 8749,
    "Ġcooked": 8750,
    "ĠBuzz": 8751,
    "yond": 8752,
    "Ġvide": 8753,
    "ph": 8754,
    "Ġforest": 8755,
    "Ġsick": 8756,
    "ĠSu": 8757,
    "Ġstretched": 8758,
    "ĠBenny": 8759,
    "Ġrocket": 8760,
    "ĠFinny": 8761,
    "Ġdestroyed": 8762,
    "found": 8763,
    "ora": 8764,
    "lers": 8765,
    "Ġcauliflower": 8766,
    "Ġtarget": 8767,
    "Ġsprinkles": 8768,
    "Ġmoney": 8769,
    "Hello": 8770,
    "ĠPink": 8771,
    "Ġcries": 8772,
    "Ġsplashing": 8773,
    "Ġban": 8774,
    "Ġherbs": 8775,
    "Ġhome": 8776,
    "Ġburns": 8777,
    "ĠLou": 8778,
    "Ġstruggling": 8779,
    "Ġasked": 8780,
    "Ġmag": 8781,
    "Ġstirs": 8782,
    "Ġdisco": 8783,
    "ly": 8784,
    "Jeff": 8785,
    "Ġharbor": 8786,
    "met": 8787,
    "Ġsplit": 8788,
    "Ġpast": 8789,
    "Ġx": 8790,
    "Ġaston": 8791,
    "sn": 8792,
    "Ġchill": 8793,
    "Ġsits": 8794,
    "Ġspells": 8795,
    "Ġtodd": 8796,
    "Ġfan": 8797,
    "Ö": 8798,
    "Ġtalent": 8799,
    "Ġcaw": 8800,
    "ĠPeep": 8801,
    "bo": 8802,
    "Ġsends": 8803,
    "Ġnightmare": 8804,
    "Ġlittle": 8805,
    "Ġonward": 8806,
    "ter": 8807,
    "entr": 8808,
    "Ġpies": 8809,
    "Ġrow": 8810,
    "ĠLater": 8811,
    "ĠWin": 8812,
    "gy": 8813,
    "Ġseem": 8814,
    "ormous": 8815,
    "Ġeld": 8816,
    "Ġdrinking": 8817,
    "Ġthrown": 8818,
    "Ġmelt": 8819,
    "Ġfurry": 8820,
    "Ġopera": 8821,
    "Ġdec": 8822,
    "Ġpraised": 8823,
    "õ": 8824,
    "Ġmistake": 8825,
    "Ġmittens": 8826,
    "ĠGive": 8827,
    "ĠWally": 8828,
    "alk": 8829,
    "Ġtantrum": 8830,
    "Ġaeroplanes": 8831,
    "Ġweaker": 8832,
    "ves": 8833,
    "Ġlifts": 8834,
    "ĠBobby": 8835,
    "Ġtimid": 8836,
    "seph": 8837,
    "Ġunderstood": 8838,
    "Ġsilly": 8839,
    "Ġknocked": 8840,
    "Ġagreement": 8841,
    "Ġfishing": 8842,
    ",": 8843,
    "Ġwor": 8844,
    "Ġcoffee": 8845,
    "usted": 8846,
    "Ġlipstick": 8847,
    "Mon": 8848,
    "Ġputs": 8849,
    "Ġslammed": 8850,
    "Ġroaring": 8851,
    "ores": 8852,
    "Ġstadium": 8853,
    "Ġthoughts": 8854,
    "Ġstreets": 8855,
    "Ġhockey": 8856,
    "Ġburst": 8857,
    "Ġunited": 8858,
    "erpill": 8859,
    "Ġfavorite": 8860,
    "Ġpebbles": 8861,
    "snap": 8862,
    "qu": 8863,
    "Ġflav": 8864,
    "aked": 8865,
    "where": 8866,
    "Ġpainting": 8867,
    "Fly": 8868,
    "Ġworld": 8869,
    "Listen": 8870,
    "Ġtoday": 8871,
    "lu": 8872,
    "Ġhuman": 8873,
    "Ġwealth": 8874,
    "Ġbranch": 8875,
    "ths": 8876,
    "Ġlocal": 8877,
    "Ġvroom": 8878,
    "mies": 8879,
    "Ġshared": 8880,
    "ĠGreeny": 8881,
    "Ġthreads": 8882,
    "cious": 8883,
    "eese": 8884,
    "light": 8885,
    "Ġteacher": 8886,
    "Ġspider": 8887,
    "ĠDaisy": 8888,
    "Anne": 8889,
    "ĠHoney": 8890,
    "ellow": 8891,
    "ĠWendy": 8892,
    "Ġawhile": 8893,
    "Ġgrassy": 8894,
    "Any": 8895,
    "col": 8896,
    "Ġbookshelf": 8897,
    "ĠSad": 8898,
    "Ġgall": 8899,
    "Ġhappier": 8900,
    "Ġsuit": 8901,
    "ĠMiss": 8902,
    "reverse": 8903,
    "Luckily": 8904,
    "Ġcheck": 8905,
    "ĠAnimals": 8906,
    "Ġwaving": 8907,
    "by": 8908,
    "Ġhoping": 8909,
    "Ġgone": 8910,
    "Ġext": 8911,
    "Ġpainter": 8912,
    "ĠDotty": 8913,
    "known": 8914,
    "Ġguy": 8915,
    "Ġfireworks": 8916,
    "Ġanswered": 8917,
    "Ġsigned": 8918,
    "Ġsigh": 8919,
    "Ġtremble": 8920,
    "Ġswollen": 8921,
    "Ġstores": 8922,
    "Ġwow": 8923,
    "Ġshouldn": 8924,
    "Ġcamel": 8925,
    "Ġafterwards": 8926,
    "Ġchecks": 8927,
    "Ġwriggled": 8928,
    "Ġlazy": 8929,
    "Ġforth": 8930,
    "©": 8931,
    "Ġdisturbing": 8932,
    "Ġsquare": 8933,
    "Ġchoo": 8934,
    "ĠComet": 8935,
    "Ġdeter": 8936,
    "Ġoverwhel": 8937,
    "Ġstirred": 8938,
    "ĠJojo": 8939,
    "ant": 8940,
    "Ġproject": 8941,
    "Ġtwists": 8942,
    "Ducky": 8943,
    "Ġnature": 8944,
    "Im": 8945,
    "Everything": 8946,
    "Ġbakery": 8947,
    "Ġless": 8948,
    "Ġturtles": 8949,
    "ret": 8950,
    "Ġbald": 8951,
    "ĠPup": 8952,
    "Jessica": 8953,
    "Ġhelicopters": 8954,
    "To": 8955,
    "Ġrest": 8956,
    "M": 8957,
    "Ġspat": 8958,
    "ĠMike": 8959,
    "ĠBl": 8960,
    "Ġsilence": 8961,
    "ts": 8962,
    "Ġsecure": 8963,
    "Ġadults": 8964,
    "Ġdiscuss": 8965,
    "Maggie": 8966,
    "weed": 8967,
    "Ġcom": 8968,
    "ĠRalph": 8969,
    "Ġsprout": 8970,
    "Timmy": 8971,
    "Ġscrat": 8972,
    "Ġ'": 8973,
    "Ġquestions": 8974,
    "Ľ": 8975,
    "Ġsmiling": 8976,
    "ĠDad": 8977,
    "Ġse": 8978,
    "Ġpay": 8979,
    "ĠAbby": 8980,
    "Ġcompete": 8981,
    "Ġcomforting": 8982,
    "ibi": 8983,
    "Ġradio": 8984,
    "Ġheight": 8985,
    "Ġchews": 8986,
    "loe": 8987,
    "Ġscient": 8988,
    "Ġcreamy": 8989,
    "uing": 8990,
    "erts": 8991,
    "izing": 8992,
    "Ġspot": 8993,
    "Ġmighty": 8994,
    "ĠPrincess": 8995,
    "Ġshore": 8996,
    "Ġmixer": 8997,
    "Ġringing": 8998,
    "ĠBrian": 8999,
    "Papa": 9000,
    "re": 9001,
    "Ġflow": 9002,
    "Ġstudents": 9003,
    "Ġboxes": 9004,
    "Ġcart": 9005,
    "Ġrude": 9006,
    "Ġcleaner": 9007,
    "Ĺ": 9008,
    "Shoo": 9009,
    "uckily": 9010,
    "at": 9011,
    "Surrender": 9012,
    "ĠCh": 9013,
    "Ġsurrendered": 9014,
    "Ġlooking": 9015,
    "ety": 9016,
    "Ġfascinating": 9017,
    "inda": 9018,
    "Ġnurse": 9019,
    "Wake": 9020,
    "4": 9021,
    "Ġlistener": 9022,
    "ocked": 9023,
    "Ġtw": 9024,
    "Ġcrash": 9025,
    "Mr": 9026,
    "Ġphot": 9027,
    "Ġknock": 9028,
    "xible": 9029,
    "Ġvanilla": 9030,
    "Ġreceived": 9031,
    "ì": 9032,
    "ered": 9033,
    "irp": 9034,
    "Ġstamp": 9035,
    "ĠBoo": 9036,
    "ĠSplash": 9037,
    "Ġcousin": 9038,
    "ĠRatty": 9039,
    "Ġsandpit": 9040,
    "Ġflour": 9041,
    "ren": 9042,
    "ess": 9043,
    "ĠMimi": 9044,
    "Ġpeck": 9045,
    "Ġnightmares": 9046,
    "Ġwave": 9047,
    "Ġshaped": 9048,
    "Ġrock": 9049,
    "Ġagainst": 9050,
    "Ġbillboard": 9051,
    "Ġsee": 9052,
    "ĠPrince": 9053,
    "Ġdent": 9054,
    "Ġalthough": 9055,
    "Ġshovels": 9056,
    "iment": 9057,
    "Ġcrying": 9058,
    "ĠLia": 9059,
    "ĠBlack": 9060,
    "Ġcourt": 9061,
    "Ġwrit": 9062,
    "Ġexclaimed": 9063,
    "ighting": 9064,
    "Ġthing": 9065,
    "Ġwest": 9066,
    "Baa": 9067,
    "Ġscooters": 9068,
    "amber": 9069,
    "Ġsay": 9070,
    "Ġways": 9071,
    "kend": 9072,
    "please": 9073,
    "ig": 9074,
    "Ġlively": 9075,
    "Ġanchor": 9076,
    "eds": 9077,
    "',": 9078,
    "Ġstew": 9079,
    "Ġcapes": 9080,
    "Ġdiscovered": 9081,
    "Ġroared": 9082,
    "Ġago": 9083,
    "ĠBill": 9084,
    "adium": 9085,
    "Ġcovers": 9086,
    "Ġquacking": 9087,
    "ob": 9088,
    "Ġlily": 9089,
    "Ġtrotted": 9090,
    "llen": 9091,
    "Ġordered": 9092,
    "Ġcheeks": 9093,
    "Ġcustom": 9094,
    "Ġsweetest": 9095,
    "Near": 9096,
    "Ġbabies": 9097,
    "Ġenemy": 9098,
    "Ġdis": 9099,
    "Å": 9100,
    "½": 9101,
    "Ġsauce": 9102,
    "Jon": 9103,
    "keep": 9104,
    "Ì": 9105,
    "Ġdev": 9106,
    "Mummy": 9107,
    "Ġbracelet": 9108,
    "Ġsorting": 9109,
    "Ġspeak": 9110,
    "Ġhatched": 9111,
    "ĠJan": 9112,
    "llow": 9113,
    "anted": 9114,
    "Ġsing": 9115,
    "get": 9116,
    "Ġfocus": 9117,
    "que": 9118,
    "pot": 9119,
    "Ġtrembled": 9120,
    "Ġgrill": 9121,
    "Ġlongest": 9122,
    "uddenly": 9123,
    "Ġador": 9124,
    "Ġcompassion": 9125,
    "Ġsliding": 9126,
    "Ġactivities": 9127,
    "Ġreward": 9128,
    "Ġtaste": 9129,
    "Sunny": 9130,
    "Ġbold": 9131,
    "ude": 9132,
    "Andy": 9133,
    "Ġdrew": 9134,
    "Ġpouring": 9135,
    "Ġwrong": 9136,
    "rob": 9137,
    "Ġwhiskers": 9138,
    "Ġimproving": 9139,
    "Ġfreed": 9140,
    "Ġsus": 9141,
    "Ġjog": 9142,
    "Ġrule": 9143,
    "ĠGod": 9144,
    "Ġtune": 9145,
    "Ġinvit": 9146,
    "ummer": 9147,
    "match": 9148,
    "ir": 9149,
    "inal": 9150,
    "Ġkingdom": 9151,
    "Ġsmelt": 9152,
    "Ġfun": 9153,
    "Ġprize": 9154,
    "Birdy": 9155,
    "idence": 9156,
    "Ġgar": 9157,
    "Ġaloud": 9158,
    "Ġsleds": 9159,
    "Ġcannot": 9160,
    "Ġtidied": 9161,
    "Ġgarbage": 9162,
    "Ġescape": 9163,
    "ĠJune": 9164,
    "abies": 9165,
    "Ġfinished": 9166,
    "ü": 9167,
    "Ġcous": 9168,
    "Ġgifts": 9169,
    "Ġran": 9170,
    "Ġdon": 9171,
    "reeze": 9172,
    "Ġruining": 9173,
    "ĺ": 9174,
    "ĠHarry": 9175,
    "ĠMo": 9176,
    "side": 9177,
    "Ġfar": 9178,
    "Ġunw": 9179,
    "Ġlive": 9180,
    "ĠRace": 9181,
    "Ġdot": 9182,
    "ĠLaser": 9183,
    "Ġenvious": 9184,
    "Don": 9185,
    "looking": 9186,
    "Ġmoment": 9187,
    "azz": 9188,
    "Ġsafer": 9189,
    "Ġbead": 9190,
    "iginal": 9191,
    "Ġnotes": 9192,
    "Ġreind": 9193,
    "ĠJaney": 9194,
    "ĠLucky": 9195,
    "Ġhoses": 9196,
    "Ġregret": 9197,
    "Ġswe": 9198,
    "Ġspl": 9199,
    "Ġzigzags": 9200,
    "ĠClaire": 9201,
    "ve": 9202,
    "Gigi": 9203,
    "Ġrag": 9204,
    "Ġwinning": 9205,
    "Ġstays": 9206,
    "ĠMissile": 9207,
    "Ġzips": 9208,
    "Ġrespons": 9209,
    "Ġmailman": 9210,
    "Michael": 9211,
    "Ġmerma": 9212,
    "Ġsprink": 9213,
    "Harry": 9214,
    "ĠDuke": 9215,
    "ĠPo": 9216,
    "Ġslapped": 9217,
    "Ġbrains": 9218,
    "Ġbread": 9219,
    "Ġtoys": 9220,
    "Ġenergy": 9221,
    "uch": 9222,
    "è": 9223,
    "jamas": 9224,
    "Ġpop": 9225,
    "ĠZero": 9226,
    "Ġsquaw": 9227,
    "ults": 9228,
    "Ġsmooth": 9229,
    "Ġbaked": 9230,
    "Ġseveral": 9231,
    "Watch": 9232,
    "ĠJackie": 9233,
    "oon": 9234,
    "Ġachieved": 9235,
    "riage": 9236,
    "Ġdisc": 9237,
    "My": 9238,
    "Ġnorm": 9239,
    "Pat": 9240,
    "Ġtrust": 9241,
    "Ġsqueezing": 9242,
    "Ġtickets": 9243,
    "Ġweekend": 9244,
    "Ġdressing": 9245,
    "Ġkay": 9246,
    "Ġstu": 9247,
    "Ġlim": 9248,
    "Ġwhole": 9249,
    "How": 9250,
    "Ġuniversity": 9251,
    "Ġfound": 9252,
    "Who": 9253,
    "ĠGood": 9254,
    "Ġbelieving": 9255,
    "Ġfinds": 9256,
    "ĠBecause": 9257,
    "Ġfull": 9258,
    "Ġast": 9259,
    "bbie": 9260,
    "ĠShadow": 9261,
    "ĠZoomy": 9262,
    "Ġmuch": 9263,
    "ĠRoger": 9264,
    "Ġfloat": 9265,
    ";": 9266,
    "Ġmembers": 9267,
    "ā": 9268,
    "ris": 9269,
    "ĠPick": 9270,
    "Ġpoem": 9271,
    "Ġanyway": 9272,
    "orn": 9273,
    "Ġgiant": 9274,
    "Ġwe": 9275,
    "Ġbetween": 9276,
    "Ġstaying": 9277,
    "Ġselfish": 9278,
    "Ġdressed": 9279,
    "Ġwrites": 9280,
    "Jump": 9281,
    "Ġdays": 9282,
    "Ġfights": 9283,
    "ow": 9284,
    "ek": 9285,
    "Ġplayground": 9286,
    "very": 9287,
    "ĠStan": 9288,
    "Ġclassmates": 9289,
    "ĠSally": 9290,
    "Ġcompanion": 9291,
    "Ġlon": 9292,
    "Ġpermit": 9293,
    "ĠRaven": 9294,
    "Ġmarks": 9295,
    "ipment": 9296,
    "Ġdoorbell": 9297,
    "lyn": 9298,
    "Ġslip": 9299,
    "Ġquiz": 9300,
    "Ġsurrender": 9301,
    "Ġcheetah": 9302,
    "Ġthunder": 9303,
    "ĠMaria": 9304,
    "ĠSk": 9305,
    "Ġbravely": 9306,
    "war": 9307,
    "Ġm": 9308,
    "Ġcrops": 9309,
    "^": 9310,
    "Ġfrightened": 9311,
    "Ġpoison": 9312,
    "ĠHelen": 9313,
    "Squeaky": 9314,
    "Ġsnacks": 9315,
    "amma": 9316,
    "Ġconn": 9317,
    "Ġbluebird": 9318,
    "Ġcave": 9319,
    "Ġspend": 9320,
    "Ġegg": 9321,
    "Ġvines": 9322,
    "Ġtrembling": 9323,
    "Fire": 9324,
    "Ġpotion": 9325,
    "Ġfood": 9326,
    "Ġwrite": 9327,
    "See": 9328,
    "Ġsurrounded": 9329,
    "ĠTuna": 9330,
    "Ġpretty": 9331,
    "Ġgrat": 9332,
    "ĠTiny": 9333,
    "Ġscold": 9334,
    "ĠEx": 9335,
    "Ġrefrigerator": 9336,
    "Ġhooves": 9337,
    "ĠFu": 9338,
    "joy": 9339,
    "Ġallowed": 9340,
    "Ġgrabs": 9341,
    "Ġmakeup": 9342,
    "acles": 9343,
    "Ġcirc": 9344,
    "Ġbeen": 9345,
    "Ġfills": 9346,
    "Ġzebras": 9347,
    "Ġyielded": 9348,
    "ino": 9349,
    "Josh": 9350,
    "Ġdrawings": 9351,
    "Ġtelling": 9352,
    "Ġhurry": 9353,
    "Ġmean": 9354,
    "Ġscraped": 9355,
    "Ġgoes": 9356,
    "Buddy": 9357,
    "usion": 9358,
    "Ġrid": 9359,
    "Ġblinked": 9360,
    "Ġobedient": 9361,
    "Ġbar": 9362,
    "ĠOliver": 9363,
    "ĠLion": 9364,
    "Ġencount": 9365,
    "Ġcaterpillars": 9366,
    "Ġpencils": 9367,
    "Ġsurround": 9368,
    "Ġbelongs": 9369,
    "ĠBug": 9370,
    "Ġitch": 9371,
    "ale": 9372,
    "Ġrat": 9373,
    "ney": 9374,
    "ĠGlow": 9375,
    "Ġcupcake": 9376,
    "port": 9377,
    "Ġsweaters": 9378,
    "hip": 9379,
    "Unfortunately": 9380,
    "inking": 9381,
    "ĠAuntie": 9382,
    "Ġwaves": 9383,
    "istol": 9384,
    "ĠYoga": 9385,
    "Ġzipp": 9386,
    "Ġhidden": 9387,
    "Ġseeing": 9388,
    "elvet": 9389,
    "Ġjacket": 9390,
    "Ġdragonfly": 9391,
    "Ġmints": 9392,
    "Ġprovided": 9393,
    "Ġnod": 9394,
    "ca": 9395,
    "Ġalien": 9396,
    "Kayla": 9397,
    "\".": 9398,
    "Ġargue": 9399,
    "blings": 9400,
    "Ġret": 9401,
    "ord": 9402,
    "That": 9403,
    "Ġdolph": 9404,
    "Ġgoggles": 9405,
    "Ġgra": 9406,
    "Ġring": 9407,
    "Ġtakes": 9408,
    "Ġtigers": 9409,
    "Ġcolour": 9410,
    "Binky": 9411,
    "Ġmeasure": 9412,
    "ays": 9413,
    "Ġrecording": 9414,
    "Ġstung": 9415,
    "Ġemb": 9416,
    "Ġtallest": 9417,
    "aggie": 9418,
    "Ġfunny": 9419,
    "Ġjumps": 9420,
    "Ġsuch": 9421,
    "Ġmaster": 9422,
    "Ġround": 9423,
    "Ġkangaroo": 9424,
    "Ġbanging": 9425,
    "Ġdetermined": 9426,
    "while": 9427,
    "aker": 9428,
    "Ġtasty": 9429,
    "Ġshocked": 9430,
    "Ġsuits": 9431,
    "Ġalligators": 9432,
    "Ķ": 9433,
    "Ġpeel": 9434,
    "Ġbarely": 9435,
    "Ġneigh": 9436,
    "Ġintroduc": 9437,
    "Ġdo": 9438,
    "Ġgir": 9439,
    "ĠFish": 9440,
    "orter": 9441,
    "Ġpedals": 9442,
    "Ġstill": 9443,
    "Ġmuff": 9444,
    "Ġbride": 9445,
    "Ġrooms": 9446,
    "Ġaren": 9447,
    "Ġfries": 9448,
    "keeper": 9449,
    "Ġeveryday": 9450,
    "ĠPop": 9451,
    "Ġmiracle": 9452,
    "Ġsale": 9453,
    "luffy": 9454,
    "ĠTodd": 9455,
    "Ġtell": 9456,
    "Ġbott": 9457,
    "Ġveggies": 9458,
    "Ġdisaster": 9459,
    "ctric": 9460,
    "arian": 9461,
    "Magic": 9462,
    "case": 9463,
    "Ġhipp": 9464,
    "Ġfrustr": 9465,
    "usty": 9466,
    "Ġstrings": 9467,
    "Ġleather": 9468,
    "Ġapart": 9469,
    "Ġslid": 9470,
    "Ġskills": 9471,
    "Ġcompetition": 9472,
    "]": 9473,
    "len": 9474,
    "Ġinsects": 9475,
    "Ġthroughout": 9476,
    "jam": 9477,
    "ĠDot": 9478,
    "Ġpresents": 9479,
    "Ġdi": 9480,
    "ĠMelissa": 9481,
    "Ġsoftly": 9482,
    "Ġfact": 9483,
    "Brrr": 9484,
    "ĠSorry": 9485,
    "Outside": 9486,
    "Ġpulling": 9487,
    "Ġclearing": 9488,
    "Ġbuddy": 9489,
    "Ġscoot": 9490,
    "anda": 9491,
    "Ġcleaned": 9492,
    "Ġmotor": 9493,
    "Ġher": 9494,
    "Ġworrying": 9495,
    "getic": 9496,
    "Ġraindrops": 9497,
    "Ġtasted": 9498,
    "Ġjoke": 9499,
    "ĠCoco": 9500,
    "ink": 9501,
    "Ġline": 9502,
    "cery": 9503,
    "Ġwoods": 9504,
    "ĠRel": 9505,
    "pid": 9506,
    "Ġsparkling": 9507,
    "Ġwelc": 9508,
    "Ġwedding": 9509,
    "Ġflight": 9510,
    "immer": 9511,
    "Ġant": 9512,
    "Ġmat": 9513,
    "Ġclearly": 9514,
    "Ġradishes": 9515,
    "fit": 9516,
    "Ġguns": 9517,
    "Ġbeing": 9518,
    "sit": 9519,
    "lc": 9520,
    "father": 9521,
    "Ġpromised": 9522,
    "'d": 9523,
    "led": 9524,
    "Ġcou": 9525,
    "cie": 9526,
    "Ġdreams": 9527,
    "urp": 9528,
    "Ġswapped": 9529,
    "Ġpale": 9530,
    "ĠShe": 9531,
    "Ġdiscover": 9532,
    "Ġuns": 9533,
    "ĠSnow": 9534,
    "Ġmice": 9535,
    "Ā": 9536,
    "Ġwept": 9537,
    "Ġtowels": 9538,
    "ĠQuickly": 9539,
    "ought": 9540,
    "ĠCo": 9541,
    "Ġchopping": 9542,
    "ito": 9543,
    "Ġperformed": 9544,
    "Ġgenerous": 9545,
    "Ġofficer": 9546,
    "Ġfire": 9547,
    "ather": 9548,
    "ult": 9549,
    "saw": 9550,
    "Ġyelp": 9551,
    "Ġfaded": 9552,
    "Ġhum": 9553,
    "Ġpra": 9554,
    "Ġbeep": 9555,
    "Ġbathe": 9556,
    "Ġbehavi": 9557,
    "Ġtricycle": 9558,
    "night": 9559,
    "udy": 9560,
    "Ġalone": 9561,
    "tuce": 9562,
    "Ġmood": 9563,
    "Ġlime": 9564,
    "ĠRover": 9565,
    "lex": 9566,
    "Ġguest": 9567,
    "Ġsolution": 9568,
    "Ġcookies": 9569,
    "Rose": 9570,
    "bed": 9571,
    "Ġmovements": 9572,
    "Ġchallen": 9573,
    "amboo": 9574,
    "Ġbrand": 9575,
    "Ġgears": 9576,
    "Ġmiserable": 9577,
    "Ġtramp": 9578,
    "ack": 9579,
    "Ġjewelry": 9580,
    "Ġextraordinary": 9581,
    "Ġrub": 9582,
    "ĠJill": 9583,
    "Ġsplas": 9584,
    "hole": 9585,
    "Ġloving": 9586,
    "ĠIzzy": 9587,
    "Ġconnect": 9588,
    "ĠBella": 9589,
    "Ġba": 9590,
    "Ġwalked": 9591,
    "Ġkeeping": 9592,
    "ĠSkip": 9593,
    "ides": 9594,
    "cient": 9595,
    "Ġbeehive": 9596,
    "Ġwife": 9597,
    "ate": 9598,
    "Cindy": 9599,
    "pec": 9600,
    "ible": 9601,
    "Ġdreamt": 9602,
    "ĠChew": 9603,
    "Ġwrap": 9604,
    "Ġnosy": 9605,
    "pr": 9606,
    "broken": 9607,
    "Ġhawk": 9608,
    "Ġsmart": 9609,
    "ĠJazz": 9610,
    "Ġrefreshing": 9611,
    "ĠSarah": 9612,
    "ĠOllie": 9613,
    "Ġguessed": 9614,
    "Ġlollipops": 9615,
    "Ġcleared": 9616,
    "Ġdishwasher": 9617,
    "Ġsoup": 9618,
    "ways": 9619,
    "Ġhouses": 9620,
    "Ġspringing": 9621,
    "Ġgrumbled": 9622,
    "Ġsnugg": 9623,
    "Ġbravery": 9624,
    "Ġcape": 9625,
    "Ġimpressed": 9626,
    "oggy": 9627,
    "Ġanother": 9628,
    "Ġgent": 9629,
    "Ġteaspoon": 9630,
    "cat": 9631,
    "Ġfinish": 9632,
    "ission": 9633,
    "Ç": 9634,
    "ĠShark": 9635,
    "Close": 9636,
    "Abracadabra": 9637,
    "ĠFire": 9638,
    "rm": 9639,
    "Ġbuttons": 9640,
    "Ġcarries": 9641,
    "Ġonion": 9642,
    "Liz": 9643,
    "Ġcontro": 9644,
    "Ġwarri": 9645,
    "Ġreappeared": 9646,
    "Ġon": 9647,
    "Ġshell": 9648,
    "Ġuniform": 9649,
    "anwhile": 9650,
    "Ġlaptop": 9651,
    "Ġrack": 9652,
    "Ġrespectful": 9653,
    "Ġtrade": 9654,
    "ening": 9655,
    "choo": 9656,
    "ĠJeff": 9657,
    "ity": 9658,
    "Ġtrick": 9659,
    "Ġpoked": 9660,
    "Ġanswer": 9661,
    "Ġresults": 9662,
    "Ġforehead": 9663,
    "Ġloop": 9664,
    "Welcome": 9665,
    "alf": 9666,
    "ĠGogo": 9667,
    "Ġdra": 9668,
    "Ġobjects": 9669,
    "Ġoriginal": 9670,
    "..": 9671,
    "Ġinto": 9672,
    "Ġqueens": 9673,
    "Ġpolitely": 9674,
    "Ġbarn": 9675,
    "Ġknight": 9676,
    "ĠSun": 9677,
    "Ġcaterpillar": 9678,
    "Ŀ": 9679,
    "Ġdesserts": 9680,
    "Ġdied": 9681,
    "Ġenter": 9682,
    "Ġfro": 9683,
    "Ġvendor": 9684,
    "Ġopinion": 9685,
    "ĠKayla": 9686,
    "Ġign": 9687,
    "ï": 9688,
    "Ġspring": 9689,
    "Ġnectar": 9690,
    "Ġturt": 9691,
    "Ġimpress": 9692,
    "Ġmild": 9693,
    "Ġpond": 9694,
    "Ġscr": 9695,
    "Ġresp": 9696,
    "Ġappreciate": 9697,
    "allow": 9698,
    "iki": 9699,
    "Ġshoo": 9700,
    "True": 9701,
    "Ġax": 9702,
    "Ġrazor": 9703,
    "Ġbouncing": 9704,
    "Ġswayed": 9705,
    "Ġbrightest": 9706,
    "ĠBetsy": 9707,
    "Follow": 9708,
    "ĠSleep": 9709,
    "ĠT": 9710,
    "Ġinvited": 9711,
    "its": 9712,
    "Ġincrease": 9713,
    "Ġshouting": 9714,
    "Somet": 9715,
    "Ġlots": 9716,
    "ak": 9717,
    "ind": 9718,
    "Ġshiny": 9719,
    "ubby": 9720,
    "ĠPlaying": 9721,
    "Ġtelephone": 9722,
    "Ġwh": 9723,
    "Ġband": 9724,
    "Ġexpress": 9725,
    "Ġjoins": 9726,
    "Johnny": 9727,
    "raged": 9728,
    "ĠFighting": 9729,
    "Ġbrus": 9730,
    "Ġcaterpill": 9731,
    "Ġprinter": 9732,
    "Ġslipping": 9733,
    "Ġlicking": 9734,
    "Ġmail": 9735,
    "opl": 9736,
    "uno": 9737,
    "welcome": 9738,
    "Ġbrid": 9739,
    "Ġinches": 9740,
    "Ġone": 9741,
    "Ġheavy": 9742,
    "fortable": 9743,
    "Ġsucceeded": 9744,
    "Ġfam": 9745,
    "reek": 9746,
    "Ġcrane": 9747,
    "Ġmuffin": 9748,
    "Ġrained": 9749,
    "Ġbear": 9750,
    "ever": 9751,
    "Ġact": 9752,
    "Ġmarked": 9753,
    "eor": 9754,
    "ades": 9755,
    "ĠBaby": 9756,
    "ĠâĢĶ": 9757,
    "Ġlemonade": 9758,
    "Ġatt": 9759,
    "Ġplate": 9760,
    "Ġthrew": 9761,
    "Ġcarrots": 9762,
    "Ġstudy": 9763,
    "Ġcenter": 9764,
    "erp": 9765,
    "Ġties": 9766,
    "ç": 9767,
    "Not": 9768,
    "Ġclumsy": 9769,
    "itches": 9770,
    "Ġresc": 9771,
    "oomy": 9772,
    "ila": 9773,
    "ĠPipp": 9774,
    "Ġkittens": 9775,
    "inger": 9776,
    "ĠCaptain": 9777,
    "Ġsadder": 9778,
    "Ġcost": 9779,
    "Ġwag": 9780,
    "Lila": 9781,
    "Ġhappening": 9782,
    "Ġresisted": 9783,
    "Every": 9784,
    "ĠPeggy": 9785,
    "Ġits": 9786,
    "isy": 9787,
    "Ġtoy": 9788,
    "Ġduck": 9789,
    "live": 9790,
    "Ġno": 9791,
    "rosty": 9792,
    "Ġtri": 9793,
    "Ġsunset": 9794,
    "ĠMama": 9795,
    "Le": 9796,
    "ibb": 9797,
    "ie": 9798,
    "Ġbark": 9799,
    "tain": 9800,
    "Pipp": 9801,
    "aty": 9802,
    "Ġpointed": 9803,
    "Ġplayer": 9804,
    "ĠDay": 9805,
    "Ġdrying": 9806,
    "#": 9807,
    "Ġvisitors": 9808,
    "Ġhiss": 9809,
    "Ġforgets": 9810,
    "Ġalways": 9811,
    "Ġcross": 9812,
    "ĠPatty": 9813,
    "Ġsensation": 9814,
    "Ġstubb": 9815,
    "Ġfresh": 9816,
    "Ġplucked": 9817,
    "Ġcher": 9818,
    "Ġkeep": 9819,
    "ĠSpeed": 9820,
    "to": 9821,
    "Ġwinter": 9822,
    "Go": 9823,
    "Ġchoice": 9824,
    "Ġboss": 9825,
    "Ġice": 9826,
    "ass": 9827,
    "iches": 9828,
    "rag": 9829,
    "Ġprun": 9830,
    "Ġpaddled": 9831,
    "Ġruined": 9832,
    "ĠWhat": 9833,
    "Ġglasses": 9834,
    "Ġhissing": 9835,
    "Ġcousins": 9836,
    "Ġranger": 9837,
    "ounced": 9838,
    "Ġbak": 9839,
    "Together": 9840,
    "ĠJason": 9841,
    "Ġprincesses": 9842,
    "Ġbig": 9843,
    "Ġglue": 9844,
    "Tom": 9845,
    "cer": 9846,
    "Ġhotter": 9847,
    "St": 9848,
    "Ġchocolate": 9849,
    "ĠOut": 9850,
    "Ġaprons": 9851,
    "ĠBee": 9852,
    "Ġbu": 9853,
    "Ġwriting": 9854,
    "Ġpol": 9855,
    "Ġnumbers": 9856,
    "obile": 9857,
    "Ġhips": 9858,
    "Ġall": 9859,
    "aud": 9860,
    "Ġword": 9861,
    "Ġblock": 9862,
    "apped": 9863,
    "ĠHowever": 9864,
    "Ġaround": 9865,
    "Ġneed": 9866,
    "Ġhaird": 9867,
    "Ġgeese": 9868,
    "Ġmuscles": 9869,
    "eared": 9870,
    "irac": 9871,
    "ĠJessie": 9872,
    "Ġscooter": 9873,
    "Ġpebb": 9874,
    "ĠPast": 9875,
    "Ď": 9876,
    "Doggy": 9877,
    "ĠDizzy": 9878,
    "asty": 9879,
    "ĠMaya": 9880,
    "ĠTe": 9881,
    "Ġsuffer": 9882,
    "ĠC": 9883,
    "Afterwards": 9884,
    "opter": 9885,
    "Ġkinder": 9886,
    "urn": 9887,
    "Ġbathrobe": 9888,
    "Ġsuc": 9889,
    "Mo": 9890,
    "Ġchased": 9891,
    "Ġblankets": 9892,
    "Ġlearned": 9893,
    "mbre": 9894,
    "Ġfruits": 9895,
    "Ġhigh": 9896,
    "Ġcrayons": 9897,
    "Ġsniffing": 9898,
    "N": 9899,
    "screen": 9900,
    "Ġpillows": 9901,
    "Ġab": 9902,
    "Ġfierce": 9903,
    "Ġcouple": 9904,
    "inkle": 9905,
    "Ġemerged": 9906,
    "Ġas": 9907,
    "selves": 9908,
    "Ġvalu": 9909,
    "Ġvillage": 9910,
    "ably": 9911,
    "Ġfloats": 9912,
    "rey": 9913,
    "Þ": 9914,
    "Ġminutes": 9915,
    "iversity": 9916,
    "Ġthr": 9917,
    "Ġvis": 9918,
    "annah": 9919,
    "ĠThat": 9920,
    "Ġnets": 9921,
    "ĠEnd": 9922,
    "ĠZara": 9923,
    "Ġlearning": 9924,
    "Ġtrophy": 9925,
    "Ġmov": 9926,
    "×": 9927,
    "ĠPut": 9928,
    "Ġadm": 9929,
    "Ġswept": 9930,
    "Ġste": 9931,
    "Ġro": 9932,
    "Ġstruck": 9933,
    "ivi": 9934,
    "Billy": 9935,
    "ĠV": 9936,
    "Ġtaps": 9937,
    "Ġshap": 9938,
    "ting": 9939,
    "Ġpinch": 9940,
    "Ġblack": 9941,
    "Ġhope": 9942,
    "Ĕ": 9943,
    "Ġdesigns": 9944,
    "Ġansw": 9945,
    "lee": 9946,
    "Ġturns": 9947,
    "off": 9948,
    "Ġribbit": 9949,
    "Ġpermission": 9950,
    "Ġelectricity": 9951,
    "ĠMila": 9952,
    "Ġcreat": 9953,
    "ĠMatilda": 9954,
    "Ġstrangers": 9955,
    "Ġrelief": 9956,
    "Ġonions": 9957,
    "Ġshiver": 9958,
    "ĠSqueaky": 9959,
    "Ġpretended": 9960,
    "Ġcare": 9961,
    "Ġplayhouse": 9962,
    "alth": 9963,
    "Ġkindness": 9964,
    "Ġmysterious": 9965,
    "ccoli": 9966,
    "Ġunderstands": 9967,
    "Ġability": 9968,
    "Ġgrowls": 9969,
    "Ġaimed": 9970,
    "Ġgiggles": 9971,
    "Ġpar": 9972,
    "Ġswaying": 9973,
    "years": 9974,
    "ĠClimb": 9975,
    "ĠHolly": 9976,
    "adow": 9977,
    "Ġroar": 9978,
    "Ġsprang": 9979,
    "Ġfake": 9980,
    "Ġsame": 9981,
    "ĠMomo": 9982,
    "ĠRudy": 9983,
    "Ġofficers": 9984,
    "Ġrobot": 9985,
    "Ġwraps": 9986,
    "ĠBluey": 9987,
    "Ġview": 9988,
    "Ġcooperate": 9989,
    "Ġthen": 9990,
    "ears": 9991,
    "Ġcalendar": 9992,
    "Ġcard": 9993,
    "Ġprune": 9994,
    "Ġgo": 9995,
    ".'": 9996,
    "rn": 9997,
    "Ġbathtub": 9998,
    "Ġhung": 9999
}